<?xml version="1.0"?>
<MethodSetup Method="BDT::BDTG">
  <GeneralInfo>
    <Info name="TMVA Release" value="4.2.0 [262656]"/>
    <Info name="ROOT Release" value="6.02/05 [393733]"/>
    <Info name="Creator" value="kelmorab"/>
    <Info name="Date" value="Sat Apr  1 12:34:19 2017"/>
    <Info name="Host" value="Linux cmsbuild12.cern.ch 2.6.32-573.7.1.el6.x86_64 #1 SMP Wed Sep 23 10:12:03 CEST 2015 x86_64 x86_64 x86_64 GNU/Linux"/>
    <Info name="Dir" value="/nfs/dust/cms/user/kelmorab/Spring17Training/3makeHistosAndCards"/>
    <Info name="Training events" value="21763"/>
    <Info name="TrainingTime" value="2.38652580e+01"/>
    <Info name="AnalysisType" value="Classification"/>
  </GeneralInfo>
  <Options>
    <Option name="V" modified="Yes">False</Option>
    <Option name="VerbosityLevel" modified="No">Default</Option>
    <Option name="VarTransform" modified="No">None</Option>
    <Option name="H" modified="Yes">False</Option>
    <Option name="CreateMVAPdfs" modified="No">False</Option>
    <Option name="IgnoreNegWeightsInTraining" modified="No">False</Option>
    <Option name="NTrees" modified="Yes">507</Option>
    <Option name="MaxDepth" modified="Yes">2</Option>
    <Option name="MinNodeSize" modified="No">5%</Option>
    <Option name="nCuts" modified="Yes">47</Option>
    <Option name="BoostType" modified="Yes">Grad</Option>
    <Option name="AdaBoostR2Loss" modified="No">quadratic</Option>
    <Option name="UseBaggedBoost" modified="Yes">True</Option>
    <Option name="Shrinkage" modified="Yes">2.280000e-02</Option>
    <Option name="AdaBoostBeta" modified="No">5.000000e-01</Option>
    <Option name="UseRandomisedTrees" modified="No">False</Option>
    <Option name="UseNvars" modified="No">3</Option>
    <Option name="UsePoissonNvars" modified="No">True</Option>
    <Option name="BaggedSampleFraction" modified="No">5.710000e-01</Option>
    <Option name="UseYesNoLeaf" modified="No">True</Option>
    <Option name="NegWeightTreatment" modified="Yes">ignorenegweightsintraining</Option>
    <Option name="Css" modified="No">1.000000e+00</Option>
    <Option name="Cts_sb" modified="No">1.000000e+00</Option>
    <Option name="Ctb_ss" modified="No">1.000000e+00</Option>
    <Option name="Cbb" modified="No">1.000000e+00</Option>
    <Option name="NodePurityLimit" modified="No">5.000000e-01</Option>
    <Option name="SeparationType" modified="No">giniindex</Option>
    <Option name="DoBoostMonitor" modified="No">False</Option>
    <Option name="UseFisherCuts" modified="No">False</Option>
    <Option name="MinLinCorrForFisher" modified="No">8.000000e-01</Option>
    <Option name="UseExclusiveVars" modified="No">False</Option>
    <Option name="DoPreselection" modified="No">False</Option>
    <Option name="SigToBkgFraction" modified="No">1.000000e+00</Option>
    <Option name="PruneMethod" modified="No">nopruning</Option>
    <Option name="PruneStrength" modified="No">0.000000e+00</Option>
    <Option name="PruningValFraction" modified="No">5.000000e-01</Option>
    <Option name="nEventsMin" modified="No">0</Option>
    <Option name="UseBaggedGrad" modified="No">False</Option>
    <Option name="GradBaggingFraction" modified="Yes">5.710000e-01</Option>
    <Option name="UseNTrainEvents" modified="No">0</Option>
    <Option name="NNodesMax" modified="No">0</Option>
  </Options>
  <Variables NVar="10">
    <Variable VarIndex="0" Expression="blr_transformed" Label="blr_transformed" Title="blr_transformed" Unit="" Internal="blr_transformed" Type="F" Min="-2.34235859e+00" Max="1.21112623e+01"/>
    <Variable VarIndex="1" Expression="best_higgs_mass" Label="best_higgs_mass" Title="best_higgs_mass" Unit="" Internal="best_higgs_mass" Type="F" Min="1.90024395e+01" Max="3.52804443e+03"/>
    <Variable VarIndex="2" Expression="Evt_Deta_JetsAverage" Label="Evt_Deta_JetsAverage" Title="Evt_Deta_JetsAverage" Unit="" Internal="Evt_Deta_JetsAverage" Type="F" Min="1.26784593e-01" Max="2.38569260e+00"/>
    <Variable VarIndex="3" Expression="avg_dr_tagged_jets" Label="avg_dr_tagged_jets" Title="avg_dr_tagged_jets" Unit="" Internal="avg_dr_tagged_jets" Type="F" Min="6.72012627e-01" Max="3.85406351e+00"/>
    <Variable VarIndex="4" Expression="closest_tagged_dijet_mass" Label="closest_tagged_dijet_mass" Title="closest_tagged_dijet_mass" Unit="" Internal="closest_tagged_dijet_mass" Type="F" Min="1.69600582e+01" Max="7.53045471e+02"/>
    <Variable VarIndex="5" Expression="aplanarity" Label="aplanarity" Title="aplanarity" Unit="" Internal="aplanarity" Type="F" Min="9.42332088e-04" Max="4.45027351e-01"/>
    <Variable VarIndex="6" Expression="Mlb" Label="Mlb" Title="Mlb" Unit="" Internal="Mlb" Type="F" Min="1.49829006e+01" Max="7.01551331e+02"/>
    <Variable VarIndex="7" Expression="avg_btag_disc_btags" Label="avg_btag_disc_btags" Title="avg_btag_disc_btags" Unit="" Internal="avg_btag_disc_btags" Type="F" Min="8.59224141e-01" Max="9.98949230e-01"/>
    <Variable VarIndex="8" Expression="dEta_fn" Label="dEta_fn" Title="dEta_fn" Unit="" Internal="dEta_fn" Type="F" Min="5.45198796e-03" Max="6.67456579e+00"/>
    <Variable VarIndex="9" Expression="all_sum_pt_with_met" Label="all_sum_pt_with_met" Title="all_sum_pt_with_met" Unit="" Internal="all_sum_pt_with_met" Type="F" Min="2.86914948e+02" Max="3.82525879e+03"/>
  </Variables>
  <Spectators NSpec="0"/>
  <Classes NClass="2">
    <Class Name="Signal" Index="0"/>
    <Class Name="Background" Index="1"/>
  </Classes>
  <Transformations NTransformations="0"/>
  <MVAPdfs/>
  <Weights NTrees="507" AnalysisType="1">
    <BinaryTree type="DecisionTree" boostWeight="1.0000000000000000e+00" itree="0">
      <Node pos="s" depth="0" NCoef="0" IVar="3" Cut="2.3597195148468018e+00" cType="1" res="4.3721767142415047e-03" rms="4.9998089671134949e-01" purity="5.0437217950820923e-01" nType="0">
        <Node pos="l" depth="1" NCoef="0" IVar="0" Cut="6.5964746475219727e+00" cType="1" res="7.0703417062759399e-02" rms="4.9497577548027039e-01" purity="5.7070344686508179e-01" nType="0">
          <Node pos="l" depth="2" NCoef="0" IVar="-1" Cut="0.0000000000000000e+00" cType="1" res="-1.6858363524079323e-03" rms="4.9796783924102783e-01" purity="4.5496615767478943e-01" nType="-99"/>
          <Node pos="r" depth="2" NCoef="0" IVar="-1" Cut="0.0000000000000000e+00" cType="1" res="5.8644418604671955e-03" rms="4.8081111907958984e-01" purity="6.3718837499618530e-01" nType="-99"/>
        </Node>
        <Node pos="r" depth="1" NCoef="0" IVar="7" Cut="9.5206481218338013e-01" cType="1" res="-1.8819381296634674e-01" rms="4.6323114633560181e-01" purity="3.1180617213249207e-01" nType="0">
          <Node pos="l" depth="2" NCoef="0" IVar="-1" Cut="0.0000000000000000e+00" cType="1" res="-8.8491505011916161e-03" rms="4.2972654104232788e-01" purity="2.4439267814159393e-01" nType="-99"/>
          <Node pos="r" depth="2" NCoef="0" IVar="-1" Cut="0.0000000000000000e+00" cType="1" res="-3.9583127945661545e-03" rms="4.8999068140983582e-01" purity="4.0045535564422607e-01" nType="-99"/>
        </Node>
      </Node>
    </BinaryTree>
    <BinaryTree type="DecisionTree" boostWeight="1.0000000000000000e+00" itree="1">
      <Node pos="s" depth="0" NCoef="0" IVar="3" Cut="2.3754751682281494e+00" cType="1" res="4.3176678009331226e-03" rms="4.9920776486396790e-01" purity="5.0463682413101196e-01" nType="0">
        <Node pos="l" depth="1" NCoef="0" IVar="0" Cut="7.0673289299011230e+00" cType="1" res="6.7386336624622345e-02" rms="4.9488842487335205e-01" purity="5.6885641813278198e-01" nType="0">
          <Node pos="l" depth="2" NCoef="0" IVar="-1" Cut="0.0000000000000000e+00" cType="1" res="-1.1032323818653822e-03" rms="4.9903622269630432e-01" purity="4.7142723202705383e-01" nType="-99"/>
          <Node pos="r" depth="2" NCoef="0" IVar="-1" Cut="0.0000000000000000e+00" cType="1" res="7.0905429311096668e-03" rms="4.7152978181838989e-01" purity="6.6630262136459351e-01" nType="-99"/>
        </Node>
        <Node pos="r" depth="1" NCoef="0" IVar="2" Cut="1.3077292442321777e+00" cType="1" res="-1.9654485583305359e-01" rms="4.5811524987220764e-01" purity="3.0010896921157837e-01" nType="0">
          <Node pos="l" depth="2" NCoef="0" IVar="-1" Cut="0.0000000000000000e+00" cType="1" res="-3.6601093597710133e-03" rms="4.8964071273803711e-01" purity="3.9967229962348938e-01" nType="-99"/>
          <Node pos="r" depth="2" NCoef="0" IVar="-1" Cut="0.0000000000000000e+00" cType="1" res="-9.1567356139421463e-03" rms="4.2807465791702271e-01" purity="2.4194052815437317e-01" nType="-99"/>
        </Node>
      </Node>
    </BinaryTree>
    <BinaryTree type="DecisionTree" boostWeight="1.0000000000000000e+00" itree="2">
      <Node pos="s" depth="0" NCoef="0" IVar="3" Cut="2.3435363769531250e+00" cType="1" res="-1.0699239792302251e-03" rms="4.9851992726325989e-01" purity="4.9949082732200623e-01" nType="0">
        <Node pos="l" depth="1" NCoef="0" IVar="0" Cut="7.7215805053710938e+00" cType="1" res="6.2624879181385040e-02" rms="4.9502062797546387e-01" purity="5.6567925214767456e-01" nType="0">
          <Node pos="l" depth="2" NCoef="0" IVar="-1" Cut="0.0000000000000000e+00" cType="1" res="1.1352802539477125e-04" rms="4.9963790178298950e-01" purity="5.0414651632308960e-01" nType="-99"/>
          <Node pos="r" depth="2" NCoef="0" IVar="-1" Cut="0.0000000000000000e+00" cType="1" res="7.7542774379253387e-03" rms="4.6554669737815857e-01" purity="6.8239045143127441e-01" nType="-99"/>
        </Node>
        <Node pos="r" depth="1" NCoef="0" IVar="7" Cut="9.5879787206649780e-01" cType="1" res="-1.7105340957641602e-01" rms="4.6698930859565735e-01" purity="3.2285258173942566e-01" nType="0">
          <Node pos="l" depth="2" NCoef="0" IVar="-1" Cut="0.0000000000000000e+00" cType="1" res="-8.0929491668939590e-03" rms="4.4157138466835022e-01" purity="2.6600596308708191e-01" nType="-99"/>
          <Node pos="r" depth="2" NCoef="0" IVar="-1" Cut="0.0000000000000000e+00" cType="1" res="-2.2627573926001787e-03" rms="4.9593538045883179e-01" purity="4.4036626815795898e-01" nType="-99"/>
        </Node>
      </Node>
    </BinaryTree>
    <BinaryTree type="DecisionTree" boostWeight="1.0000000000000000e+00" itree="3">
      <Node pos="s" depth="0" NCoef="0" IVar="2" Cut="1.0788320302963257e+00" cType="1" res="-1.1230898089706898e-02" rms="4.9770060181617737e-01" purity="4.8941141366958618e-01" nType="0">
        <Node pos="l" depth="1" NCoef="0" IVar="0" Cut="7.0252447128295898e+00" cType="1" res="9.5733731985092163e-02" rms="4.8880285024642944e-01" purity="5.9952676296234131e-01" nType="0">
          <Node pos="l" depth="2" NCoef="0" IVar="-1" Cut="0.0000000000000000e+00" cType="1" res="1.2146415247116238e-04" rms="4.9974286556243896e-01" purity="5.0187462568283081e-01" nType="-99"/>
          <Node pos="r" depth="2" NCoef="0" IVar="-1" Cut="0.0000000000000000e+00" cType="1" res="7.6982136815786362e-03" rms="4.6420532464981079e-01" purity="6.8468159437179565e-01" nType="-99"/>
        </Node>
        <Node pos="r" depth="1" NCoef="0" IVar="7" Cut="9.3961322307586670e-01" cType="1" res="-1.0892328619956970e-01" rms="4.8551958799362183e-01" purity="3.8884142041206360e-01" nType="0">
          <Node pos="l" depth="2" NCoef="0" IVar="-1" Cut="0.0000000000000000e+00" cType="1" res="-8.0959601327776909e-03" rms="4.3596294522285461e-01" purity="2.5689187645912170e-01" nType="-99"/>
          <Node pos="r" depth="2" NCoef="0" IVar="-1" Cut="0.0000000000000000e+00" cType="1" res="-1.5846657333895564e-03" rms="4.9683767557144165e-01" purity="4.6036335825920105e-01" nType="-99"/>
        </Node>
      </Node>
    </BinaryTree>
    <BinaryTree type="DecisionTree" boostWeight="1.0000000000000000e+00" itree="4">
      <Node pos="s" depth="0" NCoef="0" IVar="3" Cut="2.4099137783050537e+00" cType="1" res="-2.8273935895413160e-03" rms="4.9709209799766541e-01" purity="4.9782118201255798e-01" nType="0">
        <Node pos="l" depth="1" NCoef="0" IVar="7" Cut="9.4073045253753662e-01" cType="1" res="5.2409362047910690e-02" rms="4.9513560533523560e-01" purity="5.5646026134490967e-01" nType="0">
          <Node pos="l" depth="2" NCoef="0" IVar="-1" Cut="0.0000000000000000e+00" cType="1" res="-3.1882668845355511e-03" rms="4.9126461148262024e-01" purity="4.1005441546440125e-01" nType="-99"/>
          <Node pos="r" depth="2" NCoef="0" IVar="-1" Cut="0.0000000000000000e+00" cType="1" res="4.7980588860809803e-03" rms="4.8434808850288391e-01" purity="6.2059956789016724e-01" nType="-99"/>
        </Node>
        <Node pos="r" depth="1" NCoef="0" IVar="0" Cut="6.8172760009765625e+00" cType="1" res="-2.0523549616336823e-01" rms="4.4951608777046204e-01" purity="2.8294584155082703e-01" nType="0">
          <Node pos="l" depth="2" NCoef="0" IVar="-1" Cut="0.0000000000000000e+00" cType="1" res="-9.5053408294916153e-03" rms="4.0838634967803955e-01" purity="2.1218094229698181e-01" nType="-99"/>
          <Node pos="r" depth="2" NCoef="0" IVar="-1" Cut="0.0000000000000000e+00" cType="1" res="-4.8575690016150475e-03" rms="4.8153951764106750e-01" purity="3.6679744720458984e-01" nType="-99"/>
        </Node>
      </Node>
    </BinaryTree>
    <BinaryTree type="DecisionTree" boostWeight="1.0000000000000000e+00" itree="5">
      <Node pos="s" depth="0" NCoef="0" IVar="2" Cut="1.0679962635040283e+00" cType="1" res="2.2040377371013165e-03" rms="4.9658983945846558e-01" purity="5.0320219993591309e-01" nType="0">
        <Node pos="l" depth="1" NCoef="0" IVar="0" Cut="6.5788421630859375e+00" cType="1" res="1.1065787822008133e-01" rms="4.8418739438056946e-01" purity="6.1798954010009766e-01" nType="0">
          <Node pos="l" depth="2" NCoef="0" IVar="-1" Cut="0.0000000000000000e+00" cType="1" res="1.2026867625536397e-04" rms="4.9967765808105469e-01" purity="5.0044804811477661e-01" nType="-99"/>
          <Node pos="r" depth="2" NCoef="0" IVar="-1" Cut="0.0000000000000000e+00" cType="1" res="7.1841939352452755e-03" rms="4.6705093979835510e-01" purity="6.7678833007812500e-01" nType="-99"/>
        </Node>
        <Node pos="r" depth="1" NCoef="0" IVar="7" Cut="9.3825972080230713e-01" cType="1" res="-9.4426341354846954e-02" rms="4.8746487498283386e-01" purity="4.0092876553535461e-01" nType="0">
          <Node pos="l" depth="2" NCoef="0" IVar="-1" Cut="0.0000000000000000e+00" cType="1" res="-7.6414858922362328e-03" rms="4.4159224629402161e-01" purity="2.6819604635238647e-01" nType="-99"/>
          <Node pos="r" depth="2" NCoef="0" IVar="-1" Cut="0.0000000000000000e+00" cType="1" res="-1.4278073795139790e-03" rms="4.9700275063514709e-01" purity="4.6364843845367432e-01" nType="-99"/>
        </Node>
      </Node>
    </BinaryTree>
    <BinaryTree type="DecisionTree" boostWeight="1.0000000000000000e+00" itree="6">
      <Node pos="s" depth="0" NCoef="0" IVar="2" Cut="1.0836658477783203e+00" cType="1" res="1.0278570465743542e-02" rms="4.9577817320823669e-01" purity="5.1161932945251465e-01" nType="0">
        <Node pos="l" depth="1" NCoef="0" IVar="0" Cut="7.0252447128295898e+00" cType="1" res="1.1093430221080780e-01" rms="4.8347514867782593e-01" purity="6.2020790576934814e-01" nType="0">
          <Node pos="l" depth="2" NCoef="0" IVar="-1" Cut="0.0000000000000000e+00" cType="1" res="1.3851581607013941e-03" rms="4.9835193157196045e-01" purity="5.3492403030395508e-01" nType="-99"/>
          <Node pos="r" depth="2" NCoef="0" IVar="-1" Cut="0.0000000000000000e+00" cType="1" res="7.7642360702157021e-03" rms="4.6063423156738281e-01" purity="6.9315528869628906e-01" nType="-99"/>
        </Node>
        <Node pos="r" depth="1" NCoef="0" IVar="0" Cut="6.4881625175476074e+00" cType="1" res="-8.6764574050903320e-02" rms="4.8808404803276062e-01" purity="4.0692803263664246e-01" nType="0">
          <Node pos="l" depth="2" NCoef="0" IVar="-1" Cut="0.0000000000000000e+00" cType="1" res="-7.0929685607552528e-03" rms="4.4893905520439148e-01" purity="2.8267765045166016e-01" nType="-99"/>
          <Node pos="r" depth="2" NCoef="0" IVar="-1" Cut="0.0000000000000000e+00" cType="1" res="-3.1295520602725446e-04" rms="4.9781727790832520e-01" purity="4.9161255359649658e-01" nType="-99"/>
        </Node>
      </Node>
    </BinaryTree>
    <BinaryTree type="DecisionTree" boostWeight="1.0000000000000000e+00" itree="7">
      <Node pos="s" depth="0" NCoef="0" IVar="2" Cut="1.2036191225051880e+00" cType="1" res="9.2024682089686394e-03" rms="4.9496379494667053e-01" purity="5.1065212488174438e-01" nType="0">
        <Node pos="l" depth="1" NCoef="0" IVar="0" Cut="6.9922714233398438e+00" cType="1" res="8.6968488991260529e-02" rms="4.8790702223777771e-01" purity="5.9535109996795654e-01" nType="0">
          <Node pos="l" depth="2" NCoef="0" IVar="-1" Cut="0.0000000000000000e+00" cType="1" res="1.0706212924560532e-04" rms="4.9901014566421509e-01" purity="5.0022226572036743e-01" nType="-99"/>
          <Node pos="r" depth="2" NCoef="0" IVar="-1" Cut="0.0000000000000000e+00" cType="1" res="7.0563610643148422e-03" rms="4.6517398953437805e-01" purity="6.7997050285339355e-01" nType="-99"/>
        </Node>
        <Node pos="r" depth="1" NCoef="0" IVar="3" Cut="2.4953036308288574e+00" cType="1" res="-1.1488912999629974e-01" rms="4.8063290119171143e-01" purity="3.7549766898155212e-01" nType="0">
          <Node pos="l" depth="2" NCoef="0" IVar="-1" Cut="0.0000000000000000e+00" cType="1" res="-1.8024099990725517e-03" rms="4.9507394433021545e-01" purity="4.5031109452247620e-01" nType="-99"/>
          <Node pos="r" depth="2" NCoef="0" IVar="-1" Cut="0.0000000000000000e+00" cType="1" res="-8.3228657022118568e-03" rms="4.3085461854934692e-01" purity="2.4844111502170563e-01" nType="-99"/>
        </Node>
      </Node>
    </BinaryTree>
    <BinaryTree type="DecisionTree" boostWeight="1.0000000000000000e+00" itree="8">
      <Node pos="s" depth="0" NCoef="0" IVar="2" Cut="1.1621174812316895e+00" cType="1" res="-6.4203175716102123e-03" rms="4.9457553029060364e-01" purity="4.9546650052070618e-01" nType="0">
        <Node pos="l" depth="1" NCoef="0" IVar="7" Cut="9.3946629762649536e-01" cType="1" res="7.8267805278301239e-02" rms="4.8905408382415771e-01" purity="5.8937478065490723e-01" nType="0">
          <Node pos="l" depth="2" NCoef="0" IVar="-1" Cut="0.0000000000000000e+00" cType="1" res="-1.6797421267256141e-03" rms="4.9671018123626709e-01" purity="4.5066741108894348e-01" nType="-99"/>
          <Node pos="r" depth="2" NCoef="0" IVar="-1" Cut="0.0000000000000000e+00" cType="1" res="5.4986588656902313e-03" rms="4.7700121998786926e-01" purity="6.4512246847152710e-01" nType="-99"/>
        </Node>
        <Node pos="r" depth="1" NCoef="0" IVar="7" Cut="9.3941473960876465e-01" cType="1" res="-1.2056168913841248e-01" rms="4.7877988219261169e-01" purity="3.6889836192131042e-01" nType="0">
          <Node pos="l" depth="2" NCoef="0" IVar="-1" Cut="0.0000000000000000e+00" cType="1" res="-8.0599952489137650e-03" rms="4.2659476399421692e-01" purity="2.4201828241348267e-01" nType="-99"/>
          <Node pos="r" depth="2" NCoef="0" IVar="-1" Cut="0.0000000000000000e+00" cType="1" res="-2.4594110436737537e-03" rms="4.9320086836814880e-01" purity="4.3347120285034180e-01" nType="-99"/>
        </Node>
      </Node>
    </BinaryTree>
    <BinaryTree type="DecisionTree" boostWeight="1.0000000000000000e+00" itree="9">
      <Node pos="s" depth="0" NCoef="0" IVar="3" Cut="2.3081521987915039e+00" cType="1" res="4.0964679792523384e-03" rms="4.9392130970954895e-01" purity="5.0635671615600586e-01" nType="0">
        <Node pos="l" depth="1" NCoef="0" IVar="0" Cut="6.3201422691345215e+00" cType="1" res="6.8142995238304138e-02" rms="4.9026378989219666e-01" purity="5.7834398746490479e-01" nType="0">
          <Node pos="l" depth="2" NCoef="0" IVar="-1" Cut="0.0000000000000000e+00" cType="1" res="-1.9548968411982059e-03" rms="4.9518305063247681e-01" purity="4.4017857313156128e-01" nType="-99"/>
          <Node pos="r" depth="2" NCoef="0" IVar="-1" Cut="0.0000000000000000e+00" cType="1" res="5.1501924172043800e-03" rms="4.7877812385559082e-01" purity="6.3841569423675537e-01" nType="-99"/>
        </Node>
        <Node pos="r" depth="1" NCoef="0" IVar="2" Cut="1.3487743139266968e+00" cType="1" res="-1.4419232308864594e-01" rms="4.6989974379539490e-01" purity="3.3968248963356018e-01" nType="0">
          <Node pos="l" depth="2" NCoef="0" IVar="-1" Cut="0.0000000000000000e+00" cType="1" res="-2.5956018362194300e-03" rms="4.9081099033355713e-01" purity="4.2420342564582825e-01" nType="-99"/>
          <Node pos="r" depth="2" NCoef="0" IVar="-1" Cut="0.0000000000000000e+00" cType="1" res="-7.8132757917046547e-03" rms="4.3919259309768677e-01" purity="2.6413586735725403e-01" nType="-99"/>
        </Node>
      </Node>
    </BinaryTree>
    <BinaryTree type="DecisionTree" boostWeight="1.0000000000000000e+00" itree="10">
      <Node pos="s" depth="0" NCoef="0" IVar="3" Cut="2.3900139331817627e+00" cType="1" res="8.4178987890481949e-04" rms="4.9307227134704590e-01" purity="5.0312310457229614e-01" nType="0">
        <Node pos="l" depth="1" NCoef="0" IVar="0" Cut="7.0600628852844238e+00" cType="1" res="5.4565832018852234e-02" rms="4.9155998229980469e-01" purity="5.6475716829299927e-01" nType="0">
          <Node pos="l" depth="2" NCoef="0" IVar="-1" Cut="0.0000000000000000e+00" cType="1" res="-1.1790178250521421e-03" rms="4.9683633446693420e-01" purity="4.6599087119102478e-01" nType="-99"/>
          <Node pos="r" depth="2" NCoef="0" IVar="-1" Cut="0.0000000000000000e+00" cType="1" res="6.1385752633213997e-03" rms="4.7057288885116577e-01" purity="6.6483646631240845e-01" nType="-99"/>
        </Node>
        <Node pos="r" depth="1" NCoef="0" IVar="7" Cut="9.4996505975723267e-01" cType="1" res="-1.8028981983661652e-01" rms="4.5343232154846191e-01" purity="2.9532298445701599e-01" nType="0">
          <Node pos="l" depth="2" NCoef="0" IVar="-1" Cut="0.0000000000000000e+00" cType="1" res="-8.6857220157980919e-03" rms="4.1220375895500183e-01" purity="2.1890434622764587e-01" nType="-99"/>
          <Node pos="r" depth="2" NCoef="0" IVar="-1" Cut="0.0000000000000000e+00" cType="1" res="-4.0145628154277802e-03" rms="4.8406159877777100e-01" purity="3.8069221377372742e-01" nType="-99"/>
        </Node>
      </Node>
    </BinaryTree>
    <BinaryTree type="DecisionTree" boostWeight="1.0000000000000000e+00" itree="11">
      <Node pos="s" depth="0" NCoef="0" IVar="2" Cut="1.3862749338150024e+00" cType="1" res="-8.6391018703579903e-03" rms="4.9269056320190430e-01" purity="4.9348542094230652e-01" nType="0">
        <Node pos="l" depth="1" NCoef="0" IVar="0" Cut="7.0322966575622559e+00" cType="1" res="4.1778769344091415e-02" rms="4.9231848120689392e-01" purity="5.5076038837432861e-01" nType="0">
          <Node pos="l" depth="2" NCoef="0" IVar="-1" Cut="0.0000000000000000e+00" cType="1" res="-1.5805751318112016e-03" rms="4.9519586563110352e-01" purity="4.5156922936439514e-01" nType="-99"/>
          <Node pos="r" depth="2" NCoef="0" IVar="-1" Cut="0.0000000000000000e+00" cType="1" res="5.3385021165013313e-03" rms="4.7534444928169250e-01" purity="6.4822638034820557e-01" nType="-99"/>
        </Node>
        <Node pos="r" depth="1" NCoef="0" IVar="3" Cut="2.5301842689514160e+00" cType="1" res="-1.7286993563175201e-01" rms="4.5682159066200256e-01" purity="3.0691829323768616e-01" nType="0">
          <Node pos="l" depth="2" NCoef="0" IVar="-1" Cut="0.0000000000000000e+00" cType="1" res="-4.1969148442149162e-03" rms="4.8198321461677551e-01" purity="3.7890091538429260e-01" nType="-99"/>
          <Node pos="r" depth="2" NCoef="0" IVar="-1" Cut="0.0000000000000000e+00" cType="1" res="-9.2358421534299850e-03" rms="4.0299689769744873e-01" purity="2.0531222224235535e-01" nType="-99"/>
        </Node>
      </Node>
    </BinaryTree>
    <BinaryTree type="DecisionTree" boostWeight="1.0000000000000000e+00" itree="12">
      <Node pos="s" depth="0" NCoef="0" IVar="3" Cut="2.3876605033874512e+00" cType="1" res="-7.0914756506681442e-03" rms="4.9244388937950134e-01" purity="4.9492204189300537e-01" nType="0">
        <Node pos="l" depth="1" NCoef="0" IVar="0" Cut="6.3972167968750000e+00" cType="1" res="4.1686937212944031e-02" rms="4.9279871582984924e-01" purity="5.5343031883239746e-01" nType="0">
          <Node pos="l" depth="2" NCoef="0" IVar="-1" Cut="0.0000000000000000e+00" cType="1" res="-2.4997179862111807e-03" rms="4.9283435940742493e-01" purity="4.2221212387084961e-01" nType="-99"/>
          <Node pos="r" depth="2" NCoef="0" IVar="-1" Cut="0.0000000000000000e+00" cType="1" res="4.0232241153717041e-03" rms="4.8388528823852539e-01" purity="6.1782324314117432e-01" nType="-99"/>
        </Node>
        <Node pos="r" depth="1" NCoef="0" IVar="0" Cut="7.4964494705200195e+00" cType="1" res="-1.6703961789608002e-01" rms="4.5603641867637634e-01" purity="3.0306905508041382e-01" nType="0">
          <Node pos="l" depth="2" NCoef="0" IVar="-1" Cut="0.0000000000000000e+00" cType="1" res="-7.7262371778488159e-03" rms="4.2926314473152161e-01" purity="2.4731056392192841e-01" nType="-99"/>
          <Node pos="r" depth="2" NCoef="0" IVar="-1" Cut="0.0000000000000000e+00" cType="1" res="-1.9181856187060475e-03" rms="4.9368768930435181e-01" purity="4.3533283472061157e-01" nType="-99"/>
        </Node>
      </Node>
    </BinaryTree>
    <BinaryTree type="DecisionTree" boostWeight="1.0000000000000000e+00" itree="13">
      <Node pos="s" depth="0" NCoef="0" IVar="2" Cut="9.2681449651718140e-01" cType="1" res="-1.7024572007358074e-03" rms="4.9173519015312195e-01" purity="5.0040066242218018e-01" nType="0">
        <Node pos="l" depth="1" NCoef="0" IVar="0" Cut="6.9762854576110840e+00" cType="1" res="1.2496714293956757e-01" rms="4.7392284870147705e-01" purity="6.4522069692611694e-01" nType="0">
          <Node pos="l" depth="2" NCoef="0" IVar="-1" Cut="0.0000000000000000e+00" cType="1" res="1.1726451339200139e-03" rms="4.9812451004981995e-01" purity="5.2928978204727173e-01" nType="-99"/>
          <Node pos="r" depth="2" NCoef="0" IVar="-1" Cut="0.0000000000000000e+00" cType="1" res="9.1926781460642815e-03" rms="4.3678712844848633e-01" purity="7.4272984266281128e-01" nType="-99"/>
        </Node>
        <Node pos="r" depth="1" NCoef="0" IVar="7" Cut="9.4114762544631958e-01" cType="1" res="-6.2414653599262238e-02" rms="4.8853996396064758e-01" purity="4.3098905682563782e-01" nType="0">
          <Node pos="l" depth="2" NCoef="0" IVar="-1" Cut="0.0000000000000000e+00" cType="1" res="-5.7575134560465813e-03" rms="4.5909771323204041e-01" purity="3.1010478734970093e-01" nType="-99"/>
          <Node pos="r" depth="2" NCoef="0" IVar="-1" Cut="0.0000000000000000e+00" cType="1" res="-2.5073045981116593e-04" rms="4.9543285369873047e-01" purity="4.9858009815216064e-01" nType="-99"/>
        </Node>
      </Node>
    </BinaryTree>
    <BinaryTree type="DecisionTree" boostWeight="1.0000000000000000e+00" itree="14">
      <Node pos="s" depth="0" NCoef="0" IVar="3" Cut="2.2826416492462158e+00" cType="1" res="-1.4684585854411125e-02" rms="4.9156123399734497e-01" purity="4.8771896958351135e-01" nType="0">
        <Node pos="l" depth="1" NCoef="0" IVar="0" Cut="7.0923323631286621e+00" cType="1" res="4.1752059012651443e-02" rms="4.9160537123680115e-01" purity="5.5617022514343262e-01" nType="0">
          <Node pos="l" depth="2" NCoef="0" IVar="-1" Cut="0.0000000000000000e+00" cType="1" res="-1.2571461265906692e-03" rms="4.9670028686523438e-01" purity="4.6268218755722046e-01" nType="-99"/>
          <Node pos="r" depth="2" NCoef="0" IVar="-1" Cut="0.0000000000000000e+00" cType="1" res="5.3444490768015385e-03" rms="4.7297379374504089e-01" purity="6.5683621168136597e-01" nType="-99"/>
        </Node>
        <Node pos="r" depth="1" NCoef="0" IVar="0" Cut="7.1660661697387695e+00" cType="1" res="-1.3180208206176758e-01" rms="4.7033622860908508e-01" purity="3.4566882252693176e-01" nType="0">
          <Node pos="l" depth="2" NCoef="0" IVar="-1" Cut="0.0000000000000000e+00" cType="1" res="-6.8042729981243610e-03" rms="4.4321140646934509e-01" purity="2.7485117316246033e-01" nType="-99"/>
          <Node pos="r" depth="2" NCoef="0" IVar="-1" Cut="0.0000000000000000e+00" cType="1" res="-1.8248013220727444e-03" rms="4.9455207586288452e-01" purity="4.4872525334358215e-01" nType="-99"/>
        </Node>
      </Node>
    </BinaryTree>
    <BinaryTree type="DecisionTree" boostWeight="1.0000000000000000e+00" itree="15">
      <Node pos="s" depth="0" NCoef="0" IVar="2" Cut="1.3032991886138916e+00" cType="1" res="5.2033024840056896e-03" rms="4.9036487936973572e-01" purity="5.0754755735397339e-01" nType="0">
        <Node pos="l" depth="1" NCoef="0" IVar="0" Cut="7.5945057868957520e+00" cType="1" res="6.3245989382266998e-02" rms="4.8788225650787354e-01" purity="5.7656693458557129e-01" nType="0">
          <Node pos="l" depth="2" NCoef="0" IVar="-1" Cut="0.0000000000000000e+00" cType="1" res="2.6469881413504481e-04" rms="4.9601146578788757e-01" purity="5.0711780786514282e-01" nType="-99"/>
          <Node pos="r" depth="2" NCoef="0" IVar="-1" Cut="0.0000000000000000e+00" cType="1" res="7.1925087831914425e-03" rms="4.5717039704322815e-01" purity="6.9699430465698242e-01" nType="-99"/>
        </Node>
        <Node pos="r" depth="1" NCoef="0" IVar="7" Cut="9.5217901468276978e-01" cType="1" res="-1.3415451347827911e-01" rms="4.6773859858512878e-01" purity="3.4183499217033386e-01" nType="0">
          <Node pos="l" depth="2" NCoef="0" IVar="-1" Cut="0.0000000000000000e+00" cType="1" res="-7.3847556486725807e-03" rms="4.3078005313873291e-01" purity="2.5312390923500061e-01" nType="-99"/>
          <Node pos="r" depth="2" NCoef="0" IVar="-1" Cut="0.0000000000000000e+00" cType="1" res="-1.7025436973199248e-03" rms="4.9364957213401794e-01" purity="4.4957473874092102e-01" nType="-99"/>
        </Node>
      </Node>
    </BinaryTree>
    <BinaryTree type="DecisionTree" boostWeight="1.0000000000000000e+00" itree="16">
      <Node pos="s" depth="0" NCoef="0" IVar="3" Cut="2.3216738700866699e+00" cType="1" res="3.4561948850750923e-03" rms="4.9002411961555481e-01" purity="5.0640416145324707e-01" nType="0">
        <Node pos="l" depth="1" NCoef="0" IVar="0" Cut="7.1475076675415039e+00" cType="1" res="6.1604477465152740e-02" rms="4.8807170987129211e-01" purity="5.7801556587219238e-01" nType="0">
          <Node pos="l" depth="2" NCoef="0" IVar="-1" Cut="0.0000000000000000e+00" cType="1" res="-3.7419289583340287e-04" rms="4.9755516648292542e-01" purity="4.8576197028160095e-01" nType="-99"/>
          <Node pos="r" depth="2" NCoef="0" IVar="-1" Cut="0.0000000000000000e+00" cType="1" res="6.0473284684121609e-03" rms="4.6562004089355469e-01" purity="6.7730242013931274e-01" nType="-99"/>
        </Node>
        <Node pos="r" depth="1" NCoef="0" IVar="2" Cut="1.3439404964447021e+00" cType="1" res="-1.4167043566703796e-01" rms="4.6410030126571655e-01" purity="3.2767635583877563e-01" nType="0">
          <Node pos="l" depth="2" NCoef="0" IVar="-1" Cut="0.0000000000000000e+00" cType="1" res="-2.6892048772424459e-03" rms="4.8840847611427307e-01" purity="4.1413220763206482e-01" nType="-99"/>
          <Node pos="r" depth="2" NCoef="0" IVar="-1" Cut="0.0000000000000000e+00" cType="1" res="-7.3097702115774155e-03" rms="4.3478390574455261e-01" purity="2.5741389393806458e-01" nType="-99"/>
        </Node>
      </Node>
    </BinaryTree>
    <BinaryTree type="DecisionTree" boostWeight="1.0000000000000000e+00" itree="17">
      <Node pos="s" depth="0" NCoef="0" IVar="3" Cut="2.2630381584167480e+00" cType="1" res="-4.9323667772114277e-03" rms="4.8994952440261841e-01" purity="4.9803790450096130e-01" nType="0">
        <Node pos="l" depth="1" NCoef="0" IVar="7" Cut="9.3029087781906128e-01" cType="1" res="5.5936079472303391e-02" rms="4.8879900574684143e-01" purity="5.7415884733200073e-01" nType="0">
          <Node pos="l" depth="2" NCoef="0" IVar="-1" Cut="0.0000000000000000e+00" cType="1" res="-3.5253644455224276e-03" rms="4.8592576384544373e-01" purity="3.8771587610244751e-01" nType="-99"/>
          <Node pos="r" depth="2" NCoef="0" IVar="-1" Cut="0.0000000000000000e+00" cType="1" res="3.8111303001642227e-03" rms="4.8282033205032349e-01" purity="6.1563360691070557e-01" nType="-99"/>
        </Node>
        <Node pos="r" depth="1" NCoef="0" IVar="0" Cut="6.0875759124755859e+00" cType="1" res="-1.2042537331581116e-01" rms="4.7097626328468323e-01" purity="3.5360458493232727e-01" nType="0">
          <Node pos="l" depth="2" NCoef="0" IVar="-1" Cut="0.0000000000000000e+00" cType="1" res="-8.6005320772528648e-03" rms="3.9511469006538391e-01" purity="1.9799685478210449e-01" nType="-99"/>
          <Node pos="r" depth="2" NCoef="0" IVar="-1" Cut="0.0000000000000000e+00" cType="1" res="-2.3844011593610048e-03" rms="4.8953405022621155e-01" purity="4.2301747202873230e-01" nType="-99"/>
        </Node>
      </Node>
    </BinaryTree>
    <BinaryTree type="DecisionTree" boostWeight="1.0000000000000000e+00" itree="18">
      <Node pos="s" depth="0" NCoef="0" IVar="3" Cut="2.3876605033874512e+00" cType="1" res="-7.2787846438586712e-03" rms="4.8906418681144714e-01" purity="4.9541875720024109e-01" nType="0">
        <Node pos="l" depth="1" NCoef="0" IVar="0" Cut="6.5543909072875977e+00" cType="1" res="4.0722731500864029e-02" rms="4.9016702175140381e-01" purity="5.5744540691375732e-01" nType="0">
          <Node pos="l" depth="2" NCoef="0" IVar="-1" Cut="0.0000000000000000e+00" cType="1" res="-2.2181337699294090e-03" rms="4.9233308434486389e-01" purity="4.2692655324935913e-01" nType="-99"/>
          <Node pos="r" depth="2" NCoef="0" IVar="-1" Cut="0.0000000000000000e+00" cType="1" res="4.1974894702434540e-03" rms="4.7962468862533569e-01" purity="6.3210850954055786e-01" nType="-99"/>
        </Node>
        <Node pos="r" depth="1" NCoef="0" IVar="8" Cut="2.0187516212463379e+00" cType="1" res="-1.6021184623241425e-01" rms="4.5278432965278625e-01" purity="2.9780152440071106e-01" nType="0">
          <Node pos="l" depth="2" NCoef="0" IVar="-1" Cut="0.0000000000000000e+00" cType="1" res="-4.2893388308584690e-03" rms="4.7129678726196289e-01" purity="3.4559443593025208e-01" nType="-99"/>
          <Node pos="r" depth="2" NCoef="0" IVar="-1" Cut="0.0000000000000000e+00" cType="1" res="-8.8903838768601418e-03" rms="4.0136277675628662e-01" purity="2.0738974213600159e-01" nType="-99"/>
        </Node>
      </Node>
    </BinaryTree>
    <BinaryTree type="DecisionTree" boostWeight="1.0000000000000000e+00" itree="19">
      <Node pos="s" depth="0" NCoef="0" IVar="2" Cut="1.3439692258834839e+00" cType="1" res="-8.5265319794416428e-03" rms="4.8930579423904419e-01" purity="4.9445503950119019e-01" nType="0">
        <Node pos="l" depth="1" NCoef="0" IVar="0" Cut="6.2985138893127441e+00" cType="1" res="4.1484817862510681e-02" rms="4.8994150757789612e-01" purity="5.5723261833190918e-01" nType="0">
          <Node pos="l" depth="2" NCoef="0" IVar="-1" Cut="0.0000000000000000e+00" cType="1" res="-2.1180007606744766e-03" rms="4.9130749702453613e-01" purity="4.2324349284172058e-01" nType="-99"/>
          <Node pos="r" depth="2" NCoef="0" IVar="-1" Cut="0.0000000000000000e+00" cType="1" res="3.5299833398312330e-03" rms="4.8332327604293823e-01" purity="6.1411696672439575e-01" nType="-99"/>
        </Node>
        <Node pos="r" depth="1" NCoef="0" IVar="3" Cut="2.1752896308898926e+00" cType="1" res="-1.4335092902183533e-01" rms="4.6132582426071167e-01" purity="3.2521462440490723e-01" nType="0">
          <Node pos="l" depth="2" NCoef="0" IVar="-1" Cut="0.0000000000000000e+00" cType="1" res="-9.5845310715958476e-04" rms="4.9647027254104614e-01" purity="4.7504612803459167e-01" nType="-99"/>
          <Node pos="r" depth="2" NCoef="0" IVar="-1" Cut="0.0000000000000000e+00" cType="1" res="-6.8771573714911938e-03" rms="4.3908649682998657e-01" purity="2.6868265867233276e-01" nType="-99"/>
        </Node>
      </Node>
    </BinaryTree>
    <BinaryTree type="DecisionTree" boostWeight="1.0000000000000000e+00" itree="20">
      <Node pos="s" depth="0" NCoef="0" IVar="3" Cut="2.3876605033874512e+00" cType="1" res="-6.1752866022288799e-03" rms="4.8824095726013184e-01" purity="4.9679392576217651e-01" nType="0">
        <Node pos="l" depth="1" NCoef="0" IVar="2" Cut="8.5874259471893311e-01" cType="1" res="4.2086511850357056e-02" rms="4.9001812934875488e-01" purity="5.6042069196701050e-01" nType="0">
          <Node pos="l" depth="2" NCoef="0" IVar="-1" Cut="0.0000000000000000e+00" cType="1" res="5.9999134391546249e-03" rms="4.6548187732696533e-01" purity="6.7095965147018433e-01" nType="-99"/>
          <Node pos="r" depth="2" NCoef="0" IVar="-1" Cut="0.0000000000000000e+00" cType="1" res="-1.9326554320286959e-04" rms="4.9463936686515808e-01" purity="5.0705140829086304e-01" nType="-99"/>
        </Node>
        <Node pos="r" depth="1" NCoef="0" IVar="0" Cut="6.0172629356384277e+00" cType="1" res="-1.6520349681377411e-01" rms="4.4686201214790344e-01" purity="2.8713628649711609e-01" nType="0">
          <Node pos="l" depth="2" NCoef="0" IVar="-1" Cut="0.0000000000000000e+00" cType="1" res="-9.0188430622220039e-03" rms="3.6782965064048767e-01" purity="1.6339991986751556e-01" nType="-99"/>
          <Node pos="r" depth="2" NCoef="0" IVar="-1" Cut="0.0000000000000000e+00" cType="1" res="-4.3833456002175808e-03" rms="4.7289383411407471e-01" purity="3.4874674677848816e-01" nType="-99"/>
        </Node>
      </Node>
    </BinaryTree>
    <BinaryTree type="DecisionTree" boostWeight="1.0000000000000000e+00" itree="21">
      <Node pos="s" depth="0" NCoef="0" IVar="3" Cut="2.4297258853912354e+00" cType="1" res="-2.1038453560322523e-03" rms="4.8869115114212036e-01" purity="5.0157731771469116e-01" nType="0">
        <Node pos="l" depth="1" NCoef="0" IVar="4" Cut="4.3232597351074219e+01" cType="1" res="4.0704831480979919e-02" rms="4.9021905660629272e-01" purity="5.5878680944442749e-01" nType="0">
          <Node pos="l" depth="2" NCoef="0" IVar="-1" Cut="0.0000000000000000e+00" cType="1" res="-3.8374473806470633e-03" rms="4.8715448379516602e-01" purity="4.1744422912597656e-01" nType="-99"/>
          <Node pos="r" depth="2" NCoef="0" IVar="-1" Cut="0.0000000000000000e+00" cType="1" res="2.8684274293482304e-03" rms="4.8586934804916382e-01" purity="5.8792483806610107e-01" nType="-99"/>
        </Node>
        <Node pos="r" depth="1" NCoef="0" IVar="7" Cut="9.3608462810516357e-01" cType="1" res="-1.6448885202407837e-01" rms="4.4701796770095825e-01" purity="2.8456598520278931e-01" nType="0">
          <Node pos="l" depth="2" NCoef="0" IVar="-1" Cut="0.0000000000000000e+00" cType="1" res="-8.5017764940857887e-03" rms="3.8069763779640198e-01" purity="1.7790980637073517e-01" nType="-99"/>
          <Node pos="r" depth="2" NCoef="0" IVar="-1" Cut="0.0000000000000000e+00" cType="1" res="-4.8538916744291782e-03" rms="4.6921920776367188e-01" purity="3.3351284265518188e-01" nType="-99"/>
        </Node>
      </Node>
    </BinaryTree>
    <BinaryTree type="DecisionTree" boostWeight="1.0000000000000000e+00" itree="22">
      <Node pos="s" depth="0" NCoef="0" IVar="2" Cut="1.1918728351593018e+00" cType="1" res="-1.1032716138288379e-03" rms="4.8723855614662170e-01" purity="5.0185638666152954e-01" nType="0">
        <Node pos="l" depth="1" NCoef="0" IVar="0" Cut="7.1923971176147461e+00" cType="1" res="6.6542245447635651e-02" rms="4.8435261845588684e-01" purity="5.9038239717483521e-01" nType="0">
          <Node pos="l" depth="2" NCoef="0" IVar="-1" Cut="0.0000000000000000e+00" cType="1" res="-1.7249039956368506e-04" rms="4.9668172001838684e-01" purity="4.9457016587257385e-01" nType="-99"/>
          <Node pos="r" depth="2" NCoef="0" IVar="-1" Cut="0.0000000000000000e+00" cType="1" res="6.4745629206299782e-03" rms="4.5808476209640503e-01" purity="6.9513720273971558e-01" nType="-99"/>
        </Node>
        <Node pos="r" depth="1" NCoef="0" IVar="0" Cut="6.9209671020507812e+00" cType="1" res="-1.0458524525165558e-01" rms="4.7326761484146118e-01" purity="3.6643224954605103e-01" nType="0">
          <Node pos="l" depth="2" NCoef="0" IVar="-1" Cut="0.0000000000000000e+00" cType="1" res="-5.8601214550435543e-03" rms="4.4791856408119202e-01" purity="2.8919965028762817e-01" nType="-99"/>
          <Node pos="r" depth="2" NCoef="0" IVar="-1" Cut="0.0000000000000000e+00" cType="1" res="-1.3367607025429606e-03" rms="4.9263185262680054e-01" purity="4.5920577645301819e-01" nType="-99"/>
        </Node>
      </Node>
    </BinaryTree>
    <BinaryTree type="DecisionTree" boostWeight="1.0000000000000000e+00" itree="23">
      <Node pos="s" depth="0" NCoef="0" IVar="2" Cut="1.0631624460220337e+00" cType="1" res="5.9068441623821855e-04" rms="4.8714789748191833e-01" purity="5.0384908914566040e-01" nType="0">
        <Node pos="l" depth="1" NCoef="0" IVar="0" Cut="5.9114079475402832e+00" cType="1" res="8.8274449110031128e-02" rms="4.7974371910095215e-01" purity="6.1907047033309937e-01" nType="0">
          <Node pos="l" depth="2" NCoef="0" IVar="-1" Cut="0.0000000000000000e+00" cType="1" res="-1.6467940295115113e-03" rms="4.9664407968521118e-01" purity="4.4409078359603882e-01" nType="-99"/>
          <Node pos="r" depth="2" NCoef="0" IVar="-1" Cut="0.0000000000000000e+00" cType="1" res="5.1943287253379822e-03" rms="4.7012120485305786e-01" purity="6.6073870658874512e-01" nType="-99"/>
        </Node>
        <Node pos="r" depth="1" NCoef="0" IVar="0" Cut="7.0876379013061523e+00" cType="1" res="-7.5985141098499298e-02" rms="4.8061090707778931e-01" purity="4.0322408080101013e-01" nType="0">
          <Node pos="l" depth="2" NCoef="0" IVar="-1" Cut="0.0000000000000000e+00" cType="1" res="-5.0506433472037315e-03" rms="4.6090909838676453e-01" purity="3.2089307904243469e-01" nType="-99"/>
          <Node pos="r" depth="2" NCoef="0" IVar="-1" Cut="0.0000000000000000e+00" cType="1" res="2.8305713203735650e-04" rms="4.9356248974800110e-01" purity="5.1257562637329102e-01" nType="-99"/>
        </Node>
      </Node>
    </BinaryTree>
    <BinaryTree type="DecisionTree" boostWeight="1.0000000000000000e+00" itree="24">
      <Node pos="s" depth="0" NCoef="0" IVar="2" Cut="9.7031539678573608e-01" cType="1" res="2.3243194445967674e-03" rms="4.8763233423233032e-01" purity="5.0650078058242798e-01" nType="0">
        <Node pos="l" depth="1" NCoef="0" IVar="7" Cut="9.3867701292037964e-01" cType="1" res="9.3927443027496338e-02" rms="4.7742682695388794e-01" purity="6.2942254543304443e-01" nType="0">
          <Node pos="l" depth="2" NCoef="0" IVar="-1" Cut="0.0000000000000000e+00" cType="1" res="-4.8056113882921636e-04" rms="4.9797898530960083e-01" purity="4.8314118385314941e-01" nType="-99"/>
          <Node pos="r" depth="2" NCoef="0" IVar="-1" Cut="0.0000000000000000e+00" cType="1" res="5.8205788955092430e-03" rms="4.6377709507942200e-01" purity="6.8240255117416382e-01" nType="-99"/>
        </Node>
        <Node pos="r" depth="1" NCoef="0" IVar="0" Cut="6.0909509658813477e+00" cType="1" res="-5.1844619214534760e-02" rms="4.8550289869308472e-01" purity="4.3381184339523315e-01" nType="0">
          <Node pos="l" depth="2" NCoef="0" IVar="-1" Cut="0.0000000000000000e+00" cType="1" res="-5.6530856527388096e-03" rms="4.4861188530921936e-01" purity="2.9132139682769775e-01" nType="-99"/>
          <Node pos="r" depth="2" NCoef="0" IVar="-1" Cut="0.0000000000000000e+00" cType="1" res="-3.5626284079626203e-04" rms="4.9292123317718506e-01" purity="4.9063581228256226e-01" nType="-99"/>
        </Node>
      </Node>
    </BinaryTree>
    <BinaryTree type="DecisionTree" boostWeight="1.0000000000000000e+00" itree="25">
      <Node pos="s" depth="0" NCoef="0" IVar="3" Cut="2.2630381584167480e+00" cType="1" res="-7.6207006350159645e-03" rms="4.8618435859680176e-01" purity="4.9596789479255676e-01" nType="0">
        <Node pos="l" depth="1" NCoef="0" IVar="0" Cut="8.0371828079223633e+00" cType="1" res="5.1022101193666458e-02" rms="4.8643130064010620e-01" purity="5.7627147436141968e-01" nType="0">
          <Node pos="l" depth="2" NCoef="0" IVar="-1" Cut="0.0000000000000000e+00" cType="1" res="4.1465449612587690e-04" rms="4.9385446310043335e-01" purity="5.2403688430786133e-01" nType="-99"/>
          <Node pos="r" depth="2" NCoef="0" IVar="-1" Cut="0.0000000000000000e+00" cType="1" res="7.4605797417461872e-03" rms="4.4578331708908081e-01" purity="7.2238636016845703e-01" nType="-99"/>
        </Node>
        <Node pos="r" depth="1" NCoef="0" IVar="0" Cut="6.2690095901489258e+00" cType="1" res="-1.1729394644498825e-01" rms="4.6633276343345642e-01" purity="3.4578493237495422e-01" nType="0">
          <Node pos="l" depth="2" NCoef="0" IVar="-1" Cut="0.0000000000000000e+00" cType="1" res="-6.9579128175973892e-03" rms="4.2017269134521484e-01" purity="2.3717285692691803e-01" nType="-99"/>
          <Node pos="r" depth="2" NCoef="0" IVar="-1" Cut="0.0000000000000000e+00" cType="1" res="-2.7996157296001911e-03" rms="4.8503157496452332e-01" purity="4.0836149454116821e-01" nType="-99"/>
        </Node>
      </Node>
    </BinaryTree>
    <BinaryTree type="DecisionTree" boostWeight="1.0000000000000000e+00" itree="26">
      <Node pos="s" depth="0" NCoef="0" IVar="2" Cut="9.1877859830856323e-01" cType="1" res="-5.7471278123557568e-03" rms="4.8606619238853455e-01" purity="4.9834224581718445e-01" nType="0">
        <Node pos="l" depth="1" NCoef="0" IVar="0" Cut="7.1183834075927734e+00" cType="1" res="1.0477782040834427e-01" rms="4.7229385375976562e-01" purity="6.4603245258331299e-01" nType="0">
          <Node pos="l" depth="2" NCoef="0" IVar="-1" Cut="0.0000000000000000e+00" cType="1" res="1.6170738963410258e-03" rms="4.9623736739158630e-01" purity="5.4830074310302734e-01" nType="-99"/>
          <Node pos="r" depth="2" NCoef="0" IVar="-1" Cut="0.0000000000000000e+00" cType="1" res="7.3910136707127094e-03" rms="4.4239404797554016e-01" purity="7.3211812973022461e-01" nType="-99"/>
        </Node>
        <Node pos="r" depth="1" NCoef="0" IVar="7" Cut="9.5153027772903442e-01" cType="1" res="-5.7465646415948868e-02" rms="4.8378255963325500e-01" purity="4.2923277616500854e-01" nType="0">
          <Node pos="l" depth="2" NCoef="0" IVar="-1" Cut="0.0000000000000000e+00" cType="1" res="-4.5842016115784645e-03" rms="4.6465304493904114e-01" purity="3.3488172292709351e-01" nType="-99"/>
          <Node pos="r" depth="2" NCoef="0" IVar="-1" Cut="0.0000000000000000e+00" cType="1" res="4.6988861868157983e-04" rms="4.9286669492721558e-01" purity="5.2432024478912354e-01" nType="-99"/>
        </Node>
      </Node>
    </BinaryTree>
    <BinaryTree type="DecisionTree" boostWeight="1.0000000000000000e+00" itree="27">
      <Node pos="s" depth="0" NCoef="0" IVar="3" Cut="2.3898983001708984e+00" cType="1" res="5.5846956092864275e-04" rms="4.8583561182022095e-01" purity="5.0443404912948608e-01" nType="0">
        <Node pos="l" depth="1" NCoef="0" IVar="0" Cut="6.4103465080261230e+00" cType="1" res="4.2115867137908936e-02" rms="4.8757863044738770e-01" purity="5.6455582380294800e-01" nType="0">
          <Node pos="l" depth="2" NCoef="0" IVar="-1" Cut="0.0000000000000000e+00" cType="1" res="-1.8888015765696764e-03" rms="4.9223068356513977e-01" purity="4.2922753095626831e-01" nType="-99"/>
          <Node pos="r" depth="2" NCoef="0" IVar="-1" Cut="0.0000000000000000e+00" cType="1" res="3.7323008291423321e-03" rms="4.7892186045646667e-01" purity="6.2999343872070312e-01" nType="-99"/>
        </Node>
        <Node pos="r" depth="1" NCoef="0" IVar="2" Cut="1.4132666587829590e+00" cType="1" res="-1.3910061120986938e-01" rms="4.5279774069786072e-01" purity="3.0238687992095947e-01" nType="0">
          <Node pos="l" depth="2" NCoef="0" IVar="-1" Cut="0.0000000000000000e+00" cType="1" res="-2.6803640648722649e-03" rms="4.8140901327133179e-01" purity="3.8635212182998657e-01" nType="-99"/>
          <Node pos="r" depth="2" NCoef="0" IVar="-1" Cut="0.0000000000000000e+00" cType="1" res="-7.3286006227135658e-03" rms="4.1647234559059143e-01" purity="2.2824786603450775e-01" nType="-99"/>
        </Node>
      </Node>
    </BinaryTree>
    <BinaryTree type="DecisionTree" boostWeight="1.0000000000000000e+00" itree="28">
      <Node pos="s" depth="0" NCoef="0" IVar="3" Cut="2.4536468982696533e+00" cType="1" res="-4.5629055239260197e-03" rms="4.8444616794586182e-01" purity="4.9851533770561218e-01" nType="0">
        <Node pos="l" depth="1" NCoef="0" IVar="0" Cut="7.3877120018005371e+00" cType="1" res="3.2434925436973572e-02" rms="4.8737636208534241e-01" purity="5.5189120769500732e-01" nType="0">
          <Node pos="l" depth="2" NCoef="0" IVar="-1" Cut="0.0000000000000000e+00" cType="1" res="-9.2982617206871510e-04" rms="4.9358513951301575e-01" purity="4.7099947929382324e-01" nType="-99"/>
          <Node pos="r" depth="2" NCoef="0" IVar="-1" Cut="0.0000000000000000e+00" cType="1" res="4.9365460872650146e-03" rms="4.6712666749954224e-01" purity="6.6559445858001709e-01" nType="-99"/>
        </Node>
        <Node pos="r" depth="1" NCoef="0" IVar="7" Cut="9.4109797477722168e-01" cType="1" res="-1.6173340380191803e-01" rms="4.3826201558113098e-01" purity="2.7176901698112488e-01" nType="0">
          <Node pos="l" depth="2" NCoef="0" IVar="-1" Cut="0.0000000000000000e+00" cType="1" res="-8.4411678835749626e-03" rms="3.6916604638099670e-01" purity="1.6510184109210968e-01" nType="-99"/>
          <Node pos="r" depth="2" NCoef="0" IVar="-1" Cut="0.0000000000000000e+00" cType="1" res="-4.0645673871040344e-03" rms="4.7203567624092102e-01" purity="3.4569996595382690e-01" nType="-99"/>
        </Node>
      </Node>
    </BinaryTree>
    <BinaryTree type="DecisionTree" boostWeight="1.0000000000000000e+00" itree="29">
      <Node pos="s" depth="0" NCoef="0" IVar="3" Cut="2.2899923324584961e+00" cType="1" res="1.2536571011878550e-04" rms="4.8447054624557495e-01" purity="5.0375360250473022e-01" nType="0">
        <Node pos="l" depth="1" NCoef="0" IVar="4" Cut="5.0490322113037109e+01" cType="1" res="5.4821416735649109e-02" rms="4.8459079861640930e-01" purity="5.8353072404861450e-01" nType="0">
          <Node pos="l" depth="2" NCoef="0" IVar="-1" Cut="0.0000000000000000e+00" cType="1" res="-1.7432451713830233e-03" rms="4.9143603444099426e-01" purity="4.8223716020584106e-01" nType="-99"/>
          <Node pos="r" depth="2" NCoef="0" IVar="-1" Cut="0.0000000000000000e+00" cType="1" res="3.7311282940208912e-03" rms="4.7744229435920715e-01" purity="6.1885505914688110e-01" nType="-99"/>
        </Node>
        <Node pos="r" depth="1" NCoef="0" IVar="8" Cut="1.8132200241088867e+00" cType="1" res="-1.1377076804637909e-01" rms="4.6396875381469727e-01" purity="3.3762997388839722e-01" nType="0">
          <Node pos="l" depth="2" NCoef="0" IVar="-1" Cut="0.0000000000000000e+00" cType="1" res="-2.4697566404938698e-03" rms="4.8026722669601440e-01" purity="3.9498215913772583e-01" nType="-99"/>
          <Node pos="r" depth="2" NCoef="0" IVar="-1" Cut="0.0000000000000000e+00" cType="1" res="-7.3274294845759869e-03" rms="4.2049196362495422e-01" purity="2.3838387429714203e-01" nType="-99"/>
        </Node>
      </Node>
    </BinaryTree>
    <BinaryTree type="DecisionTree" boostWeight="1.0000000000000000e+00" itree="30">
      <Node pos="s" depth="0" NCoef="0" IVar="3" Cut="2.2899923324584961e+00" cType="1" res="-1.1900749988853931e-02" rms="4.8399901390075684e-01" purity="4.9143067002296448e-01" nType="0">
        <Node pos="l" depth="1" NCoef="0" IVar="4" Cut="4.4306602478027344e+01" cType="1" res="4.2027082294225693e-02" rms="4.8632222414016724e-01" purity="5.7095348834991455e-01" nType="0">
          <Node pos="l" depth="2" NCoef="0" IVar="-1" Cut="0.0000000000000000e+00" cType="1" res="-3.3609657548367977e-03" rms="4.8871332406997681e-01" purity="4.3687739968299866e-01" nType="-99"/>
          <Node pos="r" depth="2" NCoef="0" IVar="-1" Cut="0.0000000000000000e+00" cType="1" res="2.9874490574002266e-03" rms="4.8084792494773865e-01" purity="6.0264873504638672e-01" nType="-99"/>
        </Node>
        <Node pos="r" depth="1" NCoef="0" IVar="8" Cut="1.6367908716201782e+00" cType="1" res="-1.2549231946468353e-01" rms="4.5877879858016968e-01" purity="3.2392671704292297e-01" nType="0">
          <Node pos="l" depth="2" NCoef="0" IVar="-1" Cut="0.0000000000000000e+00" cType="1" res="-2.6191750075668097e-03" rms="4.7874480485916138e-01" purity="3.8996514678001404e-01" nType="-99"/>
          <Node pos="r" depth="2" NCoef="0" IVar="-1" Cut="0.0000000000000000e+00" cType="1" res="-7.3705590330064297e-03" rms="4.1964221000671387e-01" purity="2.3762908577919006e-01" nType="-99"/>
        </Node>
      </Node>
    </BinaryTree>
    <BinaryTree type="DecisionTree" boostWeight="1.0000000000000000e+00" itree="31">
      <Node pos="s" depth="0" NCoef="0" IVar="3" Cut="2.2802979946136475e+00" cType="1" res="-1.2139752507209778e-02" rms="4.8399239778518677e-01" purity="4.9214333295822144e-01" nType="0">
        <Node pos="l" depth="1" NCoef="0" IVar="0" Cut="7.1285514831542969e+00" cType="1" res="3.9889205247163773e-02" rms="4.8668614029884338e-01" purity="5.7068186998367310e-01" nType="0">
          <Node pos="l" depth="2" NCoef="0" IVar="-1" Cut="0.0000000000000000e+00" cType="1" res="-6.3775241142138839e-04" rms="4.9614018201828003e-01" purity="4.8124143481254578e-01" nType="-99"/>
          <Node pos="r" depth="2" NCoef="0" IVar="-1" Cut="0.0000000000000000e+00" cType="1" res="4.3482882902026176e-03" rms="4.6956443786621094e-01" purity="6.6352730989456177e-01" nType="-99"/>
        </Node>
        <Node pos="r" depth="1" NCoef="0" IVar="7" Cut="9.4096744060516357e-01" cType="1" res="-1.1985834687948227e-01" rms="4.6002981066703796e-01" purity="3.2954055070877075e-01" nType="0">
          <Node pos="l" depth="2" NCoef="0" IVar="-1" Cut="0.0000000000000000e+00" cType="1" res="-7.1071637794375420e-03" rms="4.0647539496421814e-01" purity="2.1597081422805786e-01" nType="-99"/>
          <Node pos="r" depth="2" NCoef="0" IVar="-1" Cut="0.0000000000000000e+00" cType="1" res="-2.7606261428445578e-03" rms="4.8317262530326843e-01" purity="3.9923408627510071e-01" nType="-99"/>
        </Node>
      </Node>
    </BinaryTree>
    <BinaryTree type="DecisionTree" boostWeight="1.0000000000000000e+00" itree="32">
      <Node pos="s" depth="0" NCoef="0" IVar="3" Cut="2.4855012893676758e+00" cType="1" res="-9.0493941679596901e-03" rms="4.8345836997032166e-01" purity="4.9454778432846069e-01" nType="0">
        <Node pos="l" depth="1" NCoef="0" IVar="0" Cut="6.3432493209838867e+00" cType="1" res="2.4784814566373825e-02" rms="4.8765632510185242e-01" purity="5.4479092359542847e-01" nType="0">
          <Node pos="l" depth="2" NCoef="0" IVar="-1" Cut="0.0000000000000000e+00" cType="1" res="-2.2419777233153582e-03" rms="4.8817363381385803e-01" purity="4.1188430786132812e-01" nType="-99"/>
          <Node pos="r" depth="2" NCoef="0" IVar="-1" Cut="0.0000000000000000e+00" cType="1" res="2.7383936103433371e-03" rms="4.8231023550033569e-01" purity="6.0639017820358276e-01" nType="-99"/>
        </Node>
        <Node pos="r" depth="1" NCoef="0" IVar="7" Cut="9.5763897895812988e-01" cType="1" res="-1.7582477629184723e-01" rms="4.2447668313980103e-01" purity="2.4688957631587982e-01" nType="0">
          <Node pos="l" depth="2" NCoef="0" IVar="-1" Cut="0.0000000000000000e+00" cType="1" res="-8.0782482400536537e-03" rms="3.8558220863342285e-01" purity="1.8495859205722809e-01" nType="-99"/>
          <Node pos="r" depth="2" NCoef="0" IVar="-1" Cut="0.0000000000000000e+00" cType="1" res="-3.2389289699494839e-03" rms="4.7812736034393311e-01" purity="3.6802420020103455e-01" nType="-99"/>
        </Node>
      </Node>
    </BinaryTree>
    <BinaryTree type="DecisionTree" boostWeight="1.0000000000000000e+00" itree="33">
      <Node pos="s" depth="0" NCoef="0" IVar="2" Cut="1.3281323909759521e+00" cType="1" res="-9.1294534504413605e-03" rms="4.8312169313430786e-01" purity="4.9416536092758179e-01" nType="0">
        <Node pos="l" depth="1" NCoef="0" IVar="0" Cut="5.7872157096862793e+00" cType="1" res="3.7663411349058151e-02" rms="4.8557662963867188e-01" purity="5.6119763851165771e-01" nType="0">
          <Node pos="l" depth="2" NCoef="0" IVar="-1" Cut="0.0000000000000000e+00" cType="1" res="-3.8442062214016914e-03" rms="4.7729748487472534e-01" purity="3.6196500062942505e-01" nType="-99"/>
          <Node pos="r" depth="2" NCoef="0" IVar="-1" Cut="0.0000000000000000e+00" cType="1" res="2.9429111164063215e-03" rms="4.8162019252777100e-01" purity="6.0512316226959229e-01" nType="-99"/>
        </Node>
        <Node pos="r" depth="1" NCoef="0" IVar="3" Cut="2.5924003124237061e+00" cType="1" res="-1.3112653791904449e-01" rms="4.5454871654510498e-01" purity="3.1940087676048279e-01" nType="0">
          <Node pos="l" depth="2" NCoef="0" IVar="-1" Cut="0.0000000000000000e+00" cType="1" res="-3.1257029622793198e-03" rms="4.7883582115173340e-01" purity="3.8810780644416809e-01" nType="-99"/>
          <Node pos="r" depth="2" NCoef="0" IVar="-1" Cut="0.0000000000000000e+00" cType="1" res="-8.4846988320350647e-03" rms="3.8123553991317749e-01" purity="1.7884124815464020e-01" nType="-99"/>
        </Node>
      </Node>
    </BinaryTree>
    <BinaryTree type="DecisionTree" boostWeight="1.0000000000000000e+00" itree="34">
      <Node pos="s" depth="0" NCoef="0" IVar="8" Cut="1.2559108734130859e+00" cType="1" res="-6.8385613849386573e-04" rms="4.8387297987937927e-01" purity="5.0377559661865234e-01" nType="0">
        <Node pos="l" depth="1" NCoef="0" IVar="0" Cut="7.3551368713378906e+00" cType="1" res="5.2392024546861649e-02" rms="4.8238131403923035e-01" purity="5.7173585891723633e-01" nType="0">
          <Node pos="l" depth="2" NCoef="0" IVar="-1" Cut="0.0000000000000000e+00" cType="1" res="-6.4041855694085825e-06" rms="4.9227905273437500e-01" purity="4.9006730318069458e-01" nType="-99"/>
          <Node pos="r" depth="2" NCoef="0" IVar="-1" Cut="0.0000000000000000e+00" cType="1" res="5.4612141102552414e-03" rms="4.5951408147811890e-01" purity="6.8096745014190674e-01" nType="-99"/>
        </Node>
        <Node pos="r" depth="1" NCoef="0" IVar="0" Cut="7.0322966575622559e+00" cType="1" res="-9.4074070453643799e-02" rms="4.7221884131431580e-01" purity="3.8419547677040100e-01" nType="0">
          <Node pos="l" depth="2" NCoef="0" IVar="-1" Cut="0.0000000000000000e+00" cType="1" res="-5.5785854347050190e-03" rms="4.4791969656944275e-01" purity="2.9456713795661926e-01" nType="-99"/>
          <Node pos="r" depth="2" NCoef="0" IVar="-1" Cut="0.0000000000000000e+00" cType="1" res="-9.3358953017741442e-04" rms="4.9083986878395081e-01" purity="4.9334689974784851e-01" nType="-99"/>
        </Node>
      </Node>
    </BinaryTree>
    <BinaryTree type="DecisionTree" boostWeight="1.0000000000000000e+00" itree="35">
      <Node pos="s" depth="0" NCoef="0" IVar="3" Cut="2.4203314781188965e+00" cType="1" res="2.6427549310028553e-03" rms="4.8266124725341797e-01" purity="5.0568866729736328e-01" nType="0">
        <Node pos="l" depth="1" NCoef="0" IVar="0" Cut="7.0612730979919434e+00" cType="1" res="3.8964275270700455e-02" rms="4.8551806807518005e-01" purity="5.6389826536178589e-01" nType="0">
          <Node pos="l" depth="2" NCoef="0" IVar="-1" Cut="0.0000000000000000e+00" cType="1" res="-6.9246365455910563e-04" rms="4.9419721961021423e-01" purity="4.6966505050659180e-01" nType="-99"/>
          <Node pos="r" depth="2" NCoef="0" IVar="-1" Cut="0.0000000000000000e+00" cType="1" res="4.3175946921110153e-03" rms="4.6937432885169983e-01" purity="6.6022688150405884e-01" nType="-99"/>
        </Node>
        <Node pos="r" depth="1" NCoef="0" IVar="4" Cut="6.8419731140136719e+01" cType="1" res="-1.3148692250251770e-01" rms="4.4708535075187683e-01" purity="2.9072961211204529e-01" nType="0">
          <Node pos="l" depth="2" NCoef="0" IVar="-1" Cut="0.0000000000000000e+00" cType="1" res="-8.4001915529370308e-03" rms="3.8602468371391296e-01" purity="1.8720613420009613e-01" nType="-99"/>
          <Node pos="r" depth="2" NCoef="0" IVar="-1" Cut="0.0000000000000000e+00" cType="1" res="-3.4765114542096853e-03" rms="4.6271574497222900e-01" purity="3.3124884963035583e-01" nType="-99"/>
        </Node>
      </Node>
    </BinaryTree>
    <BinaryTree type="DecisionTree" boostWeight="1.0000000000000000e+00" itree="36">
      <Node pos="s" depth="0" NCoef="0" IVar="2" Cut="8.7582129240036011e-01" cType="1" res="5.3890090202912688e-04" rms="4.8177585005760193e-01" purity="5.0509864091873169e-01" nType="0">
        <Node pos="l" depth="1" NCoef="0" IVar="4" Cut="4.6260551452636719e+01" cType="1" res="1.1518882960081100e-01" rms="4.6368017792701721e-01" purity="6.6708463430404663e-01" nType="0">
          <Node pos="l" depth="2" NCoef="0" IVar="-1" Cut="0.0000000000000000e+00" cType="1" res="-3.3334249746985734e-04" rms="4.9313011765480042e-01" purity="5.3643107414245605e-01" nType="-99"/>
          <Node pos="r" depth="2" NCoef="0" IVar="-1" Cut="0.0000000000000000e+00" cType="1" res="6.3347453251481056e-03" rms="4.5140922069549561e-01" purity="6.9831502437591553e-01" nType="-99"/>
        </Node>
        <Node pos="r" depth="1" NCoef="0" IVar="7" Cut="9.3718999624252319e-01" cType="1" res="-4.2928867042064667e-02" rms="4.8137453198432922e-01" purity="4.4368416070938110e-01" nType="0">
          <Node pos="l" depth="2" NCoef="0" IVar="-1" Cut="0.0000000000000000e+00" cType="1" res="-5.3317719139158726e-03" rms="4.4468009471893311e-01" purity="2.8809756040573120e-01" nType="-99"/>
          <Node pos="r" depth="2" NCoef="0" IVar="-1" Cut="0.0000000000000000e+00" cType="1" res="1.2628707918338478e-04" rms="4.8909902572631836e-01" purity="5.1030999422073364e-01" nType="-99"/>
        </Node>
      </Node>
    </BinaryTree>
    <BinaryTree type="DecisionTree" boostWeight="1.0000000000000000e+00" itree="37">
      <Node pos="s" depth="0" NCoef="0" IVar="2" Cut="1.0758415460586548e+00" cType="1" res="1.6051137354224920e-03" rms="4.8207101225852966e-01" purity="5.0577646493911743e-01" nType="0">
        <Node pos="l" depth="1" NCoef="0" IVar="0" Cut="6.6373367309570312e+00" cType="1" res="7.1902975440025330e-02" rms="4.7672787308692932e-01" purity="6.1562108993530273e-01" nType="0">
          <Node pos="l" depth="2" NCoef="0" IVar="-1" Cut="0.0000000000000000e+00" cType="1" res="-3.2832333818078041e-04" rms="4.9719080328941345e-01" purity="4.8396217823028564e-01" nType="-99"/>
          <Node pos="r" depth="2" NCoef="0" IVar="-1" Cut="0.0000000000000000e+00" cType="1" res="5.2011827938258648e-03" rms="4.5901232957839966e-01" purity="6.8842726945877075e-01" nType="-99"/>
        </Node>
        <Node pos="r" depth="1" NCoef="0" IVar="3" Cut="2.6854417324066162e+00" cType="1" res="-6.2236011028289795e-02" rms="4.7799721360206604e-01" purity="4.0602090954780579e-01" nType="0">
          <Node pos="l" depth="2" NCoef="0" IVar="-1" Cut="0.0000000000000000e+00" cType="1" res="-1.5550032258033752e-03" rms="4.8592600226402283e-01" purity="4.3868082761764526e-01" nType="-99"/>
          <Node pos="r" depth="2" NCoef="0" IVar="-1" Cut="0.0000000000000000e+00" cType="1" res="-7.2793187573552132e-03" rms="4.0204083919525146e-01" purity="2.0963837206363678e-01" nType="-99"/>
        </Node>
      </Node>
    </BinaryTree>
    <BinaryTree type="DecisionTree" boostWeight="1.0000000000000000e+00" itree="38">
      <Node pos="s" depth="0" NCoef="0" IVar="2" Cut="1.0371649265289307e+00" cType="1" res="-1.0318577988073230e-03" rms="4.8171412944793701e-01" purity="5.0259846448898315e-01" nType="0">
        <Node pos="l" depth="1" NCoef="0" IVar="7" Cut="9.3018311262130737e-01" cType="1" res="7.6513826847076416e-02" rms="4.7559192776679993e-01" purity="6.2363487482070923e-01" nType="0">
          <Node pos="l" depth="2" NCoef="0" IVar="-1" Cut="0.0000000000000000e+00" cType="1" res="-2.0090530160814524e-03" rms="4.9351996183395386e-01" purity="4.3221542239189148e-01" nType="-99"/>
          <Node pos="r" depth="2" NCoef="0" IVar="-1" Cut="0.0000000000000000e+00" cType="1" res="4.4883806258440018e-03" rms="4.6744102239608765e-01" purity="6.6246354579925537e-01" nType="-99"/>
        </Node>
        <Node pos="r" depth="1" NCoef="0" IVar="8" Cut="1.7539569139480591e+00" cType="1" res="-6.2176000326871872e-02" rms="4.7769197821617126e-01" purity="4.0716230869293213e-01" nType="0">
          <Node pos="l" depth="2" NCoef="0" IVar="-1" Cut="0.0000000000000000e+00" cType="1" res="-8.5036869859322906e-04" rms="4.8754957318305969e-01" purity="4.5886933803558350e-01" nType="-99"/>
          <Node pos="r" depth="2" NCoef="0" IVar="-1" Cut="0.0000000000000000e+00" cType="1" res="-5.8151753619313240e-03" rms="4.4059470295906067e-01" purity="2.8910470008850098e-01" nType="-99"/>
        </Node>
      </Node>
    </BinaryTree>
    <BinaryTree type="DecisionTree" boostWeight="1.0000000000000000e+00" itree="39">
      <Node pos="s" depth="0" NCoef="0" IVar="8" Cut="1.7237544059753418e+00" cType="1" res="-8.6039286106824875e-03" rms="4.8230651021003723e-01" purity="4.9663195013999939e-01" nType="0">
        <Node pos="l" depth="1" NCoef="0" IVar="0" Cut="6.1182713508605957e+00" cType="1" res="2.5643983855843544e-02" rms="4.8401317000389099e-01" purity="5.4286396503448486e-01" nType="0">
          <Node pos="l" depth="2" NCoef="0" IVar="-1" Cut="0.0000000000000000e+00" cType="1" res="-2.4752193130552769e-03" rms="4.8172211647033691e-01" purity="3.9106929302215576e-01" nType="-99"/>
          <Node pos="r" depth="2" NCoef="0" IVar="-1" Cut="0.0000000000000000e+00" cType="1" res="2.4548070505261421e-03" rms="4.8063850402832031e-01" purity="5.9511542320251465e-01" nType="-99"/>
        </Node>
        <Node pos="r" depth="1" NCoef="0" IVar="4" Cut="5.8555923461914062e+01" cType="1" res="-1.4127191901206970e-01" rms="4.5175954699516296e-01" purity="3.1754016876220703e-01" nType="0">
          <Node pos="l" depth="2" NCoef="0" IVar="-1" Cut="0.0000000000000000e+00" cType="1" res="-8.3187529817223549e-03" rms="4.2142117023468018e-01" purity="2.4959050118923187e-01" nType="-99"/>
          <Node pos="r" depth="2" NCoef="0" IVar="-1" Cut="0.0000000000000000e+00" cType="1" res="-4.1054892353713512e-03" rms="4.6005511283874512e-01" purity="3.4702667593955994e-01" nType="-99"/>
        </Node>
      </Node>
    </BinaryTree>
    <BinaryTree type="DecisionTree" boostWeight="1.0000000000000000e+00" itree="40">
      <Node pos="s" depth="0" NCoef="0" IVar="2" Cut="1.3101283311843872e+00" cType="1" res="-9.0054450556635857e-03" rms="4.8181879520416260e-01" purity="4.9427935481071472e-01" nType="0">
        <Node pos="l" depth="1" NCoef="0" IVar="7" Cut="9.2669725418090820e-01" cType="1" res="3.4333143383264542e-02" rms="4.8404553532600403e-01" purity="5.6218904256820679e-01" nType="0">
          <Node pos="l" depth="2" NCoef="0" IVar="-1" Cut="0.0000000000000000e+00" cType="1" res="-3.8473345339298248e-03" rms="4.7054430842399597e-01" purity="3.5206085443496704e-01" nType="-99"/>
          <Node pos="r" depth="2" NCoef="0" IVar="-1" Cut="0.0000000000000000e+00" cType="1" res="2.5639333762228489e-03" rms="4.8189187049865723e-01" purity="6.0069119930267334e-01" nType="-99"/>
        </Node>
        <Node pos="r" depth="1" NCoef="0" IVar="9" Cut="5.9831677246093750e+02" cType="1" res="-1.1440382897853851e-01" rms="4.5961093902587891e-01" purity="3.2912465929985046e-01" nType="0">
          <Node pos="l" depth="2" NCoef="0" IVar="-1" Cut="0.0000000000000000e+00" cType="1" res="-7.5026378035545349e-03" rms="4.1388973593711853e-01" purity="2.3274670541286469e-01" nType="-99"/>
          <Node pos="r" depth="2" NCoef="0" IVar="-1" Cut="0.0000000000000000e+00" cType="1" res="-2.8068046085536480e-03" rms="4.7367322444915771e-01" purity="3.7381654977798462e-01" nType="-99"/>
        </Node>
      </Node>
    </BinaryTree>
    <BinaryTree type="DecisionTree" boostWeight="1.0000000000000000e+00" itree="41">
      <Node pos="s" depth="0" NCoef="0" IVar="3" Cut="2.4099137783050537e+00" cType="1" res="-6.5835606073960662e-04" rms="4.8164930939674377e-01" purity="5.0452315807342529e-01" nType="0">
        <Node pos="l" depth="1" NCoef="0" IVar="4" Cut="5.5898197174072266e+01" cType="1" res="3.2241046428680420e-02" rms="4.8519456386566162e-01" purity="5.6167721748352051e-01" nType="0">
          <Node pos="l" depth="2" NCoef="0" IVar="-1" Cut="0.0000000000000000e+00" cType="1" res="-1.7921630060300231e-03" rms="4.8956725001335144e-01" purity="4.7869858145713806e-01" nType="-99"/>
          <Node pos="r" depth="2" NCoef="0" IVar="-1" Cut="0.0000000000000000e+00" cType="1" res="2.9113006312400103e-03" rms="4.7860854864120483e-01" purity="6.0188770294189453e-01" nType="-99"/>
        </Node>
        <Node pos="r" depth="1" NCoef="0" IVar="0" Cut="7.4964494705200195e+00" cType="1" res="-1.2219478189945221e-01" rms="4.4783240556716919e-01" purity="2.9338556528091431e-01" nType="0">
          <Node pos="l" depth="2" NCoef="0" IVar="-1" Cut="0.0000000000000000e+00" cType="1" res="-5.7398364879190922e-03" rms="4.2594000697135925e-01" purity="2.4658882617950439e-01" nType="-99"/>
          <Node pos="r" depth="2" NCoef="0" IVar="-1" Cut="0.0000000000000000e+00" cType="1" res="-1.8385376315563917e-03" rms="4.8710069060325623e-01" purity="4.0379419922828674e-01" nType="-99"/>
        </Node>
      </Node>
    </BinaryTree>
    <BinaryTree type="DecisionTree" boostWeight="1.0000000000000000e+00" itree="42">
      <Node pos="s" depth="0" NCoef="0" IVar="3" Cut="2.3293306827545166e+00" cType="1" res="4.9248016439378262e-03" rms="4.8050647974014282e-01" purity="5.0977015495300293e-01" nType="0">
        <Node pos="l" depth="1" NCoef="0" IVar="7" Cut="9.2448830604553223e-01" cType="1" res="4.8224743455648422e-02" rms="4.8278397321701050e-01" purity="5.8300435543060303e-01" nType="0">
          <Node pos="l" depth="2" NCoef="0" IVar="-1" Cut="0.0000000000000000e+00" cType="1" res="-3.9272983558475971e-03" rms="4.7622683644294739e-01" purity="3.5569855570793152e-01" nType="-99"/>
          <Node pos="r" depth="2" NCoef="0" IVar="-1" Cut="0.0000000000000000e+00" cType="1" res="2.9696186538785696e-03" rms="4.7953802347183228e-01" purity="6.1423921585083008e-01" nType="-99"/>
        </Node>
        <Node pos="r" depth="1" NCoef="0" IVar="7" Cut="9.6004951000213623e-01" cType="1" res="-1.0600183159112930e-01" rms="4.5624372363090515e-01" purity="3.2215744256973267e-01" nType="0">
          <Node pos="l" depth="2" NCoef="0" IVar="-1" Cut="0.0000000000000000e+00" cType="1" res="-5.2448748610913754e-03" rms="4.3687951564788818e-01" purity="2.6952838897705078e-01" nType="-99"/>
          <Node pos="r" depth="2" NCoef="0" IVar="-1" Cut="0.0000000000000000e+00" cType="1" res="-8.9422677410766482e-04" rms="4.8767235875129700e-01" purity="4.4354045391082764e-01" nType="-99"/>
        </Node>
      </Node>
    </BinaryTree>
    <BinaryTree type="DecisionTree" boostWeight="1.0000000000000000e+00" itree="43">
      <Node pos="s" depth="0" NCoef="0" IVar="2" Cut="1.5386021137237549e+00" cType="1" res="-3.8466507103294134e-03" rms="4.8012995719909668e-01" purity="5.0089240074157715e-01" nType="0">
        <Node pos="l" depth="1" NCoef="0" IVar="7" Cut="9.5202666521072388e-01" cType="1" res="2.1001456305384636e-02" rms="4.8321980237960815e-01" purity="5.3771442174911499e-01" nType="0">
          <Node pos="l" depth="2" NCoef="0" IVar="-1" Cut="0.0000000000000000e+00" cType="1" res="-1.6070911660790443e-03" rms="4.8461902141571045e-01" purity="4.3625631928443909e-01" nType="-99"/>
          <Node pos="r" depth="2" NCoef="0" IVar="-1" Cut="0.0000000000000000e+00" cType="1" res="3.4964110236614943e-03" rms="4.7439473867416382e-01" purity="6.3221722841262817e-01" nType="-99"/>
        </Node>
        <Node pos="r" depth="1" NCoef="0" IVar="3" Cut="2.4855012893676758e+00" cType="1" res="-1.7130982875823975e-01" rms="4.2220735549926758e-01" purity="2.5273117423057556e-01" nType="0">
          <Node pos="l" depth="2" NCoef="0" IVar="-1" Cut="0.0000000000000000e+00" cType="1" res="-4.0452810935676098e-03" rms="4.7326886653900146e-01" purity="3.5802930593490601e-01" nType="-99"/>
          <Node pos="r" depth="2" NCoef="0" IVar="-1" Cut="0.0000000000000000e+00" cType="1" res="-8.2625402137637138e-03" rms="3.6729001998901367e-01" purity="1.6679941117763519e-01" nType="-99"/>
        </Node>
      </Node>
    </BinaryTree>
    <BinaryTree type="DecisionTree" boostWeight="1.0000000000000000e+00" itree="44">
      <Node pos="s" depth="0" NCoef="0" IVar="2" Cut="8.7975394725799561e-01" cType="1" res="-1.6579326475039124e-03" rms="4.7853866219520569e-01" purity="5.0185346603393555e-01" nType="0">
        <Node pos="l" depth="1" NCoef="0" IVar="7" Cut="9.3618339300155640e-01" cType="1" res="1.1556708812713623e-01" rms="4.5906504988670349e-01" purity="6.7588001489639282e-01" nType="0">
          <Node pos="l" depth="2" NCoef="0" IVar="-1" Cut="0.0000000000000000e+00" cType="1" res="5.2526005310937762e-04" rms="4.9619483947753906e-01" purity="5.0956964492797852e-01" nType="-99"/>
          <Node pos="r" depth="2" NCoef="0" IVar="-1" Cut="0.0000000000000000e+00" cType="1" res="6.5825465135276318e-03" rms="4.4335162639617920e-01" purity="7.2416877746582031e-01" nType="-99"/>
        </Node>
        <Node pos="r" depth="1" NCoef="0" IVar="2" Cut="1.4131304025650024e+00" cType="1" res="-4.7502566128969193e-02" rms="4.7818821668624878e-01" purity="4.3379473686218262e-01" nType="0">
          <Node pos="l" depth="2" NCoef="0" IVar="-1" Cut="0.0000000000000000e+00" cType="1" res="-4.2504811426624656e-04" rms="4.8722204566001892e-01" purity="4.9283865094184875e-01" nType="-99"/>
          <Node pos="r" depth="2" NCoef="0" IVar="-1" Cut="0.0000000000000000e+00" cType="1" res="-5.0632534548640251e-03" rms="4.4423538446426392e-01" purity="2.9461264610290527e-01" nType="-99"/>
        </Node>
      </Node>
    </BinaryTree>
    <BinaryTree type="DecisionTree" boostWeight="1.0000000000000000e+00" itree="45">
      <Node pos="s" depth="0" NCoef="0" IVar="2" Cut="9.1637593507766724e-01" cType="1" res="-6.5228124149143696e-03" rms="4.7924768924713135e-01" purity="4.9692359566688538e-01" nType="0">
        <Node pos="l" depth="1" NCoef="0" IVar="7" Cut="9.2934441566467285e-01" cType="1" res="9.0879261493682861e-02" rms="4.6803277730941772e-01" purity="6.5170502662658691e-01" nType="0">
          <Node pos="l" depth="2" NCoef="0" IVar="-1" Cut="0.0000000000000000e+00" cType="1" res="-1.2543656630441546e-03" rms="4.9570006132125854e-01" purity="4.5245397090911865e-01" nType="-99"/>
          <Node pos="r" depth="2" NCoef="0" IVar="-1" Cut="0.0000000000000000e+00" cType="1" res="5.2166730165481567e-03" rms="4.5800867676734924e-01" purity="6.9246715307235718e-01" nType="-99"/>
        </Node>
        <Node pos="r" depth="1" NCoef="0" IVar="8" Cut="1.7173773050308228e+00" cType="1" res="-5.0566814839839935e-02" rms="4.7775766253471375e-01" purity="4.2693343758583069e-01" nType="0">
          <Node pos="l" depth="2" NCoef="0" IVar="-1" Cut="0.0000000000000000e+00" cType="1" res="-5.7180062867701054e-04" rms="4.8557406663894653e-01" purity="4.7711417078971863e-01" nType="-99"/>
          <Node pos="r" depth="2" NCoef="0" IVar="-1" Cut="0.0000000000000000e+00" cType="1" res="-5.4355626925826073e-03" rms="4.4344267249107361e-01" purity="2.9715323448181152e-01" nType="-99"/>
        </Node>
      </Node>
    </BinaryTree>
    <BinaryTree type="DecisionTree" boostWeight="1.0000000000000000e+00" itree="46">
      <Node pos="s" depth="0" NCoef="0" IVar="2" Cut="9.6432060003280640e-01" cType="1" res="-3.9252256974577904e-03" rms="4.7840803861618042e-01" purity="5.0044292211532593e-01" nType="0">
        <Node pos="l" depth="1" NCoef="0" IVar="7" Cut="9.3065285682678223e-01" cType="1" res="8.4959551692008972e-02" rms="4.6831938624382019e-01" purity="6.4523458480834961e-01" nType="0">
          <Node pos="l" depth="2" NCoef="0" IVar="-1" Cut="0.0000000000000000e+00" cType="1" res="-1.9967006519436836e-03" rms="4.9355804920196533e-01" purity="4.3011838197708130e-01" nType="-99"/>
          <Node pos="r" depth="2" NCoef="0" IVar="-1" Cut="0.0000000000000000e+00" cType="1" res="5.1010185852646828e-03" rms="4.5777568221092224e-01" purity="6.8934118747711182e-01" nType="-99"/>
        </Node>
        <Node pos="r" depth="1" NCoef="0" IVar="3" Cut="2.4931218624114990e+00" cType="1" res="-5.4203782230615616e-02" rms="4.7673898935317993e-01" purity="4.1854012012481689e-01" nType="0">
          <Node pos="l" depth="2" NCoef="0" IVar="-1" Cut="0.0000000000000000e+00" cType="1" res="-7.8527646837756038e-04" rms="4.8990926146507263e-01" purity="4.7907352447509766e-01" nType="-99"/>
          <Node pos="r" depth="2" NCoef="0" IVar="-1" Cut="0.0000000000000000e+00" cType="1" res="-5.8123921044170856e-03" rms="4.2139068245887756e-01" purity="2.4448204040527344e-01" nType="-99"/>
        </Node>
      </Node>
    </BinaryTree>
    <BinaryTree type="DecisionTree" boostWeight="1.0000000000000000e+00" itree="47">
      <Node pos="s" depth="0" NCoef="0" IVar="2" Cut="1.2935186624526978e+00" cType="1" res="-7.3429709300398827e-03" rms="4.7719764709472656e-01" purity="4.9664321541786194e-01" nType="0">
        <Node pos="l" depth="1" NCoef="0" IVar="7" Cut="9.2293578386306763e-01" cType="1" res="3.9446458220481873e-02" rms="4.8017138242721558e-01" purity="5.7460743188858032e-01" nType="0">
          <Node pos="l" depth="2" NCoef="0" IVar="-1" Cut="0.0000000000000000e+00" cType="1" res="-4.2620748281478882e-03" rms="4.6859204769134521e-01" purity="3.3733615279197693e-01" nType="-99"/>
          <Node pos="r" depth="2" NCoef="0" IVar="-1" Cut="0.0000000000000000e+00" cType="1" res="2.6246318593621254e-03" rms="4.7750532627105713e-01" purity="6.0678070783615112e-01" nType="-99"/>
        </Node>
        <Node pos="r" depth="1" NCoef="0" IVar="0" Cut="7.0714654922485352e+00" cType="1" res="-1.1170408129692078e-01" rms="4.5342403650283813e-01" purity="3.2274863123893738e-01" nType="0">
          <Node pos="l" depth="2" NCoef="0" IVar="-1" Cut="0.0000000000000000e+00" cType="1" res="-6.0294247232377529e-03" rms="4.2063164710998535e-01" purity="2.4426768720149994e-01" nType="-99"/>
          <Node pos="r" depth="2" NCoef="0" IVar="-1" Cut="0.0000000000000000e+00" cType="1" res="-1.3393269618973136e-03" rms="4.8703849315643311e-01" purity="4.3784508109092712e-01" nType="-99"/>
        </Node>
      </Node>
    </BinaryTree>
    <BinaryTree type="DecisionTree" boostWeight="1.0000000000000000e+00" itree="48">
      <Node pos="s" depth="0" NCoef="0" IVar="2" Cut="1.2035248279571533e+00" cType="1" res="-4.7129844315350056e-03" rms="4.7811460494995117e-01" purity="5.0048351287841797e-01" nType="0">
        <Node pos="l" depth="1" NCoef="0" IVar="0" Cut="7.5323553085327148e+00" cType="1" res="4.7499686479568481e-02" rms="4.7878155112266541e-01" purity="5.9139692783355713e-01" nType="0">
          <Node pos="l" depth="2" NCoef="0" IVar="-1" Cut="0.0000000000000000e+00" cType="1" res="-6.8747933255508542e-05" rms="4.9207490682601929e-01" purity="5.1094251871109009e-01" nType="-99"/>
          <Node pos="r" depth="2" NCoef="0" IVar="-1" Cut="0.0000000000000000e+00" cType="1" res="5.6914379820227623e-03" rms="4.4708997011184692e-01" purity="7.1525979042053223e-01" nType="-99"/>
        </Node>
        <Node pos="r" depth="1" NCoef="0" IVar="7" Cut="9.4241356849670410e-01" cType="1" res="-8.5545860230922699e-02" rms="4.6567273139953613e-01" purity="3.5973617434501648e-01" nType="0">
          <Node pos="l" depth="2" NCoef="0" IVar="-1" Cut="0.0000000000000000e+00" cType="1" res="-5.6801838800311089e-03" rms="4.2043417692184448e-01" purity="2.4415110051631927e-01" nType="-99"/>
          <Node pos="r" depth="2" NCoef="0" IVar="-1" Cut="0.0000000000000000e+00" cType="1" res="-1.6308852937072515e-03" rms="4.8671013116836548e-01" purity="4.3253383040428162e-01" nType="-99"/>
        </Node>
      </Node>
    </BinaryTree>
    <BinaryTree type="DecisionTree" boostWeight="1.0000000000000000e+00" itree="49">
      <Node pos="s" depth="0" NCoef="0" IVar="2" Cut="9.4005429744720459e-01" cType="1" res="-1.0511236265301704e-02" rms="4.7789186239242554e-01" purity="4.9385240674018860e-01" nType="0">
        <Node pos="l" depth="1" NCoef="0" IVar="7" Cut="9.3029087781906128e-01" cType="1" res="7.4463695287704468e-02" rms="4.7049930691719055e-01" purity="6.3970816135406494e-01" nType="0">
          <Node pos="l" depth="2" NCoef="0" IVar="-1" Cut="0.0000000000000000e+00" cType="1" res="-1.4650907833129168e-03" rms="4.9325007200241089e-01" purity="4.4424977898597717e-01" nType="-99"/>
          <Node pos="r" depth="2" NCoef="0" IVar="-1" Cut="0.0000000000000000e+00" cType="1" res="4.3894127011299133e-03" rms="4.6230319142341614e-01" purity="6.7946636676788330e-01" nType="-99"/>
        </Node>
        <Node pos="r" depth="1" NCoef="0" IVar="7" Cut="9.4042140245437622e-01" cType="1" res="-5.4598886519670486e-02" rms="4.7573953866958618e-01" purity="4.1817793250083923e-01" nType="0">
          <Node pos="l" depth="2" NCoef="0" IVar="-1" Cut="0.0000000000000000e+00" cType="1" res="-4.6276473440229893e-03" rms="4.4380331039428711e-01" purity="2.9136899113655090e-01" nType="-99"/>
          <Node pos="r" depth="2" NCoef="0" IVar="-1" Cut="0.0000000000000000e+00" cType="1" res="-6.0221529565751553e-04" rms="4.8747503757476807e-01" purity="4.8655185103416443e-01" nType="-99"/>
        </Node>
      </Node>
    </BinaryTree>
    <BinaryTree type="DecisionTree" boostWeight="1.0000000000000000e+00" itree="50">
      <Node pos="s" depth="0" NCoef="0" IVar="2" Cut="1.3509744405746460e+00" cType="1" res="-1.0844189673662186e-03" rms="4.7761243581771851e-01" purity="5.0292956829071045e-01" nType="0">
        <Node pos="l" depth="1" NCoef="0" IVar="0" Cut="7.0923323631286621e+00" cType="1" res="3.5704232752323151e-02" rms="4.8091691732406616e-01" purity="5.6718510389328003e-01" nType="0">
          <Node pos="l" depth="2" NCoef="0" IVar="-1" Cut="0.0000000000000000e+00" cType="1" res="-5.9892918216064572e-04" rms="4.9062681198120117e-01" purity="4.7036352753639221e-01" nType="-99"/>
          <Node pos="r" depth="2" NCoef="0" IVar="-1" Cut="0.0000000000000000e+00" cType="1" res="3.9913761429488659e-03" rms="4.6470224857330322e-01" purity="6.6759240627288818e-01" nType="-99"/>
        </Node>
        <Node pos="r" depth="1" NCoef="0" IVar="3" Cut="2.6069586277008057e+00" cType="1" res="-1.0657771676778793e-01" rms="4.5168688893318176e-01" purity="3.1867349147796631e-01" nType="0">
          <Node pos="l" depth="2" NCoef="0" IVar="-1" Cut="0.0000000000000000e+00" cType="1" res="-2.5968614500015974e-03" rms="4.7563570737838745e-01" purity="3.8310992717742920e-01" nType="-99"/>
          <Node pos="r" depth="2" NCoef="0" IVar="-1" Cut="0.0000000000000000e+00" cType="1" res="-6.9971652701497078e-03" rms="3.8684183359146118e-01" purity="1.8850801885128021e-01" nType="-99"/>
        </Node>
      </Node>
    </BinaryTree>
    <BinaryTree type="DecisionTree" boostWeight="1.0000000000000000e+00" itree="51">
      <Node pos="s" depth="0" NCoef="0" IVar="8" Cut="1.3966830968856812e+00" cType="1" res="-6.4556505531072617e-03" rms="4.7840851545333862e-01" purity="4.9836042523384094e-01" nType="0">
        <Node pos="l" depth="1" NCoef="0" IVar="3" Cut="2.4844450950622559e+00" cType="1" res="3.2848954200744629e-02" rms="4.7970709204673767e-01" purity="5.5686926841735840e-01" nType="0">
          <Node pos="l" depth="2" NCoef="0" IVar="-1" Cut="0.0000000000000000e+00" cType="1" res="2.1330160088837147e-03" rms="4.8072433471679688e-01" purity="5.8814162015914917e-01" nType="-99"/>
          <Node pos="r" depth="2" NCoef="0" IVar="-1" Cut="0.0000000000000000e+00" cType="1" res="-4.7782026231288910e-03" rms="4.3901053071022034e-01" purity="2.7594143152236938e-01" nType="-99"/>
        </Node>
        <Node pos="r" depth="1" NCoef="0" IVar="0" Cut="7.3301115036010742e+00" cType="1" res="-9.6308343112468719e-02" rms="4.6306076645851135e-01" purity="3.6460563540458679e-01" nType="0">
          <Node pos="l" depth="2" NCoef="0" IVar="-1" Cut="0.0000000000000000e+00" cType="1" res="-5.3069270215928555e-03" rms="4.4014379382133484e-01" purity="2.8452867269515991e-01" nType="-99"/>
          <Node pos="r" depth="2" NCoef="0" IVar="-1" Cut="0.0000000000000000e+00" cType="1" res="-8.1360404146835208e-04" rms="4.8856180906295776e-01" purity="4.9541702866554260e-01" nType="-99"/>
        </Node>
      </Node>
    </BinaryTree>
    <BinaryTree type="DecisionTree" boostWeight="1.0000000000000000e+00" itree="52">
      <Node pos="s" depth="0" NCoef="0" IVar="2" Cut="1.0495321750640869e+00" cType="1" res="-7.5896061025559902e-03" rms="4.7770348191261292e-01" purity="4.9720710515975952e-01" nType="0">
        <Node pos="l" depth="1" NCoef="0" IVar="5" Cut="8.5384175181388855e-02" cType="1" res="5.8916062116622925e-02" rms="4.7523507475852966e-01" purity="6.1932742595672607e-01" nType="0">
          <Node pos="l" depth="2" NCoef="0" IVar="-1" Cut="0.0000000000000000e+00" cType="1" res="-3.0283068190328777e-04" rms="4.8480579257011414e-01" purity="5.4763936996459961e-01" nType="-99"/>
          <Node pos="r" depth="2" NCoef="0" IVar="-1" Cut="0.0000000000000000e+00" cType="1" res="4.3901139870285988e-03" rms="4.6442463994026184e-01" purity="6.6395521163940430e-01" nType="-99"/>
        </Node>
        <Node pos="r" depth="1" NCoef="0" IVar="7" Cut="9.3941473960876465e-01" cType="1" res="-6.4095288515090942e-02" rms="4.7249159216880798e-01" purity="3.9344909787178040e-01" nType="0">
          <Node pos="l" depth="2" NCoef="0" IVar="-1" Cut="0.0000000000000000e+00" cType="1" res="-5.0839358009397984e-03" rms="4.3187522888183594e-01" purity="2.6520854234695435e-01" nType="-99"/>
          <Node pos="r" depth="2" NCoef="0" IVar="-1" Cut="0.0000000000000000e+00" cType="1" res="-9.9945848342031240e-04" rms="4.8743027448654175e-01" purity="4.5944651961326599e-01" nType="-99"/>
        </Node>
      </Node>
    </BinaryTree>
    <BinaryTree type="DecisionTree" boostWeight="1.0000000000000000e+00" itree="53">
      <Node pos="s" depth="0" NCoef="0" IVar="0" Cut="6.1057257652282715e+00" cType="1" res="-4.3120961636304855e-03" rms="4.7862926125526428e-01" purity="5.0072515010833740e-01" nType="0">
        <Node pos="l" depth="1" NCoef="0" IVar="3" Cut="2.2351427078247070e+00" cType="1" res="-9.4167701900005341e-02" rms="4.6137720346450806e-01" purity="3.3965891599655151e-01" nType="0">
          <Node pos="l" depth="2" NCoef="0" IVar="-1" Cut="0.0000000000000000e+00" cType="1" res="-1.8431802745908499e-03" rms="4.8914769291877747e-01" purity="4.1973206400871277e-01" nType="-99"/>
          <Node pos="r" depth="2" NCoef="0" IVar="-1" Cut="0.0000000000000000e+00" cType="1" res="-5.5607827380299568e-03" rms="4.1366741061210632e-01" purity="2.3182019591331482e-01" nType="-99"/>
        </Node>
        <Node pos="r" depth="1" NCoef="0" IVar="4" Cut="4.7677017211914062e+01" cType="1" res="2.8230976313352585e-02" rms="4.8059973120689392e-01" purity="5.5905866622924805e-01" nType="0">
          <Node pos="l" depth="2" NCoef="0" IVar="-1" Cut="0.0000000000000000e+00" cType="1" res="-3.3367131836712360e-03" rms="4.8690050840377808e-01" purity="4.5543891191482544e-01" nType="-99"/>
          <Node pos="r" depth="2" NCoef="0" IVar="-1" Cut="0.0000000000000000e+00" cType="1" res="2.2787193302065134e-03" rms="4.7552376985549927e-01" purity="5.8297747373580933e-01" nType="-99"/>
        </Node>
      </Node>
    </BinaryTree>
    <BinaryTree type="DecisionTree" boostWeight="1.0000000000000000e+00" itree="54">
      <Node pos="s" depth="0" NCoef="0" IVar="2" Cut="9.2681449651718140e-01" cType="1" res="-7.7707353048026562e-03" rms="4.7751334309577942e-01" purity="4.9775663018226624e-01" nType="0">
        <Node pos="l" depth="1" NCoef="0" IVar="4" Cut="4.6260551452636719e+01" cType="1" res="7.2778649628162384e-02" rms="4.7020652890205383e-01" purity="6.4580082893371582e-01" nType="0">
          <Node pos="l" depth="2" NCoef="0" IVar="-1" Cut="0.0000000000000000e+00" cType="1" res="-1.3708485057577491e-03" rms="4.9697986245155334e-01" purity="5.2763795852661133e-01" nType="-99"/>
          <Node pos="r" depth="2" NCoef="0" IVar="-1" Cut="0.0000000000000000e+00" cType="1" res="4.3382588773965836e-03" rms="4.6012163162231445e-01" purity="6.7366325855255127e-01" nType="-99"/>
        </Node>
        <Node pos="r" depth="1" NCoef="0" IVar="4" Cut="6.2711700439453125e+01" cType="1" res="-4.7305110841989517e-02" rms="4.7609904408454895e-01" purity="4.2509523034095764e-01" nType="0">
          <Node pos="l" depth="2" NCoef="0" IVar="-1" Cut="0.0000000000000000e+00" cType="1" res="-4.7125439159572124e-03" rms="4.6440500020980835e-01" purity="3.5447299480438232e-01" nType="-99"/>
          <Node pos="r" depth="2" NCoef="0" IVar="-1" Cut="0.0000000000000000e+00" cType="1" res="-2.7814676286652684e-04" rms="4.7723528742790222e-01" purity="4.6232041716575623e-01" nType="-99"/>
        </Node>
      </Node>
    </BinaryTree>
    <BinaryTree type="DecisionTree" boostWeight="1.0000000000000000e+00" itree="55">
      <Node pos="s" depth="0" NCoef="0" IVar="3" Cut="2.1921503543853760e+00" cType="1" res="-7.4838399887084961e-03" rms="4.7678452730178833e-01" purity="4.9560785293579102e-01" nType="0">
        <Node pos="l" depth="1" NCoef="0" IVar="4" Cut="4.4763790130615234e+01" cType="1" res="4.2613752186298370e-02" rms="4.7831460833549500e-01" purity="5.8662211894989014e-01" nType="0">
          <Node pos="l" depth="2" NCoef="0" IVar="-1" Cut="0.0000000000000000e+00" cType="1" res="-2.8449033852666616e-03" rms="4.8537510633468628e-01" purity="4.5267689228057861e-01" nType="-99"/>
          <Node pos="r" depth="2" NCoef="0" IVar="-1" Cut="0.0000000000000000e+00" cType="1" res="3.1277437228709459e-03" rms="4.7159153223037720e-01" purity="6.2291026115417480e-01" nType="-99"/>
        </Node>
        <Node pos="r" depth="1" NCoef="0" IVar="3" Cut="2.4772021770477295e+00" cType="1" res="-7.3392890393733978e-02" rms="4.6664223074913025e-01" purity="3.7586820125579834e-01" nType="0">
          <Node pos="l" depth="2" NCoef="0" IVar="-1" Cut="0.0000000000000000e+00" cType="1" res="-1.3226055307313800e-03" rms="4.8728579282760620e-01" purity="4.6032491326332092e-01" nType="-99"/>
          <Node pos="r" depth="2" NCoef="0" IVar="-1" Cut="0.0000000000000000e+00" cType="1" res="-4.9460302107036114e-03" rms="4.3038970232009888e-01" purity="2.5915232300758362e-01" nType="-99"/>
        </Node>
      </Node>
    </BinaryTree>
    <BinaryTree type="DecisionTree" boostWeight="1.0000000000000000e+00" itree="56">
      <Node pos="s" depth="0" NCoef="0" IVar="2" Cut="1.3320881128311157e+00" cType="1" res="-4.1933045722544193e-03" rms="4.7703224420547485e-01" purity="5.0190162658691406e-01" nType="0">
        <Node pos="l" depth="1" NCoef="0" IVar="7" Cut="9.6401798725128174e-01" cType="1" res="3.1767074018716812e-02" rms="4.8082727193832397e-01" purity="5.6771081686019897e-01" nType="0">
          <Node pos="l" depth="2" NCoef="0" IVar="-1" Cut="0.0000000000000000e+00" cType="1" res="-1.1014683695975691e-04" rms="4.8861283063888550e-01" purity="5.0989019870758057e-01" nType="-99"/>
          <Node pos="r" depth="2" NCoef="0" IVar="-1" Cut="0.0000000000000000e+00" cType="1" res="5.0121275708079338e-03" rms="4.5351362228393555e-01" purity="6.9707018136978149e-01" nType="-99"/>
        </Node>
        <Node pos="r" depth="1" NCoef="0" IVar="4" Cut="6.5131706237792969e+01" cType="1" res="-1.0329566895961761e-01" rms="4.5183712244033813e-01" purity="3.2053974270820618e-01" nType="0">
          <Node pos="l" depth="2" NCoef="0" IVar="-1" Cut="0.0000000000000000e+00" cType="1" res="-7.2598140686750412e-03" rms="4.1233667731285095e-01" purity="2.3920528590679169e-01" nType="-99"/>
          <Node pos="r" depth="2" NCoef="0" IVar="-1" Cut="0.0000000000000000e+00" cType="1" res="-2.1855954546481371e-03" rms="4.6469074487686157e-01" purity="3.6408257484436035e-01" nType="-99"/>
        </Node>
      </Node>
    </BinaryTree>
    <BinaryTree type="DecisionTree" boostWeight="1.0000000000000000e+00" itree="57">
      <Node pos="s" depth="0" NCoef="0" IVar="3" Cut="2.2554893493652344e+00" cType="1" res="-6.2465425580739975e-03" rms="4.7666195034980774e-01" purity="4.9726250767707825e-01" nType="0">
        <Node pos="l" depth="1" NCoef="0" IVar="4" Cut="5.0496292114257812e+01" cType="1" res="3.6371007561683655e-02" rms="4.7976958751678467e-01" purity="5.8092212677001953e-01" nType="0">
          <Node pos="l" depth="2" NCoef="0" IVar="-1" Cut="0.0000000000000000e+00" cType="1" res="-2.2982656955718994e-03" rms="4.8585054278373718e-01" purity="4.7006684541702271e-01" nType="-99"/>
          <Node pos="r" depth="2" NCoef="0" IVar="-1" Cut="0.0000000000000000e+00" cType="1" res="3.0492083169519901e-03" rms="4.7264391183853149e-01" purity="6.2269395589828491e-01" nType="-99"/>
        </Node>
        <Node pos="r" depth="1" NCoef="0" IVar="7" Cut="9.4336158037185669e-01" cType="1" res="-8.0754622817039490e-02" rms="4.6182620525360107e-01" purity="3.5100075602531433e-01" nType="0">
          <Node pos="l" depth="2" NCoef="0" IVar="-1" Cut="0.0000000000000000e+00" cType="1" res="-5.2439500577747822e-03" rms="4.2041727900505066e-01" purity="2.4377600848674774e-01" nType="-99"/>
          <Node pos="r" depth="2" NCoef="0" IVar="-1" Cut="0.0000000000000000e+00" cType="1" res="-1.5122281620278955e-03" rms="4.8448643088340759e-01" purity="4.2718973755836487e-01" nType="-99"/>
        </Node>
      </Node>
    </BinaryTree>
    <BinaryTree type="DecisionTree" boostWeight="1.0000000000000000e+00" itree="58">
      <Node pos="s" depth="0" NCoef="0" IVar="2" Cut="1.3032991886138916e+00" cType="1" res="-5.3915027529001236e-03" rms="4.7797328233718872e-01" purity="4.9951499700546265e-01" nType="0">
        <Node pos="l" depth="1" NCoef="0" IVar="0" Cut="7.7435994148254395e+00" cType="1" res="2.8866901993751526e-02" rms="4.8265767097473145e-01" purity="5.6951737403869629e-01" nType="0">
          <Node pos="l" depth="2" NCoef="0" IVar="-1" Cut="0.0000000000000000e+00" cType="1" res="-1.9732088549062610e-04" rms="4.9202689528465271e-01" purity="5.0837224721908569e-01" nType="-99"/>
          <Node pos="r" depth="2" NCoef="0" IVar="-1" Cut="0.0000000000000000e+00" cType="1" res="4.4563687406480312e-03" rms="4.5565152168273926e-01" purity="6.9271260499954224e-01" nType="-99"/>
        </Node>
        <Node pos="r" depth="1" NCoef="0" IVar="7" Cut="9.2802011966705322e-01" cType="1" res="-8.4825292229652405e-02" rms="4.5715802907943726e-01" purity="3.3720287680625916e-01" nType="0">
          <Node pos="l" depth="2" NCoef="0" IVar="-1" Cut="0.0000000000000000e+00" cType="1" res="-6.8591064773499966e-03" rms="3.7612250447273254e-01" purity="1.7549572885036469e-01" nType="-99"/>
          <Node pos="r" depth="2" NCoef="0" IVar="-1" Cut="0.0000000000000000e+00" cType="1" res="-2.3009078577160835e-03" rms="4.7161146998405457e-01" purity="3.7806525826454163e-01" nType="-99"/>
        </Node>
      </Node>
    </BinaryTree>
    <BinaryTree type="DecisionTree" boostWeight="1.0000000000000000e+00" itree="59">
      <Node pos="s" depth="0" NCoef="0" IVar="2" Cut="8.9766210317611694e-01" cType="1" res="-4.3834592215716839e-03" rms="4.7591772675514221e-01" purity="4.9960419535636902e-01" nType="0">
        <Node pos="l" depth="1" NCoef="0" IVar="0" Cut="5.8545269966125488e+00" cType="1" res="7.9136259853839874e-02" rms="4.6382856369018555e-01" purity="6.5631592273712158e-01" nType="0">
          <Node pos="l" depth="2" NCoef="0" IVar="-1" Cut="0.0000000000000000e+00" cType="1" res="-1.4745452208444476e-03" rms="4.9590131640434265e-01" purity="4.5151737332344055e-01" nType="-99"/>
          <Node pos="r" depth="2" NCoef="0" IVar="-1" Cut="0.0000000000000000e+00" cType="1" res="4.7649056650698185e-03" rms="4.5258548855781555e-01" purity="7.0048964023590088e-01" nType="-99"/>
        </Node>
        <Node pos="r" depth="1" NCoef="0" IVar="2" Cut="1.5797049999237061e+00" cType="1" res="-4.0953081101179123e-02" rms="4.7652953863143921e-01" purity="4.3098706007003784e-01" nType="0">
          <Node pos="l" depth="2" NCoef="0" IVar="-1" Cut="0.0000000000000000e+00" cType="1" res="-8.2793674664571881e-04" rms="4.8392799496650696e-01" purity="4.6668538451194763e-01" nType="-99"/>
          <Node pos="r" depth="2" NCoef="0" IVar="-1" Cut="0.0000000000000000e+00" cType="1" res="-5.2918358705937862e-03" rms="4.2463308572769165e-01" purity="2.5571084022521973e-01" nType="-99"/>
        </Node>
      </Node>
    </BinaryTree>
    <BinaryTree type="DecisionTree" boostWeight="1.0000000000000000e+00" itree="60">
      <Node pos="s" depth="0" NCoef="0" IVar="3" Cut="2.1921503543853760e+00" cType="1" res="-7.7981445938348770e-03" rms="4.7604903578758240e-01" purity="4.9628010392189026e-01" nType="0">
        <Node pos="l" depth="1" NCoef="0" IVar="0" Cut="7.9868841171264648e+00" cType="1" res="4.1603006422519684e-02" rms="4.7783419489860535e-01" purity="5.8895367383956909e-01" nType="0">
          <Node pos="l" depth="2" NCoef="0" IVar="-1" Cut="0.0000000000000000e+00" cType="1" res="3.9453996578231454e-04" rms="4.8764553666114807e-01" purity="5.3466451168060303e-01" nType="-99"/>
          <Node pos="r" depth="2" NCoef="0" IVar="-1" Cut="0.0000000000000000e+00" cType="1" res="5.8655827306210995e-03" rms="4.4094827771186829e-01" purity="7.2917753458023071e-01" nType="-99"/>
        </Node>
        <Node pos="r" depth="1" NCoef="0" IVar="4" Cut="8.0547599792480469e+01" cType="1" res="-7.2067163884639740e-02" rms="4.6594190597534180e-01" purity="3.7571537494659424e-01" nType="0">
          <Node pos="l" depth="2" NCoef="0" IVar="-1" Cut="0.0000000000000000e+00" cType="1" res="-5.4006162099540234e-03" rms="4.4257357716560364e-01" purity="3.0964133143424988e-01" nType="-99"/>
          <Node pos="r" depth="2" NCoef="0" IVar="-1" Cut="0.0000000000000000e+00" cType="1" res="-9.5864688046276569e-04" rms="4.7598734498023987e-01" purity="4.2246276140213013e-01" nType="-99"/>
        </Node>
      </Node>
    </BinaryTree>
    <BinaryTree type="DecisionTree" boostWeight="1.0000000000000000e+00" itree="61">
      <Node pos="s" depth="0" NCoef="0" IVar="8" Cut="1.3966830968856812e+00" cType="1" res="-1.1299887672066689e-02" rms="4.7790619730949402e-01" purity="4.9416559934616089e-01" nType="0">
        <Node pos="l" depth="1" NCoef="0" IVar="1" Cut="2.1212644958496094e+02" cType="1" res="2.1010747179389000e-02" rms="4.8095005750656128e-01" purity="5.4853069782257080e-01" nType="0">
          <Node pos="l" depth="2" NCoef="0" IVar="-1" Cut="0.0000000000000000e+00" cType="1" res="2.1981876343488693e-03" rms="4.7829899191856384e-01" purity="5.8908200263977051e-01" nType="-99"/>
          <Node pos="r" depth="2" NCoef="0" IVar="-1" Cut="0.0000000000000000e+00" cType="1" res="-2.1657636389136314e-03" rms="4.7897166013717651e-01" purity="4.5112556219100952e-01" nType="-99"/>
        </Node>
        <Node pos="r" depth="1" NCoef="0" IVar="7" Cut="9.3813586235046387e-01" cType="1" res="-8.4801807999610901e-02" rms="4.6257701516151428e-01" purity="3.7049293518066406e-01" nType="0">
          <Node pos="l" depth="2" NCoef="0" IVar="-1" Cut="0.0000000000000000e+00" cType="1" res="-5.6905145756900311e-03" rms="4.1585353016853333e-01" purity="2.3750071227550507e-01" nType="-99"/>
          <Node pos="r" depth="2" NCoef="0" IVar="-1" Cut="0.0000000000000000e+00" cType="1" res="-2.0065004937350750e-03" rms="4.8041871190071106e-01" purity="4.3688774108886719e-01" nType="-99"/>
        </Node>
      </Node>
    </BinaryTree>
    <BinaryTree type="DecisionTree" boostWeight="1.0000000000000000e+00" itree="62">
      <Node pos="s" depth="0" NCoef="0" IVar="2" Cut="8.7588685750961304e-01" cType="1" res="-1.1892084032297134e-02" rms="4.7585564851760864e-01" purity="4.9222451448440552e-01" nType="0">
        <Node pos="l" depth="1" NCoef="0" IVar="0" Cut="6.2129931449890137e+00" cType="1" res="8.0418020486831665e-02" rms="4.6329048275947571e-01" purity="6.6095912456512451e-01" nType="0">
          <Node pos="l" depth="2" NCoef="0" IVar="-1" Cut="0.0000000000000000e+00" cType="1" res="9.9399883765727282e-05" rms="4.9509581923484802e-01" purity="5.0012046098709106e-01" nType="-99"/>
          <Node pos="r" depth="2" NCoef="0" IVar="-1" Cut="0.0000000000000000e+00" cType="1" res="4.8809330910444260e-03" rms="4.4961076974868774e-01" purity="7.1312087774276733e-01" nType="-99"/>
        </Node>
        <Node pos="r" depth="1" NCoef="0" IVar="7" Cut="9.2592185735702515e-01" cType="1" res="-4.7849532216787338e-02" rms="4.7583934664726257e-01" purity="4.2649751901626587e-01" nType="0">
          <Node pos="l" depth="2" NCoef="0" IVar="-1" Cut="0.0000000000000000e+00" cType="1" res="-5.7348450645804405e-03" rms="4.1869109869003296e-01" purity="2.3860411345958710e-01" nType="-99"/>
          <Node pos="r" depth="2" NCoef="0" IVar="-1" Cut="0.0000000000000000e+00" cType="1" res="-1.0828980011865497e-03" rms="4.8299866914749146e-01" purity="4.6208807826042175e-01" nType="-99"/>
        </Node>
      </Node>
    </BinaryTree>
    <BinaryTree type="DecisionTree" boostWeight="1.0000000000000000e+00" itree="63">
      <Node pos="s" depth="0" NCoef="0" IVar="2" Cut="9.4416302442550659e-01" cType="1" res="-2.6231345254927874e-03" rms="4.7451674938201904e-01" purity="5.0149267911911011e-01" nType="0">
        <Node pos="l" depth="1" NCoef="0" IVar="7" Cut="9.3064254522323608e-01" cType="1" res="7.9148091375827789e-02" rms="4.6495065093040466e-01" purity="6.5656787157058716e-01" nType="0">
          <Node pos="l" depth="2" NCoef="0" IVar="-1" Cut="0.0000000000000000e+00" cType="1" res="-7.8426848631352186e-04" rms="4.9563324451446533e-01" purity="4.6399050951004028e-01" nType="-99"/>
          <Node pos="r" depth="2" NCoef="0" IVar="-1" Cut="0.0000000000000000e+00" cType="1" res="4.5336643233895302e-03" rms="4.5585620403289795e-01" purity="6.9541817903518677e-01" nType="-99"/>
        </Node>
        <Node pos="r" depth="1" NCoef="0" IVar="4" Cut="8.1313888549804688e+01" cType="1" res="-4.6170160174369812e-02" rms="4.7380894422531128e-01" purity="4.1890779137611389e-01" nType="0">
          <Node pos="l" depth="2" NCoef="0" IVar="-1" Cut="0.0000000000000000e+00" cType="1" res="-3.8944475818425417e-03" rms="4.6581289172172546e-01" purity="3.7003302574157715e-01" nType="-99"/>
          <Node pos="r" depth="2" NCoef="0" IVar="-1" Cut="0.0000000000000000e+00" cType="1" res="4.9719249363988638e-04" rms="4.7535234689712524e-01" purity="4.7138792276382446e-01" nType="-99"/>
        </Node>
      </Node>
    </BinaryTree>
    <BinaryTree type="DecisionTree" boostWeight="1.0000000000000000e+00" itree="64">
      <Node pos="s" depth="0" NCoef="0" IVar="2" Cut="1.5592019557952881e+00" cType="1" res="-6.0675558634102345e-03" rms="4.7705385088920593e-01" purity="4.9996128678321838e-01" nType="0">
        <Node pos="l" depth="1" NCoef="0" IVar="4" Cut="4.9453945159912109e+01" cType="1" res="1.1271884664893150e-02" rms="4.8067763447761536e-01" purity="5.3291612863540649e-01" nType="0">
          <Node pos="l" depth="2" NCoef="0" IVar="-1" Cut="0.0000000000000000e+00" cType="1" res="-3.0751281883567572e-03" rms="4.8209825158119202e-01" purity="4.3825596570968628e-01" nType="-99"/>
          <Node pos="r" depth="2" NCoef="0" IVar="-1" Cut="0.0000000000000000e+00" cType="1" res="1.4455994823947549e-03" rms="4.7757399082183838e-01" purity="5.5810111761093140e-01" nType="-99"/>
        </Node>
        <Node pos="r" depth="1" NCoef="0" IVar="4" Cut="8.9175315856933594e+01" cType="1" res="-1.3016745448112488e-01" rms="4.3033525347709656e-01" purity="2.6410055160522461e-01" nType="0">
          <Node pos="l" depth="2" NCoef="0" IVar="-1" Cut="0.0000000000000000e+00" cType="1" res="-6.4135501161217690e-03" rms="4.0644901990890503e-01" purity="2.3060308396816254e-01" nType="-99"/>
          <Node pos="r" depth="2" NCoef="0" IVar="-1" Cut="0.0000000000000000e+00" cType="1" res="-3.3416799269616604e-03" rms="4.5093947649002075e-01" purity="3.0056238174438477e-01" nType="-99"/>
        </Node>
      </Node>
    </BinaryTree>
    <BinaryTree type="DecisionTree" boostWeight="1.0000000000000000e+00" itree="65">
      <Node pos="s" depth="0" NCoef="0" IVar="3" Cut="2.2727160453796387e+00" cType="1" res="-5.9223393909633160e-03" rms="4.7592109441757202e-01" purity="4.9777999520301819e-01" nType="0">
        <Node pos="l" depth="1" NCoef="0" IVar="4" Cut="8.9062980651855469e+01" cType="1" res="3.0402364209294319e-02" rms="4.8010814189910889e-01" purity="5.7677817344665527e-01" nType="0">
          <Node pos="l" depth="2" NCoef="0" IVar="-1" Cut="0.0000000000000000e+00" cType="1" res="-4.3118659959873185e-05" rms="4.8468661308288574e-01" purity="5.4087221622467041e-01" nType="-99"/>
          <Node pos="r" depth="2" NCoef="0" IVar="-1" Cut="0.0000000000000000e+00" cType="1" res="4.1328454390168190e-03" rms="4.6397277712821960e-01" purity="6.5035468339920044e-01" nType="-99"/>
        </Node>
        <Node pos="r" depth="1" NCoef="0" IVar="7" Cut="9.4206976890563965e-01" cType="1" res="-7.5604707002639771e-02" rms="4.5982080698013306e-01" purity="3.4623631834983826e-01" nType="0">
          <Node pos="l" depth="2" NCoef="0" IVar="-1" Cut="0.0000000000000000e+00" cType="1" res="-5.2847629413008690e-03" rms="4.1234874725341797e-01" purity="2.2936274111270905e-01" nType="-99"/>
          <Node pos="r" depth="2" NCoef="0" IVar="-1" Cut="0.0000000000000000e+00" cType="1" res="-1.3688647886738181e-03" rms="4.8324322700500488e-01" purity="4.2129999399185181e-01" nType="-99"/>
        </Node>
      </Node>
    </BinaryTree>
    <BinaryTree type="DecisionTree" boostWeight="1.0000000000000000e+00" itree="66">
      <Node pos="s" depth="0" NCoef="0" IVar="8" Cut="1.3950256109237671e+00" cType="1" res="-4.2441422119736671e-03" rms="4.7583717107772827e-01" purity="4.9938657879829407e-01" nType="0">
        <Node pos="l" depth="1" NCoef="0" IVar="1" Cut="3.1855007934570312e+02" cType="1" res="3.2969489693641663e-02" rms="4.7722542285919189e-01" purity="5.6158775091171265e-01" nType="0">
          <Node pos="l" depth="2" NCoef="0" IVar="-1" Cut="0.0000000000000000e+00" cType="1" res="2.2018565796315670e-03" rms="4.7520729899406433e-01" purity="5.8708399534225464e-01" nType="-99"/>
          <Node pos="r" depth="2" NCoef="0" IVar="-1" Cut="0.0000000000000000e+00" cType="1" res="-3.3126748166978359e-03" rms="4.7284924983978271e-01" purity="4.0472015738487244e-01" nType="-99"/>
        </Node>
        <Node pos="r" depth="1" NCoef="0" IVar="4" Cut="9.9704849243164062e+01" cType="1" res="-8.5835039615631104e-02" rms="4.6241408586502075e-01" purity="3.6301061511039734e-01" nType="0">
          <Node pos="l" depth="2" NCoef="0" IVar="-1" Cut="0.0000000000000000e+00" cType="1" res="-4.8597189597785473e-03" rms="4.5249542593955994e-01" purity="3.2915374636650085e-01" nType="-99"/>
          <Node pos="r" depth="2" NCoef="0" IVar="-1" Cut="0.0000000000000000e+00" cType="1" res="-8.6211563029792160e-05" rms="4.7154372930526733e-01" purity="4.3349403142929077e-01" nType="-99"/>
        </Node>
      </Node>
    </BinaryTree>
    <BinaryTree type="DecisionTree" boostWeight="1.0000000000000000e+00" itree="67">
      <Node pos="s" depth="0" NCoef="0" IVar="8" Cut="1.2560904026031494e+00" cType="1" res="-2.3839701898396015e-03" rms="4.7592306137084961e-01" purity="5.0200241804122925e-01" nType="0">
        <Node pos="l" depth="1" NCoef="0" IVar="0" Cut="8.5923118591308594e+00" cType="1" res="3.6120854318141937e-02" rms="4.7657939791679382e-01" purity="5.6697463989257812e-01" nType="0">
          <Node pos="l" depth="2" NCoef="0" IVar="-1" Cut="0.0000000000000000e+00" cType="1" res="5.4217164870351553e-04" rms="4.8271474242210388e-01" purity="5.3153407573699951e-01" nType="-99"/>
          <Node pos="r" depth="2" NCoef="0" IVar="-1" Cut="0.0000000000000000e+00" cType="1" res="7.1079311892390251e-03" rms="4.2643627524375916e-01" purity="7.4456840753555298e-01" nType="-99"/>
        </Node>
        <Node pos="r" depth="1" NCoef="0" IVar="4" Cut="9.4661888122558594e+01" cType="1" res="-6.9395869970321655e-02" rms="4.6727275848388672e-01" purity="3.8892796635627747e-01" nType="0">
          <Node pos="l" depth="2" NCoef="0" IVar="-1" Cut="0.0000000000000000e+00" cType="1" res="-3.9964728057384491e-03" rms="4.6231988072395325e-01" purity="3.6178210377693176e-01" nType="-99"/>
          <Node pos="r" depth="2" NCoef="0" IVar="-1" Cut="0.0000000000000000e+00" cType="1" res="-4.0766395977698267e-04" rms="4.7032171487808228e-01" purity="4.3796360492706299e-01" nType="-99"/>
        </Node>
      </Node>
    </BinaryTree>
    <BinaryTree type="DecisionTree" boostWeight="1.0000000000000000e+00" itree="68">
      <Node pos="s" depth="0" NCoef="0" IVar="0" Cut="7.8423733711242676e+00" cType="1" res="-1.7194821266457438e-03" rms="4.7484061121940613e-01" purity="5.0206500291824341e-01" nType="0">
        <Node pos="l" depth="1" NCoef="0" IVar="3" Cut="2.5282089710235596e+00" cType="1" res="-3.3203154802322388e-02" rms="4.7658893465995789e-01" purity="4.4450309872627258e-01" nType="0">
          <Node pos="l" depth="2" NCoef="0" IVar="-1" Cut="0.0000000000000000e+00" cType="1" res="-4.8914900980889797e-04" rms="4.8694780468940735e-01" purity="4.8810356855392456e-01" nType="-99"/>
          <Node pos="r" depth="2" NCoef="0" IVar="-1" Cut="0.0000000000000000e+00" cType="1" res="-5.6503145024180412e-03" rms="3.9802694320678711e-01" purity="2.0982919633388519e-01" nType="-99"/>
        </Node>
        <Node pos="r" depth="1" NCoef="0" IVar="4" Cut="6.6742019653320312e+01" cType="1" res="7.5815394520759583e-02" rms="4.6143725514411926e-01" purity="6.4382284879684448e-01" nType="0">
          <Node pos="l" depth="2" NCoef="0" IVar="-1" Cut="0.0000000000000000e+00" cType="1" res="4.8925180453807116e-04" rms="4.7166848182678223e-01" purity="5.8591616153717041e-01" nType="-99"/>
          <Node pos="r" depth="2" NCoef="0" IVar="-1" Cut="0.0000000000000000e+00" cType="1" res="5.3351731039583683e-03" rms="4.5027095079421997e-01" purity="6.7984271049499512e-01" nType="-99"/>
        </Node>
      </Node>
    </BinaryTree>
    <BinaryTree type="DecisionTree" boostWeight="1.0000000000000000e+00" itree="69">
      <Node pos="s" depth="0" NCoef="0" IVar="8" Cut="1.3948507308959961e+00" cType="1" res="-5.7401894591748714e-03" rms="4.7613415122032166e-01" purity="4.9912089109420776e-01" nType="0">
        <Node pos="l" depth="1" NCoef="0" IVar="4" Cut="6.2577259063720703e+01" cType="1" res="2.7533618733286858e-02" rms="4.7812119126319885e-01" purity="5.5631941556930542e-01" nType="0">
          <Node pos="l" depth="2" NCoef="0" IVar="-1" Cut="0.0000000000000000e+00" cType="1" res="-1.1132017243653536e-03" rms="4.8423710465431213e-01" purity="5.0333416461944580e-01" nType="-99"/>
          <Node pos="r" depth="2" NCoef="0" IVar="-1" Cut="0.0000000000000000e+00" cType="1" res="2.5916600134223700e-03" rms="4.7122368216514587e-01" purity="5.8856219053268433e-01" nType="-99"/>
        </Node>
        <Node pos="r" depth="1" NCoef="0" IVar="7" Cut="9.3446362018585205e-01" cType="1" res="-8.2755886018276215e-02" rms="4.6240776777267456e-01" purity="3.6672884225845337e-01" nType="0">
          <Node pos="l" depth="2" NCoef="0" IVar="-1" Cut="0.0000000000000000e+00" cType="1" res="-6.5600043162703514e-03" rms="3.9972510933876038e-01" purity="2.0632110536098480e-01" nType="-99"/>
          <Node pos="r" depth="2" NCoef="0" IVar="-1" Cut="0.0000000000000000e+00" cType="1" res="-2.1072179079055786e-03" rms="4.7678562998771667e-01" purity="4.1825285553932190e-01" nType="-99"/>
        </Node>
      </Node>
    </BinaryTree>
    <BinaryTree type="DecisionTree" boostWeight="1.0000000000000000e+00" itree="70">
      <Node pos="s" depth="0" NCoef="0" IVar="8" Cut="1.8118314743041992e+00" cType="1" res="-2.5424634804949164e-04" rms="4.7489467263221741e-01" purity="5.0398325920104980e-01" nType="0">
        <Node pos="l" depth="1" NCoef="0" IVar="4" Cut="5.0383396148681641e+01" cType="1" res="2.6047818362712860e-02" rms="4.7788739204406738e-01" purity="5.4830974340438843e-01" nType="0">
          <Node pos="l" depth="2" NCoef="0" IVar="-1" Cut="0.0000000000000000e+00" cType="1" res="-2.6137595996260643e-03" rms="4.8374316096305847e-01" purity="4.5396232604980469e-01" nType="-99"/>
          <Node pos="r" depth="2" NCoef="0" IVar="-1" Cut="0.0000000000000000e+00" cType="1" res="2.2110214922577143e-03" rms="4.7290363907814026e-01" purity="5.7560694217681885e-01" nType="-99"/>
        </Node>
        <Node pos="r" depth="1" NCoef="0" IVar="0" Cut="7.5976138114929199e+00" cType="1" res="-1.1585594713687897e-01" rms="4.4338276982307434e-01" purity="3.0916139483451843e-01" nType="0">
          <Node pos="l" depth="2" NCoef="0" IVar="-1" Cut="0.0000000000000000e+00" cType="1" res="-5.4155234247446060e-03" rms="4.2374262213706970e-01" purity="2.5839880108833313e-01" nType="-99"/>
          <Node pos="r" depth="2" NCoef="0" IVar="-1" Cut="0.0000000000000000e+00" cType="1" res="-2.1385932341217995e-03" rms="4.8193934559822083e-01" purity="4.3237027525901794e-01" nType="-99"/>
        </Node>
      </Node>
    </BinaryTree>
    <BinaryTree type="DecisionTree" boostWeight="1.0000000000000000e+00" itree="71">
      <Node pos="s" depth="0" NCoef="0" IVar="3" Cut="2.2556874752044678e+00" cType="1" res="-3.5336299333721399e-03" rms="4.7397541999816895e-01" purity="5.0108510255813599e-01" nType="0">
        <Node pos="l" depth="1" NCoef="0" IVar="1" Cut="7.5423973083496094e+01" cType="1" res="3.5898394882678986e-02" rms="4.7712737321853638e-01" purity="5.8513283729553223e-01" nType="0">
          <Node pos="l" depth="2" NCoef="0" IVar="-1" Cut="0.0000000000000000e+00" cType="1" res="-3.8384757936000824e-03" rms="4.7960886359214783e-01" purity="4.4076919555664062e-01" nType="-99"/>
          <Node pos="r" depth="2" NCoef="0" IVar="-1" Cut="0.0000000000000000e+00" cType="1" res="2.4664609227329493e-03" rms="4.7316163778305054e-01" purity="6.0930007696151733e-01" nType="-99"/>
        </Node>
        <Node pos="r" depth="1" NCoef="0" IVar="7" Cut="9.5021849870681763e-01" cType="1" res="-7.3278740048408508e-02" rms="4.6014747023582458e-01" purity="3.5242617130279541e-01" nType="0">
          <Node pos="l" depth="2" NCoef="0" IVar="-1" Cut="0.0000000000000000e+00" cType="1" res="-4.5845056883990765e-03" rms="4.2934632301330566e-01" purity="2.6273241639137268e-01" nType="-99"/>
          <Node pos="r" depth="2" NCoef="0" IVar="-1" Cut="0.0000000000000000e+00" cType="1" res="-9.3968672445043921e-04" rms="4.8520830273628235e-01" purity="4.4631001353263855e-01" nType="-99"/>
        </Node>
      </Node>
    </BinaryTree>
    <BinaryTree type="DecisionTree" boostWeight="1.0000000000000000e+00" itree="72">
      <Node pos="s" depth="0" NCoef="0" IVar="8" Cut="1.1169708967208862e+00" cType="1" res="-6.5157497301697731e-03" rms="4.7406390309333801e-01" purity="4.9815821647644043e-01" nType="0">
        <Node pos="l" depth="1" NCoef="0" IVar="1" Cut="1.8761602783203125e+02" cType="1" res="3.6965474486351013e-02" rms="4.7470188140869141e-01" purity="5.7251918315887451e-01" nType="0">
          <Node pos="l" depth="2" NCoef="0" IVar="-1" Cut="0.0000000000000000e+00" cType="1" res="3.1909069512039423e-03" rms="4.6901425719261169e-01" purity="6.1889374256134033e-01" nType="-99"/>
          <Node pos="r" depth="2" NCoef="0" IVar="-1" Cut="0.0000000000000000e+00" cType="1" res="-1.3863100903108716e-03" rms="4.7733852267265320e-01" purity="4.8450353741645813e-01" nType="-99"/>
        </Node>
        <Node pos="r" depth="1" NCoef="0" IVar="7" Cut="9.2565459012985229e-01" cType="1" res="-6.5311178565025330e-02" rms="4.6680265665054321e-01" purity="3.9760705828666687e-01" nType="0">
          <Node pos="l" depth="2" NCoef="0" IVar="-1" Cut="0.0000000000000000e+00" cType="1" res="-6.7773899063467979e-03" rms="3.8914930820465088e-01" purity="1.9414053857326508e-01" nType="-99"/>
          <Node pos="r" depth="2" NCoef="0" IVar="-1" Cut="0.0000000000000000e+00" cType="1" res="-1.6365613555535674e-03" rms="4.7712340950965881e-01" purity="4.3871843814849854e-01" nType="-99"/>
        </Node>
      </Node>
    </BinaryTree>
    <BinaryTree type="DecisionTree" boostWeight="1.0000000000000000e+00" itree="73">
      <Node pos="s" depth="0" NCoef="0" IVar="2" Cut="9.0390688180923462e-01" cType="1" res="-9.2355022206902504e-03" rms="4.7464498877525330e-01" purity="4.9588212370872498e-01" nType="0">
        <Node pos="l" depth="1" NCoef="0" IVar="0" Cut="5.9585623741149902e+00" cType="1" res="6.9317325949668884e-02" rms="4.6289706230163574e-01" purity="6.5650022029876709e-01" nType="0">
          <Node pos="l" depth="2" NCoef="0" IVar="-1" Cut="0.0000000000000000e+00" cType="1" res="-1.5048794448375702e-03" rms="4.9307921528816223e-01" purity="4.5277905464172363e-01" nType="-99"/>
          <Node pos="r" depth="2" NCoef="0" IVar="-1" Cut="0.0000000000000000e+00" cType="1" res="4.4105504639446735e-03" rms="4.5155477523803711e-01" purity="7.0475727319717407e-01" nType="-99"/>
        </Node>
        <Node pos="r" depth="1" NCoef="0" IVar="1" Cut="7.5423973083496094e+01" cType="1" res="-4.3119110167026520e-02" rms="4.7563543915748596e-01" purity="4.2659980058670044e-01" nType="0">
          <Node pos="l" depth="2" NCoef="0" IVar="-1" Cut="0.0000000000000000e+00" cType="1" res="-6.8011409603059292e-03" rms="4.3751144409179688e-01" purity="2.9604557156562805e-01" nType="-99"/>
          <Node pos="r" depth="2" NCoef="0" IVar="-1" Cut="0.0000000000000000e+00" cType="1" res="-1.1035371571779251e-03" rms="4.7748151421546936e-01" purity="4.4190889596939087e-01" nType="-99"/>
        </Node>
      </Node>
    </BinaryTree>
    <BinaryTree type="DecisionTree" boostWeight="1.0000000000000000e+00" itree="74">
      <Node pos="s" depth="0" NCoef="0" IVar="2" Cut="1.4142175912857056e+00" cType="1" res="-1.2912877835333347e-02" rms="4.7438502311706543e-01" purity="4.8983666300773621e-01" nType="0">
        <Node pos="l" depth="1" NCoef="0" IVar="0" Cut="8.4978570938110352e+00" cType="1" res="1.1249625124037266e-02" rms="4.8039102554321289e-01" purity="5.4244208335876465e-01" nType="0">
          <Node pos="l" depth="2" NCoef="0" IVar="-1" Cut="0.0000000000000000e+00" cType="1" res="-3.1655852217227221e-04" rms="4.8431736230850220e-01" purity="5.0886338949203491e-01" nType="-99"/>
          <Node pos="r" depth="2" NCoef="0" IVar="-1" Cut="0.0000000000000000e+00" cType="1" res="4.5869792811572552e-03" rms="4.5180180668830872e-01" purity="6.9655776023864746e-01" nType="-99"/>
        </Node>
        <Node pos="r" depth="1" NCoef="0" IVar="4" Cut="7.1616127014160156e+01" cType="1" res="-1.0215976089239120e-01" rms="4.4015812873840332e-01" purity="2.9553276300430298e-01" nType="0">
          <Node pos="l" depth="2" NCoef="0" IVar="-1" Cut="0.0000000000000000e+00" cType="1" res="-6.6667920909821987e-03" rms="4.0254339575767517e-01" purity="2.2346952557563782e-01" nType="-99"/>
          <Node pos="r" depth="2" NCoef="0" IVar="-1" Cut="0.0000000000000000e+00" cType="1" res="-2.1575069986283779e-03" rms="4.5615115761756897e-01" purity="3.4094780683517456e-01" nType="-99"/>
        </Node>
      </Node>
    </BinaryTree>
    <BinaryTree type="DecisionTree" boostWeight="1.0000000000000000e+00" itree="75">
      <Node pos="s" depth="0" NCoef="0" IVar="3" Cut="2.4203314781188965e+00" cType="1" res="-9.1067599132657051e-03" rms="4.7429797053337097e-01" purity="4.9465799331665039e-01" nType="0">
        <Node pos="l" depth="1" NCoef="0" IVar="4" Cut="6.6658996582031250e+01" cType="1" res="1.4239023439586163e-02" rms="4.8132789134979248e-01" purity="5.5123096704483032e-01" nType="0">
          <Node pos="l" depth="2" NCoef="0" IVar="-1" Cut="0.0000000000000000e+00" cType="1" res="-1.3593591284006834e-03" rms="4.8703259229660034e-01" purity="4.9535703659057617e-01" nType="-99"/>
          <Node pos="r" depth="2" NCoef="0" IVar="-1" Cut="0.0000000000000000e+00" cType="1" res="2.2661692928522825e-03" rms="4.7296831011772156e-01" purity="5.9716147184371948e-01" nType="-99"/>
        </Node>
        <Node pos="r" depth="1" NCoef="0" IVar="8" Cut="2.3871569633483887e+00" cType="1" res="-9.8854042589664459e-02" rms="4.3472194671630859e-01" purity="2.7717670798301697e-01" nType="0">
          <Node pos="l" depth="2" NCoef="0" IVar="-1" Cut="0.0000000000000000e+00" cType="1" res="-2.6751877740025520e-03" rms="4.5555859804153442e-01" purity="3.1841781735420227e-01" nType="-99"/>
          <Node pos="r" depth="2" NCoef="0" IVar="-1" Cut="0.0000000000000000e+00" cType="1" res="-6.9686169736087322e-03" rms="3.6317813396453857e-01" purity="1.7032365500926971e-01" nType="-99"/>
        </Node>
      </Node>
    </BinaryTree>
    <BinaryTree type="DecisionTree" boostWeight="1.0000000000000000e+00" itree="76">
      <Node pos="s" depth="0" NCoef="0" IVar="3" Cut="2.2126340866088867e+00" cType="1" res="-2.6610833592712879e-03" rms="4.7250819206237793e-01" purity="5.0080639123916626e-01" nType="0">
        <Node pos="l" depth="1" NCoef="0" IVar="7" Cut="9.3705773353576660e-01" cType="1" res="4.2869277298450470e-02" rms="4.7497317194938660e-01" purity="5.9475111961364746e-01" nType="0">
          <Node pos="l" depth="2" NCoef="0" IVar="-1" Cut="0.0000000000000000e+00" cType="1" res="-1.6123913228511810e-03" rms="4.8475575447082520e-01" purity="4.2845538258552551e-01" nType="-99"/>
          <Node pos="r" depth="2" NCoef="0" IVar="-1" Cut="0.0000000000000000e+00" cType="1" res="3.2136556692421436e-03" rms="4.6803906559944153e-01" purity="6.5106672048568726e-01" nType="-99"/>
        </Node>
        <Node pos="r" depth="1" NCoef="0" IVar="8" Cut="1.7143388986587524e+00" cType="1" res="-6.9149516522884369e-02" rms="4.6087464690208435e-01" purity="3.6361798644065857e-01" nType="0">
          <Node pos="l" depth="2" NCoef="0" IVar="-1" Cut="0.0000000000000000e+00" cType="1" res="-1.3764584437012672e-03" rms="4.7781151533126831e-01" purity="4.2232784628868103e-01" nType="-99"/>
          <Node pos="r" depth="2" NCoef="0" IVar="-1" Cut="0.0000000000000000e+00" cType="1" res="-5.0914776511490345e-03" rms="4.2259675264358521e-01" purity="2.6023292541503906e-01" nType="-99"/>
        </Node>
      </Node>
    </BinaryTree>
    <BinaryTree type="DecisionTree" boostWeight="1.0000000000000000e+00" itree="77">
      <Node pos="s" depth="0" NCoef="0" IVar="3" Cut="2.4290151596069336e+00" cType="1" res="-2.2482420317828655e-03" rms="4.7346031665802002e-01" purity="5.0217378139495850e-01" nType="0">
        <Node pos="l" depth="1" NCoef="0" IVar="4" Cut="5.1478672027587891e+01" cType="1" res="2.3060020059347153e-02" rms="4.7962057590484619e-01" purity="5.6118190288543701e-01" nType="0">
          <Node pos="l" depth="2" NCoef="0" IVar="-1" Cut="0.0000000000000000e+00" cType="1" res="-2.2942961659282446e-03" rms="4.8058554530143738e-01" purity="4.6023476123809814e-01" nType="-99"/>
          <Node pos="r" depth="2" NCoef="0" IVar="-1" Cut="0.0000000000000000e+00" cType="1" res="2.2095567546784878e-03" rms="4.7599959373474121e-01" purity="5.9741383790969849e-01" nType="-99"/>
        </Node>
        <Node pos="r" depth="1" NCoef="0" IVar="4" Cut="7.1470161437988281e+01" cType="1" res="-1.0026346147060394e-01" rms="4.3513071537017822e-01" purity="2.7364379167556763e-01" nType="0">
          <Node pos="l" depth="2" NCoef="0" IVar="-1" Cut="0.0000000000000000e+00" cType="1" res="-6.7040715366601944e-03" rms="3.7843590974807739e-01" purity="1.8375524878501892e-01" nType="-99"/>
          <Node pos="r" depth="2" NCoef="0" IVar="-1" Cut="0.0000000000000000e+00" cType="1" res="-2.7520130388438702e-03" rms="4.5387223362922668e-01" purity="3.1240475177764893e-01" nType="-99"/>
        </Node>
      </Node>
    </BinaryTree>
    <BinaryTree type="DecisionTree" boostWeight="1.0000000000000000e+00" itree="78">
      <Node pos="s" depth="0" NCoef="0" IVar="3" Cut="2.5282089710235596e+00" cType="1" res="-7.9120015725493431e-03" rms="4.7306761145591736e-01" purity="4.9572688341140747e-01" nType="0">
        <Node pos="l" depth="1" NCoef="0" IVar="4" Cut="9.4762001037597656e+01" cType="1" res="1.2060275301337242e-02" rms="4.8026242852210999e-01" purity="5.4115658998489380e-01" nType="0">
          <Node pos="l" depth="2" NCoef="0" IVar="-1" Cut="0.0000000000000000e+00" cType="1" res="-7.6525518670678139e-04" rms="4.8340022563934326e-01" purity="5.0851184129714966e-01" nType="-99"/>
          <Node pos="r" depth="2" NCoef="0" IVar="-1" Cut="0.0000000000000000e+00" cType="1" res="3.2511823810636997e-03" rms="4.6724697947502136e-01" purity="6.0914552211761475e-01" nType="-99"/>
        </Node>
        <Node pos="r" depth="1" NCoef="0" IVar="3" Cut="2.7495424747467041e+00" cType="1" res="-1.2461577355861664e-01" rms="4.0958881378173828e-01" purity="2.3026804625988007e-01" nType="0">
          <Node pos="l" depth="2" NCoef="0" IVar="-1" Cut="0.0000000000000000e+00" cType="1" res="-3.5424490924924612e-03" rms="4.3446189165115356e-01" purity="2.7504137158393860e-01" nType="-99"/>
          <Node pos="r" depth="2" NCoef="0" IVar="-1" Cut="0.0000000000000000e+00" cType="1" res="-7.0405863225460052e-03" rms="3.6377698183059692e-01" purity="1.6455878317356110e-01" nType="-99"/>
        </Node>
      </Node>
    </BinaryTree>
    <BinaryTree type="DecisionTree" boostWeight="1.0000000000000000e+00" itree="79">
      <Node pos="s" depth="0" NCoef="0" IVar="8" Cut="1.3957227468490601e+00" cType="1" res="-1.7285794019699097e-03" rms="4.7105923295021057e-01" purity="4.9901935458183289e-01" nType="0">
        <Node pos="l" depth="1" NCoef="0" IVar="0" Cut="8.5861663818359375e+00" cType="1" res="3.1694330275058746e-02" rms="4.7439509630203247e-01" purity="5.6148773431777954e-01" nType="0">
          <Node pos="l" depth="2" NCoef="0" IVar="-1" Cut="0.0000000000000000e+00" cType="1" res="4.9840065184980631e-04" rms="4.7994413971900940e-01" purity="5.2880042791366577e-01" nType="-99"/>
          <Node pos="r" depth="2" NCoef="0" IVar="-1" Cut="0.0000000000000000e+00" cType="1" res="6.7466734908521175e-03" rms="4.2608138918876648e-01" purity="7.4352264404296875e-01" nType="-99"/>
        </Node>
        <Node pos="r" depth="1" NCoef="0" IVar="0" Cut="7.7509837150573730e+00" cType="1" res="-7.6074346899986267e-02" rms="4.5482867956161499e-01" purity="3.6006489396095276e-01" nType="0">
          <Node pos="l" depth="2" NCoef="0" IVar="-1" Cut="0.0000000000000000e+00" cType="1" res="-4.0154191665351391e-03" rms="4.4334512948989868e-01" purity="3.0608886480331421e-01" nType="-99"/>
          <Node pos="r" depth="2" NCoef="0" IVar="-1" Cut="0.0000000000000000e+00" cType="1" res="-8.4138060628902167e-05" rms="4.7607952356338501e-01" purity="5.0315511226654053e-01" nType="-99"/>
        </Node>
      </Node>
    </BinaryTree>
    <BinaryTree type="DecisionTree" boostWeight="1.0000000000000000e+00" itree="80">
      <Node pos="s" depth="0" NCoef="0" IVar="2" Cut="8.7045979499816895e-01" cType="1" res="-1.3785887276753783e-03" rms="4.7192770242691040e-01" purity="5.0144153833389282e-01" nType="0">
        <Node pos="l" depth="1" NCoef="0" IVar="1" Cut="8.7535385131835938e+01" cType="1" res="7.8880108892917633e-02" rms="4.5819294452667236e-01" purity="6.7351984977722168e-01" nType="0">
          <Node pos="l" depth="2" NCoef="0" IVar="-1" Cut="0.0000000000000000e+00" cType="1" res="-2.8745867894031107e-04" rms="4.8773530125617981e-01" purity="5.7931053638458252e-01" nType="-99"/>
          <Node pos="r" depth="2" NCoef="0" IVar="-1" Cut="0.0000000000000000e+00" cType="1" res="4.5596999116241932e-03" rms="4.4795411825180054e-01" purity="6.9708842039108276e-01" nType="-99"/>
        </Node>
        <Node pos="r" depth="1" NCoef="0" IVar="7" Cut="9.3379384279251099e-01" cType="1" res="-3.0493644997477531e-02" rms="4.7346132993698120e-01" purity="4.3901753425598145e-01" nType="0">
          <Node pos="l" depth="2" NCoef="0" IVar="-1" Cut="0.0000000000000000e+00" cType="1" res="-4.1227722540497780e-03" rms="4.3441125750541687e-01" purity="2.8115600347518921e-01" nType="-99"/>
          <Node pos="r" depth="2" NCoef="0" IVar="-1" Cut="0.0000000000000000e+00" cType="1" res="-1.8671038560569286e-04" rms="4.8266500234603882e-01" purity="4.9042570590972900e-01" nType="-99"/>
        </Node>
      </Node>
    </BinaryTree>
    <BinaryTree type="DecisionTree" boostWeight="1.0000000000000000e+00" itree="81">
      <Node pos="s" depth="0" NCoef="0" IVar="0" Cut="6.1115140914916992e+00" cType="1" res="-1.1179178021848202e-02" rms="4.7403761744499207e-01" purity="4.9188587069511414e-01" nType="0">
        <Node pos="l" depth="1" NCoef="0" IVar="2" Cut="8.4782826900482178e-01" cType="1" res="-7.9625740647315979e-02" rms="4.5486366748809814e-01" purity="3.3695250749588013e-01" nType="0">
          <Node pos="l" depth="2" NCoef="0" IVar="-1" Cut="0.0000000000000000e+00" cType="1" res="1.0948439594358206e-03" rms="4.9700024724006653e-01" purity="5.2858978509902954e-01" nType="-99"/>
          <Node pos="r" depth="2" NCoef="0" IVar="-1" Cut="0.0000000000000000e+00" cType="1" res="-3.9823753759264946e-03" rms="4.3965172767639160e-01" purity="2.8919884562492371e-01" nType="-99"/>
        </Node>
        <Node pos="r" depth="1" NCoef="0" IVar="4" Cut="7.8194313049316406e+01" cType="1" res="1.4344056136906147e-02" rms="4.7849214076995850e-01" purity="5.4965943098068237e-01" nType="0">
          <Node pos="l" depth="2" NCoef="0" IVar="-1" Cut="0.0000000000000000e+00" cType="1" res="-1.1414490872994065e-03" rms="4.8151350021362305e-01" purity="5.1054847240447998e-01" nType="-99"/>
          <Node pos="r" depth="2" NCoef="0" IVar="-1" Cut="0.0000000000000000e+00" cType="1" res="2.4650548584759235e-03" rms="4.7172620892524719e-01" purity="5.8916991949081421e-01" nType="-99"/>
        </Node>
      </Node>
    </BinaryTree>
    <BinaryTree type="DecisionTree" boostWeight="1.0000000000000000e+00" itree="82">
      <Node pos="s" depth="0" NCoef="0" IVar="2" Cut="8.2682502269744873e-01" cType="1" res="-6.2676467932760715e-03" rms="4.7324901819229126e-01" purity="4.9786370992660522e-01" nType="0">
        <Node pos="l" depth="1" NCoef="0" IVar="5" Cut="1.4261922240257263e-01" cType="1" res="7.4198916554450989e-02" rms="4.5964473485946655e-01" purity="6.7003500461578369e-01" nType="0">
          <Node pos="l" depth="2" NCoef="0" IVar="-1" Cut="0.0000000000000000e+00" cType="1" res="1.8716591876000166e-03" rms="4.6971300244331360e-01" purity="6.3782268762588501e-01" nType="-99"/>
          <Node pos="r" depth="2" NCoef="0" IVar="-1" Cut="0.0000000000000000e+00" cType="1" res="5.9511265717446804e-03" rms="4.3569335341453552e-01" purity="7.2674620151519775e-01" nType="-99"/>
        </Node>
        <Node pos="r" depth="1" NCoef="0" IVar="0" Cut="6.2578325271606445e+00" cType="1" res="-3.0232511460781097e-02" rms="4.7459638118743896e-01" purity="4.4658699631690979e-01" nType="0">
          <Node pos="l" depth="2" NCoef="0" IVar="-1" Cut="0.0000000000000000e+00" cType="1" res="-3.3566702622920275e-03" rms="4.5091173052787781e-01" purity="3.1512999534606934e-01" nType="-99"/>
          <Node pos="r" depth="2" NCoef="0" IVar="-1" Cut="0.0000000000000000e+00" cType="1" res="-6.3023711845744401e-05" rms="4.8314574360847473e-01" purity="5.1077514886856079e-01" nType="-99"/>
        </Node>
      </Node>
    </BinaryTree>
    <BinaryTree type="DecisionTree" boostWeight="1.0000000000000000e+00" itree="83">
      <Node pos="s" depth="0" NCoef="0" IVar="3" Cut="2.1568884849548340e+00" cType="1" res="2.0057924557477236e-03" rms="4.7329154610633850e-01" purity="5.0650507211685181e-01" nType="0">
        <Node pos="l" depth="1" NCoef="0" IVar="4" Cut="4.2849018096923828e+01" cType="1" res="4.1778225451707840e-02" rms="4.7525197267532349e-01" purity="5.9734535217285156e-01" nType="0">
          <Node pos="l" depth="2" NCoef="0" IVar="-1" Cut="0.0000000000000000e+00" cType="1" res="-3.1003763433545828e-03" rms="4.8355084657669067e-01" purity="4.4594147801399231e-01" nType="-99"/>
          <Node pos="r" depth="2" NCoef="0" IVar="-1" Cut="0.0000000000000000e+00" cType="1" res="3.0138269066810608e-03" rms="4.6898666024208069e-01" purity="6.3264161348342896e-01" nType="-99"/>
        </Node>
        <Node pos="r" depth="1" NCoef="0" IVar="7" Cut="9.4007760286331177e-01" cType="1" res="-4.2870845645666122e-02" rms="4.6702024340629578e-01" purity="4.0400668978691101e-01" nType="0">
          <Node pos="l" depth="2" NCoef="0" IVar="-1" Cut="0.0000000000000000e+00" cType="1" res="-4.1804737411439419e-03" rms="4.2998385429382324e-01" purity="2.6525712013244629e-01" nType="-99"/>
          <Node pos="r" depth="2" NCoef="0" IVar="-1" Cut="0.0000000000000000e+00" cType="1" res="-4.0431291563436389e-04" rms="4.8071470856666565e-01" purity="4.7214674949645996e-01" nType="-99"/>
        </Node>
      </Node>
    </BinaryTree>
    <BinaryTree type="DecisionTree" boostWeight="1.0000000000000000e+00" itree="84">
      <Node pos="s" depth="0" NCoef="0" IVar="0" Cut="6.9922714233398438e+00" cType="1" res="-6.3993653748184443e-04" rms="4.7284090518951416e-01" purity="5.0224119424819946e-01" nType="0">
        <Node pos="l" depth="1" NCoef="0" IVar="2" Cut="9.3350481986999512e-01" cType="1" res="-4.1681393980979919e-02" rms="4.7213193774223328e-01" purity="4.0517246723175049e-01" nType="0">
          <Node pos="l" depth="2" NCoef="0" IVar="-1" Cut="0.0000000000000000e+00" cType="1" res="1.0671168565750122e-03" rms="4.9238774180412292e-01" purity="5.5553472042083740e-01" nType="-99"/>
          <Node pos="r" depth="2" NCoef="0" IVar="-1" Cut="0.0000000000000000e+00" cType="1" res="-2.7400078251957893e-03" rms="4.5969277620315552e-01" purity="3.3859160542488098e-01" nType="-99"/>
        </Node>
        <Node pos="r" depth="1" NCoef="0" IVar="4" Cut="5.9727302551269531e+01" cType="1" res="4.1971802711486816e-02" rms="4.6979728341102600e-01" purity="6.0302382707595825e-01" nType="0">
          <Node pos="l" depth="2" NCoef="0" IVar="-1" Cut="0.0000000000000000e+00" cType="1" res="-1.2033341918140650e-03" rms="4.8350542783737183e-01" purity="5.3171002864837646e-01" nType="-99"/>
          <Node pos="r" depth="2" NCoef="0" IVar="-1" Cut="0.0000000000000000e+00" cType="1" res="3.4245587885379791e-03" rms="4.5922216773033142e-01" purity="6.3753277063369751e-01" nType="-99"/>
        </Node>
      </Node>
    </BinaryTree>
    <BinaryTree type="DecisionTree" boostWeight="1.0000000000000000e+00" itree="85">
      <Node pos="s" depth="0" NCoef="0" IVar="2" Cut="8.7975394725799561e-01" cType="1" res="-9.3667199835181236e-03" rms="4.7131466865539551e-01" purity="4.9483594298362732e-01" nType="0">
        <Node pos="l" depth="1" NCoef="0" IVar="5" Cut="1.6010481119155884e-01" cType="1" res="7.3423273861408234e-02" rms="4.5950114727020264e-01" purity="6.7290264368057251e-01" nType="0">
          <Node pos="l" depth="2" NCoef="0" IVar="-1" Cut="0.0000000000000000e+00" cType="1" res="2.1482987795025110e-03" rms="4.6880745887756348e-01" purity="6.4553880691528320e-01" nType="-99"/>
          <Node pos="r" depth="2" NCoef="0" IVar="-1" Cut="0.0000000000000000e+00" cType="1" res="6.3669285736978054e-03" rms="4.2822974920272827e-01" purity="7.4249440431594849e-01" nType="-99"/>
        </Node>
        <Node pos="r" depth="1" NCoef="0" IVar="7" Cut="9.5270794630050659e-01" cType="1" res="-4.0808759629726410e-02" rms="4.7193431854248047e-01" purity="4.2720967531204224e-01" nType="0">
          <Node pos="l" depth="2" NCoef="0" IVar="-1" Cut="0.0000000000000000e+00" cType="1" res="-3.2273761462420225e-03" rms="4.5580920577049255e-01" purity="3.3606815338134766e-01" nType="-99"/>
          <Node pos="r" depth="2" NCoef="0" IVar="-1" Cut="0.0000000000000000e+00" cType="1" res="2.8970092535018921e-04" rms="4.8449268937110901e-01" purity="5.2687090635299683e-01" nType="-99"/>
        </Node>
      </Node>
    </BinaryTree>
    <BinaryTree type="DecisionTree" boostWeight="1.0000000000000000e+00" itree="86">
      <Node pos="s" depth="0" NCoef="0" IVar="2" Cut="1.2777597904205322e+00" cType="1" res="-7.3207132518291473e-03" rms="4.7094863653182983e-01" purity="4.9649134278297424e-01" nType="0">
        <Node pos="l" depth="1" NCoef="0" IVar="7" Cut="9.2582166194915771e-01" cType="1" res="2.4006210267543793e-02" rms="4.7617828845977783e-01" purity="5.7358717918395996e-01" nType="0">
          <Node pos="l" depth="2" NCoef="0" IVar="-1" Cut="0.0000000000000000e+00" cType="1" res="-2.7094436809420586e-03" rms="4.7330528497695923e-01" purity="3.6970856785774231e-01" nType="-99"/>
          <Node pos="r" depth="2" NCoef="0" IVar="-1" Cut="0.0000000000000000e+00" cType="1" res="1.7157448455691338e-03" rms="4.7476547956466675e-01" purity="6.0546976327896118e-01" nType="-99"/>
        </Node>
        <Node pos="r" depth="1" NCoef="0" IVar="0" Cut="7.1083426475524902e+00" cType="1" res="-7.3341347277164459e-02" rms="4.5268872380256653e-01" purity="3.3401399850845337e-01" nType="0">
          <Node pos="l" depth="2" NCoef="0" IVar="-1" Cut="0.0000000000000000e+00" cType="1" res="-4.3523614294826984e-03" rms="4.2628425359725952e-01" purity="2.5891980528831482e-01" nType="-99"/>
          <Node pos="r" depth="2" NCoef="0" IVar="-1" Cut="0.0000000000000000e+00" cType="1" res="-6.0051417676731944e-04" rms="4.8361906409263611e-01" purity="4.4635519385337830e-01" nType="-99"/>
        </Node>
      </Node>
    </BinaryTree>
    <BinaryTree type="DecisionTree" boostWeight="1.0000000000000000e+00" itree="87">
      <Node pos="s" depth="0" NCoef="0" IVar="3" Cut="2.1304526329040527e+00" cType="1" res="3.4378529526293278e-03" rms="4.7183060646057129e-01" purity="5.0677347183227539e-01" nType="0">
        <Node pos="l" depth="1" NCoef="0" IVar="4" Cut="5.2528808593750000e+01" cType="1" res="5.1448725163936615e-02" rms="4.7095555067062378e-01" purity="6.0997116565704346e-01" nType="0">
          <Node pos="l" depth="2" NCoef="0" IVar="-1" Cut="0.0000000000000000e+00" cType="1" res="-1.3570133596658707e-03" rms="4.8531937599182129e-01" purity="4.9650895595550537e-01" nType="-99"/>
          <Node pos="r" depth="2" NCoef="0" IVar="-1" Cut="0.0000000000000000e+00" cType="1" res="4.1279080323874950e-03" rms="4.5789825916290283e-01" purity="6.6601645946502686e-01" nType="-99"/>
        </Node>
        <Node pos="r" depth="1" NCoef="0" IVar="1" Cut="1.5162622070312500e+02" cType="1" res="-4.2223162949085236e-02" rms="4.6811488270759583e-01" purity="4.0862676501274109e-01" nType="0">
          <Node pos="l" depth="2" NCoef="0" IVar="-1" Cut="0.0000000000000000e+00" cType="1" res="7.0920342113822699e-04" rms="4.7239127755165100e-01" purity="4.7980821132659912e-01" nType="-99"/>
          <Node pos="r" depth="2" NCoef="0" IVar="-1" Cut="0.0000000000000000e+00" cType="1" res="-3.2696186099201441e-03" rms="4.6092519164085388e-01" purity="3.6054861545562744e-01" nType="-99"/>
        </Node>
      </Node>
    </BinaryTree>
    <BinaryTree type="DecisionTree" boostWeight="1.0000000000000000e+00" itree="88">
      <Node pos="s" depth="0" NCoef="0" IVar="5" Cut="1.1202859878540039e-01" cType="1" res="-2.8324853628873825e-03" rms="4.7183877229690552e-01" purity="5.0152879953384399e-01" nType="0">
        <Node pos="l" depth="1" NCoef="0" IVar="7" Cut="9.2488729953765869e-01" cType="1" res="-3.9799135178327560e-02" rms="4.7086274623870850e-01" purity="4.4467827677726746e-01" nType="0">
          <Node pos="l" depth="2" NCoef="0" IVar="-1" Cut="0.0000000000000000e+00" cType="1" res="-5.4302578791975975e-03" rms="4.1160500049591064e-01" purity="2.3947253823280334e-01" nType="-99"/>
          <Node pos="r" depth="2" NCoef="0" IVar="-1" Cut="0.0000000000000000e+00" cType="1" res="-8.1927614519372582e-04" rms="4.7820249199867249e-01" purity="4.8218938708305359e-01" nType="-99"/>
        </Node>
        <Node pos="r" depth="1" NCoef="0" IVar="2" Cut="1.0268877744674683e+00" cType="1" res="6.6297501325607300e-02" rms="4.6585193276405334e-01" purity="6.0784286260604858e-01" nType="0">
          <Node pos="l" depth="2" NCoef="0" IVar="-1" Cut="0.0000000000000000e+00" cType="1" res="4.8190415836870670e-03" rms="4.5058730244636536e-01" purity="6.9372516870498657e-01" nType="-99"/>
          <Node pos="r" depth="2" NCoef="0" IVar="-1" Cut="0.0000000000000000e+00" cType="1" res="2.7690557180903852e-04" rms="4.8146617412567139e-01" purity="4.8057612776756287e-01" nType="-99"/>
        </Node>
      </Node>
    </BinaryTree>
    <BinaryTree type="DecisionTree" boostWeight="1.0000000000000000e+00" itree="89">
      <Node pos="s" depth="0" NCoef="0" IVar="8" Cut="1.1752752065658569e+00" cType="1" res="-1.1176409199833870e-02" rms="4.7220748662948608e-01" purity="4.9408987164497375e-01" nType="0">
        <Node pos="l" depth="1" NCoef="0" IVar="1" Cut="1.9964952087402344e+02" cType="1" res="2.4889968335628510e-02" rms="4.7444063425064087e-01" purity="5.6364893913269043e-01" nType="0">
          <Node pos="l" depth="2" NCoef="0" IVar="-1" Cut="0.0000000000000000e+00" cType="1" res="2.2962638176977634e-03" rms="4.7197440266609192e-01" purity="6.0395741462707520e-01" nType="-99"/>
          <Node pos="r" depth="2" NCoef="0" IVar="-1" Cut="0.0000000000000000e+00" cType="1" res="-1.4346900861710310e-03" rms="4.7401502728462219e-01" purity="4.7808432579040527e-01" nType="-99"/>
        </Node>
        <Node pos="r" depth="1" NCoef="0" IVar="4" Cut="9.4661888122558594e+01" cType="1" res="-6.7168027162551880e-02" rms="4.6318846940994263e-01" purity="3.8610211014747620e-01" nType="0">
          <Node pos="l" depth="2" NCoef="0" IVar="-1" Cut="0.0000000000000000e+00" cType="1" res="-4.0302728302776814e-03" rms="4.5576024055480957e-01" purity="3.5569465160369873e-01" nType="-99"/>
          <Node pos="r" depth="2" NCoef="0" IVar="-1" Cut="0.0000000000000000e+00" cType="1" res="-1.3792463869322091e-04" rms="4.6974676847457886e-01" purity="4.4143360853195190e-01" nType="-99"/>
        </Node>
      </Node>
    </BinaryTree>
    <BinaryTree type="DecisionTree" boostWeight="1.0000000000000000e+00" itree="90">
      <Node pos="s" depth="0" NCoef="0" IVar="5" Cut="9.3528665602207184e-02" cType="1" res="-1.4419241808354855e-02" rms="4.7310844063758850e-01" purity="4.8915940523147583e-01" nType="0">
        <Node pos="l" depth="1" NCoef="0" IVar="4" Cut="1.0806504821777344e+02" cType="1" res="-5.1115941256284714e-02" rms="4.7006431221961975e-01" purity="4.2873367667198181e-01" nType="0">
          <Node pos="l" depth="2" NCoef="0" IVar="-1" Cut="0.0000000000000000e+00" cType="1" res="-3.0754802282899618e-03" rms="4.6670758724212646e-01" purity="4.0371504426002502e-01" nType="-99"/>
          <Node pos="r" depth="2" NCoef="0" IVar="-1" Cut="0.0000000000000000e+00" cType="1" res="6.7749753361567855e-04" rms="4.7202038764953613e-01" purity="4.9357041716575623e-01" nType="-99"/>
        </Node>
        <Node pos="r" depth="1" NCoef="0" IVar="2" Cut="1.0373159646987915e+00" cType="1" res="3.3467128872871399e-02" rms="4.7278729081153870e-01" purity="5.6801027059555054e-01" nType="0">
          <Node pos="l" depth="2" NCoef="0" IVar="-1" Cut="0.0000000000000000e+00" cType="1" res="3.0632750131189823e-03" rms="4.6451124548912048e-01" purity="6.5439844131469727e-01" nType="-99"/>
          <Node pos="r" depth="2" NCoef="0" IVar="-1" Cut="0.0000000000000000e+00" cType="1" res="-5.5695459013804793e-04" rms="4.7965607047080994e-01" purity="4.5197746157646179e-01" nType="-99"/>
        </Node>
      </Node>
    </BinaryTree>
    <BinaryTree type="DecisionTree" boostWeight="1.0000000000000000e+00" itree="91">
      <Node pos="s" depth="0" NCoef="0" IVar="0" Cut="6.1115140914916992e+00" cType="1" res="-2.0940699614584446e-03" rms="4.7106653451919556e-01" purity="5.0298416614532471e-01" nType="0">
        <Node pos="l" depth="1" NCoef="0" IVar="5" Cut="1.3142888247966766e-01" cType="1" res="-7.2316169738769531e-02" rms="4.5540800690650940e-01" purity="3.3944809436798096e-01" nType="0">
          <Node pos="l" depth="2" NCoef="0" IVar="-1" Cut="0.0000000000000000e+00" cType="1" res="-3.7374976091086864e-03" rms="4.4231277704238892e-01" purity="3.0071565508842468e-01" nType="-99"/>
          <Node pos="r" depth="2" NCoef="0" IVar="-1" Cut="0.0000000000000000e+00" cType="1" res="6.0591660439968109e-04" rms="4.8542490601539612e-01" purity="4.6589925885200500e-01" nType="-99"/>
        </Node>
        <Node pos="r" depth="1" NCoef="0" IVar="4" Cut="4.7631355285644531e+01" cType="1" res="2.3974290117621422e-02" rms="4.7410866618156433e-01" purity="5.6369322538375854e-01" nType="0">
          <Node pos="l" depth="2" NCoef="0" IVar="-1" Cut="0.0000000000000000e+00" cType="1" res="-2.7912619989365339e-03" rms="4.8052176833152771e-01" purity="4.5629772543907166e-01" nType="-99"/>
          <Node pos="r" depth="2" NCoef="0" IVar="-1" Cut="0.0000000000000000e+00" cType="1" res="1.9981078803539276e-03" rms="4.6995955705642700e-01" purity="5.8918762207031250e-01" nType="-99"/>
        </Node>
      </Node>
    </BinaryTree>
    <BinaryTree type="DecisionTree" boostWeight="1.0000000000000000e+00" itree="92">
      <Node pos="s" depth="0" NCoef="0" IVar="4" Cut="4.9061950683593750e+01" cType="1" res="-9.7231399267911911e-03" rms="4.7116285562515259e-01" purity="4.9211260676383972e-01" nType="0">
        <Node pos="l" depth="1" NCoef="0" IVar="2" Cut="9.2016375064849854e-01" cType="1" res="-9.9633246660232544e-02" rms="4.6440273523330688e-01" purity="3.8924986124038696e-01" nType="0">
          <Node pos="l" depth="2" NCoef="0" IVar="-1" Cut="0.0000000000000000e+00" cType="1" res="-7.1655039209872484e-04" rms="4.8925435543060303e-01" purity="5.5050468444824219e-01" nType="-99"/>
          <Node pos="r" depth="2" NCoef="0" IVar="-1" Cut="0.0000000000000000e+00" cType="1" res="-5.5361860431730747e-03" rms="4.4441220164299011e-01" purity="3.0357918143272400e-01" nType="-99"/>
        </Node>
        <Node pos="r" depth="1" NCoef="0" IVar="7" Cut="9.2582166194915771e-01" cType="1" res="1.5250778757035732e-02" rms="4.6998092532157898e-01" purity="5.2068430185317993e-01" nType="0">
          <Node pos="l" depth="2" NCoef="0" IVar="-1" Cut="0.0000000000000000e+00" cType="1" res="-3.8955018389970064e-03" rms="4.3885156512260437e-01" purity="2.9474043846130371e-01" nType="-99"/>
          <Node pos="r" depth="2" NCoef="0" IVar="-1" Cut="0.0000000000000000e+00" cType="1" res="1.6166360583156347e-03" rms="4.7212985157966614e-01" purity="5.6253027915954590e-01" nType="-99"/>
        </Node>
      </Node>
    </BinaryTree>
    <BinaryTree type="DecisionTree" boostWeight="1.0000000000000000e+00" itree="93">
      <Node pos="s" depth="0" NCoef="0" IVar="8" Cut="1.3835904598236084e+00" cType="1" res="-8.1707416102290154e-03" rms="4.7079753875732422e-01" purity="4.9396193027496338e-01" nType="0">
        <Node pos="l" depth="1" NCoef="0" IVar="0" Cut="7.0923323631286621e+00" cType="1" res="2.3377869278192520e-02" rms="4.7386130690574646e-01" purity="5.5762732028961182e-01" nType="0">
          <Node pos="l" depth="2" NCoef="0" IVar="-1" Cut="0.0000000000000000e+00" cType="1" res="-7.2928977897390723e-04" rms="4.8293292522430420e-01" purity="4.5866280794143677e-01" nType="-99"/>
          <Node pos="r" depth="2" NCoef="0" IVar="-1" Cut="0.0000000000000000e+00" cType="1" res="3.2109208405017853e-03" rms="4.5925331115722656e-01" purity="6.6657114028930664e-01" nType="-99"/>
        </Node>
        <Node pos="r" depth="1" NCoef="0" IVar="4" Cut="8.5014717102050781e+01" cType="1" res="-7.5616300106048584e-02" rms="4.5693132281303406e-01" purity="3.5785618424415588e-01" nType="0">
          <Node pos="l" depth="2" NCoef="0" IVar="-1" Cut="0.0000000000000000e+00" cType="1" res="-4.5370440930128098e-03" rms="4.4635465741157532e-01" purity="3.1994578242301941e-01" nType="-99"/>
          <Node pos="r" depth="2" NCoef="0" IVar="-1" Cut="0.0000000000000000e+00" cType="1" res="-9.8419585265219212e-04" rms="4.6517595648765564e-01" purity="4.0660408139228821e-01" nType="-99"/>
        </Node>
      </Node>
    </BinaryTree>
    <BinaryTree type="DecisionTree" boostWeight="1.0000000000000000e+00" itree="94">
      <Node pos="s" depth="0" NCoef="0" IVar="2" Cut="1.4256110191345215e+00" cType="1" res="-7.2560370899736881e-03" rms="4.7164547443389893e-01" purity="4.9557486176490784e-01" nType="0">
        <Node pos="l" depth="1" NCoef="0" IVar="4" Cut="7.9350646972656250e+01" cType="1" res="1.3486183248460293e-02" rms="4.7714605927467346e-01" purity="5.4802989959716797e-01" nType="0">
          <Node pos="l" depth="2" NCoef="0" IVar="-1" Cut="0.0000000000000000e+00" cType="1" res="-8.6661090608686209e-04" rms="4.8293253779411316e-01" purity="5.1140540838241577e-01" nType="-99"/>
          <Node pos="r" depth="2" NCoef="0" IVar="-1" Cut="0.0000000000000000e+00" cType="1" res="2.3715463466942310e-03" rms="4.6679520606994629e-01" purity="5.9181851148605347e-01" nType="-99"/>
        </Node>
        <Node pos="r" depth="1" NCoef="0" IVar="9" Cut="7.4025769042968750e+02" cType="1" res="-8.5548937320709229e-02" rms="4.4158422946929932e-01" purity="2.9757976531982422e-01" nType="0">
          <Node pos="l" depth="2" NCoef="0" IVar="-1" Cut="0.0000000000000000e+00" cType="1" res="-4.9472474493086338e-03" rms="4.2244032025337219e-01" purity="2.5086313486099243e-01" nType="-99"/>
          <Node pos="r" depth="2" NCoef="0" IVar="-1" Cut="0.0000000000000000e+00" cType="1" res="-1.4266308862715960e-03" rms="4.5993989706039429e-01" purity="3.5700833797454834e-01" nType="-99"/>
        </Node>
      </Node>
    </BinaryTree>
    <BinaryTree type="DecisionTree" boostWeight="1.0000000000000000e+00" itree="95">
      <Node pos="s" depth="0" NCoef="0" IVar="7" Cut="9.4254779815673828e-01" cType="1" res="-6.6170436330139637e-03" rms="4.7140768170356750e-01" purity="4.9818089604377747e-01" nType="0">
        <Node pos="l" depth="1" NCoef="0" IVar="3" Cut="2.1921503543853760e+00" cType="1" res="-6.2885724008083344e-02" rms="4.6058845520019531e-01" purity="3.6577156186103821e-01" nType="0">
          <Node pos="l" depth="2" NCoef="0" IVar="-1" Cut="0.0000000000000000e+00" cType="1" res="-4.6109186951071024e-04" rms="4.8808914422988892e-01" purity="4.6996331214904785e-01" nType="-99"/>
          <Node pos="r" depth="2" NCoef="0" IVar="-1" Cut="0.0000000000000000e+00" cType="1" res="-4.6957205049693584e-03" rms="4.1836962103843689e-01" purity="2.4384339153766632e-01" nType="-99"/>
        </Node>
        <Node pos="r" depth="1" NCoef="0" IVar="4" Cut="7.2836936950683594e+01" cType="1" res="2.3616282269358635e-02" rms="4.7437098622322083e-01" purity="5.6932491064071655e-01" nType="0">
          <Node pos="l" depth="2" NCoef="0" IVar="-1" Cut="0.0000000000000000e+00" cType="1" res="-7.5761211337521672e-04" rms="4.7688144445419312e-01" purity="5.2679485082626343e-01" nType="-99"/>
          <Node pos="r" depth="2" NCoef="0" IVar="-1" Cut="0.0000000000000000e+00" cType="1" res="2.6537429075688124e-03" rms="4.6916764974594116e-01" purity="6.0678142309188843e-01" nType="-99"/>
        </Node>
      </Node>
    </BinaryTree>
    <BinaryTree type="DecisionTree" boostWeight="1.0000000000000000e+00" itree="96">
      <Node pos="s" depth="0" NCoef="0" IVar="8" Cut="1.1169708967208862e+00" cType="1" res="-5.3709605708718300e-04" rms="4.7068804502487183e-01" purity="5.0400447845458984e-01" nType="0">
        <Node pos="l" depth="1" NCoef="0" IVar="7" Cut="9.2182898521423340e-01" cType="1" res="3.3300206065177917e-02" rms="4.7195124626159668e-01" purity="5.7472443580627441e-01" nType="0">
          <Node pos="l" depth="2" NCoef="0" IVar="-1" Cut="0.0000000000000000e+00" cType="1" res="-3.2602429855614901e-03" rms="4.6260347962379456e-01" purity="3.4228411316871643e-01" nType="-99"/>
          <Node pos="r" depth="2" NCoef="0" IVar="-1" Cut="0.0000000000000000e+00" cType="1" res="2.1274762693792582e-03" rms="4.7084218263626099e-01" purity="6.0379457473754883e-01" nType="-99"/>
        </Node>
        <Node pos="r" depth="1" NCoef="0" IVar="3" Cut="2.1084816455841064e+00" cType="1" res="-4.7006443142890930e-02" rms="4.6495178341865540e-01" purity="4.0688362717628479e-01" nType="0">
          <Node pos="l" depth="2" NCoef="0" IVar="-1" Cut="0.0000000000000000e+00" cType="1" res="2.6513301418162882e-04" rms="4.8116940259933472e-01" purity="5.3253591060638428e-01" nType="-99"/>
          <Node pos="r" depth="2" NCoef="0" IVar="-1" Cut="0.0000000000000000e+00" cType="1" res="-2.9137162491679192e-03" rms="4.5479500293731689e-01" purity="3.4688875079154968e-01" nType="-99"/>
        </Node>
      </Node>
    </BinaryTree>
    <BinaryTree type="DecisionTree" boostWeight="1.0000000000000000e+00" itree="97">
      <Node pos="s" depth="0" NCoef="0" IVar="0" Cut="7.0923323631286621e+00" cType="1" res="-4.0483432821929455e-03" rms="4.7012066841125488e-01" purity="4.9882757663726807e-01" nType="0">
        <Node pos="l" depth="1" NCoef="0" IVar="1" Cut="1.6615144348144531e+02" cType="1" res="-4.4798377901315689e-02" rms="4.7008320689201355e-01" purity="3.9811691641807556e-01" nType="0">
          <Node pos="l" depth="2" NCoef="0" IVar="-1" Cut="0.0000000000000000e+00" cType="1" res="-4.4962568790651858e-04" rms="4.7908034920692444e-01" purity="4.4750317931175232e-01" nType="-99"/>
          <Node pos="r" depth="2" NCoef="0" IVar="-1" Cut="0.0000000000000000e+00" cType="1" res="-3.3264071680605412e-03" rms="4.5568928122520447e-01" purity="3.3830848336219788e-01" nType="-99"/>
        </Node>
        <Node pos="r" depth="1" NCoef="0" IVar="1" Cut="3.2827725219726562e+02" cType="1" res="4.2124491184949875e-02" rms="4.6587541699409485e-01" purity="6.1294019222259521e-01" nType="0">
          <Node pos="l" depth="2" NCoef="0" IVar="-1" Cut="0.0000000000000000e+00" cType="1" res="2.7148413937538862e-03" rms="4.6147656440734863e-01" purity="6.3746303319931030e-01" nType="-99"/>
          <Node pos="r" depth="2" NCoef="0" IVar="-1" Cut="0.0000000000000000e+00" cType="1" res="-2.9913692269474268e-03" rms="4.7843873500823975e-01" purity="4.5287507772445679e-01" nType="-99"/>
        </Node>
      </Node>
    </BinaryTree>
    <BinaryTree type="DecisionTree" boostWeight="1.0000000000000000e+00" itree="98">
      <Node pos="s" depth="0" NCoef="0" IVar="3" Cut="2.1304526329040527e+00" cType="1" res="5.7086674496531487e-04" rms="4.7016236186027527e-01" purity="5.0375944375991821e-01" nType="0">
        <Node pos="l" depth="1" NCoef="0" IVar="4" Cut="5.2631248474121094e+01" cType="1" res="4.2916201055049896e-02" rms="4.7176149487495422e-01" purity="6.0245639085769653e-01" nType="0">
          <Node pos="l" depth="2" NCoef="0" IVar="-1" Cut="0.0000000000000000e+00" cType="1" res="-1.0143506806343794e-03" rms="4.8592075705528259e-01" purity="5.0223320722579956e-01" nType="-99"/>
          <Node pos="r" depth="2" NCoef="0" IVar="-1" Cut="0.0000000000000000e+00" cType="1" res="3.4189207945019007e-03" rms="4.6057257056236267e-01" purity="6.5340369939804077e-01" nType="-99"/>
        </Node>
        <Node pos="r" depth="1" NCoef="0" IVar="7" Cut="9.3956762552261353e-01" cType="1" res="-4.2650669813156128e-02" rms="4.6456098556518555e-01" purity="4.0302026271820068e-01" nType="0">
          <Node pos="l" depth="2" NCoef="0" IVar="-1" Cut="0.0000000000000000e+00" cType="1" res="-4.0206247940659523e-03" rms="4.2338475584983826e-01" purity="2.5869944691658020e-01" nType="-99"/>
          <Node pos="r" depth="2" NCoef="0" IVar="-1" Cut="0.0000000000000000e+00" cType="1" res="-4.6531169209629297e-04" rms="4.8116034269332886e-01" purity="4.7661244869232178e-01" nType="-99"/>
        </Node>
      </Node>
    </BinaryTree>
    <BinaryTree type="DecisionTree" boostWeight="1.0000000000000000e+00" itree="99">
      <Node pos="s" depth="0" NCoef="0" IVar="5" Cut="6.9595582783222198e-02" cType="1" res="-3.9928308688104153e-03" rms="4.7125157713890076e-01" purity="4.9880245327949524e-01" nType="0">
        <Node pos="l" depth="1" NCoef="0" IVar="1" Cut="1.6656912231445312e+02" cType="1" res="-5.0459131598472595e-02" rms="4.6978774666786194e-01" purity="4.2031675577163696e-01" nType="0">
          <Node pos="l" depth="2" NCoef="0" IVar="-1" Cut="0.0000000000000000e+00" cType="1" res="-3.7230859743431211e-04" rms="4.7501710057258606e-01" purity="4.7883278131484985e-01" nType="-99"/>
          <Node pos="r" depth="2" NCoef="0" IVar="-1" Cut="0.0000000000000000e+00" cType="1" res="-3.6924034357070923e-03" rms="4.6036103367805481e-01" purity="3.5948306322097778e-01" nType="-99"/>
        </Node>
        <Node pos="r" depth="1" NCoef="0" IVar="3" Cut="2.2367208003997803e+00" cType="1" res="2.9027214273810387e-02" rms="4.6950218081474304e-01" purity="5.5457627773284912e-01" nType="0">
          <Node pos="l" depth="2" NCoef="0" IVar="-1" Cut="0.0000000000000000e+00" cType="1" res="2.5846937205642462e-03" rms="4.6788677573204041e-01" purity="6.2626183032989502e-01" nType="-99"/>
          <Node pos="r" depth="2" NCoef="0" IVar="-1" Cut="0.0000000000000000e+00" cType="1" res="-1.3997653732076287e-03" rms="4.6660950779914856e-01" purity="4.0160116553306580e-01" nType="-99"/>
        </Node>
      </Node>
    </BinaryTree>
    <BinaryTree type="DecisionTree" boostWeight="1.0000000000000000e+00" itree="100">
      <Node pos="s" depth="0" NCoef="0" IVar="4" Cut="4.7630283355712891e+01" cType="1" res="-3.3015438821166754e-03" rms="4.7225886583328247e-01" purity="5.0028455257415771e-01" nType="0">
        <Node pos="l" depth="1" NCoef="0" IVar="5" Cut="1.3682880997657776e-01" cType="1" res="-8.8145136833190918e-02" rms="4.6764960885047913e-01" purity="3.9654910564422607e-01" nType="0">
          <Node pos="l" depth="2" NCoef="0" IVar="-1" Cut="0.0000000000000000e+00" cType="1" res="-4.9268198199570179e-03" rms="4.5483517646789551e-01" purity="3.4089833498001099e-01" nType="-99"/>
          <Node pos="r" depth="2" NCoef="0" IVar="-1" Cut="0.0000000000000000e+00" cType="1" res="5.6933960877358913e-05" rms="4.8612132668495178e-01" purity="5.3263235092163086e-01" nType="-99"/>
        </Node>
        <Node pos="r" depth="1" NCoef="0" IVar="1" Cut="3.1487814331054688e+02" cType="1" res="1.6347330063581467e-02" rms="4.7114604711532593e-01" purity="5.2430856227874756e-01" nType="0">
          <Node pos="l" depth="2" NCoef="0" IVar="-1" Cut="0.0000000000000000e+00" cType="1" res="1.5971742104738951e-03" rms="4.6929934620857239e-01" purity="5.5507683753967285e-01" nType="-99"/>
          <Node pos="r" depth="2" NCoef="0" IVar="-1" Cut="0.0000000000000000e+00" cType="1" res="-3.2316315919160843e-03" rms="4.6747964620590210e-01" purity="3.8312530517578125e-01" nType="-99"/>
        </Node>
      </Node>
    </BinaryTree>
    <BinaryTree type="DecisionTree" boostWeight="1.0000000000000000e+00" itree="101">
      <Node pos="s" depth="0" NCoef="0" IVar="2" Cut="1.4149278402328491e+00" cType="1" res="3.0904919840395451e-03" rms="4.7018268704414368e-01" purity="5.0745731592178345e-01" nType="0">
        <Node pos="l" depth="1" NCoef="0" IVar="1" Cut="1.8538905334472656e+02" cType="1" res="2.3414097726345062e-02" rms="4.7537580132484436e-01" purity="5.6035619974136353e-01" nType="0">
          <Node pos="l" depth="2" NCoef="0" IVar="-1" Cut="0.0000000000000000e+00" cType="1" res="2.2315818350762129e-03" rms="4.6949312090873718e-01" purity="5.9850996732711792e-01" nType="-99"/>
          <Node pos="r" depth="2" NCoef="0" IVar="-1" Cut="0.0000000000000000e+00" cType="1" res="-1.1618528515100479e-03" rms="4.8168072104454041e-01" purity="4.9064591526985168e-01" nType="-99"/>
        </Node>
        <Node pos="r" depth="1" NCoef="0" IVar="4" Cut="9.1759963989257812e+01" cType="1" res="-7.4555680155754089e-02" rms="4.4125363230705261e-01" purity="3.0535772442817688e-01" nType="0">
          <Node pos="l" depth="2" NCoef="0" IVar="-1" Cut="0.0000000000000000e+00" cType="1" res="-4.6912301331758499e-03" rms="4.2049390077590942e-01" purity="2.6092830300331116e-01" nType="-99"/>
          <Node pos="r" depth="2" NCoef="0" IVar="-1" Cut="0.0000000000000000e+00" cType="1" res="-7.5598311377689242e-04" rms="4.5950514078140259e-01" purity="3.6027249693870544e-01" nType="-99"/>
        </Node>
      </Node>
    </BinaryTree>
    <BinaryTree type="DecisionTree" boostWeight="1.0000000000000000e+00" itree="102">
      <Node pos="s" depth="0" NCoef="0" IVar="5" Cut="9.3528665602207184e-02" cType="1" res="-1.5290145529434085e-04" rms="4.6991413831710815e-01" purity="5.0090152025222778e-01" nType="0">
        <Node pos="l" depth="1" NCoef="0" IVar="8" Cut="2.3674297332763672e+00" cType="1" res="-4.0943432599306107e-02" rms="4.6786099672317505e-01" purity="4.3078908324241638e-01" nType="0">
          <Node pos="l" depth="2" NCoef="0" IVar="-1" Cut="0.0000000000000000e+00" cType="1" res="-1.0347550269216299e-03" rms="4.7638711333274841e-01" purity="4.6297094225883484e-01" nType="-99"/>
          <Node pos="r" depth="2" NCoef="0" IVar="-1" Cut="0.0000000000000000e+00" cType="1" res="-6.0111014172434807e-03" rms="3.8488742709159851e-01" purity="2.0360048115253448e-01" nType="-99"/>
        </Node>
        <Node pos="r" depth="1" NCoef="0" IVar="9" Cut="6.2346801757812500e+02" cType="1" res="5.2332326769828796e-02" rms="4.6733406186103821e-01" purity="5.9111529588699341e-01" nType="0">
          <Node pos="l" depth="2" NCoef="0" IVar="-1" Cut="0.0000000000000000e+00" cType="1" res="-6.7405526351649314e-05" rms="4.7154390811920166e-01" purity="5.2001005411148071e-01" nType="-99"/>
          <Node pos="r" depth="2" NCoef="0" IVar="-1" Cut="0.0000000000000000e+00" cType="1" res="4.3492564000189304e-03" rms="4.5893055200576782e-01" purity="6.5064471960067749e-01" nType="-99"/>
        </Node>
      </Node>
    </BinaryTree>
    <BinaryTree type="DecisionTree" boostWeight="1.0000000000000000e+00" itree="103">
      <Node pos="s" depth="0" NCoef="0" IVar="1" Cut="7.8911964416503906e+01" cType="1" res="-5.3136576898396015e-03" rms="4.7064536809921265e-01" purity="4.9981898069381714e-01" nType="0">
        <Node pos="l" depth="1" NCoef="0" IVar="3" Cut="2.0163669586181641e+00" cType="1" res="-1.0934144258499146e-01" rms="4.6508356928825378e-01" purity="3.9549940824508667e-01" nType="0">
          <Node pos="l" depth="2" NCoef="0" IVar="-1" Cut="0.0000000000000000e+00" cType="1" res="-3.0518802814185619e-03" rms="4.8829704523086548e-01" purity="4.7073060274124146e-01" nType="-99"/>
          <Node pos="r" depth="2" NCoef="0" IVar="-1" Cut="0.0000000000000000e+00" cType="1" res="-5.7048597373068333e-03" rms="4.3801489472389221e-01" purity="3.2067170739173889e-01" nType="-99"/>
        </Node>
        <Node pos="r" depth="1" NCoef="0" IVar="1" Cut="1.3759715270996094e+02" cType="1" res="9.8519045859575272e-03" rms="4.6952968835830688e-01" purity="5.1502710580825806e-01" nType="0">
          <Node pos="l" depth="2" NCoef="0" IVar="-1" Cut="0.0000000000000000e+00" cType="1" res="3.1748877372592688e-03" rms="4.6157097816467285e-01" purity="6.0277545452117920e-01" nType="-99"/>
          <Node pos="r" depth="2" NCoef="0" IVar="-1" Cut="0.0000000000000000e+00" cType="1" res="-1.0910317068919539e-03" rms="4.7022902965545654e-01" purity="4.6446409821510315e-01" nType="-99"/>
        </Node>
      </Node>
    </BinaryTree>
    <BinaryTree type="DecisionTree" boostWeight="1.0000000000000000e+00" itree="104">
      <Node pos="s" depth="0" NCoef="0" IVar="4" Cut="5.7732265472412109e+01" cType="1" res="-2.0594322122633457e-03" rms="4.6898800134658813e-01" purity="5.0302374362945557e-01" nType="0">
        <Node pos="l" depth="1" NCoef="0" IVar="2" Cut="9.6357262134552002e-01" cType="1" res="-6.4648114144802094e-02" rms="4.6604904532432556e-01" purity="4.3146264553070068e-01" nType="0">
          <Node pos="l" depth="2" NCoef="0" IVar="-1" Cut="0.0000000000000000e+00" cType="1" res="7.2371406713500619e-04" rms="4.8143148422241211e-01" purity="5.8964043855667114e-01" nType="-99"/>
          <Node pos="r" depth="2" NCoef="0" IVar="-1" Cut="0.0000000000000000e+00" cType="1" res="-4.7231754288077354e-03" rms="4.4662648439407349e-01" purity="3.2277917861938477e-01" nType="-99"/>
        </Node>
        <Node pos="r" depth="1" NCoef="0" IVar="3" Cut="2.5658040046691895e+00" cType="1" res="2.6291761547327042e-02" rms="4.6756419539451599e-01" purity="5.3543919324874878e-01" nType="0">
          <Node pos="l" depth="2" NCoef="0" IVar="-1" Cut="0.0000000000000000e+00" cType="1" res="1.9420527387410402e-03" rms="4.7189447283744812e-01" purity="5.8262556791305542e-01" nType="-99"/>
          <Node pos="r" depth="2" NCoef="0" IVar="-1" Cut="0.0000000000000000e+00" cType="1" res="-3.5570098552852869e-03" rms="4.2461353540420532e-01" purity="2.5982540845870972e-01" nType="-99"/>
        </Node>
      </Node>
    </BinaryTree>
    <BinaryTree type="DecisionTree" boostWeight="1.0000000000000000e+00" itree="105">
      <Node pos="s" depth="0" NCoef="0" IVar="7" Cut="9.2893683910369873e-01" cType="1" res="-6.1489860527217388e-03" rms="4.6877887845039368e-01" purity="4.9569925665855408e-01" nType="0">
        <Node pos="l" depth="1" NCoef="0" IVar="5" Cut="5.6073084473609924e-02" cType="1" res="-9.3905083835124969e-02" rms="4.4183042645454407e-01" purity="3.0157208442687988e-01" nType="0">
          <Node pos="l" depth="2" NCoef="0" IVar="-1" Cut="0.0000000000000000e+00" cType="1" res="-5.6718178093433380e-03" rms="3.9584043622016907e-01" purity="2.1552664041519165e-01" nType="-99"/>
          <Node pos="r" depth="2" NCoef="0" IVar="-1" Cut="0.0000000000000000e+00" cType="1" res="-2.2678896784782410e-03" rms="4.6303912997245789e-01" purity="3.5126048326492310e-01" nType="-99"/>
        </Node>
        <Node pos="r" depth="1" NCoef="0" IVar="4" Cut="5.8330577850341797e+01" cType="1" res="1.4090937562286854e-02" rms="4.7246962785720825e-01" purity="5.4047238826751709e-01" nType="0">
          <Node pos="l" depth="2" NCoef="0" IVar="-1" Cut="0.0000000000000000e+00" cType="1" res="-2.0763154607266188e-03" rms="4.7539541125297546e-01" purity="4.6410813927650452e-01" nType="-99"/>
          <Node pos="r" depth="2" NCoef="0" IVar="-1" Cut="0.0000000000000000e+00" cType="1" res="1.9176931818947196e-03" rms="4.6812358498573303e-01" purity="5.7617664337158203e-01" nType="-99"/>
        </Node>
      </Node>
    </BinaryTree>
    <BinaryTree type="DecisionTree" boostWeight="1.0000000000000000e+00" itree="106">
      <Node pos="s" depth="0" NCoef="0" IVar="2" Cut="1.4091725349426270e+00" cType="1" res="-4.7133924090303481e-04" rms="4.6743515133857727e-01" purity="5.0293797254562378e-01" nType="0">
        <Node pos="l" depth="1" NCoef="0" IVar="4" Cut="4.7630283355712891e+01" cType="1" res="2.1788438782095909e-02" rms="4.7360226511955261e-01" purity="5.6057184934616089e-01" nType="0">
          <Node pos="l" depth="2" NCoef="0" IVar="-1" Cut="0.0000000000000000e+00" cType="1" res="-2.4194279685616493e-03" rms="4.8186513781547546e-01" purity="4.5171725749969482e-01" nType="-99"/>
          <Node pos="r" depth="2" NCoef="0" IVar="-1" Cut="0.0000000000000000e+00" cType="1" res="1.8305359408259392e-03" rms="4.6924895048141479e-01" purity="5.8803933858871460e-01" nType="-99"/>
        </Node>
        <Node pos="r" depth="1" NCoef="0" IVar="9" Cut="5.8801214599609375e+02" cType="1" res="-7.9833403229713440e-02" rms="4.3559128046035767e-01" purity="2.9745778441429138e-01" nType="0">
          <Node pos="l" depth="2" NCoef="0" IVar="-1" Cut="0.0000000000000000e+00" cType="1" res="-5.9325881302356720e-03" rms="3.8938254117965698e-01" purity="2.0828881859779358e-01" nType="-99"/>
          <Node pos="r" depth="2" NCoef="0" IVar="-1" Cut="0.0000000000000000e+00" cType="1" res="-1.9687712192535400e-03" rms="4.5118415355682373e-01" purity="3.3703884482383728e-01" nType="-99"/>
        </Node>
      </Node>
    </BinaryTree>
    <BinaryTree type="DecisionTree" boostWeight="1.0000000000000000e+00" itree="107">
      <Node pos="s" depth="0" NCoef="0" IVar="0" Cut="8.4978570938110352e+00" cType="1" res="6.3244234770536423e-03" rms="4.6926289796829224e-01" purity="5.1065742969512939e-01" nType="0">
        <Node pos="l" depth="1" NCoef="0" IVar="3" Cut="2.2554893493652344e+00" cType="1" res="-1.1192394420504570e-02" rms="4.7183230519294739e-01" purity="4.7616103291511536e-01" nType="0">
          <Node pos="l" depth="2" NCoef="0" IVar="-1" Cut="0.0000000000000000e+00" cType="1" res="7.4144045356661081e-04" rms="4.8052653670310974e-01" purity="5.5871802568435669e-01" nType="-99"/>
          <Node pos="r" depth="2" NCoef="0" IVar="-1" Cut="0.0000000000000000e+00" cType="1" res="-2.5185304693877697e-03" rms="4.5150923728942871e-01" purity="3.3019459247589111e-01" nType="-99"/>
        </Node>
        <Node pos="r" depth="1" NCoef="0" IVar="4" Cut="6.3396495819091797e+01" cType="1" res="9.2122666537761688e-02" rms="4.4665378332138062e-01" purity="6.7962253093719482e-01" nType="0">
          <Node pos="l" depth="2" NCoef="0" IVar="-1" Cut="0.0000000000000000e+00" cType="1" res="-4.5188295189291239e-04" rms="4.7702839970588684e-01" purity="5.6941151618957520e-01" nType="-99"/>
          <Node pos="r" depth="2" NCoef="0" IVar="-1" Cut="0.0000000000000000e+00" cType="1" res="6.9543546997010708e-03" rms="4.2068484425544739e-01" purity="7.3622918128967285e-01" nType="-99"/>
        </Node>
      </Node>
    </BinaryTree>
    <BinaryTree type="DecisionTree" boostWeight="1.0000000000000000e+00" itree="108">
      <Node pos="s" depth="0" NCoef="0" IVar="0" Cut="6.9922714233398438e+00" cType="1" res="5.1059769248240627e-06" rms="4.6911370754241943e-01" purity="5.0379842519760132e-01" nType="0">
        <Node pos="l" depth="1" NCoef="0" IVar="5" Cut="8.2669511437416077e-02" cType="1" res="-4.2456064373254776e-02" rms="4.6843957901000977e-01" purity="3.9767688512802124e-01" nType="0">
          <Node pos="l" depth="2" NCoef="0" IVar="-1" Cut="0.0000000000000000e+00" cType="1" res="-2.9779016040265560e-03" rms="4.5433905720710754e-01" purity="3.3721211552619934e-01" nType="-99"/>
          <Node pos="r" depth="2" NCoef="0" IVar="-1" Cut="0.0000000000000000e+00" cType="1" res="-1.0277402907377109e-04" rms="4.8108169436454773e-01" purity="4.6726819872856140e-01" nType="-99"/>
        </Node>
        <Node pos="r" depth="1" NCoef="0" IVar="1" Cut="2.9053558349609375e+02" cType="1" res="4.2537551373243332e-02" rms="4.6592462062835693e-01" purity="6.1009812355041504e-01" nType="0">
          <Node pos="l" depth="2" NCoef="0" IVar="-1" Cut="0.0000000000000000e+00" cType="1" res="2.8039673343300819e-03" rms="4.6038532257080078e-01" purity="6.3912546634674072e-01" nType="-99"/>
          <Node pos="r" depth="2" NCoef="0" IVar="-1" Cut="0.0000000000000000e+00" cType="1" res="-1.6904708463698626e-03" rms="4.8086565732955933e-01" purity="4.8255905508995056e-01" nType="-99"/>
        </Node>
      </Node>
    </BinaryTree>
    <BinaryTree type="DecisionTree" boostWeight="1.0000000000000000e+00" itree="109">
      <Node pos="s" depth="0" NCoef="0" IVar="2" Cut="1.5386021137237549e+00" cType="1" res="-3.5827346146106720e-03" rms="4.6902003884315491e-01" purity="5.0150048732757568e-01" nType="0">
        <Node pos="l" depth="1" NCoef="0" IVar="7" Cut="9.5819610357284546e-01" cType="1" res="1.1208034120500088e-02" rms="4.7377187013626099e-01" purity="5.3692549467086792e-01" nType="0">
          <Node pos="l" depth="2" NCoef="0" IVar="-1" Cut="0.0000000000000000e+00" cType="1" res="-8.2691392162814736e-04" rms="4.7907567024230957e-01" purity="4.5829772949218750e-01" nType="-99"/>
          <Node pos="r" depth="2" NCoef="0" IVar="-1" Cut="0.0000000000000000e+00" cType="1" res="2.5836639106273651e-03" rms="4.6247741580009460e-01" purity="6.4771950244903564e-01" nType="-99"/>
        </Node>
        <Node pos="r" depth="1" NCoef="0" IVar="4" Cut="9.1338134765625000e+01" cType="1" res="-1.0542701929807663e-01" rms="4.2101472616195679e-01" purity="2.5757592916488647e-01" nType="0">
          <Node pos="l" depth="2" NCoef="0" IVar="-1" Cut="0.0000000000000000e+00" cType="1" res="-5.6022382341325283e-03" rms="3.9208480715751648e-01" purity="2.1892885863780975e-01" nType="-99"/>
          <Node pos="r" depth="2" NCoef="0" IVar="-1" Cut="0.0000000000000000e+00" cType="1" res="-2.4702672380954027e-03" rms="4.4957491755485535e-01" purity="3.0406871438026428e-01" nType="-99"/>
        </Node>
      </Node>
    </BinaryTree>
    <BinaryTree type="DecisionTree" boostWeight="1.0000000000000000e+00" itree="110">
      <Node pos="s" depth="0" NCoef="0" IVar="2" Cut="1.4190853834152222e+00" cType="1" res="-4.7174277715384960e-03" rms="4.6834570169448853e-01" purity="4.9798882007598877e-01" nType="0">
        <Node pos="l" depth="1" NCoef="0" IVar="0" Cut="8.3842411041259766e+00" cType="1" res="1.4982712455093861e-02" rms="4.7347497940063477e-01" purity="5.5000138282775879e-01" nType="0">
          <Node pos="l" depth="2" NCoef="0" IVar="-1" Cut="0.0000000000000000e+00" cType="1" res="-2.1551921963691711e-04" rms="4.7937244176864624e-01" purity="5.1005119085311890e-01" nType="-99"/>
          <Node pos="r" depth="2" NCoef="0" IVar="-1" Cut="0.0000000000000000e+00" cType="1" res="4.7933808527886868e-03" rms="4.3826857209205627e-01" purity="7.1599870920181274e-01" nType="-99"/>
        </Node>
        <Node pos="r" depth="1" NCoef="0" IVar="4" Cut="7.1378761291503906e+01" cType="1" res="-8.1056572496891022e-02" rms="4.3965464830398560e-01" purity="2.9643711447715759e-01" nType="0">
          <Node pos="l" depth="2" NCoef="0" IVar="-1" Cut="0.0000000000000000e+00" cType="1" res="-5.7102167047560215e-03" rms="4.0376478433609009e-01" purity="2.2858557105064392e-01" nType="-99"/>
          <Node pos="r" depth="2" NCoef="0" IVar="-1" Cut="0.0000000000000000e+00" cType="1" res="-1.6307822661474347e-03" rms="4.5699062943458557e-01" purity="3.4076833724975586e-01" nType="-99"/>
        </Node>
      </Node>
    </BinaryTree>
    <BinaryTree type="DecisionTree" boostWeight="1.0000000000000000e+00" itree="111">
      <Node pos="s" depth="0" NCoef="0" IVar="3" Cut="2.4855012893676758e+00" cType="1" res="-5.8089187368750572e-03" rms="4.6772906184196472e-01" purity="4.9884429574012756e-01" nType="0">
        <Node pos="l" depth="1" NCoef="0" IVar="0" Cut="7.2416825294494629e+00" cType="1" res="1.3461267575621605e-02" rms="4.7585293650627136e-01" purity="5.5150127410888672e-01" nType="0">
          <Node pos="l" depth="2" NCoef="0" IVar="-1" Cut="0.0000000000000000e+00" cType="1" res="-8.1104232231155038e-04" rms="4.8559886217117310e-01" purity="4.6160262823104858e-01" nType="-99"/>
          <Node pos="r" depth="2" NCoef="0" IVar="-1" Cut="0.0000000000000000e+00" cType="1" res="2.4789827875792980e-03" rms="4.6099779009819031e-01" purity="6.5673696994781494e-01" nType="-99"/>
        </Node>
        <Node pos="r" depth="1" NCoef="0" IVar="3" Cut="2.7424700260162354e+00" cType="1" res="-9.9310569465160370e-02" rms="4.1356000304222107e-01" purity="2.4334506690502167e-01" nType="0">
          <Node pos="l" depth="2" NCoef="0" IVar="-1" Cut="0.0000000000000000e+00" cType="1" res="-2.6659078430384398e-03" rms="4.3936643004417419e-01" purity="2.9217535257339478e-01" nType="-99"/>
          <Node pos="r" depth="2" NCoef="0" IVar="-1" Cut="0.0000000000000000e+00" cType="1" res="-6.6918488591909409e-03" rms="3.5256725549697876e-01" purity="1.5304489433765411e-01" nType="-99"/>
        </Node>
      </Node>
    </BinaryTree>
    <BinaryTree type="DecisionTree" boostWeight="1.0000000000000000e+00" itree="112">
      <Node pos="s" depth="0" NCoef="0" IVar="7" Cut="9.5840835571289062e-01" cType="1" res="-1.2694610282778740e-02" rms="4.6965175867080688e-01" purity="4.9143224954605103e-01" nType="0">
        <Node pos="l" depth="1" NCoef="0" IVar="2" Cut="8.0127650499343872e-01" cType="1" res="-4.1654124855995178e-02" rms="4.6928727626800537e-01" purity="4.1555526852607727e-01" nType="0">
          <Node pos="l" depth="2" NCoef="0" IVar="-1" Cut="0.0000000000000000e+00" cType="1" res="1.3664778089150786e-03" rms="4.7932189702987671e-01" purity="5.9685921669006348e-01" nType="-99"/>
          <Node pos="r" depth="2" NCoef="0" IVar="-1" Cut="0.0000000000000000e+00" cType="1" res="-2.2855650167912245e-03" rms="4.6532732248306274e-01" purity="3.7421682476997375e-01" nType="-99"/>
        </Node>
        <Node pos="r" depth="1" NCoef="0" IVar="4" Cut="6.5206962585449219e+01" cType="1" res="3.1410899013280869e-02" rms="4.6676698327064514e-01" purity="6.0699349641799927e-01" nType="0">
          <Node pos="l" depth="2" NCoef="0" IVar="-1" Cut="0.0000000000000000e+00" cType="1" res="-1.7219685250893235e-03" rms="4.7582268714904785e-01" purity="5.2516257762908936e-01" nType="-99"/>
          <Node pos="r" depth="2" NCoef="0" IVar="-1" Cut="0.0000000000000000e+00" cType="1" res="3.6458831746131182e-03" rms="4.5462292432785034e-01" purity="6.6167324781417847e-01" nType="-99"/>
        </Node>
      </Node>
    </BinaryTree>
    <BinaryTree type="DecisionTree" boostWeight="1.0000000000000000e+00" itree="113">
      <Node pos="s" depth="0" NCoef="0" IVar="4" Cut="8.5112503051757812e+01" cType="1" res="4.4995667412877083e-03" rms="4.6933948993682861e-01" purity="5.0833827257156372e-01" nType="0">
        <Node pos="l" depth="1" NCoef="0" IVar="5" Cut="1.7058791220188141e-01" cType="1" res="-2.4926658719778061e-02" rms="4.7157973051071167e-01" purity="4.7741928696632385e-01" nType="0">
          <Node pos="l" depth="2" NCoef="0" IVar="-1" Cut="0.0000000000000000e+00" cType="1" res="-1.8719903891906142e-03" rms="4.7037932276725769e-01" purity="4.4314301013946533e-01" nType="-99"/>
          <Node pos="r" depth="2" NCoef="0" IVar="-1" Cut="0.0000000000000000e+00" cType="1" res="3.2422752119600773e-03" rms="4.6487477421760559e-01" purity="6.4090681076049805e-01" nType="-99"/>
        </Node>
        <Node pos="r" depth="1" NCoef="0" IVar="1" Cut="2.5057106018066406e+02" cType="1" res="4.4620480388402939e-02" rms="4.6326592564582825e-01" purity="5.5049461126327515e-01" nType="0">
          <Node pos="l" depth="2" NCoef="0" IVar="-1" Cut="0.0000000000000000e+00" cType="1" res="3.8737987633794546e-03" rms="4.5343706011772156e-01" purity="6.1300408840179443e-01" nType="-99"/>
          <Node pos="r" depth="2" NCoef="0" IVar="-1" Cut="0.0000000000000000e+00" cType="1" res="-1.5357604715973139e-03" rms="4.7047534584999084e-01" purity="4.3311893939971924e-01" nType="-99"/>
        </Node>
      </Node>
    </BinaryTree>
    <BinaryTree type="DecisionTree" boostWeight="1.0000000000000000e+00" itree="114">
      <Node pos="s" depth="0" NCoef="0" IVar="3" Cut="2.3002407550811768e+00" cType="1" res="-2.3830083664506674e-03" rms="4.6895265579223633e-01" purity="5.0248944759368896e-01" nType="0">
        <Node pos="l" depth="1" NCoef="0" IVar="4" Cut="4.3232597351074219e+01" cType="1" res="2.2702008485794067e-02" rms="4.7616037726402283e-01" purity="5.7653212547302246e-01" nType="0">
          <Node pos="l" depth="2" NCoef="0" IVar="-1" Cut="0.0000000000000000e+00" cType="1" res="-2.3697041906416416e-03" rms="4.8387295007705688e-01" purity="4.4548612833023071e-01" nType="-99"/>
          <Node pos="r" depth="2" NCoef="0" IVar="-1" Cut="0.0000000000000000e+00" cType="1" res="1.7185587203130126e-03" rms="4.7272765636444092e-01" purity="6.0423040390014648e-01" nType="-99"/>
        </Node>
        <Node pos="r" depth="1" NCoef="0" IVar="4" Cut="5.9814453125000000e+01" cType="1" res="-6.0578353703022003e-02" rms="4.4639274477958679e-01" purity="3.3071598410606384e-01" nType="0">
          <Node pos="l" depth="2" NCoef="0" IVar="-1" Cut="0.0000000000000000e+00" cType="1" res="-5.8535858988761902e-03" rms="4.0273058414459229e-01" purity="2.2060148417949677e-01" nType="-99"/>
          <Node pos="r" depth="2" NCoef="0" IVar="-1" Cut="0.0000000000000000e+00" cType="1" res="-1.5003733569756150e-03" rms="4.5519730448722839e-01" purity="3.6192473769187927e-01" nType="-99"/>
        </Node>
      </Node>
    </BinaryTree>
    <BinaryTree type="DecisionTree" boostWeight="1.0000000000000000e+00" itree="115">
      <Node pos="s" depth="0" NCoef="0" IVar="2" Cut="8.2906794548034668e-01" cType="1" res="-4.3387771584093571e-03" rms="4.6871632337570190e-01" purity="4.9943494796752930e-01" nType="0">
        <Node pos="l" depth="1" NCoef="0" IVar="5" Cut="1.5156470239162445e-01" cType="1" res="6.5276779234409332e-02" rms="4.5460984110832214e-01" purity="6.8013036251068115e-01" nType="0">
          <Node pos="l" depth="2" NCoef="0" IVar="-1" Cut="0.0000000000000000e+00" cType="1" res="1.4353583101183176e-03" rms="4.6750029921531677e-01" purity="6.4313983917236328e-01" nType="-99"/>
          <Node pos="r" depth="2" NCoef="0" IVar="-1" Cut="0.0000000000000000e+00" cType="1" res="6.3744313083589077e-03" rms="4.1893264651298523e-01" purity="7.5553786754608154e-01" nType="-99"/>
        </Node>
        <Node pos="r" depth="1" NCoef="0" IVar="7" Cut="9.5237421989440918e-01" cType="1" res="-2.5039903819561005e-02" rms="4.7084864974021912e-01" purity="4.4570270180702209e-01" nType="0">
          <Node pos="l" depth="2" NCoef="0" IVar="-1" Cut="0.0000000000000000e+00" cType="1" res="-2.2299124393612146e-03" rms="4.6033200621604919e-01" purity="3.5590592026710510e-01" nType="-99"/>
          <Node pos="r" depth="2" NCoef="0" IVar="-1" Cut="0.0000000000000000e+00" cType="1" res="4.1780929313972592e-04" rms="4.7964262962341309e-01" purity="5.4349350929260254e-01" nType="-99"/>
        </Node>
      </Node>
    </BinaryTree>
    <BinaryTree type="DecisionTree" boostWeight="1.0000000000000000e+00" itree="116">
      <Node pos="s" depth="0" NCoef="0" IVar="8" Cut="1.2596787214279175e+00" cType="1" res="1.2823604047298431e-03" rms="4.7035139799118042e-01" purity="5.0556683540344238e-01" nType="0">
        <Node pos="l" depth="1" NCoef="0" IVar="1" Cut="3.8540533447265625e+02" cType="1" res="2.7747968211770058e-02" rms="4.7261536121368408e-01" purity="5.6847023963928223e-01" nType="0">
          <Node pos="l" depth="2" NCoef="0" IVar="-1" Cut="0.0000000000000000e+00" cType="1" res="1.6815912676975131e-03" rms="4.7180950641632080e-01" purity="5.8553421497344971e-01" nType="-99"/>
          <Node pos="r" depth="2" NCoef="0" IVar="-1" Cut="0.0000000000000000e+00" cType="1" res="-3.3225151710212231e-03" rms="4.6652013063430786e-01" purity="3.9957261085510254e-01" nType="-99"/>
        </Node>
        <Node pos="r" depth="1" NCoef="0" IVar="4" Cut="8.0361068725585938e+01" cType="1" res="-4.5360643416643143e-02" rms="4.6266400814056396e-01" purity="3.9470571279525757e-01" nType="0">
          <Node pos="l" depth="2" NCoef="0" IVar="-1" Cut="0.0000000000000000e+00" cType="1" res="-3.1682609114795923e-03" rms="4.5459389686584473e-01" purity="3.6100217700004578e-01" nType="-99"/>
          <Node pos="r" depth="2" NCoef="0" IVar="-1" Cut="0.0000000000000000e+00" cType="1" res="-3.4364312887191772e-04" rms="4.6895024180412292e-01" purity="4.3309047818183899e-01" nType="-99"/>
        </Node>
      </Node>
    </BinaryTree>
    <BinaryTree type="DecisionTree" boostWeight="1.0000000000000000e+00" itree="117">
      <Node pos="s" depth="0" NCoef="0" IVar="8" Cut="1.8264060020446777e+00" cType="1" res="-3.9458526298403740e-03" rms="4.6767240762710571e-01" purity="4.9762216210365295e-01" nType="0">
        <Node pos="l" depth="1" NCoef="0" IVar="7" Cut="9.2791026830673218e-01" cType="1" res="1.3970392756164074e-02" rms="4.7146871685981750e-01" purity="5.3948187828063965e-01" nType="0">
          <Node pos="l" depth="2" NCoef="0" IVar="-1" Cut="0.0000000000000000e+00" cType="1" res="-2.6041562668979168e-03" rms="4.5913320779800415e-01" purity="3.4159481525421143e-01" nType="-99"/>
          <Node pos="r" depth="2" NCoef="0" IVar="-1" Cut="0.0000000000000000e+00" cType="1" res="1.3181855902075768e-03" rms="4.7211313247680664e-01" purity="5.7800310850143433e-01" nType="-99"/>
        </Node>
        <Node pos="r" depth="1" NCoef="0" IVar="4" Cut="9.8421234130859375e+01" cType="1" res="-8.2861423492431641e-02" rms="4.4200918078422546e-01" purity="3.1324294209480286e-01" nType="0">
          <Node pos="l" depth="2" NCoef="0" IVar="-1" Cut="0.0000000000000000e+00" cType="1" res="-4.5202216133475304e-03" rms="4.3083700537681580e-01" purity="2.8612539172172546e-01" nType="-99"/>
          <Node pos="r" depth="2" NCoef="0" IVar="-1" Cut="0.0000000000000000e+00" cType="1" res="-1.1228458024561405e-03" rms="4.5809218287467957e-01" purity="3.6652350425720215e-01" nType="-99"/>
        </Node>
      </Node>
    </BinaryTree>
    <BinaryTree type="DecisionTree" boostWeight="1.0000000000000000e+00" itree="118">
      <Node pos="s" depth="0" NCoef="0" IVar="7" Cut="9.3172168731689453e-01" cType="1" res="5.5074477568268776e-03" rms="4.6560499072074890e-01" purity="5.0759112834930420e-01" nType="0">
        <Node pos="l" depth="1" NCoef="0" IVar="0" Cut="5.6219906806945801e+00" cType="1" res="-7.1594111621379852e-02" rms="4.4659754633903503e-01" purity="3.1899389624595642e-01" nType="0">
          <Node pos="l" depth="2" NCoef="0" IVar="-1" Cut="0.0000000000000000e+00" cType="1" res="-3.9406232535839081e-03" rms="4.2903590202331543e-01" purity="2.7443462610244751e-01" nType="-99"/>
          <Node pos="r" depth="2" NCoef="0" IVar="-1" Cut="0.0000000000000000e+00" cType="1" res="-6.1300571542233229e-04" rms="4.7085624933242798e-01" purity="3.9757564663887024e-01" nType="-99"/>
        </Node>
        <Node pos="r" depth="1" NCoef="0" IVar="8" Cut="1.0630530118942261e+00" cType="1" res="2.5857593864202499e-02" rms="4.6838146448135376e-01" purity="5.5736935138702393e-01" nType="0">
          <Node pos="l" depth="2" NCoef="0" IVar="-1" Cut="0.0000000000000000e+00" cType="1" res="2.6866400148719549e-03" rms="4.6210414171218872e-01" purity="6.3330131769180298e-01" nType="-99"/>
          <Node pos="r" depth="2" NCoef="0" IVar="-1" Cut="0.0000000000000000e+00" cType="1" res="-7.3372002225369215e-04" rms="4.7277486324310303e-01" purity="4.6008664369583130e-01" nType="-99"/>
        </Node>
      </Node>
    </BinaryTree>
    <BinaryTree type="DecisionTree" boostWeight="1.0000000000000000e+00" itree="119">
      <Node pos="s" depth="0" NCoef="0" IVar="3" Cut="2.2370636463165283e+00" cType="1" res="1.4166564214974642e-03" rms="4.6823269128799438e-01" purity="5.0475597381591797e-01" nType="0">
        <Node pos="l" depth="1" NCoef="0" IVar="7" Cut="9.2953526973724365e-01" cType="1" res="3.4547895193099976e-02" rms="4.7129392623901367e-01" purity="5.9696775674819946e-01" nType="0">
          <Node pos="l" depth="2" NCoef="0" IVar="-1" Cut="0.0000000000000000e+00" cType="1" res="-2.1012339275330305e-03" rms="4.7743880748748779e-01" purity="3.9184409379959106e-01" nType="-99"/>
          <Node pos="r" depth="2" NCoef="0" IVar="-1" Cut="0.0000000000000000e+00" cType="1" res="2.3832647129893303e-03" rms="4.6784812211990356e-01" purity="6.3850057125091553e-01" nType="-99"/>
        </Node>
        <Node pos="r" depth="1" NCoef="0" IVar="4" Cut="7.8555534362792969e+01" cType="1" res="-5.1955368369817734e-02" rms="4.5824855566024780e-01" purity="3.5620933771133423e-01" nType="0">
          <Node pos="l" depth="2" NCoef="0" IVar="-1" Cut="0.0000000000000000e+00" cType="1" res="-4.0673855692148209e-03" rms="4.3294978141784668e-01" purity="2.8958806395530701e-01" nType="-99"/>
          <Node pos="r" depth="2" NCoef="0" IVar="-1" Cut="0.0000000000000000e+00" cType="1" res="-9.2259154189378023e-04" rms="4.7037932276725769e-01" purity="3.9632219076156616e-01" nType="-99"/>
        </Node>
      </Node>
    </BinaryTree>
    <BinaryTree type="DecisionTree" boostWeight="1.0000000000000000e+00" itree="120">
      <Node pos="s" depth="0" NCoef="0" IVar="3" Cut="2.1568884849548340e+00" cType="1" res="-5.5787460878491402e-03" rms="4.6919298171997070e-01" purity="4.9677857756614685e-01" nType="0">
        <Node pos="l" depth="1" NCoef="0" IVar="1" Cut="8.7535385131835938e+01" cType="1" res="2.9836833477020264e-02" rms="4.7215893864631653e-01" purity="5.9434038400650024e-01" nType="0">
          <Node pos="l" depth="2" NCoef="0" IVar="-1" Cut="0.0000000000000000e+00" cType="1" res="-2.2926637902855873e-03" rms="4.8009392619132996e-01" purity="4.8751932382583618e-01" nType="-99"/>
          <Node pos="r" depth="2" NCoef="0" IVar="-1" Cut="0.0000000000000000e+00" cType="1" res="2.2577892523258924e-03" rms="4.6767091751098633e-01" purity="6.2144339084625244e-01" nType="-99"/>
        </Node>
        <Node pos="r" depth="1" NCoef="0" IVar="1" Cut="2.4010459899902344e+02" cType="1" res="-4.5290093868970871e-02" rms="4.6263161301612854e-01" purity="3.8738289475440979e-01" nType="0">
          <Node pos="l" depth="2" NCoef="0" IVar="-1" Cut="0.0000000000000000e+00" cType="1" res="-9.4151252415031195e-04" rms="4.6399304270744324e-01" purity="4.2102086544036865e-01" nType="-99"/>
          <Node pos="r" depth="2" NCoef="0" IVar="-1" Cut="0.0000000000000000e+00" cType="1" res="-3.5281812306493521e-03" rms="4.5716753602027893e-01" purity="3.2463958859443665e-01" nType="-99"/>
        </Node>
      </Node>
    </BinaryTree>
    <BinaryTree type="DecisionTree" boostWeight="1.0000000000000000e+00" itree="121">
      <Node pos="s" depth="0" NCoef="0" IVar="7" Cut="9.5204722881317139e-01" cType="1" res="2.8248811140656471e-03" rms="4.6714201569557190e-01" purity="5.0629466772079468e-01" nType="0">
        <Node pos="l" depth="1" NCoef="0" IVar="5" Cut="1.4961543679237366e-01" cType="1" res="-3.6047890782356262e-02" rms="4.6677622199058533e-01" purity="4.0120121836662292e-01" nType="0">
          <Node pos="l" depth="2" NCoef="0" IVar="-1" Cut="0.0000000000000000e+00" cType="1" res="-2.2198620717972517e-03" rms="4.6132925152778625e-01" purity="3.6918276548385620e-01" nType="-99"/>
          <Node pos="r" depth="2" NCoef="0" IVar="-1" Cut="0.0000000000000000e+00" cType="1" res="2.1001924760639668e-03" rms="4.7991877794265747e-01" purity="5.4008787870407104e-01" nType="-99"/>
        </Node>
        <Node pos="r" depth="1" NCoef="0" IVar="1" Cut="8.0778419494628906e+01" cType="1" res="4.1473865509033203e-02" rms="4.6428999304771423e-01" purity="6.1078310012817383e-01" nType="0">
          <Node pos="l" depth="2" NCoef="0" IVar="-1" Cut="0.0000000000000000e+00" cType="1" res="-2.9809062834829092e-03" rms="4.8324510455131531e-01" purity="4.9812954664230347e-01" nType="-99"/>
          <Node pos="r" depth="2" NCoef="0" IVar="-1" Cut="0.0000000000000000e+00" cType="1" res="2.6959043461829424e-03" rms="4.5868688821792603e-01" purity="6.2916916608810425e-01" nType="-99"/>
        </Node>
      </Node>
    </BinaryTree>
    <BinaryTree type="DecisionTree" boostWeight="1.0000000000000000e+00" itree="122">
      <Node pos="s" depth="0" NCoef="0" IVar="3" Cut="2.4679684638977051e+00" cType="1" res="-2.9249947983771563e-03" rms="4.6868658065795898e-01" purity="5.0091987848281860e-01" nType="0">
        <Node pos="l" depth="1" NCoef="0" IVar="5" Cut="1.4853489398956299e-01" cType="1" res="1.2682931497693062e-02" rms="4.7627121210098267e-01" purity="5.5267626047134399e-01" nType="0">
          <Node pos="l" depth="2" NCoef="0" IVar="-1" Cut="0.0000000000000000e+00" cType="1" res="-2.6178974076174200e-04" rms="4.7978276014328003e-01" purity="5.2270424365997314e-01" nType="-99"/>
          <Node pos="r" depth="2" NCoef="0" IVar="-1" Cut="0.0000000000000000e+00" cType="1" res="3.4042466431856155e-03" rms="4.5880135893821716e-01" purity="6.5239393711090088e-01" nType="-99"/>
        </Node>
        <Node pos="r" depth="1" NCoef="0" IVar="4" Cut="9.2592010498046875e+01" cType="1" res="-7.3943488299846649e-02" rms="4.2532727122306824e-01" purity="2.6542022824287415e-01" nType="0">
          <Node pos="l" depth="2" NCoef="0" IVar="-1" Cut="0.0000000000000000e+00" cType="1" res="-5.0079654902219772e-03" rms="3.9204990863800049e-01" purity="2.0676979422569275e-01" nType="-99"/>
          <Node pos="r" depth="2" NCoef="0" IVar="-1" Cut="0.0000000000000000e+00" cType="1" res="-1.5078427968546748e-03" rms="4.4838291406631470e-01" purity="3.1555911898612976e-01" nType="-99"/>
        </Node>
      </Node>
    </BinaryTree>
    <BinaryTree type="DecisionTree" boostWeight="1.0000000000000000e+00" itree="123">
      <Node pos="s" depth="0" NCoef="0" IVar="8" Cut="1.3273980617523193e+00" cType="1" res="-1.1197179555892944e-02" rms="4.7002261877059937e-01" purity="4.9305993318557739e-01" nType="0">
        <Node pos="l" depth="1" NCoef="0" IVar="4" Cut="1.4021969604492188e+02" cType="1" res="1.2757498770952225e-02" rms="4.7358524799346924e-01" purity="5.5481714010238647e-01" nType="0">
          <Node pos="l" depth="2" NCoef="0" IVar="-1" Cut="0.0000000000000000e+00" cType="1" res="1.0336275445297360e-03" rms="4.7289800643920898e-01" purity="5.6819754838943481e-01" nType="-99"/>
          <Node pos="r" depth="2" NCoef="0" IVar="-1" Cut="0.0000000000000000e+00" cType="1" res="-4.1830637492239475e-03" rms="4.6473377943038940e-01" purity="4.1504961252212524e-01" nType="-99"/>
        </Node>
        <Node pos="r" depth="1" NCoef="0" IVar="4" Cut="9.7739112854003906e+01" cType="1" res="-5.9621836990118027e-02" rms="4.5893421769142151e-01" purity="3.6821717023849487e-01" nType="0">
          <Node pos="l" depth="2" NCoef="0" IVar="-1" Cut="0.0000000000000000e+00" cType="1" res="-3.6346253473311663e-03" rms="4.4735139608383179e-01" purity="3.3398699760437012e-01" nType="-99"/>
          <Node pos="r" depth="2" NCoef="0" IVar="-1" Cut="0.0000000000000000e+00" cType="1" res="-7.6645286753773689e-05" rms="4.7488009929656982e-01" purity="4.3338027596473694e-01" nType="-99"/>
        </Node>
      </Node>
    </BinaryTree>
    <BinaryTree type="DecisionTree" boostWeight="1.0000000000000000e+00" itree="124">
      <Node pos="s" depth="0" NCoef="0" IVar="7" Cut="9.4055563211441040e-01" cType="1" res="-3.5598649992607534e-04" rms="4.6690326929092407e-01" purity="5.0357180833816528e-01" nType="0">
        <Node pos="l" depth="1" NCoef="0" IVar="5" Cut="9.0796068310737610e-02" cType="1" res="-5.1147028803825378e-02" rms="4.5713824033737183e-01" purity="3.5739928483963013e-01" nType="0">
          <Node pos="l" depth="2" NCoef="0" IVar="-1" Cut="0.0000000000000000e+00" cType="1" res="-3.1425198540091515e-03" rms="4.4169676303863525e-01" purity="3.0485004186630249e-01" nType="-99"/>
          <Node pos="r" depth="2" NCoef="0" IVar="-1" Cut="0.0000000000000000e+00" cType="1" res="-2.1691834263037890e-04" rms="4.7668388485908508e-01" purity="4.3943849205970764e-01" nType="-99"/>
        </Node>
        <Node pos="r" depth="1" NCoef="0" IVar="4" Cut="5.8884841918945312e+01" cType="1" res="2.4029925465583801e-02" rms="4.6957179903984070e-01" purity="5.7375252246856689e-01" nType="0">
          <Node pos="l" depth="2" NCoef="0" IVar="-1" Cut="0.0000000000000000e+00" cType="1" res="-1.6800694866105914e-03" rms="4.8047631978988647e-01" purity="4.9109381437301636e-01" nType="-99"/>
          <Node pos="r" depth="2" NCoef="0" IVar="-1" Cut="0.0000000000000000e+00" cType="1" res="2.4552368558943272e-03" rms="4.6110725402832031e-01" purity="6.1363106966018677e-01" nType="-99"/>
        </Node>
      </Node>
    </BinaryTree>
    <BinaryTree type="DecisionTree" boostWeight="1.0000000000000000e+00" itree="125">
      <Node pos="s" depth="0" NCoef="0" IVar="4" Cut="1.5497607421875000e+02" cType="1" res="-7.5851095607504249e-04" rms="4.7119694948196411e-01" purity="5.0341093540191650e-01" nType="0">
        <Node pos="l" depth="1" NCoef="0" IVar="4" Cut="3.4204669952392578e+01" cType="1" res="8.2722352817654610e-03" rms="4.7177484631538391e-01" purity="5.1549881696701050e-01" nType="0">
          <Node pos="l" depth="2" NCoef="0" IVar="-1" Cut="0.0000000000000000e+00" cType="1" res="-5.2660717628896236e-03" rms="4.6117869019508362e-01" purity="3.4127792716026306e-01" nType="-99"/>
          <Node pos="r" depth="2" NCoef="0" IVar="-1" Cut="0.0000000000000000e+00" cType="1" res="7.3870125925168395e-04" rms="4.7101232409477234e-01" purity="5.2667951583862305e-01" nType="-99"/>
        </Node>
        <Node pos="r" depth="1" NCoef="0" IVar="-1" Cut="0.0000000000000000e+00" cType="1" res="-5.1842951215803623e-03" rms="4.4304019212722778e-01" purity="3.3012321591377258e-01" nType="-99"/>
      </Node>
    </BinaryTree>
    <BinaryTree type="DecisionTree" boostWeight="1.0000000000000000e+00" itree="126">
      <Node pos="s" depth="0" NCoef="0" IVar="2" Cut="8.2682502269744873e-01" cType="1" res="1.9370937952771783e-03" rms="4.6576711535453796e-01" purity="5.0500774383544922e-01" nType="0">
        <Node pos="l" depth="1" NCoef="0" IVar="4" Cut="5.3350856781005859e+01" cType="1" res="7.2741255164146423e-02" rms="4.4810405373573303e-01" purity="6.9126594066619873e-01" nType="0">
          <Node pos="l" depth="2" NCoef="0" IVar="-1" Cut="0.0000000000000000e+00" cType="1" res="5.5887509370222688e-04" rms="4.8136347532272339e-01" purity="5.9827786684036255e-01" nType="-99"/>
          <Node pos="r" depth="2" NCoef="0" IVar="-1" Cut="0.0000000000000000e+00" cType="1" res="4.6813534572720528e-03" rms="4.3071061372756958e-01" purity="7.3070925474166870e-01" nType="-99"/>
        </Node>
        <Node pos="r" depth="1" NCoef="0" IVar="0" Cut="6.6390848159790039e+00" cType="1" res="-1.9301567226648331e-02" rms="4.6885615587234497e-01" purity="4.4913706183433533e-01" nType="0">
          <Node pos="l" depth="2" NCoef="0" IVar="-1" Cut="0.0000000000000000e+00" cType="1" res="-2.2841985337436199e-03" rms="4.5229187607765198e-01" purity="3.3273112773895264e-01" nType="-99"/>
          <Node pos="r" depth="2" NCoef="0" IVar="-1" Cut="0.0000000000000000e+00" cType="1" res="4.6089134411886334e-04" rms="4.7907957434654236e-01" purity="5.3884583711624146e-01" nType="-99"/>
        </Node>
      </Node>
    </BinaryTree>
    <BinaryTree type="DecisionTree" boostWeight="1.0000000000000000e+00" itree="127">
      <Node pos="s" depth="0" NCoef="0" IVar="8" Cut="1.6746627092361450e+00" cType="1" res="4.2649852111935616e-03" rms="4.6798062324523926e-01" purity="5.0678288936614990e-01" nType="0">
        <Node pos="l" depth="1" NCoef="0" IVar="7" Cut="9.2182898521423340e-01" cType="1" res="2.2219173610210419e-02" rms="4.7173270583152771e-01" purity="5.5221313238143921e-01" nType="0">
          <Node pos="l" depth="2" NCoef="0" IVar="-1" Cut="0.0000000000000000e+00" cType="1" res="-2.7410509064793587e-03" rms="4.5304638147354126e-01" purity="3.2790184020996094e-01" nType="-99"/>
          <Node pos="r" depth="2" NCoef="0" IVar="-1" Cut="0.0000000000000000e+00" cType="1" res="1.5447614714503288e-03" rms="4.7271391749382019e-01" purity="5.8298152685165405e-01" nType="-99"/>
        </Node>
        <Node pos="r" depth="1" NCoef="0" IVar="4" Cut="9.8421234130859375e+01" cType="1" res="-6.0334865003824234e-02" rms="4.4831541180610657e-01" purity="3.4332323074340820e-01" nType="0">
          <Node pos="l" depth="2" NCoef="0" IVar="-1" Cut="0.0000000000000000e+00" cType="1" res="-3.7874588742852211e-03" rms="4.3591412901878357e-01" purity="3.0882781744003296e-01" nType="-99"/>
          <Node pos="r" depth="2" NCoef="0" IVar="-1" Cut="0.0000000000000000e+00" cType="1" res="3.9638814632780850e-04" rms="4.6577438712120056e-01" purity="4.1601800918579102e-01" nType="-99"/>
        </Node>
      </Node>
    </BinaryTree>
    <BinaryTree type="DecisionTree" boostWeight="1.0000000000000000e+00" itree="128">
      <Node pos="s" depth="0" NCoef="0" IVar="4" Cut="9.3635620117187500e+01" cType="1" res="-1.8262345110997558e-03" rms="4.6915638446807861e-01" purity="5.0213366746902466e-01" nType="0">
        <Node pos="l" depth="1" NCoef="0" IVar="5" Cut="1.1427322030067444e-01" cType="1" res="-2.7696345001459122e-02" rms="4.7089377045631409e-01" purity="4.7730839252471924e-01" nType="0">
          <Node pos="l" depth="2" NCoef="0" IVar="-1" Cut="0.0000000000000000e+00" cType="1" res="-2.3818879853934050e-03" rms="4.6641874313354492e-01" purity="4.2019015550613403e-01" nType="-99"/>
          <Node pos="r" depth="2" NCoef="0" IVar="-1" Cut="0.0000000000000000e+00" cType="1" res="1.0829553939402103e-03" rms="4.7401005029678345e-01" purity="5.7702243328094482e-01" nType="-99"/>
        </Node>
        <Node pos="r" depth="1" NCoef="0" IVar="4" Cut="1.4861431884765625e+02" cType="1" res="4.5985005795955658e-02" rms="4.6213254332542419e-01" purity="5.4801386594772339e-01" nType="0">
          <Node pos="l" depth="2" NCoef="0" IVar="-1" Cut="0.0000000000000000e+00" cType="1" res="3.5646650940179825e-03" rms="4.5816966891288757e-01" purity="5.9401899576187134e-01" nType="-99"/>
          <Node pos="r" depth="2" NCoef="0" IVar="-1" Cut="0.0000000000000000e+00" cType="1" res="-3.8175021763890982e-03" rms="4.5175504684448242e-01" purity="3.6467820405960083e-01" nType="-99"/>
        </Node>
      </Node>
    </BinaryTree>
    <BinaryTree type="DecisionTree" boostWeight="1.0000000000000000e+00" itree="129">
      <Node pos="s" depth="0" NCoef="0" IVar="3" Cut="2.0944833755493164e+00" cType="1" res="-1.0506592690944672e-02" rms="4.6835368871688843e-01" purity="4.9295476078987122e-01" nType="0">
        <Node pos="l" depth="1" NCoef="0" IVar="6" Cut="7.2305801391601562e+01" cType="1" res="2.5693504139780998e-02" rms="4.7284948825836182e-01" purity="5.9155094623565674e-01" nType="0">
          <Node pos="l" depth="2" NCoef="0" IVar="-1" Cut="0.0000000000000000e+00" cType="1" res="3.1413345132023096e-03" rms="4.6304059028625488e-01" purity="6.3476836681365967e-01" nType="-99"/>
          <Node pos="r" depth="2" NCoef="0" IVar="-1" Cut="0.0000000000000000e+00" cType="1" res="-2.1108785585965961e-04" rms="4.7691917419433594e-01" purity="5.6239700317382812e-01" nType="-99"/>
        </Node>
        <Node pos="r" depth="1" NCoef="0" IVar="5" Cut="1.1312169581651688e-01" cType="1" res="-3.9946030825376511e-02" rms="4.6258142590522766e-01" purity="4.1277217864990234e-01" nType="0">
          <Node pos="l" depth="2" NCoef="0" IVar="-1" Cut="0.0000000000000000e+00" cType="1" res="-2.5620779488235712e-03" rms="4.5789593458175659e-01" purity="3.6860612034797668e-01" nType="-99"/>
          <Node pos="r" depth="2" NCoef="0" IVar="-1" Cut="0.0000000000000000e+00" cType="1" res="5.9532228624448180e-04" rms="4.6905076503753662e-01" purity="5.1697099208831787e-01" nType="-99"/>
        </Node>
      </Node>
    </BinaryTree>
    <BinaryTree type="DecisionTree" boostWeight="1.0000000000000000e+00" itree="130">
      <Node pos="s" depth="0" NCoef="0" IVar="1" Cut="2.9719113159179688e+02" cType="1" res="-2.7950997464358807e-03" rms="4.6682903170585632e-01" purity="4.9808526039123535e-01" nType="0">
        <Node pos="l" depth="1" NCoef="0" IVar="8" Cut="1.9531672000885010e+00" cType="1" res="1.4364015311002731e-02" rms="4.6683248877525330e-01" purity="5.2518832683563232e-01" nType="0">
          <Node pos="l" depth="2" NCoef="0" IVar="-1" Cut="0.0000000000000000e+00" cType="1" res="1.3579882215708494e-03" rms="4.7056242823600769e-01" purity="5.6359004974365234e-01" nType="-99"/>
          <Node pos="r" depth="2" NCoef="0" IVar="-1" Cut="0.0000000000000000e+00" cType="1" res="-3.4583548549562693e-03" rms="4.3150612711906433e-01" purity="3.0435663461685181e-01" nType="-99"/>
        </Node>
        <Node pos="r" depth="1" NCoef="0" IVar="4" Cut="1.2035788726806641e+02" cType="1" res="-8.0736525356769562e-02" rms="4.5880544185638428e-01" purity="3.7497544288635254e-01" nType="0">
          <Node pos="l" depth="2" NCoef="0" IVar="-1" Cut="0.0000000000000000e+00" cType="1" res="-2.2609555162489414e-03" rms="4.6644592285156250e-01" purity="4.0599128603935242e-01" nType="-99"/>
          <Node pos="r" depth="2" NCoef="0" IVar="-1" Cut="0.0000000000000000e+00" cType="1" res="-5.2490150555968285e-03" rms="4.3892669677734375e-01" purity="3.1465813517570496e-01" nType="-99"/>
        </Node>
      </Node>
    </BinaryTree>
    <BinaryTree type="DecisionTree" boostWeight="1.0000000000000000e+00" itree="131">
      <Node pos="s" depth="0" NCoef="0" IVar="7" Cut="9.4976842403411865e-01" cType="1" res="-2.2658715024590492e-03" rms="4.6586629748344421e-01" purity="5.0093680620193481e-01" nType="0">
        <Node pos="l" depth="1" NCoef="0" IVar="2" Cut="1.3953198194503784e+00" cType="1" res="-4.3659836053848267e-02" rms="4.6062985062599182e-01" purity="3.8710269331932068e-01" nType="0">
          <Node pos="l" depth="2" NCoef="0" IVar="-1" Cut="0.0000000000000000e+00" cType="1" res="-8.3595636533573270e-04" rms="4.8018276691436768e-01" purity="4.4898280501365662e-01" nType="-99"/>
          <Node pos="r" depth="2" NCoef="0" IVar="-1" Cut="0.0000000000000000e+00" cType="1" res="-4.4896667823195457e-03" rms="3.8898077607154846e-01" purity="2.0230811834335327e-01" nType="-99"/>
        </Node>
        <Node pos="r" depth="1" NCoef="0" IVar="1" Cut="8.2057868957519531e+01" cType="1" res="3.3324643969535828e-02" rms="4.6740010380744934e-01" purity="5.9881132841110229e-01" nType="0">
          <Node pos="l" depth="2" NCoef="0" IVar="-1" Cut="0.0000000000000000e+00" cType="1" res="-2.0898962393403053e-03" rms="4.7798576951026917e-01" purity="5.0633329153060913e-01" nType="-99"/>
          <Node pos="r" depth="2" NCoef="0" IVar="-1" Cut="0.0000000000000000e+00" cType="1" res="2.1385226864367723e-03" rms="4.6413254737854004e-01" purity="6.1477828025817871e-01" nType="-99"/>
        </Node>
      </Node>
    </BinaryTree>
    <BinaryTree type="DecisionTree" boostWeight="1.0000000000000000e+00" itree="132">
      <Node pos="s" depth="0" NCoef="0" IVar="2" Cut="8.3712244033813477e-01" cType="1" res="-7.0015410892665386e-03" rms="4.6681085228919983e-01" purity="4.9517285823822021e-01" nType="0">
        <Node pos="l" depth="1" NCoef="0" IVar="8" Cut="9.0939539670944214e-01" cType="1" res="6.2283679842948914e-02" rms="4.5216491818428040e-01" purity="6.8118476867675781e-01" nType="0">
          <Node pos="l" depth="2" NCoef="0" IVar="-1" Cut="0.0000000000000000e+00" cType="1" res="3.8983090780675411e-03" rms="4.4209438562393188e-01" purity="7.0740234851837158e-01" nType="-99"/>
          <Node pos="r" depth="2" NCoef="0" IVar="-1" Cut="0.0000000000000000e+00" cType="1" res="6.7509530344977975e-04" rms="4.7185015678405762e-01" purity="6.1902618408203125e-01" nType="-99"/>
        </Node>
        <Node pos="r" depth="1" NCoef="0" IVar="1" Cut="1.9989814758300781e+02" cType="1" res="-2.7457872405648232e-02" rms="4.6909531950950623e-01" purity="4.4025316834449768e-01" nType="0">
          <Node pos="l" depth="2" NCoef="0" IVar="-1" Cut="0.0000000000000000e+00" cType="1" res="-5.4738800827180967e-05" rms="4.7326105833053589e-01" purity="4.8002657294273376e-01" nType="-99"/>
          <Node pos="r" depth="2" NCoef="0" IVar="-1" Cut="0.0000000000000000e+00" cType="1" res="-2.9630081262439489e-03" rms="4.5818996429443359e-01" purity="3.7091439962387085e-01" nType="-99"/>
        </Node>
      </Node>
    </BinaryTree>
    <BinaryTree type="DecisionTree" boostWeight="1.0000000000000000e+00" itree="133">
      <Node pos="s" depth="0" NCoef="0" IVar="1" Cut="7.8911964416503906e+01" cType="1" res="-2.9815896414220333e-03" rms="4.6845465898513794e-01" purity="5.0248378515243530e-01" nType="0">
        <Node pos="l" depth="1" NCoef="0" IVar="8" Cut="7.6173400878906250e-01" cType="1" res="-9.1597080230712891e-02" rms="4.6853369474411011e-01" purity="4.0836888551712036e-01" nType="0">
          <Node pos="l" depth="2" NCoef="0" IVar="-1" Cut="0.0000000000000000e+00" cType="1" res="-1.4708269154652953e-03" rms="4.8957717418670654e-01" purity="5.2649801969528198e-01" nType="-99"/>
          <Node pos="r" depth="2" NCoef="0" IVar="-1" Cut="0.0000000000000000e+00" cType="1" res="-5.1381522789597511e-03" rms="4.5068448781967163e-01" purity="3.3271792531013489e-01" nType="-99"/>
        </Node>
        <Node pos="r" depth="1" NCoef="0" IVar="1" Cut="1.3757968139648438e+02" cType="1" res="1.0627479292452335e-02" rms="4.6695527434349060e-01" purity="5.1693749427795410e-01" nType="0">
          <Node pos="l" depth="2" NCoef="0" IVar="-1" Cut="0.0000000000000000e+00" cType="1" res="3.0006251763552427e-03" rms="4.5871719717979431e-01" purity="6.0308051109313965e-01" nType="-99"/>
          <Node pos="r" depth="2" NCoef="0" IVar="-1" Cut="0.0000000000000000e+00" cType="1" res="-1.0079111671075225e-03" rms="4.6843305230140686e-01" purity="4.6503698825836182e-01" nType="-99"/>
        </Node>
      </Node>
    </BinaryTree>
    <BinaryTree type="DecisionTree" boostWeight="1.0000000000000000e+00" itree="134">
      <Node pos="s" depth="0" NCoef="0" IVar="8" Cut="1.7253041267395020e+00" cType="1" res="-8.0309435725212097e-03" rms="4.6665832400321960e-01" purity="4.9620079994201660e-01" nType="0">
        <Node pos="l" depth="1" NCoef="0" IVar="1" Cut="2.0042866516113281e+02" cType="1" res="1.0932891629636288e-02" rms="4.7298634052276611e-01" purity="5.4404908418655396e-01" nType="0">
          <Node pos="l" depth="2" NCoef="0" IVar="-1" Cut="0.0000000000000000e+00" cType="1" res="1.5557755250483751e-03" rms="4.7029444575309753e-01" purity="5.8501672744750977e-01" nType="-99"/>
          <Node pos="r" depth="2" NCoef="0" IVar="-1" Cut="0.0000000000000000e+00" cType="1" res="-1.7174158710986376e-03" rms="4.7432500123977661e-01" purity="4.5830047130584717e-01" nType="-99"/>
        </Node>
        <Node pos="r" depth="1" NCoef="0" IVar="0" Cut="7.1257753372192383e+00" cType="1" res="-7.9669557511806488e-02" rms="4.3453091382980347e-01" purity="3.1544712185859680e-01" nType="0">
          <Node pos="l" depth="2" NCoef="0" IVar="-1" Cut="0.0000000000000000e+00" cType="1" res="-4.6904464252293110e-03" rms="4.0242019295692444e-01" purity="2.2836214303970337e-01" nType="-99"/>
          <Node pos="r" depth="2" NCoef="0" IVar="-1" Cut="0.0000000000000000e+00" cType="1" res="-1.0964232496917248e-03" rms="4.7314810752868652e-01" purity="4.4466459751129150e-01" nType="-99"/>
        </Node>
      </Node>
    </BinaryTree>
    <BinaryTree type="DecisionTree" boostWeight="1.0000000000000000e+00" itree="135">
      <Node pos="s" depth="0" NCoef="0" IVar="4" Cut="5.8905258178710938e+01" cType="1" res="1.5796064399182796e-03" rms="4.6641263365745544e-01" purity="5.0560587644577026e-01" nType="0">
        <Node pos="l" depth="1" NCoef="0" IVar="2" Cut="9.6789711713790894e-01" cType="1" res="-5.0011847168207169e-02" rms="4.7063848376274109e-01" purity="4.3943524360656738e-01" nType="0">
          <Node pos="l" depth="2" NCoef="0" IVar="-1" Cut="0.0000000000000000e+00" cType="1" res="-7.4002375185955316e-05" rms="4.8493400216102600e-01" purity="5.7436358928680420e-01" nType="-99"/>
          <Node pos="r" depth="2" NCoef="0" IVar="-1" Cut="0.0000000000000000e+00" cType="1" res="-3.4027039073407650e-03" rms="4.5701700448989868e-01" purity="3.4291473031044006e-01" nType="-99"/>
        </Node>
        <Node pos="r" depth="1" NCoef="0" IVar="7" Cut="9.4129896163940430e-01" cType="1" res="2.6062972843647003e-02" rms="4.6238404512405396e-01" purity="5.3700804710388184e-01" nType="0">
          <Node pos="l" depth="2" NCoef="0" IVar="-1" Cut="0.0000000000000000e+00" cType="1" res="-1.5102804172784090e-03" rms="4.6071356534957886e-01" purity="3.7248539924621582e-01" nType="-99"/>
          <Node pos="r" depth="2" NCoef="0" IVar="-1" Cut="0.0000000000000000e+00" cType="1" res="2.6539689861238003e-03" rms="4.5986324548721313e-01" purity="6.1950558423995972e-01" nType="-99"/>
        </Node>
      </Node>
    </BinaryTree>
    <BinaryTree type="DecisionTree" boostWeight="1.0000000000000000e+00" itree="136">
      <Node pos="s" depth="0" NCoef="0" IVar="3" Cut="2.1288111209869385e+00" cType="1" res="1.6490591224282980e-03" rms="4.6455568075180054e-01" purity="5.0580805540084839e-01" nType="0">
        <Node pos="l" depth="1" NCoef="0" IVar="4" Cut="8.5997291564941406e+01" cType="1" res="4.1311509907245636e-02" rms="4.6677020192146301e-01" purity="6.1132407188415527e-01" nType="0">
          <Node pos="l" depth="2" NCoef="0" IVar="-1" Cut="0.0000000000000000e+00" cType="1" res="5.8216613251715899e-04" rms="4.7651591897010803e-01" purity="5.6836378574371338e-01" nType="-99"/>
          <Node pos="r" depth="2" NCoef="0" IVar="-1" Cut="0.0000000000000000e+00" cType="1" res="4.8624062910676003e-03" rms="4.3698471784591675e-01" purity="7.1008294820785522e-01" nType="-99"/>
        </Node>
        <Node pos="r" depth="1" NCoef="0" IVar="1" Cut="1.6980436706542969e+02" cType="1" res="-3.5400643944740295e-02" rms="4.5939445495605469e-01" purity="4.0724286437034607e-01" nType="0">
          <Node pos="l" depth="2" NCoef="0" IVar="-1" Cut="0.0000000000000000e+00" cType="1" res="3.1820108415558934e-04" rms="4.6216401457786560e-01" purity="4.6868294477462769e-01" nType="-99"/>
          <Node pos="r" depth="2" NCoef="0" IVar="-1" Cut="0.0000000000000000e+00" cType="1" res="-3.0110361985862255e-03" rms="4.5349985361099243e-01" purity="3.5248571634292603e-01" nType="-99"/>
        </Node>
      </Node>
    </BinaryTree>
    <BinaryTree type="DecisionTree" boostWeight="1.0000000000000000e+00" itree="137">
      <Node pos="s" depth="0" NCoef="0" IVar="8" Cut="1.0628688335418701e+00" cType="1" res="-4.1568004526197910e-03" rms="4.6670189499855042e-01" purity="4.9825093150138855e-01" nType="0">
        <Node pos="l" depth="1" NCoef="0" IVar="1" Cut="8.1237915039062500e+01" cType="1" res="2.8558932244777679e-02" rms="4.7079077363014221e-01" purity="5.7848495244979858e-01" nType="0">
          <Node pos="l" depth="2" NCoef="0" IVar="-1" Cut="0.0000000000000000e+00" cType="1" res="-2.1743020042777061e-03" rms="4.8558816313743591e-01" purity="4.9137723445892334e-01" nType="-99"/>
          <Node pos="r" depth="2" NCoef="0" IVar="-1" Cut="0.0000000000000000e+00" cType="1" res="1.7890334129333496e-03" rms="4.6724128723144531e-01" purity="5.9191107749938965e-01" nType="-99"/>
        </Node>
        <Node pos="r" depth="1" NCoef="0" IVar="7" Cut="9.2556917667388916e-01" cType="1" res="-4.3480753898620605e-02" rms="4.5866128802299500e-01" purity="4.0181052684783936e-01" nType="0">
          <Node pos="l" depth="2" NCoef="0" IVar="-1" Cut="0.0000000000000000e+00" cType="1" res="-5.5874860845506191e-03" rms="3.8249939680099487e-01" purity="1.9146315753459930e-01" nType="-99"/>
          <Node pos="r" depth="2" NCoef="0" IVar="-1" Cut="0.0000000000000000e+00" cType="1" res="-1.0391414398327470e-03" rms="4.6921348571777344e-01" purity="4.4108399748802185e-01" nType="-99"/>
        </Node>
      </Node>
    </BinaryTree>
    <BinaryTree type="DecisionTree" boostWeight="1.0000000000000000e+00" itree="138">
      <Node pos="s" depth="0" NCoef="0" IVar="3" Cut="2.1475827693939209e+00" cType="1" res="3.0178755987435579e-03" rms="4.6737957000732422e-01" purity="5.0726091861724854e-01" nType="0">
        <Node pos="l" depth="1" NCoef="0" IVar="4" Cut="1.0325659942626953e+02" cType="1" res="3.4754194319248199e-02" rms="4.7025984525680542e-01" purity="6.0553419589996338e-01" nType="0">
          <Node pos="l" depth="2" NCoef="0" IVar="-1" Cut="0.0000000000000000e+00" cType="1" res="6.2477140454575419e-04" rms="4.7703620791435242e-01" purity="5.7620465755462646e-01" nType="-99"/>
          <Node pos="r" depth="2" NCoef="0" IVar="-1" Cut="0.0000000000000000e+00" cType="1" res="5.5512371473014355e-03" rms="4.3145346641540527e-01" purity="7.2615420818328857e-01" nType="-99"/>
        </Node>
        <Node pos="r" depth="1" NCoef="0" IVar="1" Cut="1.4049208068847656e+02" cType="1" res="-3.0810253694653511e-02" rms="4.6189510822296143e-01" purity="4.0251025557518005e-01" nType="0">
          <Node pos="l" depth="2" NCoef="0" IVar="-1" Cut="0.0000000000000000e+00" cType="1" res="6.6636310657486320e-04" rms="4.6252593398094177e-01" purity="4.6847620606422424e-01" nType="-99"/>
          <Node pos="r" depth="2" NCoef="0" IVar="-1" Cut="0.0000000000000000e+00" cType="1" res="-2.4170908145606518e-03" rms="4.5933389663696289e-01" purity="3.6385217308998108e-01" nType="-99"/>
        </Node>
      </Node>
    </BinaryTree>
    <BinaryTree type="DecisionTree" boostWeight="1.0000000000000000e+00" itree="139">
      <Node pos="s" depth="0" NCoef="0" IVar="0" Cut="7.7119255065917969e+00" cType="1" res="9.9468762055039406e-03" rms="4.6643427014350891e-01" purity="5.1492333412170410e-01" nType="0">
        <Node pos="l" depth="1" NCoef="0" IVar="5" Cut="1.4902846515178680e-01" cType="1" res="-1.4396986924111843e-02" rms="4.7096958756446838e-01" purity="4.4802853465080261e-01" nType="0">
          <Node pos="l" depth="2" NCoef="0" IVar="-1" Cut="0.0000000000000000e+00" cType="1" res="-1.1996856192126870e-03" rms="4.6750104427337646e-01" purity="4.1770032048225403e-01" nType="-99"/>
          <Node pos="r" depth="2" NCoef="0" IVar="-1" Cut="0.0000000000000000e+00" cType="1" res="2.0001379307359457e-03" rms="4.7977852821350098e-01" purity="5.7055407762527466e-01" nType="-99"/>
        </Node>
        <Node pos="r" depth="1" NCoef="0" IVar="4" Cut="5.9814453125000000e+01" cType="1" res="6.1216875910758972e-02" rms="4.5247137546539307e-01" purity="6.5580886602401733e-01" nType="0">
          <Node pos="l" depth="2" NCoef="0" IVar="-1" Cut="0.0000000000000000e+00" cType="1" res="-5.7255994761362672e-04" rms="4.7467014193534851e-01" purity="5.6598770618438721e-01" nType="-99"/>
          <Node pos="r" depth="2" NCoef="0" IVar="-1" Cut="0.0000000000000000e+00" cType="1" res="4.4575450010597706e-03" rms="4.3852075934410095e-01" purity="6.9516551494598389e-01" nType="-99"/>
        </Node>
      </Node>
    </BinaryTree>
    <BinaryTree type="DecisionTree" boostWeight="1.0000000000000000e+00" itree="140">
      <Node pos="s" depth="0" NCoef="0" IVar="3" Cut="2.3287332057952881e+00" cType="1" res="-1.0232518427073956e-02" rms="4.6482667326927185e-01" purity="4.9441251158714294e-01" nType="0">
        <Node pos="l" depth="1" NCoef="0" IVar="0" Cut="8.3337411880493164e+00" cType="1" res="1.2599803507328033e-02" rms="4.7320231795310974e-01" purity="5.6993550062179565e-01" nType="0">
          <Node pos="l" depth="2" NCoef="0" IVar="-1" Cut="0.0000000000000000e+00" cType="1" res="-2.7723188395611942e-04" rms="4.8193070292472839e-01" purity="5.2752101421356201e-01" nType="-99"/>
          <Node pos="r" depth="2" NCoef="0" IVar="-1" Cut="0.0000000000000000e+00" cType="1" res="4.1297166608273983e-03" rms="4.3264821171760559e-01" purity="7.2473132610321045e-01" nType="-99"/>
        </Node>
        <Node pos="r" depth="1" NCoef="0" IVar="8" Cut="2.2164907455444336e+00" cType="1" res="-6.8854726850986481e-02" rms="4.3716919422149658e-01" purity="3.0050653219223022e-01" nType="0">
          <Node pos="l" depth="2" NCoef="0" IVar="-1" Cut="0.0000000000000000e+00" cType="1" res="-1.9017136655747890e-03" rms="4.5461925864219666e-01" purity="3.4238657355308533e-01" nType="-99"/>
          <Node pos="r" depth="2" NCoef="0" IVar="-1" Cut="0.0000000000000000e+00" cType="1" res="-5.5246786214411259e-03" rms="3.7951827049255371e-01" purity="1.8773575127124786e-01" nType="-99"/>
        </Node>
      </Node>
    </BinaryTree>
    <BinaryTree type="DecisionTree" boostWeight="1.0000000000000000e+00" itree="141">
      <Node pos="s" depth="0" NCoef="0" IVar="5" Cut="8.7552666664123535e-02" cType="1" res="-1.2646302639041096e-04" rms="4.6483674645423889e-01" purity="5.0454920530319214e-01" nType="0">
        <Node pos="l" depth="1" NCoef="0" IVar="1" Cut="4.6270007324218750e+02" cType="1" res="-3.7432063370943069e-02" rms="4.6219852566719055e-01" purity="4.3336591124534607e-01" nType="0">
          <Node pos="l" depth="2" NCoef="0" IVar="-1" Cut="0.0000000000000000e+00" cType="1" res="-1.0116038611158729e-03" rms="4.6448460221290588e-01" purity="4.5376873016357422e-01" nType="-99"/>
          <Node pos="r" depth="2" NCoef="0" IVar="-1" Cut="0.0000000000000000e+00" cType="1" res="-5.9556416235864162e-03" rms="4.2515808343887329e-01" purity="2.5724434852600098e-01" nType="-99"/>
        </Node>
        <Node pos="r" depth="1" NCoef="0" IVar="4" Cut="7.5700279235839844e+01" cType="1" res="4.3069671839475632e-02" rms="4.6414190530776978e-01" purity="5.8697223663330078e-01" nType="0">
          <Node pos="l" depth="2" NCoef="0" IVar="-1" Cut="0.0000000000000000e+00" cType="1" res="3.6745445686392486e-04" rms="4.7441327571868896e-01" purity="5.4572010040283203e-01" nType="-99"/>
          <Node pos="r" depth="2" NCoef="0" IVar="-1" Cut="0.0000000000000000e+00" cType="1" res="3.8633951917290688e-03" rms="4.4796818494796753e-01" purity="6.3658177852630615e-01" nType="-99"/>
        </Node>
      </Node>
    </BinaryTree>
    <BinaryTree type="DecisionTree" boostWeight="1.0000000000000000e+00" itree="142">
      <Node pos="s" depth="0" NCoef="0" IVar="4" Cut="5.9007698059082031e+01" cType="1" res="-1.0475363582372665e-02" rms="4.6567648649215698e-01" purity="4.9403768777847290e-01" nType="0">
        <Node pos="l" depth="1" NCoef="0" IVar="2" Cut="8.9017122983932495e-01" cType="1" res="-5.9622690081596375e-02" rms="4.6690565347671509e-01" purity="4.2919513583183289e-01" nType="0">
          <Node pos="l" depth="2" NCoef="0" IVar="-1" Cut="0.0000000000000000e+00" cType="1" res="2.5377023848704994e-04" rms="4.8243522644042969e-01" purity="5.9399455785751343e-01" nType="-99"/>
          <Node pos="r" depth="2" NCoef="0" IVar="-1" Cut="0.0000000000000000e+00" cType="1" res="-3.6250213161110878e-03" rms="4.5593470335006714e-01" purity="3.5004064440727234e-01" nType="-99"/>
        </Node>
        <Node pos="r" depth="1" NCoef="0" IVar="7" Cut="9.1747814416885376e-01" cType="1" res="1.4048642478883266e-02" rms="4.6311542391777039e-01" purity="5.2639347314834595e-01" nType="0">
          <Node pos="l" depth="2" NCoef="0" IVar="-1" Cut="0.0000000000000000e+00" cType="1" res="-4.1439114138484001e-03" rms="4.1907253861427307e-01" purity="2.6399257779121399e-01" nType="-99"/>
          <Node pos="r" depth="2" NCoef="0" IVar="-1" Cut="0.0000000000000000e+00" cType="1" res="1.1868979781866074e-03" rms="4.6558722853660583e-01" purity="5.5392026901245117e-01" nType="-99"/>
        </Node>
      </Node>
    </BinaryTree>
    <BinaryTree type="DecisionTree" boostWeight="1.0000000000000000e+00" itree="143">
      <Node pos="s" depth="0" NCoef="0" IVar="5" Cut="6.5939292311668396e-02" cType="1" res="-5.2826465107500553e-03" rms="4.6560341119766235e-01" purity="4.9938559532165527e-01" nType="0">
        <Node pos="l" depth="1" NCoef="0" IVar="9" Cut="8.6802227783203125e+02" cType="1" res="-4.7672744840383530e-02" rms="4.6140784025192261e-01" purity="4.1306856274604797e-01" nType="0">
          <Node pos="l" depth="2" NCoef="0" IVar="-1" Cut="0.0000000000000000e+00" cType="1" res="-3.1759983394294977e-03" rms="4.5216676592826843e-01" purity="3.6349838972091675e-01" nType="-99"/>
          <Node pos="r" depth="2" NCoef="0" IVar="-1" Cut="0.0000000000000000e+00" cType="1" res="-3.2882022787816823e-04" rms="4.7056946158409119e-01" purity="4.7940140962600708e-01" nType="-99"/>
        </Node>
        <Node pos="r" depth="1" NCoef="0" IVar="1" Cut="8.7535385131835938e+01" cType="1" res="2.2369446232914925e-02" rms="4.6624764800071716e-01" purity="5.5569225549697876e-01" nType="0">
          <Node pos="l" depth="2" NCoef="0" IVar="-1" Cut="0.0000000000000000e+00" cType="1" res="-2.1673745941370726e-03" rms="4.7300913929939270e-01" purity="4.8028001189231873e-01" nType="-99"/>
          <Node pos="r" depth="2" NCoef="0" IVar="-1" Cut="0.0000000000000000e+00" cType="1" res="1.6779452562332153e-03" rms="4.6326276659965515e-01" purity="5.7179784774780273e-01" nType="-99"/>
        </Node>
      </Node>
    </BinaryTree>
    <BinaryTree type="DecisionTree" boostWeight="1.0000000000000000e+00" itree="144">
      <Node pos="s" depth="0" NCoef="0" IVar="0" Cut="8.2732572555541992e+00" cType="1" res="-3.9973109960556030e-03" rms="4.6508067846298218e-01" purity="5.0055402517318726e-01" nType="0">
        <Node pos="l" depth="1" NCoef="0" IVar="2" Cut="1.1301668882369995e+00" cType="1" res="-2.3584639653563499e-02" rms="4.6861740946769714e-01" purity="4.5612627267837524e-01" nType="0">
          <Node pos="l" depth="2" NCoef="0" IVar="-1" Cut="0.0000000000000000e+00" cType="1" res="3.1728783505968750e-04" rms="4.8110136389732361e-01" purity="5.6366288661956787e-01" nType="-99"/>
          <Node pos="r" depth="2" NCoef="0" IVar="-1" Cut="0.0000000000000000e+00" cType="1" res="-2.3016603663563728e-03" rms="4.5240134000778198e-01" purity="3.4028303623199463e-01" nType="-99"/>
        </Node>
        <Node pos="r" depth="1" NCoef="0" IVar="8" Cut="5.7096529006958008e-01" cType="1" res="7.2566606104373932e-02" rms="4.4275322556495667e-01" purity="6.7421537637710571e-01" nType="0">
          <Node pos="l" depth="2" NCoef="0" IVar="-1" Cut="0.0000000000000000e+00" cType="1" res="7.4734748341143131e-03" rms="3.8706594705581665e-01" purity="7.9850912094116211e-01" nType="-99"/>
          <Node pos="r" depth="2" NCoef="0" IVar="-1" Cut="0.0000000000000000e+00" cType="1" res="2.0299656316637993e-03" rms="4.6135789155960083e-01" purity="6.2149626016616821e-01" nType="-99"/>
        </Node>
      </Node>
    </BinaryTree>
    <BinaryTree type="DecisionTree" boostWeight="1.0000000000000000e+00" itree="145">
      <Node pos="s" depth="0" NCoef="0" IVar="3" Cut="2.1237146854400635e+00" cType="1" res="1.1843995191156864e-02" rms="4.6611192822456360e-01" purity="5.1752954721450806e-01" nType="0">
        <Node pos="l" depth="1" NCoef="0" IVar="4" Cut="9.0984580993652344e+01" cType="1" res="4.4437985867261887e-02" rms="4.6788191795349121e-01" purity="6.1950695514678955e-01" nType="0">
          <Node pos="l" depth="2" NCoef="0" IVar="-1" Cut="0.0000000000000000e+00" cType="1" res="7.9098512651398778e-04" rms="4.7869414091110229e-01" purity="5.7834666967391968e-01" nType="-99"/>
          <Node pos="r" depth="2" NCoef="0" IVar="-1" Cut="0.0000000000000000e+00" cType="1" res="5.3933272138237953e-03" rms="4.3135347962379456e-01" purity="7.2620964050292969e-01" nType="-99"/>
        </Node>
        <Node pos="r" depth="1" NCoef="0" IVar="4" Cut="8.1770652770996094e+01" cType="1" res="-1.9838221371173859e-02" rms="4.6218720078468323e-01" purity="4.1840481758117676e-01" nType="0">
          <Node pos="l" depth="2" NCoef="0" IVar="-1" Cut="0.0000000000000000e+00" cType="1" res="-2.4055696558207273e-03" rms="4.5378172397613525e-01" purity="3.6387515068054199e-01" nType="-99"/>
          <Node pos="r" depth="2" NCoef="0" IVar="-1" Cut="0.0000000000000000e+00" cType="1" res="4.1843322105705738e-04" rms="4.6665954589843750e-01" purity="4.6187853813171387e-01" nType="-99"/>
        </Node>
      </Node>
    </BinaryTree>
    <BinaryTree type="DecisionTree" boostWeight="1.0000000000000000e+00" itree="146">
      <Node pos="s" depth="0" NCoef="0" IVar="1" Cut="9.3066810607910156e+01" cType="1" res="4.7340127639472485e-03" rms="4.6575108170509338e-01" purity="5.0961822271347046e-01" nType="0">
        <Node pos="l" depth="1" NCoef="0" IVar="2" Cut="1.2789301872253418e+00" cType="1" res="-6.3994891941547394e-02" rms="4.6517127752304077e-01" purity="4.3860432505607605e-01" nType="0">
          <Node pos="l" depth="2" NCoef="0" IVar="-1" Cut="0.0000000000000000e+00" cType="1" res="-1.3894099975004792e-03" rms="4.8317551612854004e-01" purity="5.2269756793975830e-01" nType="-99"/>
          <Node pos="r" depth="2" NCoef="0" IVar="-1" Cut="0.0000000000000000e+00" cType="1" res="-5.4675615392625332e-03" rms="4.1229644417762756e-01" purity="2.4622642993927002e-01" nType="-99"/>
        </Node>
        <Node pos="r" depth="1" NCoef="0" IVar="1" Cut="1.6465644836425781e+02" cType="1" res="2.1791199222207069e-02" rms="4.6432179212570190e-01" purity="5.2724242210388184e-01" nType="0">
          <Node pos="l" depth="2" NCoef="0" IVar="-1" Cut="0.0000000000000000e+00" cType="1" res="3.1886524520814419e-03" rms="4.5686477422714233e-01" purity="6.0863614082336426e-01" nType="-99"/>
          <Node pos="r" depth="2" NCoef="0" IVar="-1" Cut="0.0000000000000000e+00" cType="1" res="-8.5465394658967853e-04" rms="4.6639764308929443e-01" purity="4.5879492163658142e-01" nType="-99"/>
        </Node>
      </Node>
    </BinaryTree>
    <BinaryTree type="DecisionTree" boostWeight="1.0000000000000000e+00" itree="147">
      <Node pos="s" depth="0" NCoef="0" IVar="7" Cut="9.2555153369903564e-01" cType="1" res="-7.4574826285243034e-03" rms="4.6573379635810852e-01" purity="4.9770125746726990e-01" nType="0">
        <Node pos="l" depth="1" NCoef="0" IVar="8" Cut="9.9805378913879395e-01" cType="1" res="-8.3124540746212006e-02" rms="4.3565875291824341e-01" purity="2.9122841358184814e-01" nType="0">
          <Node pos="l" depth="2" NCoef="0" IVar="-1" Cut="0.0000000000000000e+00" cType="1" res="-1.7089579487219453e-03" rms="4.7110104560852051e-01" purity="3.7590357661247253e-01" nType="-99"/>
          <Node pos="r" depth="2" NCoef="0" IVar="-1" Cut="0.0000000000000000e+00" cType="1" res="-4.5306370593607426e-03" rms="3.9861395955085754e-01" purity="2.1586383879184723e-01" nType="-99"/>
        </Node>
        <Node pos="r" depth="1" NCoef="0" IVar="1" Cut="1.8538905334472656e+02" cType="1" res="6.2586604617536068e-03" rms="4.6967658400535583e-01" purity="5.3512853384017944e-01" nType="0">
          <Node pos="l" depth="2" NCoef="0" IVar="-1" Cut="0.0000000000000000e+00" cType="1" res="1.3490868732333183e-03" rms="4.6726971864700317e-01" purity="5.7806539535522461e-01" nType="-99"/>
          <Node pos="r" depth="2" NCoef="0" IVar="-1" Cut="0.0000000000000000e+00" cType="1" res="-1.4995335368439555e-03" rms="4.7088304162025452e-01" purity="4.6120151877403259e-01" nType="-99"/>
        </Node>
      </Node>
    </BinaryTree>
    <BinaryTree type="DecisionTree" boostWeight="1.0000000000000000e+00" itree="148">
      <Node pos="s" depth="0" NCoef="0" IVar="4" Cut="9.3635620117187500e+01" cType="1" res="-6.6559924744069576e-03" rms="4.6664249897003174e-01" purity="4.9534586071968079e-01" nType="0">
        <Node pos="l" depth="1" NCoef="0" IVar="4" Cut="3.6128047943115234e+01" cType="1" res="-3.1248785555362701e-02" rms="4.6991655230522156e-01" purity="4.6866184473037720e-01" nType="0">
          <Node pos="l" depth="2" NCoef="0" IVar="-1" Cut="0.0000000000000000e+00" cType="1" res="-5.4769446142017841e-03" rms="4.4684064388275146e-01" purity="3.3077213168144226e-01" nType="-99"/>
          <Node pos="r" depth="2" NCoef="0" IVar="-1" Cut="0.0000000000000000e+00" cType="1" res="-7.6390040339902043e-04" rms="4.7113370895385742e-01" purity="4.8607227206230164e-01" nType="-99"/>
        </Node>
        <Node pos="r" depth="1" NCoef="0" IVar="4" Cut="1.6233850097656250e+02" cType="1" res="3.6777507513761520e-02" rms="4.5758622884750366e-01" purity="5.4247266054153442e-01" nType="0">
          <Node pos="l" depth="2" NCoef="0" IVar="-1" Cut="0.0000000000000000e+00" cType="1" res="2.8650315944105387e-03" rms="4.5539817214012146e-01" purity="5.8040386438369751e-01" nType="-99"/>
          <Node pos="r" depth="2" NCoef="0" IVar="-1" Cut="0.0000000000000000e+00" cType="1" res="-4.9128038808703423e-03" rms="4.3748581409454346e-01" purity="3.2799878716468811e-01" nType="-99"/>
        </Node>
      </Node>
    </BinaryTree>
    <BinaryTree type="DecisionTree" boostWeight="1.0000000000000000e+00" itree="149">
      <Node pos="s" depth="0" NCoef="0" IVar="1" Cut="2.5953863525390625e+02" cType="1" res="-1.5247507020831108e-02" rms="4.6661224961280823e-01" purity="4.8822909593582153e-01" nType="0">
        <Node pos="l" depth="1" NCoef="0" IVar="1" Cut="9.9828880310058594e+01" cType="1" res="2.1799814421683550e-03" rms="4.6811389923095703e-01" purity="5.2014321088790894e-01" nType="0">
          <Node pos="l" depth="2" NCoef="0" IVar="-1" Cut="0.0000000000000000e+00" cType="1" res="-2.7082324959337711e-03" rms="4.6789583563804626e-01" purity="4.4009903073310852e-01" nType="-99"/>
          <Node pos="r" depth="2" NCoef="0" IVar="-1" Cut="0.0000000000000000e+00" cType="1" res="1.2759228702634573e-03" rms="4.6546778082847595e-01" purity="5.5256789922714233e-01" nType="-99"/>
        </Node>
        <Node pos="r" depth="1" NCoef="0" IVar="3" Cut="2.0979084968566895e+00" cType="1" res="-7.3321074247360229e-02" rms="4.5679864287376404e-01" purity="3.8188180327415466e-01" nType="0">
          <Node pos="l" depth="2" NCoef="0" IVar="-1" Cut="0.0000000000000000e+00" cType="1" res="2.9302547773113474e-05" rms="4.7010648250579834e-01" purity="5.6547302007675171e-01" nType="-99"/>
          <Node pos="r" depth="2" NCoef="0" IVar="-1" Cut="0.0000000000000000e+00" cType="1" res="-4.1780238971114159e-03" rms="4.4778499007225037e-01" purity="3.0719572305679321e-01" nType="-99"/>
        </Node>
      </Node>
    </BinaryTree>
    <BinaryTree type="DecisionTree" boostWeight="1.0000000000000000e+00" itree="150">
      <Node pos="s" depth="0" NCoef="0" IVar="1" Cut="6.7283439636230469e+01" cType="1" res="-4.8355963081121445e-03" rms="4.6703687310218811e-01" purity="4.9886760115623474e-01" nType="0">
        <Node pos="l" depth="1" NCoef="0" IVar="-1" Cut="0.0000000000000000e+00" cType="1" res="-4.5605595223605633e-03" rms="4.5522376894950867e-01" purity="3.6574009060859680e-01" nType="-99"/>
        <Node pos="r" depth="1" NCoef="0" IVar="1" Cut="1.6185429382324219e+02" cType="1" res="5.1086372695863247e-03" rms="4.6689009666442871e-01" purity="5.1131963729858398e-01" nType="0">
          <Node pos="l" depth="2" NCoef="0" IVar="-1" Cut="0.0000000000000000e+00" cType="1" res="1.6432265983894467e-03" rms="4.6446928381919861e-01" purity="5.7058340311050415e-01" nType="-99"/>
          <Node pos="r" depth="2" NCoef="0" IVar="-1" Cut="0.0000000000000000e+00" cType="1" res="-1.2141223996877670e-03" rms="4.6698337793350220e-01" purity="4.4993996620178223e-01" nType="-99"/>
        </Node>
      </Node>
    </BinaryTree>
    <BinaryTree type="DecisionTree" boostWeight="1.0000000000000000e+00" itree="151">
      <Node pos="s" depth="0" NCoef="0" IVar="8" Cut="1.8559315204620361e+00" cType="1" res="-1.5218945918604732e-03" rms="4.6496567130088806e-01" purity="5.0091701745986938e-01" nType="0">
        <Node pos="l" depth="1" NCoef="0" IVar="7" Cut="9.2366981506347656e-01" cType="1" res="1.2193109840154648e-02" rms="4.6994599699974060e-01" purity="5.4043519496917725e-01" nType="0">
          <Node pos="l" depth="2" NCoef="0" IVar="-1" Cut="0.0000000000000000e+00" cType="1" res="-2.7727207634598017e-03" rms="4.5819318294525146e-01" purity="3.2568961381912231e-01" nType="-99"/>
          <Node pos="r" depth="2" NCoef="0" IVar="-1" Cut="0.0000000000000000e+00" cType="1" res="1.0923822410404682e-03" rms="4.7031638026237488e-01" purity="5.7225805521011353e-01" nType="-99"/>
        </Node>
        <Node pos="r" depth="1" NCoef="0" IVar="0" Cut="7.4374699592590332e+00" cType="1" res="-6.7712008953094482e-02" rms="4.3408867716789246e-01" purity="3.1019815802574158e-01" nType="0">
          <Node pos="l" depth="2" NCoef="0" IVar="-1" Cut="0.0000000000000000e+00" cType="1" res="-3.8498137146234512e-03" rms="4.1342315077781677e-01" purity="2.3939760029315948e-01" nType="-99"/>
          <Node pos="r" depth="2" NCoef="0" IVar="-1" Cut="0.0000000000000000e+00" cType="1" res="-8.1351585686206818e-04" rms="4.6725046634674072e-01" purity="4.4545865058898926e-01" nType="-99"/>
        </Node>
      </Node>
    </BinaryTree>
    <BinaryTree type="DecisionTree" boostWeight="1.0000000000000000e+00" itree="152">
      <Node pos="s" depth="0" NCoef="0" IVar="1" Cut="1.6640559387207031e+02" cType="1" res="-4.2152921669185162e-03" rms="4.6680441498756409e-01" purity="5.0081264972686768e-01" nType="0">
        <Node pos="l" depth="1" NCoef="0" IVar="1" Cut="9.0236991882324219e+01" cType="1" res="2.1717634052038193e-02" rms="4.6424767374992371e-01" purity="5.5028992891311646e-01" nType="0">
          <Node pos="l" depth="2" NCoef="0" IVar="-1" Cut="0.0000000000000000e+00" cType="1" res="-2.7679968625307083e-03" rms="4.6926206350326538e-01" purity="4.3363600969314575e-01" nType="-99"/>
          <Node pos="r" depth="2" NCoef="0" IVar="-1" Cut="0.0000000000000000e+00" cType="1" res="2.7715701144188643e-03" rms="4.5622575283050537e-01" purity="6.0385882854461670e-01" nType="-99"/>
        </Node>
        <Node pos="r" depth="1" NCoef="0" IVar="4" Cut="6.2965396881103516e+01" cType="1" res="-3.9383966475725174e-02" rms="4.6795907616615295e-01" purity="4.3371459841728210e-01" nType="0">
          <Node pos="l" depth="2" NCoef="0" IVar="-1" Cut="0.0000000000000000e+00" cType="1" res="-3.5039663780480623e-03" rms="4.6083921194076538e-01" purity="3.7228155136108398e-01" nType="-99"/>
          <Node pos="r" depth="2" NCoef="0" IVar="-1" Cut="0.0000000000000000e+00" cType="1" res="-9.4028713647276163e-04" rms="4.6944150328636169e-01" purity="4.5673704147338867e-01" nType="-99"/>
        </Node>
      </Node>
    </BinaryTree>
    <BinaryTree type="DecisionTree" boostWeight="1.0000000000000000e+00" itree="153">
      <Node pos="s" depth="0" NCoef="0" IVar="2" Cut="1.3216013908386230e+00" cType="1" res="-2.0940457470715046e-03" rms="4.6220520138740540e-01" purity="5.0169879198074341e-01" nType="0">
        <Node pos="l" depth="1" NCoef="0" IVar="0" Cut="5.9134588241577148e+00" cType="1" res="2.0000696182250977e-02" rms="4.6837127208709717e-01" purity="5.7394301891326904e-01" nType="0">
          <Node pos="l" depth="2" NCoef="0" IVar="-1" Cut="0.0000000000000000e+00" cType="1" res="-1.7907095607370138e-03" rms="4.7092086076736450e-01" purity="3.8738727569580078e-01" nType="-99"/>
          <Node pos="r" depth="2" NCoef="0" IVar="-1" Cut="0.0000000000000000e+00" cType="1" res="1.7249475931748748e-03" rms="4.6601375937461853e-01" purity="6.2413305044174194e-01" nType="-99"/>
        </Node>
        <Node pos="r" depth="1" NCoef="0" IVar="9" Cut="6.4904290771484375e+02" cType="1" res="-5.7876951992511749e-02" rms="4.4136446714401245e-01" purity="3.1930279731750488e-01" nType="0">
          <Node pos="l" depth="2" NCoef="0" IVar="-1" Cut="0.0000000000000000e+00" cType="1" res="-4.3258494697511196e-03" rms="4.1711440682411194e-01" purity="2.5324037671089172e-01" nType="-99"/>
          <Node pos="r" depth="2" NCoef="0" IVar="-1" Cut="0.0000000000000000e+00" cType="1" res="-1.1433374602347612e-03" rms="4.5385423302650452e-01" purity="3.6213293671607971e-01" nType="-99"/>
        </Node>
      </Node>
    </BinaryTree>
    <BinaryTree type="DecisionTree" boostWeight="1.0000000000000000e+00" itree="154">
      <Node pos="s" depth="0" NCoef="0" IVar="3" Cut="2.1967453956604004e+00" cType="1" res="-2.4681850336492062e-03" rms="4.6376883983612061e-01" purity="4.9927854537963867e-01" nType="0">
        <Node pos="l" depth="1" NCoef="0" IVar="4" Cut="9.0008369445800781e+01" cType="1" res="2.5600509718060493e-02" rms="4.7048532962799072e-01" purity="5.9571766853332520e-01" nType="0">
          <Node pos="l" depth="2" NCoef="0" IVar="-1" Cut="0.0000000000000000e+00" cType="1" res="1.6422028420493007e-04" rms="4.7790327668190002e-01" purity="5.5778843164443970e-01" nType="-99"/>
          <Node pos="r" depth="2" NCoef="0" IVar="-1" Cut="0.0000000000000000e+00" cType="1" res="3.6817863583564758e-03" rms="4.4760727882385254e-01" purity="6.8777436017990112e-01" nType="-99"/>
        </Node>
        <Node pos="r" depth="1" NCoef="0" IVar="7" Cut="9.5162808895111084e-01" cType="1" res="-4.0012650191783905e-02" rms="4.5191243290901184e-01" purity="3.7028229236602783e-01" nType="0">
          <Node pos="l" depth="2" NCoef="0" IVar="-1" Cut="0.0000000000000000e+00" cType="1" res="-3.0656394083052874e-03" rms="4.2334982752799988e-01" purity="2.7195620536804199e-01" nType="-99"/>
          <Node pos="r" depth="2" NCoef="0" IVar="-1" Cut="0.0000000000000000e+00" cType="1" res="1.6818756876091356e-06" rms="4.7940093278884888e-01" purity="4.8279398679733276e-01" nType="-99"/>
        </Node>
      </Node>
    </BinaryTree>
    <BinaryTree type="DecisionTree" boostWeight="1.0000000000000000e+00" itree="155">
      <Node pos="s" depth="0" NCoef="0" IVar="2" Cut="6.9151157140731812e-01" cType="1" res="-1.0545505210757256e-03" rms="4.6701985597610474e-01" purity="5.0406378507614136e-01" nType="0">
        <Node pos="l" depth="1" NCoef="0" IVar="5" Cut="1.1689919233322144e-01" cType="1" res="8.5703678429126740e-02" rms="4.3657323718070984e-01" purity="7.1775537729263306e-01" nType="0">
          <Node pos="l" depth="2" NCoef="0" IVar="-1" Cut="0.0000000000000000e+00" cType="1" res="1.4709568349644542e-03" rms="4.5990556478500366e-01" purity="6.4972406625747681e-01" nType="-99"/>
          <Node pos="r" depth="2" NCoef="0" IVar="-1" Cut="0.0000000000000000e+00" cType="1" res="6.9904900155961514e-03" rms="4.0503996610641479e-01" purity="7.8545272350311279e-01" nType="-99"/>
        </Node>
        <Node pos="r" depth="1" NCoef="0" IVar="4" Cut="4.7630283355712891e+01" cType="1" res="-1.2508883140981197e-02" rms="4.6969649195671082e-01" purity="4.7585096955299377e-01" nType="0">
          <Node pos="l" depth="2" NCoef="0" IVar="-1" Cut="0.0000000000000000e+00" cType="1" res="-3.1939300242811441e-03" rms="4.6217194199562073e-01" purity="3.8184398412704468e-01" nType="-99"/>
          <Node pos="r" depth="2" NCoef="0" IVar="-1" Cut="0.0000000000000000e+00" cType="1" res="1.0767574713099748e-04" rms="4.7009274363517761e-01" purity="4.9722152948379517e-01" nType="-99"/>
        </Node>
      </Node>
    </BinaryTree>
    <BinaryTree type="DecisionTree" boostWeight="1.0000000000000000e+00" itree="156">
      <Node pos="s" depth="0" NCoef="0" IVar="4" Cut="1.4068875122070312e+02" cType="1" res="-7.1283639408648014e-03" rms="4.6559318900108337e-01" purity="4.9648910760879517e-01" nType="0">
        <Node pos="l" depth="1" NCoef="0" IVar="4" Cut="1.1006739044189453e+02" cType="1" res="3.9865127764642239e-03" rms="4.6648922562599182e-01" purity="5.1147043704986572e-01" nType="0">
          <Node pos="l" depth="2" NCoef="0" IVar="-1" Cut="0.0000000000000000e+00" cType="1" res="-7.4049696559086442e-04" rms="4.6780243515968323e-01" purity="4.8751452565193176e-01" nType="-99"/>
          <Node pos="r" depth="2" NCoef="0" IVar="-1" Cut="0.0000000000000000e+00" cType="1" res="4.9175242893397808e-03" rms="4.4574952125549316e-01" purity="6.2748175859451294e-01" nType="-99"/>
        </Node>
        <Node pos="r" depth="1" NCoef="0" IVar="-1" Cut="0.0000000000000000e+00" cType="1" res="-4.5926915481686592e-03" rms="4.4355207681655884e-01" purity="3.5516062378883362e-01" nType="-99"/>
      </Node>
    </BinaryTree>
    <BinaryTree type="DecisionTree" boostWeight="1.0000000000000000e+00" itree="157">
      <Node pos="s" depth="0" NCoef="0" IVar="4" Cut="5.0486186981201172e+01" cType="1" res="-1.1762661160901189e-03" rms="4.6442127227783203e-01" purity="4.9969494342803955e-01" nType="0">
        <Node pos="l" depth="1" NCoef="0" IVar="2" Cut="9.6283400058746338e-01" cType="1" res="-6.3602127134799957e-02" rms="4.6069169044494629e-01" purity="4.1137629747390747e-01" nType="0">
          <Node pos="l" depth="2" NCoef="0" IVar="-1" Cut="0.0000000000000000e+00" cType="1" res="-5.4030865430831909e-04" rms="4.8374360799789429e-01" purity="5.5005091428756714e-01" nType="-99"/>
          <Node pos="r" depth="2" NCoef="0" IVar="-1" Cut="0.0000000000000000e+00" cType="1" res="-4.0271766483783722e-03" rms="4.3936797976493835e-01" purity="3.1000158190727234e-01" nType="-99"/>
        </Node>
        <Node pos="r" depth="1" NCoef="0" IVar="1" Cut="2.5647982788085938e+02" cType="1" res="1.7402071505784988e-02" rms="4.6390625834465027e-01" purity="5.2597916126251221e-01" nType="0">
          <Node pos="l" depth="2" NCoef="0" IVar="-1" Cut="0.0000000000000000e+00" cType="1" res="1.7721122130751610e-03" rms="4.6191808581352234e-01" purity="5.6834560632705688e-01" nType="-99"/>
          <Node pos="r" depth="2" NCoef="0" IVar="-1" Cut="0.0000000000000000e+00" cType="1" res="-1.8861835123971105e-03" rms="4.6355316042900085e-01" purity="4.1166880726814270e-01" nType="-99"/>
        </Node>
      </Node>
    </BinaryTree>
    <BinaryTree type="DecisionTree" boostWeight="1.0000000000000000e+00" itree="158">
      <Node pos="s" depth="0" NCoef="0" IVar="5" Cut="7.8983552753925323e-02" cType="1" res="-3.6575621925294399e-03" rms="4.6442842483520508e-01" purity="4.9907860159873962e-01" nType="0">
        <Node pos="l" depth="1" NCoef="0" IVar="9" Cut="7.4432983398437500e+02" cType="1" res="-3.6664314568042755e-02" rms="4.6138098835945129e-01" purity="4.2545542120933533e-01" nType="0">
          <Node pos="l" depth="2" NCoef="0" IVar="-1" Cut="0.0000000000000000e+00" cType="1" res="-3.3263335935771465e-03" rms="4.4819840788841248e-01" purity="3.5582840442657471e-01" nType="-99"/>
          <Node pos="r" depth="2" NCoef="0" IVar="-1" Cut="0.0000000000000000e+00" cType="1" res="-9.8507938673719764e-05" rms="4.6859368681907654e-01" purity="4.7998884320259094e-01" nType="-99"/>
        </Node>
        <Node pos="r" depth="1" NCoef="0" IVar="2" Cut="9.1205412149429321e-01" cType="1" res="2.6353027671575546e-02" rms="4.6515354514122009e-01" purity="5.6601864099502563e-01" nType="0">
          <Node pos="l" depth="2" NCoef="0" IVar="-1" Cut="0.0000000000000000e+00" cType="1" res="3.0285448301583529e-03" rms="4.4744881987571716e-01" purity="6.8965923786163330e-01" nType="-99"/>
          <Node pos="r" depth="2" NCoef="0" IVar="-1" Cut="0.0000000000000000e+00" cType="1" res="2.1854812075616792e-06" rms="4.7521391510963440e-01" purity="4.8066326975822449e-01" nType="-99"/>
        </Node>
      </Node>
    </BinaryTree>
    <BinaryTree type="DecisionTree" boostWeight="1.0000000000000000e+00" itree="159">
      <Node pos="s" depth="0" NCoef="0" IVar="5" Cut="1.0277863591909409e-01" cType="1" res="2.9613100923597813e-03" rms="4.6457839012145996e-01" purity="5.0778269767761230e-01" nType="0">
        <Node pos="l" depth="1" NCoef="0" IVar="3" Cut="2.6578099727630615e+00" cType="1" res="-2.4909716099500656e-02" rms="4.6589583158493042e-01" purity="4.4910031557083130e-01" nType="0">
          <Node pos="l" depth="2" NCoef="0" IVar="-1" Cut="0.0000000000000000e+00" cType="1" res="-5.8886047918349504e-04" rms="4.7508227825164795e-01" purity="4.8327979445457458e-01" nType="-99"/>
          <Node pos="r" depth="2" NCoef="0" IVar="-1" Cut="0.0000000000000000e+00" cType="1" res="-4.7432249411940575e-03" rms="3.7850463390350342e-01" purity="1.8806944787502289e-01" nType="-99"/>
        </Node>
        <Node pos="r" depth="1" NCoef="0" IVar="9" Cut="5.3914031982421875e+02" cType="1" res="4.6447884291410446e-02" rms="4.5914846658706665e-01" purity="5.9934359788894653e-01" nType="0">
          <Node pos="l" depth="2" NCoef="0" IVar="-1" Cut="0.0000000000000000e+00" cType="1" res="-8.9352251961827278e-04" rms="4.6239838004112244e-01" purity="5.0368541479110718e-01" nType="-99"/>
          <Node pos="r" depth="2" NCoef="0" IVar="-1" Cut="0.0000000000000000e+00" cType="1" res="3.2004995737224817e-03" rms="4.5553550124168396e-01" purity="6.3374793529510498e-01" nType="-99"/>
        </Node>
      </Node>
    </BinaryTree>
    <BinaryTree type="DecisionTree" boostWeight="1.0000000000000000e+00" itree="160">
      <Node pos="s" depth="0" NCoef="0" IVar="7" Cut="9.6062111854553223e-01" cType="1" res="-7.3898034170269966e-03" rms="4.6687012910842896e-01" purity="4.9827367067337036e-01" nType="0">
        <Node pos="l" depth="1" NCoef="0" IVar="2" Cut="6.6515731811523438e-01" cType="1" res="-3.1489405781030655e-02" rms="4.6764707565307617e-01" purity="4.2688533663749695e-01" nType="0">
          <Node pos="l" depth="2" NCoef="0" IVar="-1" Cut="0.0000000000000000e+00" cType="1" res="2.2829300723969936e-03" rms="4.6721741557121277e-01" purity="6.4077323675155640e-01" nType="-99"/>
          <Node pos="r" depth="2" NCoef="0" IVar="-1" Cut="0.0000000000000000e+00" cType="1" res="-1.6354878898710012e-03" rms="4.6680113673210144e-01" purity="4.0380221605300903e-01" nType="-99"/>
        </Node>
        <Node pos="r" depth="1" NCoef="0" IVar="4" Cut="6.5990951538085938e+01" cType="1" res="3.5696711391210556e-02" rms="4.6235787868499756e-01" purity="6.2590533494949341e-01" nType="0">
          <Node pos="l" depth="2" NCoef="0" IVar="-1" Cut="0.0000000000000000e+00" cType="1" res="-6.9843279197812080e-04" rms="4.7665265202522278e-01" purity="5.5561971664428711e-01" nType="-99"/>
          <Node pos="r" depth="2" NCoef="0" IVar="-1" Cut="0.0000000000000000e+00" cType="1" res="3.3824685961008072e-03" rms="4.4902443885803223e-01" purity="6.7388516664505005e-01" nType="-99"/>
        </Node>
      </Node>
    </BinaryTree>
    <BinaryTree type="DecisionTree" boostWeight="1.0000000000000000e+00" itree="161">
      <Node pos="s" depth="0" NCoef="0" IVar="9" Cut="6.5688519287109375e+02" cType="1" res="-1.0163350962102413e-02" rms="4.6423608064651489e-01" purity="4.9150568246841431e-01" nType="0">
        <Node pos="l" depth="1" NCoef="0" IVar="6" Cut="7.6729804992675781e+01" cType="1" res="-4.5930359512567520e-02" rms="4.5713403820991516e-01" purity="4.3841528892517090e-01" nType="0">
          <Node pos="l" depth="2" NCoef="0" IVar="-1" Cut="0.0000000000000000e+00" cType="1" res="-1.7973089416045696e-04" rms="4.5977124571800232e-01" purity="4.8948422074317932e-01" nType="-99"/>
          <Node pos="r" depth="2" NCoef="0" IVar="-1" Cut="0.0000000000000000e+00" cType="1" res="-3.8159261457622051e-03" rms="4.4976937770843506e-01" purity="3.8227665424346924e-01" nType="-99"/>
        </Node>
        <Node pos="r" depth="1" NCoef="0" IVar="1" Cut="4.5930056762695312e+02" cType="1" res="1.4146757312119007e-02" rms="4.6744221448898315e-01" purity="5.2759015560150146e-01" nType="0">
          <Node pos="l" depth="2" NCoef="0" IVar="-1" Cut="0.0000000000000000e+00" cType="1" res="1.1188385542482138e-03" rms="4.6810993552207947e-01" purity="5.4936510324478149e-01" nType="-99"/>
          <Node pos="r" depth="2" NCoef="0" IVar="-1" Cut="0.0000000000000000e+00" cType="1" res="-3.5506831482052803e-03" rms="4.4867914915084839e-01" purity="3.3436098694801331e-01" nType="-99"/>
        </Node>
      </Node>
    </BinaryTree>
    <BinaryTree type="DecisionTree" boostWeight="1.0000000000000000e+00" itree="162">
      <Node pos="s" depth="0" NCoef="0" IVar="2" Cut="6.4445102214813232e-01" cType="1" res="-1.0212175548076630e-03" rms="4.6583059430122375e-01" purity="5.0310122966766357e-01" nType="0">
        <Node pos="l" depth="1" NCoef="0" IVar="-1" Cut="0.0000000000000000e+00" cType="1" res="4.1848393157124519e-03" rms="4.3410444259643555e-01" purity="7.2267854213714600e-01" nType="-99"/>
        <Node pos="r" depth="1" NCoef="0" IVar="7" Cut="9.5298516750335693e-01" cType="1" res="-1.0402079671621323e-02" rms="4.6808183193206787e-01" purity="4.7986122965812683e-01" nType="0">
          <Node pos="l" depth="2" NCoef="0" IVar="-1" Cut="0.0000000000000000e+00" cType="1" res="-1.4756184536963701e-03" rms="4.6327126026153564e-01" purity="3.8657748699188232e-01" nType="-99"/>
          <Node pos="r" depth="2" NCoef="0" IVar="-1" Cut="0.0000000000000000e+00" cType="1" res="8.2814641064032912e-04" rms="4.7164449095726013e-01" purity="5.8239799737930298e-01" nType="-99"/>
        </Node>
      </Node>
    </BinaryTree>
    <BinaryTree type="DecisionTree" boostWeight="1.0000000000000000e+00" itree="163">
      <Node pos="s" depth="0" NCoef="0" IVar="1" Cut="4.1416842651367188e+02" cType="1" res="-3.6314540921011940e-06" rms="4.6539863944053650e-01" purity="5.0211364030838013e-01" nType="0">
        <Node pos="l" depth="1" NCoef="0" IVar="1" Cut="6.9170989990234375e+01" cType="1" res="1.0694160126149654e-02" rms="4.6596109867095947e-01" purity="5.2104544639587402e-01" nType="0">
          <Node pos="l" depth="2" NCoef="0" IVar="-1" Cut="0.0000000000000000e+00" cType="1" res="-3.6618518643081188e-03" rms="4.6029484272003174e-01" purity="3.9256882667541504e-01" nType="-99"/>
          <Node pos="r" depth="2" NCoef="0" IVar="-1" Cut="0.0000000000000000e+00" cType="1" res="9.7796658519655466e-04" rms="4.6523043513298035e-01" purity="5.3622126579284668e-01" nType="-99"/>
        </Node>
        <Node pos="r" depth="1" NCoef="0" IVar="-1" Cut="0.0000000000000000e+00" cType="1" res="-4.4661480933427811e-03" rms="4.4514760375022888e-01" purity="3.0886811017990112e-01" nType="-99"/>
      </Node>
    </BinaryTree>
    <BinaryTree type="DecisionTree" boostWeight="1.0000000000000000e+00" itree="164">
      <Node pos="s" depth="0" NCoef="0" IVar="0" Cut="8.3402090072631836e+00" cType="1" res="-6.2092551961541176e-03" rms="4.6344497799873352e-01" purity="4.9610114097595215e-01" nType="0">
        <Node pos="l" depth="1" NCoef="0" IVar="5" Cut="1.1350976675748825e-01" cType="1" res="-2.4285722523927689e-02" rms="4.6658572554588318e-01" purity="4.5212101936340332e-01" nType="0">
          <Node pos="l" depth="2" NCoef="0" IVar="-1" Cut="0.0000000000000000e+00" cType="1" res="-1.8133820267394185e-03" rms="4.6178582310676575e-01" purity="4.0350928902626038e-01" nType="-99"/>
          <Node pos="r" depth="2" NCoef="0" IVar="-1" Cut="0.0000000000000000e+00" cType="1" res="6.9512875052168965e-04" rms="4.7362920641899109e-01" purity="5.5093002319335938e-01" nType="-99"/>
        </Node>
        <Node pos="r" depth="1" NCoef="0" IVar="4" Cut="5.6282833099365234e+01" cType="1" res="6.8768471479415894e-02" rms="4.4236692786216736e-01" purity="6.7852258682250977e-01" nType="0">
          <Node pos="l" depth="2" NCoef="0" IVar="-1" Cut="0.0000000000000000e+00" cType="1" res="-3.1349126948043704e-04" rms="4.6352192759513855e-01" purity="5.6751555204391479e-01" nType="-99"/>
          <Node pos="r" depth="2" NCoef="0" IVar="-1" Cut="0.0000000000000000e+00" cType="1" res="4.9241231754422188e-03" rms="4.3044045567512512e-01" purity="7.2119534015655518e-01" nType="-99"/>
        </Node>
      </Node>
    </BinaryTree>
    <BinaryTree type="DecisionTree" boostWeight="1.0000000000000000e+00" itree="165">
      <Node pos="s" depth="0" NCoef="0" IVar="1" Cut="2.3831756591796875e+02" cType="1" res="-8.8221346959471703e-03" rms="4.6435418725013733e-01" purity="4.9485933780670166e-01" nType="0">
        <Node pos="l" depth="1" NCoef="0" IVar="4" Cut="5.0486186981201172e+01" cType="1" res="1.3923765160143375e-02" rms="4.6486121416091919e-01" purity="5.3575068712234497e-01" nType="0">
          <Node pos="l" depth="2" NCoef="0" IVar="-1" Cut="0.0000000000000000e+00" cType="1" res="-2.2274253424257040e-03" rms="4.6948873996734619e-01" purity="4.2826995253562927e-01" nType="-99"/>
          <Node pos="r" depth="2" NCoef="0" IVar="-1" Cut="0.0000000000000000e+00" cType="1" res="1.6928403638303280e-03" rms="4.6076884865760803e-01" purity="5.7420253753662109e-01" nType="-99"/>
        </Node>
        <Node pos="r" depth="1" NCoef="0" IVar="4" Cut="1.2962001037597656e+02" cType="1" res="-7.2604522109031677e-02" rms="4.5692965388298035e-01" purity="3.8019475340843201e-01" nType="0">
          <Node pos="l" depth="2" NCoef="0" IVar="-1" Cut="0.0000000000000000e+00" cType="1" res="-2.2917890455573797e-03" rms="4.5682334899902344e-01" purity="4.0127092599868774e-01" nType="-99"/>
          <Node pos="r" depth="2" NCoef="0" IVar="-1" Cut="0.0000000000000000e+00" cType="1" res="-5.2674324251711369e-03" rms="4.5253506302833557e-01" purity="3.1121537089347839e-01" nType="-99"/>
        </Node>
      </Node>
    </BinaryTree>
    <BinaryTree type="DecisionTree" boostWeight="1.0000000000000000e+00" itree="166">
      <Node pos="s" depth="0" NCoef="0" IVar="4" Cut="5.2400920867919922e+01" cType="1" res="-5.3805545903742313e-03" rms="4.6452739834785461e-01" purity="4.9755239486694336e-01" nType="0">
        <Node pos="l" depth="1" NCoef="0" IVar="2" Cut="1.3112525939941406e+00" cType="1" res="-5.5014036595821381e-02" rms="4.6229505538940430e-01" purity="4.1449627280235291e-01" nType="0">
          <Node pos="l" depth="2" NCoef="0" IVar="-1" Cut="0.0000000000000000e+00" cType="1" res="-1.2484521139413118e-03" rms="4.8141643404960632e-01" purity="4.8688185214996338e-01" nType="-99"/>
          <Node pos="r" depth="2" NCoef="0" IVar="-1" Cut="0.0000000000000000e+00" cType="1" res="-5.0921789370477200e-03" rms="3.9954221248626709e-01" purity="2.2172702848911285e-01" nType="-99"/>
        </Node>
        <Node pos="r" depth="1" NCoef="0" IVar="4" Cut="1.4637889099121094e+02" cType="1" res="1.1820314452052116e-02" rms="4.6406155824661255e-01" purity="5.2633613348007202e-01" nType="0">
          <Node pos="l" depth="2" NCoef="0" IVar="-1" Cut="0.0000000000000000e+00" cType="1" res="9.8561041522771120e-04" rms="4.6396452188491821e-01" purity="5.4276371002197266e-01" nType="-99"/>
          <Node pos="r" depth="2" NCoef="0" IVar="-1" Cut="0.0000000000000000e+00" cType="1" res="-3.6988956853747368e-03" rms="4.5292061567306519e-01" purity="3.7381073832511902e-01" nType="-99"/>
        </Node>
      </Node>
    </BinaryTree>
    <BinaryTree type="DecisionTree" boostWeight="1.0000000000000000e+00" itree="167">
      <Node pos="s" depth="0" NCoef="0" IVar="2" Cut="1.5386021137237549e+00" cType="1" res="3.2073508482426405e-03" rms="4.6481296420097351e-01" purity="5.0817519426345825e-01" nType="0">
        <Node pos="l" depth="1" NCoef="0" IVar="0" Cut="8.1114301681518555e+00" cType="1" res="1.4734865166246891e-02" rms="4.6961179375648499e-01" purity="5.4414832592010498e-01" nType="0">
          <Node pos="l" depth="2" NCoef="0" IVar="-1" Cut="0.0000000000000000e+00" cType="1" res="-2.3878328647697344e-05" rms="4.7618803381919861e-01" purity="4.9799716472625732e-01" nType="-99"/>
          <Node pos="r" depth="2" NCoef="0" IVar="-1" Cut="0.0000000000000000e+00" cType="1" res="3.0830479227006435e-03" rms="4.4494777917861938e-01" purity="6.8894392251968384e-01" nType="-99"/>
        </Node>
        <Node pos="r" depth="1" NCoef="0" IVar="4" Cut="8.1182945251464844e+01" cType="1" res="-7.5404725968837738e-02" rms="4.2235687375068665e-01" purity="2.6285573840141296e-01" nType="0">
          <Node pos="l" depth="2" NCoef="0" IVar="-1" Cut="0.0000000000000000e+00" cType="1" res="-4.6249153092503548e-03" rms="3.9586856961250305e-01" purity="2.1208436787128448e-01" nType="-99"/>
          <Node pos="r" depth="2" NCoef="0" IVar="-1" Cut="0.0000000000000000e+00" cType="1" res="-1.8743241671472788e-03" rms="4.4173884391784668e-01" purity="3.0686092376708984e-01" nType="-99"/>
        </Node>
      </Node>
    </BinaryTree>
    <BinaryTree type="DecisionTree" boostWeight="1.0000000000000000e+00" itree="168">
      <Node pos="s" depth="0" NCoef="0" IVar="4" Cut="9.5609748840332031e+01" cType="1" res="-1.2016417458653450e-02" rms="4.6596270799636841e-01" purity="4.9262887239456177e-01" nType="0">
        <Node pos="l" depth="1" NCoef="0" IVar="8" Cut="1.3796491622924805e+00" cType="1" res="-3.3970016986131668e-02" rms="4.6693316102027893e-01" purity="4.6837773919105530e-01" nType="0">
          <Node pos="l" depth="2" NCoef="0" IVar="-1" Cut="0.0000000000000000e+00" cType="1" res="-6.2825798522680998e-04" rms="4.7435995936393738e-01" purity="5.2682679891586304e-01" nType="-99"/>
          <Node pos="r" depth="2" NCoef="0" IVar="-1" Cut="0.0000000000000000e+00" cType="1" res="-3.3069006167352200e-03" rms="4.4565907120704651e-01" purity="3.3036291599273682e-01" nType="-99"/>
        </Node>
        <Node pos="r" depth="1" NCoef="0" IVar="4" Cut="1.5040118408203125e+02" cType="1" res="3.0831363052129745e-02" rms="4.6106144785881042e-01" purity="5.3996086120605469e-01" nType="0">
          <Node pos="l" depth="2" NCoef="0" IVar="-1" Cut="0.0000000000000000e+00" cType="1" res="2.4787660222500563e-03" rms="4.5853960514068604e-01" purity="5.7928663492202759e-01" nType="-99"/>
          <Node pos="r" depth="2" NCoef="0" IVar="-1" Cut="0.0000000000000000e+00" cType="1" res="-2.8362218290567398e-03" rms="4.5762243866920471e-01" purity="3.8378602266311646e-01" nType="-99"/>
        </Node>
      </Node>
    </BinaryTree>
    <BinaryTree type="DecisionTree" boostWeight="1.0000000000000000e+00" itree="169">
      <Node pos="s" depth="0" NCoef="0" IVar="1" Cut="1.8538905334472656e+02" cType="1" res="-7.5794337317347527e-03" rms="4.6504735946655273e-01" purity="4.9421992897987366e-01" nType="0">
        <Node pos="l" depth="1" NCoef="0" IVar="1" Cut="7.7923721313476562e+01" cType="1" res="1.4873069711029530e-02" rms="4.6414530277252197e-01" purity="5.3880733251571655e-01" nType="0">
          <Node pos="l" depth="2" NCoef="0" IVar="-1" Cut="0.0000000000000000e+00" cType="1" res="-2.9300912283360958e-03" rms="4.6116995811462402e-01" purity="4.1190800070762634e-01" nType="-99"/>
          <Node pos="r" depth="2" NCoef="0" IVar="-1" Cut="0.0000000000000000e+00" cType="1" res="1.5853601507842541e-03" rms="4.6247243881225586e-01" purity="5.7011568546295166e-01" nType="-99"/>
        </Node>
        <Node pos="r" depth="1" NCoef="0" IVar="0" Cut="8.4575967788696289e+00" cType="1" res="-4.4961299747228622e-02" rms="4.6414208412170410e-01" purity="4.1998490691184998e-01" nType="0">
          <Node pos="l" depth="2" NCoef="0" IVar="-1" Cut="0.0000000000000000e+00" cType="1" res="-2.5021450128406286e-03" rms="4.6201673150062561e-01" purity="3.8255837559700012e-01" nType="-99"/>
          <Node pos="r" depth="2" NCoef="0" IVar="-1" Cut="0.0000000000000000e+00" cType="1" res="1.3077581534162164e-03" rms="4.6722528338432312e-01" purity="6.0050070285797119e-01" nType="-99"/>
        </Node>
      </Node>
    </BinaryTree>
    <BinaryTree type="DecisionTree" boostWeight="1.0000000000000000e+00" itree="170">
      <Node pos="s" depth="0" NCoef="0" IVar="1" Cut="7.6056823730468750e+01" cType="1" res="-1.5518945874646306e-03" rms="4.6401640772819519e-01" purity="5.0392568111419678e-01" nType="0">
        <Node pos="l" depth="1" NCoef="0" IVar="1" Cut="5.6397285461425781e+01" cType="1" res="-7.9533182084560394e-02" rms="4.6023008227348328e-01" purity="4.0405124425888062e-01" nType="0">
          <Node pos="l" depth="2" NCoef="0" IVar="-1" Cut="0.0000000000000000e+00" cType="1" res="-5.7575800456106663e-03" rms="4.3967178463935852e-01" purity="3.1777712702751160e-01" nType="-99"/>
          <Node pos="r" depth="2" NCoef="0" IVar="-1" Cut="0.0000000000000000e+00" cType="1" res="-1.1006304994225502e-03" rms="4.7090983390808105e-01" purity="4.7849237918853760e-01" nType="-99"/>
        </Node>
        <Node pos="r" depth="1" NCoef="0" IVar="1" Cut="4.5597903442382812e+02" cType="1" res="8.9278761297464371e-03" rms="4.6352395415306091e-01" purity="5.1734763383865356e-01" nType="0">
          <Node pos="l" depth="2" NCoef="0" IVar="-1" Cut="0.0000000000000000e+00" cType="1" res="8.2488200860098004e-04" rms="4.6385845541954041e-01" purity="5.3636842966079712e-01" nType="-99"/>
          <Node pos="r" depth="2" NCoef="0" IVar="-1" Cut="0.0000000000000000e+00" cType="1" res="-4.4123856350779533e-03" rms="4.4355922937393188e-01" purity="2.9937350749969482e-01" nType="-99"/>
        </Node>
      </Node>
    </BinaryTree>
    <BinaryTree type="DecisionTree" boostWeight="1.0000000000000000e+00" itree="171">
      <Node pos="s" depth="0" NCoef="0" IVar="0" Cut="7.4561476707458496e+00" cType="1" res="8.7697553681209683e-04" rms="4.6216571331024170e-01" purity="5.0447487831115723e-01" nType="0">
        <Node pos="l" depth="1" NCoef="0" IVar="9" Cut="5.2862799072265625e+02" cType="1" res="-2.6496224105358124e-02" rms="4.6563878655433655e-01" purity="4.1973575949668884e-01" nType="0">
          <Node pos="l" depth="2" NCoef="0" IVar="-1" Cut="0.0000000000000000e+00" cType="1" res="-3.6494140513241291e-03" rms="4.4254881143569946e-01" purity="3.3775478601455688e-01" nType="-99"/>
          <Node pos="r" depth="2" NCoef="0" IVar="-1" Cut="0.0000000000000000e+00" cType="1" res="-4.6558721805922687e-04" rms="4.6966373920440674e-01" purity="4.3918314576148987e-01" nType="-99"/>
        </Node>
        <Node pos="r" depth="1" NCoef="0" IVar="1" Cut="8.9205986022949219e+01" cType="1" res="4.5679993927478790e-02" rms="4.5286783576011658e-01" purity="6.4317148923873901e-01" nType="0">
          <Node pos="l" depth="2" NCoef="0" IVar="-1" Cut="0.0000000000000000e+00" cType="1" res="-2.2866795770823956e-03" rms="4.6927064657211304e-01" purity="5.2254456281661987e-01" nType="-99"/>
          <Node pos="r" depth="2" NCoef="0" IVar="-1" Cut="0.0000000000000000e+00" cType="1" res="3.0630854889750481e-03" rms="4.4728490710258484e-01" purity="6.6635590791702271e-01" nType="-99"/>
        </Node>
      </Node>
    </BinaryTree>
    <BinaryTree type="DecisionTree" boostWeight="1.0000000000000000e+00" itree="172">
      <Node pos="s" depth="0" NCoef="0" IVar="2" Cut="1.5413017272949219e+00" cType="1" res="-1.0464601655257866e-04" rms="4.6419197320938110e-01" purity="5.0284475088119507e-01" nType="0">
        <Node pos="l" depth="1" NCoef="0" IVar="4" Cut="8.9712432861328125e+01" cType="1" res="1.0786600410938263e-02" rms="4.6973761916160583e-01" purity="5.3822910785675049e-01" nType="0">
          <Node pos="l" depth="2" NCoef="0" IVar="-1" Cut="0.0000000000000000e+00" cType="1" res="-5.0401734188199043e-04" rms="4.7421333193778992e-01" purity="5.0907987356185913e-01" nType="-99"/>
          <Node pos="r" depth="2" NCoef="0" IVar="-1" Cut="0.0000000000000000e+00" cType="1" res="2.2020470350980759e-03" rms="4.5957559347152710e-01" purity="5.8737665414810181e-01" nType="-99"/>
        </Node>
        <Node pos="r" depth="1" NCoef="0" IVar="9" Cut="6.7041290283203125e+02" cType="1" res="-7.3561199009418488e-02" rms="4.1754829883575439e-01" purity="2.6419290900230408e-01" nType="0">
          <Node pos="l" depth="2" NCoef="0" IVar="-1" Cut="0.0000000000000000e+00" cType="1" res="-4.8943497240543365e-03" rms="3.8289743661880493e-01" purity="2.0332758128643036e-01" nType="-99"/>
          <Node pos="r" depth="2" NCoef="0" IVar="-1" Cut="0.0000000000000000e+00" cType="1" res="-1.6396302962675691e-03" rms="4.4156119227409363e-01" purity="3.1504410505294800e-01" nType="-99"/>
        </Node>
      </Node>
    </BinaryTree>
    <BinaryTree type="DecisionTree" boostWeight="1.0000000000000000e+00" itree="173">
      <Node pos="s" depth="0" NCoef="0" IVar="7" Cut="9.4055563211441040e-01" cType="1" res="-6.4099772134795785e-04" rms="4.6295928955078125e-01" purity="5.0305569171905518e-01" nType="0">
        <Node pos="l" depth="1" NCoef="0" IVar="1" Cut="1.9645545959472656e+02" cType="1" res="-4.8729877918958664e-02" rms="4.5045164227485657e-01" purity="3.4812361001968384e-01" nType="0">
          <Node pos="l" depth="2" NCoef="0" IVar="-1" Cut="0.0000000000000000e+00" cType="1" res="-7.6552230166271329e-04" rms="4.6315616369247437e-01" purity="3.9906874299049377e-01" nType="-99"/>
          <Node pos="r" depth="2" NCoef="0" IVar="-1" Cut="0.0000000000000000e+00" cType="1" res="-3.8647246547043324e-03" rms="4.2471152544021606e-01" purity="2.6546964049339294e-01" nType="-99"/>
        </Node>
        <Node pos="r" depth="1" NCoef="0" IVar="4" Cut="6.4144165039062500e+01" cType="1" res="2.1318892017006874e-02" rms="4.6691551804542542e-01" purity="5.7380568981170654e-01" nType="0">
          <Node pos="l" depth="2" NCoef="0" IVar="-1" Cut="0.0000000000000000e+00" cType="1" res="-1.1063674464821815e-03" rms="4.7466680407524109e-01" purity="5.0600707530975342e-01" nType="-99"/>
          <Node pos="r" depth="2" NCoef="0" IVar="-1" Cut="0.0000000000000000e+00" cType="1" res="2.2794662509113550e-03" rms="4.5987251400947571e-01" purity="6.1468356847763062e-01" nType="-99"/>
        </Node>
      </Node>
    </BinaryTree>
    <BinaryTree type="DecisionTree" boostWeight="1.0000000000000000e+00" itree="174">
      <Node pos="s" depth="0" NCoef="0" IVar="8" Cut="1.6735565662384033e+00" cType="1" res="-9.7982920706272125e-03" rms="4.6233332157135010e-01" purity="4.9162250757217407e-01" nType="0">
        <Node pos="l" depth="1" NCoef="0" IVar="4" Cut="4.7987949371337891e+01" cType="1" res="7.6807760633528233e-03" rms="4.6810609102249146e-01" purity="5.4198276996612549e-01" nType="0">
          <Node pos="l" depth="2" NCoef="0" IVar="-1" Cut="0.0000000000000000e+00" cType="1" res="-2.6031290180981159e-03" rms="4.7254097461700439e-01" purity="4.3012586236000061e-01" nType="-99"/>
          <Node pos="r" depth="2" NCoef="0" IVar="-1" Cut="0.0000000000000000e+00" cType="1" res="1.1202585883438587e-03" rms="4.6526739001274109e-01" purity="5.7005095481872559e-01" nType="-99"/>
        </Node>
        <Node pos="r" depth="1" NCoef="0" IVar="7" Cut="9.3284422159194946e-01" cType="1" res="-7.0505805313587189e-02" rms="4.3629175424575806e-01" purity="3.1671339273452759e-01" nType="0">
          <Node pos="l" depth="2" NCoef="0" IVar="-1" Cut="0.0000000000000000e+00" cType="1" res="-4.8411223106086254e-03" rms="3.6843425035476685e-01" purity="1.7520894110202789e-01" nType="-99"/>
          <Node pos="r" depth="2" NCoef="0" IVar="-1" Cut="0.0000000000000000e+00" cType="1" res="-2.2280700504779816e-03" rms="4.5806244015693665e-01" purity="3.7015151977539062e-01" nType="-99"/>
        </Node>
      </Node>
    </BinaryTree>
    <BinaryTree type="DecisionTree" boostWeight="1.0000000000000000e+00" itree="175">
      <Node pos="s" depth="0" NCoef="0" IVar="4" Cut="1.5497607421875000e+02" cType="1" res="-2.6817689649760723e-03" rms="4.6469828486442566e-01" purity="5.0310641527175903e-01" nType="0">
        <Node pos="l" depth="1" NCoef="0" IVar="4" Cut="1.0030902099609375e+02" cType="1" res="4.9329437315464020e-03" rms="4.6547856926918030e-01" purity="5.1479917764663696e-01" nType="0">
          <Node pos="l" depth="2" NCoef="0" IVar="-1" Cut="0.0000000000000000e+00" cType="1" res="-5.0379731692373753e-04" rms="4.6668413281440735e-01" purity="4.9092558026313782e-01" nType="-99"/>
          <Node pos="r" depth="2" NCoef="0" IVar="-1" Cut="0.0000000000000000e+00" cType="1" res="2.3123631253838539e-03" rms="4.5884701609611511e-01" purity="5.8178138732910156e-01" nType="-99"/>
        </Node>
        <Node pos="r" depth="1" NCoef="0" IVar="-1" Cut="0.0000000000000000e+00" cType="1" res="-4.5304731465876102e-03" rms="4.3969339132308960e-01" purity="3.3807000517845154e-01" nType="-99"/>
      </Node>
    </BinaryTree>
    <BinaryTree type="DecisionTree" boostWeight="1.0000000000000000e+00" itree="176">
      <Node pos="s" depth="0" NCoef="0" IVar="5" Cut="1.5827842056751251e-01" cType="1" res="-4.0941541083157063e-03" rms="4.6353146433830261e-01" purity="4.9957710504531860e-01" nType="0">
        <Node pos="l" depth="1" NCoef="0" IVar="9" Cut="6.1548242187500000e+02" cType="1" res="-1.7890246585011482e-02" rms="4.6400314569473267e-01" purity="4.7065857052803040e-01" nType="0">
          <Node pos="l" depth="2" NCoef="0" IVar="-1" Cut="0.0000000000000000e+00" cType="1" res="-2.8731422498822212e-03" rms="4.4925987720489502e-01" purity="3.8490724563598633e-01" nType="-99"/>
          <Node pos="r" depth="2" NCoef="0" IVar="-1" Cut="0.0000000000000000e+00" cType="1" res="1.5842111315578222e-04" rms="4.6839651465415955e-01" purity="5.0674962997436523e-01" nType="-99"/>
        </Node>
        <Node pos="r" depth="1" NCoef="0" IVar="2" Cut="9.3053209781646729e-01" cType="1" res="6.0607798397541046e-02" rms="4.5577469468116760e-01" purity="6.3520157337188721e-01" nType="0">
          <Node pos="l" depth="2" NCoef="0" IVar="-1" Cut="0.0000000000000000e+00" cType="1" res="4.6019856818020344e-03" rms="4.2926982045173645e-01" purity="7.3157221078872681e-01" nType="-99"/>
          <Node pos="r" depth="2" NCoef="0" IVar="-1" Cut="0.0000000000000000e+00" cType="1" res="1.1351905995979905e-03" rms="4.7920769453048706e-01" purity="5.3577011823654175e-01" nType="-99"/>
        </Node>
      </Node>
    </BinaryTree>
    <BinaryTree type="DecisionTree" boostWeight="1.0000000000000000e+00" itree="177">
      <Node pos="s" depth="0" NCoef="0" IVar="3" Cut="2.6674795150756836e+00" cType="1" res="1.0347747243940830e-02" rms="4.6433869004249573e-01" purity="5.1536750793457031e-01" nType="0">
        <Node pos="l" depth="1" NCoef="0" IVar="4" Cut="5.7394443511962891e+01" cType="1" res="1.9090004265308380e-02" rms="4.6912324428558350e-01" purity="5.4228109121322632e-01" nType="0">
          <Node pos="l" depth="2" NCoef="0" IVar="-1" Cut="0.0000000000000000e+00" cType="1" res="-1.1371198343113065e-03" rms="4.7278863191604614e-01" purity="4.6613663434982300e-01" nType="-99"/>
          <Node pos="r" depth="2" NCoef="0" IVar="-1" Cut="0.0000000000000000e+00" cType="1" res="1.8025577301159501e-03" rms="4.6582552790641785e-01" purity="5.7783681154251099e-01" nType="-99"/>
        </Node>
        <Node pos="r" depth="1" NCoef="0" IVar="-1" Cut="0.0000000000000000e+00" cType="1" res="-4.0121702477335930e-03" rms="3.9156296849250793e-01" purity="2.0611219108104706e-01" nType="-99"/>
      </Node>
    </BinaryTree>
    <BinaryTree type="DecisionTree" boostWeight="1.0000000000000000e+00" itree="178">
      <Node pos="s" depth="0" NCoef="0" IVar="4" Cut="3.9310810089111328e+01" cType="1" res="-3.2473632600158453e-03" rms="4.6612301468849182e-01" purity="4.9967944622039795e-01" nType="0">
        <Node pos="l" depth="1" NCoef="0" IVar="-1" Cut="0.0000000000000000e+00" cType="1" res="-3.7123607471585274e-03" rms="4.6044629812240601e-01" purity="3.6776503920555115e-01" nType="-99"/>
        <Node pos="r" depth="1" NCoef="0" IVar="1" Cut="2.7526806640625000e+02" cType="1" res="6.9725946523249149e-03" rms="4.6571242809295654e-01" purity="5.1510494947433472e-01" nType="0">
          <Node pos="l" depth="2" NCoef="0" IVar="-1" Cut="0.0000000000000000e+00" cType="1" res="1.0033340658992529e-03" rms="4.6677058935165405e-01" purity="5.4788213968276978e-01" nType="-99"/>
          <Node pos="r" depth="2" NCoef="0" IVar="-1" Cut="0.0000000000000000e+00" cType="1" res="-2.1598953753709793e-03" rms="4.5724758505821228e-01" purity="3.9622798562049866e-01" nType="-99"/>
        </Node>
      </Node>
    </BinaryTree>
    <BinaryTree type="DecisionTree" boostWeight="1.0000000000000000e+00" itree="179">
      <Node pos="s" depth="0" NCoef="0" IVar="1" Cut="1.6521252441406250e+02" cType="1" res="-1.6979315550997853e-03" rms="4.6408882737159729e-01" purity="5.0200599431991577e-01" nType="0">
        <Node pos="l" depth="1" NCoef="0" IVar="1" Cut="7.6875793457031250e+01" cType="1" res="2.0772449672222137e-02" rms="4.6298095583915710e-01" purity="5.4934585094451904e-01" nType="0">
          <Node pos="l" depth="2" NCoef="0" IVar="-1" Cut="0.0000000000000000e+00" cType="1" res="-2.9132331255823374e-03" rms="4.6291950345039368e-01" purity="4.0831470489501953e-01" nType="-99"/>
          <Node pos="r" depth="2" NCoef="0" IVar="-1" Cut="0.0000000000000000e+00" cType="1" res="1.9711176864802837e-03" rms="4.6007898449897766e-01" purity="5.8641713857650757e-01" nType="-99"/>
        </Node>
        <Node pos="r" depth="1" NCoef="0" IVar="3" Cut="2.1149132251739502e+00" cType="1" res="-3.0037829652428627e-02" rms="4.6393305063247681e-01" purity="4.4230046868324280e-01" nType="0">
          <Node pos="l" depth="2" NCoef="0" IVar="-1" Cut="0.0000000000000000e+00" cType="1" res="4.0132200228981674e-04" rms="4.7401812672615051e-01" purity="5.7997274398803711e-01" nType="-99"/>
          <Node pos="r" depth="2" NCoef="0" IVar="-1" Cut="0.0000000000000000e+00" cType="1" res="-2.2149742580950260e-03" rms="4.5639121532440186e-01" purity="3.6198779940605164e-01" nType="-99"/>
        </Node>
      </Node>
    </BinaryTree>
    <BinaryTree type="DecisionTree" boostWeight="1.0000000000000000e+00" itree="180">
      <Node pos="s" depth="0" NCoef="0" IVar="4" Cut="3.9310810089111328e+01" cType="1" res="-1.3790334574878216e-02" rms="4.6501198410987854e-01" purity="4.9068301916122437e-01" nType="0">
        <Node pos="l" depth="1" NCoef="0" IVar="9" Cut="5.9904162597656250e+02" cType="1" res="-9.9638402462005615e-02" rms="4.5130348205566406e-01" purity="3.5303828120231628e-01" nType="0">
          <Node pos="l" depth="2" NCoef="0" IVar="-1" Cut="0.0000000000000000e+00" cType="1" res="-3.9428779855370522e-03" rms="4.4657111167907715e-01" purity="3.5434797406196594e-01" nType="-99"/>
          <Node pos="r" depth="2" NCoef="0" IVar="-1" Cut="0.0000000000000000e+00" cType="1" res="-4.1155791841447353e-03" rms="4.5577096939086914e-01" purity="3.5177943110466003e-01" nType="-99"/>
        </Node>
        <Node pos="r" depth="1" NCoef="0" IVar="3" Cut="2.2195756435394287e+00" cType="1" res="-3.5969426389783621e-03" rms="4.6556273102760315e-01" purity="5.0702661275863647e-01" nType="0">
          <Node pos="l" depth="2" NCoef="0" IVar="-1" Cut="0.0000000000000000e+00" cType="1" res="7.8103377018123865e-04" rms="4.6959799528121948e-01" purity="6.0023391246795654e-01" nType="-99"/>
          <Node pos="r" depth="2" NCoef="0" IVar="-1" Cut="0.0000000000000000e+00" cType="1" res="-1.4151969226077199e-03" rms="4.5811170339584351e-01" purity="3.7495023012161255e-01" nType="-99"/>
        </Node>
      </Node>
    </BinaryTree>
    <BinaryTree type="DecisionTree" boostWeight="1.0000000000000000e+00" itree="181">
      <Node pos="s" depth="0" NCoef="0" IVar="0" Cut="7.1130013465881348e+00" cType="1" res="-4.9272850155830383e-03" rms="4.6352550387382507e-01" purity="4.9819564819335938e-01" nType="0">
        <Node pos="l" depth="1" NCoef="0" IVar="1" Cut="2.4010459899902344e+02" cType="1" res="-3.0678097158670425e-02" rms="4.6554479002952576e-01" purity="4.0077099204063416e-01" nType="0">
          <Node pos="l" depth="2" NCoef="0" IVar="-1" Cut="0.0000000000000000e+00" cType="1" res="-5.5127026280388236e-04" rms="4.7156891226768494e-01" purity="4.3528738617897034e-01" nType="-99"/>
          <Node pos="r" depth="2" NCoef="0" IVar="-1" Cut="0.0000000000000000e+00" cType="1" res="-3.1316620297729969e-03" rms="4.4557228684425354e-01" purity="3.0730104446411133e-01" nType="-99"/>
        </Node>
        <Node pos="r" depth="1" NCoef="0" IVar="8" Cut="1.1979790925979614e+00" cType="1" res="2.4845387786626816e-02" rms="4.5938405394554138e-01" purity="6.1083638668060303e-01" nType="0">
          <Node pos="l" depth="2" NCoef="0" IVar="-1" Cut="0.0000000000000000e+00" cType="1" res="2.6595573872327805e-03" rms="4.4600439071655273e-01" purity="6.8379694223403931e-01" nType="-99"/>
          <Node pos="r" depth="2" NCoef="0" IVar="-1" Cut="0.0000000000000000e+00" cType="1" res="-1.1535037774592638e-03" rms="4.7737953066825867e-01" purity="4.8398697376251221e-01" nType="-99"/>
        </Node>
      </Node>
    </BinaryTree>
    <BinaryTree type="DecisionTree" boostWeight="1.0000000000000000e+00" itree="182">
      <Node pos="s" depth="0" NCoef="0" IVar="2" Cut="6.9446265697479248e-01" cType="1" res="-5.9160427190363407e-03" rms="4.6307390928268433e-01" purity="4.9790450930595398e-01" nType="0">
        <Node pos="l" depth="1" NCoef="0" IVar="0" Cut="7.1778779029846191e+00" cType="1" res="7.1224294602870941e-02" rms="4.3585994839668274e-01" purity="7.0782506465911865e-01" nType="0">
          <Node pos="l" depth="2" NCoef="0" IVar="-1" Cut="0.0000000000000000e+00" cType="1" res="1.7040233360603452e-03" rms="4.7866132855415344e-01" purity="6.0767018795013428e-01" nType="-99"/>
          <Node pos="r" depth="2" NCoef="0" IVar="-1" Cut="0.0000000000000000e+00" cType="1" res="5.6057935580611229e-03" rms="3.8881945610046387e-01" purity="8.0241608619689941e-01" nType="-99"/>
        </Node>
        <Node pos="r" depth="1" NCoef="0" IVar="4" Cut="4.7631355285644531e+01" cType="1" res="-1.6216779127717018e-02" rms="4.6562156081199646e-01" purity="4.6987327933311462e-01" nType="0">
          <Node pos="l" depth="2" NCoef="0" IVar="-1" Cut="0.0000000000000000e+00" cType="1" res="-2.7910044882446527e-03" rms="4.6195727586746216e-01" purity="3.7225270271301270e-01" nType="-99"/>
          <Node pos="r" depth="2" NCoef="0" IVar="-1" Cut="0.0000000000000000e+00" cType="1" res="-1.7547217430546880e-04" rms="4.6564701199531555e-01" purity="4.9275386333465576e-01" nType="-99"/>
        </Node>
      </Node>
    </BinaryTree>
    <BinaryTree type="DecisionTree" boostWeight="1.0000000000000000e+00" itree="183">
      <Node pos="s" depth="0" NCoef="0" IVar="4" Cut="9.6261680603027344e+01" cType="1" res="4.0059164166450500e-03" rms="4.6569409966468811e-01" purity="5.0886732339859009e-01" nType="0">
        <Node pos="l" depth="1" NCoef="0" IVar="5" Cut="1.5883858501911163e-01" cType="1" res="-1.4626327902078629e-02" rms="4.6842855215072632e-01" purity="4.8361068964004517e-01" nType="0">
          <Node pos="l" depth="2" NCoef="0" IVar="-1" Cut="0.0000000000000000e+00" cType="1" res="-1.2599009787663817e-03" rms="4.6742689609527588e-01" purity="4.5116746425628662e-01" nType="-99"/>
          <Node pos="r" depth="2" NCoef="0" IVar="-1" Cut="0.0000000000000000e+00" cType="1" res="2.2191968746483326e-03" rms="4.6721348166465759e-01" purity="6.2076103687286377e-01" nType="-99"/>
        </Node>
        <Node pos="r" depth="1" NCoef="0" IVar="4" Cut="1.4388032531738281e+02" cType="1" res="4.1221395134925842e-02" rms="4.5791992545127869e-01" purity="5.5931407213211060e-01" nType="0">
          <Node pos="l" depth="2" NCoef="0" IVar="-1" Cut="0.0000000000000000e+00" cType="1" res="3.3962293528020382e-03" rms="4.5097920298576355e-01" purity="6.1095172166824341e-01" nType="-99"/>
          <Node pos="r" depth="2" NCoef="0" IVar="-1" Cut="0.0000000000000000e+00" cType="1" res="-2.4155878927558661e-03" rms="4.6396014094352722e-01" purity="4.0693181753158569e-01" nType="-99"/>
        </Node>
      </Node>
    </BinaryTree>
    <BinaryTree type="DecisionTree" boostWeight="1.0000000000000000e+00" itree="184">
      <Node pos="s" depth="0" NCoef="0" IVar="2" Cut="1.3736089468002319e+00" cType="1" res="1.1811308795586228e-03" rms="4.6194165945053101e-01" purity="5.0597345829010010e-01" nType="0">
        <Node pos="l" depth="1" NCoef="0" IVar="0" Cut="8.1778059005737305e+00" cType="1" res="1.8046053126454353e-02" rms="4.6863359212875366e-01" purity="5.6758582592010498e-01" nType="0">
          <Node pos="l" depth="2" NCoef="0" IVar="-1" Cut="0.0000000000000000e+00" cType="1" res="7.6005497248843312e-05" rms="4.7777953743934631e-01" purity="5.2053701877593994e-01" nType="-99"/>
          <Node pos="r" depth="2" NCoef="0" IVar="-1" Cut="0.0000000000000000e+00" cType="1" res="3.6085746251046658e-03" rms="4.3336731195449829e-01" purity="7.2064864635467529e-01" nType="-99"/>
        </Node>
        <Node pos="r" depth="1" NCoef="0" IVar="3" Cut="2.6049265861511230e+00" cType="1" res="-5.2689008414745331e-02" rms="4.3553200364112854e-01" purity="3.0917030572891235e-01" nType="0">
          <Node pos="l" depth="2" NCoef="0" IVar="-1" Cut="0.0000000000000000e+00" cType="1" res="-1.1585642350837588e-03" rms="4.6189120411872864e-01" purity="3.7529224157333374e-01" nType="-99"/>
          <Node pos="r" depth="2" NCoef="0" IVar="-1" Cut="0.0000000000000000e+00" cType="1" res="-4.5490423217415810e-03" rms="3.7366309762001038e-01" purity="1.7899174988269806e-01" nType="-99"/>
        </Node>
      </Node>
    </BinaryTree>
    <BinaryTree type="DecisionTree" boostWeight="1.0000000000000000e+00" itree="185">
      <Node pos="s" depth="0" NCoef="0" IVar="5" Cut="1.4793208241462708e-01" cType="1" res="-7.2275483980774879e-03" rms="4.6448072791099548e-01" purity="4.9376502633094788e-01" nType="0">
        <Node pos="l" depth="1" NCoef="0" IVar="7" Cut="9.3172168731689453e-01" cType="1" res="-2.0245216786861420e-02" rms="4.6540454030036926e-01" purity="4.6146616339683533e-01" nType="0">
          <Node pos="l" depth="2" NCoef="0" IVar="-1" Cut="0.0000000000000000e+00" cType="1" res="-2.6950770989060402e-03" rms="4.3364214897155762e-01" purity="2.9278698563575745e-01" nType="-99"/>
          <Node pos="r" depth="2" NCoef="0" IVar="-1" Cut="0.0000000000000000e+00" cType="1" res="-3.0047775362618268e-04" rms="4.7332829236984253e-01" purity="5.1013273000717163e-01" nType="-99"/>
        </Node>
        <Node pos="r" depth="1" NCoef="0" IVar="4" Cut="8.7440513610839844e+01" cType="1" res="4.1150439530611038e-02" rms="4.5779871940612793e-01" purity="6.1379826068878174e-01" nType="0">
          <Node pos="l" depth="2" NCoef="0" IVar="-1" Cut="0.0000000000000000e+00" cType="1" res="7.1581976953893900e-04" rms="4.6921905875205994e-01" purity="5.8314728736877441e-01" nType="-99"/>
          <Node pos="r" depth="2" NCoef="0" IVar="-1" Cut="0.0000000000000000e+00" cType="1" res="4.4615655206143856e-03" rms="4.2861446738243103e-01" purity="6.7722821235656738e-01" nType="-99"/>
        </Node>
      </Node>
    </BinaryTree>
    <BinaryTree type="DecisionTree" boostWeight="1.0000000000000000e+00" itree="186">
      <Node pos="s" depth="0" NCoef="0" IVar="2" Cut="8.3269333839416504e-01" cType="1" res="-2.9817523900419474e-03" rms="4.6066218614578247e-01" purity="5.0037258863449097e-01" nType="0">
        <Node pos="l" depth="1" NCoef="0" IVar="4" Cut="5.1077003479003906e+01" cType="1" res="5.8321706950664520e-02" rms="4.4659695029258728e-01" purity="6.9036906957626343e-01" nType="0">
          <Node pos="l" depth="2" NCoef="0" IVar="-1" Cut="0.0000000000000000e+00" cType="1" res="2.0206504268571734e-04" rms="4.7999870777130127e-01" purity="5.8087414503097534e-01" nType="-99"/>
          <Node pos="r" depth="2" NCoef="0" IVar="-1" Cut="0.0000000000000000e+00" cType="1" res="3.9344076067209244e-03" rms="4.3179297447204590e-01" purity="7.3116004467010498e-01" nType="-99"/>
        </Node>
        <Node pos="r" depth="1" NCoef="0" IVar="4" Cut="4.7987949371337891e+01" cType="1" res="-2.0808728411793709e-02" rms="4.6315205097198486e-01" purity="4.4512185454368591e-01" nType="0">
          <Node pos="l" depth="2" NCoef="0" IVar="-1" Cut="0.0000000000000000e+00" cType="1" res="-3.5762609913945198e-03" rms="4.4041651487350464e-01" purity="3.3412104845046997e-01" nType="-99"/>
          <Node pos="r" depth="2" NCoef="0" IVar="-1" Cut="0.0000000000000000e+00" cType="1" res="-2.4784033303149045e-04" rms="4.6675470471382141e-01" purity="4.6987038850784302e-01" nType="-99"/>
        </Node>
      </Node>
    </BinaryTree>
    <BinaryTree type="DecisionTree" boostWeight="1.0000000000000000e+00" itree="187">
      <Node pos="s" depth="0" NCoef="0" IVar="1" Cut="2.9719113159179688e+02" cType="1" res="-7.2197564877569675e-03" rms="4.6359243988990784e-01" purity="4.9690097570419312e-01" nType="0">
        <Node pos="l" depth="1" NCoef="0" IVar="1" Cut="8.9279144287109375e+01" cType="1" res="5.8757811784744263e-03" rms="4.6458274126052856e-01" purity="5.2267330884933472e-01" nType="0">
          <Node pos="l" depth="2" NCoef="0" IVar="-1" Cut="0.0000000000000000e+00" cType="1" res="-2.6563340798020363e-03" rms="4.6440732479095459e-01" purity="4.2410570383071899e-01" nType="-99"/>
          <Node pos="r" depth="2" NCoef="0" IVar="-1" Cut="0.0000000000000000e+00" cType="1" res="1.0655211517587304e-03" rms="4.6289590001106262e-01" purity="5.4903852939605713e-01" nType="-99"/>
        </Node>
        <Node pos="r" depth="1" NCoef="0" IVar="1" Cut="4.4619998168945312e+02" cType="1" res="-6.6169828176498413e-02" rms="4.5445919036865234e-01" purity="3.8088598847389221e-01" nType="0">
          <Node pos="l" depth="2" NCoef="0" IVar="-1" Cut="0.0000000000000000e+00" cType="1" res="-1.5582272317260504e-03" rms="4.5984730124473572e-01" purity="4.3397673964500427e-01" nType="-99"/>
          <Node pos="r" depth="2" NCoef="0" IVar="-1" Cut="0.0000000000000000e+00" cType="1" res="-4.4325958006083965e-03" rms="4.4331949949264526e-01" purity="3.0613079667091370e-01" nType="-99"/>
        </Node>
      </Node>
    </BinaryTree>
    <BinaryTree type="DecisionTree" boostWeight="1.0000000000000000e+00" itree="188">
      <Node pos="s" depth="0" NCoef="0" IVar="3" Cut="2.4248697757720947e+00" cType="1" res="2.5095520541071892e-03" rms="4.6401447057723999e-01" purity="5.0560444593429565e-01" nType="0">
        <Node pos="l" depth="1" NCoef="0" IVar="6" Cut="7.5259880065917969e+01" cType="1" res="1.7067935317754745e-02" rms="4.7159007191658020e-01" purity="5.6510215997695923e-01" nType="0">
          <Node pos="l" depth="2" NCoef="0" IVar="-1" Cut="0.0000000000000000e+00" cType="1" res="2.3311579134315252e-03" rms="4.7050818800926208e-01" purity="6.0173702239990234e-01" nType="-99"/>
          <Node pos="r" depth="2" NCoef="0" IVar="-1" Cut="0.0000000000000000e+00" cType="1" res="-4.2024947470054030e-04" rms="4.7061684727668762e-01" purity="5.3777903318405151e-01" nType="-99"/>
        </Node>
        <Node pos="r" depth="1" NCoef="0" IVar="9" Cut="5.8037023925781250e+02" cType="1" res="-5.3322318941354752e-02" rms="4.2918246984481812e-01" purity="2.7742889523506165e-01" nType="0">
          <Node pos="l" depth="2" NCoef="0" IVar="-1" Cut="0.0000000000000000e+00" cType="1" res="-4.7929217107594013e-03" rms="3.9394345879554749e-01" purity="2.1359409391880035e-01" nType="-99"/>
          <Node pos="r" depth="2" NCoef="0" IVar="-1" Cut="0.0000000000000000e+00" cType="1" res="-1.1004154803231359e-03" rms="4.4234174489974976e-01" purity="3.0804648995399475e-01" nType="-99"/>
        </Node>
      </Node>
    </BinaryTree>
    <BinaryTree type="DecisionTree" boostWeight="1.0000000000000000e+00" itree="189">
      <Node pos="s" depth="0" NCoef="0" IVar="2" Cut="1.5856627225875854e+00" cType="1" res="-1.8893544329330325e-03" rms="4.6275052428245544e-01" purity="5.0017809867858887e-01" nType="0">
        <Node pos="l" depth="1" NCoef="0" IVar="0" Cut="8.4978570938110352e+00" cType="1" res="7.3386044241487980e-03" rms="4.6801877021789551e-01" purity="5.3198450803756714e-01" nType="0">
          <Node pos="l" depth="2" NCoef="0" IVar="-1" Cut="0.0000000000000000e+00" cType="1" res="-2.0197909907437861e-04" rms="4.7330889105796814e-01" purity="4.9644663929939270e-01" nType="-99"/>
          <Node pos="r" depth="2" NCoef="0" IVar="-1" Cut="0.0000000000000000e+00" cType="1" res="3.2711103558540344e-03" rms="4.3742787837982178e-01" purity="7.0100027322769165e-01" nType="-99"/>
        </Node>
        <Node pos="r" depth="1" NCoef="0" IVar="3" Cut="2.5639407634735107e+00" cType="1" res="-7.4198566377162933e-02" rms="4.1209053993225098e-01" purity="2.5094646215438843e-01" nType="0">
          <Node pos="l" depth="2" NCoef="0" IVar="-1" Cut="0.0000000000000000e+00" cType="1" res="-1.4580772258341312e-03" rms="4.5533999800682068e-01" purity="3.3875042200088501e-01" nType="-99"/>
          <Node pos="r" depth="2" NCoef="0" IVar="-1" Cut="0.0000000000000000e+00" cType="1" res="-4.9363984726369381e-03" rms="3.6109396815299988e-01" purity="1.6545835137367249e-01" nType="-99"/>
        </Node>
      </Node>
    </BinaryTree>
    <BinaryTree type="DecisionTree" boostWeight="1.0000000000000000e+00" itree="190">
      <Node pos="s" depth="0" NCoef="0" IVar="0" Cut="6.6911544799804688e+00" cType="1" res="5.5534299463033676e-04" rms="4.6014529466629028e-01" purity="5.0214707851409912e-01" nType="0">
        <Node pos="l" depth="1" NCoef="0" IVar="9" Cut="5.4253295898437500e+02" cType="1" res="-3.5914309322834015e-02" rms="4.5518928766250610e-01" purity="3.6966592073440552e-01" nType="0">
          <Node pos="l" depth="2" NCoef="0" IVar="-1" Cut="0.0000000000000000e+00" cType="1" res="-3.6284378729760647e-03" rms="4.2909225821495056e-01" purity="2.9320022463798523e-01" nType="-99"/>
          <Node pos="r" depth="2" NCoef="0" IVar="-1" Cut="0.0000000000000000e+00" cType="1" res="-8.2856370136141777e-04" rms="4.6097511053085327e-01" purity="3.9091852307319641e-01" nType="-99"/>
        </Node>
        <Node pos="r" depth="1" NCoef="0" IVar="6" Cut="7.6951065063476562e+01" cType="1" res="2.7458436787128448e-02" rms="4.6192556619644165e-01" purity="5.9987640380859375e-01" nType="0">
          <Node pos="l" depth="2" NCoef="0" IVar="-1" Cut="0.0000000000000000e+00" cType="1" res="2.9518888331949711e-03" rms="4.5371872186660767e-01" purity="6.3805061578750610e-01" nType="-99"/>
          <Node pos="r" depth="2" NCoef="0" IVar="-1" Cut="0.0000000000000000e+00" cType="1" res="-5.9947196859866381e-05" rms="4.6652474999427795e-01" purity="5.6880569458007812e-01" nType="-99"/>
        </Node>
      </Node>
    </BinaryTree>
    <BinaryTree type="DecisionTree" boostWeight="1.0000000000000000e+00" itree="191">
      <Node pos="s" depth="0" NCoef="0" IVar="4" Cut="3.8743186950683594e+01" cType="1" res="-2.4979356676340103e-03" rms="4.6237471699714661e-01" purity="4.9966675043106079e-01" nType="0">
        <Node pos="l" depth="1" NCoef="0" IVar="-1" Cut="0.0000000000000000e+00" cType="1" res="-3.6282290238887072e-03" rms="4.4999161362648010e-01" purity="3.5639390349388123e-01" nType="-99"/>
        <Node pos="r" depth="1" NCoef="0" IVar="4" Cut="1.4752142333984375e+02" cType="1" res="6.8197282962501049e-03" rms="4.6274757385253906e-01" purity="5.1525872945785522e-01" nType="0">
          <Node pos="l" depth="2" NCoef="0" IVar="-1" Cut="0.0000000000000000e+00" cType="1" res="7.4985565152019262e-04" rms="4.6293753385543823e-01" purity="5.3093814849853516e-01" nType="-99"/>
          <Node pos="r" depth="2" NCoef="0" IVar="-1" Cut="0.0000000000000000e+00" cType="1" res="-4.0888199582695961e-03" rms="4.4742968678474426e-01" purity="3.5449147224426270e-01" nType="-99"/>
        </Node>
      </Node>
    </BinaryTree>
    <BinaryTree type="DecisionTree" boostWeight="1.0000000000000000e+00" itree="192">
      <Node pos="s" depth="0" NCoef="0" IVar="7" Cut="9.2669725418090820e-01" cType="1" res="9.9349790252745152e-04" rms="4.6519005298614502e-01" purity="5.0701767206192017e-01" nType="0">
        <Node pos="l" depth="1" NCoef="0" IVar="0" Cut="5.4253349304199219e+00" cType="1" res="-5.7611830532550812e-02" rms="4.3925893306732178e-01" purity="3.0561161041259766e-01" nType="0">
          <Node pos="l" depth="2" NCoef="0" IVar="-1" Cut="0.0000000000000000e+00" cType="1" res="-3.3997974824160337e-03" rms="4.2132449150085449e-01" purity="2.6594829559326172e-01" nType="-99"/>
          <Node pos="r" depth="2" NCoef="0" IVar="-1" Cut="0.0000000000000000e+00" cType="1" res="-4.1309013613499701e-04" rms="4.6258419752120972e-01" purity="3.6907371878623962e-01" nType="-99"/>
        </Node>
        <Node pos="r" depth="1" NCoef="0" IVar="1" Cut="1.8691348266601562e+02" cType="1" res="1.2338510714471340e-02" rms="4.6919974684715271e-01" purity="5.4600650072097778e-01" nType="0">
          <Node pos="l" depth="2" NCoef="0" IVar="-1" Cut="0.0000000000000000e+00" cType="1" res="1.4778149779886007e-03" rms="4.6680739521980286e-01" purity="5.8636605739593506e-01" nType="-99"/>
          <Node pos="r" depth="2" NCoef="0" IVar="-1" Cut="0.0000000000000000e+00" cType="1" res="-1.0215727379545569e-03" rms="4.7123441100120544e-01" purity="4.7458040714263916e-01" nType="-99"/>
        </Node>
      </Node>
    </BinaryTree>
    <BinaryTree type="DecisionTree" boostWeight="1.0000000000000000e+00" itree="193">
      <Node pos="s" depth="0" NCoef="0" IVar="1" Cut="1.3882148742675781e+02" cType="1" res="-9.0481378138065338e-03" rms="4.6348276734352112e-01" purity="4.9554172158241272e-01" nType="0">
        <Node pos="l" depth="1" NCoef="0" IVar="1" Cut="1.0134757995605469e+02" cType="1" res="1.9954349845647812e-02" rms="4.6194237470626831e-01" purity="5.4843437671661377e-01" nType="0">
          <Node pos="l" depth="2" NCoef="0" IVar="-1" Cut="0.0000000000000000e+00" cType="1" res="-1.7423710087314248e-03" rms="4.6743679046630859e-01" purity="4.6279430389404297e-01" nType="-99"/>
          <Node pos="r" depth="2" NCoef="0" IVar="-1" Cut="0.0000000000000000e+00" cType="1" res="3.7867317441850901e-03" rms="4.4759628176689148e-01" purity="6.3727986812591553e-01" nType="-99"/>
        </Node>
        <Node pos="r" depth="1" NCoef="0" IVar="0" Cut="8.2438640594482422e+00" cType="1" res="-3.3619143068790436e-02" rms="4.6336552500724792e-01" purity="4.5073083043098450e-01" nType="0">
          <Node pos="l" depth="2" NCoef="0" IVar="-1" Cut="0.0000000000000000e+00" cType="1" res="-1.9240643596276641e-03" rms="4.6419075131416321e-01" purity="4.0885910391807556e-01" nType="-99"/>
          <Node pos="r" depth="2" NCoef="0" IVar="-1" Cut="0.0000000000000000e+00" cType="1" res="7.2509679012000561e-04" rms="4.5687007904052734e-01" purity="6.1157423257827759e-01" nType="-99"/>
        </Node>
      </Node>
    </BinaryTree>
    <BinaryTree type="DecisionTree" boostWeight="1.0000000000000000e+00" itree="194">
      <Node pos="s" depth="0" NCoef="0" IVar="3" Cut="2.1084816455841064e+00" cType="1" res="-4.7259596176445484e-03" rms="4.6345877647399902e-01" purity="4.9805879592895508e-01" nType="0">
        <Node pos="l" depth="1" NCoef="0" IVar="4" Cut="9.1586769104003906e+01" cType="1" res="2.3543050512671471e-02" rms="4.6615979075431824e-01" purity="5.9926718473434448e-01" nType="0">
          <Node pos="l" depth="2" NCoef="0" IVar="-1" Cut="0.0000000000000000e+00" cType="1" res="3.1856133136898279e-04" rms="4.7448793053627014e-01" purity="5.6487041711807251e-01" nType="-99"/>
          <Node pos="r" depth="2" NCoef="0" IVar="-1" Cut="0.0000000000000000e+00" cType="1" res="3.3712710719555616e-03" rms="4.3813186883926392e-01" purity="6.9785451889038086e-01" nType="-99"/>
        </Node>
        <Node pos="r" depth="1" NCoef="0" IVar="1" Cut="3.3556463623046875e+02" cType="1" res="-2.9315175488591194e-02" rms="4.5968493819236755e-01" purity="4.1002473235130310e-01" nType="0">
          <Node pos="l" depth="2" NCoef="0" IVar="-1" Cut="0.0000000000000000e+00" cType="1" res="-6.5975880715996027e-04" rms="4.6324115991592407e-01" purity="4.3959265947341919e-01" nType="-99"/>
          <Node pos="r" depth="2" NCoef="0" IVar="-1" Cut="0.0000000000000000e+00" cType="1" res="-3.6192806437611580e-03" rms="4.4039914011955261e-01" purity="2.8937327861785889e-01" nType="-99"/>
        </Node>
      </Node>
    </BinaryTree>
    <BinaryTree type="DecisionTree" boostWeight="1.0000000000000000e+00" itree="195">
      <Node pos="s" depth="0" NCoef="0" IVar="8" Cut="1.7239155769348145e+00" cType="1" res="1.2547810329124331e-03" rms="4.6102014183998108e-01" purity="5.0375503301620483e-01" nType="0">
        <Node pos="l" depth="1" NCoef="0" IVar="1" Cut="1.9964952087402344e+02" cType="1" res="1.6432752832770348e-02" rms="4.6591478586196899e-01" purity="5.5152910947799683e-01" nType="0">
          <Node pos="l" depth="2" NCoef="0" IVar="-1" Cut="0.0000000000000000e+00" cType="1" res="1.5968836378306150e-03" rms="4.6475872397422791e-01" purity="5.9247457981109619e-01" nType="-99"/>
          <Node pos="r" depth="2" NCoef="0" IVar="-1" Cut="0.0000000000000000e+00" cType="1" res="-9.5545675139874220e-04" rms="4.6575960516929626e-01" purity="4.6958070993423462e-01" nType="-99"/>
        </Node>
        <Node pos="r" depth="1" NCoef="0" IVar="3" Cut="2.2232279777526855e+00" cType="1" res="-5.5897094309329987e-02" rms="4.3740350008010864e-01" purity="3.2386401295661926e-01" nType="0">
          <Node pos="l" depth="2" NCoef="0" IVar="-1" Cut="0.0000000000000000e+00" cType="1" res="-3.9544774335809052e-04" rms="4.8076593875885010e-01" purity="4.6898719668388367e-01" nType="-99"/>
          <Node pos="r" depth="2" NCoef="0" IVar="-1" Cut="0.0000000000000000e+00" cType="1" res="-3.3891827333718538e-03" rms="4.1350248456001282e-01" purity="2.5520646572113037e-01" nType="-99"/>
        </Node>
      </Node>
    </BinaryTree>
    <BinaryTree type="DecisionTree" boostWeight="1.0000000000000000e+00" itree="196">
      <Node pos="s" depth="0" NCoef="0" IVar="4" Cut="1.6009277343750000e+02" cType="1" res="-6.0985824093222618e-03" rms="4.6481820940971375e-01" purity="5.0068914890289307e-01" nType="0">
        <Node pos="l" depth="1" NCoef="0" IVar="4" Cut="1.0343292999267578e+02" cType="1" res="5.8301928220316768e-04" rms="4.6579560637474060e-01" purity="5.1121640205383301e-01" nType="0">
          <Node pos="l" depth="2" NCoef="0" IVar="-1" Cut="0.0000000000000000e+00" cType="1" res="-8.6862343596294522e-04" rms="4.6816444396972656e-01" purity="4.8409163951873779e-01" nType="-99"/>
          <Node pos="r" depth="2" NCoef="0" IVar="-1" Cut="0.0000000000000000e+00" cType="1" res="2.9960132669657469e-03" rms="4.5209011435508728e-01" purity="5.9630882740020752e-01" nType="-99"/>
        </Node>
        <Node pos="r" depth="1" NCoef="0" IVar="-1" Cut="0.0000000000000000e+00" cType="1" res="-4.8237941227853298e-03" rms="4.3465995788574219e-01" purity="3.3035781979560852e-01" nType="-99"/>
      </Node>
    </BinaryTree>
    <BinaryTree type="DecisionTree" boostWeight="1.0000000000000000e+00" itree="197">
      <Node pos="s" depth="0" NCoef="0" IVar="8" Cut="7.9851466417312622e-01" cType="1" res="7.6711806468665600e-03" rms="4.6298089623451233e-01" purity="5.1285368204116821e-01" nType="0">
        <Node pos="l" depth="1" NCoef="0" IVar="1" Cut="2.5978173828125000e+02" cType="1" res="3.8074526935815811e-02" rms="4.5907050371170044e-01" purity="6.0280966758728027e-01" nType="0">
          <Node pos="l" depth="2" NCoef="0" IVar="-1" Cut="0.0000000000000000e+00" cType="1" res="2.6668643113225698e-03" rms="4.5442107319831848e-01" purity="6.4046859741210938e-01" nType="-99"/>
          <Node pos="r" depth="2" NCoef="0" IVar="-1" Cut="0.0000000000000000e+00" cType="1" res="-1.6800789162516594e-03" rms="4.6830728650093079e-01" purity="4.5920741558074951e-01" nType="-99"/>
        </Node>
        <Node pos="r" depth="1" NCoef="0" IVar="5" Cut="5.7299204170703888e-02" cType="1" res="-1.2845674529671669e-02" rms="4.6447786688804626e-01" purity="4.5214933156967163e-01" nType="0">
          <Node pos="l" depth="2" NCoef="0" IVar="-1" Cut="0.0000000000000000e+00" cType="1" res="-1.9719288684427738e-03" rms="4.5135942101478577e-01" purity="3.6562323570251465e-01" nType="-99"/>
          <Node pos="r" depth="2" NCoef="0" IVar="-1" Cut="0.0000000000000000e+00" cType="1" res="3.1307243625633419e-04" rms="4.7098204493522644e-01" purity="5.0373834371566772e-01" nType="-99"/>
        </Node>
      </Node>
    </BinaryTree>
    <BinaryTree type="DecisionTree" boostWeight="1.0000000000000000e+00" itree="198">
      <Node pos="s" depth="0" NCoef="0" IVar="0" Cut="8.5671148300170898e+00" cType="1" res="-3.7639748770743608e-03" rms="4.6251991391181946e-01" purity="5.0036096572875977e-01" nType="0">
        <Node pos="l" depth="1" NCoef="0" IVar="9" Cut="4.8540206909179688e+02" cType="1" res="-1.4289928600192070e-02" rms="4.6529006958007812e-01" purity="4.6954524517059326e-01" nType="0">
          <Node pos="l" depth="2" NCoef="0" IVar="-1" Cut="0.0000000000000000e+00" cType="1" res="-3.5910338629037142e-03" rms="4.4023039937019348e-01" purity="3.5897338390350342e-01" nType="-99"/>
          <Node pos="r" depth="2" NCoef="0" IVar="-1" Cut="0.0000000000000000e+00" cType="1" res="-2.4849906913004816e-04" rms="4.6737396717071533e-01" purity="4.8238062858581543e-01" nType="-99"/>
        </Node>
        <Node pos="r" depth="1" NCoef="0" IVar="1" Cut="1.9824842834472656e+02" cType="1" res="5.5008746683597565e-02" rms="4.4215479493141174e-01" purity="6.7242366075515747e-01" nType="0">
          <Node pos="l" depth="2" NCoef="0" IVar="-1" Cut="0.0000000000000000e+00" cType="1" res="4.6574436128139496e-03" rms="4.2568862438201904e-01" purity="7.2894692420959473e-01" nType="-99"/>
          <Node pos="r" depth="2" NCoef="0" IVar="-1" Cut="0.0000000000000000e+00" cType="1" res="-5.3511949954554439e-04" rms="4.6501937508583069e-01" purity="5.6365782022476196e-01" nType="-99"/>
        </Node>
      </Node>
    </BinaryTree>
    <BinaryTree type="DecisionTree" boostWeight="1.0000000000000000e+00" itree="199">
      <Node pos="s" depth="0" NCoef="0" IVar="9" Cut="5.5137670898437500e+02" cType="1" res="-8.4863482043147087e-03" rms="4.6178191900253296e-01" purity="4.9488463997840881e-01" nType="0">
        <Node pos="l" depth="1" NCoef="0" IVar="5" Cut="1.1476767808198929e-01" cType="1" res="-6.2354732304811478e-02" rms="4.5101016759872437e-01" purity="4.0911948680877686e-01" nType="0">
          <Node pos="l" depth="2" NCoef="0" IVar="-1" Cut="0.0000000000000000e+00" cType="1" res="-4.3486482463777065e-03" rms="4.2506095767021179e-01" purity="3.0548581480979919e-01" nType="-99"/>
          <Node pos="r" depth="2" NCoef="0" IVar="-1" Cut="0.0000000000000000e+00" cType="1" res="-7.3611404513940215e-04" rms="4.7258925437927246e-01" purity="5.1815348863601685e-01" nType="-99"/>
        </Node>
        <Node pos="r" depth="1" NCoef="0" IVar="1" Cut="2.4234181213378906e+02" cType="1" res="6.3868523575365543e-03" rms="4.6361070871353149e-01" purity="5.1856458187103271e-01" nType="0">
          <Node pos="l" depth="2" NCoef="0" IVar="-1" Cut="0.0000000000000000e+00" cType="1" res="1.2229344574734569e-03" rms="4.6283844113349915e-01" purity="5.6501621007919312e-01" nType="-99"/>
          <Node pos="r" depth="2" NCoef="0" IVar="-1" Cut="0.0000000000000000e+00" cType="1" res="-1.7482260009273887e-03" rms="4.6183371543884277e-01" purity="4.1375130414962769e-01" nType="-99"/>
        </Node>
      </Node>
    </BinaryTree>
    <BinaryTree type="DecisionTree" boostWeight="1.0000000000000000e+00" itree="200">
      <Node pos="s" depth="0" NCoef="0" IVar="8" Cut="1.9888658523559570e+00" cType="1" res="-2.7263085357844830e-03" rms="4.6220454573631287e-01" purity="5.0079840421676636e-01" nType="0">
        <Node pos="l" depth="1" NCoef="0" IVar="1" Cut="2.9631344604492188e+02" cType="1" res="8.1630228087306023e-03" rms="4.6714478731155396e-01" purity="5.3757208585739136e-01" nType="0">
          <Node pos="l" depth="2" NCoef="0" IVar="-1" Cut="0.0000000000000000e+00" cType="1" res="9.4868085579946637e-04" rms="4.6667405962944031e-01" purity="5.6615084409713745e-01" nType="-99"/>
          <Node pos="r" depth="2" NCoef="0" IVar="-1" Cut="0.0000000000000000e+00" cType="1" res="-2.3023646790534258e-03" rms="4.6423196792602539e-01" purity="4.0371832251548767e-01" nType="-99"/>
        </Node>
        <Node pos="r" depth="1" NCoef="0" IVar="3" Cut="2.2898228168487549e+00" cType="1" res="-6.3117951154708862e-02" rms="4.2879551649093628e-01" purity="2.9685369133949280e-01" nType="0">
          <Node pos="l" depth="2" NCoef="0" IVar="-1" Cut="0.0000000000000000e+00" cType="1" res="-1.3235450023785233e-03" rms="4.7207868099212646e-01" purity="4.2008605599403381e-01" nType="-99"/>
          <Node pos="r" depth="2" NCoef="0" IVar="-1" Cut="0.0000000000000000e+00" cType="1" res="-3.5575763322412968e-03" rms="4.0184915065765381e-01" purity="2.2864165902137756e-01" nType="-99"/>
        </Node>
      </Node>
    </BinaryTree>
    <BinaryTree type="DecisionTree" boostWeight="1.0000000000000000e+00" itree="201">
      <Node pos="s" depth="0" NCoef="0" IVar="3" Cut="2.6196055412292480e+00" cType="1" res="-1.5427814796566963e-03" rms="4.6199959516525269e-01" purity="5.0013142824172974e-01" nType="0">
        <Node pos="l" depth="1" NCoef="0" IVar="7" Cut="9.1731810569763184e-01" cType="1" res="8.8687967509031296e-03" rms="4.6917358040809631e-01" purity="5.3496289253234863e-01" nType="0">
          <Node pos="l" depth="2" NCoef="0" IVar="-1" Cut="0.0000000000000000e+00" cType="1" res="-2.6130652986466885e-03" rms="4.4253388047218323e-01" purity="3.0521318316459656e-01" nType="-99"/>
          <Node pos="r" depth="2" NCoef="0" IVar="-1" Cut="0.0000000000000000e+00" cType="1" res="7.1500148624181747e-04" rms="4.7090664505958557e-01" purity="5.5631041526794434e-01" nType="-99"/>
        </Node>
        <Node pos="r" depth="1" NCoef="0" IVar="-1" Cut="0.0000000000000000e+00" cType="1" res="-4.1395882144570351e-03" rms="3.8119205832481384e-01" purity="1.9360738992691040e-01" nType="-99"/>
      </Node>
    </BinaryTree>
    <BinaryTree type="DecisionTree" boostWeight="1.0000000000000000e+00" itree="202">
      <Node pos="s" depth="0" NCoef="0" IVar="1" Cut="5.7131458282470703e+01" cType="1" res="-2.7702907100319862e-03" rms="4.6403500437736511e-01" purity="5.0150865316390991e-01" nType="0">
        <Node pos="l" depth="1" NCoef="0" IVar="-1" Cut="0.0000000000000000e+00" cType="1" res="-4.8178434371948242e-03" rms="4.5365735888481140e-01" purity="3.3888965845108032e-01" nType="-99"/>
        <Node pos="r" depth="1" NCoef="0" IVar="1" Cut="1.2992640686035156e+02" cType="1" res="3.7164438981562853e-03" rms="4.6377521753311157e-01" purity="5.1075190305709839e-01" nType="0">
          <Node pos="l" depth="2" NCoef="0" IVar="-1" Cut="0.0000000000000000e+00" cType="1" res="1.5568223316222429e-03" rms="4.6291941404342651e-01" purity="5.7514464855194092e-01" nType="-99"/>
          <Node pos="r" depth="2" NCoef="0" IVar="-1" Cut="0.0000000000000000e+00" cType="1" res="-6.2162743415683508e-04" rms="4.6330639719963074e-01" purity="4.7334641218185425e-01" nType="-99"/>
        </Node>
      </Node>
    </BinaryTree>
    <BinaryTree type="DecisionTree" boostWeight="1.0000000000000000e+00" itree="203">
      <Node pos="s" depth="0" NCoef="0" IVar="0" Cut="5.8142790794372559e+00" cType="1" res="-6.6645018523558974e-04" rms="4.6228677034378052e-01" purity="5.0157415866851807e-01" nType="0">
        <Node pos="l" depth="1" NCoef="0" IVar="7" Cut="9.1653537750244141e-01" cType="1" res="-5.8600530028343201e-02" rms="4.3950834870338440e-01" purity="3.1157785654067993e-01" nType="0">
          <Node pos="l" depth="2" NCoef="0" IVar="-1" Cut="0.0000000000000000e+00" cType="1" res="-4.1313157416880131e-03" rms="4.0787962079048157e-01" purity="2.4098969995975494e-01" nType="-99"/>
          <Node pos="r" depth="2" NCoef="0" IVar="-1" Cut="0.0000000000000000e+00" cType="1" res="-1.1433402542024851e-03" rms="4.5566615462303162e-01" purity="3.5599067807197571e-01" nType="-99"/>
        </Node>
        <Node pos="r" depth="1" NCoef="0" IVar="4" Cut="9.1103004455566406e+01" cType="1" res="1.4434151351451874e-02" rms="4.6686226129531860e-01" purity="5.5109697580337524e-01" nType="0">
          <Node pos="l" depth="2" NCoef="0" IVar="-1" Cut="0.0000000000000000e+00" cType="1" res="-2.6854043244384229e-04" rms="4.6950954198837280e-01" purity="5.2560007572174072e-01" nType="-99"/>
          <Node pos="r" depth="2" NCoef="0" IVar="-1" Cut="0.0000000000000000e+00" cType="1" res="2.2067066747695208e-03" rms="4.6054032444953918e-01" purity="5.9278100728988647e-01" nType="-99"/>
        </Node>
      </Node>
    </BinaryTree>
    <BinaryTree type="DecisionTree" boostWeight="1.0000000000000000e+00" itree="204">
      <Node pos="s" depth="0" NCoef="0" IVar="0" Cut="5.7395420074462891e+00" cType="1" res="-8.1519726663827896e-03" rms="4.6330296993255615e-01" purity="4.9460121989250183e-01" nType="0">
        <Node pos="l" depth="1" NCoef="0" IVar="7" Cut="9.2669922113418579e-01" cType="1" res="-6.3600853085517883e-02" rms="4.4028374552726746e-01" purity="3.1074410676956177e-01" nType="0">
          <Node pos="l" depth="2" NCoef="0" IVar="-1" Cut="0.0000000000000000e+00" cType="1" res="-3.6691711284220219e-03" rms="4.2335590720176697e-01" purity="2.6290169358253479e-01" nType="-99"/>
          <Node pos="r" depth="2" NCoef="0" IVar="-1" Cut="0.0000000000000000e+00" cType="1" res="7.8594872320536524e-05" rms="4.6880227327346802e-01" purity="4.1601118445396423e-01" nType="-99"/>
        </Node>
        <Node pos="r" depth="1" NCoef="0" IVar="4" Cut="7.9453086853027344e+01" cType="1" res="4.7148154117166996e-03" rms="4.6754381060600281e-01" purity="5.3726482391357422e-01" nType="0">
          <Node pos="l" depth="2" NCoef="0" IVar="-1" Cut="0.0000000000000000e+00" cType="1" res="-8.0636551138013601e-04" rms="4.7113779187202454e-01" purity="5.0013190507888794e-01" nType="-99"/>
          <Node pos="r" depth="2" NCoef="0" IVar="-1" Cut="0.0000000000000000e+00" cType="1" res="1.3750722864642739e-03" rms="4.6222770214080811e-01" purity="5.7790929079055786e-01" nType="-99"/>
        </Node>
      </Node>
    </BinaryTree>
    <BinaryTree type="DecisionTree" boostWeight="1.0000000000000000e+00" itree="205">
      <Node pos="s" depth="0" NCoef="0" IVar="5" Cut="1.1249451339244843e-01" cType="1" res="-1.3166656717658043e-02" rms="4.6205237507820129e-01" purity="4.8937070369720459e-01" nType="0">
        <Node pos="l" depth="1" NCoef="0" IVar="6" Cut="6.5187744140625000e+01" cType="1" res="-3.5795982927083969e-02" rms="4.6155813336372375e-01" purity="4.3386527895927429e-01" nType="0">
          <Node pos="l" depth="2" NCoef="0" IVar="-1" Cut="0.0000000000000000e+00" cType="1" res="4.0436213021166623e-04" rms="4.6370920538902283e-01" purity="4.8289635777473450e-01" nType="-99"/>
          <Node pos="r" depth="2" NCoef="0" IVar="-1" Cut="0.0000000000000000e+00" cType="1" res="-2.2912377025932074e-03" rms="4.5936411619186401e-01" purity="4.1349950432777405e-01" nType="-99"/>
        </Node>
        <Node pos="r" depth="1" NCoef="0" IVar="4" Cut="1.0024000549316406e+02" cType="1" res="2.8961602598428726e-02" rms="4.6001529693603516e-01" purity="5.9270334243774414e-01" nType="0">
          <Node pos="l" depth="2" NCoef="0" IVar="-1" Cut="0.0000000000000000e+00" cType="1" res="5.8877578703686595e-04" rms="4.6701234579086304e-01" purity="5.6932193040847778e-01" nType="-99"/>
          <Node pos="r" depth="2" NCoef="0" IVar="-1" Cut="0.0000000000000000e+00" cType="1" res="3.4658524673432112e-03" rms="4.3763676285743713e-01" purity="6.5611636638641357e-01" nType="-99"/>
        </Node>
      </Node>
    </BinaryTree>
    <BinaryTree type="DecisionTree" boostWeight="1.0000000000000000e+00" itree="206">
      <Node pos="s" depth="0" NCoef="0" IVar="2" Cut="6.8413656949996948e-01" cType="1" res="-8.6037395521998405e-03" rms="4.6361356973648071e-01" purity="4.9283358454704285e-01" nType="0">
        <Node pos="l" depth="1" NCoef="0" IVar="8" Cut="5.5039709806442261e-01" cType="1" res="6.0596071183681488e-02" rms="4.4089403748512268e-01" purity="7.0852518081665039e-01" nType="0">
          <Node pos="l" depth="2" NCoef="0" IVar="-1" Cut="0.0000000000000000e+00" cType="1" res="1.1643988545984030e-03" rms="4.4338831305503845e-01" purity="6.7767333984375000e-01" nType="-99"/>
          <Node pos="r" depth="2" NCoef="0" IVar="-1" Cut="0.0000000000000000e+00" cType="1" res="4.9803624860942364e-03" rms="4.3474805355072021e-01" purity="7.4130588769912720e-01" nType="-99"/>
        </Node>
        <Node pos="r" depth="1" NCoef="0" IVar="8" Cut="5.3517013788223267e-01" cType="1" res="-1.7231266945600510e-02" rms="4.6564811468124390e-01" purity="4.6594211459159851e-01" nType="0">
          <Node pos="l" depth="2" NCoef="0" IVar="-1" Cut="0.0000000000000000e+00" cType="1" res="1.4079052489250898e-03" rms="4.6524727344512939e-01" purity="5.7780230045318604e-01" nType="-99"/>
          <Node pos="r" depth="2" NCoef="0" IVar="-1" Cut="0.0000000000000000e+00" cType="1" res="-1.2892977101728320e-03" rms="4.6488523483276367e-01" purity="4.3628272414207458e-01" nType="-99"/>
        </Node>
      </Node>
    </BinaryTree>
    <BinaryTree type="DecisionTree" boostWeight="1.0000000000000000e+00" itree="207">
      <Node pos="s" depth="0" NCoef="0" IVar="0" Cut="8.7469482421875000e+00" cType="1" res="1.4940463006496429e-03" rms="4.6404182910919189e-01" purity="5.0470679998397827e-01" nType="0">
        <Node pos="l" depth="1" NCoef="0" IVar="1" Cut="4.6270007324218750e+02" cType="1" res="-1.0318277403712273e-02" rms="4.6790689229965210e-01" purity="4.7436928749084473e-01" nType="0">
          <Node pos="l" depth="2" NCoef="0" IVar="-1" Cut="0.0000000000000000e+00" cType="1" res="-1.8203782383352518e-04" rms="4.6898415684700012e-01" purity="4.8776555061340332e-01" nType="-99"/>
          <Node pos="r" depth="2" NCoef="0" IVar="-1" Cut="0.0000000000000000e+00" cType="1" res="-3.9089960046112537e-03" rms="4.4471424818038940e-01" purity="2.9154738783836365e-01" nType="-99"/>
        </Node>
        <Node pos="r" depth="1" NCoef="0" IVar="4" Cut="8.2829353332519531e+01" cType="1" res="7.8162357211112976e-02" rms="4.3031617999076843e-01" purity="7.0161336660385132e-01" nType="0">
          <Node pos="l" depth="2" NCoef="0" IVar="-1" Cut="0.0000000000000000e+00" cType="1" res="2.5210401508957148e-03" rms="4.4620198011398315e-01" purity="6.5832710266113281e-01" nType="-99"/>
          <Node pos="r" depth="2" NCoef="0" IVar="-1" Cut="0.0000000000000000e+00" cType="1" res="5.5351620540022850e-03" rms="4.1052302718162537e-01" purity="7.4831807613372803e-01" nType="-99"/>
        </Node>
      </Node>
    </BinaryTree>
    <BinaryTree type="DecisionTree" boostWeight="1.0000000000000000e+00" itree="208">
      <Node pos="s" depth="0" NCoef="0" IVar="2" Cut="9.1884416341781616e-01" cType="1" res="-7.0083457976579666e-03" rms="4.6159967780113220e-01" purity="4.9602460861206055e-01" nType="0">
        <Node pos="l" depth="1" NCoef="0" IVar="5" Cut="1.0660456866025925e-01" cType="1" res="2.9907813295722008e-02" rms="4.5573675632476807e-01" purity="6.5531808137893677e-01" nType="0">
          <Node pos="l" depth="2" NCoef="0" IVar="-1" Cut="0.0000000000000000e+00" cType="1" res="-2.1994738199282438e-04" rms="4.7062373161315918e-01" purity="6.0435873270034790e-01" nType="-99"/>
          <Node pos="r" depth="2" NCoef="0" IVar="-1" Cut="0.0000000000000000e+00" cType="1" res="2.9626693576574326e-03" rms="4.3975213170051575e-01" purity="7.0068466663360596e-01" nType="-99"/>
        </Node>
        <Node pos="r" depth="1" NCoef="0" IVar="1" Cut="8.0618881225585938e+01" cType="1" res="-2.4401003494858742e-02" rms="4.6331804990768433e-01" purity="4.2097517848014832e-01" nType="0">
          <Node pos="l" depth="2" NCoef="0" IVar="-1" Cut="0.0000000000000000e+00" cType="1" res="-3.4344210289418697e-03" rms="4.3943470716476440e-01" purity="3.2873234152793884e-01" nType="-99"/>
          <Node pos="r" depth="2" NCoef="0" IVar="-1" Cut="0.0000000000000000e+00" cType="1" res="-6.8668316816911101e-04" rms="4.6588861942291260e-01" purity="4.3354791402816772e-01" nType="-99"/>
        </Node>
      </Node>
    </BinaryTree>
    <BinaryTree type="DecisionTree" boostWeight="1.0000000000000000e+00" itree="209">
      <Node pos="s" depth="0" NCoef="0" IVar="3" Cut="2.5506708621978760e+00" cType="1" res="-3.3234001602977514e-03" rms="4.5965501666069031e-01" purity="4.9770647287368774e-01" nType="0">
        <Node pos="l" depth="1" NCoef="0" IVar="4" Cut="8.0172691345214844e+01" cType="1" res="7.8135300427675247e-03" rms="4.6668735146522522e-01" purity="5.3909099102020264e-01" nType="0">
          <Node pos="l" depth="2" NCoef="0" IVar="-1" Cut="0.0000000000000000e+00" cType="1" res="-6.0909008607268333e-04" rms="4.7354507446289062e-01" purity="4.9685674905776978e-01" nType="-99"/>
          <Node pos="r" depth="2" NCoef="0" IVar="-1" Cut="0.0000000000000000e+00" cType="1" res="1.6281693242490292e-03" rms="4.5615851879119873e-01" purity="5.9328055381774902e-01" nType="-99"/>
        </Node>
        <Node pos="r" depth="1" NCoef="0" IVar="5" Cut="5.6476715952157974e-02" cType="1" res="-7.6370120048522949e-02" rms="4.0299645066261292e-01" purity="2.2626703977584839e-01" nType="0">
          <Node pos="l" depth="2" NCoef="0" IVar="-1" Cut="0.0000000000000000e+00" cType="1" res="-5.0585484132170677e-03" rms="3.7330213189125061e-01" purity="1.7529469728469849e-01" nType="-99"/>
          <Node pos="r" depth="2" NCoef="0" IVar="-1" Cut="0.0000000000000000e+00" cType="1" res="-1.9593264441937208e-03" rms="4.2508047819137573e-01" purity="2.7140387892723083e-01" nType="-99"/>
        </Node>
      </Node>
    </BinaryTree>
    <BinaryTree type="DecisionTree" boostWeight="1.0000000000000000e+00" itree="210">
      <Node pos="s" depth="0" NCoef="0" IVar="1" Cut="9.3326484680175781e+01" cType="1" res="-4.4505484402179718e-03" rms="4.6139773726463318e-01" purity="4.9672156572341919e-01" nType="0">
        <Node pos="l" depth="1" NCoef="0" IVar="6" Cut="6.6970680236816406e+01" cType="1" res="-6.2669828534126282e-02" rms="4.5937797427177429e-01" purity="4.2784291505813599e-01" nType="0">
          <Node pos="l" depth="2" NCoef="0" IVar="-1" Cut="0.0000000000000000e+00" cType="1" res="7.1070407284423709e-04" rms="4.6190896630287170e-01" purity="5.1164621114730835e-01" nType="-99"/>
          <Node pos="r" depth="2" NCoef="0" IVar="-1" Cut="0.0000000000000000e+00" cType="1" res="-4.7186841256916523e-03" rms="4.5057240128517151e-01" purity="3.7447291612625122e-01" nType="-99"/>
        </Node>
        <Node pos="r" depth="1" NCoef="0" IVar="1" Cut="1.6489097595214844e+02" cType="1" res="9.7926640883088112e-03" rms="4.6077191829681396e-01" purity="5.1357257366180420e-01" nType="0">
          <Node pos="l" depth="2" NCoef="0" IVar="-1" Cut="0.0000000000000000e+00" cType="1" res="1.9485588418319821e-03" rms="4.5578274130821228e-01" purity="5.9246754646301270e-01" nType="-99"/>
          <Node pos="r" depth="2" NCoef="0" IVar="-1" Cut="0.0000000000000000e+00" cType="1" res="-7.6630990952253342e-04" rms="4.6301957964897156e-01" purity="4.4851419329643250e-01" nType="-99"/>
        </Node>
      </Node>
    </BinaryTree>
    <BinaryTree type="DecisionTree" boostWeight="1.0000000000000000e+00" itree="211">
      <Node pos="s" depth="0" NCoef="0" IVar="8" Cut="1.8124735355377197e+00" cType="1" res="-3.1112506985664368e-03" rms="4.6195828914642334e-01" purity="4.9610447883605957e-01" nType="0">
        <Node pos="l" depth="1" NCoef="0" IVar="1" Cut="1.8538905334472656e+02" cType="1" res="8.2866791635751724e-03" rms="4.6726232767105103e-01" purity="5.3720170259475708e-01" nType="0">
          <Node pos="l" depth="2" NCoef="0" IVar="-1" Cut="0.0000000000000000e+00" cType="1" res="1.3116985792294145e-03" rms="4.6657297015190125e-01" purity="5.8281171321868896e-01" nType="-99"/>
          <Node pos="r" depth="2" NCoef="0" IVar="-1" Cut="0.0000000000000000e+00" cType="1" res="-1.1974211083725095e-03" rms="4.6618577837944031e-01" purity="4.5912826061248779e-01" nType="-99"/>
        </Node>
        <Node pos="r" depth="1" NCoef="0" IVar="1" Cut="1.9587593078613281e+02" cType="1" res="-5.3467754274606705e-02" rms="4.3418994545936584e-01" purity="3.1453546881675720e-01" nType="0">
          <Node pos="l" depth="2" NCoef="0" IVar="-1" Cut="0.0000000000000000e+00" cType="1" res="-3.3918586559593678e-03" rms="4.2598479986190796e-01" purity="2.9816234111785889e-01" nType="-99"/>
          <Node pos="r" depth="2" NCoef="0" IVar="-1" Cut="0.0000000000000000e+00" cType="1" res="-4.1300035081803799e-04" rms="4.4306224584579468e-01" purity="3.4004428982734680e-01" nType="-99"/>
        </Node>
      </Node>
    </BinaryTree>
    <BinaryTree type="DecisionTree" boostWeight="1.0000000000000000e+00" itree="212">
      <Node pos="s" depth="0" NCoef="0" IVar="8" Cut="1.8124735355377197e+00" cType="1" res="9.9286567419767380e-03" rms="4.6311336755752563e-01" purity="5.1394182443618774e-01" nType="0">
        <Node pos="l" depth="1" NCoef="0" IVar="1" Cut="3.8713027954101562e+02" cType="1" res="2.2240808233618736e-02" rms="4.6660575270652771e-01" purity="5.5587071180343628e-01" nType="0">
          <Node pos="l" depth="2" NCoef="0" IVar="-1" Cut="0.0000000000000000e+00" cType="1" res="1.3205601135268807e-03" rms="4.6687611937522888e-01" purity="5.7323467731475830e-01" nType="-99"/>
          <Node pos="r" depth="2" NCoef="0" IVar="-1" Cut="0.0000000000000000e+00" cType="1" res="-1.9407176878303289e-03" rms="4.5850479602813721e-01" purity="3.9657622575759888e-01" nType="-99"/>
        </Node>
        <Node pos="r" depth="1" NCoef="0" IVar="8" Cut="2.3192827701568604e+00" cType="1" res="-4.4880084693431854e-02" rms="4.4310396909713745e-01" purity="3.2729148864746094e-01" nType="0">
          <Node pos="l" depth="2" NCoef="0" IVar="-1" Cut="0.0000000000000000e+00" cType="1" res="-6.5227755112573504e-04" rms="4.6855914592742920e-01" purity="3.9525622129440308e-01" nType="-99"/>
          <Node pos="r" depth="2" NCoef="0" IVar="-1" Cut="0.0000000000000000e+00" cType="1" res="-3.1199047807604074e-03" rms="4.1954532265663147e-01" purity="2.7160856127738953e-01" nType="-99"/>
        </Node>
      </Node>
    </BinaryTree>
    <BinaryTree type="DecisionTree" boostWeight="1.0000000000000000e+00" itree="213">
      <Node pos="s" depth="0" NCoef="0" IVar="3" Cut="2.1174774169921875e+00" cType="1" res="-1.3518715277314186e-03" rms="4.6261224150657654e-01" purity="5.0251805782318115e-01" nType="0">
        <Node pos="l" depth="1" NCoef="0" IVar="8" Cut="2.6980620622634888e-01" cType="1" res="2.1915201097726822e-02" rms="4.6536955237388611e-01" purity="6.0122144222259521e-01" nType="0">
          <Node pos="l" depth="2" NCoef="0" IVar="-1" Cut="0.0000000000000000e+00" cType="1" res="4.9076373688876629e-03" rms="4.2702957987785339e-01" purity="7.1634107828140259e-01" nType="-99"/>
          <Node pos="r" depth="2" NCoef="0" IVar="-1" Cut="0.0000000000000000e+00" cType="1" res="4.9642194062471390e-04" rms="4.6938827633857727e-01" purity="5.8540046215057373e-01" nType="-99"/>
        </Node>
        <Node pos="r" depth="1" NCoef="0" IVar="1" Cut="1.4001455688476562e+02" cType="1" res="-2.2288609296083450e-02" rms="4.5911020040512085e-01" purity="4.1370049118995667e-01" nType="0">
          <Node pos="l" depth="2" NCoef="0" IVar="-1" Cut="0.0000000000000000e+00" cType="1" res="5.8564997743815184e-04" rms="4.6008372306823730e-01" purity="4.7636103630065918e-01" nType="-99"/>
          <Node pos="r" depth="2" NCoef="0" IVar="-1" Cut="0.0000000000000000e+00" cType="1" res="-1.8581874901428819e-03" rms="4.5721957087516785e-01" purity="3.7649384140968323e-01" nType="-99"/>
        </Node>
      </Node>
    </BinaryTree>
    <BinaryTree type="DecisionTree" boostWeight="1.0000000000000000e+00" itree="214">
      <Node pos="s" depth="0" NCoef="0" IVar="4" Cut="4.7630283355712891e+01" cType="1" res="-7.7590666478499770e-04" rms="4.6366620063781738e-01" purity="5.0165539979934692e-01" nType="0">
        <Node pos="l" depth="1" NCoef="0" IVar="4" Cut="3.6124401092529297e+01" cType="1" res="-7.0019923150539398e-02" rms="4.6100750565528870e-01" purity="3.8848897814750671e-01" nType="0">
          <Node pos="l" depth="2" NCoef="0" IVar="-1" Cut="0.0000000000000000e+00" cType="1" res="-5.0599430687725544e-03" rms="4.3605050444602966e-01" purity="3.2399785518646240e-01" nType="-99"/>
          <Node pos="r" depth="2" NCoef="0" IVar="-1" Cut="0.0000000000000000e+00" cType="1" res="-1.5324433334171772e-03" rms="4.7284615039825439e-01" purity="4.2870455980300903e-01" nType="-99"/>
        </Node>
        <Node pos="r" depth="1" NCoef="0" IVar="1" Cut="7.6871803283691406e+01" cType="1" res="1.5243565663695335e-02" rms="4.6280583739280701e-01" purity="5.2783626317977905e-01" nType="0">
          <Node pos="l" depth="2" NCoef="0" IVar="-1" Cut="0.0000000000000000e+00" cType="1" res="-3.1598417554050684e-03" rms="4.6114256978034973e-01" purity="4.2280831933021545e-01" nType="-99"/>
          <Node pos="r" depth="2" NCoef="0" IVar="-1" Cut="0.0000000000000000e+00" cType="1" res="1.0594336781650782e-03" rms="4.6204993128776550e-01" purity="5.3782570362091064e-01" nType="-99"/>
        </Node>
      </Node>
    </BinaryTree>
    <BinaryTree type="DecisionTree" boostWeight="1.0000000000000000e+00" itree="215">
      <Node pos="s" depth="0" NCoef="0" IVar="1" Cut="7.5423973083496094e+01" cType="1" res="-2.0847367122769356e-03" rms="4.6366214752197266e-01" purity="5.0053817033767700e-01" nType="0">
        <Node pos="l" depth="1" NCoef="0" IVar="1" Cut="5.8090530395507812e+01" cType="1" res="-7.7604554593563080e-02" rms="4.5821470022201538e-01" purity="3.9440649747848511e-01" nType="0">
          <Node pos="l" depth="2" NCoef="0" IVar="-1" Cut="0.0000000000000000e+00" cType="1" res="-4.8084268346428871e-03" rms="4.4770592451095581e-01" purity="3.2998692989349365e-01" nType="-99"/>
          <Node pos="r" depth="2" NCoef="0" IVar="-1" Cut="0.0000000000000000e+00" cType="1" res="-1.4252404216676950e-03" rms="4.6638756990432739e-01" purity="4.7000879049301147e-01" nType="-99"/>
        </Node>
        <Node pos="r" depth="1" NCoef="0" IVar="1" Cut="1.2973002624511719e+02" cType="1" res="7.9685291275382042e-03" rms="4.6345531940460205e-01" purity="5.1466655731201172e-01" nType="0">
          <Node pos="l" depth="2" NCoef="0" IVar="-1" Cut="0.0000000000000000e+00" cType="1" res="2.2098140325397253e-03" rms="4.5696800947189331e-01" purity="5.9755426645278931e-01" nType="-99"/>
          <Node pos="r" depth="2" NCoef="0" IVar="-1" Cut="0.0000000000000000e+00" cType="1" res="-5.4913538042455912e-04" rms="4.6533533930778503e-01" purity="4.7284287214279175e-01" nType="-99"/>
        </Node>
      </Node>
    </BinaryTree>
    <BinaryTree type="DecisionTree" boostWeight="1.0000000000000000e+00" itree="216">
      <Node pos="s" depth="0" NCoef="0" IVar="4" Cut="4.8835250854492188e+01" cType="1" res="-2.2543624509125948e-03" rms="4.6129596233367920e-01" purity="5.0098061561584473e-01" nType="0">
        <Node pos="l" depth="1" NCoef="0" IVar="4" Cut="3.5438591003417969e+01" cType="1" res="-5.7786818593740463e-02" rms="4.5838117599487305e-01" purity="4.0123948454856873e-01" nType="0">
          <Node pos="l" depth="2" NCoef="0" IVar="-1" Cut="0.0000000000000000e+00" cType="1" res="-4.4769113883376122e-03" rms="4.4697859883308411e-01" purity="3.3543613553047180e-01" nType="-99"/>
          <Node pos="r" depth="2" NCoef="0" IVar="-1" Cut="0.0000000000000000e+00" cType="1" res="-1.4075196813791990e-03" rms="4.6180817484855652e-01" purity="4.3297457695007324e-01" nType="-99"/>
        </Node>
        <Node pos="r" depth="1" NCoef="0" IVar="3" Cut="2.4679684638977051e+00" cType="1" res="1.2417568825185299e-02" rms="4.6094703674316406e-01" purity="5.2733272314071655e-01" nType="0">
          <Node pos="l" depth="2" NCoef="0" IVar="-1" Cut="0.0000000000000000e+00" cType="1" res="1.1549806222319603e-03" rms="4.6820396184921265e-01" purity="5.8966636657714844e-01" nType="-99"/>
          <Node pos="r" depth="2" NCoef="0" IVar="-1" Cut="0.0000000000000000e+00" cType="1" res="-1.8589212559163570e-03" rms="4.2596372961997986e-01" purity="2.7517244219779968e-01" nType="-99"/>
        </Node>
      </Node>
    </BinaryTree>
    <BinaryTree type="DecisionTree" boostWeight="1.0000000000000000e+00" itree="217">
      <Node pos="s" depth="0" NCoef="0" IVar="2" Cut="1.4025362730026245e+00" cType="1" res="-3.9755785837769508e-03" rms="4.5980635285377502e-01" purity="4.9845302104949951e-01" nType="0">
        <Node pos="l" depth="1" NCoef="0" IVar="1" Cut="7.4464645385742188e+01" cType="1" res="9.0835932642221451e-03" rms="4.6794730424880981e-01" purity="5.5560725927352905e-01" nType="0">
          <Node pos="l" depth="2" NCoef="0" IVar="-1" Cut="0.0000000000000000e+00" cType="1" res="-2.4404875002801418e-03" rms="4.8469230532646179e-01" purity="4.5572870969772339e-01" nType="-99"/>
          <Node pos="r" depth="2" NCoef="0" IVar="-1" Cut="0.0000000000000000e+00" cType="1" res="7.8027503332123160e-04" rms="4.6506649255752563e-01" purity="5.6835848093032837e-01" nType="-99"/>
        </Node>
        <Node pos="r" depth="1" NCoef="0" IVar="9" Cut="9.0352404785156250e+02" cType="1" res="-5.0495136529207230e-02" rms="4.2631632089614868e-01" purity="2.9485753178596497e-01" nType="0">
          <Node pos="l" depth="2" NCoef="0" IVar="-1" Cut="0.0000000000000000e+00" cType="1" res="-3.2321847975254059e-03" rms="4.1287991404533386e-01" purity="2.6187765598297119e-01" nType="-99"/>
          <Node pos="r" depth="2" NCoef="0" IVar="-1" Cut="0.0000000000000000e+00" cType="1" res="9.6174265490844846e-04" rms="4.5609065890312195e-01" purity="3.9243808388710022e-01" nType="-99"/>
        </Node>
      </Node>
    </BinaryTree>
    <BinaryTree type="DecisionTree" boostWeight="1.0000000000000000e+00" itree="218">
      <Node pos="s" depth="0" NCoef="0" IVar="7" Cut="9.2222493886947632e-01" cType="1" res="3.7160778883844614e-03" rms="4.6079802513122559e-01" purity="5.0544118881225586e-01" nType="0">
        <Node pos="l" depth="1" NCoef="0" IVar="0" Cut="5.1771569252014160e+00" cType="1" res="-6.7607074975967407e-02" rms="4.3312981724739075e-01" purity="2.8413546085357666e-01" nType="0">
          <Node pos="l" depth="2" NCoef="0" IVar="-1" Cut="0.0000000000000000e+00" cType="1" res="-4.1763535700738430e-03" rms="4.0667152404785156e-01" purity="2.3217537999153137e-01" nType="-99"/>
          <Node pos="r" depth="2" NCoef="0" IVar="-1" Cut="0.0000000000000000e+00" cType="1" res="-1.0628974996507168e-03" rms="4.5572373270988464e-01" purity="3.3886975049972534e-01" nType="-99"/>
        </Node>
        <Node pos="r" depth="1" NCoef="0" IVar="4" Cut="9.3635620117187500e+01" cType="1" res="1.3370905071496964e-02" rms="4.6357426047325134e-01" purity="5.3539884090423584e-01" nType="0">
          <Node pos="l" depth="2" NCoef="0" IVar="-1" Cut="0.0000000000000000e+00" cType="1" res="-1.9831332610920072e-04" rms="4.6754378080368042e-01" purity="5.0902467966079712e-01" nType="-99"/>
          <Node pos="r" depth="2" NCoef="0" IVar="-1" Cut="0.0000000000000000e+00" cType="1" res="2.1213430445641279e-03" rms="4.5445200800895691e-01" purity="5.8342212438583374e-01" nType="-99"/>
        </Node>
      </Node>
    </BinaryTree>
    <BinaryTree type="DecisionTree" boostWeight="1.0000000000000000e+00" itree="219">
      <Node pos="s" depth="0" NCoef="0" IVar="1" Cut="9.2107482910156250e+01" cType="1" res="-4.9528731033205986e-03" rms="4.6213638782501221e-01" purity="4.9575883150100708e-01" nType="0">
        <Node pos="l" depth="1" NCoef="0" IVar="2" Cut="1.1817417144775391e+00" cType="1" res="-5.4506190121173859e-02" rms="4.6554848551750183e-01" purity="4.3114796280860901e-01" nType="0">
          <Node pos="l" depth="2" NCoef="0" IVar="-1" Cut="0.0000000000000000e+00" cType="1" res="-1.0874680010601878e-03" rms="4.8672088980674744e-01" purity="5.2554047107696533e-01" nType="-99"/>
          <Node pos="r" depth="2" NCoef="0" IVar="-1" Cut="0.0000000000000000e+00" cType="1" res="-4.5761093497276306e-03" rms="4.1868516802787781e-01" purity="2.5792059302330017e-01" nType="-99"/>
        </Node>
        <Node pos="r" depth="1" NCoef="0" IVar="1" Cut="1.6371412658691406e+02" cType="1" res="6.6228900104761124e-03" rms="4.6056813001632690e-01" purity="5.1085209846496582e-01" nType="0">
          <Node pos="l" depth="2" NCoef="0" IVar="-1" Cut="0.0000000000000000e+00" cType="1" res="1.7143721925094724e-03" rms="4.5695722103118896e-01" purity="5.9279423952102661e-01" nType="-99"/>
          <Node pos="r" depth="2" NCoef="0" IVar="-1" Cut="0.0000000000000000e+00" cType="1" res="-8.6383888265118003e-04" rms="4.6192622184753418e-01" purity="4.4132545590400696e-01" nType="-99"/>
        </Node>
      </Node>
    </BinaryTree>
    <BinaryTree type="DecisionTree" boostWeight="1.0000000000000000e+00" itree="220">
      <Node pos="s" depth="0" NCoef="0" IVar="5" Cut="9.4390019774436951e-02" cType="1" res="-4.5409714803099632e-03" rms="4.6092197299003601e-01" purity="4.9697476625442505e-01" nType="0">
        <Node pos="l" depth="1" NCoef="0" IVar="1" Cut="9.2107482910156250e+01" cType="1" res="-2.7555331587791443e-02" rms="4.5879516005516052e-01" purity="4.3429479002952576e-01" nType="0">
          <Node pos="l" depth="2" NCoef="0" IVar="-1" Cut="0.0000000000000000e+00" cType="1" res="-3.6180960014462471e-03" rms="4.4425520300865173e-01" purity="3.5641792416572571e-01" nType="-99"/>
          <Node pos="r" depth="2" NCoef="0" IVar="-1" Cut="0.0000000000000000e+00" cType="1" res="-6.4936204580590129e-04" rms="4.6087536215782166e-01" purity="4.5085960626602173e-01" nType="-99"/>
        </Node>
        <Node pos="r" depth="1" NCoef="0" IVar="4" Cut="4.4549369812011719e+01" cType="1" res="2.6153778657317162e-02" rms="4.6196249127388000e-01" purity="5.8057242631912231e-01" nType="0">
          <Node pos="l" depth="2" NCoef="0" IVar="-1" Cut="0.0000000000000000e+00" cType="1" res="-1.7719323514029384e-03" rms="4.7635081410408020e-01" purity="4.5055648684501648e-01" nType="-99"/>
          <Node pos="r" depth="2" NCoef="0" IVar="-1" Cut="0.0000000000000000e+00" cType="1" res="1.8359611276537180e-03" rms="4.5766180753707886e-01" purity="6.0744625329971313e-01" nType="-99"/>
        </Node>
      </Node>
    </BinaryTree>
    <BinaryTree type="DecisionTree" boostWeight="1.0000000000000000e+00" itree="221">
      <Node pos="s" depth="0" NCoef="0" IVar="0" Cut="8.4548730850219727e+00" cType="1" res="1.1802349472418427e-03" rms="4.5864251255989075e-01" purity="5.0193029642105103e-01" nType="0">
        <Node pos="l" depth="1" NCoef="0" IVar="7" Cut="9.1080427169799805e-01" cType="1" res="-1.2703608721494675e-02" rms="4.6311843395233154e-01" purity="4.6292978525161743e-01" nType="0">
          <Node pos="l" depth="2" NCoef="0" IVar="-1" Cut="0.0000000000000000e+00" cType="1" res="-4.3100779876112938e-03" rms="4.0151876211166382e-01" purity="2.2971677780151367e-01" nType="-99"/>
          <Node pos="r" depth="2" NCoef="0" IVar="-1" Cut="0.0000000000000000e+00" cType="1" res="-2.2564423852600157e-04" rms="4.6655431389808655e-01" purity="4.8039552569389343e-01" nType="-99"/>
        </Node>
        <Node pos="r" depth="1" NCoef="0" IVar="4" Cut="6.3396495819091797e+01" cType="1" res="6.8395502865314484e-02" rms="4.3003267049789429e-01" purity="6.9074195623397827e-01" nType="0">
          <Node pos="l" depth="2" NCoef="0" IVar="-1" Cut="0.0000000000000000e+00" cType="1" res="8.4030994912609458e-04" rms="4.5511859655380249e-01" purity="6.1435711383819580e-01" nType="-99"/>
          <Node pos="r" depth="2" NCoef="0" IVar="-1" Cut="0.0000000000000000e+00" cType="1" res="4.7608991153538227e-03" rms="4.1563701629638672e-01" purity="7.2649675607681274e-01" nType="-99"/>
        </Node>
      </Node>
    </BinaryTree>
    <BinaryTree type="DecisionTree" boostWeight="1.0000000000000000e+00" itree="222">
      <Node pos="s" depth="0" NCoef="0" IVar="4" Cut="1.5966278076171875e+02" cType="1" res="-2.2141579538583755e-03" rms="4.5978742837905884e-01" purity="4.9972957372665405e-01" nType="0">
        <Node pos="l" depth="1" NCoef="0" IVar="4" Cut="1.0607129669189453e+02" cType="1" res="4.8733199946582317e-03" rms="4.6017223596572876e-01" purity="5.1085853576660156e-01" nType="0">
          <Node pos="l" depth="2" NCoef="0" IVar="-1" Cut="0.0000000000000000e+00" cType="1" res="-5.7293917052447796e-04" rms="4.6243405342102051e-01" purity="4.8502656817436218e-01" nType="-99"/>
          <Node pos="r" depth="2" NCoef="0" IVar="-1" Cut="0.0000000000000000e+00" cType="1" res="3.2032728195190430e-03" rms="4.4599920511245728e-01" purity="6.0335850715637207e-01" nType="-99"/>
        </Node>
        <Node pos="r" depth="1" NCoef="0" IVar="-1" Cut="0.0000000000000000e+00" cType="1" res="-4.8276209272444248e-03" rms="4.3887320160865784e-01" purity="3.2463136315345764e-01" nType="-99"/>
      </Node>
    </BinaryTree>
    <BinaryTree type="DecisionTree" boostWeight="1.0000000000000000e+00" itree="223">
      <Node pos="s" depth="0" NCoef="0" IVar="2" Cut="1.6797838211059570e+00" cType="1" res="-3.4134807065129280e-03" rms="4.5953258872032166e-01" purity="4.9491280317306519e-01" nType="0">
        <Node pos="l" depth="1" NCoef="0" IVar="1" Cut="6.8242767333984375e+01" cType="1" res="3.1782025471329689e-03" rms="4.6330115199089050e-01" purity="5.1746940612792969e-01" nType="0">
          <Node pos="l" depth="2" NCoef="0" IVar="-1" Cut="0.0000000000000000e+00" cType="1" res="-2.9917741194367409e-03" rms="4.6645063161849976e-01" purity="3.9329639077186584e-01" nType="-99"/>
          <Node pos="r" depth="2" NCoef="0" IVar="-1" Cut="0.0000000000000000e+00" cType="1" res="4.5933757792226970e-04" rms="4.6235322952270508e-01" purity="5.2948838472366333e-01" nType="-99"/>
        </Node>
        <Node pos="r" depth="1" NCoef="0" IVar="-1" Cut="0.0000000000000000e+00" cType="1" res="-3.7348498590290546e-03" rms="4.0160718560218811e-01" purity="2.1747946739196777e-01" nType="-99"/>
      </Node>
    </BinaryTree>
    <BinaryTree type="DecisionTree" boostWeight="1.0000000000000000e+00" itree="224">
      <Node pos="s" depth="0" NCoef="0" IVar="1" Cut="2.9631344604492188e+02" cType="1" res="1.0200068354606628e-03" rms="4.6030482649803162e-01" purity="5.0229018926620483e-01" nType="0">
        <Node pos="l" depth="1" NCoef="0" IVar="9" Cut="5.6731512451171875e+02" cType="1" res="1.2007769197225571e-02" rms="4.6064084768295288e-01" purity="5.2931374311447144e-01" nType="0">
          <Node pos="l" depth="2" NCoef="0" IVar="-1" Cut="0.0000000000000000e+00" cType="1" res="-1.3431574916467071e-03" rms="4.5763304829597473e-01" purity="4.4426161050796509e-01" nType="-99"/>
          <Node pos="r" depth="2" NCoef="0" IVar="-1" Cut="0.0000000000000000e+00" cType="1" res="1.2730866437777877e-03" rms="4.6071127057075500e-01" purity="5.6157827377319336e-01" nType="-99"/>
        </Node>
        <Node pos="r" depth="1" NCoef="0" IVar="2" Cut="1.2176098823547363e+00" cType="1" res="-4.7374326735734940e-02" rms="4.5567953586578369e-01" purity="3.8326841592788696e-01" nType="0">
          <Node pos="l" depth="2" NCoef="0" IVar="-1" Cut="0.0000000000000000e+00" cType="1" res="-2.9760382603853941e-03" rms="4.7428527474403381e-01" purity="4.5328435301780701e-01" nType="-99"/>
          <Node pos="r" depth="2" NCoef="0" IVar="-1" Cut="0.0000000000000000e+00" cType="1" res="-9.4007398001849651e-04" rms="4.3383300304412842e-01" purity="3.0990347266197205e-01" nType="-99"/>
        </Node>
      </Node>
    </BinaryTree>
    <BinaryTree type="DecisionTree" boostWeight="1.0000000000000000e+00" itree="225">
      <Node pos="s" depth="0" NCoef="0" IVar="0" Cut="7.6827950477600098e+00" cType="1" res="-6.4114984124898911e-03" rms="4.6060597896575928e-01" purity="4.9893274903297424e-01" nType="0">
        <Node pos="l" depth="1" NCoef="0" IVar="2" Cut="6.6726469993591309e-01" cType="1" res="-2.2700138390064240e-02" rms="4.6380850672721863e-01" purity="4.3380641937255859e-01" nType="0">
          <Node pos="l" depth="2" NCoef="0" IVar="-1" Cut="0.0000000000000000e+00" cType="1" res="2.9610549099743366e-03" rms="4.5376801490783691e-01" purity="6.7007660865783691e-01" nType="-99"/>
          <Node pos="r" depth="2" NCoef="0" IVar="-1" Cut="0.0000000000000000e+00" cType="1" res="-1.3022486818954349e-03" rms="4.6388849616050720e-01" purity="4.1081866621971130e-01" nType="-99"/>
        </Node>
        <Node pos="r" depth="1" NCoef="0" IVar="4" Cut="1.0172756195068359e+02" cType="1" res="2.6535956189036369e-02" rms="4.5226925611495972e-01" purity="6.3066554069519043e-01" nType="0">
          <Node pos="l" depth="2" NCoef="0" IVar="-1" Cut="0.0000000000000000e+00" cType="1" res="1.7148803453892469e-04" rms="4.6355935931205750e-01" purity="6.0221058130264282e-01" nType="-99"/>
          <Node pos="r" depth="2" NCoef="0" IVar="-1" Cut="0.0000000000000000e+00" cType="1" res="3.8213711231946945e-03" rms="4.2208302021026611e-01" purity="6.9314789772033691e-01" nType="-99"/>
        </Node>
      </Node>
    </BinaryTree>
    <BinaryTree type="DecisionTree" boostWeight="1.0000000000000000e+00" itree="226">
      <Node pos="s" depth="0" NCoef="0" IVar="1" Cut="7.8911964416503906e+01" cType="1" res="-1.2862528092227876e-04" rms="4.6143060922622681e-01" purity="5.0368708372116089e-01" nType="0">
        <Node pos="l" depth="1" NCoef="0" IVar="4" Cut="4.9536354064941406e+01" cType="1" res="-6.5030887722969055e-02" rms="4.6536338329315186e-01" purity="4.0967646241188049e-01" nType="0">
          <Node pos="l" depth="2" NCoef="0" IVar="-1" Cut="0.0000000000000000e+00" cType="1" res="-4.8752631992101669e-03" rms="4.4669654965400696e-01" purity="3.1729799509048462e-01" nType="-99"/>
          <Node pos="r" depth="2" NCoef="0" IVar="-1" Cut="0.0000000000000000e+00" cType="1" res="-1.0954367462545633e-03" rms="4.7549298405647278e-01" purity="4.8100242018699646e-01" nType="-99"/>
        </Node>
        <Node pos="r" depth="1" NCoef="0" IVar="1" Cut="1.3757968139648438e+02" cType="1" res="9.2335492372512817e-03" rms="4.6010559797286987e-01" purity="5.1724809408187866e-01" nType="0">
          <Node pos="l" depth="2" NCoef="0" IVar="-1" Cut="0.0000000000000000e+00" cType="1" res="2.5020814500749111e-03" rms="4.5279175043106079e-01" purity="6.1030626296997070e-01" nType="-99"/>
          <Node pos="r" depth="2" NCoef="0" IVar="-1" Cut="0.0000000000000000e+00" cType="1" res="-7.5802917126566172e-04" rms="4.6226003766059875e-01" purity="4.6256059408187866e-01" nType="-99"/>
        </Node>
      </Node>
    </BinaryTree>
    <BinaryTree type="DecisionTree" boostWeight="1.0000000000000000e+00" itree="227">
      <Node pos="s" depth="0" NCoef="0" IVar="4" Cut="1.0731773376464844e+02" cType="1" res="5.6389537639915943e-03" rms="4.6187463402748108e-01" purity="5.0962144136428833e-01" nType="0">
        <Node pos="l" depth="1" NCoef="0" IVar="2" Cut="6.9618046283721924e-01" cType="1" res="-8.7881376966834068e-03" rms="4.6533656120300293e-01" purity="4.9302279949188232e-01" nType="0">
          <Node pos="l" depth="2" NCoef="0" IVar="-1" Cut="0.0000000000000000e+00" cType="1" res="3.1830444931983948e-03" rms="4.3530890345573425e-01" purity="7.0357531309127808e-01" nType="-99"/>
          <Node pos="r" depth="2" NCoef="0" IVar="-1" Cut="0.0000000000000000e+00" cType="1" res="-8.6638226639479399e-04" rms="4.6878850460052490e-01" purity="4.6028620004653931e-01" nType="-99"/>
        </Node>
        <Node pos="r" depth="1" NCoef="0" IVar="3" Cut="2.1344881057739258e+00" cType="1" res="4.8279419541358948e-02" rms="4.4878453016281128e-01" purity="5.5867981910705566e-01" nType="0">
          <Node pos="l" depth="2" NCoef="0" IVar="-1" Cut="0.0000000000000000e+00" cType="1" res="5.4671997204422951e-03" rms="4.1861370205879211e-01" purity="7.4905830621719360e-01" nType="-99"/>
          <Node pos="r" depth="2" NCoef="0" IVar="-1" Cut="0.0000000000000000e+00" cType="1" res="7.3655432788655162e-04" rms="4.6026831865310669e-01" purity="4.6148818731307983e-01" nType="-99"/>
        </Node>
      </Node>
    </BinaryTree>
    <BinaryTree type="DecisionTree" boostWeight="1.0000000000000000e+00" itree="228">
      <Node pos="s" depth="0" NCoef="0" IVar="7" Cut="9.1418027877807617e-01" cType="1" res="-6.3347318209707737e-03" rms="4.6179574728012085e-01" purity="4.9494627118110657e-01" nType="0">
        <Node pos="l" depth="1" NCoef="0" IVar="-1" Cut="0.0000000000000000e+00" cType="1" res="-3.9947833865880966e-03" rms="4.0915226936340332e-01" purity="2.4555999040603638e-01" nType="-99"/>
        <Node pos="r" depth="1" NCoef="0" IVar="1" Cut="1.4001455688476562e+02" cType="1" res="5.6918291375041008e-04" rms="4.6466985344886780e-01" purity="5.1322591304779053e-01" nType="0">
          <Node pos="l" depth="2" NCoef="0" IVar="-1" Cut="0.0000000000000000e+00" cType="1" res="1.2356003280729055e-03" rms="4.6160557866096497e-01" purity="5.7074993848800659e-01" nType="-99"/>
          <Node pos="r" depth="2" NCoef="0" IVar="-1" Cut="0.0000000000000000e+00" cType="1" res="-9.5186312682926655e-04" rms="4.6607270836830139e-01" purity="4.6431362628936768e-01" nType="-99"/>
        </Node>
      </Node>
    </BinaryTree>
    <BinaryTree type="DecisionTree" boostWeight="1.0000000000000000e+00" itree="229">
      <Node pos="s" depth="0" NCoef="0" IVar="4" Cut="6.9205268859863281e+01" cType="1" res="-4.8563457094132900e-03" rms="4.6248662471771240e-01" purity="4.9816054105758667e-01" nType="0">
        <Node pos="l" depth="1" NCoef="0" IVar="1" Cut="1.5045909118652344e+02" cType="1" res="-3.3427409827709198e-02" rms="4.6392777562141418e-01" purity="4.4727081060409546e-01" nType="0">
          <Node pos="l" depth="2" NCoef="0" IVar="-1" Cut="0.0000000000000000e+00" cType="1" res="7.7747441537212580e-05" rms="4.6409514546394348e-01" purity="5.0006264448165894e-01" nType="-99"/>
          <Node pos="r" depth="2" NCoef="0" IVar="-1" Cut="0.0000000000000000e+00" cType="1" res="-3.7117949686944485e-03" rms="4.5802628993988037e-01" purity="3.6251902580261230e-01" nType="-99"/>
        </Node>
        <Node pos="r" depth="1" NCoef="0" IVar="4" Cut="1.5142700195312500e+02" cType="1" res="1.7281459644436836e-02" rms="4.6014866232872009e-01" purity="5.3759157657623291e-01" nType="0">
          <Node pos="l" depth="2" NCoef="0" IVar="-1" Cut="0.0000000000000000e+00" cType="1" res="1.2862010626122355e-03" rms="4.5989763736724854e-01" purity="5.6012487411499023e-01" nType="-99"/>
          <Node pos="r" depth="2" NCoef="0" IVar="-1" Cut="0.0000000000000000e+00" cType="1" res="-2.8105631936341524e-03" rms="4.5350638031959534e-01" purity="3.6799538135528564e-01" nType="-99"/>
        </Node>
      </Node>
    </BinaryTree>
    <BinaryTree type="DecisionTree" boostWeight="1.0000000000000000e+00" itree="230">
      <Node pos="s" depth="0" NCoef="0" IVar="5" Cut="1.0372874140739441e-01" cType="1" res="-1.3203663984313607e-03" rms="4.6264347434043884e-01" purity="5.0276899337768555e-01" nType="0">
        <Node pos="l" depth="1" NCoef="0" IVar="9" Cut="6.4040032958984375e+02" cType="1" res="-2.2910421714186668e-02" rms="4.6227791905403137e-01" purity="4.4463905692100525e-01" nType="0">
          <Node pos="l" depth="2" NCoef="0" IVar="-1" Cut="0.0000000000000000e+00" cType="1" res="-2.5809060316532850e-03" rms="4.4846639037132263e-01" purity="3.6272758245468140e-01" nType="-99"/>
          <Node pos="r" depth="2" NCoef="0" IVar="-1" Cut="0.0000000000000000e+00" cType="1" res="-2.9153734794817865e-04" rms="4.6714591979980469e-01" purity="4.7977641224861145e-01" nType="-99"/>
        </Node>
        <Node pos="r" depth="1" NCoef="0" IVar="1" Cut="2.2609918212890625e+02" cType="1" res="3.3593576401472092e-02" rms="4.6109977364540100e-01" purity="5.9677273035049438e-01" nType="0">
          <Node pos="l" depth="2" NCoef="0" IVar="-1" Cut="0.0000000000000000e+00" cType="1" res="2.1414484363049269e-03" rms="4.5807975530624390e-01" purity="6.1699265241622925e-01" nType="-99"/>
          <Node pos="r" depth="2" NCoef="0" IVar="-1" Cut="0.0000000000000000e+00" cType="1" res="-7.6547852950170636e-04" rms="4.6929395198822021e-01" purity="5.1752227544784546e-01" nType="-99"/>
        </Node>
      </Node>
    </BinaryTree>
    <BinaryTree type="DecisionTree" boostWeight="1.0000000000000000e+00" itree="231">
      <Node pos="s" depth="0" NCoef="0" IVar="7" Cut="9.2592185735702515e-01" cType="1" res="-4.0971874259412289e-03" rms="4.6256166696548462e-01" purity="4.9834167957305908e-01" nType="0">
        <Node pos="l" depth="1" NCoef="0" IVar="8" Cut="8.4687757492065430e-01" cType="1" res="-5.7955838739871979e-02" rms="4.4024959206581116e-01" purity="3.0066516995429993e-01" nType="0">
          <Node pos="l" depth="2" NCoef="0" IVar="-1" Cut="0.0000000000000000e+00" cType="1" res="-4.0110095869749784e-04" rms="4.7913306951522827e-01" purity="4.1028270125389099e-01" nType="-99"/>
          <Node pos="r" depth="2" NCoef="0" IVar="-1" Cut="0.0000000000000000e+00" cType="1" res="-3.7379660643637180e-03" rms="4.0801408886909485e-01" purity="2.2490876913070679e-01" nType="-99"/>
        </Node>
        <Node pos="r" depth="1" NCoef="0" IVar="5" Cut="9.3460045754909515e-02" cType="1" res="5.5845910683274269e-03" rms="4.6579951047897339e-01" purity="5.3387659788131714e-01" nType="0">
          <Node pos="l" depth="2" NCoef="0" IVar="-1" Cut="0.0000000000000000e+00" cType="1" res="-6.0983654111623764e-04" rms="4.6928691864013672e-01" purity="4.7250789403915405e-01" nType="-99"/>
          <Node pos="r" depth="2" NCoef="0" IVar="-1" Cut="0.0000000000000000e+00" cType="1" res="1.4107018942013383e-03" rms="4.6017935872077942e-01" purity="6.1107563972473145e-01" nType="-99"/>
        </Node>
      </Node>
    </BinaryTree>
    <BinaryTree type="DecisionTree" boostWeight="1.0000000000000000e+00" itree="232">
      <Node pos="s" depth="0" NCoef="0" IVar="1" Cut="7.4464645385742188e+01" cType="1" res="1.3714996166527271e-03" rms="4.6153134107589722e-01" purity="5.0393146276473999e-01" nType="0">
        <Node pos="l" depth="1" NCoef="0" IVar="0" Cut="6.9855232238769531e+00" cType="1" res="-8.6809255182743073e-02" rms="4.5377591252326965e-01" purity="3.7102913856506348e-01" nType="0">
          <Node pos="l" depth="2" NCoef="0" IVar="-1" Cut="0.0000000000000000e+00" cType="1" res="-2.2287247702479362e-03" rms="4.3541669845581055e-01" purity="3.3393472433090210e-01" nType="-99"/>
          <Node pos="r" depth="2" NCoef="0" IVar="-1" Cut="0.0000000000000000e+00" cType="1" res="-5.2910447120666504e-03" rms="4.7065630555152893e-01" purity="4.1207459568977356e-01" nType="-99"/>
        </Node>
        <Node pos="r" depth="1" NCoef="0" IVar="1" Cut="1.8308715820312500e+02" cType="1" res="1.1965597979724407e-02" rms="4.6132153272628784e-01" purity="5.1989847421646118e-01" nType="0">
          <Node pos="l" depth="2" NCoef="0" IVar="-1" Cut="0.0000000000000000e+00" cType="1" res="1.8143812194466591e-03" rms="4.5755940675735474e-01" purity="5.8488500118255615e-01" nType="-99"/>
          <Node pos="r" depth="2" NCoef="0" IVar="-1" Cut="0.0000000000000000e+00" cType="1" res="-1.0590372839942575e-03" rms="4.6358540654182434e-01" purity="4.3609914183616638e-01" nType="-99"/>
        </Node>
      </Node>
    </BinaryTree>
    <BinaryTree type="DecisionTree" boostWeight="1.0000000000000000e+00" itree="233">
      <Node pos="s" depth="0" NCoef="0" IVar="4" Cut="3.8612556457519531e+01" cType="1" res="5.3601139225065708e-03" rms="4.6055427193641663e-01" purity="5.0886893272399902e-01" nType="0">
        <Node pos="l" depth="1" NCoef="0" IVar="-1" Cut="0.0000000000000000e+00" cType="1" res="-3.3440054394304752e-03" rms="4.5381513237953186e-01" purity="3.5842967033386230e-01" nType="-99"/>
        <Node pos="r" depth="1" NCoef="0" IVar="8" Cut="9.3069171905517578e-01" cType="1" res="1.4307720586657524e-02" rms="4.6036535501480103e-01" purity="5.2490860223770142e-01" nType="0">
          <Node pos="l" depth="2" NCoef="0" IVar="-1" Cut="0.0000000000000000e+00" cType="1" res="1.8730936571955681e-03" rms="4.5614433288574219e-01" purity="6.1150604486465454e-01" nType="-99"/>
          <Node pos="r" depth="2" NCoef="0" IVar="-1" Cut="0.0000000000000000e+00" cType="1" res="-4.6290477621369064e-04" rms="4.6287474036216736e-01" purity="4.4410699605941772e-01" nType="-99"/>
        </Node>
      </Node>
    </BinaryTree>
    <BinaryTree type="DecisionTree" boostWeight="1.0000000000000000e+00" itree="234">
      <Node pos="s" depth="0" NCoef="0" IVar="4" Cut="7.8300506591796875e+01" cType="1" res="3.7254076451063156e-03" rms="4.6122124791145325e-01" purity="5.0365239381790161e-01" nType="0">
        <Node pos="l" depth="1" NCoef="0" IVar="2" Cut="1.5021744966506958e+00" cType="1" res="-2.1529417484998703e-02" rms="4.6230325102806091e-01" purity="4.6369853615760803e-01" nType="0">
          <Node pos="l" depth="2" NCoef="0" IVar="-1" Cut="0.0000000000000000e+00" cType="1" res="-4.0627145790494978e-04" rms="4.7311025857925415e-01" purity="5.0503742694854736e-01" nType="-99"/>
          <Node pos="r" depth="2" NCoef="0" IVar="-1" Cut="0.0000000000000000e+00" cType="1" res="-4.3021356686949730e-03" rms="3.8000869750976562e-01" purity="2.0660233497619629e-01" nType="-99"/>
        </Node>
        <Node pos="r" depth="1" NCoef="0" IVar="4" Cut="1.4858776855468750e+02" cType="1" res="3.0948327854275703e-02" rms="4.5849677920341492e-01" purity="5.4671990871429443e-01" nType="0">
          <Node pos="l" depth="2" NCoef="0" IVar="-1" Cut="0.0000000000000000e+00" cType="1" res="1.9906016532331705e-03" rms="4.5794299244880676e-01" purity="5.7185918092727661e-01" nType="-99"/>
          <Node pos="r" depth="2" NCoef="0" IVar="-1" Cut="0.0000000000000000e+00" cType="1" res="-1.7261261818930507e-03" rms="4.5515096187591553e-01" purity="4.0391153097152710e-01" nType="-99"/>
        </Node>
      </Node>
    </BinaryTree>
    <BinaryTree type="DecisionTree" boostWeight="1.0000000000000000e+00" itree="235">
      <Node pos="s" depth="0" NCoef="0" IVar="7" Cut="9.2661166191101074e-01" cType="1" res="-3.8584745489060879e-03" rms="4.6068510413169861e-01" purity="4.9943783879280090e-01" nType="0">
        <Node pos="l" depth="1" NCoef="0" IVar="1" Cut="1.3100082397460938e+02" cType="1" res="-5.7638458907604218e-02" rms="4.3431901931762695e-01" purity="2.9528868198394775e-01" nType="0">
          <Node pos="l" depth="2" NCoef="0" IVar="-1" Cut="0.0000000000000000e+00" cType="1" res="-6.9665681803599000e-04" rms="4.5885270833969116e-01" purity="3.6515140533447266e-01" nType="-99"/>
          <Node pos="r" depth="2" NCoef="0" IVar="-1" Cut="0.0000000000000000e+00" cType="1" res="-3.3027708996087313e-03" rms="4.1784891486167908e-01" purity="2.5510227680206299e-01" nType="-99"/>
        </Node>
        <Node pos="r" depth="1" NCoef="0" IVar="4" Cut="6.6759109497070312e+01" cType="1" res="6.3352570869028568e-03" rms="4.6481335163116455e-01" purity="5.3813332319259644e-01" nType="0">
          <Node pos="l" depth="2" NCoef="0" IVar="-1" Cut="0.0000000000000000e+00" cType="1" res="-8.5668091196566820e-04" rms="4.6835383772850037e-01" purity="4.8532530665397644e-01" nType="-99"/>
          <Node pos="r" depth="2" NCoef="0" IVar="-1" Cut="0.0000000000000000e+00" cType="1" res="1.0892434511333704e-03" rms="4.6158227324485779e-01" purity="5.7374340295791626e-01" nType="-99"/>
        </Node>
      </Node>
    </BinaryTree>
    <BinaryTree type="DecisionTree" boostWeight="1.0000000000000000e+00" itree="236">
      <Node pos="s" depth="0" NCoef="0" IVar="8" Cut="1.8560880422592163e+00" cType="1" res="7.7351799700409174e-04" rms="4.5930665731430054e-01" purity="5.0220745801925659e-01" nType="0">
        <Node pos="l" depth="1" NCoef="0" IVar="9" Cut="4.9331408691406250e+02" cType="1" res="1.4216921292245388e-02" rms="4.6603679656982422e-01" purity="5.4635459184646606e-01" nType="0">
          <Node pos="l" depth="2" NCoef="0" IVar="-1" Cut="0.0000000000000000e+00" cType="1" res="-2.5298229884356260e-03" rms="4.4986957311630249e-01" purity="4.3537282943725586e-01" nType="-99"/>
          <Node pos="r" depth="2" NCoef="0" IVar="-1" Cut="0.0000000000000000e+00" cType="1" res="1.0114632314071059e-03" rms="4.6711286902427673e-01" purity="5.5920630693435669e-01" nType="-99"/>
        </Node>
        <Node pos="r" depth="1" NCoef="0" IVar="2" Cut="1.3266260623931885e+00" cType="1" res="-6.1966199427843094e-02" rms="4.2085453867912292e-01" purity="2.9617458581924438e-01" nType="0">
          <Node pos="l" depth="2" NCoef="0" IVar="-1" Cut="0.0000000000000000e+00" cType="1" res="-9.8827818874269724e-04" rms="4.6573296189308167e-01" purity="4.1702613234519958e-01" nType="-99"/>
          <Node pos="r" depth="2" NCoef="0" IVar="-1" Cut="0.0000000000000000e+00" cType="1" res="-3.9861127734184265e-03" rms="3.8462281227111816e-01" purity="2.1273352205753326e-01" nType="-99"/>
        </Node>
      </Node>
    </BinaryTree>
    <BinaryTree type="DecisionTree" boostWeight="1.0000000000000000e+00" itree="237">
      <Node pos="s" depth="0" NCoef="0" IVar="8" Cut="9.7821986675262451e-01" cType="1" res="-6.0992902144789696e-03" rms="4.6137323975563049e-01" purity="4.9708977341651917e-01" nType="0">
        <Node pos="l" depth="1" NCoef="0" IVar="4" Cut="5.2489929199218750e+01" cType="1" res="1.8603974953293800e-02" rms="4.6346643567085266e-01" purity="5.8071833848953247e-01" nType="0">
          <Node pos="l" depth="2" NCoef="0" IVar="-1" Cut="0.0000000000000000e+00" cType="1" res="-1.4055781066417694e-03" rms="4.7431606054306030e-01" purity="4.7727441787719727e-01" nType="-99"/>
          <Node pos="r" depth="2" NCoef="0" IVar="-1" Cut="0.0000000000000000e+00" cType="1" res="1.7081637633964419e-03" rms="4.5821779966354370e-01" purity="6.1673355102539062e-01" nType="-99"/>
        </Node>
        <Node pos="r" depth="1" NCoef="0" IVar="0" Cut="8.3688669204711914e+00" cType="1" res="-3.1712178140878677e-02" rms="4.5778745412826538e-01" purity="4.1038182377815247e-01" nType="0">
          <Node pos="l" depth="2" NCoef="0" IVar="-1" Cut="0.0000000000000000e+00" cType="1" res="-1.7482559196650982e-03" rms="4.5726728439331055e-01" purity="3.7881484627723694e-01" nType="-99"/>
          <Node pos="r" depth="2" NCoef="0" IVar="-1" Cut="0.0000000000000000e+00" cType="1" res="7.0249545387923717e-04" rms="4.5750510692596436e-01" purity="5.6803715229034424e-01" nType="-99"/>
        </Node>
      </Node>
    </BinaryTree>
    <BinaryTree type="DecisionTree" boostWeight="1.0000000000000000e+00" itree="238">
      <Node pos="s" depth="0" NCoef="0" IVar="7" Cut="9.5782077312469482e-01" cType="1" res="-1.4779083430767059e-02" rms="4.6214798092842102e-01" purity="4.8815700411796570e-01" nType="0">
        <Node pos="l" depth="1" NCoef="0" IVar="5" Cut="1.1202859878540039e-01" cType="1" res="-3.1905379146337509e-02" rms="4.6370425820350647e-01" purity="4.1139286756515503e-01" nType="0">
          <Node pos="l" depth="2" NCoef="0" IVar="-1" Cut="0.0000000000000000e+00" cType="1" res="-1.8593427957966924e-03" rms="4.5733764767646790e-01" purity="3.6755669116973877e-01" nType="-99"/>
          <Node pos="r" depth="2" NCoef="0" IVar="-1" Cut="0.0000000000000000e+00" cType="1" res="-2.3949168098624796e-04" rms="4.7540193796157837e-01" purity="5.0115412473678589e-01" nType="-99"/>
        </Node>
        <Node pos="r" depth="1" NCoef="0" IVar="4" Cut="8.0413742065429688e+01" cType="1" res="1.0506934486329556e-02" rms="4.5867305994033813e-01" purity="6.0149502754211426e-01" nType="0">
          <Node pos="l" depth="2" NCoef="0" IVar="-1" Cut="0.0000000000000000e+00" cType="1" res="-7.9866225132718682e-04" rms="4.7123265266418457e-01" purity="5.5462789535522461e-01" nType="-99"/>
          <Node pos="r" depth="2" NCoef="0" IVar="-1" Cut="0.0000000000000000e+00" cType="1" res="2.1446032915264368e-03" rms="4.4085580110549927e-01" purity="6.5759706497192383e-01" nType="-99"/>
        </Node>
      </Node>
    </BinaryTree>
    <BinaryTree type="DecisionTree" boostWeight="1.0000000000000000e+00" itree="239">
      <Node pos="s" depth="0" NCoef="0" IVar="4" Cut="4.8728153228759766e+01" cType="1" res="1.8934058025479317e-03" rms="4.5989784598350525e-01" purity="5.0626862049102783e-01" nType="0">
        <Node pos="l" depth="1" NCoef="0" IVar="2" Cut="1.0399892330169678e+00" cType="1" res="-4.4387407600879669e-02" rms="4.6014067530632019e-01" purity="4.1322824358940125e-01" nType="0">
          <Node pos="l" depth="2" NCoef="0" IVar="-1" Cut="0.0000000000000000e+00" cType="1" res="3.0606072414229857e-06" rms="4.8217621445655823e-01" purity="5.4752486944198608e-01" nType="-99"/>
          <Node pos="r" depth="2" NCoef="0" IVar="-1" Cut="0.0000000000000000e+00" cType="1" res="-3.6364037077873945e-03" rms="4.3368059396743774e-01" purity="2.8431603312492371e-01" nType="-99"/>
        </Node>
        <Node pos="r" depth="1" NCoef="0" IVar="8" Cut="9.7803109884262085e-01" cType="1" res="1.4026042073965073e-02" rms="4.5906290411949158e-01" purity="5.3065937757492065e-01" nType="0">
          <Node pos="l" depth="2" NCoef="0" IVar="-1" Cut="0.0000000000000000e+00" cType="1" res="1.6720202984288335e-03" rms="4.5645427703857422e-01" purity="6.1484897136688232e-01" nType="-99"/>
          <Node pos="r" depth="2" NCoef="0" IVar="-1" Cut="0.0000000000000000e+00" cType="1" res="-3.8158503593876958e-04" rms="4.6060171723365784e-01" purity="4.4431135058403015e-01" nType="-99"/>
        </Node>
      </Node>
    </BinaryTree>
    <BinaryTree type="DecisionTree" boostWeight="1.0000000000000000e+00" itree="240">
      <Node pos="s" depth="0" NCoef="0" IVar="7" Cut="9.2582166194915771e-01" cType="1" res="2.5642891414463520e-03" rms="4.5986339449882507e-01" purity="5.0489407777786255e-01" nType="0">
        <Node pos="l" depth="1" NCoef="0" IVar="3" Cut="2.1050548553466797e+00" cType="1" res="-5.9917747974395752e-02" rms="4.2773601412773132e-01" purity="2.9173877835273743e-01" nType="0">
          <Node pos="l" depth="2" NCoef="0" IVar="-1" Cut="0.0000000000000000e+00" cType="1" res="-1.1138679692521691e-03" rms="4.7074854373931885e-01" purity="3.9506423473358154e-01" nType="-99"/>
          <Node pos="r" depth="2" NCoef="0" IVar="-1" Cut="0.0000000000000000e+00" cType="1" res="-3.3655040897428989e-03" rms="3.9557215571403503e-01" purity="2.2351363301277161e-01" nType="-99"/>
        </Node>
        <Node pos="r" depth="1" NCoef="0" IVar="8" Cut="1.8848836421966553e+00" cType="1" res="1.3229658827185631e-02" rms="4.6428632736206055e-01" purity="5.4127860069274902e-01" nType="0">
          <Node pos="l" depth="2" NCoef="0" IVar="-1" Cut="0.0000000000000000e+00" cType="1" res="1.0501147480681539e-03" rms="4.6660730242729187e-01" purity="5.8068001270294189e-01" nType="-99"/>
          <Node pos="r" depth="2" NCoef="0" IVar="-1" Cut="0.0000000000000000e+00" cType="1" res="-1.7159084090963006e-03" rms="4.4843813776969910e-01" purity="3.3703047037124634e-01" nType="-99"/>
        </Node>
      </Node>
    </BinaryTree>
    <BinaryTree type="DecisionTree" boostWeight="1.0000000000000000e+00" itree="241">
      <Node pos="s" depth="0" NCoef="0" IVar="7" Cut="9.2634314298629761e-01" cType="1" res="2.1824978757649660e-03" rms="4.6033847332000732e-01" purity="5.0502461194992065e-01" nType="0">
        <Node pos="l" depth="1" NCoef="0" IVar="9" Cut="8.1505432128906250e+02" cType="1" res="-5.2718035876750946e-02" rms="4.3482074141502380e-01" purity="2.9912954568862915e-01" nType="0">
          <Node pos="l" depth="2" NCoef="0" IVar="-1" Cut="0.0000000000000000e+00" cType="1" res="-2.9466454870998859e-03" rms="4.1900917887687683e-01" purity="2.7245959639549255e-01" nType="-99"/>
          <Node pos="r" depth="2" NCoef="0" IVar="-1" Cut="0.0000000000000000e+00" cType="1" res="-7.4835604755207896e-04" rms="4.5938208699226379e-01" purity="3.4625834226608276e-01" nType="-99"/>
        </Node>
        <Node pos="r" depth="1" NCoef="0" IVar="4" Cut="1.4193081665039062e+02" cType="1" res="1.2452390044927597e-02" rms="4.6423614025115967e-01" purity="5.4354006052017212e-01" nType="0">
          <Node pos="l" depth="2" NCoef="0" IVar="-1" Cut="0.0000000000000000e+00" cType="1" res="8.8721408974379301e-04" rms="4.6388092637062073e-01" purity="5.5497008562088013e-01" nType="-99"/>
          <Node pos="r" depth="2" NCoef="0" IVar="-1" Cut="0.0000000000000000e+00" cType="1" res="-2.8768212068825960e-03" rms="4.6074038743972778e-01" purity="4.1778066754341125e-01" nType="-99"/>
        </Node>
      </Node>
    </BinaryTree>
    <BinaryTree type="DecisionTree" boostWeight="1.0000000000000000e+00" itree="242">
      <Node pos="s" depth="0" NCoef="0" IVar="5" Cut="9.5163211226463318e-02" cType="1" res="-5.9661013074219227e-03" rms="4.6019986271858215e-01" purity="4.9486517906188965e-01" nType="0">
        <Node pos="l" depth="1" NCoef="0" IVar="7" Cut="9.2996907234191895e-01" cType="1" res="-2.5780739262700081e-02" rms="4.5962563157081604e-01" purity="4.3381074070930481e-01" nType="0">
          <Node pos="l" depth="2" NCoef="0" IVar="-1" Cut="0.0000000000000000e+00" cType="1" res="-3.0991295352578163e-03" rms="4.1836676001548767e-01" purity="2.5223195552825928e-01" nType="-99"/>
          <Node pos="r" depth="2" NCoef="0" IVar="-1" Cut="0.0000000000000000e+00" cType="1" res="-5.8044871548190713e-04" rms="4.6897897124290466e-01" purity="4.8116752505302429e-01" nType="-99"/>
        </Node>
        <Node pos="r" depth="1" NCoef="0" IVar="0" Cut="8.5368013381958008e+00" cType="1" res="2.0890198647975922e-02" rms="4.5961552858352661e-01" purity="5.7761698961257935e-01" nType="0">
          <Node pos="l" depth="2" NCoef="0" IVar="-1" Cut="0.0000000000000000e+00" cType="1" res="4.1549460729584098e-04" rms="4.6902415156364441e-01" purity="5.4332536458969116e-01" nType="-99"/>
          <Node pos="r" depth="2" NCoef="0" IVar="-1" Cut="0.0000000000000000e+00" cType="1" res="4.0733003988862038e-03" rms="4.0663176774978638e-01" purity="7.4335360527038574e-01" nType="-99"/>
        </Node>
      </Node>
    </BinaryTree>
    <BinaryTree type="DecisionTree" boostWeight="1.0000000000000000e+00" itree="243">
      <Node pos="s" depth="0" NCoef="0" IVar="3" Cut="2.2061715126037598e+00" cType="1" res="-8.9650769950821996e-04" rms="4.6114936470985413e-01" purity="5.0432199239730835e-01" nType="0">
        <Node pos="l" depth="1" NCoef="0" IVar="1" Cut="8.7535385131835938e+01" cType="1" res="1.7515879124403000e-02" rms="4.6587684750556946e-01" purity="5.9364056587219238e-01" nType="0">
          <Node pos="l" depth="2" NCoef="0" IVar="-1" Cut="0.0000000000000000e+00" cType="1" res="-1.5486696502193809e-03" rms="4.7842642664909363e-01" purity="4.8387071490287781e-01" nType="-99"/>
          <Node pos="r" depth="2" NCoef="0" IVar="-1" Cut="0.0000000000000000e+00" cType="1" res="1.4348458498716354e-03" rms="4.6154952049255371e-01" purity="6.2206023931503296e-01" nType="-99"/>
        </Node>
        <Node pos="r" depth="1" NCoef="0" IVar="4" Cut="5.4187946319580078e+01" cType="1" res="-2.7575289830565453e-02" rms="4.5288598537445068e-01" purity="3.7490299344062805e-01" nType="0">
          <Node pos="l" depth="2" NCoef="0" IVar="-1" Cut="0.0000000000000000e+00" cType="1" res="-3.7981190253049135e-03" rms="4.1583183407783508e-01" purity="2.6115947961807251e-01" nType="-99"/>
          <Node pos="r" depth="2" NCoef="0" IVar="-1" Cut="0.0000000000000000e+00" cType="1" res="-6.6134164808318019e-04" rms="4.5930394530296326e-01" purity="3.9865800738334656e-01" nType="-99"/>
        </Node>
      </Node>
    </BinaryTree>
    <BinaryTree type="DecisionTree" boostWeight="1.0000000000000000e+00" itree="244">
      <Node pos="s" depth="0" NCoef="0" IVar="2" Cut="1.5875569581985474e+00" cType="1" res="6.1076099518686533e-04" rms="4.5826175808906555e-01" purity="5.0375449657440186e-01" nType="0">
        <Node pos="l" depth="1" NCoef="0" IVar="1" Cut="7.5683647155761719e+01" cType="1" res="9.3069979920983315e-03" rms="4.6384075284004211e-01" purity="5.3595763444900513e-01" nType="0">
          <Node pos="l" depth="2" NCoef="0" IVar="-1" Cut="0.0000000000000000e+00" cType="1" res="-2.3888424038887024e-03" rms="4.6847054362297058e-01" purity="4.2368540167808533e-01" nType="-99"/>
          <Node pos="r" depth="2" NCoef="0" IVar="-1" Cut="0.0000000000000000e+00" cType="1" res="8.1611040513962507e-04" rms="4.6248179674148560e-01" purity="5.5110770463943481e-01" nType="-99"/>
        </Node>
        <Node pos="r" depth="1" NCoef="0" IVar="-1" Cut="0.0000000000000000e+00" cType="1" res="-3.2191334757953882e-03" rms="4.0156191587448120e-01" purity="2.3539565503597260e-01" nType="-99"/>
      </Node>
    </BinaryTree>
    <BinaryTree type="DecisionTree" boostWeight="1.0000000000000000e+00" itree="245">
      <Node pos="s" depth="0" NCoef="0" IVar="0" Cut="8.5514688491821289e+00" cType="1" res="-9.2147542163729668e-03" rms="4.6180298924446106e-01" purity="4.9411630630493164e-01" nType="0">
        <Node pos="l" depth="1" NCoef="0" IVar="7" Cut="9.1979205608367920e-01" cType="1" res="-2.0955033600330353e-02" rms="4.6579071879386902e-01" purity="4.5902076363563538e-01" nType="0">
          <Node pos="l" depth="2" NCoef="0" IVar="-1" Cut="0.0000000000000000e+00" cType="1" res="-2.8346399776637554e-03" rms="4.2691147327423096e-01" purity="2.7513176202774048e-01" nType="-99"/>
          <Node pos="r" depth="2" NCoef="0" IVar="-1" Cut="0.0000000000000000e+00" cType="1" res="-6.0376821784302592e-04" rms="4.7060158848762512e-01" purity="4.8502042889595032e-01" nType="-99"/>
        </Node>
        <Node pos="r" depth="1" NCoef="0" IVar="4" Cut="8.4572898864746094e+01" cType="1" res="5.0694346427917480e-02" rms="4.3599781394004822e-01" purity="6.7320430278778076e-01" nType="0">
          <Node pos="l" depth="2" NCoef="0" IVar="-1" Cut="0.0000000000000000e+00" cType="1" res="7.4806291377171874e-04" rms="4.5366445183753967e-01" purity="6.2354725599288940e-01" nType="-99"/>
          <Node pos="r" depth="2" NCoef="0" IVar="-1" Cut="0.0000000000000000e+00" cType="1" res="4.7320425510406494e-03" rms="4.1107603907585144e-01" purity="7.3027116060256958e-01" nType="-99"/>
        </Node>
      </Node>
    </BinaryTree>
    <BinaryTree type="DecisionTree" boostWeight="1.0000000000000000e+00" itree="246">
      <Node pos="s" depth="0" NCoef="0" IVar="8" Cut="1.7143388986587524e+00" cType="1" res="-5.5649285204708576e-03" rms="4.6076732873916626e-01" purity="4.9609616398811340e-01" nType="0">
        <Node pos="l" depth="1" NCoef="0" IVar="4" Cut="1.4946972656250000e+02" cType="1" res="7.5655519030988216e-03" rms="4.6571370959281921e-01" purity="5.4629617929458618e-01" nType="0">
          <Node pos="l" depth="2" NCoef="0" IVar="-1" Cut="0.0000000000000000e+00" cType="1" res="6.6453462932258844e-04" rms="4.6534010767936707e-01" purity="5.5780410766601562e-01" nType="-99"/>
          <Node pos="r" depth="2" NCoef="0" IVar="-1" Cut="0.0000000000000000e+00" cType="1" res="-3.8378755562007427e-03" rms="4.5924606919288635e-01" purity="3.8971841335296631e-01" nType="-99"/>
        </Node>
        <Node pos="r" depth="1" NCoef="0" IVar="5" Cut="6.4435303211212158e-02" cType="1" res="-5.3411751985549927e-02" rms="4.3896433711051941e-01" purity="3.1316989660263062e-01" nType="0">
          <Node pos="l" depth="2" NCoef="0" IVar="-1" Cut="0.0000000000000000e+00" cType="1" res="-3.3919173292815685e-03" rms="4.1700851917266846e-01" purity="2.5230091810226440e-01" nType="-99"/>
          <Node pos="r" depth="2" NCoef="0" IVar="-1" Cut="0.0000000000000000e+00" cType="1" res="-1.3555909972637892e-03" rms="4.5819124579429626e-01" purity="3.7218561768531799e-01" nType="-99"/>
        </Node>
      </Node>
    </BinaryTree>
    <BinaryTree type="DecisionTree" boostWeight="1.0000000000000000e+00" itree="247">
      <Node pos="s" depth="0" NCoef="0" IVar="7" Cut="9.3867701292037964e-01" cType="1" res="-5.0931340083479881e-03" rms="4.6178802847862244e-01" purity="4.9833500385284424e-01" nType="0">
        <Node pos="l" depth="1" NCoef="0" IVar="9" Cut="6.2175885009765625e+02" cType="1" res="-4.0295276790857315e-02" rms="4.4613057374954224e-01" purity="3.4475964307785034e-01" nType="0">
          <Node pos="l" depth="2" NCoef="0" IVar="-1" Cut="0.0000000000000000e+00" cType="1" res="-3.6785916890949011e-03" rms="4.1743215918540955e-01" purity="2.6685649156570435e-01" nType="-99"/>
          <Node pos="r" depth="2" NCoef="0" IVar="-1" Cut="0.0000000000000000e+00" cType="1" res="-6.3249352388083935e-04" rms="4.5730111002922058e-01" purity="3.8240694999694824e-01" nType="-99"/>
        </Node>
        <Node pos="r" depth="1" NCoef="0" IVar="6" Cut="7.9194213867187500e+01" cType="1" res="9.4690928235650063e-03" rms="4.6733731031417847e-01" purity="5.6186515092849731e-01" nType="0">
          <Node pos="l" depth="2" NCoef="0" IVar="-1" Cut="0.0000000000000000e+00" cType="1" res="1.7624244792386889e-03" rms="4.6372199058532715e-01" purity="5.9394252300262451e-01" nType="-99"/>
          <Node pos="r" depth="2" NCoef="0" IVar="-1" Cut="0.0000000000000000e+00" cType="1" res="-7.2888372233137488e-04" rms="4.6905386447906494e-01" purity="5.3320389986038208e-01" nType="-99"/>
        </Node>
      </Node>
    </BinaryTree>
    <BinaryTree type="DecisionTree" boostWeight="1.0000000000000000e+00" itree="248">
      <Node pos="s" depth="0" NCoef="0" IVar="2" Cut="1.1513020992279053e+00" cType="1" res="-5.0605381838977337e-03" rms="4.5726168155670166e-01" purity="4.9685308337211609e-01" nType="0">
        <Node pos="l" depth="1" NCoef="0" IVar="5" Cut="8.5384175181388855e-02" cType="1" res="1.8027836456894875e-02" rms="4.6299642324447632e-01" purity="6.0557025671005249e-01" nType="0">
          <Node pos="l" depth="2" NCoef="0" IVar="-1" Cut="0.0000000000000000e+00" cType="1" res="-7.5965019641444087e-04" rms="4.7104677557945251e-01" purity="5.4099464416503906e-01" nType="-99"/>
          <Node pos="r" depth="2" NCoef="0" IVar="-1" Cut="0.0000000000000000e+00" cType="1" res="1.9579646177589893e-03" rms="4.5604211091995239e-01" purity="6.4852643013000488e-01" nType="-99"/>
        </Node>
        <Node pos="r" depth="1" NCoef="0" IVar="0" Cut="8.6676511764526367e+00" cType="1" res="-3.3661089837551117e-02" rms="4.4841110706329346e-01" purity="3.6218056082725525e-01" nType="0">
          <Node pos="l" depth="2" NCoef="0" IVar="-1" Cut="0.0000000000000000e+00" cType="1" res="-1.9572211895138025e-03" rms="4.4415205717086792e-01" purity="3.3071032166481018e-01" nType="-99"/>
          <Node pos="r" depth="2" NCoef="0" IVar="-1" Cut="0.0000000000000000e+00" cType="1" res="1.9524416420608759e-03" rms="4.6680888533592224e-01" purity="5.5875825881958008e-01" nType="-99"/>
        </Node>
      </Node>
    </BinaryTree>
    <BinaryTree type="DecisionTree" boostWeight="1.0000000000000000e+00" itree="249">
      <Node pos="s" depth="0" NCoef="0" IVar="0" Cut="8.3839988708496094e+00" cType="1" res="5.2847391925752163e-03" rms="4.6016165614128113e-01" purity="5.0823622941970825e-01" nType="0">
        <Node pos="l" depth="1" NCoef="0" IVar="6" Cut="8.8233238220214844e+01" cType="1" res="-6.3660494051873684e-03" rms="4.6543747186660767e-01" purity="4.6856155991554260e-01" nType="0">
          <Node pos="l" depth="2" NCoef="0" IVar="-1" Cut="0.0000000000000000e+00" cType="1" res="4.6560319606214762e-04" rms="4.6556493639945984e-01" purity="4.8974835872650146e-01" nType="-99"/>
          <Node pos="r" depth="2" NCoef="0" IVar="-1" Cut="0.0000000000000000e+00" cType="1" res="-1.1899684322997928e-03" rms="4.6439316868782043e-01" purity="4.4200417399406433e-01" nType="-99"/>
        </Node>
        <Node pos="r" depth="1" NCoef="0" IVar="4" Cut="6.4903526306152344e+01" cType="1" res="5.5608551949262619e-02" rms="4.3305566906929016e-01" purity="6.7960470914840698e-01" nType="0">
          <Node pos="l" depth="2" NCoef="0" IVar="-1" Cut="0.0000000000000000e+00" cType="1" res="-2.8796461992897093e-04" rms="4.5822176337242126e-01" purity="5.8446997404098511e-01" nType="-99"/>
          <Node pos="r" depth="2" NCoef="0" IVar="-1" Cut="0.0000000000000000e+00" cType="1" res="4.7922166995704174e-03" rms="4.1370770335197449e-01" purity="7.3440998792648315e-01" nType="-99"/>
        </Node>
      </Node>
    </BinaryTree>
    <BinaryTree type="DecisionTree" boostWeight="1.0000000000000000e+00" itree="250">
      <Node pos="s" depth="0" NCoef="0" IVar="2" Cut="6.8679523468017578e-01" cType="1" res="-5.5680647492408752e-03" rms="4.5959553122520447e-01" purity="4.9629613757133484e-01" nType="0">
        <Node pos="l" depth="1" NCoef="0" IVar="1" Cut="1.3527331542968750e+02" cType="1" res="5.7709623128175735e-02" rms="4.3758475780487061e-01" purity="7.0964455604553223e-01" nType="0">
          <Node pos="l" depth="2" NCoef="0" IVar="-1" Cut="0.0000000000000000e+00" cType="1" res="4.3220971710979939e-03" rms="4.2106133699417114e-01" purity="7.3774719238281250e-01" nType="-99"/>
          <Node pos="r" depth="2" NCoef="0" IVar="-1" Cut="0.0000000000000000e+00" cType="1" res="1.1734415311366320e-03" rms="4.5377749204635620e-01" purity="6.7689114809036255e-01" nType="-99"/>
        </Node>
        <Node pos="r" depth="1" NCoef="0" IVar="4" Cut="4.8728153228759766e+01" cType="1" res="-1.3641818426549435e-02" rms="4.6170514822006226e-01" purity="4.6907451748847961e-01" nType="0">
          <Node pos="l" depth="2" NCoef="0" IVar="-1" Cut="0.0000000000000000e+00" cType="1" res="-2.3067242000252008e-03" rms="4.5246964693069458e-01" purity="3.7048870325088501e-01" nType="-99"/>
          <Node pos="r" depth="2" NCoef="0" IVar="-1" Cut="0.0000000000000000e+00" cType="1" res="-1.3514421880245209e-04" rms="4.6345105767250061e-01" purity="4.9433204531669617e-01" nType="-99"/>
        </Node>
      </Node>
    </BinaryTree>
    <BinaryTree type="DecisionTree" boostWeight="1.0000000000000000e+00" itree="251">
      <Node pos="s" depth="0" NCoef="0" IVar="9" Cut="5.8177691650390625e+02" cType="1" res="-4.9189906567335129e-03" rms="4.6065822243690491e-01" purity="4.9507263302803040e-01" nType="0">
        <Node pos="l" depth="1" NCoef="0" IVar="6" Cut="7.1084197998046875e+01" cType="1" res="-4.7750223428010941e-02" rms="4.5162239670753479e-01" purity="4.1951623558998108e-01" nType="0">
          <Node pos="l" depth="2" NCoef="0" IVar="-1" Cut="0.0000000000000000e+00" cType="1" res="-5.5685418192297220e-04" rms="4.5556670427322388e-01" purity="4.6839168667793274e-01" nType="-99"/>
          <Node pos="r" depth="2" NCoef="0" IVar="-1" Cut="0.0000000000000000e+00" cType="1" res="-3.5943377297371626e-03" rms="4.4435557723045349e-01" purity="3.6751866340637207e-01" nType="-99"/>
        </Node>
        <Node pos="r" depth="1" NCoef="0" IVar="4" Cut="1.4077226257324219e+02" cType="1" res="1.0459173470735550e-02" rms="4.6289360523223877e-01" purity="5.2220052480697632e-01" nType="0">
          <Node pos="l" depth="2" NCoef="0" IVar="-1" Cut="0.0000000000000000e+00" cType="1" res="8.9690776076167822e-04" rms="4.6325257420539856e-01" purity="5.4043000936508179e-01" nType="-99"/>
          <Node pos="r" depth="2" NCoef="0" IVar="-1" Cut="0.0000000000000000e+00" cType="1" res="-2.5462245102971792e-03" rms="4.5428159832954407e-01" purity="3.9081400632858276e-01" nType="-99"/>
        </Node>
      </Node>
    </BinaryTree>
    <BinaryTree type="DecisionTree" boostWeight="1.0000000000000000e+00" itree="252">
      <Node pos="s" depth="0" NCoef="0" IVar="1" Cut="1.4001455688476562e+02" cType="1" res="6.3089124159887433e-04" rms="4.6283346414566040e-01" purity="5.0188416242599487e-01" nType="0">
        <Node pos="l" depth="1" NCoef="0" IVar="1" Cut="1.0008254241943359e+02" cType="1" res="2.1339338272809982e-02" rms="4.6125820279121399e-01" purity="5.5199837684631348e-01" nType="0">
          <Node pos="l" depth="2" NCoef="0" IVar="-1" Cut="0.0000000000000000e+00" cType="1" res="-1.1825233232229948e-03" rms="4.6627935767173767e-01" purity="4.6109572052955627e-01" nType="-99"/>
          <Node pos="r" depth="2" NCoef="0" IVar="-1" Cut="0.0000000000000000e+00" cType="1" res="3.1369493808597326e-03" rms="4.5162561535835266e-01" purity="6.3806313276290894e-01" nType="-99"/>
        </Node>
        <Node pos="r" depth="1" NCoef="0" IVar="4" Cut="1.5141424560546875e+02" cType="1" res="-1.7595153301954269e-02" rms="4.6345052123069763e-01" purity="4.5777729153633118e-01" nType="0">
          <Node pos="l" depth="2" NCoef="0" IVar="-1" Cut="0.0000000000000000e+00" cType="1" res="-4.3799384729936719e-04" rms="4.6445161104202271e-01" purity="4.7227281332015991e-01" nType="-99"/>
          <Node pos="r" depth="2" NCoef="0" IVar="-1" Cut="0.0000000000000000e+00" cType="1" res="-3.2614688389003277e-03" rms="4.5148289203643799e-01" purity="3.4711042046546936e-01" nType="-99"/>
        </Node>
      </Node>
    </BinaryTree>
    <BinaryTree type="DecisionTree" boostWeight="1.0000000000000000e+00" itree="253">
      <Node pos="s" depth="0" NCoef="0" IVar="5" Cut="9.5898598432540894e-02" cType="1" res="2.6772657874971628e-03" rms="4.6082958579063416e-01" purity="5.0717127323150635e-01" nType="0">
        <Node pos="l" depth="1" NCoef="0" IVar="4" Cut="3.9303443908691406e+01" cType="1" res="-1.8814422190189362e-02" rms="4.6018457412719727e-01" purity="4.4397032260894775e-01" nType="0">
          <Node pos="l" depth="2" NCoef="0" IVar="-1" Cut="0.0000000000000000e+00" cType="1" res="-3.8177696987986565e-03" rms="4.4297820329666138e-01" purity="3.0146390199661255e-01" nType="-99"/>
          <Node pos="r" depth="2" NCoef="0" IVar="-1" Cut="0.0000000000000000e+00" cType="1" res="-4.8845383571460843e-04" rms="4.6134224534034729e-01" purity="4.5930042862892151e-01" nType="-99"/>
        </Node>
        <Node pos="r" depth="1" NCoef="0" IVar="9" Cut="5.6537384033203125e+02" cType="1" res="3.1351957470178604e-02" rms="4.6012827754020691e-01" purity="5.9149539470672607e-01" nType="0">
          <Node pos="l" depth="2" NCoef="0" IVar="-1" Cut="0.0000000000000000e+00" cType="1" res="-4.7853228170424700e-04" rms="4.6368181705474854e-01" purity="5.1100248098373413e-01" nType="-99"/>
          <Node pos="r" depth="2" NCoef="0" IVar="-1" Cut="0.0000000000000000e+00" cType="1" res="2.4246578104794025e-03" rms="4.5696273446083069e-01" purity="6.3079619407653809e-01" nType="-99"/>
        </Node>
      </Node>
    </BinaryTree>
    <BinaryTree type="DecisionTree" boostWeight="1.0000000000000000e+00" itree="254">
      <Node pos="s" depth="0" NCoef="0" IVar="4" Cut="1.0897073364257812e+02" cType="1" res="-5.7888929732143879e-03" rms="4.6249425411224365e-01" purity="4.9681350588798523e-01" nType="0">
        <Node pos="l" depth="1" NCoef="0" IVar="5" Cut="6.5704733133316040e-02" cType="1" res="-1.8385808914899826e-02" rms="4.6428826451301575e-01" purity="4.8063060641288757e-01" nType="0">
          <Node pos="l" depth="2" NCoef="0" IVar="-1" Cut="0.0000000000000000e+00" cType="1" res="-2.0922005642205477e-03" rms="4.5454773306846619e-01" purity="3.8894405961036682e-01" nType="-99"/>
          <Node pos="r" depth="2" NCoef="0" IVar="-1" Cut="0.0000000000000000e+00" cType="1" res="-2.0050998500664718e-05" rms="4.6897092461585999e-01" purity="5.3432089090347290e-01" nType="-99"/>
        </Node>
        <Node pos="r" depth="1" NCoef="0" IVar="4" Cut="1.3581036376953125e+02" cType="1" res="3.3357955515384674e-02" rms="4.5465183258056641e-01" purity="5.4710441827774048e-01" nType="0">
          <Node pos="l" depth="2" NCoef="0" IVar="-1" Cut="0.0000000000000000e+00" cType="1" res="3.6671392153948545e-03" rms="4.4119149446487427e-01" purity="6.2682574987411499e-01" nType="-99"/>
          <Node pos="r" depth="2" NCoef="0" IVar="-1" Cut="0.0000000000000000e+00" cType="1" res="-1.3135347981005907e-03" rms="4.6579536795616150e-01" purity="4.3452152609825134e-01" nType="-99"/>
        </Node>
      </Node>
    </BinaryTree>
    <BinaryTree type="DecisionTree" boostWeight="1.0000000000000000e+00" itree="255">
      <Node pos="s" depth="0" NCoef="0" IVar="8" Cut="5.3416043519973755e-01" cType="1" res="1.0148575529456139e-03" rms="4.6042492985725403e-01" purity="5.0071859359741211e-01" nType="0">
        <Node pos="l" depth="1" NCoef="0" IVar="1" Cut="1.6617625427246094e+02" cType="1" res="3.8162454962730408e-02" rms="4.5853471755981445e-01" purity="6.0888266563415527e-01" nType="0">
          <Node pos="l" depth="2" NCoef="0" IVar="-1" Cut="0.0000000000000000e+00" cType="1" res="3.0251231510192156e-03" rms="4.4477692246437073e-01" purity="6.6317570209503174e-01" nType="-99"/>
          <Node pos="r" depth="2" NCoef="0" IVar="-1" Cut="0.0000000000000000e+00" cType="1" res="1.0873658175114542e-04" rms="4.7478529810905457e-01" purity="5.3307080268859863e-01" nType="-99"/>
        </Node>
        <Node pos="r" depth="1" NCoef="0" IVar="6" Cut="8.7616432189941406e+01" cType="1" res="-1.1362314224243164e-02" rms="4.6038776636123657e-01" purity="4.6467947959899902e-01" nType="0">
          <Node pos="l" depth="2" NCoef="0" IVar="-1" Cut="0.0000000000000000e+00" cType="1" res="3.0041785794310272e-04" rms="4.6147391200065613e-01" purity="4.8572674393653870e-01" nType="-99"/>
          <Node pos="r" depth="2" NCoef="0" IVar="-1" Cut="0.0000000000000000e+00" cType="1" res="-1.4213732210919261e-03" rms="4.5817753672599792e-01" purity="4.3980863690376282e-01" nType="-99"/>
        </Node>
      </Node>
    </BinaryTree>
    <BinaryTree type="DecisionTree" boostWeight="1.0000000000000000e+00" itree="256">
      <Node pos="s" depth="0" NCoef="0" IVar="3" Cut="2.0577280521392822e+00" cType="1" res="-1.0980838909745216e-02" rms="4.6100518107414246e-01" purity="4.9041447043418884e-01" nType="0">
        <Node pos="l" depth="1" NCoef="0" IVar="9" Cut="6.5174908447265625e+02" cType="1" res="1.5321438200771809e-02" rms="4.6679770946502686e-01" purity="5.9456962347030640e-01" nType="0">
          <Node pos="l" depth="2" NCoef="0" IVar="-1" Cut="0.0000000000000000e+00" cType="1" res="-9.0795464348047972e-04" rms="4.7203594446182251e-01" purity="5.3466790914535522e-01" nType="-99"/>
          <Node pos="r" depth="2" NCoef="0" IVar="-1" Cut="0.0000000000000000e+00" cType="1" res="1.5530973905697465e-03" rms="4.6308159828186035e-01" purity="6.2455934286117554e-01" nType="-99"/>
        </Node>
        <Node pos="r" depth="1" NCoef="0" IVar="5" Cut="1.4655640721321106e-01" cType="1" res="-2.8298767283558846e-02" rms="4.5632424950599670e-01" purity="4.2183670401573181e-01" nType="0">
          <Node pos="l" depth="2" NCoef="0" IVar="-1" Cut="0.0000000000000000e+00" cType="1" res="-1.8757079960778356e-03" rms="4.5399570465087891e-01" purity="3.8636907935142517e-01" nType="-99"/>
          <Node pos="r" depth="2" NCoef="0" IVar="-1" Cut="0.0000000000000000e+00" cType="1" res="1.7654455732554197e-03" rms="4.6066623926162720e-01" purity="5.8136230707168579e-01" nType="-99"/>
        </Node>
      </Node>
    </BinaryTree>
    <BinaryTree type="DecisionTree" boostWeight="1.0000000000000000e+00" itree="257">
      <Node pos="s" depth="0" NCoef="0" IVar="1" Cut="4.5905548095703125e+02" cType="1" res="4.2648166418075562e-03" rms="4.6112373471260071e-01" purity="5.0922948122024536e-01" nType="0">
        <Node pos="l" depth="1" NCoef="0" IVar="4" Cut="3.4909484863281250e+01" cType="1" res="1.2521899305284023e-02" rms="4.6241891384124756e-01" purity="5.2637332677841187e-01" nType="0">
          <Node pos="l" depth="2" NCoef="0" IVar="-1" Cut="0.0000000000000000e+00" cType="1" res="-3.4723253920674324e-03" rms="4.5768678188323975e-01" purity="3.5906901955604553e-01" nType="-99"/>
          <Node pos="r" depth="2" NCoef="0" IVar="-1" Cut="0.0000000000000000e+00" cType="1" res="8.6795515380799770e-04" rms="4.6199929714202881e-01" purity="5.3826522827148438e-01" nType="-99"/>
        </Node>
        <Node pos="r" depth="1" NCoef="0" IVar="-1" Cut="0.0000000000000000e+00" cType="1" res="-4.3573570437729359e-03" rms="4.3006312847137451e-01" purity="2.8793260455131531e-01" nType="-99"/>
      </Node>
    </BinaryTree>
    <BinaryTree type="DecisionTree" boostWeight="1.0000000000000000e+00" itree="258">
      <Node pos="s" depth="0" NCoef="0" IVar="2" Cut="1.6969504356384277e+00" cType="1" res="1.6800153534859419e-03" rms="4.6226036548614502e-01" purity="5.0434589385986328e-01" nType="0">
        <Node pos="l" depth="1" NCoef="0" IVar="4" Cut="1.5141424560546875e+02" cType="1" res="8.1748738884925842e-03" rms="4.6662679314613342e-01" purity="5.2667319774627686e-01" nType="0">
          <Node pos="l" depth="2" NCoef="0" IVar="-1" Cut="0.0000000000000000e+00" cType="1" res="5.9923803200945258e-04" rms="4.6653470396995544e-01" purity="5.3656578063964844e-01" nType="-99"/>
          <Node pos="r" depth="2" NCoef="0" IVar="-1" Cut="0.0000000000000000e+00" cType="1" res="-2.9756226576864719e-03" rms="4.6106556057929993e-01" purity="3.8052025437355042e-01" nType="-99"/>
        </Node>
        <Node pos="r" depth="1" NCoef="0" IVar="-1" Cut="0.0000000000000000e+00" cType="1" res="-3.8111635949462652e-03" rms="3.8903185725212097e-01" purity="2.0580139756202698e-01" nType="-99"/>
      </Node>
    </BinaryTree>
    <BinaryTree type="DecisionTree" boostWeight="1.0000000000000000e+00" itree="259">
      <Node pos="s" depth="0" NCoef="0" IVar="4" Cut="7.9350646972656250e+01" cType="1" res="1.2323268456384540e-03" rms="4.6015110611915588e-01" purity="5.0219225883483887e-01" nType="0">
        <Node pos="l" depth="1" NCoef="0" IVar="6" Cut="4.7780372619628906e+01" cType="1" res="-2.0310081541538239e-02" rms="4.6492597460746765e-01" purity="4.6631905436515808e-01" nType="0">
          <Node pos="l" depth="2" NCoef="0" IVar="-1" Cut="0.0000000000000000e+00" cType="1" res="2.1208261605352163e-03" rms="4.6544885635375977e-01" purity="5.5185264348983765e-01" nType="-99"/>
          <Node pos="r" depth="2" NCoef="0" IVar="-1" Cut="0.0000000000000000e+00" cType="1" res="-1.4521909179165959e-03" rms="4.6365600824356079e-01" purity="4.4944417476654053e-01" nType="-99"/>
        </Node>
        <Node pos="r" depth="1" NCoef="0" IVar="4" Cut="1.4953707885742188e+02" cType="1" res="2.6159638538956642e-02" rms="4.5328742265701294e-01" purity="5.4370218515396118e-01" nType="0">
          <Node pos="l" depth="2" NCoef="0" IVar="-1" Cut="0.0000000000000000e+00" cType="1" res="1.8752239411696792e-03" rms="4.5145452022552490e-01" purity="5.7314383983612061e-01" nType="-99"/>
          <Node pos="r" depth="2" NCoef="0" IVar="-1" Cut="0.0000000000000000e+00" cType="1" res="-2.4825793225318193e-03" rms="4.5454311370849609e-01" purity="3.7809208035469055e-01" nType="-99"/>
        </Node>
      </Node>
    </BinaryTree>
    <BinaryTree type="DecisionTree" boostWeight="1.0000000000000000e+00" itree="260">
      <Node pos="s" depth="0" NCoef="0" IVar="9" Cut="5.2221868896484375e+02" cType="1" res="2.2119896020740271e-03" rms="4.6025776863098145e-01" purity="5.0222033262252808e-01" nType="0">
        <Node pos="l" depth="1" NCoef="0" IVar="1" Cut="1.3165005493164062e+02" cType="1" res="-4.6487960964441299e-02" rms="4.4434973597526550e-01" purity="4.0428453683853149e-01" nType="0">
          <Node pos="l" depth="2" NCoef="0" IVar="-1" Cut="0.0000000000000000e+00" cType="1" res="-6.5919221378862858e-04" rms="4.5679816603660583e-01" purity="4.7066795825958252e-01" nType="-99"/>
          <Node pos="r" depth="2" NCoef="0" IVar="-1" Cut="0.0000000000000000e+00" cType="1" res="-4.3514785356819630e-03" rms="4.1578662395477295e-01" purity="2.8747656941413879e-01" nType="-99"/>
        </Node>
        <Node pos="r" depth="1" NCoef="0" IVar="1" Cut="4.3920599365234375e+02" cType="1" res="1.1737010441720486e-02" rms="4.6270638704299927e-01" purity="5.2137517929077148e-01" nType="0">
          <Node pos="l" depth="2" NCoef="0" IVar="-1" Cut="0.0000000000000000e+00" cType="1" res="8.3929591346532106e-04" rms="4.6350830793380737e-01" purity="5.3929775953292847e-01" nType="-99"/>
          <Node pos="r" depth="2" NCoef="0" IVar="-1" Cut="0.0000000000000000e+00" cType="1" res="-2.7423775754868984e-03" rms="4.4743695855140686e-01" purity="3.3212211728096008e-01" nType="-99"/>
        </Node>
      </Node>
    </BinaryTree>
    <BinaryTree type="DecisionTree" boostWeight="1.0000000000000000e+00" itree="261">
      <Node pos="s" depth="0" NCoef="0" IVar="8" Cut="2.8333172202110291e-01" cType="1" res="-4.4113071635365486e-03" rms="4.6122416853904724e-01" purity="5.0074803829193115e-01" nType="0">
        <Node pos="l" depth="1" NCoef="0" IVar="-1" Cut="0.0000000000000000e+00" cType="1" res="3.8127268198877573e-03" rms="4.4103303551673889e-01" purity="6.7137676477432251e-01" nType="-99"/>
        <Node pos="r" depth="1" NCoef="0" IVar="4" Cut="9.3635620117187500e+01" cType="1" res="-1.3589715585112572e-02" rms="4.6241962909698486e-01" purity="4.8231363296508789e-01" nType="0">
          <Node pos="l" depth="2" NCoef="0" IVar="-1" Cut="0.0000000000000000e+00" cType="1" res="-1.3547550188377500e-03" rms="4.6344342827796936e-01" purity="4.5628750324249268e-01" nType="-99"/>
          <Node pos="r" depth="2" NCoef="0" IVar="-1" Cut="0.0000000000000000e+00" cType="1" res="8.7856629397720098e-04" rms="4.5869162678718567e-01" purity="5.3084993362426758e-01" nType="-99"/>
        </Node>
      </Node>
    </BinaryTree>
    <BinaryTree type="DecisionTree" boostWeight="1.0000000000000000e+00" itree="262">
      <Node pos="s" depth="0" NCoef="0" IVar="7" Cut="9.7541201114654541e-01" cType="1" res="-1.0166645981371403e-02" rms="4.6107995510101318e-01" purity="4.9329084157943726e-01" nType="0">
        <Node pos="l" depth="1" NCoef="0" IVar="8" Cut="2.2284898757934570e+00" cType="1" res="-1.9005253911018372e-02" rms="4.6370089054107666e-01" purity="4.6308922767639160e-01" nType="0">
          <Node pos="l" depth="2" NCoef="0" IVar="-1" Cut="0.0000000000000000e+00" cType="1" res="-5.0779210869222879e-04" rms="4.7062608599662781e-01" purity="4.9208059906959534e-01" nType="-99"/>
          <Node pos="r" depth="2" NCoef="0" IVar="-1" Cut="0.0000000000000000e+00" cType="1" res="-3.2771672122180462e-03" rms="4.0317332744598389e-01" purity="2.4293914437294006e-01" nType="-99"/>
        </Node>
        <Node pos="r" depth="1" NCoef="0" IVar="4" Cut="6.5206962585449219e+01" cType="1" res="3.8645457476377487e-02" rms="4.4316491484642029e-01" purity="6.6008204221725464e-01" nType="0">
          <Node pos="l" depth="2" NCoef="0" IVar="-1" Cut="0.0000000000000000e+00" cType="1" res="-4.9633649177849293e-04" rms="4.6716409921646118e-01" purity="5.8004987239837646e-01" nType="-99"/>
          <Node pos="r" depth="2" NCoef="0" IVar="-1" Cut="0.0000000000000000e+00" cType="1" res="3.8331856485456228e-03" rms="4.2187356948852539e-01" purity="7.1689379215240479e-01" nType="-99"/>
        </Node>
      </Node>
    </BinaryTree>
    <BinaryTree type="DecisionTree" boostWeight="1.0000000000000000e+00" itree="263">
      <Node pos="s" depth="0" NCoef="0" IVar="4" Cut="1.4077226257324219e+02" cType="1" res="-9.2468289658427238e-03" rms="4.5836374163627625e-01" purity="4.9245268106460571e-01" nType="0">
        <Node pos="l" depth="1" NCoef="0" IVar="4" Cut="1.0239415740966797e+02" cType="1" res="-2.1469334606081247e-03" rms="4.5867323875427246e-01" purity="5.0427836179733276e-01" nType="0">
          <Node pos="l" depth="2" NCoef="0" IVar="-1" Cut="0.0000000000000000e+00" cType="1" res="-6.8003451451659203e-04" rms="4.6288400888442993e-01" purity="4.7982776165008545e-01" nType="-99"/>
          <Node pos="r" depth="2" NCoef="0" IVar="-1" Cut="0.0000000000000000e+00" cType="1" res="2.1044565364718437e-03" rms="4.4021850824356079e-01" purity="5.9051573276519775e-01" nType="-99"/>
        </Node>
        <Node pos="r" depth="1" NCoef="0" IVar="-1" Cut="0.0000000000000000e+00" cType="1" res="-3.4145617391914129e-03" rms="4.4944226741790771e-01" purity="3.7671816349029541e-01" nType="-99"/>
      </Node>
    </BinaryTree>
    <BinaryTree type="DecisionTree" boostWeight="1.0000000000000000e+00" itree="264">
      <Node pos="s" depth="0" NCoef="0" IVar="1" Cut="4.5796688842773438e+02" cType="1" res="-6.1891488730907440e-03" rms="4.5911413431167603e-01" purity="4.9453172087669373e-01" nType="0">
        <Node pos="l" depth="1" NCoef="0" IVar="9" Cut="5.2507769775390625e+02" cType="1" res="-3.1224961276166141e-04" rms="4.5988947153091431e-01" purity="5.1030755043029785e-01" nType="0">
          <Node pos="l" depth="2" NCoef="0" IVar="-1" Cut="0.0000000000000000e+00" cType="1" res="-2.3552251514047384e-03" rms="4.4868460297584534e-01" purity="4.0444272756576538e-01" nType="-99"/>
          <Node pos="r" depth="2" NCoef="0" IVar="-1" Cut="0.0000000000000000e+00" cType="1" res="4.9489730736240745e-04" rms="4.6140846610069275e-01" purity="5.3256934881210327e-01" nType="-99"/>
        </Node>
        <Node pos="r" depth="1" NCoef="0" IVar="-1" Cut="0.0000000000000000e+00" cType="1" res="-3.4545180387794971e-03" rms="4.4250082969665527e-01" purity="2.9495540261268616e-01" nType="-99"/>
      </Node>
    </BinaryTree>
    <BinaryTree type="DecisionTree" boostWeight="1.0000000000000000e+00" itree="265">
      <Node pos="s" depth="0" NCoef="0" IVar="7" Cut="9.1224688291549683e-01" cType="1" res="2.2604323457926512e-03" rms="4.6156382560729980e-01" purity="5.0608652830123901e-01" nType="0">
        <Node pos="l" depth="1" NCoef="0" IVar="-1" Cut="0.0000000000000000e+00" cType="1" res="-3.0196025036275387e-03" rms="4.1667494177818298e-01" purity="2.6138508319854736e-01" nType="-99"/>
        <Node pos="r" depth="1" NCoef="0" IVar="4" Cut="1.5599768066406250e+02" cType="1" res="7.1721323765814304e-03" rms="4.6377432346343994e-01" purity="5.2133542299270630e-01" nType="0">
          <Node pos="l" depth="2" NCoef="0" IVar="-1" Cut="0.0000000000000000e+00" cType="1" res="5.4060487309470773e-04" rms="4.6396896243095398e-01" purity="5.3224676847457886e-01" nType="-99"/>
          <Node pos="r" depth="2" NCoef="0" IVar="-1" Cut="0.0000000000000000e+00" cType="1" res="-2.8370213694870472e-03" rms="4.5476832985877991e-01" purity="3.5912886261940002e-01" nType="-99"/>
        </Node>
      </Node>
    </BinaryTree>
    <BinaryTree type="DecisionTree" boostWeight="1.0000000000000000e+00" itree="266">
      <Node pos="s" depth="0" NCoef="0" IVar="3" Cut="2.1304526329040527e+00" cType="1" res="-2.7190684340894222e-03" rms="4.5772215723991394e-01" purity="4.9763283133506775e-01" nType="0">
        <Node pos="l" depth="1" NCoef="0" IVar="9" Cut="6.7290246582031250e+02" cType="1" res="2.2925252094864845e-02" rms="4.6263632178306580e-01" purity="6.0093754529953003e-01" nType="0">
          <Node pos="l" depth="2" NCoef="0" IVar="-1" Cut="0.0000000000000000e+00" cType="1" res="-6.5453728893771768e-04" rms="4.6551012992858887e-01" purity="5.3794723749160767e-01" nType="-99"/>
          <Node pos="r" depth="2" NCoef="0" IVar="-1" Cut="0.0000000000000000e+00" cType="1" res="2.1739413496106863e-03" rms="4.5918315649032593e-01" purity="6.4082485437393188e-01" nType="-99"/>
        </Node>
        <Node pos="r" depth="1" NCoef="0" IVar="9" Cut="5.3356176757812500e+02" cType="1" res="-2.7295125648379326e-02" rms="4.5159822702407837e-01" purity="3.9863142371177673e-01" nType="0">
          <Node pos="l" depth="2" NCoef="0" IVar="-1" Cut="0.0000000000000000e+00" cType="1" res="-3.0450478661805391e-03" rms="4.2142608761787415e-01" purity="3.2925751805305481e-01" nType="-99"/>
          <Node pos="r" depth="2" NCoef="0" IVar="-1" Cut="0.0000000000000000e+00" cType="1" res="-7.1626965655013919e-04" rms="4.5833528041839600e-01" purity="4.1629025340080261e-01" nType="-99"/>
        </Node>
      </Node>
    </BinaryTree>
    <BinaryTree type="DecisionTree" boostWeight="1.0000000000000000e+00" itree="267">
      <Node pos="s" depth="0" NCoef="0" IVar="7" Cut="9.2866593599319458e-01" cType="1" res="-1.0551591403782368e-02" rms="4.6061703562736511e-01" purity="4.9117416143417358e-01" nType="0">
        <Node pos="l" depth="1" NCoef="0" IVar="9" Cut="6.2175885009765625e+02" cType="1" res="-5.9835910797119141e-02" rms="4.3613246083259583e-01" purity="2.9477146267890930e-01" nType="0">
          <Node pos="l" depth="2" NCoef="0" IVar="-1" Cut="0.0000000000000000e+00" cType="1" res="-4.5808171853423119e-03" rms="4.0071499347686768e-01" purity="2.2083307802677155e-01" nType="-99"/>
          <Node pos="r" depth="2" NCoef="0" IVar="-1" Cut="0.0000000000000000e+00" cType="1" res="-1.3349825749173760e-03" rms="4.5023983716964722e-01" purity="3.3140516281127930e-01" nType="-99"/>
        </Node>
        <Node pos="r" depth="1" NCoef="0" IVar="1" Cut="3.1316992187500000e+02" cType="1" res="-6.2971441366244107e-05" rms="4.6498802304267883e-01" purity="5.3297233581542969e-01" nType="0">
          <Node pos="l" depth="2" NCoef="0" IVar="-1" Cut="0.0000000000000000e+00" cType="1" res="3.7581005017273128e-04" rms="4.6461293101310730e-01" purity="5.5434715747833252e-01" nType="-99"/>
          <Node pos="r" depth="2" NCoef="0" IVar="-1" Cut="0.0000000000000000e+00" cType="1" res="-2.0276361610740423e-03" rms="4.6433231234550476e-01" purity="4.1414085030555725e-01" nType="-99"/>
        </Node>
      </Node>
    </BinaryTree>
    <BinaryTree type="DecisionTree" boostWeight="1.0000000000000000e+00" itree="268">
      <Node pos="s" depth="0" NCoef="0" IVar="5" Cut="1.4793208241462708e-01" cType="1" res="-1.3760712463408709e-03" rms="4.5948085188865662e-01" purity="4.9961665272712708e-01" nType="0">
        <Node pos="l" depth="1" NCoef="0" IVar="7" Cut="9.7504591941833496e-01" cType="1" res="-1.1964103206992149e-02" rms="4.6037176251411438e-01" purity="4.6665948629379272e-01" nType="0">
          <Node pos="l" depth="2" NCoef="0" IVar="-1" Cut="0.0000000000000000e+00" cType="1" res="-9.0308609651401639e-04" rms="4.6252423524856567e-01" purity="4.3689104914665222e-01" nType="-99"/>
          <Node pos="r" depth="2" NCoef="0" IVar="-1" Cut="0.0000000000000000e+00" cType="1" res="1.9064255757257342e-03" rms="4.4445466995239258e-01" purity="6.3665997982025146e-01" nType="-99"/>
        </Node>
        <Node pos="r" depth="1" NCoef="0" IVar="1" Cut="1.5875297546386719e+02" cType="1" res="3.8035277277231216e-02" rms="4.5398414134979248e-01" purity="6.2229150533676147e-01" nType="0">
          <Node pos="l" depth="2" NCoef="0" IVar="-1" Cut="0.0000000000000000e+00" cType="1" res="2.6558754034340382e-03" rms="4.4804850220680237e-01" purity="6.5206462144851685e-01" nType="-99"/>
          <Node pos="r" depth="2" NCoef="0" IVar="-1" Cut="0.0000000000000000e+00" cType="1" res="2.2544893727172166e-04" rms="4.6286651492118835e-01" purity="5.6763565540313721e-01" nType="-99"/>
        </Node>
      </Node>
    </BinaryTree>
    <BinaryTree type="DecisionTree" boostWeight="1.0000000000000000e+00" itree="269">
      <Node pos="s" depth="0" NCoef="0" IVar="2" Cut="6.9592088460922241e-01" cType="1" res="7.7199470251798630e-03" rms="4.5911431312561035e-01" purity="5.0868976116180420e-01" nType="0">
        <Node pos="l" depth="1" NCoef="0" IVar="1" Cut="1.3256166076660156e+02" cType="1" res="7.0126034319400787e-02" rms="4.2337033152580261e-01" purity="7.2849708795547485e-01" nType="0">
          <Node pos="l" depth="2" NCoef="0" IVar="-1" Cut="0.0000000000000000e+00" cType="1" res="5.5167837999761105e-03" rms="3.9856556057929993e-01" purity="7.6390194892883301e-01" nType="-99"/>
          <Node pos="r" depth="2" NCoef="0" IVar="-1" Cut="0.0000000000000000e+00" cType="1" res="1.3718974078074098e-03" rms="4.4727468490600586e-01" purity="6.8656527996063232e-01" nType="-99"/>
        </Node>
        <Node pos="r" depth="1" NCoef="0" IVar="1" Cut="3.7931686401367188e+02" cType="1" res="-8.0987339606508613e-04" rms="4.6313318610191345e-01" purity="4.7864592075347900e-01" nType="0">
          <Node pos="l" depth="2" NCoef="0" IVar="-1" Cut="0.0000000000000000e+00" cType="1" res="2.4100030714180321e-04" rms="4.6465903520584106e-01" purity="4.9605244398117065e-01" nType="-99"/>
          <Node pos="r" depth="2" NCoef="0" IVar="-1" Cut="0.0000000000000000e+00" cType="1" res="-2.2512560244649649e-03" rms="4.4751644134521484e-01" purity="3.3908057212829590e-01" nType="-99"/>
        </Node>
      </Node>
    </BinaryTree>
    <BinaryTree type="DecisionTree" boostWeight="1.0000000000000000e+00" itree="270">
      <Node pos="s" depth="0" NCoef="0" IVar="4" Cut="9.6261680603027344e+01" cType="1" res="-6.3961385749280453e-03" rms="4.5918631553649902e-01" purity="4.9467635154724121e-01" nType="0">
        <Node pos="l" depth="1" NCoef="0" IVar="6" Cut="1.0337688446044922e+02" cType="1" res="-2.4373330175876617e-02" rms="4.6269571781158447e-01" purity="4.6631148457527161e-01" nType="0">
          <Node pos="l" depth="2" NCoef="0" IVar="-1" Cut="0.0000000000000000e+00" cType="1" res="-5.4097152315080166e-04" rms="4.6220129728317261e-01" purity="4.8151758313179016e-01" nType="-99"/>
          <Node pos="r" depth="2" NCoef="0" IVar="-1" Cut="0.0000000000000000e+00" cType="1" res="-2.3898405488580465e-03" rms="4.6251869201660156e-01" purity="4.2679786682128906e-01" nType="-99"/>
        </Node>
        <Node pos="r" depth="1" NCoef="0" IVar="4" Cut="1.4388032531738281e+02" cType="1" res="2.8372323140501976e-02" rms="4.5028996467590332e-01" purity="5.4953473806381226e-01" nType="0">
          <Node pos="l" depth="2" NCoef="0" IVar="-1" Cut="0.0000000000000000e+00" cType="1" res="2.4284305982291698e-03" rms="4.4680777192115784e-01" purity="5.9785479307174683e-01" nType="-99"/>
          <Node pos="r" depth="2" NCoef="0" IVar="-1" Cut="0.0000000000000000e+00" cType="1" res="-1.9715302623808384e-03" rms="4.5291641354560852e-01" purity="4.0090674161911011e-01" nType="-99"/>
        </Node>
      </Node>
    </BinaryTree>
    <BinaryTree type="DecisionTree" boostWeight="1.0000000000000000e+00" itree="271">
      <Node pos="s" depth="0" NCoef="0" IVar="7" Cut="9.7293853759765625e-01" cType="1" res="1.8433067016303539e-03" rms="4.6021452546119690e-01" purity="5.0276803970336914e-01" nType="0">
        <Node pos="l" depth="1" NCoef="0" IVar="7" Cut="9.1187810897827148e-01" cType="1" res="-9.1262562200427055e-03" rms="4.6456646919250488e-01" purity="4.6632173657417297e-01" nType="0">
          <Node pos="l" depth="2" NCoef="0" IVar="-1" Cut="0.0000000000000000e+00" cType="1" res="-3.0623199418187141e-03" rms="4.2021924257278442e-01" purity="2.5325188040733337e-01" nType="-99"/>
          <Node pos="r" depth="2" NCoef="0" IVar="-1" Cut="0.0000000000000000e+00" cType="1" res="-1.6576456255279481e-04" rms="4.6739551424980164e-01" purity="4.8279398679733276e-01" nType="-99"/>
        </Node>
        <Node pos="r" depth="1" NCoef="0" IVar="6" Cut="6.4590202331542969e+01" cType="1" res="5.2982158958911896e-02" rms="4.3572819232940674e-01" purity="6.7267638444900513e-01" nType="0">
          <Node pos="l" depth="2" NCoef="0" IVar="-1" Cut="0.0000000000000000e+00" cType="1" res="5.5598299950361252e-03" rms="4.0528166294097900e-01" purity="7.2902899980545044e-01" nType="-99"/>
          <Node pos="r" depth="2" NCoef="0" IVar="-1" Cut="0.0000000000000000e+00" cType="1" res="1.3391663087531924e-03" rms="4.4811263680458069e-01" purity="6.4417874813079834e-01" nType="-99"/>
        </Node>
      </Node>
    </BinaryTree>
    <BinaryTree type="DecisionTree" boostWeight="1.0000000000000000e+00" itree="272">
      <Node pos="s" depth="0" NCoef="0" IVar="4" Cut="3.9310810089111328e+01" cType="1" res="6.1949586961418390e-04" rms="4.6107709407806396e-01" purity="5.0263494253158569e-01" nType="0">
        <Node pos="l" depth="1" NCoef="0" IVar="-1" Cut="0.0000000000000000e+00" cType="1" res="-2.7529832441359758e-03" rms="4.5219904184341431e-01" purity="3.6963036656379700e-01" nType="-99"/>
        <Node pos="r" depth="1" NCoef="0" IVar="8" Cut="1.1754547357559204e+00" cType="1" res="8.1174280494451523e-03" rms="4.6146962046623230e-01" purity="5.1766079664230347e-01" nType="0">
          <Node pos="l" depth="2" NCoef="0" IVar="-1" Cut="0.0000000000000000e+00" cType="1" res="1.0836117435246706e-03" rms="4.6370169520378113e-01" purity="5.9239578247070312e-01" nType="-99"/>
          <Node pos="r" depth="2" NCoef="0" IVar="-1" Cut="0.0000000000000000e+00" cType="1" res="-6.6530564799904823e-04" rms="4.5716682076454163e-01" purity="4.0759530663490295e-01" nType="-99"/>
        </Node>
      </Node>
    </BinaryTree>
    <BinaryTree type="DecisionTree" boostWeight="1.0000000000000000e+00" itree="273">
      <Node pos="s" depth="0" NCoef="0" IVar="1" Cut="1.6703926086425781e+02" cType="1" res="-1.0459466837346554e-02" rms="4.5607906579971313e-01" purity="4.8867991566658020e-01" nType="0">
        <Node pos="l" depth="1" NCoef="0" IVar="8" Cut="1.7261396646499634e+00" cType="1" res="1.1159124784171581e-02" rms="4.5473837852478027e-01" purity="5.4199445247650146e-01" nType="0">
          <Node pos="l" depth="2" NCoef="0" IVar="-1" Cut="0.0000000000000000e+00" cType="1" res="1.2631698045879602e-03" rms="4.5955798029899597e-01" purity="5.9587156772613525e-01" nType="-99"/>
          <Node pos="r" depth="2" NCoef="0" IVar="-1" Cut="0.0000000000000000e+00" cType="1" res="-2.4999892339110374e-03" rms="4.2740073800086975e-01" purity="3.1966942548751831e-01" nType="-99"/>
        </Node>
        <Node pos="r" depth="1" NCoef="0" IVar="4" Cut="1.4107162475585938e+02" cType="1" res="-3.8984954357147217e-02" rms="4.5627734065055847e-01" purity="4.1833195090293884e-01" nType="0">
          <Node pos="l" depth="2" NCoef="0" IVar="-1" Cut="0.0000000000000000e+00" cType="1" res="-1.2890847865492105e-03" rms="4.5983597636222839e-01" purity="4.3678230047225952e-01" nType="-99"/>
          <Node pos="r" depth="2" NCoef="0" IVar="-1" Cut="0.0000000000000000e+00" cType="1" res="-3.8921495433896780e-03" rms="4.3246972560882568e-01" purity="3.1615647673606873e-01" nType="-99"/>
        </Node>
      </Node>
    </BinaryTree>
    <BinaryTree type="DecisionTree" boostWeight="1.0000000000000000e+00" itree="274">
      <Node pos="s" depth="0" NCoef="0" IVar="4" Cut="1.4050444030761719e+02" cType="1" res="4.3183197267353535e-03" rms="4.5880588889122009e-01" purity="5.0430262088775635e-01" nType="0">
        <Node pos="l" depth="1" NCoef="0" IVar="4" Cut="1.0224783325195312e+02" cType="1" res="1.1563977226614952e-02" rms="4.5929583907127380e-01" purity="5.1724457740783691e-01" nType="0">
          <Node pos="l" depth="2" NCoef="0" IVar="-1" Cut="0.0000000000000000e+00" cType="1" res="-1.2054168473696336e-04" rms="4.6197655797004700e-01" purity="4.9095770716667175e-01" nType="-99"/>
          <Node pos="r" depth="2" NCoef="0" IVar="-1" Cut="0.0000000000000000e+00" cType="1" res="2.9221400618553162e-03" rms="4.4608676433563232e-01" purity="6.0986989736557007e-01" nType="-99"/>
        </Node>
        <Node pos="r" depth="1" NCoef="0" IVar="-1" Cut="0.0000000000000000e+00" cType="1" res="-2.8983594384044409e-03" rms="4.4764330983161926e-01" purity="3.7617728114128113e-01" nType="-99"/>
      </Node>
    </BinaryTree>
    <BinaryTree type="DecisionTree" boostWeight="1.0000000000000000e+00" itree="275">
      <Node pos="s" depth="0" NCoef="0" IVar="0" Cut="8.4978570938110352e+00" cType="1" res="-8.8525013998150826e-03" rms="4.5880249142646790e-01" purity="4.9324139952659607e-01" nType="0">
        <Node pos="l" depth="1" NCoef="0" IVar="8" Cut="3.9560025930404663e-01" cType="1" res="-1.9398506730794907e-02" rms="4.6196845173835754e-01" purity="4.5831999182701111e-01" nType="0">
          <Node pos="l" depth="2" NCoef="0" IVar="-1" Cut="0.0000000000000000e+00" cType="1" res="1.1000249069184065e-03" rms="4.7034326195716858e-01" purity="5.8801674842834473e-01" nType="-99"/>
          <Node pos="r" depth="2" NCoef="0" IVar="-1" Cut="0.0000000000000000e+00" cType="1" res="-1.1838146019726992e-03" rms="4.5993989706039429e-01" purity="4.3430039286613464e-01" nType="-99"/>
        </Node>
        <Node pos="r" depth="1" NCoef="0" IVar="9" Cut="8.3469824218750000e+02" cType="1" res="4.7093592584133148e-02" rms="4.3739578127861023e-01" purity="6.7849814891815186e-01" nType="0">
          <Node pos="l" depth="2" NCoef="0" IVar="-1" Cut="0.0000000000000000e+00" cType="1" res="3.4863292239606380e-03" rms="4.3357020616531372e-01" purity="6.8262070417404175e-01" nType="-99"/>
          <Node pos="r" depth="2" NCoef="0" IVar="-1" Cut="0.0000000000000000e+00" cType="1" res="7.8313704580068588e-04" rms="4.4141632318496704e-01" purity="6.7207187414169312e-01" nType="-99"/>
        </Node>
      </Node>
    </BinaryTree>
    <BinaryTree type="DecisionTree" boostWeight="1.0000000000000000e+00" itree="276">
      <Node pos="s" depth="0" NCoef="0" IVar="1" Cut="4.5930056762695312e+02" cType="1" res="2.7046571485698223e-03" rms="4.5915302634239197e-01" purity="5.0418639183044434e-01" nType="0">
        <Node pos="l" depth="1" NCoef="0" IVar="1" Cut="5.7433174133300781e+01" cType="1" res="9.2931240797042847e-03" rms="4.5996919274330139e-01" purity="5.2007454633712769e-01" nType="0">
          <Node pos="l" depth="2" NCoef="0" IVar="-1" Cut="0.0000000000000000e+00" cType="1" res="-3.2778894528746605e-03" rms="4.4653162360191345e-01" purity="3.3187177777290344e-01" nType="-99"/>
          <Node pos="r" depth="2" NCoef="0" IVar="-1" Cut="0.0000000000000000e+00" cType="1" res="6.4792181365191936e-04" rms="4.6027019619941711e-01" purity="5.3156900405883789e-01" nType="-99"/>
        </Node>
        <Node pos="r" depth="1" NCoef="0" IVar="-1" Cut="0.0000000000000000e+00" cType="1" res="-3.4903748892247677e-03" rms="4.3973001837730408e-01" purity="2.9924148321151733e-01" nType="-99"/>
      </Node>
    </BinaryTree>
    <BinaryTree type="DecisionTree" boostWeight="1.0000000000000000e+00" itree="277">
      <Node pos="s" depth="0" NCoef="0" IVar="3" Cut="2.0641598701477051e+00" cType="1" res="-1.3157180510461330e-03" rms="4.5894452929496765e-01" purity="5.0036484003067017e-01" nType="0">
        <Node pos="l" depth="1" NCoef="0" IVar="6" Cut="4.9977245330810547e+01" cType="1" res="3.1244216486811638e-02" rms="4.6012604236602783e-01" purity="6.1312544345855713e-01" nType="0">
          <Node pos="l" depth="2" NCoef="0" IVar="-1" Cut="0.0000000000000000e+00" cType="1" res="4.1841310448944569e-03" rms="4.4089138507843018e-01" purity="6.7357772588729858e-01" nType="-99"/>
          <Node pos="r" depth="2" NCoef="0" IVar="-1" Cut="0.0000000000000000e+00" cType="1" res="8.7911006994545460e-04" rms="4.6304011344909668e-01" purity="6.0084241628646851e-01" nType="-99"/>
        </Node>
        <Node pos="r" depth="1" NCoef="0" IVar="2" Cut="1.4292207956314087e+00" cType="1" res="-2.2946102544665337e-02" rms="4.5687693357467651e-01" purity="4.2545512318611145e-01" nType="0">
          <Node pos="l" depth="2" NCoef="0" IVar="-1" Cut="0.0000000000000000e+00" cType="1" res="-4.0296008228324354e-04" rms="4.7173106670379639e-01" purity="4.9456754326820374e-01" nType="-99"/>
          <Node pos="r" depth="2" NCoef="0" IVar="-1" Cut="0.0000000000000000e+00" cType="1" res="-2.5946113746613264e-03" rms="4.1552975773811340e-01" purity="2.5290450453758240e-01" nType="-99"/>
        </Node>
      </Node>
    </BinaryTree>
    <BinaryTree type="DecisionTree" boostWeight="1.0000000000000000e+00" itree="278">
      <Node pos="s" depth="0" NCoef="0" IVar="1" Cut="9.2107482910156250e+01" cType="1" res="2.7274328749626875e-04" rms="4.5982888340950012e-01" purity="5.0397878885269165e-01" nType="0">
        <Node pos="l" depth="1" NCoef="0" IVar="6" Cut="7.1523269653320312e+01" cType="1" res="-4.7762114554643631e-02" rms="4.5553386211395264e-01" purity="4.3021813035011292e-01" nType="0">
          <Node pos="l" depth="2" NCoef="0" IVar="-1" Cut="0.0000000000000000e+00" cType="1" res="7.9737463966012001e-04" rms="4.5945516228675842e-01" purity="5.0529187917709351e-01" nType="-99"/>
          <Node pos="r" depth="2" NCoef="0" IVar="-1" Cut="0.0000000000000000e+00" cType="1" res="-3.9395513013005257e-03" rms="4.4724920392036438e-01" purity="3.7873354554176331e-01" nType="-99"/>
        </Node>
        <Node pos="r" depth="1" NCoef="0" IVar="2" Cut="6.1623942852020264e-01" cType="1" res="1.1203004978597164e-02" rms="4.6010074019432068e-01" purity="5.2076280117034912e-01" nType="0">
          <Node pos="l" depth="2" NCoef="0" IVar="-1" Cut="0.0000000000000000e+00" cType="1" res="5.5433060042560101e-03" rms="3.9909306168556213e-01" purity="7.8671848773956299e-01" nType="-99"/>
          <Node pos="r" depth="2" NCoef="0" IVar="-1" Cut="0.0000000000000000e+00" cType="1" res="1.9708579930011183e-04" rms="4.6358808875083923e-01" purity="5.0104302167892456e-01" nType="-99"/>
        </Node>
      </Node>
    </BinaryTree>
    <BinaryTree type="DecisionTree" boostWeight="1.0000000000000000e+00" itree="279">
      <Node pos="s" depth="0" NCoef="0" IVar="6" Cut="7.5612602233886719e+01" cType="1" res="-1.7342487990390509e-04" rms="4.6008256077766418e-01" purity="5.0303053855895996e-01" nType="0">
        <Node pos="l" depth="1" NCoef="0" IVar="3" Cut="2.5076637268066406e+00" cType="1" res="2.7924144640564919e-02" rms="4.5759290456771851e-01" purity="5.4041332006454468e-01" nType="0">
          <Node pos="l" depth="2" NCoef="0" IVar="-1" Cut="0.0000000000000000e+00" cType="1" res="1.8133559497073293e-03" rms="4.6437463164329529e-01" purity="5.8931726217269897e-01" nType="-99"/>
          <Node pos="r" depth="2" NCoef="0" IVar="-1" Cut="0.0000000000000000e+00" cType="1" res="-2.0504554267972708e-03" rms="4.0830302238464355e-01" purity="2.5399589538574219e-01" nType="-99"/>
        </Node>
        <Node pos="r" depth="1" NCoef="0" IVar="7" Cut="9.2281150817871094e-01" cType="1" res="-2.1081870421767235e-02" rms="4.6081608533859253e-01" purity="4.7521263360977173e-01" nType="0">
          <Node pos="l" depth="2" NCoef="0" IVar="-1" Cut="0.0000000000000000e+00" cType="1" res="-3.6243845243006945e-03" rms="4.2109367251396179e-01" purity="2.4679245054721832e-01" nType="-99"/>
          <Node pos="r" depth="2" NCoef="0" IVar="-1" Cut="0.0000000000000000e+00" cType="1" res="-4.6467065112665296e-04" rms="4.6584385633468628e-01" purity="5.1111179590225220e-01" nType="-99"/>
        </Node>
      </Node>
    </BinaryTree>
    <BinaryTree type="DecisionTree" boostWeight="1.0000000000000000e+00" itree="280">
      <Node pos="s" depth="0" NCoef="0" IVar="3" Cut="2.1079640388488770e+00" cType="1" res="-1.0751702822744846e-02" rms="4.6095243096351624e-01" purity="4.9221768975257874e-01" nType="0">
        <Node pos="l" depth="1" NCoef="0" IVar="7" Cut="9.2594742774963379e-01" cType="1" res="1.1846113950014114e-02" rms="4.6705672144889832e-01" purity="5.9385001659393311e-01" nType="0">
          <Node pos="l" depth="2" NCoef="0" IVar="-1" Cut="0.0000000000000000e+00" cType="1" res="-1.3820978347212076e-03" rms="4.7566488385200500e-01" purity="3.8905507326126099e-01" nType="-99"/>
          <Node pos="r" depth="2" NCoef="0" IVar="-1" Cut="0.0000000000000000e+00" cType="1" res="9.4361201627179980e-04" rms="4.6506088972091675e-01" purity="6.2898862361907959e-01" nType="-99"/>
        </Node>
        <Node pos="r" depth="1" NCoef="0" IVar="1" Cut="1.4064822387695312e+02" cType="1" res="-2.9744235798716545e-02" rms="4.5489141345024109e-01" purity="4.0679985284805298e-01" nType="0">
          <Node pos="l" depth="2" NCoef="0" IVar="-1" Cut="0.0000000000000000e+00" cType="1" res="-2.4114660845953040e-05" rms="4.5595046877861023e-01" purity="4.7049605846405029e-01" nType="-99"/>
          <Node pos="r" depth="2" NCoef="0" IVar="-1" Cut="0.0000000000000000e+00" cType="1" res="-2.0764053333550692e-03" rms="4.5326596498489380e-01" purity="3.6682355403900146e-01" nType="-99"/>
        </Node>
      </Node>
    </BinaryTree>
    <BinaryTree type="DecisionTree" boostWeight="1.0000000000000000e+00" itree="281">
      <Node pos="s" depth="0" NCoef="0" IVar="4" Cut="1.5200758361816406e+02" cType="1" res="5.6636654771864414e-03" rms="4.6112641692161560e-01" purity="5.0725126266479492e-01" nType="0">
        <Node pos="l" depth="1" NCoef="0" IVar="9" Cut="6.7947515869140625e+02" cType="1" res="1.0694003663957119e-02" rms="4.6084994077682495e-01" purity="5.1802051067352295e-01" nType="0">
          <Node pos="l" depth="2" NCoef="0" IVar="-1" Cut="0.0000000000000000e+00" cType="1" res="-7.0557353319600224e-04" rms="4.5820644497871399e-01" purity="4.6837717294692993e-01" nType="-99"/>
          <Node pos="r" depth="2" NCoef="0" IVar="-1" Cut="0.0000000000000000e+00" cType="1" res="1.5005792956799269e-03" rms="4.6186572313308716e-01" purity="5.5973798036575317e-01" nType="-99"/>
        </Node>
        <Node pos="r" depth="1" NCoef="0" IVar="-1" Cut="0.0000000000000000e+00" cType="1" res="-2.8739583212882280e-03" rms="4.5908051729202271e-01" purity="3.5344409942626953e-01" nType="-99"/>
      </Node>
    </BinaryTree>
    <BinaryTree type="DecisionTree" boostWeight="1.0000000000000000e+00" itree="282">
      <Node pos="s" depth="0" NCoef="0" IVar="9" Cut="5.4740441894531250e+02" cType="1" res="-4.4902824447490275e-04" rms="4.5922702550888062e-01" purity="5.0000774860382080e-01" nType="0">
        <Node pos="l" depth="1" NCoef="0" IVar="7" Cut="9.6532267332077026e-01" cType="1" res="-4.7480333596467972e-02" rms="4.4808292388916016e-01" purity="4.1034141182899475e-01" nType="0">
          <Node pos="l" depth="2" NCoef="0" IVar="-1" Cut="0.0000000000000000e+00" cType="1" res="-2.8238792438060045e-03" rms="4.4472014904022217e-01" purity="3.4816852211952209e-01" nType="-99"/>
          <Node pos="r" depth="2" NCoef="0" IVar="-1" Cut="0.0000000000000000e+00" cType="1" res="3.1451947870664299e-04" rms="4.5249769091606140e-01" purity="5.7598143815994263e-01" nType="-99"/>
        </Node>
        <Node pos="r" depth="1" NCoef="0" IVar="0" Cut="9.1343116760253906e+00" cType="1" res="1.2095058336853981e-02" rms="4.6134474873542786e-01" purity="5.2392339706420898e-01" nType="0">
          <Node pos="l" depth="2" NCoef="0" IVar="-1" Cut="0.0000000000000000e+00" cType="1" res="2.0186898473184556e-04" rms="4.6505573391914368e-01" purity="5.0255411863327026e-01" nType="-99"/>
          <Node pos="r" depth="2" NCoef="0" IVar="-1" Cut="0.0000000000000000e+00" cType="1" res="4.5250649563968182e-03" rms="4.1666522622108459e-01" purity="7.3118007183074951e-01" nType="-99"/>
        </Node>
      </Node>
    </BinaryTree>
    <BinaryTree type="DecisionTree" boostWeight="1.0000000000000000e+00" itree="283">
      <Node pos="s" depth="0" NCoef="0" IVar="1" Cut="7.4464645385742188e+01" cType="1" res="-4.1131866164505482e-03" rms="4.5703947544097900e-01" purity="4.9551481008529663e-01" nType="0">
        <Node pos="l" depth="1" NCoef="0" IVar="7" Cut="9.5536577701568604e-01" cType="1" res="-6.7235454916954041e-02" rms="4.5617404580116272e-01" purity="3.8221752643585205e-01" nType="0">
          <Node pos="l" depth="2" NCoef="0" IVar="-1" Cut="0.0000000000000000e+00" cType="1" res="-1.4095423975959420e-03" rms="4.4725617766380310e-01" purity="3.5798016190528870e-01" nType="-99"/>
          <Node pos="r" depth="2" NCoef="0" IVar="-1" Cut="0.0000000000000000e+00" cType="1" res="-4.7458391636610031e-03" rms="4.6342268586158752e-01" purity="4.1130083799362183e-01" nType="-99"/>
        </Node>
        <Node pos="r" depth="1" NCoef="0" IVar="7" Cut="9.5677924156188965e-01" cType="1" res="4.1904575191438198e-03" rms="4.5650404691696167e-01" purity="5.1041889190673828e-01" nType="0">
          <Node pos="l" depth="2" NCoef="0" IVar="-1" Cut="0.0000000000000000e+00" cType="1" res="-6.0538051184266806e-04" rms="4.6271470189094543e-01" purity="4.2486581206321716e-01" nType="-99"/>
          <Node pos="r" depth="2" NCoef="0" IVar="-1" Cut="0.0000000000000000e+00" cType="1" res="1.5113288536667824e-03" rms="4.4612124562263489e-01" purity="6.3289278745651245e-01" nType="-99"/>
        </Node>
      </Node>
    </BinaryTree>
    <BinaryTree type="DecisionTree" boostWeight="1.0000000000000000e+00" itree="284">
      <Node pos="s" depth="0" NCoef="0" IVar="8" Cut="1.3962242603302002e+00" cType="1" res="3.5272983368486166e-03" rms="4.5975574851036072e-01" purity="5.0446283817291260e-01" nType="0">
        <Node pos="l" depth="1" NCoef="0" IVar="1" Cut="1.6615144348144531e+02" cType="1" res="1.7464410513639450e-02" rms="4.6313601732254028e-01" purity="5.6647551059722900e-01" nType="0">
          <Node pos="l" depth="2" NCoef="0" IVar="-1" Cut="0.0000000000000000e+00" cType="1" res="1.9242918351665139e-03" rms="4.5810759067535400e-01" purity="6.2260568141937256e-01" nType="-99"/>
          <Node pos="r" depth="2" NCoef="0" IVar="-1" Cut="0.0000000000000000e+00" cType="1" res="-7.1389257209375501e-04" rms="4.6793881058692932e-01" purity="4.8847323656082153e-01" nType="-99"/>
        </Node>
        <Node pos="r" depth="1" NCoef="0" IVar="5" Cut="1.4470784366130829e-01" cType="1" res="-2.7827570214867592e-02" rms="4.5048514008522034e-01" purity="3.6495044827461243e-01" nType="0">
          <Node pos="l" depth="2" NCoef="0" IVar="-1" Cut="0.0000000000000000e+00" cType="1" res="-1.6574274050071836e-03" rms="4.4485118985176086e-01" purity="3.3469954133033752e-01" nType="-99"/>
          <Node pos="r" depth="2" NCoef="0" IVar="-1" Cut="0.0000000000000000e+00" cType="1" res="9.5221184892579913e-04" rms="4.7501480579376221e-01" purity="5.1901620626449585e-01" nType="-99"/>
        </Node>
      </Node>
    </BinaryTree>
    <BinaryTree type="DecisionTree" boostWeight="1.0000000000000000e+00" itree="285">
      <Node pos="s" depth="0" NCoef="0" IVar="1" Cut="7.9871292114257812e+01" cType="1" res="-5.7400311343371868e-03" rms="4.6047514677047729e-01" purity="4.9519124627113342e-01" nType="0">
        <Node pos="l" depth="1" NCoef="0" IVar="6" Cut="8.2018196105957031e+01" cType="1" res="-5.6985415518283844e-02" rms="4.6347951889038086e-01" purity="4.0724110603332520e-01" nType="0">
          <Node pos="l" depth="2" NCoef="0" IVar="-1" Cut="0.0000000000000000e+00" cType="1" res="-1.2152690906077623e-03" rms="4.6762850880622864e-01" purity="4.4667583703994751e-01" nType="-99"/>
          <Node pos="r" depth="2" NCoef="0" IVar="-1" Cut="0.0000000000000000e+00" cType="1" res="-3.8169561885297298e-03" rms="4.5641425251960754e-01" purity="3.6162066459655762e-01" nType="-99"/>
        </Node>
        <Node pos="r" depth="1" NCoef="0" IVar="1" Cut="1.3851347351074219e+02" cType="1" res="2.0167352631688118e-03" rms="4.5952096581459045e-01" purity="5.0850385427474976e-01" nType="0">
          <Node pos="l" depth="2" NCoef="0" IVar="-1" Cut="0.0000000000000000e+00" cType="1" res="1.4818458585068583e-03" rms="4.5614865422248840e-01" purity="5.9106534719467163e-01" nType="-99"/>
          <Node pos="r" depth="2" NCoef="0" IVar="-1" Cut="0.0000000000000000e+00" cType="1" res="-7.2175072273239493e-04" rms="4.6058923006057739e-01" purity="4.5836752653121948e-01" nType="-99"/>
        </Node>
      </Node>
    </BinaryTree>
    <BinaryTree type="DecisionTree" boostWeight="1.0000000000000000e+00" itree="286">
      <Node pos="s" depth="0" NCoef="0" IVar="3" Cut="2.0049893856048584e+00" cType="1" res="-4.7878837212920189e-03" rms="4.6238484978675842e-01" purity="4.9640372395515442e-01" nType="0">
        <Node pos="l" depth="1" NCoef="0" IVar="4" Cut="1.0594729614257812e+02" cType="1" res="1.8253499642014503e-02" rms="4.6587255597114563e-01" purity="6.0302942991256714e-01" nType="0">
          <Node pos="l" depth="2" NCoef="0" IVar="-1" Cut="0.0000000000000000e+00" cType="1" res="2.5999304489232600e-04" rms="4.7312751412391663e-01" purity="5.7662260532379150e-01" nType="-99"/>
          <Node pos="r" depth="2" NCoef="0" IVar="-1" Cut="0.0000000000000000e+00" cType="1" res="4.2411070317029953e-03" rms="4.2073521018028259e-01" purity="7.3924207687377930e-01" nType="-99"/>
        </Node>
        <Node pos="r" depth="1" NCoef="0" IVar="4" Cut="7.2836936950683594e+01" cType="1" res="-1.5852907672524452e-02" rms="4.6029081940650940e-01" purity="4.4519948959350586e-01" nType="0">
          <Node pos="l" depth="2" NCoef="0" IVar="-1" Cut="0.0000000000000000e+00" cType="1" res="-1.7913894262164831e-03" rms="4.5398983359336853e-01" purity="3.8826990127563477e-01" nType="-99"/>
          <Node pos="r" depth="2" NCoef="0" IVar="-1" Cut="0.0000000000000000e+00" cType="1" res="3.6060941056348383e-05" rms="4.6365064382553101e-01" purity="4.8277440667152405e-01" nType="-99"/>
        </Node>
      </Node>
    </BinaryTree>
    <BinaryTree type="DecisionTree" boostWeight="1.0000000000000000e+00" itree="287">
      <Node pos="s" depth="0" NCoef="0" IVar="9" Cut="5.3018768310546875e+02" cType="1" res="-3.5217658150941133e-03" rms="4.5963954925537109e-01" purity="4.9997049570083618e-01" nType="0">
        <Node pos="l" depth="1" NCoef="0" IVar="2" Cut="9.8474258184432983e-01" cType="1" res="-4.6574529260396957e-02" rms="4.4815036654472351e-01" purity="4.1274303197860718e-01" nType="0">
          <Node pos="l" depth="2" NCoef="0" IVar="-1" Cut="0.0000000000000000e+00" cType="1" res="3.0579170561395586e-04" rms="4.7051090002059937e-01" purity="5.9291791915893555e-01" nType="-99"/>
          <Node pos="r" depth="2" NCoef="0" IVar="-1" Cut="0.0000000000000000e+00" cType="1" res="-3.3523386809974909e-03" rms="4.3117681145668030e-01" purity="3.0553945899009705e-01" nType="-99"/>
        </Node>
        <Node pos="r" depth="1" NCoef="0" IVar="1" Cut="3.8540533447265625e+02" cType="1" res="5.4323840886354446e-03" rms="4.6148893237113953e-01" purity="5.1811212301254272e-01" nType="0">
          <Node pos="l" depth="2" NCoef="0" IVar="-1" Cut="0.0000000000000000e+00" cType="1" res="5.7834340259432793e-04" rms="4.6186086535453796e-01" purity="5.4033160209655762e-01" nType="-99"/>
          <Node pos="r" depth="2" NCoef="0" IVar="-1" Cut="0.0000000000000000e+00" cType="1" res="-2.0341754425317049e-03" rms="4.5535507798194885e-01" purity="3.6069560050964355e-01" nType="-99"/>
        </Node>
      </Node>
    </BinaryTree>
    <BinaryTree type="DecisionTree" boostWeight="1.0000000000000000e+00" itree="288">
      <Node pos="s" depth="0" NCoef="0" IVar="5" Cut="6.1756089329719543e-02" cType="1" res="-2.3943479172885418e-03" rms="4.5955523848533630e-01" purity="4.9937489628791809e-01" nType="0">
        <Node pos="l" depth="1" NCoef="0" IVar="9" Cut="9.0346142578125000e+02" cType="1" res="-2.6515016332268715e-02" rms="4.5644155144691467e-01" purity="4.1507241129875183e-01" nType="0">
          <Node pos="l" depth="2" NCoef="0" IVar="-1" Cut="0.0000000000000000e+00" cType="1" res="-2.1455164533108473e-03" rms="4.4949525594711304e-01" purity="3.6525279283523560e-01" nType="-99"/>
          <Node pos="r" depth="2" NCoef="0" IVar="-1" Cut="0.0000000000000000e+00" cType="1" res="3.5788770765066147e-04" rms="4.6478378772735596e-01" purity="4.9164342880249023e-01" nType="-99"/>
        </Node>
        <Node pos="r" depth="1" NCoef="0" IVar="0" Cut="8.1967401504516602e+00" cType="1" res="1.1655882932245731e-02" rms="4.6077767014503479e-01" purity="5.4848092794418335e-01" nType="0">
          <Node pos="l" depth="2" NCoef="0" IVar="-1" Cut="0.0000000000000000e+00" cType="1" res="-3.3312884625047445e-05" rms="4.6903786063194275e-01" purity="5.0163626670837402e-01" nType="-99"/>
          <Node pos="r" depth="2" NCoef="0" IVar="-1" Cut="0.0000000000000000e+00" cType="1" res="2.7314219623804092e-03" rms="4.2985269427299500e-01" purity="7.0311856269836426e-01" nType="-99"/>
        </Node>
      </Node>
    </BinaryTree>
    <BinaryTree type="DecisionTree" boostWeight="1.0000000000000000e+00" itree="289">
      <Node pos="s" depth="0" NCoef="0" IVar="7" Cut="9.4055563211441040e-01" cType="1" res="5.1128030754625797e-03" rms="4.5673221349716187e-01" purity="5.0750094652175903e-01" nType="0">
        <Node pos="l" depth="1" NCoef="0" IVar="0" Cut="6.1695299148559570e+00" cType="1" res="-2.8743084520101547e-02" rms="4.4835585355758667e-01" purity="3.5582205653190613e-01" nType="0">
          <Node pos="l" depth="2" NCoef="0" IVar="-1" Cut="0.0000000000000000e+00" cType="1" res="-1.8669863929972053e-03" rms="4.3983849883079529e-01" purity="3.1814029812812805e-01" nType="-99"/>
          <Node pos="r" depth="2" NCoef="0" IVar="-1" Cut="0.0000000000000000e+00" cType="1" res="1.0576102649793029e-03" rms="4.7098919749259949e-01" purity="4.7817510366439819e-01" nType="-99"/>
        </Node>
        <Node pos="r" depth="1" NCoef="0" IVar="1" Cut="7.0162628173828125e+01" cType="1" res="2.0646523684263229e-02" rms="4.5969071984291077e-01" purity="5.7709407806396484e-01" nType="0">
          <Node pos="l" depth="2" NCoef="0" IVar="-1" Cut="0.0000000000000000e+00" cType="1" res="-3.4620098304003477e-03" rms="4.6413215994834900e-01" purity="4.0355005860328674e-01" nType="-99"/>
          <Node pos="r" depth="2" NCoef="0" IVar="-1" Cut="0.0000000000000000e+00" cType="1" res="1.4554975787177682e-03" rms="4.5794045925140381e-01" purity="5.9532213211059570e-01" nType="-99"/>
        </Node>
      </Node>
    </BinaryTree>
    <BinaryTree type="DecisionTree" boostWeight="1.0000000000000000e+00" itree="290">
      <Node pos="s" depth="0" NCoef="0" IVar="5" Cut="1.5273357927799225e-01" cType="1" res="-5.6443852372467518e-03" rms="4.5983031392097473e-01" purity="4.9622961878776550e-01" nType="0">
        <Node pos="l" depth="1" NCoef="0" IVar="6" Cut="3.9222770690917969e+01" cType="1" res="-1.3845086097717285e-02" rms="4.6062400937080383e-01" purity="4.6739196777343750e-01" nType="0">
          <Node pos="l" depth="2" NCoef="0" IVar="-1" Cut="0.0000000000000000e+00" cType="1" res="1.9993979949504137e-03" rms="4.6964928507804871e-01" purity="5.3077405691146851e-01" nType="-99"/>
          <Node pos="r" depth="2" NCoef="0" IVar="-1" Cut="0.0000000000000000e+00" cType="1" res="-8.2868622848764062e-04" rms="4.5953455567359924e-01" purity="4.6217578649520874e-01" nType="-99"/>
        </Node>
        <Node pos="r" depth="1" NCoef="0" IVar="1" Cut="1.9134109497070312e+02" cType="1" res="2.8222918510437012e-02" rms="4.5497485995292664e-01" purity="6.1532360315322876e-01" nType="0">
          <Node pos="l" depth="2" NCoef="0" IVar="-1" Cut="0.0000000000000000e+00" cType="1" res="2.6620842982083559e-03" rms="4.4496542215347290e-01" purity="6.5286165475845337e-01" nType="-99"/>
          <Node pos="r" depth="2" NCoef="0" IVar="-1" Cut="0.0000000000000000e+00" cType="1" res="-2.2292414214462042e-03" rms="4.7340402007102966e-01" purity="5.0789928436279297e-01" nType="-99"/>
        </Node>
      </Node>
    </BinaryTree>
    <BinaryTree type="DecisionTree" boostWeight="1.0000000000000000e+00" itree="291">
      <Node pos="s" depth="0" NCoef="0" IVar="4" Cut="9.5187690734863281e+01" cType="1" res="-1.0641417466104031e-03" rms="4.5932844281196594e-01" purity="4.9785122275352478e-01" nType="0">
        <Node pos="l" depth="1" NCoef="0" IVar="6" Cut="1.0089187622070312e+02" cType="1" res="-1.8438866361975670e-02" rms="4.6326211094856262e-01" purity="4.7026532888412476e-01" nType="0">
          <Node pos="l" depth="2" NCoef="0" IVar="-1" Cut="0.0000000000000000e+00" cType="1" res="-1.5752867329865694e-04" rms="4.6195042133331299e-01" purity="4.8856684565544128e-01" nType="-99"/>
          <Node pos="r" depth="2" NCoef="0" IVar="-1" Cut="0.0000000000000000e+00" cType="1" res="-2.2684766445308924e-03" rms="4.6446532011032104e-01" purity="4.2837399244308472e-01" nType="-99"/>
        </Node>
        <Node pos="r" depth="1" NCoef="0" IVar="4" Cut="1.4293618774414062e+02" cType="1" res="3.3586617559194565e-02" rms="4.4937977194786072e-01" purity="5.5286639928817749e-01" nType="0">
          <Node pos="l" depth="2" NCoef="0" IVar="-1" Cut="0.0000000000000000e+00" cType="1" res="2.6545543223619461e-03" rms="4.4478785991668701e-01" purity="6.0198622941970825e-01" nType="-99"/>
          <Node pos="r" depth="2" NCoef="0" IVar="-1" Cut="0.0000000000000000e+00" cType="1" res="-1.5975468559190631e-03" rms="4.5636108517646790e-01" purity="4.0096765756607056e-01" nType="-99"/>
        </Node>
      </Node>
    </BinaryTree>
    <BinaryTree type="DecisionTree" boostWeight="1.0000000000000000e+00" itree="292">
      <Node pos="s" depth="0" NCoef="0" IVar="9" Cut="6.1548242187500000e+02" cType="1" res="-6.2535181641578674e-03" rms="4.6162268519401550e-01" purity="4.9887567758560181e-01" nType="0">
        <Node pos="l" depth="1" NCoef="0" IVar="6" Cut="9.9136032104492188e+01" cType="1" res="-3.2285023480653763e-02" rms="4.5694801211357117e-01" purity="4.4505536556243896e-01" nType="0">
          <Node pos="l" depth="2" NCoef="0" IVar="-1" Cut="0.0000000000000000e+00" cType="1" res="-7.0990150561556220e-04" rms="4.5992577075958252e-01" purity="4.6707066893577576e-01" nType="-99"/>
          <Node pos="r" depth="2" NCoef="0" IVar="-1" Cut="0.0000000000000000e+00" cType="1" res="-3.7780024576932192e-03" rms="4.4206520915031433e-01" purity="3.6949908733367920e-01" nType="-99"/>
        </Node>
        <Node pos="r" depth="1" NCoef="0" IVar="1" Cut="2.4315647888183594e+02" cType="1" res="6.3740336336195469e-03" rms="4.6334686875343323e-01" purity="5.2498322725296021e-01" nType="0">
          <Node pos="l" depth="2" NCoef="0" IVar="-1" Cut="0.0000000000000000e+00" cType="1" res="1.1500673135742545e-03" rms="4.5940333604812622e-01" purity="5.7540708780288696e-01" nType="-99"/>
          <Node pos="r" depth="2" NCoef="0" IVar="-1" Cut="0.0000000000000000e+00" cType="1" res="-1.3947037514299154e-03" rms="4.6899926662445068e-01" purity="4.2133444547653198e-01" nType="-99"/>
        </Node>
      </Node>
    </BinaryTree>
    <BinaryTree type="DecisionTree" boostWeight="1.0000000000000000e+00" itree="293">
      <Node pos="s" depth="0" NCoef="0" IVar="4" Cut="3.4295001983642578e+01" cType="1" res="-4.6492698602378368e-03" rms="4.6108394861221313e-01" purity="4.9745664000511169e-01" nType="0">
        <Node pos="l" depth="1" NCoef="0" IVar="-1" Cut="0.0000000000000000e+00" cType="1" res="-3.4223140683025122e-03" rms="4.4683176279067993e-01" purity="3.4748798608779907e-01" nType="-99"/>
        <Node pos="r" depth="1" NCoef="0" IVar="0" Cut="6.2578325271606445e+00" cType="1" res="4.7342703328467906e-04" rms="4.6157100796699524e-01" purity="5.0750732421875000e-01" nType="0">
          <Node pos="l" depth="2" NCoef="0" IVar="-1" Cut="0.0000000000000000e+00" cType="1" res="-1.1511013144627213e-03" rms="4.5162114500999451e-01" purity="3.5386413335800171e-01" nType="-99"/>
          <Node pos="r" depth="2" NCoef="0" IVar="-1" Cut="0.0000000000000000e+00" cType="1" res="6.1467487830668688e-04" rms="4.6542975306510925e-01" purity="5.7681679725646973e-01" nType="-99"/>
        </Node>
      </Node>
    </BinaryTree>
    <BinaryTree type="DecisionTree" boostWeight="1.0000000000000000e+00" itree="294">
      <Node pos="s" depth="0" NCoef="0" IVar="0" Cut="7.8956227302551270e+00" cType="1" res="-5.1139597781002522e-03" rms="4.5642063021659851e-01" purity="4.9713799357414246e-01" nType="0">
        <Node pos="l" depth="1" NCoef="0" IVar="9" Cut="6.7290246582031250e+02" cType="1" res="-1.8074739724397659e-02" rms="4.6179378032684326e-01" purity="4.3838006258010864e-01" nType="0">
          <Node pos="l" depth="2" NCoef="0" IVar="-1" Cut="0.0000000000000000e+00" cType="1" res="-1.6058585606515408e-03" rms="4.5439350605010986e-01" purity="4.0125855803489685e-01" nType="-99"/>
          <Node pos="r" depth="2" NCoef="0" IVar="-1" Cut="0.0000000000000000e+00" cType="1" res="-1.4803920930717140e-04" rms="4.6679079532623291e-01" purity="4.6650716662406921e-01" nType="-99"/>
        </Node>
        <Node pos="r" depth="1" NCoef="0" IVar="1" Cut="2.8885092163085938e+02" cType="1" res="2.7733057737350464e-02" rms="4.4080778956413269e-01" purity="6.4605057239532471e-01" nType="0">
          <Node pos="l" depth="2" NCoef="0" IVar="-1" Cut="0.0000000000000000e+00" cType="1" res="2.2289429325610399e-03" rms="4.3306535482406616e-01" purity="6.7868804931640625e-01" nType="-99"/>
          <Node pos="r" depth="2" NCoef="0" IVar="-1" Cut="0.0000000000000000e+00" cType="1" res="-1.8001165008172393e-03" rms="4.6699157357215881e-01" purity="5.0408548116683960e-01" nType="-99"/>
        </Node>
      </Node>
    </BinaryTree>
    <BinaryTree type="DecisionTree" boostWeight="1.0000000000000000e+00" itree="295">
      <Node pos="s" depth="0" NCoef="0" IVar="7" Cut="9.2304331064224243e-01" cType="1" res="4.2682848870754242e-03" rms="4.6027228236198425e-01" purity="5.0646901130676270e-01" nType="0">
        <Node pos="l" depth="1" NCoef="0" IVar="4" Cut="7.7748298645019531e+01" cType="1" res="-4.6746861189603806e-02" rms="4.3219208717346191e-01" purity="2.8752309083938599e-01" nType="0">
          <Node pos="l" depth="2" NCoef="0" IVar="-1" Cut="0.0000000000000000e+00" cType="1" res="-8.6818792624399066e-04" rms="4.3677425384521484e-01" purity="3.1175503134727478e-01" nType="-99"/>
          <Node pos="r" depth="2" NCoef="0" IVar="-1" Cut="0.0000000000000000e+00" cType="1" res="-2.9955995269119740e-03" rms="4.2555660009384155e-01" purity="2.6159992814064026e-01" nType="-99"/>
        </Node>
        <Node pos="r" depth="1" NCoef="0" IVar="4" Cut="1.3964096069335938e+02" cType="1" res="1.1750196106731892e-02" rms="4.6377614140510559e-01" purity="5.3857970237731934e-01" nType="0">
          <Node pos="l" depth="2" NCoef="0" IVar="-1" Cut="0.0000000000000000e+00" cType="1" res="8.0936821177601814e-04" rms="4.6309450268745422e-01" purity="5.5079138278961182e-01" nType="-99"/>
          <Node pos="r" depth="2" NCoef="0" IVar="-1" Cut="0.0000000000000000e+00" cType="1" res="-1.9977004267275333e-03" rms="4.6639758348464966e-01" purity="4.2209854722023010e-01" nType="-99"/>
        </Node>
      </Node>
    </BinaryTree>
    <BinaryTree type="DecisionTree" boostWeight="1.0000000000000000e+00" itree="296">
      <Node pos="s" depth="0" NCoef="0" IVar="4" Cut="1.5590687561035156e+02" cType="1" res="-7.0233703590929508e-03" rms="4.6222415566444397e-01" purity="4.9535366892814636e-01" nType="0">
        <Node pos="l" depth="1" NCoef="0" IVar="4" Cut="3.5323181152343750e+01" cType="1" res="-2.6087171863764524e-03" rms="4.6291279792785645e-01" purity="5.0496119260787964e-01" nType="0">
          <Node pos="l" depth="2" NCoef="0" IVar="-1" Cut="0.0000000000000000e+00" cType="1" res="-3.5399910993874073e-03" rms="4.4114431738853455e-01" purity="3.3097997307777405e-01" nType="-99"/>
          <Node pos="r" depth="2" NCoef="0" IVar="-1" Cut="0.0000000000000000e+00" cType="1" res="1.5590811381116509e-04" rms="4.6390584111213684e-01" purity="5.1784783601760864e-01" nType="-99"/>
        </Node>
        <Node pos="r" depth="1" NCoef="0" IVar="-1" Cut="0.0000000000000000e+00" cType="1" res="-3.5306853242218494e-03" rms="4.4343948364257812e-01" purity="3.3043956756591797e-01" nType="-99"/>
      </Node>
    </BinaryTree>
    <BinaryTree type="DecisionTree" boostWeight="1.0000000000000000e+00" itree="297">
      <Node pos="s" depth="0" NCoef="0" IVar="1" Cut="4.3836911010742188e+02" cType="1" res="6.4364639110863209e-03" rms="4.6050286293029785e-01" purity="5.0899982452392578e-01" nType="0">
        <Node pos="l" depth="1" NCoef="0" IVar="1" Cut="8.0035415649414062e+01" cType="1" res="1.2252939864993095e-02" rms="4.6064022183418274e-01" purity="5.2586632966995239e-01" nType="0">
          <Node pos="l" depth="2" NCoef="0" IVar="-1" Cut="0.0000000000000000e+00" cType="1" res="-1.7713682027533650e-03" rms="4.6101209521293640e-01" purity="4.1581046581268311e-01" nType="-99"/>
          <Node pos="r" depth="2" NCoef="0" IVar="-1" Cut="0.0000000000000000e+00" cType="1" res="9.5729349413886666e-04" rms="4.5998415350914001e-01" purity="5.4425954818725586e-01" nType="-99"/>
        </Node>
        <Node pos="r" depth="1" NCoef="0" IVar="-1" Cut="0.0000000000000000e+00" cType="1" res="-2.5934102013707161e-03" rms="4.5385155081748962e-01" purity="3.1932803988456726e-01" nType="-99"/>
      </Node>
    </BinaryTree>
    <BinaryTree type="DecisionTree" boostWeight="1.0000000000000000e+00" itree="298">
      <Node pos="s" depth="0" NCoef="0" IVar="0" Cut="6.0861001014709473e+00" cType="1" res="4.4741001911461353e-03" rms="4.5519918203353882e-01" purity="5.0649881362915039e-01" nType="0">
        <Node pos="l" depth="1" NCoef="0" IVar="9" Cut="8.3433081054687500e+02" cType="1" res="-3.6219093948602676e-02" rms="4.4289904832839966e-01" purity="3.2844203710556030e-01" nType="0">
          <Node pos="l" depth="2" NCoef="0" IVar="-1" Cut="0.0000000000000000e+00" cType="1" res="-2.3636454716324806e-03" rms="4.3107697367668152e-01" purity="3.0091673135757446e-01" nType="-99"/>
          <Node pos="r" depth="2" NCoef="0" IVar="-1" Cut="0.0000000000000000e+00" cType="1" res="1.3125018449500203e-04" rms="4.6192446351051331e-01" purity="3.8058644533157349e-01" nType="-99"/>
        </Node>
        <Node pos="r" depth="1" NCoef="0" IVar="4" Cut="3.8743186950683594e+01" cType="1" res="1.8996983766555786e-02" rms="4.5863583683967590e-01" purity="5.7004499435424805e-01" nType="0">
          <Node pos="l" depth="2" NCoef="0" IVar="-1" Cut="0.0000000000000000e+00" cType="1" res="-2.3060871753841639e-03" rms="4.6587732434272766e-01" purity="4.2141750454902649e-01" nType="-99"/>
          <Node pos="r" depth="2" NCoef="0" IVar="-1" Cut="0.0000000000000000e+00" cType="1" res="1.2204466620460153e-03" rms="4.5728805661201477e-01" purity="5.8475697040557861e-01" nType="-99"/>
        </Node>
      </Node>
    </BinaryTree>
    <BinaryTree type="DecisionTree" boostWeight="1.0000000000000000e+00" itree="299">
      <Node pos="s" depth="0" NCoef="0" IVar="1" Cut="9.2107482910156250e+01" cType="1" res="4.8141684383153915e-03" rms="4.6162620186805725e-01" purity="5.0823426246643066e-01" nType="0">
        <Node pos="l" depth="1" NCoef="0" IVar="9" Cut="5.2028967285156250e+02" cType="1" res="-3.6934670060873032e-02" rms="4.6856310963630676e-01" purity="4.4527390599250793e-01" nType="0">
          <Node pos="l" depth="2" NCoef="0" IVar="-1" Cut="0.0000000000000000e+00" cType="1" res="-3.6996507551521063e-03" rms="4.5714971423149109e-01" purity="3.7231191992759705e-01" nType="-99"/>
          <Node pos="r" depth="2" NCoef="0" IVar="-1" Cut="0.0000000000000000e+00" cType="1" res="-7.0494355168193579e-04" rms="4.7171810269355774e-01" purity="4.7597637772560120e-01" nType="-99"/>
        </Node>
        <Node pos="r" depth="1" NCoef="0" IVar="1" Cut="1.6370732116699219e+02" cType="1" res="1.4718469232320786e-02" rms="4.5940873026847839e-01" purity="5.2317065000534058e-01" nType="0">
          <Node pos="l" depth="2" NCoef="0" IVar="-1" Cut="0.0000000000000000e+00" cType="1" res="1.9241304835304618e-03" rms="4.5568060874938965e-01" purity="6.0806274414062500e-01" nType="-99"/>
          <Node pos="r" depth="2" NCoef="0" IVar="-1" Cut="0.0000000000000000e+00" cType="1" res="-3.6587941576726735e-04" rms="4.6137174963951111e-01" purity="4.4981378316879272e-01" nType="-99"/>
        </Node>
      </Node>
    </BinaryTree>
    <BinaryTree type="DecisionTree" boostWeight="1.0000000000000000e+00" itree="300">
      <Node pos="s" depth="0" NCoef="0" IVar="7" Cut="9.2281150817871094e-01" cType="1" res="-4.0121059864759445e-03" rms="4.6189746260643005e-01" purity="5.0234156847000122e-01" nType="0">
        <Node pos="l" depth="1" NCoef="0" IVar="0" Cut="5.1473011970520020e+00" cType="1" res="-4.9285426735877991e-02" rms="4.3578013777732849e-01" purity="2.9428961873054504e-01" nType="0">
          <Node pos="l" depth="2" NCoef="0" IVar="-1" Cut="0.0000000000000000e+00" cType="1" res="-3.6806918215006590e-03" rms="4.0601536631584167e-01" purity="2.3604533076286316e-01" nType="-99"/>
          <Node pos="r" depth="2" NCoef="0" IVar="-1" Cut="0.0000000000000000e+00" cType="1" res="-3.9624082273803651e-04" rms="4.5992174744606018e-01" purity="3.5187837481498718e-01" nType="-99"/>
        </Node>
        <Node pos="r" depth="1" NCoef="0" IVar="1" Cut="1.6536987304687500e+02" cType="1" res="2.0748560782521963e-03" rms="4.6496108174324036e-01" purity="5.3031402826309204e-01" nType="0">
          <Node pos="l" depth="2" NCoef="0" IVar="-1" Cut="0.0000000000000000e+00" cType="1" res="8.7258347775787115e-04" rms="4.6354049444198608e-01" purity="5.7920265197753906e-01" nType="-99"/>
          <Node pos="r" depth="2" NCoef="0" IVar="-1" Cut="0.0000000000000000e+00" cType="1" res="-8.8092999067157507e-04" rms="4.6591359376907349e-01" purity="4.6561852097511292e-01" nType="-99"/>
        </Node>
      </Node>
    </BinaryTree>
    <BinaryTree type="DecisionTree" boostWeight="1.0000000000000000e+00" itree="301">
      <Node pos="s" depth="0" NCoef="0" IVar="0" Cut="8.3428955078125000e+00" cType="1" res="-5.5779102258384228e-03" rms="4.5447185635566711e-01" purity="4.9296063184738159e-01" nType="0">
        <Node pos="l" depth="1" NCoef="0" IVar="5" Cut="1.6527737677097321e-01" cType="1" res="-1.7605021595954895e-02" rms="4.5931503176689148e-01" purity="4.5194661617279053e-01" nType="0">
          <Node pos="l" depth="2" NCoef="0" IVar="-1" Cut="0.0000000000000000e+00" cType="1" res="-1.1556058889254928e-03" rms="4.5770585536956787e-01" purity="4.2472866177558899e-01" nType="-99"/>
          <Node pos="r" depth="2" NCoef="0" IVar="-1" Cut="0.0000000000000000e+00" cType="1" res="1.3739739079028368e-03" rms="4.6472179889678955e-01" purity="5.9583652019500732e-01" nType="-99"/>
        </Node>
        <Node pos="r" depth="1" NCoef="0" IVar="9" Cut="6.8047381591796875e+02" cType="1" res="4.8309218138456345e-02" rms="4.2797642946243286e-01" purity="6.7672270536422729e-01" nType="0">
          <Node pos="l" depth="2" NCoef="0" IVar="-1" Cut="0.0000000000000000e+00" cType="1" res="3.8594679790548980e-04" rms="4.4660124182701111e-01" purity="6.1041706800460815e-01" nType="-99"/>
          <Node pos="r" depth="2" NCoef="0" IVar="-1" Cut="0.0000000000000000e+00" cType="1" res="3.9972378872334957e-03" rms="4.1297686100006104e-01" purity="7.2070002555847168e-01" nType="-99"/>
        </Node>
      </Node>
    </BinaryTree>
    <BinaryTree type="DecisionTree" boostWeight="1.0000000000000000e+00" itree="302">
      <Node pos="s" depth="0" NCoef="0" IVar="1" Cut="3.1855007934570312e+02" cType="1" res="5.0779734738171101e-03" rms="4.5984622836112976e-01" purity="5.0850176811218262e-01" nType="0">
        <Node pos="l" depth="1" NCoef="0" IVar="1" Cut="1.0010655975341797e+02" cType="1" res="1.4088097959756851e-02" rms="4.5996364951133728e-01" purity="5.3427594900131226e-01" nType="0">
          <Node pos="l" depth="2" NCoef="0" IVar="-1" Cut="0.0000000000000000e+00" cType="1" res="-9.4378093490377069e-04" rms="4.6534582972526550e-01" purity="4.6857702732086182e-01" nType="-99"/>
          <Node pos="r" depth="2" NCoef="0" IVar="-1" Cut="0.0000000000000000e+00" cType="1" res="1.2483745813369751e-03" rms="4.5724868774414062e-01" purity="5.5866038799285889e-01" nType="-99"/>
        </Node>
        <Node pos="r" depth="1" NCoef="0" IVar="7" Cut="9.4441926479339600e-01" cType="1" res="-4.2950525879859924e-02" rms="4.5622724294662476e-01" purity="3.7111225724220276e-01" nType="0">
          <Node pos="l" depth="2" NCoef="0" IVar="-1" Cut="0.0000000000000000e+00" cType="1" res="-4.8697591410018504e-04" rms="4.3730479478836060e-01" purity="3.1219962239265442e-01" nType="-99"/>
          <Node pos="r" depth="2" NCoef="0" IVar="-1" Cut="0.0000000000000000e+00" cType="1" res="-2.9098123777657747e-03" rms="4.6847450733184814e-01" purity="4.1534939408302307e-01" nType="-99"/>
        </Node>
      </Node>
    </BinaryTree>
    <BinaryTree type="DecisionTree" boostWeight="1.0000000000000000e+00" itree="303">
      <Node pos="s" depth="0" NCoef="0" IVar="1" Cut="1.3882148742675781e+02" cType="1" res="5.9595154598355293e-03" rms="4.5989370346069336e-01" purity="5.0912308692932129e-01" nType="0">
        <Node pos="l" depth="1" NCoef="0" IVar="1" Cut="1.0135516357421875e+02" cType="1" res="3.0698737129569054e-02" rms="4.5616641640663147e-01" purity="5.6518340110778809e-01" nType="0">
          <Node pos="l" depth="2" NCoef="0" IVar="-1" Cut="0.0000000000000000e+00" cType="1" res="-3.4138382761739194e-04" rms="4.6522533893585205e-01" purity="4.7935399413108826e-01" nType="-99"/>
          <Node pos="r" depth="2" NCoef="0" IVar="-1" Cut="0.0000000000000000e+00" cType="1" res="3.4254274796694517e-03" rms="4.4282981753349304e-01" purity="6.5564799308776855e-01" nType="-99"/>
        </Node>
        <Node pos="r" depth="1" NCoef="0" IVar="0" Cut="8.3058271408081055e+00" cType="1" res="-1.4956946484744549e-02" rms="4.6198928356170654e-01" purity="4.6172538399696350e-01" nType="0">
          <Node pos="l" depth="2" NCoef="0" IVar="-1" Cut="0.0000000000000000e+00" cType="1" res="-1.1734460713341832e-03" rms="4.6506893634796143e-01" purity="4.1826373338699341e-01" nType="-99"/>
          <Node pos="r" depth="2" NCoef="0" IVar="-1" Cut="0.0000000000000000e+00" cType="1" res="1.6576624475419521e-03" rms="4.4617420434951782e-01" purity="6.3496375083923340e-01" nType="-99"/>
        </Node>
      </Node>
    </BinaryTree>
    <BinaryTree type="DecisionTree" boostWeight="1.0000000000000000e+00" itree="304">
      <Node pos="s" depth="0" NCoef="0" IVar="4" Cut="1.5106457519531250e+02" cType="1" res="2.9613641090691090e-03" rms="4.5833888649940491e-01" purity="5.0605183839797974e-01" nType="0">
        <Node pos="l" depth="1" NCoef="0" IVar="4" Cut="9.2380874633789062e+01" cType="1" res="8.1660458818078041e-03" rms="4.5846393704414368e-01" purity="5.1770895719528198e-01" nType="0">
          <Node pos="l" depth="2" NCoef="0" IVar="-1" Cut="0.0000000000000000e+00" cType="1" res="-4.4302135938778520e-04" rms="4.6088188886642456e-01" purity="4.8122262954711914e-01" nType="-99"/>
          <Node pos="r" depth="2" NCoef="0" IVar="-1" Cut="0.0000000000000000e+00" cType="1" res="2.2812373936176300e-03" rms="4.5046550035476685e-01" purity="5.9834247827529907e-01" nType="-99"/>
        </Node>
        <Node pos="r" depth="1" NCoef="0" IVar="-1" Cut="0.0000000000000000e+00" cType="1" res="-3.0989726074039936e-03" rms="4.5032584667205811e-01" purity="3.4301847219467163e-01" nType="-99"/>
      </Node>
    </BinaryTree>
    <BinaryTree type="DecisionTree" boostWeight="1.0000000000000000e+00" itree="305">
      <Node pos="s" depth="0" NCoef="0" IVar="9" Cut="5.3473229980468750e+02" cType="1" res="-1.9177241483703256e-04" rms="4.5956963300704956e-01" purity="5.0225216150283813e-01" nType="0">
        <Node pos="l" depth="1" NCoef="0" IVar="4" Cut="5.7780841827392578e+01" cType="1" res="-4.9028903245925903e-02" rms="4.4764342904090881e-01" purity="4.0867641568183899e-01" nType="0">
          <Node pos="l" depth="2" NCoef="0" IVar="-1" Cut="0.0000000000000000e+00" cType="1" res="-3.2572292257100344e-03" rms="4.4403493404388428e-01" purity="3.6989024281501770e-01" nType="-99"/>
          <Node pos="r" depth="2" NCoef="0" IVar="-1" Cut="0.0000000000000000e+00" cType="1" res="-1.0245186276733875e-03" rms="4.4961589574813843e-01" purity="4.4649800658226013e-01" nType="-99"/>
        </Node>
        <Node pos="r" depth="1" NCoef="0" IVar="5" Cut="5.0888337194919586e-02" cType="1" res="1.0756118223071098e-02" rms="4.6149232983589172e-01" purity="5.2322918176651001e-01" nType="0">
          <Node pos="l" depth="2" NCoef="0" IVar="-1" Cut="0.0000000000000000e+00" cType="1" res="-7.2521239053457975e-04" rms="4.5601439476013184e-01" purity="4.2440649867057800e-01" nType="-99"/>
          <Node pos="r" depth="2" NCoef="0" IVar="-1" Cut="0.0000000000000000e+00" cType="1" res="1.0573130566626787e-03" rms="4.6341106295585632e-01" purity="5.6771504878997803e-01" nType="-99"/>
        </Node>
      </Node>
    </BinaryTree>
    <BinaryTree type="DecisionTree" boostWeight="1.0000000000000000e+00" itree="306">
      <Node pos="s" depth="0" NCoef="0" IVar="0" Cut="6.2066392898559570e+00" cType="1" res="2.5950078270398080e-04" rms="4.5927253365516663e-01" purity="5.0437474250793457e-01" nType="0">
        <Node pos="l" depth="1" NCoef="0" IVar="9" Cut="7.4995434570312500e+02" cType="1" res="-3.0891787260770798e-02" rms="4.4930627942085266e-01" purity="3.4269434213638306e-01" nType="0">
          <Node pos="l" depth="2" NCoef="0" IVar="-1" Cut="0.0000000000000000e+00" cType="1" res="-2.3538640234619379e-03" rms="4.3875968456268311e-01" purity="3.0469700694084167e-01" nType="-99"/>
          <Node pos="r" depth="2" NCoef="0" IVar="-1" Cut="0.0000000000000000e+00" cType="1" res="8.2573576946742833e-05" rms="4.6006914973258972e-01" purity="3.9027866721153259e-01" nType="-99"/>
        </Node>
        <Node pos="r" depth="1" NCoef="0" IVar="6" Cut="1.2810180664062500e+02" cType="1" res="1.3223869726061821e-02" rms="4.6273949742317200e-01" purity="5.7166206836700439e-01" nType="0">
          <Node pos="l" depth="2" NCoef="0" IVar="-1" Cut="0.0000000000000000e+00" cType="1" res="1.1454974301159382e-03" rms="4.6021863818168640e-01" purity="5.8483695983886719e-01" nType="-99"/>
          <Node pos="r" depth="2" NCoef="0" IVar="-1" Cut="0.0000000000000000e+00" cType="1" res="-2.7902231086045504e-03" rms="4.7224941849708557e-01" purity="4.8389741778373718e-01" nType="-99"/>
        </Node>
      </Node>
    </BinaryTree>
    <BinaryTree type="DecisionTree" boostWeight="1.0000000000000000e+00" itree="307">
      <Node pos="s" depth="0" NCoef="0" IVar="1" Cut="9.2107482910156250e+01" cType="1" res="1.3748784549534321e-03" rms="4.5971673727035522e-01" purity="5.0323081016540527e-01" nType="0">
        <Node pos="l" depth="1" NCoef="0" IVar="4" Cut="6.2814140319824219e+01" cType="1" res="-4.2468700557947159e-02" rms="4.6084141731262207e-01" purity="4.2973408102989197e-01" nType="0">
          <Node pos="l" depth="2" NCoef="0" IVar="-1" Cut="0.0000000000000000e+00" cType="1" res="-4.1728673386387527e-04" rms="4.5872589945793152e-01" purity="4.2646467685699463e-01" nType="-99"/>
          <Node pos="r" depth="2" NCoef="0" IVar="-1" Cut="0.0000000000000000e+00" cType="1" res="-3.9376723580062389e-03" rms="4.5971679687500000e-01" purity="4.3449038267135620e-01" nType="-99"/>
        </Node>
        <Node pos="r" depth="1" NCoef="0" IVar="9" Cut="5.2528253173828125e+02" cType="1" res="1.1421008035540581e-02" rms="4.5886909961700439e-01" purity="5.2007156610488892e-01" nType="0">
          <Node pos="l" depth="2" NCoef="0" IVar="-1" Cut="0.0000000000000000e+00" cType="1" res="-2.0701272878795862e-03" rms="4.5232200622558594e-01" purity="4.1612613201141357e-01" nType="-99"/>
          <Node pos="r" depth="2" NCoef="0" IVar="-1" Cut="0.0000000000000000e+00" cType="1" res="9.1851642355322838e-04" rms="4.5918771624565125e-01" purity="5.3546488285064697e-01" nType="-99"/>
        </Node>
      </Node>
    </BinaryTree>
    <BinaryTree type="DecisionTree" boostWeight="1.0000000000000000e+00" itree="308">
      <Node pos="s" depth="0" NCoef="0" IVar="4" Cut="4.8728153228759766e+01" cType="1" res="-1.1870144866406918e-02" rms="4.5861187577247620e-01" purity="4.8916852474212646e-01" nType="0">
        <Node pos="l" depth="1" NCoef="0" IVar="4" Cut="4.1702239990234375e+01" cType="1" res="-5.3369313478469849e-02" rms="4.5658931136131287e-01" purity="3.9002272486686707e-01" nType="0">
          <Node pos="l" depth="2" NCoef="0" IVar="-1" Cut="0.0000000000000000e+00" cType="1" res="-3.2400914933532476e-03" rms="4.5457980036735535e-01" purity="3.5555037856101990e-01" nType="-99"/>
          <Node pos="r" depth="2" NCoef="0" IVar="-1" Cut="0.0000000000000000e+00" cType="1" res="-6.4626213861629367e-04" rms="4.5753574371337891e-01" purity="4.5007827877998352e-01" nType="-99"/>
        </Node>
        <Node pos="r" depth="1" NCoef="0" IVar="1" Cut="1.7868803405761719e+02" cType="1" res="-1.0359395528212190e-03" rms="4.5852056145668030e-01" purity="5.1505255699157715e-01" nType="0">
          <Node pos="l" depth="2" NCoef="0" IVar="-1" Cut="0.0000000000000000e+00" cType="1" res="1.0540784569457173e-03" rms="4.5587235689163208e-01" purity="5.7873380184173584e-01" nType="-99"/>
          <Node pos="r" depth="2" NCoef="0" IVar="-1" Cut="0.0000000000000000e+00" cType="1" res="-1.3871471164748073e-03" rms="4.6012371778488159e-01" purity="4.3242001533508301e-01" nType="-99"/>
        </Node>
      </Node>
    </BinaryTree>
    <BinaryTree type="DecisionTree" boostWeight="1.0000000000000000e+00" itree="309">
      <Node pos="s" depth="0" NCoef="0" IVar="1" Cut="9.3066810607910156e+01" cType="1" res="3.8812647107988596e-03" rms="4.5939546823501587e-01" purity="5.0591909885406494e-01" nType="0">
        <Node pos="l" depth="1" NCoef="0" IVar="6" Cut="6.7636627197265625e+01" cType="1" res="-3.7320539355278015e-02" rms="4.6258658170700073e-01" purity="4.3817111849784851e-01" nType="0">
          <Node pos="l" depth="2" NCoef="0" IVar="-1" Cut="0.0000000000000000e+00" cType="1" res="1.2409525515977293e-04" rms="4.7264540195465088e-01" purity="4.9129456281661987e-01" nType="-99"/>
          <Node pos="r" depth="2" NCoef="0" IVar="-1" Cut="0.0000000000000000e+00" cType="1" res="-2.6266281493008137e-03" rms="4.5491003990173340e-01" purity="4.0689495205879211e-01" nType="-99"/>
        </Node>
        <Node pos="r" depth="1" NCoef="0" IVar="1" Cut="4.5090240478515625e+02" cType="1" res="1.3714325614273548e-02" rms="4.5808321237564087e-01" purity="5.2208757400512695e-01" nType="0">
          <Node pos="l" depth="2" NCoef="0" IVar="-1" Cut="0.0000000000000000e+00" cType="1" res="9.6668052719905972e-04" rms="4.5778527855873108e-01" purity="5.4252392053604126e-01" nType="-99"/>
          <Node pos="r" depth="2" NCoef="0" IVar="-1" Cut="0.0000000000000000e+00" cType="1" res="-2.6485929265618324e-03" rms="4.5426201820373535e-01" purity="3.1596672534942627e-01" nType="-99"/>
        </Node>
      </Node>
    </BinaryTree>
    <BinaryTree type="DecisionTree" boostWeight="1.0000000000000000e+00" itree="310">
      <Node pos="s" depth="0" NCoef="0" IVar="0" Cut="5.7437562942504883e+00" cType="1" res="-7.0457626134157181e-03" rms="4.5748990774154663e-01" purity="4.9118945002555847e-01" nType="0">
        <Node pos="l" depth="1" NCoef="0" IVar="7" Cut="9.2640078067779541e-01" cType="1" res="-4.2422011494636536e-02" rms="4.3279087543487549e-01" purity="3.1014120578765869e-01" nType="0">
          <Node pos="l" depth="2" NCoef="0" IVar="-1" Cut="0.0000000000000000e+00" cType="1" res="-2.6941134128719568e-03" rms="4.1579747200012207e-01" purity="2.6502931118011475e-01" nType="-99"/>
          <Node pos="r" depth="2" NCoef="0" IVar="-1" Cut="0.0000000000000000e+00" cType="1" res="3.6193145206198096e-04" rms="4.6470418572425842e-01" purity="4.1146966814994812e-01" nType="-99"/>
        </Node>
        <Node pos="r" depth="1" NCoef="0" IVar="2" Cut="1.6327232122421265e+00" cType="1" res="1.4661452732980251e-03" rms="4.6283286809921265e-01" purity="5.3475159406661987e-01" nType="0">
          <Node pos="l" depth="2" NCoef="0" IVar="-1" Cut="0.0000000000000000e+00" cType="1" res="3.2760034082457423e-04" rms="4.6584114432334900e-01" purity="5.5979770421981812e-01" nType="-99"/>
          <Node pos="r" depth="2" NCoef="0" IVar="-1" Cut="0.0000000000000000e+00" cType="1" res="-2.6954663917422295e-03" rms="4.2387560009956360e-01" purity="2.6278683543205261e-01" nType="-99"/>
        </Node>
      </Node>
    </BinaryTree>
    <BinaryTree type="DecisionTree" boostWeight="1.0000000000000000e+00" itree="311">
      <Node pos="s" depth="0" NCoef="0" IVar="3" Cut="2.5282089710235596e+00" cType="1" res="-9.8519434686750174e-04" rms="4.5572429895401001e-01" purity="4.9917349219322205e-01" nType="0">
        <Node pos="l" depth="1" NCoef="0" IVar="1" Cut="6.9609390258789062e+01" cType="1" res="8.3616888150572777e-03" rms="4.6413072943687439e-01" purity="5.4514515399932861e-01" nType="0">
          <Node pos="l" depth="2" NCoef="0" IVar="-1" Cut="0.0000000000000000e+00" cType="1" res="-2.4018592666834593e-03" rms="4.6859192848205566e-01" purity="4.0217483043670654e-01" nType="-99"/>
          <Node pos="r" depth="2" NCoef="0" IVar="-1" Cut="0.0000000000000000e+00" cType="1" res="6.9865206023678184e-04" rms="4.6306759119033813e-01" purity="5.6124579906463623e-01" nType="-99"/>
        </Node>
        <Node pos="r" depth="1" NCoef="0" IVar="4" Cut="9.1759963989257812e+01" cType="1" res="-5.7460006326436996e-02" rms="3.9654201269149780e-01" purity="2.2140815854072571e-01" nType="0">
          <Node pos="l" depth="2" NCoef="0" IVar="-1" Cut="0.0000000000000000e+00" cType="1" res="-4.1269161738455296e-03" rms="3.5483521223068237e-01" purity="1.6433653235435486e-01" nType="-99"/>
          <Node pos="r" depth="2" NCoef="0" IVar="-1" Cut="0.0000000000000000e+00" cType="1" res="-1.6293238149955869e-03" rms="4.2972642183303833e-01" purity="2.7319693565368652e-01" nType="-99"/>
        </Node>
      </Node>
    </BinaryTree>
    <BinaryTree type="DecisionTree" boostWeight="1.0000000000000000e+00" itree="312">
      <Node pos="s" depth="0" NCoef="0" IVar="0" Cut="9.5742483139038086e+00" cType="1" res="-3.0109125655144453e-03" rms="4.5929321646690369e-01" purity="4.9762219190597534e-01" nType="0">
        <Node pos="l" depth="1" NCoef="0" IVar="8" Cut="1.9551573991775513e+00" cType="1" res="-7.7680763788521290e-03" rms="4.6149510145187378e-01" purity="4.8445510864257812e-01" nType="0">
          <Node pos="l" depth="2" NCoef="0" IVar="-1" Cut="0.0000000000000000e+00" cType="1" res="7.4820731242652982e-05" rms="4.6858212351799011e-01" purity="5.2393752336502075e-01" nType="-99"/>
          <Node pos="r" depth="2" NCoef="0" IVar="-1" Cut="0.0000000000000000e+00" cType="1" res="-2.6581445708870888e-03" rms="4.1786348819732666e-01" purity="2.7286681532859802e-01" nType="-99"/>
        </Node>
        <Node pos="r" depth="1" NCoef="0" IVar="-1" Cut="0.0000000000000000e+00" cType="1" res="4.6564294025301933e-03" rms="4.0608647465705872e-01" purity="7.4290591478347778e-01" nType="-99"/>
      </Node>
    </BinaryTree>
    <BinaryTree type="DecisionTree" boostWeight="1.0000000000000000e+00" itree="313">
      <Node pos="s" depth="0" NCoef="0" IVar="1" Cut="1.4001455688476562e+02" cType="1" res="8.8451160117983818e-03" rms="4.5929977297782898e-01" purity="5.1014369726181030e-01" nType="0">
        <Node pos="l" depth="1" NCoef="0" IVar="1" Cut="1.0008254241943359e+02" cType="1" res="3.4531325101852417e-02" rms="4.5705574750900269e-01" purity="5.6787335872650146e-01" nType="0">
          <Node pos="l" depth="2" NCoef="0" IVar="-1" Cut="0.0000000000000000e+00" cType="1" res="-3.1049031531438231e-04" rms="4.6847203373908997e-01" purity="4.7761988639831543e-01" nType="-99"/>
          <Node pos="r" depth="2" NCoef="0" IVar="-1" Cut="0.0000000000000000e+00" cType="1" res="3.5746847279369831e-03" rms="4.4191157817840576e-01" purity="6.5575301647186279e-01" nType="-99"/>
        </Node>
        <Node pos="r" depth="1" NCoef="0" IVar="3" Cut="2.1149132251739502e+00" cType="1" res="-1.3244037516415119e-02" rms="4.6007534861564636e-01" purity="4.6049836277961731e-01" nType="0">
          <Node pos="l" depth="2" NCoef="0" IVar="-1" Cut="0.0000000000000000e+00" cType="1" res="7.8816711902618408e-04" rms="4.6711903810501099e-01" purity="5.9902930259704590e-01" nType="-99"/>
          <Node pos="r" depth="2" NCoef="0" IVar="-1" Cut="0.0000000000000000e+00" cType="1" res="-1.4319120673462749e-03" rms="4.5448976755142212e-01" purity="3.7272301316261292e-01" nType="-99"/>
        </Node>
      </Node>
    </BinaryTree>
    <BinaryTree type="DecisionTree" boostWeight="1.0000000000000000e+00" itree="314">
      <Node pos="s" depth="0" NCoef="0" IVar="5" Cut="1.4793208241462708e-01" cType="1" res="-7.9632028937339783e-03" rms="4.5747762918472290e-01" purity="4.9212124943733215e-01" nType="0">
        <Node pos="l" depth="1" NCoef="0" IVar="6" Cut="7.2289039611816406e+01" cType="1" res="-1.7959052696824074e-02" rms="4.5729780197143555e-01" purity="4.5853126049041748e-01" nType="0">
          <Node pos="l" depth="2" NCoef="0" IVar="-1" Cut="0.0000000000000000e+00" cType="1" res="1.9297153630759567e-04" rms="4.5594704151153564e-01" purity="4.8931339383125305e-01" nType="-99"/>
          <Node pos="r" depth="2" NCoef="0" IVar="-1" Cut="0.0000000000000000e+00" cType="1" res="-1.3953192392364144e-03" rms="4.5758748054504395e-01" purity="4.3980476260185242e-01" nType="-99"/>
        </Node>
        <Node pos="r" depth="1" NCoef="0" IVar="6" Cut="9.7515350341796875e+01" cType="1" res="2.9426112771034241e-02" rms="4.5621195435523987e-01" purity="6.1776429414749146e-01" nType="0">
          <Node pos="l" depth="2" NCoef="0" IVar="-1" Cut="0.0000000000000000e+00" cType="1" res="2.3359635379165411e-03" rms="4.4758632779121399e-01" purity="6.4110100269317627e-01" nType="-99"/>
          <Node pos="r" depth="2" NCoef="0" IVar="-1" Cut="0.0000000000000000e+00" cType="1" res="-6.7856063833460212e-04" rms="4.7133925557136536e-01" purity="5.6716591119766235e-01" nType="-99"/>
        </Node>
      </Node>
    </BinaryTree>
    <BinaryTree type="DecisionTree" boostWeight="1.0000000000000000e+00" itree="315">
      <Node pos="s" depth="0" NCoef="0" IVar="5" Cut="7.4956499040126801e-02" cType="1" res="-2.8508510440587997e-03" rms="4.5868977904319763e-01" purity="5.0060778856277466e-01" nType="0">
        <Node pos="l" depth="1" NCoef="0" IVar="4" Cut="1.0806504821777344e+02" cType="1" res="-2.4270720779895782e-02" rms="4.5666274428367615e-01" purity="4.2258197069168091e-01" nType="0">
          <Node pos="l" depth="2" NCoef="0" IVar="-1" Cut="0.0000000000000000e+00" cType="1" res="-2.0563229918479919e-03" rms="4.5406952500343323e-01" purity="3.9127597212791443e-01" nType="-99"/>
          <Node pos="r" depth="2" NCoef="0" IVar="-1" Cut="0.0000000000000000e+00" cType="1" res="1.5925678890198469e-03" rms="4.5786514878273010e-01" purity="5.0189161300659180e-01" nType="-99"/>
        </Node>
        <Node pos="r" depth="1" NCoef="0" IVar="9" Cut="5.1167022705078125e+02" cType="1" res="1.4862905256450176e-02" rms="4.5960584282875061e-01" purity="5.6513351202011108e-01" nType="0">
          <Node pos="l" depth="2" NCoef="0" IVar="-1" Cut="0.0000000000000000e+00" cType="1" res="-1.1677936417981982e-03" rms="4.5232129096984863e-01" purity="4.5772820711135864e-01" nType="-99"/>
          <Node pos="r" depth="2" NCoef="0" IVar="-1" Cut="0.0000000000000000e+00" cType="1" res="1.1358100455254316e-03" rms="4.6077069640159607e-01" purity="5.9049898386001587e-01" nType="-99"/>
        </Node>
      </Node>
    </BinaryTree>
    <BinaryTree type="DecisionTree" boostWeight="1.0000000000000000e+00" itree="316">
      <Node pos="s" depth="0" NCoef="0" IVar="9" Cut="6.5549243164062500e+02" cType="1" res="-6.0320887714624405e-03" rms="4.5853734016418457e-01" purity="4.9806943535804749e-01" nType="0">
        <Node pos="l" depth="1" NCoef="0" IVar="2" Cut="7.8015565872192383e-01" cType="1" res="-3.0989298596978188e-02" rms="4.5642417669296265e-01" purity="4.5133534073829651e-01" nType="0">
          <Node pos="l" depth="2" NCoef="0" IVar="-1" Cut="0.0000000000000000e+00" cType="1" res="1.4645416522398591e-03" rms="4.5969882607460022e-01" purity="6.6376161575317383e-01" nType="-99"/>
          <Node pos="r" depth="2" NCoef="0" IVar="-1" Cut="0.0000000000000000e+00" cType="1" res="-1.9793040119111538e-03" rms="4.5445477962493896e-01" purity="4.0175956487655640e-01" nType="-99"/>
        </Node>
        <Node pos="r" depth="1" NCoef="0" IVar="3" Cut="1.9709315299987793e+00" cType="1" res="1.0093010962009430e-02" rms="4.5917671918869019e-01" purity="5.2826482057571411e-01" nType="0">
          <Node pos="l" depth="2" NCoef="0" IVar="-1" Cut="0.0000000000000000e+00" cType="1" res="2.2930712439119816e-03" rms="4.5335331559181213e-01" purity="6.5541088581085205e-01" nType="-99"/>
          <Node pos="r" depth="2" NCoef="0" IVar="-1" Cut="0.0000000000000000e+00" cType="1" res="-2.9243633616715670e-04" rms="4.6069121360778809e-01" purity="4.7301930189132690e-01" nType="-99"/>
        </Node>
      </Node>
    </BinaryTree>
    <BinaryTree type="DecisionTree" boostWeight="1.0000000000000000e+00" itree="317">
      <Node pos="s" depth="0" NCoef="0" IVar="1" Cut="4.5763269042968750e+02" cType="1" res="-3.6466522142291069e-03" rms="4.6197575330734253e-01" purity="4.9865564703941345e-01" nType="0">
        <Node pos="l" depth="1" NCoef="0" IVar="1" Cut="1.7418272399902344e+02" cType="1" res="1.3298802077770233e-03" rms="4.6305787563323975e-01" purity="5.1418375968933105e-01" nType="0">
          <Node pos="l" depth="2" NCoef="0" IVar="-1" Cut="0.0000000000000000e+00" cType="1" res="6.2279897974804044e-04" rms="4.6155536174774170e-01" purity="5.4823124408721924e-01" nType="-99"/>
          <Node pos="r" depth="2" NCoef="0" IVar="-1" Cut="0.0000000000000000e+00" cType="1" res="-9.1072020586580038e-04" rms="4.6491062641143799e-01" purity="4.5352318882942200e-01" nType="-99"/>
        </Node>
        <Node pos="r" depth="1" NCoef="0" IVar="-1" Cut="0.0000000000000000e+00" cType="1" res="-2.8648732695728540e-03" rms="4.4347307085990906e-01" purity="3.0397614836692810e-01" nType="-99"/>
      </Node>
    </BinaryTree>
    <BinaryTree type="DecisionTree" boostWeight="1.0000000000000000e+00" itree="318">
      <Node pos="s" depth="0" NCoef="0" IVar="7" Cut="9.1701745986938477e-01" cType="1" res="3.8116902578622103e-03" rms="4.6006655693054199e-01" purity="5.0407165288925171e-01" nType="0">
        <Node pos="l" depth="1" NCoef="0" IVar="-1" Cut="0.0000000000000000e+00" cType="1" res="-2.0646983757615089e-03" rms="4.1999018192291260e-01" purity="2.7479901909828186e-01" nType="-99"/>
        <Node pos="r" depth="1" NCoef="0" IVar="5" Cut="2.6986112818121910e-02" cType="1" res="8.7494943290948868e-03" rms="4.6330827474594116e-01" purity="5.2539277076721191e-01" nType="0">
          <Node pos="l" depth="2" NCoef="0" IVar="-1" Cut="0.0000000000000000e+00" cType="1" res="-1.3864199863746762e-03" rms="4.5640572905540466e-01" purity="3.9404860138893127e-01" nType="-99"/>
          <Node pos="r" depth="2" NCoef="0" IVar="-1" Cut="0.0000000000000000e+00" cType="1" res="6.2946195248514414e-04" rms="4.6390509605407715e-01" purity="5.4161840677261353e-01" nType="-99"/>
        </Node>
      </Node>
    </BinaryTree>
    <BinaryTree type="DecisionTree" boostWeight="1.0000000000000000e+00" itree="319">
      <Node pos="s" depth="0" NCoef="0" IVar="4" Cut="1.5078582763671875e+02" cType="1" res="-1.7389513086527586e-03" rms="4.5782282948493958e-01" purity="5.0026524066925049e-01" nType="0">
        <Node pos="l" depth="1" NCoef="0" IVar="4" Cut="9.0013221740722656e+01" cType="1" res="4.2532277293503284e-03" rms="4.5797821879386902e-01" purity="5.1252144575119019e-01" nType="0">
          <Node pos="l" depth="2" NCoef="0" IVar="-1" Cut="0.0000000000000000e+00" cType="1" res="-6.7079468863084912e-04" rms="4.6155717968940735e-01" purity="4.7223037481307983e-01" nType="-99"/>
          <Node pos="r" depth="2" NCoef="0" IVar="-1" Cut="0.0000000000000000e+00" cType="1" res="1.9112651934847236e-03" rms="4.4898015260696411e-01" purity="5.8774721622467041e-01" nType="-99"/>
        </Node>
        <Node pos="r" depth="1" NCoef="0" IVar="-1" Cut="0.0000000000000000e+00" cType="1" res="-3.4667325671762228e-03" rms="4.4877377152442932e-01" purity="3.4294140338897705e-01" nType="-99"/>
      </Node>
    </BinaryTree>
    <BinaryTree type="DecisionTree" boostWeight="1.0000000000000000e+00" itree="320">
      <Node pos="s" depth="0" NCoef="0" IVar="5" Cut="1.4798806607723236e-01" cType="1" res="4.3278331868350506e-03" rms="4.5914801955223083e-01" purity="5.0256419181823730e-01" nType="0">
        <Node pos="l" depth="1" NCoef="0" IVar="9" Cut="6.6589959716796875e+02" cType="1" res="-5.2267047576606274e-03" rms="4.5869246125221252e-01" purity="4.6979787945747375e-01" nType="0">
          <Node pos="l" depth="2" NCoef="0" IVar="-1" Cut="0.0000000000000000e+00" cType="1" res="-1.3855707366019487e-03" rms="4.5273107290267944e-01" purity="4.1016170382499695e-01" nType="-99"/>
          <Node pos="r" depth="2" NCoef="0" IVar="-1" Cut="0.0000000000000000e+00" cType="1" res="4.2822048999369144e-04" rms="4.6139249205589294e-01" purity="5.0361865758895874e-01" nType="-99"/>
        </Node>
        <Node pos="r" depth="1" NCoef="0" IVar="5" Cut="2.0940990746021271e-01" cType="1" res="4.0516197681427002e-02" rms="4.5906984806060791e-01" purity="6.2666845321655273e-01" nType="0">
          <Node pos="l" depth="2" NCoef="0" IVar="-1" Cut="0.0000000000000000e+00" cType="1" res="2.9257680289447308e-03" rms="4.5098862051963806e-01" purity="6.3970172405242920e-01" nType="-99"/>
          <Node pos="r" depth="2" NCoef="0" IVar="-1" Cut="0.0000000000000000e+00" cType="1" res="3.0936891562305391e-04" rms="4.6994674205780029e-01" purity="6.0548764467239380e-01" nType="-99"/>
        </Node>
      </Node>
    </BinaryTree>
    <BinaryTree type="DecisionTree" boostWeight="1.0000000000000000e+00" itree="321">
      <Node pos="s" depth="0" NCoef="0" IVar="3" Cut="2.7495484352111816e+00" cType="1" res="7.2177364490926266e-03" rms="4.5879328250885010e-01" purity="5.0993901491165161e-01" nType="0">
        <Node pos="l" depth="1" NCoef="0" IVar="0" Cut="9.3691558837890625e+00" cType="1" res="1.1647481471300125e-02" rms="4.6324840188026428e-01" purity="5.2977234125137329e-01" nType="0">
          <Node pos="l" depth="2" NCoef="0" IVar="-1" Cut="0.0000000000000000e+00" cType="1" res="3.0865881126374006e-04" rms="4.6661290526390076e-01" purity="5.1448696851730347e-01" nType="-99"/>
          <Node pos="r" depth="2" NCoef="0" IVar="-1" Cut="0.0000000000000000e+00" cType="1" res="3.8808544632047415e-03" rms="4.1148242354393005e-01" purity="7.3096948862075806e-01" nType="-99"/>
        </Node>
        <Node pos="r" depth="1" NCoef="0" IVar="-1" Cut="0.0000000000000000e+00" cType="1" res="-3.3640828914940357e-03" rms="3.6918511986732483e-01" purity="1.7958167195320129e-01" nType="-99"/>
      </Node>
    </BinaryTree>
    <BinaryTree type="DecisionTree" boostWeight="1.0000000000000000e+00" itree="322">
      <Node pos="s" depth="0" NCoef="0" IVar="4" Cut="9.4661888122558594e+01" cType="1" res="-2.1744372788816690e-03" rms="4.6070310473442078e-01" purity="5.0354492664337158e-01" nType="0">
        <Node pos="l" depth="1" NCoef="0" IVar="9" Cut="9.6188092041015625e+02" cType="1" res="-1.5633137896656990e-02" rms="4.6406048536300659e-01" purity="4.7910189628601074e-01" nType="0">
          <Node pos="l" depth="2" NCoef="0" IVar="-1" Cut="0.0000000000000000e+00" cType="1" res="-3.5027228295803070e-04" rms="4.6295991539955139e-01" purity="4.8589339852333069e-01" nType="-99"/>
          <Node pos="r" depth="2" NCoef="0" IVar="-1" Cut="0.0000000000000000e+00" cType="1" res="-2.3766760714352131e-03" rms="4.6761319041252136e-01" purity="4.4449022412300110e-01" nType="-99"/>
        </Node>
        <Node pos="r" depth="1" NCoef="0" IVar="1" Cut="2.5606762695312500e+02" cType="1" res="2.3398855701088905e-02" rms="4.5315521955490112e-01" purity="5.4999005794525146e-01" nType="0">
          <Node pos="l" depth="2" NCoef="0" IVar="-1" Cut="0.0000000000000000e+00" cType="1" res="2.3215899709612131e-03" rms="4.4611874222755432e-01" purity="6.1478018760681152e-01" nType="-99"/>
          <Node pos="r" depth="2" NCoef="0" IVar="-1" Cut="0.0000000000000000e+00" cType="1" res="-1.0175824863836169e-03" rms="4.6251308917999268e-01" purity="4.2827317118644714e-01" nType="-99"/>
        </Node>
      </Node>
    </BinaryTree>
    <BinaryTree type="DecisionTree" boostWeight="1.0000000000000000e+00" itree="323">
      <Node pos="s" depth="0" NCoef="0" IVar="1" Cut="4.5353143310546875e+02" cType="1" res="-4.2464099824428558e-03" rms="4.5663437247276306e-01" purity="5.0004535913467407e-01" nType="0">
        <Node pos="l" depth="1" NCoef="0" IVar="7" Cut="9.3064254522323608e-01" cType="1" res="1.1885475832968950e-03" rms="4.5778819918632507e-01" purity="5.1675134897232056e-01" nType="0">
          <Node pos="l" depth="2" NCoef="0" IVar="-1" Cut="0.0000000000000000e+00" cType="1" res="-1.7190470825880766e-03" rms="4.3963256478309631e-01" purity="3.1863573193550110e-01" nType="-99"/>
          <Node pos="r" depth="2" NCoef="0" IVar="-1" Cut="0.0000000000000000e+00" cType="1" res="5.0567009020596743e-04" rms="4.6124139428138733e-01" purity="5.6158161163330078e-01" nType="-99"/>
        </Node>
        <Node pos="r" depth="1" NCoef="0" IVar="-1" Cut="0.0000000000000000e+00" cType="1" res="-3.0513587407767773e-03" rms="4.3699482083320618e-01" purity="2.9696056246757507e-01" nType="-99"/>
      </Node>
    </BinaryTree>
    <BinaryTree type="DecisionTree" boostWeight="1.0000000000000000e+00" itree="324">
      <Node pos="s" depth="0" NCoef="0" IVar="3" Cut="1.9917416572570801e+00" cType="1" res="-7.7271545305848122e-03" rms="4.5940208435058594e-01" purity="4.9234443902969360e-01" nType="0">
        <Node pos="l" depth="1" NCoef="0" IVar="8" Cut="3.6588808894157410e-01" cType="1" res="2.6566971093416214e-02" rms="4.6490004658699036e-01" purity="6.0882955789566040e-01" nType="0">
          <Node pos="l" depth="2" NCoef="0" IVar="-1" Cut="0.0000000000000000e+00" cType="1" res="4.2417584918439388e-03" rms="4.4064977765083313e-01" purity="7.1036088466644287e-01" nType="-99"/>
          <Node pos="r" depth="2" NCoef="0" IVar="-1" Cut="0.0000000000000000e+00" cType="1" res="4.5192323159426451e-04" rms="4.7005444765090942e-01" purity="5.8072352409362793e-01" nType="-99"/>
        </Node>
        <Node pos="r" depth="1" NCoef="0" IVar="9" Cut="5.4740441894531250e+02" cType="1" res="-2.2804431617259979e-02" rms="4.5614877343177795e-01" purity="4.4113221764564514e-01" nType="0">
          <Node pos="l" depth="2" NCoef="0" IVar="-1" Cut="0.0000000000000000e+00" cType="1" res="-2.6114583015441895e-03" rms="4.3428155779838562e-01" purity="3.7425827980041504e-01" nType="-99"/>
          <Node pos="r" depth="2" NCoef="0" IVar="-1" Cut="0.0000000000000000e+00" cType="1" res="-5.6318251881748438e-04" rms="4.6156999468803406e-01" purity="4.5983555912971497e-01" nType="-99"/>
        </Node>
      </Node>
    </BinaryTree>
    <BinaryTree type="DecisionTree" boostWeight="1.0000000000000000e+00" itree="325">
      <Node pos="s" depth="0" NCoef="0" IVar="9" Cut="5.2628125000000000e+02" cType="1" res="-4.4897058978676796e-03" rms="4.6015480160713196e-01" purity="4.9508705735206604e-01" nType="0">
        <Node pos="l" depth="1" NCoef="0" IVar="2" Cut="9.7352910041809082e-01" cType="1" res="-3.8182057440280914e-02" rms="4.4745320081710815e-01" purity="4.0798091888427734e-01" nType="0">
          <Node pos="l" depth="2" NCoef="0" IVar="-1" Cut="0.0000000000000000e+00" cType="1" res="4.5996281551197171e-04" rms="4.7451147437095642e-01" purity="5.9636288881301880e-01" nType="-99"/>
          <Node pos="r" depth="2" NCoef="0" IVar="-1" Cut="0.0000000000000000e+00" cType="1" res="-2.7511478401720524e-03" rms="4.3087872862815857e-01" purity="3.1165224313735962e-01" nType="-99"/>
        </Node>
        <Node pos="r" depth="1" NCoef="0" IVar="1" Cut="9.6866096496582031e+01" cType="1" res="2.3456010967493057e-03" rms="4.6238961815834045e-01" purity="5.1275861263275146e-01" nType="0">
          <Node pos="l" depth="2" NCoef="0" IVar="-1" Cut="0.0000000000000000e+00" cType="1" res="-1.3195867650210857e-03" rms="4.6402883529663086e-01" purity="4.6192926168441772e-01" nType="-99"/>
          <Node pos="r" depth="2" NCoef="0" IVar="-1" Cut="0.0000000000000000e+00" cType="1" res="4.2266587843187153e-04" rms="4.6173903346061707e-01" purity="5.2375060319900513e-01" nType="-99"/>
        </Node>
      </Node>
    </BinaryTree>
    <BinaryTree type="DecisionTree" boostWeight="1.0000000000000000e+00" itree="326">
      <Node pos="s" depth="0" NCoef="0" IVar="2" Cut="1.5856627225875854e+00" cType="1" res="1.4471149770542979e-03" rms="4.5917686820030212e-01" purity="5.0585705041885376e-01" nType="0">
        <Node pos="l" depth="1" NCoef="0" IVar="6" Cut="1.4381097412109375e+02" cType="1" res="7.3112212121486664e-03" rms="4.6433588862419128e-01" purity="5.3756147623062134e-01" nType="0">
          <Node pos="l" depth="2" NCoef="0" IVar="-1" Cut="0.0000000000000000e+00" cType="1" res="5.1958602853119373e-04" rms="4.6331772208213806e-01" purity="5.4410213232040405e-01" nType="-99"/>
          <Node pos="r" depth="2" NCoef="0" IVar="-1" Cut="0.0000000000000000e+00" cType="1" res="-2.0928326994180679e-03" rms="4.7456783056259155e-01" purity="4.4703602790832520e-01" nType="-99"/>
        </Node>
        <Node pos="r" depth="1" NCoef="0" IVar="2" Cut="1.7357701063156128e+00" cType="1" res="-4.5506693422794342e-02" rms="4.1257101297378540e-01" purity="2.5200009346008301e-01" nType="0">
          <Node pos="l" depth="2" NCoef="0" IVar="-1" Cut="0.0000000000000000e+00" cType="1" res="-1.6119950450956821e-03" rms="4.3763270974159241e-01" purity="2.8824540972709656e-01" nType="-99"/>
          <Node pos="r" depth="2" NCoef="0" IVar="-1" Cut="0.0000000000000000e+00" cType="1" res="-2.6950673200190067e-03" rms="3.8638538122177124e-01" purity="2.1675376594066620e-01" nType="-99"/>
        </Node>
      </Node>
    </BinaryTree>
    <BinaryTree type="DecisionTree" boostWeight="1.0000000000000000e+00" itree="327">
      <Node pos="s" depth="0" NCoef="0" IVar="9" Cut="5.1553662109375000e+02" cType="1" res="4.7921435907483101e-03" rms="4.5858526229858398e-01" purity="5.0596350431442261e-01" nType="0">
        <Node pos="l" depth="1" NCoef="0" IVar="2" Cut="1.1727343797683716e+00" cType="1" res="-3.7767767906188965e-02" rms="4.4269290566444397e-01" purity="4.0429675579071045e-01" nType="0">
          <Node pos="l" depth="2" NCoef="0" IVar="-1" Cut="0.0000000000000000e+00" cType="1" res="3.4713535569608212e-05" rms="4.6959009766578674e-01" purity="5.3409105539321899e-01" nType="-99"/>
          <Node pos="r" depth="2" NCoef="0" IVar="-1" Cut="0.0000000000000000e+00" cType="1" res="-4.0138550102710724e-03" rms="3.9777234196662903e-01" purity="2.2947296500205994e-01" nType="-99"/>
        </Node>
        <Node pos="r" depth="1" NCoef="0" IVar="1" Cut="7.9871292114257812e+01" cType="1" res="1.2199767865240574e-02" rms="4.6089404821395874e-01" purity="5.2365881204605103e-01" nType="0">
          <Node pos="l" depth="2" NCoef="0" IVar="-1" Cut="0.0000000000000000e+00" cType="1" res="-1.7762080533429980e-03" rms="4.6579590439796448e-01" purity="4.2635950446128845e-01" nType="-99"/>
          <Node pos="r" depth="2" NCoef="0" IVar="-1" Cut="0.0000000000000000e+00" cType="1" res="8.6217536590993404e-04" rms="4.5983913540840149e-01" purity="5.3589999675750732e-01" nType="-99"/>
        </Node>
      </Node>
    </BinaryTree>
    <BinaryTree type="DecisionTree" boostWeight="1.0000000000000000e+00" itree="328">
      <Node pos="s" depth="0" NCoef="0" IVar="8" Cut="2.8354352712631226e-01" cType="1" res="-7.4741565622389317e-03" rms="4.5905178785324097e-01" purity="4.9393033981323242e-01" nType="0">
        <Node pos="l" depth="1" NCoef="0" IVar="3" Cut="2.0214774608612061e+00" cType="1" res="4.8912215977907181e-02" rms="4.5045092701911926e-01" purity="6.3620889186859131e-01" nType="0">
          <Node pos="l" depth="2" NCoef="0" IVar="-1" Cut="0.0000000000000000e+00" cType="1" res="3.5956152714788914e-03" rms="4.3472260236740112e-01" purity="7.0588469505310059e-01" nType="-99"/>
          <Node pos="r" depth="2" NCoef="0" IVar="-1" Cut="0.0000000000000000e+00" cType="1" res="1.1694914428517222e-03" rms="4.6458387374877930e-01" purity="5.6616681814193726e-01" nType="-99"/>
        </Node>
        <Node pos="r" depth="1" NCoef="0" IVar="4" Cut="1.0636306762695312e+02" cType="1" res="-1.3793007470667362e-02" rms="4.5957472920417786e-01" purity="4.7798612713813782e-01" nType="0">
          <Node pos="l" depth="2" NCoef="0" IVar="-1" Cut="0.0000000000000000e+00" cType="1" res="-1.0970507282763720e-03" rms="4.6379244327545166e-01" purity="4.6070623397827148e-01" nType="-99"/>
          <Node pos="r" depth="2" NCoef="0" IVar="-1" Cut="0.0000000000000000e+00" cType="1" res="7.7170913573354483e-04" rms="4.4647610187530518e-01" purity="5.2506995201110840e-01" nType="-99"/>
        </Node>
      </Node>
    </BinaryTree>
    <BinaryTree type="DecisionTree" boostWeight="1.0000000000000000e+00" itree="329">
      <Node pos="s" depth="0" NCoef="0" IVar="5" Cut="1.2817651033401489e-01" cType="1" res="-1.9740206189453602e-03" rms="4.5727074146270752e-01" purity="4.9875587224960327e-01" nType="0">
        <Node pos="l" depth="1" NCoef="0" IVar="9" Cut="5.5137670898437500e+02" cType="1" res="-1.4141643419861794e-02" rms="4.5678183436393738e-01" purity="4.5587202906608582e-01" nType="0">
          <Node pos="l" depth="2" NCoef="0" IVar="-1" Cut="0.0000000000000000e+00" cType="1" res="-2.7570510283112526e-03" rms="4.3361178040504456e-01" purity="3.3211556077003479e-01" nType="-99"/>
          <Node pos="r" depth="2" NCoef="0" IVar="-1" Cut="0.0000000000000000e+00" cType="1" res="-1.7476214270573109e-04" rms="4.6089997887611389e-01" purity="4.8212334513664246e-01" nType="-99"/>
        </Node>
        <Node pos="r" depth="1" NCoef="0" IVar="4" Cut="6.1134597778320312e+01" cType="1" res="3.0414072796702385e-02" rms="4.5699343085289001e-01" purity="6.1290514469146729e-01" nType="0">
          <Node pos="l" depth="2" NCoef="0" IVar="-1" Cut="0.0000000000000000e+00" cType="1" res="1.4499442477244884e-04" rms="4.7811374068260193e-01" purity="5.5049216747283936e-01" nType="-99"/>
          <Node pos="r" depth="2" NCoef="0" IVar="-1" Cut="0.0000000000000000e+00" cType="1" res="2.4915251415222883e-03" rms="4.3978476524353027e-01" purity="6.5871983766555786e-01" nType="-99"/>
        </Node>
      </Node>
    </BinaryTree>
    <BinaryTree type="DecisionTree" boostWeight="1.0000000000000000e+00" itree="330">
      <Node pos="s" depth="0" NCoef="0" IVar="1" Cut="1.2992684936523438e+02" cType="1" res="-1.8593450076878071e-03" rms="4.5886763930320740e-01" purity="4.9803361296653748e-01" nType="0">
        <Node pos="l" depth="1" NCoef="0" IVar="1" Cut="9.9876502990722656e+01" cType="1" res="2.4721993133425713e-02" rms="4.5833927392959595e-01" purity="5.5243641138076782e-01" nType="0">
          <Node pos="l" depth="2" NCoef="0" IVar="-1" Cut="0.0000000000000000e+00" cType="1" res="-6.4697198104113340e-04" rms="4.6390494704246521e-01" purity="4.6634083986282349e-01" nType="-99"/>
          <Node pos="r" depth="2" NCoef="0" IVar="-1" Cut="0.0000000000000000e+00" cType="1" res="3.4902605693787336e-03" rms="4.4675984978675842e-01" purity="6.5773046016693115e-01" nType="-99"/>
        </Node>
        <Node pos="r" depth="1" NCoef="0" IVar="3" Cut="1.9687229394912720e+00" cType="1" res="-1.9555998966097832e-02" rms="4.5836511254310608e-01" purity="4.6181470155715942e-01" nType="0">
          <Node pos="l" depth="2" NCoef="0" IVar="-1" Cut="0.0000000000000000e+00" cType="1" res="9.3791121616959572e-04" rms="4.6478164196014404e-01" purity="6.0222417116165161e-01" nType="-99"/>
          <Node pos="r" depth="2" NCoef="0" IVar="-1" Cut="0.0000000000000000e+00" cType="1" res="-1.3579236110672355e-03" rms="4.5599511265754700e-01" purity="4.2374503612518311e-01" nType="-99"/>
        </Node>
      </Node>
    </BinaryTree>
    <BinaryTree type="DecisionTree" boostWeight="1.0000000000000000e+00" itree="331">
      <Node pos="s" depth="0" NCoef="0" IVar="4" Cut="1.3497833251953125e+02" cType="1" res="-4.9622529186308384e-03" rms="4.5679336786270142e-01" purity="4.9654120206832886e-01" nType="0">
        <Node pos="l" depth="1" NCoef="0" IVar="4" Cut="1.0791120910644531e+02" cType="1" res="3.0184367205947638e-03" rms="4.5679661631584167e-01" purity="5.1025635004043579e-01" nType="0">
          <Node pos="l" depth="2" NCoef="0" IVar="-1" Cut="0.0000000000000000e+00" cType="1" res="-3.5351957194507122e-04" rms="4.5887020230293274e-01" purity="4.8902204632759094e-01" nType="-99"/>
          <Node pos="r" depth="2" NCoef="0" IVar="-1" Cut="0.0000000000000000e+00" cType="1" res="2.9757495503872633e-03" rms="4.4106367230415344e-01" purity="6.2337493896484375e-01" nType="-99"/>
        </Node>
        <Node pos="r" depth="1" NCoef="0" IVar="8" Cut="1.0253381729125977e+00" cType="1" res="-6.8263031542301178e-02" rms="4.5180132985115051e-01" purity="3.8775628805160522e-01" nType="0">
          <Node pos="l" depth="2" NCoef="0" IVar="-1" Cut="0.0000000000000000e+00" cType="1" res="-4.5410753227770329e-03" rms="4.5378959178924561e-01" purity="4.1515830159187317e-01" nType="-99"/>
          <Node pos="r" depth="2" NCoef="0" IVar="-1" Cut="0.0000000000000000e+00" cType="1" res="-1.2341140536591411e-03" rms="4.4601100683212280e-01" purity="3.5694384574890137e-01" nType="-99"/>
        </Node>
      </Node>
    </BinaryTree>
    <BinaryTree type="DecisionTree" boostWeight="1.0000000000000000e+00" itree="332">
      <Node pos="s" depth="0" NCoef="0" IVar="4" Cut="1.5590687561035156e+02" cType="1" res="5.8478596620261669e-03" rms="4.5714908838272095e-01" purity="5.0644034147262573e-01" nType="0">
        <Node pos="l" depth="1" NCoef="0" IVar="4" Cut="1.0707492065429688e+02" cType="1" res="1.0613744147121906e-02" rms="4.5729717612266541e-01" purity="5.1702624559402466e-01" nType="0">
          <Node pos="l" depth="2" NCoef="0" IVar="-1" Cut="0.0000000000000000e+00" cType="1" res="-1.9102415535598993e-05" rms="4.5883440971374512e-01" purity="4.9522426724433899e-01" nType="-99"/>
          <Node pos="r" depth="2" NCoef="0" IVar="-1" Cut="0.0000000000000000e+00" cType="1" res="2.4989075027406216e-03" rms="4.4897326827049255e-01" purity="5.9959197044372559e-01" nType="-99"/>
        </Node>
        <Node pos="r" depth="1" NCoef="0" IVar="-1" Cut="0.0000000000000000e+00" cType="1" res="-3.0505973845720291e-03" rms="4.4820278882980347e-01" purity="3.4002515673637390e-01" nType="-99"/>
      </Node>
    </BinaryTree>
    <BinaryTree type="DecisionTree" boostWeight="1.0000000000000000e+00" itree="333">
      <Node pos="s" depth="0" NCoef="0" IVar="3" Cut="2.1060128211975098e+00" cType="1" res="-4.7070411965250969e-03" rms="4.5912605524063110e-01" purity="4.9611595273017883e-01" nType="0">
        <Node pos="l" depth="1" NCoef="0" IVar="9" Cut="5.4341967773437500e+02" cType="1" res="1.5362588688731194e-02" rms="4.6703028678894043e-01" purity="5.9964156150817871e-01" nType="0">
          <Node pos="l" depth="2" NCoef="0" IVar="-1" Cut="0.0000000000000000e+00" cType="1" res="-1.6943011432886124e-03" rms="4.7752267122268677e-01" purity="4.9192595481872559e-01" nType="-99"/>
          <Node pos="r" depth="2" NCoef="0" IVar="-1" Cut="0.0000000000000000e+00" cType="1" res="1.2420597486197948e-03" rms="4.6401652693748474e-01" purity="6.2196129560470581e-01" nType="-99"/>
        </Node>
        <Node pos="r" depth="1" NCoef="0" IVar="4" Cut="7.5032958984375000e+01" cType="1" res="-2.1592710167169571e-02" rms="4.5167857408523560e-01" purity="4.0901425480842590e-01" nType="0">
          <Node pos="l" depth="2" NCoef="0" IVar="-1" Cut="0.0000000000000000e+00" cType="1" res="-2.0150912459939718e-03" rms="4.4312259554862976e-01" purity="3.4842869639396667e-01" nType="-99"/>
          <Node pos="r" depth="2" NCoef="0" IVar="-1" Cut="0.0000000000000000e+00" cType="1" res="-2.8302893042564392e-04" rms="4.5632031559944153e-01" purity="4.4710689783096313e-01" nType="-99"/>
        </Node>
      </Node>
    </BinaryTree>
    <BinaryTree type="DecisionTree" boostWeight="1.0000000000000000e+00" itree="334">
      <Node pos="s" depth="0" NCoef="0" IVar="3" Cut="2.3216738700866699e+00" cType="1" res="1.2929341755807400e-03" rms="4.5863527059555054e-01" purity="5.0521957874298096e-01" nType="0">
        <Node pos="l" depth="1" NCoef="0" IVar="6" Cut="7.2289039611816406e+01" cType="1" res="1.2584609910845757e-02" rms="4.6563130617141724e-01" purity="5.8230841159820557e-01" nType="0">
          <Node pos="l" depth="2" NCoef="0" IVar="-1" Cut="0.0000000000000000e+00" cType="1" res="1.9851569086313248e-03" rms="4.5733428001403809e-01" purity="6.2083357572555542e-01" nType="-99"/>
          <Node pos="r" depth="2" NCoef="0" IVar="-1" Cut="0.0000000000000000e+00" cType="1" res="-3.1815978582017124e-04" rms="4.6987405419349670e-01" purity="5.5737280845642090e-01" nType="-99"/>
        </Node>
        <Node pos="r" depth="1" NCoef="0" IVar="3" Cut="2.5113966464996338e+00" cType="1" res="-2.6213387027382851e-02" rms="4.3991762399673462e-01" purity="3.1743246316909790e-01" nType="0">
          <Node pos="l" depth="2" NCoef="0" IVar="-1" Cut="0.0000000000000000e+00" cType="1" res="-1.8625740194693208e-03" rms="4.5857986807823181e-01" purity="3.6565449833869934e-01" nType="-99"/>
          <Node pos="r" depth="2" NCoef="0" IVar="-1" Cut="0.0000000000000000e+00" cType="1" res="-4.7203534631989896e-04" rms="4.2112240195274353e-01" purity="2.7252230048179626e-01" nType="-99"/>
        </Node>
      </Node>
    </BinaryTree>
    <BinaryTree type="DecisionTree" boostWeight="1.0000000000000000e+00" itree="335">
      <Node pos="s" depth="0" NCoef="0" IVar="9" Cut="5.2862799072265625e+02" cType="1" res="1.3302738079801202e-03" rms="4.5993593335151672e-01" purity="5.0289839506149292e-01" nType="0">
        <Node pos="l" depth="1" NCoef="0" IVar="0" Cut="7.0354547500610352e+00" cType="1" res="-3.2905049622058868e-02" rms="4.4731056690216064e-01" purity="4.1997736692428589e-01" nType="0">
          <Node pos="l" depth="2" NCoef="0" IVar="-1" Cut="0.0000000000000000e+00" cType="1" res="-2.6972163468599319e-03" rms="4.3170541524887085e-01" purity="3.1683012843132019e-01" nType="-99"/>
          <Node pos="r" depth="2" NCoef="0" IVar="-1" Cut="0.0000000000000000e+00" cType="1" res="2.9793163412250578e-04" rms="4.6355623006820679e-01" purity="5.5190718173980713e-01" nType="-99"/>
        </Node>
        <Node pos="r" depth="1" NCoef="0" IVar="4" Cut="1.3030455017089844e+02" cType="1" res="8.3517841994762421e-03" rms="4.6216943860054016e-01" purity="5.1990509033203125e-01" nType="0">
          <Node pos="l" depth="2" NCoef="0" IVar="-1" Cut="0.0000000000000000e+00" cType="1" res="7.2385970270261168e-04" rms="4.6272528171539307e-01" purity="5.3339731693267822e-01" nType="-99"/>
          <Node pos="r" depth="2" NCoef="0" IVar="-1" Cut="0.0000000000000000e+00" cType="1" res="-1.5802175039425492e-03" rms="4.5653131604194641e-01" purity="4.4191324710845947e-01" nType="-99"/>
        </Node>
      </Node>
    </BinaryTree>
    <BinaryTree type="DecisionTree" boostWeight="1.0000000000000000e+00" itree="336">
      <Node pos="s" depth="0" NCoef="0" IVar="9" Cut="5.3356176757812500e+02" cType="1" res="-8.4557021036744118e-03" rms="4.6055284142494202e-01" purity="4.9574309587478638e-01" nType="0">
        <Node pos="l" depth="1" NCoef="0" IVar="6" Cut="8.0748497009277344e+01" cType="1" res="-5.1440697163343430e-02" rms="4.4892424345016479e-01" purity="4.0002971887588501e-01" nType="0">
          <Node pos="l" depth="2" NCoef="0" IVar="-1" Cut="0.0000000000000000e+00" cType="1" res="-1.1731404811143875e-03" rms="4.5557516813278198e-01" purity="4.4372403621673584e-01" nType="-99"/>
          <Node pos="r" depth="2" NCoef="0" IVar="-1" Cut="0.0000000000000000e+00" cType="1" res="-3.9140149019658566e-03" rms="4.3531987071037292e-01" purity="3.3104437589645386e-01" nType="-99"/>
        </Node>
        <Node pos="r" depth="1" NCoef="0" IVar="1" Cut="4.9909509277343750e+02" cType="1" res="9.4392435858026147e-04" rms="4.6252480149269104e-01" purity="5.1667296886444092e-01" nType="0">
          <Node pos="l" depth="2" NCoef="0" IVar="-1" Cut="0.0000000000000000e+00" cType="1" res="3.1979792402125895e-04" rms="4.6345049142837524e-01" purity="5.3410148620605469e-01" nType="-99"/>
          <Node pos="r" depth="2" NCoef="0" IVar="-1" Cut="0.0000000000000000e+00" cType="1" res="-3.6511709913611412e-03" rms="4.4138628244400024e-01" purity="2.7848693728446960e-01" nType="-99"/>
        </Node>
      </Node>
    </BinaryTree>
    <BinaryTree type="DecisionTree" boostWeight="1.0000000000000000e+00" itree="337">
      <Node pos="s" depth="0" NCoef="0" IVar="1" Cut="1.3111991882324219e+02" cType="1" res="-1.8308119615539908e-03" rms="4.5723986625671387e-01" purity="4.9982428550720215e-01" nType="0">
        <Node pos="l" depth="1" NCoef="0" IVar="1" Cut="1.0109184265136719e+02" cType="1" res="1.9398497417569160e-02" rms="4.5437631011009216e-01" purity="5.5290412902832031e-01" nType="0">
          <Node pos="l" depth="2" NCoef="0" IVar="-1" Cut="0.0000000000000000e+00" cType="1" res="-9.3548785662278533e-04" rms="4.6249571442604065e-01" purity="4.6639171242713928e-01" nType="-99"/>
          <Node pos="r" depth="2" NCoef="0" IVar="-1" Cut="0.0000000000000000e+00" cType="1" res="3.4533939324319363e-03" rms="4.3839070200920105e-01" purity="6.6339796781539917e-01" nType="-99"/>
        </Node>
        <Node pos="r" depth="1" NCoef="0" IVar="4" Cut="1.4272438049316406e+02" cType="1" res="-1.7329081892967224e-02" rms="4.5869904756546021e-01" purity="4.6107378602027893e-01" nType="0">
          <Node pos="l" depth="2" NCoef="0" IVar="-1" Cut="0.0000000000000000e+00" cType="1" res="-4.4137443182989955e-04" rms="4.6017858386039734e-01" purity="4.7689059376716614e-01" nType="-99"/>
          <Node pos="r" depth="2" NCoef="0" IVar="-1" Cut="0.0000000000000000e+00" cType="1" res="-2.8464959468692541e-03" rms="4.4612103700637817e-01" purity="3.5940080881118774e-01" nType="-99"/>
        </Node>
      </Node>
    </BinaryTree>
    <BinaryTree type="DecisionTree" boostWeight="1.0000000000000000e+00" itree="338">
      <Node pos="s" depth="0" NCoef="0" IVar="1" Cut="9.2107482910156250e+01" cType="1" res="-8.5633359849452972e-03" rms="4.5948728919029236e-01" purity="4.9079322814941406e-01" nType="0">
        <Node pos="l" depth="1" NCoef="0" IVar="8" Cut="1.3680108785629272e+00" cType="1" res="-4.4842716306447983e-02" rms="4.5422291755676270e-01" purity="4.1780593991279602e-01" nType="0">
          <Node pos="l" depth="2" NCoef="0" IVar="-1" Cut="0.0000000000000000e+00" cType="1" res="-6.5799441654235125e-04" rms="4.7730201482772827e-01" purity="5.0663495063781738e-01" nType="-99"/>
          <Node pos="r" depth="2" NCoef="0" IVar="-1" Cut="0.0000000000000000e+00" cType="1" res="-4.8041315749287605e-03" rms="3.9461809396743774e-01" purity="2.3230253159999847e-01" nType="-99"/>
        </Node>
        <Node pos="r" depth="1" NCoef="0" IVar="9" Cut="5.0806143188476562e+02" cType="1" res="-3.7353090010583401e-04" rms="4.6027189493179321e-01" purity="5.0726956129074097e-01" nType="0">
          <Node pos="l" depth="2" NCoef="0" IVar="-1" Cut="0.0000000000000000e+00" cType="1" res="-2.4204624351114035e-03" rms="4.4454717636108398e-01" purity="4.0083622932434082e-01" nType="-99"/>
          <Node pos="r" depth="2" NCoef="0" IVar="-1" Cut="0.0000000000000000e+00" cType="1" res="2.9130600159987807e-04" rms="4.6171966195106506e-01" purity="5.2039659023284912e-01" nType="-99"/>
        </Node>
      </Node>
    </BinaryTree>
    <BinaryTree type="DecisionTree" boostWeight="1.0000000000000000e+00" itree="339">
      <Node pos="s" depth="0" NCoef="0" IVar="7" Cut="9.8255562782287598e-01" cType="1" res="1.4453821349889040e-03" rms="4.5750832557678223e-01" purity="5.0657254457473755e-01" nType="0">
        <Node pos="l" depth="1" NCoef="0" IVar="9" Cut="5.0806143188476562e+02" cType="1" res="-4.3813348747789860e-03" rms="4.5985963940620422e-01" purity="4.8788946866989136e-01" nType="0">
          <Node pos="l" depth="2" NCoef="0" IVar="-1" Cut="0.0000000000000000e+00" cType="1" res="-1.8390567274764180e-03" rms="4.4848361611366272e-01" purity="3.8870716094970703e-01" nType="-99"/>
          <Node pos="r" depth="2" NCoef="0" IVar="-1" Cut="0.0000000000000000e+00" cType="1" res="7.2431874286849052e-05" rms="4.6135801076889038e-01" purity="5.0365281105041504e-01" nType="-99"/>
        </Node>
        <Node pos="r" depth="1" NCoef="0" IVar="-1" Cut="0.0000000000000000e+00" cType="1" res="3.4787175245583057e-03" rms="4.2595717310905457e-01" purity="7.0995879173278809e-01" nType="-99"/>
      </Node>
    </BinaryTree>
    <BinaryTree type="DecisionTree" boostWeight="1.0000000000000000e+00" itree="340">
      <Node pos="s" depth="0" NCoef="0" IVar="2" Cut="8.2115995883941650e-01" cType="1" res="-6.0103614814579487e-03" rms="4.5883288979530334e-01" purity="4.9816042184829712e-01" nType="0">
        <Node pos="l" depth="1" NCoef="0" IVar="5" Cut="1.6677291691303253e-01" cType="1" res="2.8378685936331749e-02" rms="4.4661176204681396e-01" purity="6.7967796325683594e-01" nType="0">
          <Node pos="l" depth="2" NCoef="0" IVar="-1" Cut="0.0000000000000000e+00" cType="1" res="5.7114782975986600e-04" rms="4.5627400279045105e-01" purity="6.5322506427764893e-01" nType="-99"/>
          <Node pos="r" depth="2" NCoef="0" IVar="-1" Cut="0.0000000000000000e+00" cType="1" res="3.9596543647348881e-03" rms="4.1446286439895630e-01" purity="7.5450325012207031e-01" nType="-99"/>
        </Node>
        <Node pos="r" depth="1" NCoef="0" IVar="9" Cut="4.8395779418945312e+02" cType="1" res="-1.5903197228908539e-02" rms="4.6181470155715942e-01" purity="4.4594255089759827e-01" nType="0">
          <Node pos="l" depth="2" NCoef="0" IVar="-1" Cut="0.0000000000000000e+00" cType="1" res="-2.9624796006828547e-03" rms="4.3089461326599121e-01" purity="3.2639685273170471e-01" nType="-99"/>
          <Node pos="r" depth="2" NCoef="0" IVar="-1" Cut="0.0000000000000000e+00" cType="1" res="-4.4980872189626098e-04" rms="4.6472445130348206e-01" purity="4.5902401208877563e-01" nType="-99"/>
        </Node>
      </Node>
    </BinaryTree>
    <BinaryTree type="DecisionTree" boostWeight="1.0000000000000000e+00" itree="341">
      <Node pos="s" depth="0" NCoef="0" IVar="6" Cut="1.4371447753906250e+02" cType="1" res="-2.1513623651117086e-03" rms="4.5694231986999512e-01" purity="5.0123214721679688e-01" nType="0">
        <Node pos="l" depth="1" NCoef="0" IVar="8" Cut="1.6953577995300293e+00" cType="1" res="2.6997560635209084e-03" rms="4.5526206493377686e-01" purity="5.0745683908462524e-01" nType="0">
          <Node pos="l" depth="2" NCoef="0" IVar="-1" Cut="0.0000000000000000e+00" cType="1" res="5.3242925787344575e-04" rms="4.5890927314758301e-01" purity="5.5551153421401978e-01" nType="-99"/>
          <Node pos="r" depth="2" NCoef="0" IVar="-1" Cut="0.0000000000000000e+00" cType="1" res="-1.3854360440745950e-03" rms="4.3997630476951599e-01" purity="3.3047959208488464e-01" nType="-99"/>
        </Node>
        <Node pos="r" depth="1" NCoef="0" IVar="-1" Cut="0.0000000000000000e+00" cType="1" res="-2.8299079276621342e-03" rms="4.7374320030212402e-01" purity="4.2035454511642456e-01" nType="-99"/>
      </Node>
    </BinaryTree>
    <BinaryTree type="DecisionTree" boostWeight="1.0000000000000000e+00" itree="342">
      <Node pos="s" depth="0" NCoef="0" IVar="0" Cut="6.2611937522888184e+00" cType="1" res="-1.9212943734601140e-03" rms="4.5683637261390686e-01" purity="5.0006771087646484e-01" nType="0">
        <Node pos="l" depth="1" NCoef="0" IVar="9" Cut="5.6533496093750000e+02" cType="1" res="-3.0111346393823624e-02" rms="4.4441139698028564e-01" purity="3.4296205639839172e-01" nType="0">
          <Node pos="l" depth="2" NCoef="0" IVar="-1" Cut="0.0000000000000000e+00" cType="1" res="-2.8803558088839054e-03" rms="4.1717606782913208e-01" purity="2.7742603421211243e-01" nType="-99"/>
          <Node pos="r" depth="2" NCoef="0" IVar="-1" Cut="0.0000000000000000e+00" cType="1" res="-7.0720940129831433e-04" rms="4.5270952582359314e-01" purity="3.6562570929527283e-01" nType="-99"/>
        </Node>
        <Node pos="r" depth="1" NCoef="0" IVar="1" Cut="7.8911964416503906e+01" cType="1" res="1.0721403174102306e-02" rms="4.6174159646034241e-01" purity="5.7052665948867798e-01" nType="0">
          <Node pos="l" depth="2" NCoef="0" IVar="-1" Cut="0.0000000000000000e+00" cType="1" res="-1.9945136737078428e-03" rms="4.7727850079536438e-01" purity="4.5157757401466370e-01" nType="-99"/>
          <Node pos="r" depth="2" NCoef="0" IVar="-1" Cut="0.0000000000000000e+00" cType="1" res="8.7617785902693868e-04" rms="4.5897656679153442e-01" purity="5.8725053071975708e-01" nType="-99"/>
        </Node>
      </Node>
    </BinaryTree>
    <BinaryTree type="DecisionTree" boostWeight="1.0000000000000000e+00" itree="343">
      <Node pos="s" depth="0" NCoef="0" IVar="5" Cut="1.1267790943384171e-01" cType="1" res="-2.9545100405812263e-03" rms="4.5955464243888855e-01" purity="5.0032240152359009e-01" nType="0">
        <Node pos="l" depth="1" NCoef="0" IVar="6" Cut="4.6953548431396484e+01" cType="1" res="-1.5191064216196537e-02" rms="4.5808577537536621e-01" purity="4.4874602556228638e-01" nType="0">
          <Node pos="l" depth="2" NCoef="0" IVar="-1" Cut="0.0000000000000000e+00" cType="1" res="1.7493207706138492e-03" rms="4.5800864696502686e-01" purity="5.0889688730239868e-01" nType="-99"/>
          <Node pos="r" depth="2" NCoef="0" IVar="-1" Cut="0.0000000000000000e+00" cType="1" res="-1.0304539464414120e-03" rms="4.5755350589752197e-01" purity="4.3984231352806091e-01" nType="-99"/>
        </Node>
        <Node pos="r" depth="1" NCoef="0" IVar="4" Cut="8.6012268066406250e+01" cType="1" res="2.0107403397560120e-02" rms="4.6142902970314026e-01" purity="5.9752702713012695e-01" nType="0">
          <Node pos="l" depth="2" NCoef="0" IVar="-1" Cut="0.0000000000000000e+00" cType="1" res="-3.0713239539181814e-05" rms="4.7416943311691284e-01" purity="5.5814129114151001e-01" nType="-99"/>
          <Node pos="r" depth="2" NCoef="0" IVar="-1" Cut="0.0000000000000000e+00" cType="1" res="2.8055806178599596e-03" rms="4.3659567832946777e-01" purity="6.6463506221771240e-01" nType="-99"/>
        </Node>
      </Node>
    </BinaryTree>
    <BinaryTree type="DecisionTree" boostWeight="1.0000000000000000e+00" itree="344">
      <Node pos="s" depth="0" NCoef="0" IVar="1" Cut="1.3882148742675781e+02" cType="1" res="1.5475741820409894e-03" rms="4.5953005552291870e-01" purity="5.0277316570281982e-01" nType="0">
        <Node pos="l" depth="1" NCoef="0" IVar="1" Cut="1.0384203338623047e+02" cType="1" res="3.0146570876240730e-02" rms="4.5766183733940125e-01" purity="5.6430554389953613e-01" nType="0">
          <Node pos="l" depth="2" NCoef="0" IVar="-1" Cut="0.0000000000000000e+00" cType="1" res="2.5849891244433820e-04" rms="4.6702933311462402e-01" purity="4.9285268783569336e-01" nType="-99"/>
          <Node pos="r" depth="2" NCoef="0" IVar="-1" Cut="0.0000000000000000e+00" cType="1" res="2.8593600727617741e-03" rms="4.4468387961387634e-01" purity="6.4837229251861572e-01" nType="-99"/>
        </Node>
        <Node pos="r" depth="1" NCoef="0" IVar="4" Cut="1.1176785278320312e+02" cType="1" res="-2.1459514275193214e-02" rms="4.5973801612854004e-01" purity="4.5327204465866089e-01" nType="0">
          <Node pos="l" depth="2" NCoef="0" IVar="-1" Cut="0.0000000000000000e+00" cType="1" res="-1.5629354165866971e-03" rms="4.5968320965766907e-01" purity="4.3744167685508728e-01" nType="-99"/>
          <Node pos="r" depth="2" NCoef="0" IVar="-1" Cut="0.0000000000000000e+00" cType="1" res="4.4632339267991483e-04" rms="4.5830982923507690e-01" purity="4.8788255453109741e-01" nType="-99"/>
        </Node>
      </Node>
    </BinaryTree>
    <BinaryTree type="DecisionTree" boostWeight="1.0000000000000000e+00" itree="345">
      <Node pos="s" depth="0" NCoef="0" IVar="5" Cut="2.6962967589497566e-02" cType="1" res="1.3687250902876258e-03" rms="4.5779484510421753e-01" purity="5.0309467315673828e-01" nType="0">
        <Node pos="l" depth="1" NCoef="0" IVar="7" Cut="9.4912016391754150e-01" cType="1" res="-5.1134578883647919e-02" rms="4.4864022731781006e-01" purity="3.6001470685005188e-01" nType="0">
          <Node pos="l" depth="2" NCoef="0" IVar="-1" Cut="0.0000000000000000e+00" cType="1" res="-2.3712984693702310e-04" rms="4.4022524356842041e-01" purity="3.2446566224098206e-01" nType="-99"/>
          <Node pos="r" depth="2" NCoef="0" IVar="-1" Cut="0.0000000000000000e+00" cType="1" res="-4.1207745671272278e-03" rms="4.5225939154624939e-01" purity="3.9537289738655090e-01" nType="-99"/>
        </Node>
        <Node pos="r" depth="1" NCoef="0" IVar="4" Cut="1.0457086944580078e+02" cType="1" res="7.5727570801973343e-03" rms="4.5846748352050781e-01" purity="5.2000170946121216e-01" nType="0">
          <Node pos="l" depth="2" NCoef="0" IVar="-1" Cut="0.0000000000000000e+00" cType="1" res="-1.4625753101427108e-04" rms="4.6346274018287659e-01" purity="4.9893188476562500e-01" nType="-99"/>
          <Node pos="r" depth="2" NCoef="0" IVar="-1" Cut="0.0000000000000000e+00" cType="1" res="1.7541288398206234e-03" rms="4.4332218170166016e-01" purity="5.7707434892654419e-01" nType="-99"/>
        </Node>
      </Node>
    </BinaryTree>
    <BinaryTree type="DecisionTree" boostWeight="1.0000000000000000e+00" itree="346">
      <Node pos="s" depth="0" NCoef="0" IVar="4" Cut="1.4058825683593750e+02" cType="1" res="-7.0620337501168251e-03" rms="4.5519307255744934e-01" purity="4.9307772517204285e-01" nType="0">
        <Node pos="l" depth="1" NCoef="0" IVar="4" Cut="1.0487795257568359e+02" cType="1" res="-1.8631301645655185e-04" rms="4.5667660236358643e-01" purity="5.0744950771331787e-01" nType="0">
          <Node pos="l" depth="2" NCoef="0" IVar="-1" Cut="0.0000000000000000e+00" cType="1" res="-6.2107801204547286e-04" rms="4.6068668365478516e-01" purity="4.8042944073677063e-01" nType="-99"/>
          <Node pos="r" depth="2" NCoef="0" IVar="-1" Cut="0.0000000000000000e+00" cType="1" res="2.6153326034545898e-03" rms="4.3625423312187195e-01" purity="6.1417251825332642e-01" nType="-99"/>
        </Node>
        <Node pos="r" depth="1" NCoef="0" IVar="-1" Cut="0.0000000000000000e+00" cType="1" res="-3.2026004046201706e-03" rms="4.3547293543815613e-01" purity="3.5656484961509705e-01" nType="-99"/>
      </Node>
    </BinaryTree>
    <BinaryTree type="DecisionTree" boostWeight="1.0000000000000000e+00" itree="347">
      <Node pos="s" depth="0" NCoef="0" IVar="4" Cut="1.0065576934814453e+02" cType="1" res="-8.3296950906515121e-03" rms="4.5665574073791504e-01" purity="4.9200561642646790e-01" nType="0">
        <Node pos="l" depth="1" NCoef="0" IVar="3" Cut="2.1304526329040527e+00" cType="1" res="-2.2025110200047493e-02" rms="4.5894861221313477e-01" purity="4.6774572134017944e-01" nType="0">
          <Node pos="l" depth="2" NCoef="0" IVar="-1" Cut="0.0000000000000000e+00" cType="1" res="-1.6746121400501579e-04" rms="4.6990066766738892e-01" purity="5.5705118179321289e-01" nType="-99"/>
          <Node pos="r" depth="2" NCoef="0" IVar="-1" Cut="0.0000000000000000e+00" cType="1" res="-2.0198782440274954e-03" rms="4.4337332248687744e-01" purity="3.5297483205795288e-01" nType="-99"/>
        </Node>
        <Node pos="r" depth="1" NCoef="0" IVar="1" Cut="2.8888275146484375e+02" cType="1" res="2.3428430780768394e-02" rms="4.4969186186790466e-01" purity="5.4826152324676514e-01" nType="0">
          <Node pos="l" depth="2" NCoef="0" IVar="-1" Cut="0.0000000000000000e+00" cType="1" res="1.9568621646612883e-03" rms="4.4604110717773438e-01" purity="6.0785228013992310e-01" nType="-99"/>
          <Node pos="r" depth="2" NCoef="0" IVar="-1" Cut="0.0000000000000000e+00" cType="1" res="-6.7878735717386007e-04" rms="4.5535978674888611e-01" purity="4.1553676128387451e-01" nType="-99"/>
        </Node>
      </Node>
    </BinaryTree>
    <BinaryTree type="DecisionTree" boostWeight="1.0000000000000000e+00" itree="348">
      <Node pos="s" depth="0" NCoef="0" IVar="4" Cut="1.5663551330566406e+02" cType="1" res="-1.2846684083342552e-02" rms="4.5694237947463989e-01" purity="4.8726236820220947e-01" nType="0">
        <Node pos="l" depth="1" NCoef="0" IVar="4" Cut="3.6205341339111328e+01" cType="1" res="-8.5011385381221771e-03" rms="4.5768734812736511e-01" purity="4.9755495786666870e-01" nType="0">
          <Node pos="l" depth="2" NCoef="0" IVar="-1" Cut="0.0000000000000000e+00" cType="1" res="-3.0246220994740725e-03" rms="4.6632379293441772e-01" purity="3.4792473912239075e-01" nType="-99"/>
          <Node pos="r" depth="2" NCoef="0" IVar="-1" Cut="0.0000000000000000e+00" cType="1" res="-1.5705592522863299e-04" rms="4.5660415291786194e-01" purity="5.0989198684692383e-01" nType="-99"/>
        </Node>
        <Node pos="r" depth="1" NCoef="0" IVar="-1" Cut="0.0000000000000000e+00" cType="1" res="-3.4663144033402205e-03" rms="4.3955692648887634e-01" purity="3.2616972923278809e-01" nType="-99"/>
      </Node>
    </BinaryTree>
    <BinaryTree type="DecisionTree" boostWeight="1.0000000000000000e+00" itree="349">
      <Node pos="s" depth="0" NCoef="0" IVar="8" Cut="1.6740317344665527e+00" cType="1" res="6.4121925970539451e-04" rms="4.5628437399864197e-01" purity="5.0050735473632812e-01" nType="0">
        <Node pos="l" depth="1" NCoef="0" IVar="0" Cut="8.1114301681518555e+00" cType="1" res="1.1599012650549412e-02" rms="4.6105244755744934e-01" purity="5.5156302452087402e-01" nType="0">
          <Node pos="l" depth="2" NCoef="0" IVar="-1" Cut="0.0000000000000000e+00" cType="1" res="-3.5872595617547631e-05" rms="4.7186928987503052e-01" purity="4.9981123208999634e-01" nType="-99"/>
          <Node pos="r" depth="2" NCoef="0" IVar="-1" Cut="0.0000000000000000e+00" cType="1" res="2.7007155586034060e-03" rms="4.2295721173286438e-01" purity="7.1397650241851807e-01" nType="-99"/>
        </Node>
        <Node pos="r" depth="1" NCoef="0" IVar="5" Cut="5.6619573384523392e-02" cType="1" res="-3.6805409938097000e-02" rms="4.3753352761268616e-01" purity="3.2603225111961365e-01" nType="0">
          <Node pos="l" depth="2" NCoef="0" IVar="-1" Cut="0.0000000000000000e+00" cType="1" res="-2.9633936937898397e-03" rms="4.1369605064392090e-01" purity="2.5493428111076355e-01" nType="-99"/>
          <Node pos="r" depth="2" NCoef="0" IVar="-1" Cut="0.0000000000000000e+00" cType="1" res="-7.7129533747211099e-04" rms="4.5298710465431213e-01" purity="3.7740734219551086e-01" nType="-99"/>
        </Node>
      </Node>
    </BinaryTree>
    <BinaryTree type="DecisionTree" boostWeight="1.0000000000000000e+00" itree="350">
      <Node pos="s" depth="0" NCoef="0" IVar="2" Cut="8.2783383131027222e-01" cType="1" res="-1.9421045435592532e-03" rms="4.5666235685348511e-01" purity="4.9706417322158813e-01" nType="0">
        <Node pos="l" depth="1" NCoef="0" IVar="2" Cut="7.0822608470916748e-01" cType="1" res="2.7266144752502441e-02" rms="4.4745042920112610e-01" purity="6.7728632688522339e-01" nType="0">
          <Node pos="l" depth="2" NCoef="0" IVar="-1" Cut="0.0000000000000000e+00" cType="1" res="1.5906707267276943e-04" rms="4.4610765576362610e-01" purity="6.6596466302871704e-01" nType="-99"/>
          <Node pos="r" depth="2" NCoef="0" IVar="-1" Cut="0.0000000000000000e+00" cType="1" res="2.9051294550299644e-03" rms="4.4721284508705139e-01" purity="6.9245201349258423e-01" nType="-99"/>
        </Node>
        <Node pos="r" depth="1" NCoef="0" IVar="7" Cut="9.6715837717056274e-01" cType="1" res="-1.0649379342794418e-02" rms="4.5901328325271606e-01" purity="4.4333812594413757e-01" nType="0">
          <Node pos="l" depth="2" NCoef="0" IVar="-1" Cut="0.0000000000000000e+00" cType="1" res="-8.4829668048769236e-04" rms="4.5871996879577637e-01" purity="3.9681857824325562e-01" nType="-99"/>
          <Node pos="r" depth="2" NCoef="0" IVar="-1" Cut="0.0000000000000000e+00" cType="1" res="7.9547934001311660e-04" rms="4.5881703495979309e-01" purity="5.8607906103134155e-01" nType="-99"/>
        </Node>
      </Node>
    </BinaryTree>
    <BinaryTree type="DecisionTree" boostWeight="1.0000000000000000e+00" itree="351">
      <Node pos="s" depth="0" NCoef="0" IVar="1" Cut="1.6521252441406250e+02" cType="1" res="-1.3934338930994272e-03" rms="4.5798909664154053e-01" purity="5.0082141160964966e-01" nType="0">
        <Node pos="l" depth="1" NCoef="0" IVar="1" Cut="5.8598918914794922e+01" cType="1" res="1.6124725341796875e-02" rms="4.5719799399375916e-01" purity="5.5299103260040283e-01" nType="0">
          <Node pos="l" depth="2" NCoef="0" IVar="-1" Cut="0.0000000000000000e+00" cType="1" res="-2.5320597924292088e-03" rms="4.4372707605361938e-01" purity="3.5016888380050659e-01" nType="-99"/>
          <Node pos="r" depth="2" NCoef="0" IVar="-1" Cut="0.0000000000000000e+00" cType="1" res="1.1609056964516640e-03" rms="4.5803678035736084e-01" purity="5.7815563678741455e-01" nType="-99"/>
        </Node>
        <Node pos="r" depth="1" NCoef="0" IVar="0" Cut="5.5681848526000977e+00" cType="1" res="-2.3590687662363052e-02" rms="4.5802816748619080e-01" purity="4.3471726775169373e-01" nType="0">
          <Node pos="l" depth="2" NCoef="0" IVar="-1" Cut="0.0000000000000000e+00" cType="1" res="-3.0080967117100954e-03" rms="4.0048411488533020e-01" purity="2.3597250878810883e-01" nType="-99"/>
          <Node pos="r" depth="2" NCoef="0" IVar="-1" Cut="0.0000000000000000e+00" cType="1" res="-6.8161281524226069e-04" rms="4.6787917613983154e-01" purity="4.7316265106201172e-01" nType="-99"/>
        </Node>
      </Node>
    </BinaryTree>
    <BinaryTree type="DecisionTree" boostWeight="1.0000000000000000e+00" itree="352">
      <Node pos="s" depth="0" NCoef="0" IVar="1" Cut="1.6615144348144531e+02" cType="1" res="-5.4991794750094414e-03" rms="4.5859864354133606e-01" purity="4.9821561574935913e-01" nType="0">
        <Node pos="l" depth="1" NCoef="0" IVar="1" Cut="9.0008995056152344e+01" cType="1" res="1.0950199328362942e-02" rms="4.5852220058441162e-01" purity="5.4993712902069092e-01" nType="0">
          <Node pos="l" depth="2" NCoef="0" IVar="-1" Cut="0.0000000000000000e+00" cType="1" res="-1.1572487419471145e-03" rms="4.6333262324333191e-01" purity="4.4010940194129944e-01" nType="-99"/>
          <Node pos="r" depth="2" NCoef="0" IVar="-1" Cut="0.0000000000000000e+00" cType="1" res="1.3115790206938982e-03" rms="4.5535582304000854e-01" purity="5.9908133745193481e-01" nType="-99"/>
        </Node>
        <Node pos="r" depth="1" NCoef="0" IVar="4" Cut="5.2652812957763672e+01" cType="1" res="-2.6698412373661995e-02" rms="4.5782628655433655e-01" purity="4.3155917525291443e-01" nType="0">
          <Node pos="l" depth="2" NCoef="0" IVar="-1" Cut="0.0000000000000000e+00" cType="1" res="-2.7844125870615244e-03" rms="4.5849695801734924e-01" purity="3.5179552435874939e-01" nType="-99"/>
          <Node pos="r" depth="2" NCoef="0" IVar="-1" Cut="0.0000000000000000e+00" cType="1" res="-8.3278171950951219e-04" rms="4.5728579163551331e-01" purity="4.4886037707328796e-01" nType="-99"/>
        </Node>
      </Node>
    </BinaryTree>
    <BinaryTree type="DecisionTree" boostWeight="1.0000000000000000e+00" itree="353">
      <Node pos="s" depth="0" NCoef="0" IVar="1" Cut="9.2107482910156250e+01" cType="1" res="-1.0134234325960279e-03" rms="4.6170029044151306e-01" purity="5.0051033496856689e-01" nType="0">
        <Node pos="l" depth="1" NCoef="0" IVar="5" Cut="8.2085207104682922e-02" cType="1" res="-3.2632250338792801e-02" rms="4.6077746152877808e-01" purity="4.3768855929374695e-01" nType="0">
          <Node pos="l" depth="2" NCoef="0" IVar="-1" Cut="0.0000000000000000e+00" cType="1" res="-2.7691482100635767e-03" rms="4.4955593347549438e-01" purity="3.5564771294593811e-01" nType="-99"/>
          <Node pos="r" depth="2" NCoef="0" IVar="-1" Cut="0.0000000000000000e+00" cType="1" res="-2.6341783814132214e-04" rms="4.6860888600349426e-01" purity="5.0850170850753784e-01" nType="-99"/>
        </Node>
        <Node pos="r" depth="1" NCoef="0" IVar="7" Cut="9.1416865587234497e-01" cType="1" res="6.2980991788208485e-03" rms="4.6160522103309631e-01" purity="5.1503723859786987e-01" nType="0">
          <Node pos="l" depth="2" NCoef="0" IVar="-1" Cut="0.0000000000000000e+00" cType="1" res="-2.3396962787955999e-03" rms="4.0929153561592102e-01" purity="2.6093789935112000e-01" nType="-99"/>
          <Node pos="r" depth="2" NCoef="0" IVar="-1" Cut="0.0000000000000000e+00" cType="1" res="5.0260045100003481e-04" rms="4.6503281593322754e-01" purity="5.3448873758316040e-01" nType="-99"/>
        </Node>
      </Node>
    </BinaryTree>
    <BinaryTree type="DecisionTree" boostWeight="1.0000000000000000e+00" itree="354">
      <Node pos="s" depth="0" NCoef="0" IVar="8" Cut="5.0701314210891724e-01" cType="1" res="1.8104012124240398e-03" rms="4.6029382944107056e-01" purity="5.0406754016876221e-01" nType="0">
        <Node pos="l" depth="1" NCoef="0" IVar="2" Cut="1.0909998416900635e+00" cType="1" res="3.2348971813917160e-02" rms="4.5702043175697327e-01" purity="6.1350136995315552e-01" nType="0">
          <Node pos="l" depth="2" NCoef="0" IVar="-1" Cut="0.0000000000000000e+00" cType="1" res="5.5744603741914034e-04" rms="4.5193243026733398e-01" purity="6.4412641525268555e-01" nType="-99"/>
          <Node pos="r" depth="2" NCoef="0" IVar="-1" Cut="0.0000000000000000e+00" cType="1" res="3.5439343191683292e-03" rms="4.6499186754226685e-01" purity="5.4297578334808350e-01" nType="-99"/>
        </Node>
        <Node pos="r" depth="1" NCoef="0" IVar="6" Cut="7.3338882446289062e+01" cType="1" res="-7.3746950365602970e-03" rms="4.6087816357612610e-01" purity="4.7115308046340942e-01" nType="0">
          <Node pos="l" depth="2" NCoef="0" IVar="-1" Cut="0.0000000000000000e+00" cType="1" res="7.7175995102152228e-04" rms="4.6127027273178101e-01" purity="5.1052469015121460e-01" nType="-99"/>
          <Node pos="r" depth="2" NCoef="0" IVar="-1" Cut="0.0000000000000000e+00" cType="1" res="-1.0668217437341809e-03" rms="4.5988005399703979e-01" purity="4.4458612799644470e-01" nType="-99"/>
        </Node>
      </Node>
    </BinaryTree>
    <BinaryTree type="DecisionTree" boostWeight="1.0000000000000000e+00" itree="355">
      <Node pos="s" depth="0" NCoef="0" IVar="4" Cut="1.0741086578369141e+02" cType="1" res="-2.1752452012151480e-03" rms="4.6058681607246399e-01" purity="4.9784818291664124e-01" nType="0">
        <Node pos="l" depth="1" NCoef="0" IVar="3" Cut="2.3129410743713379e+00" cType="1" res="-1.0862894356250763e-02" rms="4.6377724409103394e-01" purity="4.8154175281524658e-01" nType="0">
          <Node pos="l" depth="2" NCoef="0" IVar="-1" Cut="0.0000000000000000e+00" cType="1" res="-7.3361690738238394e-05" rms="4.7447541356086731e-01" purity="5.4694366455078125e-01" nType="-99"/>
          <Node pos="r" depth="2" NCoef="0" IVar="-1" Cut="0.0000000000000000e+00" cType="1" res="-1.7600141000002623e-03" rms="4.2946133017539978e-01" purity="2.8828185796737671e-01" nType="-99"/>
        </Node>
        <Node pos="r" depth="1" NCoef="0" IVar="4" Cut="1.4458866882324219e+02" cType="1" res="2.3164190351963043e-02" rms="4.5019569993019104e-01" purity="5.4540956020355225e-01" nType="0">
          <Node pos="l" depth="2" NCoef="0" IVar="-1" Cut="0.0000000000000000e+00" cType="1" res="2.3271848913282156e-03" rms="4.4616383314132690e-01" purity="6.1070209741592407e-01" nType="-99"/>
          <Node pos="r" depth="2" NCoef="0" IVar="-1" Cut="0.0000000000000000e+00" cType="1" res="-1.6680773114785552e-03" rms="4.5410341024398804e-01" purity="3.8958662748336792e-01" nType="-99"/>
        </Node>
      </Node>
    </BinaryTree>
    <BinaryTree type="DecisionTree" boostWeight="1.0000000000000000e+00" itree="356">
      <Node pos="s" depth="0" NCoef="0" IVar="4" Cut="1.4260340881347656e+02" cType="1" res="2.2921469644643366e-04" rms="4.5939356088638306e-01" purity="4.9792304635047913e-01" nType="0">
        <Node pos="l" depth="1" NCoef="0" IVar="8" Cut="1.1178889274597168e+00" cType="1" res="6.8316194228827953e-03" rms="4.6045833826065063e-01" purity="5.1130419969558716e-01" nType="0">
          <Node pos="l" depth="2" NCoef="0" IVar="-1" Cut="0.0000000000000000e+00" cType="1" res="1.1139535345137119e-03" rms="4.6393808722496033e-01" purity="5.8882474899291992e-01" nType="-99"/>
          <Node pos="r" depth="2" NCoef="0" IVar="-1" Cut="0.0000000000000000e+00" cType="1" res="-7.6252460712566972e-04" rms="4.5452287793159485e-01" purity="4.0403959155082703e-01" nType="-99"/>
        </Node>
        <Node pos="r" depth="1" NCoef="0" IVar="-1" Cut="0.0000000000000000e+00" cType="1" res="-3.1048743985593319e-03" rms="4.4181263446807861e-01" purity="3.5538247227668762e-01" nType="-99"/>
      </Node>
    </BinaryTree>
    <BinaryTree type="DecisionTree" boostWeight="1.0000000000000000e+00" itree="357">
      <Node pos="s" depth="0" NCoef="0" IVar="7" Cut="9.1179794073104858e-01" cType="1" res="-2.4393326602876186e-03" rms="4.5778670907020569e-01" purity="4.9835750460624695e-01" nType="0">
        <Node pos="l" depth="1" NCoef="0" IVar="-1" Cut="0.0000000000000000e+00" cType="1" res="-3.2775432337075472e-03" rms="3.9328503608703613e-01" purity="2.2667609155178070e-01" nType="-99"/>
        <Node pos="r" depth="1" NCoef="0" IVar="2" Cut="8.2906794548034668e-01" cType="1" res="2.3330678232014179e-03" rms="4.6111956238746643e-01" purity="5.1542174816131592e-01" nType="0">
          <Node pos="l" depth="2" NCoef="0" IVar="-1" Cut="0.0000000000000000e+00" cType="1" res="1.3644002610817552e-03" rms="4.4566532969474792e-01" purity="6.8854206800460815e-01" nType="-99"/>
          <Node pos="r" depth="2" NCoef="0" IVar="-1" Cut="0.0000000000000000e+00" cType="1" res="-2.3687194334343076e-04" rms="4.6555936336517334e-01" purity="4.6153327822685242e-01" nType="-99"/>
        </Node>
      </Node>
    </BinaryTree>
    <BinaryTree type="DecisionTree" boostWeight="1.0000000000000000e+00" itree="358">
      <Node pos="s" depth="0" NCoef="0" IVar="1" Cut="1.6521252441406250e+02" cType="1" res="1.4987144619226456e-02" rms="4.5644477009773254e-01" purity="5.2000612020492554e-01" nType="0">
        <Node pos="l" depth="1" NCoef="0" IVar="1" Cut="9.8197563171386719e+01" cType="1" res="3.3625144511461258e-02" rms="4.5296338200569153e-01" purity="5.7400190830230713e-01" nType="0">
          <Node pos="l" depth="2" NCoef="0" IVar="-1" Cut="0.0000000000000000e+00" cType="1" res="1.9529415294528008e-04" rms="4.6203884482383728e-01" purity="4.7996512055397034e-01" nType="-99"/>
          <Node pos="r" depth="2" NCoef="0" IVar="-1" Cut="0.0000000000000000e+00" cType="1" res="2.4338676594197750e-03" rms="4.4659212231636047e-01" purity="6.2972724437713623e-01" nType="-99"/>
        </Node>
        <Node pos="r" depth="1" NCoef="0" IVar="2" Cut="9.0138721466064453e-01" cType="1" res="-9.0176686644554138e-03" rms="4.5977804064750671e-01" purity="4.5046216249465942e-01" nType="0">
          <Node pos="l" depth="2" NCoef="0" IVar="-1" Cut="0.0000000000000000e+00" cType="1" res="1.2116311118006706e-03" rms="4.6133008599281311e-01" purity="6.5185201168060303e-01" nType="-99"/>
          <Node pos="r" depth="2" NCoef="0" IVar="-1" Cut="0.0000000000000000e+00" cType="1" res="-8.5717835463583469e-04" rms="4.5878791809082031e-01" purity="3.8908290863037109e-01" nType="-99"/>
        </Node>
      </Node>
    </BinaryTree>
    <BinaryTree type="DecisionTree" boostWeight="1.0000000000000000e+00" itree="359">
      <Node pos="s" depth="0" NCoef="0" IVar="4" Cut="1.3463366699218750e+02" cType="1" res="9.4774446915835142e-04" rms="4.5951774716377258e-01" purity="5.0490170717239380e-01" nType="0">
        <Node pos="l" depth="1" NCoef="0" IVar="4" Cut="1.1034528350830078e+02" cType="1" res="7.1624326519668102e-03" rms="4.5885816216468811e-01" purity="5.1793313026428223e-01" nType="0">
          <Node pos="l" depth="2" NCoef="0" IVar="-1" Cut="0.0000000000000000e+00" cType="1" res="-9.0007451944984496e-05" rms="4.5992890000343323e-01" purity="4.9696412682533264e-01" nType="-99"/>
          <Node pos="r" depth="2" NCoef="0" IVar="-1" Cut="0.0000000000000000e+00" cType="1" res="2.9730512760579586e-03" rms="4.4880750775337219e-01" purity="6.4064747095108032e-01" nType="-99"/>
        </Node>
        <Node pos="r" depth="1" NCoef="0" IVar="2" Cut="1.2032766342163086e+00" cType="1" res="-4.7382920980453491e-02" rms="4.6176943182945251e-01" purity="4.0355843305587769e-01" nType="0">
          <Node pos="l" depth="2" NCoef="0" IVar="-1" Cut="0.0000000000000000e+00" cType="1" res="-3.5818205215036869e-03" rms="4.7780767083168030e-01" purity="4.7109231352806091e-01" nType="-99"/>
          <Node pos="r" depth="2" NCoef="0" IVar="-1" Cut="0.0000000000000000e+00" cType="1" res="-5.9303734451532364e-04" rms="4.4295194745063782e-01" purity="3.3790186047554016e-01" nType="-99"/>
        </Node>
      </Node>
    </BinaryTree>
    <BinaryTree type="DecisionTree" boostWeight="1.0000000000000000e+00" itree="360">
      <Node pos="s" depth="0" NCoef="0" IVar="7" Cut="9.1441339254379272e-01" cType="1" res="2.1477106492966413e-03" rms="4.5929062366485596e-01" purity="5.0607424974441528e-01" nType="0">
        <Node pos="l" depth="1" NCoef="0" IVar="-1" Cut="0.0000000000000000e+00" cType="1" res="-2.4320313241332769e-03" rms="4.1008645296096802e-01" purity="2.5887399911880493e-01" nType="-99"/>
        <Node pos="r" depth="1" NCoef="0" IVar="5" Cut="6.0392327606678009e-02" cType="1" res="6.5497942268848419e-03" rms="4.6239754557609558e-01" purity="5.2425712347030640e-01" nType="0">
          <Node pos="l" depth="2" NCoef="0" IVar="-1" Cut="0.0000000000000000e+00" cType="1" res="-5.6711141951382160e-04" rms="4.6185427904129028e-01" purity="4.4073268771171570e-01" nType="-99"/>
          <Node pos="r" depth="2" NCoef="0" IVar="-1" Cut="0.0000000000000000e+00" cType="1" res="7.8180566197261214e-04" rms="4.6235892176628113e-01" purity="5.6895971298217773e-01" nType="-99"/>
        </Node>
      </Node>
    </BinaryTree>
    <BinaryTree type="DecisionTree" boostWeight="1.0000000000000000e+00" itree="361">
      <Node pos="s" depth="0" NCoef="0" IVar="7" Cut="9.1134393215179443e-01" cType="1" res="-1.8294227775186300e-03" rms="4.6003386378288269e-01" purity="4.9962398409843445e-01" nType="0">
        <Node pos="l" depth="1" NCoef="0" IVar="-1" Cut="0.0000000000000000e+00" cType="1" res="-3.5859830677509308e-03" rms="3.9439377188682556e-01" purity="2.2587549686431885e-01" nType="-99"/>
        <Node pos="r" depth="1" NCoef="0" IVar="4" Cut="1.4134294128417969e+02" cType="1" res="3.3968035131692886e-03" rms="4.6327513456344604e-01" purity="5.1652407646179199e-01" nType="0">
          <Node pos="l" depth="2" NCoef="0" IVar="-1" Cut="0.0000000000000000e+00" cType="1" res="4.8635745770297945e-04" rms="4.6456143260002136e-01" purity="5.3119605779647827e-01" nType="-99"/>
          <Node pos="r" depth="2" NCoef="0" IVar="-1" Cut="0.0000000000000000e+00" cType="1" res="-3.1344895251095295e-03" rms="4.4297587871551514e-01" purity="3.6522859334945679e-01" nType="-99"/>
        </Node>
      </Node>
    </BinaryTree>
    <BinaryTree type="DecisionTree" boostWeight="1.0000000000000000e+00" itree="362">
      <Node pos="s" depth="0" NCoef="0" IVar="3" Cut="2.5506708621978760e+00" cType="1" res="-9.8874047398567200e-04" rms="4.5806089043617249e-01" purity="4.9886661767959595e-01" nType="0">
        <Node pos="l" depth="1" NCoef="0" IVar="9" Cut="6.5268615722656250e+02" cType="1" res="5.6789554655551910e-03" rms="4.6685224771499634e-01" purity="5.3944993019104004e-01" nType="0">
          <Node pos="l" depth="2" NCoef="0" IVar="-1" Cut="0.0000000000000000e+00" cType="1" res="-6.2436331063508987e-04" rms="4.6995225548744202e-01" purity="4.9831056594848633e-01" nType="-99"/>
          <Node pos="r" depth="2" NCoef="0" IVar="-1" Cut="0.0000000000000000e+00" cType="1" res="8.1215443788096309e-04" rms="4.6450948715209961e-01" purity="5.6480431556701660e-01" nType="-99"/>
        </Node>
        <Node pos="r" depth="1" NCoef="0" IVar="0" Cut="6.8507342338562012e+00" cType="1" res="-4.5410048216581345e-02" rms="3.9163607358932495e-01" purity="2.2849379479885101e-01" nType="0">
          <Node pos="l" depth="2" NCoef="0" IVar="-1" Cut="0.0000000000000000e+00" cType="1" res="-3.8827124517410994e-03" rms="3.4117802977561951e-01" purity="1.4347694814205170e-01" nType="-99"/>
          <Node pos="r" depth="2" NCoef="0" IVar="-1" Cut="0.0000000000000000e+00" cType="1" res="-3.2787289819680154e-04" rms="4.4511255621910095e-01" purity="3.3735242486000061e-01" nType="-99"/>
        </Node>
      </Node>
    </BinaryTree>
    <BinaryTree type="DecisionTree" boostWeight="1.0000000000000000e+00" itree="363">
      <Node pos="s" depth="0" NCoef="0" IVar="4" Cut="1.5599768066406250e+02" cType="1" res="2.2284085862338543e-03" rms="4.5886012911796570e-01" purity="5.0268554687500000e-01" nType="0">
        <Node pos="l" depth="1" NCoef="0" IVar="3" Cut="2.5945017337799072e+00" cType="1" res="6.8422732874751091e-03" rms="4.5893681049346924e-01" purity="5.1409751176834106e-01" nType="0">
          <Node pos="l" depth="2" NCoef="0" IVar="-1" Cut="0.0000000000000000e+00" cType="1" res="5.8372213970869780e-04" rms="4.6580007672309875e-01" purity="5.4726386070251465e-01" nType="-99"/>
          <Node pos="r" depth="2" NCoef="0" IVar="-1" Cut="0.0000000000000000e+00" cType="1" res="-2.2933580912649632e-03" rms="3.8920331001281738e-01" purity="2.2163178026676178e-01" nType="-99"/>
        </Node>
        <Node pos="r" depth="1" NCoef="0" IVar="-1" Cut="0.0000000000000000e+00" cType="1" res="-2.9486517887562513e-03" rms="4.5214870572090149e-01" purity="3.3229729533195496e-01" nType="-99"/>
      </Node>
    </BinaryTree>
    <BinaryTree type="DecisionTree" boostWeight="1.0000000000000000e+00" itree="364">
      <Node pos="s" depth="0" NCoef="0" IVar="0" Cut="9.5399417877197266e+00" cType="1" res="2.8900867328047752e-03" rms="4.5841243863105774e-01" purity="5.0383085012435913e-01" nType="0">
        <Node pos="l" depth="1" NCoef="0" IVar="3" Cut="2.7270872592926025e+00" cType="1" res="-7.2646344779059291e-04" rms="4.6097570657730103e-01" purity="4.9138039350509644e-01" nType="0">
          <Node pos="l" depth="2" NCoef="0" IVar="-1" Cut="0.0000000000000000e+00" cType="1" res="1.3281167775858194e-04" rms="4.6620449423789978e-01" purity="5.1269149780273438e-01" nType="-99"/>
          <Node pos="r" depth="2" NCoef="0" IVar="-1" Cut="0.0000000000000000e+00" cType="1" res="-2.8323640581220388e-03" rms="3.7303137779235840e-01" purity="1.8239653110504150e-01" nType="-99"/>
        </Node>
        <Node pos="r" depth="1" NCoef="0" IVar="-1" Cut="0.0000000000000000e+00" cType="1" res="3.7143433000892401e-03" rms="4.0380162000656128e-01" purity="7.2878849506378174e-01" nType="-99"/>
      </Node>
    </BinaryTree>
    <BinaryTree type="DecisionTree" boostWeight="1.0000000000000000e+00" itree="365">
      <Node pos="s" depth="0" NCoef="0" IVar="5" Cut="1.4897067844867706e-01" cType="1" res="-1.1841090396046638e-02" rms="4.5926973223686218e-01" purity="4.9093547463417053e-01" nType="0">
        <Node pos="l" depth="1" NCoef="0" IVar="1" Cut="9.2107482910156250e+01" cType="1" res="-2.0278856158256531e-02" rms="4.5951971411705017e-01" purity="4.5909804105758667e-01" nType="0">
          <Node pos="l" depth="2" NCoef="0" IVar="-1" Cut="0.0000000000000000e+00" cType="1" res="-2.2065718658268452e-03" rms="4.5983523130416870e-01" purity="3.9722490310668945e-01" nType="-99"/>
          <Node pos="r" depth="2" NCoef="0" IVar="-1" Cut="0.0000000000000000e+00" cType="1" res="-6.0855870833620429e-04" rms="4.5917975902557373e-01" purity="4.7285029292106628e-01" nType="-99"/>
        </Node>
        <Node pos="r" depth="1" NCoef="0" IVar="5" Cut="1.6751484572887421e-01" cType="1" res="2.0281836390495300e-02" rms="4.5689317584037781e-01" purity="6.1214202642440796e-01" nType="0">
          <Node pos="l" depth="2" NCoef="0" IVar="-1" Cut="0.0000000000000000e+00" cType="1" res="3.2669347710907459e-03" rms="4.4510120153427124e-01" purity="6.3080835342407227e-01" nType="-99"/>
          <Node pos="r" depth="2" NCoef="0" IVar="-1" Cut="0.0000000000000000e+00" cType="1" res="2.1728599676862359e-04" rms="4.5952764153480530e-01" purity="6.0613572597503662e-01" nType="-99"/>
        </Node>
      </Node>
    </BinaryTree>
    <BinaryTree type="DecisionTree" boostWeight="1.0000000000000000e+00" itree="366">
      <Node pos="s" depth="0" NCoef="0" IVar="0" Cut="8.7366771697998047e+00" cType="1" res="8.0024910857900977e-04" rms="4.5764896273612976e-01" purity="5.0463306903839111e-01" nType="0">
        <Node pos="l" depth="1" NCoef="0" IVar="9" Cut="8.4784136962890625e+02" cType="1" res="-5.6905038654804230e-03" rms="4.6289217472076416e-01" purity="4.7657909989356995e-01" nType="0">
          <Node pos="l" depth="2" NCoef="0" IVar="-1" Cut="0.0000000000000000e+00" cType="1" res="-7.4535777093842626e-04" rms="4.6080207824707031e-01" purity="4.5881351828575134e-01" nType="-99"/>
          <Node pos="r" depth="2" NCoef="0" IVar="-1" Cut="0.0000000000000000e+00" cType="1" res="7.9036166425794363e-04" rms="4.6638137102127075e-01" purity="5.1382231712341309e-01" nType="-99"/>
        </Node>
        <Node pos="r" depth="1" NCoef="0" IVar="4" Cut="6.6087394714355469e+01" cType="1" res="4.3682977557182312e-02" rms="4.1885223984718323e-01" purity="6.8997818231582642e-01" nType="0">
          <Node pos="l" depth="2" NCoef="0" IVar="-1" Cut="0.0000000000000000e+00" cType="1" res="-1.6163545660674572e-04" rms="4.4870546460151672e-01" purity="5.9945708513259888e-01" nType="-99"/>
          <Node pos="r" depth="2" NCoef="0" IVar="-1" Cut="0.0000000000000000e+00" cType="1" res="4.1226125322282314e-03" rms="3.9538311958312988e-01" purity="7.4853765964508057e-01" nType="-99"/>
        </Node>
      </Node>
    </BinaryTree>
    <BinaryTree type="DecisionTree" boostWeight="1.0000000000000000e+00" itree="367">
      <Node pos="s" depth="0" NCoef="0" IVar="9" Cut="6.5688519287109375e+02" cType="1" res="-9.1751115396618843e-03" rms="4.5845869183540344e-01" purity="4.9493014812469482e-01" nType="0">
        <Node pos="l" depth="1" NCoef="0" IVar="6" Cut="1.0322647094726562e+02" cType="1" res="-3.3254694193601608e-02" rms="4.5181989669799805e-01" purity="4.4328302145004272e-01" nType="0">
          <Node pos="l" depth="2" NCoef="0" IVar="-1" Cut="0.0000000000000000e+00" cType="1" res="-7.9302978701889515e-04" rms="4.5426389575004578e-01" purity="4.6448355913162231e-01" nType="-99"/>
          <Node pos="r" depth="2" NCoef="0" IVar="-1" Cut="0.0000000000000000e+00" cType="1" res="-4.0444144979119301e-03" rms="4.3769741058349609e-01" purity="3.6377742886543274e-01" nType="-99"/>
        </Node>
        <Node pos="r" depth="1" NCoef="0" IVar="4" Cut="1.2962075805664062e+02" cType="1" res="6.7972126416862011e-03" rms="4.6211811900138855e-01" purity="5.2918839454650879e-01" nType="0">
          <Node pos="l" depth="2" NCoef="0" IVar="-1" Cut="0.0000000000000000e+00" cType="1" res="8.1666576443240047e-04" rms="4.6121680736541748e-01" purity="5.4954838752746582e-01" nType="-99"/>
          <Node pos="r" depth="2" NCoef="0" IVar="-1" Cut="0.0000000000000000e+00" cType="1" res="-1.7595842946320772e-03" rms="4.6308955550193787e-01" purity="4.4250997900962830e-01" nType="-99"/>
        </Node>
      </Node>
    </BinaryTree>
    <BinaryTree type="DecisionTree" boostWeight="1.0000000000000000e+00" itree="368">
      <Node pos="s" depth="0" NCoef="0" IVar="0" Cut="8.5257205963134766e+00" cType="1" res="1.1649039806798100e-03" rms="4.5688134431838989e-01" purity="5.0197058916091919e-01" nType="0">
        <Node pos="l" depth="1" NCoef="0" IVar="4" Cut="1.0636306762695312e+02" cType="1" res="-7.1784039027988911e-03" rms="4.6216151118278503e-01" purity="4.6655702590942383e-01" nType="0">
          <Node pos="l" depth="2" NCoef="0" IVar="-1" Cut="0.0000000000000000e+00" cType="1" res="-7.1364385075867176e-04" rms="4.6401903033256531e-01" purity="4.5297765731811523e-01" nType="-99"/>
          <Node pos="r" depth="2" NCoef="0" IVar="-1" Cut="0.0000000000000000e+00" cType="1" res="8.6891371756792068e-04" rms="4.5577090978622437e-01" purity="5.0560015439987183e-01" nType="-99"/>
        </Node>
        <Node pos="r" depth="1" NCoef="0" IVar="1" Cut="2.0098371887207031e+02" cType="1" res="4.3041341006755829e-02" rms="4.2694371938705444e-01" purity="6.7971736192703247e-01" nType="0">
          <Node pos="l" depth="2" NCoef="0" IVar="-1" Cut="0.0000000000000000e+00" cType="1" res="3.6821819376200438e-03" rms="4.1214114427566528e-01" purity="7.3513746261596680e-01" nType="-99"/>
          <Node pos="r" depth="2" NCoef="0" IVar="-1" Cut="0.0000000000000000e+00" cType="1" res="6.9249806983862072e-05" rms="4.4998496770858765e-01" purity="5.7765883207321167e-01" nType="-99"/>
        </Node>
      </Node>
    </BinaryTree>
    <BinaryTree type="DecisionTree" boostWeight="1.0000000000000000e+00" itree="369">
      <Node pos="s" depth="0" NCoef="0" IVar="1" Cut="9.3066810607910156e+01" cType="1" res="-2.6865306426770985e-04" rms="4.5736861228942871e-01" purity="5.0180935859680176e-01" nType="0">
        <Node pos="l" depth="1" NCoef="0" IVar="6" Cut="8.3679542541503906e+01" cType="1" res="-4.0307894349098206e-02" rms="4.5639175176620483e-01" purity="4.2778748273849487e-01" nType="0">
          <Node pos="l" depth="2" NCoef="0" IVar="-1" Cut="0.0000000000000000e+00" cType="1" res="-3.4067398519255221e-04" rms="4.6237713098526001e-01" purity="4.7583255171775818e-01" nType="-99"/>
          <Node pos="r" depth="2" NCoef="0" IVar="-1" Cut="0.0000000000000000e+00" cType="1" res="-3.4779701381921768e-03" rms="4.4608306884765625e-01" purity="3.7066867947578430e-01" nType="-99"/>
        </Node>
        <Node pos="r" depth="1" NCoef="0" IVar="2" Cut="1.5663405656814575e+00" cType="1" res="9.2348093166947365e-03" rms="4.5708543062210083e-01" purity="5.1937872171401978e-01" nType="0">
          <Node pos="l" depth="2" NCoef="0" IVar="-1" Cut="0.0000000000000000e+00" cType="1" res="7.1454962017014623e-04" rms="4.6215042471885681e-01" purity="5.5429279804229736e-01" nType="-99"/>
          <Node pos="r" depth="2" NCoef="0" IVar="-1" Cut="0.0000000000000000e+00" cType="1" res="-1.6931414138525724e-03" rms="4.1586601734161377e-01" purity="2.6727980375289917e-01" nType="-99"/>
        </Node>
      </Node>
    </BinaryTree>
    <BinaryTree type="DecisionTree" boostWeight="1.0000000000000000e+00" itree="370">
      <Node pos="s" depth="0" NCoef="0" IVar="4" Cut="4.7630283355712891e+01" cType="1" res="-2.5290772318840027e-03" rms="4.5628109574317932e-01" purity="4.9954777956008911e-01" nType="0">
        <Node pos="l" depth="1" NCoef="0" IVar="4" Cut="3.5489223480224609e+01" cType="1" res="-4.0915846824645996e-02" rms="4.5788648724555969e-01" purity="3.9637535810470581e-01" nType="0">
          <Node pos="l" depth="2" NCoef="0" IVar="-1" Cut="0.0000000000000000e+00" cType="1" res="-3.9854235947132111e-03" rms="4.4577890634536743e-01" purity="3.2188561558723450e-01" nType="-99"/>
          <Node pos="r" depth="2" NCoef="0" IVar="-1" Cut="0.0000000000000000e+00" cType="1" res="-5.8774318313226104e-04" rms="4.6215856075286865e-01" purity="4.3777933716773987e-01" nType="-99"/>
        </Node>
        <Node pos="r" depth="1" NCoef="0" IVar="3" Cut="1.9860873222351074e+00" cType="1" res="6.2899934127926826e-03" rms="4.5545467734336853e-01" purity="5.2325087785720825e-01" nType="0">
          <Node pos="l" depth="2" NCoef="0" IVar="-1" Cut="0.0000000000000000e+00" cType="1" res="2.0896352361887693e-03" rms="4.4659984111785889e-01" purity="6.6986501216888428e-01" nType="-99"/>
          <Node pos="r" depth="2" NCoef="0" IVar="-1" Cut="0.0000000000000000e+00" cType="1" res="-2.7646782109513879e-04" rms="4.5772174000740051e-01" purity="4.7402235865592957e-01" nType="-99"/>
        </Node>
      </Node>
    </BinaryTree>
    <BinaryTree type="DecisionTree" boostWeight="1.0000000000000000e+00" itree="371">
      <Node pos="s" depth="0" NCoef="0" IVar="5" Cut="6.5704733133316040e-02" cType="1" res="-5.6272104848176241e-04" rms="4.5962068438529968e-01" purity="5.0055688619613647e-01" nType="0">
        <Node pos="l" depth="1" NCoef="0" IVar="2" Cut="1.0788320302963257e+00" cType="1" res="-2.6873625814914703e-02" rms="4.5466589927673340e-01" purity="4.0603473782539368e-01" nType="0">
          <Node pos="l" depth="2" NCoef="0" IVar="-1" Cut="0.0000000000000000e+00" cType="1" res="-2.8251858893781900e-03" rms="4.7011798620223999e-01" purity="4.9972516298294067e-01" nType="-99"/>
          <Node pos="r" depth="2" NCoef="0" IVar="-1" Cut="0.0000000000000000e+00" cType="1" res="-3.6740000359714031e-04" rms="4.4564101099967957e-01" purity="3.5969725251197815e-01" nType="-99"/>
        </Node>
        <Node pos="r" depth="1" NCoef="0" IVar="6" Cut="1.3085783386230469e+02" cType="1" res="1.6918251290917397e-02" rms="4.6205568313598633e-01" purity="5.6335747241973877e-01" nType="0">
          <Node pos="l" depth="2" NCoef="0" IVar="-1" Cut="0.0000000000000000e+00" cType="1" res="1.0610084282234311e-03" rms="4.6040341258049011e-01" purity="5.7076829671859741e-01" nType="-99"/>
          <Node pos="r" depth="2" NCoef="0" IVar="-1" Cut="0.0000000000000000e+00" cType="1" res="-1.8170179100707173e-03" rms="4.7387987375259399e-01" purity="4.9225664138793945e-01" nType="-99"/>
        </Node>
      </Node>
    </BinaryTree>
    <BinaryTree type="DecisionTree" boostWeight="1.0000000000000000e+00" itree="372">
      <Node pos="s" depth="0" NCoef="0" IVar="7" Cut="9.2791026830673218e-01" cType="1" res="8.8311947183683515e-04" rms="4.5843479037284851e-01" purity="5.0519365072250366e-01" nType="0">
        <Node pos="l" depth="1" NCoef="0" IVar="2" Cut="1.0219352245330811e+00" cType="1" res="-3.3080060034990311e-02" rms="4.3664914369583130e-01" purity="3.0257111787796021e-01" nType="0">
          <Node pos="l" depth="2" NCoef="0" IVar="-1" Cut="0.0000000000000000e+00" cType="1" res="-2.5633969344198704e-03" rms="4.6781471371650696e-01" purity="3.7381663918495178e-01" nType="-99"/>
          <Node pos="r" depth="2" NCoef="0" IVar="-1" Cut="0.0000000000000000e+00" cType="1" res="-5.9665273874998093e-04" rms="4.1631481051445007e-01" purity="2.6152497529983521e-01" nType="-99"/>
        </Node>
        <Node pos="r" depth="1" NCoef="0" IVar="1" Cut="3.1142260742187500e+02" cType="1" res="7.8697698190808296e-03" rms="4.6247997879981995e-01" purity="5.4687559604644775e-01" nType="0">
          <Node pos="l" depth="2" NCoef="0" IVar="-1" Cut="0.0000000000000000e+00" cType="1" res="6.8341550650075078e-04" rms="4.5999819040298462e-01" purity="5.7009947299957275e-01" nType="-99"/>
          <Node pos="r" depth="2" NCoef="0" IVar="-1" Cut="0.0000000000000000e+00" cType="1" res="-1.2473852839320898e-03" rms="4.7385403513908386e-01" purity="4.2323529720306396e-01" nType="-99"/>
        </Node>
      </Node>
    </BinaryTree>
    <BinaryTree type="DecisionTree" boostWeight="1.0000000000000000e+00" itree="373">
      <Node pos="s" depth="0" NCoef="0" IVar="0" Cut="6.9944968223571777e+00" cType="1" res="-1.9100029021501541e-03" rms="4.5564129948616028e-01" purity="5.0074076652526855e-01" nType="0">
        <Node pos="l" depth="1" NCoef="0" IVar="0" Cut="6.8056535720825195e+00" cType="1" res="-1.8025916069746017e-02" rms="4.5499998331069946e-01" purity="3.9320945739746094e-01" nType="0">
          <Node pos="l" depth="2" NCoef="0" IVar="-1" Cut="0.0000000000000000e+00" cType="1" res="-3.9432567427866161e-04" rms="4.5355546474456787e-01" purity="3.9255020022392273e-01" nType="-99"/>
          <Node pos="r" depth="2" NCoef="0" IVar="-1" Cut="0.0000000000000000e+00" cType="1" res="-3.6777711939066648e-03" rms="4.6030998229980469e-01" purity="3.9859163761138916e-01" nType="-99"/>
        </Node>
        <Node pos="r" depth="1" NCoef="0" IVar="6" Cut="6.6623039245605469e+01" cType="1" res="1.4667197130620480e-02" rms="4.5570579171180725e-01" purity="6.1134994029998779e-01" nType="0">
          <Node pos="l" depth="2" NCoef="0" IVar="-1" Cut="0.0000000000000000e+00" cType="1" res="2.2897140588611364e-03" rms="4.4891715049743652e-01" purity="6.5031975507736206e-01" nType="-99"/>
          <Node pos="r" depth="2" NCoef="0" IVar="-1" Cut="0.0000000000000000e+00" cType="1" res="-2.0615465473383665e-05" rms="4.5822495222091675e-01" purity="5.9233200550079346e-01" nType="-99"/>
        </Node>
      </Node>
    </BinaryTree>
    <BinaryTree type="DecisionTree" boostWeight="1.0000000000000000e+00" itree="374">
      <Node pos="s" depth="0" NCoef="0" IVar="8" Cut="1.9881086349487305e+00" cType="1" res="3.2746980432420969e-03" rms="4.5693674683570862e-01" purity="5.0486183166503906e-01" nType="0">
        <Node pos="l" depth="1" NCoef="0" IVar="1" Cut="3.0954571533203125e+02" cType="1" res="1.0753434151411057e-02" rms="4.6125382184982300e-01" purity="5.4240083694458008e-01" nType="0">
          <Node pos="l" depth="2" NCoef="0" IVar="-1" Cut="0.0000000000000000e+00" cType="1" res="8.9135201415047050e-04" rms="4.6143370866775513e-01" purity="5.6877559423446655e-01" nType="-99"/>
          <Node pos="r" depth="2" NCoef="0" IVar="-1" Cut="0.0000000000000000e+00" cType="1" res="-1.6006387304514647e-03" rms="4.5738288760185242e-01" purity="3.9795419573783875e-01" nType="-99"/>
        </Node>
        <Node pos="r" depth="1" NCoef="0" IVar="1" Cut="1.5209336853027344e+02" cType="1" res="-3.7381343543529510e-02" rms="4.3044820427894592e-01" purity="3.0079147219657898e-01" nType="0">
          <Node pos="l" depth="2" NCoef="0" IVar="-1" Cut="0.0000000000000000e+00" cType="1" res="-3.6682039499282837e-03" rms="4.1194060444831848e-01" purity="2.7600449323654175e-01" nType="-99"/>
          <Node pos="r" depth="2" NCoef="0" IVar="-1" Cut="0.0000000000000000e+00" cType="1" res="-3.5659897548612207e-05" rms="4.4167414307594299e-01" purity="3.2109630107879639e-01" nType="-99"/>
        </Node>
      </Node>
    </BinaryTree>
    <BinaryTree type="DecisionTree" boostWeight="1.0000000000000000e+00" itree="375">
      <Node pos="s" depth="0" NCoef="0" IVar="3" Cut="1.9802682399749756e+00" cType="1" res="-3.1603814568370581e-04" rms="4.5740973949432373e-01" purity="4.9910560250282288e-01" nType="0">
        <Node pos="l" depth="1" NCoef="0" IVar="9" Cut="7.1130291748046875e+02" cType="1" res="2.6828691363334656e-02" rms="4.6081444621086121e-01" purity="6.1231404542922974e-01" nType="0">
          <Node pos="l" depth="2" NCoef="0" IVar="-1" Cut="0.0000000000000000e+00" cType="1" res="-5.1085371524095535e-05" rms="4.6706649661064148e-01" purity="5.5514597892761230e-01" nType="-99"/>
          <Node pos="r" depth="2" NCoef="0" IVar="-1" Cut="0.0000000000000000e+00" cType="1" res="2.2949050180613995e-03" rms="4.5486879348754883e-01" purity="6.5568554401397705e-01" nType="-99"/>
        </Node>
        <Node pos="r" depth="1" NCoef="0" IVar="5" Cut="1.1053021252155304e-01" cType="1" res="-1.0834551416337490e-02" rms="4.5564904808998108e-01" purity="4.5523765683174133e-01" nType="0">
          <Node pos="l" depth="2" NCoef="0" IVar="-1" Cut="0.0000000000000000e+00" cType="1" res="-1.0074395686388016e-03" rms="4.5274361968040466e-01" purity="4.0234354138374329e-01" nType="-99"/>
          <Node pos="r" depth="2" NCoef="0" IVar="-1" Cut="0.0000000000000000e+00" cType="1" res="5.9322087327018380e-04" rms="4.6060138940811157e-01" purity="5.6293940544128418e-01" nType="-99"/>
        </Node>
      </Node>
    </BinaryTree>
    <BinaryTree type="DecisionTree" boostWeight="1.0000000000000000e+00" itree="376">
      <Node pos="s" depth="0" NCoef="0" IVar="7" Cut="9.2326480150222778e-01" cType="1" res="-3.1199539080262184e-03" rms="4.5752924680709839e-01" purity="4.9821865558624268e-01" nType="0">
        <Node pos="l" depth="1" NCoef="0" IVar="1" Cut="1.6800704956054688e+02" cType="1" res="-5.1012556999921799e-02" rms="4.2716667056083679e-01" purity="2.7650347352027893e-01" nType="0">
          <Node pos="l" depth="2" NCoef="0" IVar="-1" Cut="0.0000000000000000e+00" cType="1" res="-2.8022257611155510e-03" rms="4.3119555711746216e-01" purity="2.8152057528495789e-01" nType="-99"/>
          <Node pos="r" depth="2" NCoef="0" IVar="-1" Cut="0.0000000000000000e+00" cType="1" res="-1.2935949489474297e-03" rms="4.2117336392402649e-01" purity="2.7043318748474121e-01" nType="-99"/>
        </Node>
        <Node pos="r" depth="1" NCoef="0" IVar="1" Cut="1.6640559387207031e+02" cType="1" res="4.1198418475687504e-03" rms="4.6151325106620789e-01" purity="5.3173476457595825e-01" nType="0">
          <Node pos="l" depth="2" NCoef="0" IVar="-1" Cut="0.0000000000000000e+00" cType="1" res="9.7173475660383701e-04" rms="4.5707958936691284e-01" purity="5.8378374576568604e-01" nType="-99"/>
          <Node pos="r" depth="2" NCoef="0" IVar="-1" Cut="0.0000000000000000e+00" cType="1" res="-7.8631949145346880e-04" rms="4.6636945009231567e-01" purity="4.6353057026863098e-01" nType="-99"/>
        </Node>
      </Node>
    </BinaryTree>
    <BinaryTree type="DecisionTree" boostWeight="1.0000000000000000e+00" itree="377">
      <Node pos="s" depth="0" NCoef="0" IVar="4" Cut="3.3526332855224609e+01" cType="1" res="8.1466045230627060e-04" rms="4.5714163780212402e-01" purity="5.0254160165786743e-01" nType="0">
        <Node pos="l" depth="1" NCoef="0" IVar="-1" Cut="0.0000000000000000e+00" cType="1" res="-3.1493718270212412e-03" rms="4.4211897253990173e-01" purity="3.3266663551330566e-01" nType="-99"/>
        <Node pos="r" depth="1" NCoef="0" IVar="0" Cut="5.8261961936950684e+00" cType="1" res="5.2399705164134502e-03" rms="4.5763421058654785e-01" purity="5.1260918378829956e-01" nType="0">
          <Node pos="l" depth="2" NCoef="0" IVar="-1" Cut="0.0000000000000000e+00" cType="1" res="-1.2321746908128262e-03" rms="4.3674293160438538e-01" purity="3.2020971179008484e-01" nType="-99"/>
          <Node pos="r" depth="2" NCoef="0" IVar="-1" Cut="0.0000000000000000e+00" cType="1" res="6.7009183112531900e-04" rms="4.6265295147895813e-01" purity="5.6420218944549561e-01" nType="-99"/>
        </Node>
      </Node>
    </BinaryTree>
    <BinaryTree type="DecisionTree" boostWeight="1.0000000000000000e+00" itree="378">
      <Node pos="s" depth="0" NCoef="0" IVar="8" Cut="1.1754547357559204e+00" cType="1" res="-1.3219332322478294e-03" rms="4.5602554082870483e-01" purity="4.9934020638465881e-01" nType="0">
        <Node pos="l" depth="1" NCoef="0" IVar="6" Cut="1.0357279968261719e+02" cType="1" res="1.4870129525661469e-02" rms="4.5969587564468384e-01" purity="5.7763469219207764e-01" nType="0">
          <Node pos="l" depth="2" NCoef="0" IVar="-1" Cut="0.0000000000000000e+00" cType="1" res="1.3070382410660386e-03" rms="4.5681640505790710e-01" purity="5.9454178810119629e-01" nType="-99"/>
          <Node pos="r" depth="2" NCoef="0" IVar="-1" Cut="0.0000000000000000e+00" cType="1" res="-7.5337692396715283e-04" rms="4.6487233042716980e-01" purity="5.3794115781784058e-01" nType="-99"/>
        </Node>
        <Node pos="r" depth="1" NCoef="0" IVar="4" Cut="8.5014717102050781e+01" cType="1" res="-2.5743931531906128e-02" rms="4.4933077692985535e-01" purity="3.8125097751617432e-01" nType="0">
          <Node pos="l" depth="2" NCoef="0" IVar="-1" Cut="0.0000000000000000e+00" cType="1" res="-2.0657686982303858e-03" rms="4.4225925207138062e-01" purity="3.4338909387588501e-01" nType="-99"/>
          <Node pos="r" depth="2" NCoef="0" IVar="-1" Cut="0.0000000000000000e+00" cType="1" res="2.3311176846618764e-05" rms="4.5692986249923706e-01" purity="4.2996722459793091e-01" nType="-99"/>
        </Node>
      </Node>
    </BinaryTree>
    <BinaryTree type="DecisionTree" boostWeight="1.0000000000000000e+00" itree="379">
      <Node pos="s" depth="0" NCoef="0" IVar="2" Cut="7.3857218027114868e-01" cType="1" res="-6.0934294015169144e-03" rms="4.5470550656318665e-01" purity="4.9436223506927490e-01" nType="0">
        <Node pos="l" depth="1" NCoef="0" IVar="0" Cut="7.4187107086181641e+00" cType="1" res="4.3604761362075806e-02" rms="4.3335416913032532e-01" purity="7.0387059450149536e-01" nType="0">
          <Node pos="l" depth="2" NCoef="0" IVar="-1" Cut="0.0000000000000000e+00" cType="1" res="7.9790921881794930e-04" rms="4.7555506229400635e-01" purity="6.0680645704269409e-01" nType="-99"/>
          <Node pos="r" depth="2" NCoef="0" IVar="-1" Cut="0.0000000000000000e+00" cType="1" res="4.5214127749204636e-03" rms="3.7571454048156738e-01" purity="8.1769061088562012e-01" nType="-99"/>
        </Node>
        <Node pos="r" depth="1" NCoef="0" IVar="4" Cut="5.7855121612548828e+01" cType="1" res="-1.4686039648950100e-02" rms="4.5774945616722107e-01" purity="4.5813909173011780e-01" nType="0">
          <Node pos="l" depth="2" NCoef="0" IVar="-1" Cut="0.0000000000000000e+00" cType="1" res="-1.7160665011033416e-03" rms="4.5206972956657410e-01" purity="3.8231450319290161e-01" nType="-99"/>
          <Node pos="r" depth="2" NCoef="0" IVar="-1" Cut="0.0000000000000000e+00" cType="1" res="-1.8126951181329787e-04" rms="4.5978519320487976e-01" purity="4.9105718731880188e-01" nType="-99"/>
        </Node>
      </Node>
    </BinaryTree>
    <BinaryTree type="DecisionTree" boostWeight="1.0000000000000000e+00" itree="380">
      <Node pos="s" depth="0" NCoef="0" IVar="2" Cut="1.6084837913513184e+00" cType="1" res="-1.0791113600134850e-03" rms="4.5668920874595642e-01" purity="5.0063902139663696e-01" nType="0">
        <Node pos="l" depth="1" NCoef="0" IVar="0" Cut="5.9114079475402832e+00" cType="1" res="5.4361396469175816e-03" rms="4.6245738863945007e-01" purity="5.3155755996704102e-01" nType="0">
          <Node pos="l" depth="2" NCoef="0" IVar="-1" Cut="0.0000000000000000e+00" cType="1" res="-1.0980229126289487e-03" rms="4.4714403152465820e-01" purity="3.4805849194526672e-01" nType="-99"/>
          <Node pos="r" depth="2" NCoef="0" IVar="-1" Cut="0.0000000000000000e+00" cType="1" res="6.8788108183071017e-04" rms="4.6642968058586121e-01" purity="5.8522939682006836e-01" nType="-99"/>
        </Node>
        <Node pos="r" depth="1" NCoef="0" IVar="-1" Cut="0.0000000000000000e+00" cType="1" res="-2.6480546221137047e-03" rms="3.9934933185577393e-01" purity="2.3481483757495880e-01" nType="-99"/>
      </Node>
    </BinaryTree>
    <BinaryTree type="DecisionTree" boostWeight="1.0000000000000000e+00" itree="381">
      <Node pos="s" depth="0" NCoef="0" IVar="6" Cut="9.5643974304199219e+01" cType="1" res="-1.6192769398912787e-03" rms="4.5610663294792175e-01" purity="5.0115936994552612e-01" nType="0">
        <Node pos="l" depth="1" NCoef="0" IVar="4" Cut="5.1204761505126953e+01" cType="1" res="1.4016212895512581e-02" rms="4.5379999279975891e-01" purity="5.2272826433181763e-01" nType="0">
          <Node pos="l" depth="2" NCoef="0" IVar="-1" Cut="0.0000000000000000e+00" cType="1" res="-1.0083424858748913e-03" rms="4.6391111612319946e-01" purity="4.3066871166229248e-01" nType="-99"/>
          <Node pos="r" depth="2" NCoef="0" IVar="-1" Cut="0.0000000000000000e+00" cType="1" res="1.2172635179013014e-03" rms="4.4982600212097168e-01" purity="5.5254298448562622e-01" nType="-99"/>
        </Node>
        <Node pos="r" depth="1" NCoef="0" IVar="8" Cut="5.0854146480560303e-01" cType="1" res="-2.7851907536387444e-02" rms="4.5875510573387146e-01" purity="4.6497192978858948e-01" nType="0">
          <Node pos="l" depth="2" NCoef="0" IVar="-1" Cut="0.0000000000000000e+00" cType="1" res="1.0519076604396105e-03" rms="4.4849604368209839e-01" purity="5.9845983982086182e-01" nType="-99"/>
          <Node pos="r" depth="2" NCoef="0" IVar="-1" Cut="0.0000000000000000e+00" cType="1" res="-1.8262951634824276e-03" rms="4.6052512526512146e-01" purity="4.2953681945800781e-01" nType="-99"/>
        </Node>
      </Node>
    </BinaryTree>
    <BinaryTree type="DecisionTree" boostWeight="1.0000000000000000e+00" itree="382">
      <Node pos="s" depth="0" NCoef="0" IVar="4" Cut="9.3635620117187500e+01" cType="1" res="-5.5550918914377689e-03" rms="4.5868900418281555e-01" purity="4.9655598402023315e-01" nType="0">
        <Node pos="l" depth="1" NCoef="0" IVar="6" Cut="1.0801678466796875e+02" cType="1" res="-1.9293576478958130e-02" rms="4.6272099018096924e-01" purity="4.7127363085746765e-01" nType="0">
          <Node pos="l" depth="2" NCoef="0" IVar="-1" Cut="0.0000000000000000e+00" cType="1" res="-4.5287015382200480e-04" rms="4.6344000101089478e-01" purity="4.8474967479705811e-01" nType="-99"/>
          <Node pos="r" depth="2" NCoef="0" IVar="-1" Cut="0.0000000000000000e+00" cType="1" res="-2.1385720465332270e-03" rms="4.5926842093467712e-01" purity="4.2908355593681335e-01" nType="-99"/>
        </Node>
        <Node pos="r" depth="1" NCoef="0" IVar="4" Cut="1.3486376953125000e+02" cType="1" res="1.9039267674088478e-02" rms="4.5033553242683411e-01" purity="5.4181593656539917e-01" nType="0">
          <Node pos="l" depth="2" NCoef="0" IVar="-1" Cut="0.0000000000000000e+00" cType="1" res="1.8947410862892866e-03" rms="4.4733554124832153e-01" purity="5.9466367959976196e-01" nType="-99"/>
          <Node pos="r" depth="2" NCoef="0" IVar="-1" Cut="0.0000000000000000e+00" cType="1" res="-1.2505331542342901e-03" rms="4.5372474193572998e-01" purity="4.1992291808128357e-01" nType="-99"/>
        </Node>
      </Node>
    </BinaryTree>
    <BinaryTree type="DecisionTree" boostWeight="1.0000000000000000e+00" itree="383">
      <Node pos="s" depth="0" NCoef="0" IVar="4" Cut="1.0550167083740234e+02" cType="1" res="1.3150172308087349e-03" rms="4.5849579572677612e-01" purity="5.0342333316802979e-01" nType="0">
        <Node pos="l" depth="1" NCoef="0" IVar="6" Cut="7.6772041320800781e+01" cType="1" res="-9.7844228148460388e-03" rms="4.6206694841384888e-01" purity="4.8393514752388000e-01" nType="0">
          <Node pos="l" depth="2" NCoef="0" IVar="-1" Cut="0.0000000000000000e+00" cType="1" res="7.7413383405655622e-04" rms="4.6354323625564575e-01" purity="5.2269965410232544e-01" nType="-99"/>
          <Node pos="r" depth="2" NCoef="0" IVar="-1" Cut="0.0000000000000000e+00" cType="1" res="-1.4394390163943172e-03" rms="4.5963329076766968e-01" purity="4.5148435235023499e-01" nType="-99"/>
        </Node>
        <Node pos="r" depth="1" NCoef="0" IVar="4" Cut="1.2918222045898438e+02" cType="1" res="3.0675208196043968e-02" rms="4.4758743047714233e-01" purity="5.5497348308563232e-01" nType="0">
          <Node pos="l" depth="2" NCoef="0" IVar="-1" Cut="0.0000000000000000e+00" cType="1" res="3.3802965190261602e-03" rms="4.3783572316169739e-01" purity="6.4071196317672729e-01" nType="-99"/>
          <Node pos="r" depth="2" NCoef="0" IVar="-1" Cut="0.0000000000000000e+00" cType="1" res="-3.3150825765915215e-04" rms="4.5369973778724670e-01" purity="4.7148406505584717e-01" nType="-99"/>
        </Node>
      </Node>
    </BinaryTree>
    <BinaryTree type="DecisionTree" boostWeight="1.0000000000000000e+00" itree="384">
      <Node pos="s" depth="0" NCoef="0" IVar="8" Cut="5.3436297178268433e-01" cType="1" res="2.1586639923043549e-04" rms="4.5727366209030151e-01" purity="5.0432980060577393e-01" nType="0">
        <Node pos="l" depth="1" NCoef="0" IVar="3" Cut="2.1434032917022705e+00" cType="1" res="2.7916233986616135e-02" rms="4.5062762498855591e-01" purity="6.1191099882125854e-01" nType="0">
          <Node pos="l" depth="2" NCoef="0" IVar="-1" Cut="0.0000000000000000e+00" cType="1" res="2.4438430555164814e-03" rms="4.4246169924736023e-01" purity="6.7950510978698730e-01" nType="-99"/>
          <Node pos="r" depth="2" NCoef="0" IVar="-1" Cut="0.0000000000000000e+00" cType="1" res="-7.8056351048871875e-04" rms="4.6335381269454956e-01" purity="4.7525042295455933e-01" nType="-99"/>
        </Node>
        <Node pos="r" depth="1" NCoef="0" IVar="1" Cut="1.3148515319824219e+02" cType="1" res="-8.8867396116256714e-03" rms="4.5907190442085266e-01" purity="4.6897754073143005e-01" nType="0">
          <Node pos="l" depth="2" NCoef="0" IVar="-1" Cut="0.0000000000000000e+00" cType="1" res="5.1560479914769530e-04" rms="4.5560702681541443e-01" purity="5.2057975530624390e-01" nType="-99"/>
          <Node pos="r" depth="2" NCoef="0" IVar="-1" Cut="0.0000000000000000e+00" cType="1" res="-1.0169812012463808e-03" rms="4.6091562509536743e-01" purity="4.3384951353073120e-01" nType="-99"/>
        </Node>
      </Node>
    </BinaryTree>
    <BinaryTree type="DecisionTree" boostWeight="1.0000000000000000e+00" itree="385">
      <Node pos="s" depth="0" NCoef="0" IVar="1" Cut="6.2821323394775391e+01" cType="1" res="1.9079201156273484e-03" rms="4.5530763268470764e-01" purity="5.0381559133529663e-01" nType="0">
        <Node pos="l" depth="1" NCoef="0" IVar="-1" Cut="0.0000000000000000e+00" cType="1" res="-2.7717791963368654e-03" rms="4.4285085797309875e-01" purity="3.4844765067100525e-01" nType="-99"/>
        <Node pos="r" depth="1" NCoef="0" IVar="0" Cut="8.6369466781616211e+00" cType="1" res="6.7619597539305687e-03" rms="4.5583733916282654e-01" purity="5.1527965068817139e-01" nType="0">
          <Node pos="l" depth="2" NCoef="0" IVar="-1" Cut="0.0000000000000000e+00" cType="1" res="-5.2363724535098299e-05" rms="4.6161746978759766e-01" purity="4.8212596774101257e-01" nType="-99"/>
          <Node pos="r" depth="2" NCoef="0" IVar="-1" Cut="0.0000000000000000e+00" cType="1" res="2.7584838680922985e-03" rms="4.1916635632514954e-01" purity="7.0129001140594482e-01" nType="-99"/>
        </Node>
      </Node>
    </BinaryTree>
    <BinaryTree type="DecisionTree" boostWeight="1.0000000000000000e+00" itree="386">
      <Node pos="s" depth="0" NCoef="0" IVar="6" Cut="1.0080395507812500e+02" cType="1" res="-7.8753931447863579e-03" rms="4.5794266462326050e-01" purity="4.9456515908241272e-01" nType="0">
        <Node pos="l" depth="1" NCoef="0" IVar="1" Cut="3.1256381225585938e+02" cType="1" res="4.3490706011652946e-03" rms="4.5506450533866882e-01" purity="5.1259374618530273e-01" nType="0">
          <Node pos="l" depth="2" NCoef="0" IVar="-1" Cut="0.0000000000000000e+00" cType="1" res="6.5861409530043602e-04" rms="4.5534375309944153e-01" purity="5.3793668746948242e-01" nType="-99"/>
          <Node pos="r" depth="2" NCoef="0" IVar="-1" Cut="0.0000000000000000e+00" cType="1" res="-2.5816578418016434e-03" rms="4.4836908578872681e-01" purity="3.5542410612106323e-01" nType="-99"/>
        </Node>
        <Node pos="r" depth="1" NCoef="0" IVar="9" Cut="6.4883325195312500e+02" cType="1" res="-3.2268866896629333e-02" rms="4.6266818046569824e-01" purity="4.5858979225158691e-01" nType="0">
          <Node pos="l" depth="2" NCoef="0" IVar="-1" Cut="0.0000000000000000e+00" cType="1" res="-3.7191461306065321e-03" rms="4.4310027360916138e-01" purity="3.6633324623107910e-01" nType="-99"/>
          <Node pos="r" depth="2" NCoef="0" IVar="-1" Cut="0.0000000000000000e+00" cType="1" res="-6.0477451188489795e-04" rms="4.6817097067832947e-01" purity="4.9233108758926392e-01" nType="-99"/>
        </Node>
      </Node>
    </BinaryTree>
    <BinaryTree type="DecisionTree" boostWeight="1.0000000000000000e+00" itree="387">
      <Node pos="s" depth="0" NCoef="0" IVar="3" Cut="2.1084816455841064e+00" cType="1" res="8.5542828310281038e-04" rms="4.5796424150466919e-01" purity="5.0411576032638550e-01" nType="0">
        <Node pos="l" depth="1" NCoef="0" IVar="7" Cut="9.5487970113754272e-01" cType="1" res="1.5465668402612209e-02" rms="4.6369409561157227e-01" purity="6.0238748788833618e-01" nType="0">
          <Node pos="l" depth="2" NCoef="0" IVar="-1" Cut="0.0000000000000000e+00" cType="1" res="1.4562277356162667e-03" rms="4.7582450509071350e-01" purity="5.4612362384796143e-01" nType="-99"/>
          <Node pos="r" depth="2" NCoef="0" IVar="-1" Cut="0.0000000000000000e+00" cType="1" res="-2.0087663142476231e-04" rms="4.5004907250404358e-01" purity="6.6027951240539551e-01" nType="-99"/>
        </Node>
        <Node pos="r" depth="1" NCoef="0" IVar="7" Cut="9.2844092845916748e-01" cType="1" res="-1.2061690911650658e-02" rms="4.5244520902633667e-01" purity="4.1723239421844482e-01" nType="0">
          <Node pos="l" depth="2" NCoef="0" IVar="-1" Cut="0.0000000000000000e+00" cType="1" res="-2.0555616356432438e-03" rms="4.1472634673118591e-01" purity="2.3202863335609436e-01" nType="-99"/>
          <Node pos="r" depth="2" NCoef="0" IVar="-1" Cut="0.0000000000000000e+00" cType="1" res="-2.0593059889506549e-04" rms="4.6028035879135132e-01" purity="4.5942819118499756e-01" nType="-99"/>
        </Node>
      </Node>
    </BinaryTree>
    <BinaryTree type="DecisionTree" boostWeight="1.0000000000000000e+00" itree="388">
      <Node pos="s" depth="0" NCoef="0" IVar="2" Cut="1.6870098114013672e+00" cType="1" res="-5.3955113980919123e-04" rms="4.5908811688423157e-01" purity="5.0429958105087280e-01" nType="0">
        <Node pos="l" depth="1" NCoef="0" IVar="6" Cut="1.0347383117675781e+02" cType="1" res="3.5969798918813467e-03" rms="4.6316313743591309e-01" purity="5.2458143234252930e-01" nType="0">
          <Node pos="l" depth="2" NCoef="0" IVar="-1" Cut="0.0000000000000000e+00" cType="1" res="6.1761046526953578e-04" rms="4.6293300390243530e-01" purity="5.3962004184722900e-01" nType="-99"/>
          <Node pos="r" depth="2" NCoef="0" IVar="-1" Cut="0.0000000000000000e+00" cType="1" res="-8.8567245984449983e-04" rms="4.6287494897842407e-01" purity="4.8936367034912109e-01" nType="-99"/>
        </Node>
        <Node pos="r" depth="1" NCoef="0" IVar="-1" Cut="0.0000000000000000e+00" cType="1" res="-2.9287210199981928e-03" rms="3.9076396822929382e-01" purity="2.1151451766490936e-01" nType="-99"/>
      </Node>
    </BinaryTree>
    <BinaryTree type="DecisionTree" boostWeight="1.0000000000000000e+00" itree="389">
      <Node pos="s" depth="0" NCoef="0" IVar="7" Cut="9.1153800487518311e-01" cType="1" res="2.2141269873827696e-03" rms="4.5684537291526794e-01" purity="5.0400233268737793e-01" nType="0">
        <Node pos="l" depth="1" NCoef="0" IVar="-1" Cut="0.0000000000000000e+00" cType="1" res="-2.5314546655863523e-03" rms="4.0385571122169495e-01" purity="2.4526163935661316e-01" nType="-99"/>
        <Node pos="r" depth="1" NCoef="0" IVar="4" Cut="6.2965396881103516e+01" cType="1" res="6.4204051159322262e-03" rms="4.5989182591438293e-01" purity="5.2143621444702148e-01" nType="0">
          <Node pos="l" depth="2" NCoef="0" IVar="-1" Cut="0.0000000000000000e+00" cType="1" res="-6.9918582448735833e-04" rms="4.6355083584785461e-01" purity="4.6308809518814087e-01" nType="-99"/>
          <Node pos="r" depth="2" NCoef="0" IVar="-1" Cut="0.0000000000000000e+00" cType="1" res="9.0592075139284134e-04" rms="4.5725053548812866e-01" purity="5.5550950765609741e-01" nType="-99"/>
        </Node>
      </Node>
    </BinaryTree>
    <BinaryTree type="DecisionTree" boostWeight="1.0000000000000000e+00" itree="390">
      <Node pos="s" depth="0" NCoef="0" IVar="2" Cut="5.7215541601181030e-01" cType="1" res="3.2579121179878712e-03" rms="4.5823761820793152e-01" purity="5.0553137063980103e-01" nType="0">
        <Node pos="l" depth="1" NCoef="0" IVar="-1" Cut="0.0000000000000000e+00" cType="1" res="3.6302532535046339e-03" rms="4.1299912333488464e-01" purity="7.3960560560226440e-01" nType="-99"/>
        <Node pos="r" depth="1" NCoef="0" IVar="6" Cut="8.7718452453613281e+01" cType="1" res="-5.5158213945105672e-04" rms="4.6046575903892517e-01" purity="4.9181705713272095e-01" nType="0">
          <Node pos="l" depth="2" NCoef="0" IVar="-1" Cut="0.0000000000000000e+00" cType="1" res="5.0292297964915633e-04" rms="4.5936557650566101e-01" purity="5.1246166229248047e-01" nType="-99"/>
          <Node pos="r" depth="2" NCoef="0" IVar="-1" Cut="0.0000000000000000e+00" cType="1" res="-6.6330604022368789e-04" rms="4.6141487360000610e-01" purity="4.6652954816818237e-01" nType="-99"/>
        </Node>
      </Node>
    </BinaryTree>
    <BinaryTree type="DecisionTree" boostWeight="1.0000000000000000e+00" itree="391">
      <Node pos="s" depth="0" NCoef="0" IVar="4" Cut="1.0065576934814453e+02" cType="1" res="-6.4210714772343636e-03" rms="4.5622807741165161e-01" purity="4.9626722931861877e-01" nType="0">
        <Node pos="l" depth="1" NCoef="0" IVar="6" Cut="1.3102287292480469e+02" cType="1" res="-1.7732420936226845e-02" rms="4.5945817232131958e-01" purity="4.7448229789733887e-01" nType="0">
          <Node pos="l" depth="2" NCoef="0" IVar="-1" Cut="0.0000000000000000e+00" cType="1" res="-5.1487161545082927e-04" rms="4.5906156301498413e-01" purity="4.8364418745040894e-01" nType="-99"/>
          <Node pos="r" depth="2" NCoef="0" IVar="-1" Cut="0.0000000000000000e+00" cType="1" res="-3.2711215317249298e-03" rms="4.5908480882644653e-01" purity="3.9161026477813721e-01" nType="-99"/>
        </Node>
        <Node pos="r" depth="1" NCoef="0" IVar="4" Cut="1.4365666198730469e+02" cType="1" res="1.9629856571555138e-02" rms="4.4761463999748230e-01" purity="5.4643976688385010e-01" nType="0">
          <Node pos="l" depth="2" NCoef="0" IVar="-1" Cut="0.0000000000000000e+00" cType="1" res="2.0575902890414000e-03" rms="4.4718447327613831e-01" purity="6.1116504669189453e-01" nType="-99"/>
          <Node pos="r" depth="2" NCoef="0" IVar="-1" Cut="0.0000000000000000e+00" cType="1" res="-1.8486374756321311e-03" rms="4.4331172108650208e-01" purity="3.7303850054740906e-01" nType="-99"/>
        </Node>
      </Node>
    </BinaryTree>
    <BinaryTree type="DecisionTree" boostWeight="1.0000000000000000e+00" itree="392">
      <Node pos="s" depth="0" NCoef="0" IVar="9" Cut="5.0806143188476562e+02" cType="1" res="1.7310854746028781e-03" rms="4.5809587836265564e-01" purity="5.0327116250991821e-01" nType="0">
        <Node pos="l" depth="1" NCoef="0" IVar="2" Cut="1.1154794692993164e+00" cType="1" res="-3.0131530016660690e-02" rms="4.4854381680488586e-01" purity="4.1502231359481812e-01" nType="0">
          <Node pos="l" depth="2" NCoef="0" IVar="-1" Cut="0.0000000000000000e+00" cType="1" res="6.2667689053341746e-04" rms="4.7267994284629822e-01" purity="5.5651688575744629e-01" nType="-99"/>
          <Node pos="r" depth="2" NCoef="0" IVar="-1" Cut="0.0000000000000000e+00" cType="1" res="-3.5738730803132057e-03" rms="4.1410988569259644e-01" purity="2.5586459040641785e-01" nType="-99"/>
        </Node>
        <Node pos="r" depth="1" NCoef="0" IVar="1" Cut="4.9909509277343750e+02" cType="1" res="6.5427017398178577e-03" rms="4.5932903885841370e-01" purity="5.1659768819808960e-01" nType="0">
          <Node pos="l" depth="2" NCoef="0" IVar="-1" Cut="0.0000000000000000e+00" cType="1" res="4.7261881991289556e-04" rms="4.5973128080368042e-01" purity="5.3127580881118774e-01" nType="-99"/>
          <Node pos="r" depth="2" NCoef="0" IVar="-1" Cut="0.0000000000000000e+00" cType="1" res="-2.1157835144549608e-03" rms="4.5013004541397095e-01" purity="3.0617564916610718e-01" nType="-99"/>
        </Node>
      </Node>
    </BinaryTree>
    <BinaryTree type="DecisionTree" boostWeight="1.0000000000000000e+00" itree="393">
      <Node pos="s" depth="0" NCoef="0" IVar="1" Cut="1.3086576843261719e+02" cType="1" res="3.2189072226174176e-04" rms="4.5827630162239075e-01" purity="4.9888372421264648e-01" nType="0">
        <Node pos="l" depth="1" NCoef="0" IVar="1" Cut="6.6182167053222656e+01" cType="1" res="1.8843056634068489e-02" rms="4.5768842101097107e-01" purity="5.4917484521865845e-01" nType="0">
          <Node pos="l" depth="2" NCoef="0" IVar="-1" Cut="0.0000000000000000e+00" cType="1" res="-2.5556334294378757e-03" rms="4.5782399177551270e-01" purity="3.5393214225769043e-01" nType="-99"/>
          <Node pos="r" depth="2" NCoef="0" IVar="-1" Cut="0.0000000000000000e+00" cType="1" res="1.7466800054535270e-03" rms="4.5576509833335876e-01" purity="5.9513902664184570e-01" nType="-99"/>
        </Node>
        <Node pos="r" depth="1" NCoef="0" IVar="4" Cut="1.5590687561035156e+02" cType="1" res="-1.2828415259718895e-02" rms="4.5823901891708374e-01" purity="4.6317628026008606e-01" nType="0">
          <Node pos="l" depth="2" NCoef="0" IVar="-1" Cut="0.0000000000000000e+00" cType="1" res="-2.8385187033563852e-04" rms="4.5847678184509277e-01" purity="4.7837927937507629e-01" nType="-99"/>
          <Node pos="r" depth="2" NCoef="0" IVar="-1" Cut="0.0000000000000000e+00" cType="1" res="-3.2178941182792187e-03" rms="4.5178517699241638e-01" purity="3.2493731379508972e-01" nType="-99"/>
        </Node>
      </Node>
    </BinaryTree>
    <BinaryTree type="DecisionTree" boostWeight="1.0000000000000000e+00" itree="394">
      <Node pos="s" depth="0" NCoef="0" IVar="0" Cut="8.5642366409301758e+00" cType="1" res="-8.1066209822893143e-03" rms="4.5744660496711731e-01" purity="4.9207171797752380e-01" nType="0">
        <Node pos="l" depth="1" NCoef="0" IVar="1" Cut="1.3882148742675781e+02" cType="1" res="-1.4842131175100803e-02" rms="4.6038317680358887e-01" purity="4.5810079574584961e-01" nType="0">
          <Node pos="l" depth="2" NCoef="0" IVar="-1" Cut="0.0000000000000000e+00" cType="1" res="1.2535609130281955e-04" rms="4.5797678828239441e-01" purity="5.0835114717483521e-01" nType="-99"/>
          <Node pos="r" depth="2" NCoef="0" IVar="-1" Cut="0.0000000000000000e+00" cType="1" res="-1.3302626321092248e-03" rms="4.6192923188209534e-01" purity="4.1400739550590515e-01" nType="-99"/>
        </Node>
        <Node pos="r" depth="1" NCoef="0" IVar="2" Cut="1.0718166828155518e+00" cType="1" res="2.7123680338263512e-02" rms="4.4009232521057129e-01" purity="6.6975778341293335e-01" nType="0">
          <Node pos="l" depth="2" NCoef="0" IVar="-1" Cut="0.0000000000000000e+00" cType="1" res="-8.4532756591215730e-04" rms="4.2922163009643555e-01" purity="7.2488623857498169e-01" nType="-99"/>
          <Node pos="r" depth="2" NCoef="0" IVar="-1" Cut="0.0000000000000000e+00" cType="1" res="3.3622456248849630e-03" rms="4.4724160432815552e-01" purity="6.1068433523178101e-01" nType="-99"/>
        </Node>
      </Node>
    </BinaryTree>
    <BinaryTree type="DecisionTree" boostWeight="1.0000000000000000e+00" itree="395">
      <Node pos="s" depth="0" NCoef="0" IVar="4" Cut="1.2871382141113281e+02" cType="1" res="-4.0248497389256954e-03" rms="4.5732107758522034e-01" purity="4.9791797995567322e-01" nType="0">
        <Node pos="l" depth="1" NCoef="0" IVar="4" Cut="1.1007372283935547e+02" cType="1" res="2.3678392171859741e-03" rms="4.5791575312614441e-01" purity="5.0880044698715210e-01" nType="0">
          <Node pos="l" depth="2" NCoef="0" IVar="-1" Cut="0.0000000000000000e+00" cType="1" res="-2.1706559346057475e-04" rms="4.6116796135902405e-01" purity="4.9157622456550598e-01" nType="-99"/>
          <Node pos="r" depth="2" NCoef="0" IVar="-1" Cut="0.0000000000000000e+00" cType="1" res="2.6069590821862221e-03" rms="4.3110489845275879e-01" purity="6.2960213422775269e-01" nType="-99"/>
        </Node>
        <Node pos="r" depth="1" NCoef="0" IVar="1" Cut="2.4720146179199219e+02" cType="1" res="-4.2785741388797760e-02" rms="4.5176589488983154e-01" purity="4.3193414807319641e-01" nType="0">
          <Node pos="l" depth="2" NCoef="0" IVar="-1" Cut="0.0000000000000000e+00" cType="1" res="-6.3252798281610012e-04" rms="4.6517735719680786e-01" purity="5.2285009622573853e-01" nType="-99"/>
          <Node pos="r" depth="2" NCoef="0" IVar="-1" Cut="0.0000000000000000e+00" cType="1" res="-3.7296179216355085e-03" rms="4.2877089977264404e-01" purity="3.0362379550933838e-01" nType="-99"/>
        </Node>
      </Node>
    </BinaryTree>
    <BinaryTree type="DecisionTree" boostWeight="1.0000000000000000e+00" itree="396">
      <Node pos="s" depth="0" NCoef="0" IVar="4" Cut="1.4134294128417969e+02" cType="1" res="-7.9110087826848030e-03" rms="4.5791250467300415e-01" purity="4.9514421820640564e-01" nType="0">
        <Node pos="l" depth="1" NCoef="0" IVar="4" Cut="3.4293312072753906e+01" cType="1" res="-2.2099558264017105e-03" rms="4.5862725377082825e-01" purity="5.0833177566528320e-01" nType="0">
          <Node pos="l" depth="2" NCoef="0" IVar="-1" Cut="0.0000000000000000e+00" cType="1" res="-3.2655242830514908e-03" rms="4.6007603406906128e-01" purity="3.3164355158805847e-01" nType="-99"/>
          <Node pos="r" depth="2" NCoef="0" IVar="-1" Cut="0.0000000000000000e+00" cType="1" res="1.1756272579077631e-04" rms="4.5813009142875671e-01" purity="5.1993906497955322e-01" nType="-99"/>
        </Node>
        <Node pos="r" depth="1" NCoef="0" IVar="-1" Cut="0.0000000000000000e+00" cType="1" res="-2.8779886197298765e-03" rms="4.4687977433204651e-01" purity="3.6468997597694397e-01" nType="-99"/>
      </Node>
    </BinaryTree>
    <BinaryTree type="DecisionTree" boostWeight="1.0000000000000000e+00" itree="397">
      <Node pos="s" depth="0" NCoef="0" IVar="4" Cut="1.0897394561767578e+02" cType="1" res="4.3325205333530903e-03" rms="4.5622220635414124e-01" purity="5.0572067499160767e-01" nType="0">
        <Node pos="l" depth="1" NCoef="0" IVar="2" Cut="8.2906794548034668e-01" cType="1" res="-3.7616002373397350e-03" rms="4.6058627963066101e-01" purity="4.9116221070289612e-01" nType="0">
          <Node pos="l" depth="2" NCoef="0" IVar="-1" Cut="0.0000000000000000e+00" cType="1" res="1.2341553810983896e-03" rms="4.5231878757476807e-01" purity="6.7001229524612427e-01" nType="-99"/>
          <Node pos="r" depth="2" NCoef="0" IVar="-1" Cut="0.0000000000000000e+00" cType="1" res="-5.6106463307514787e-04" rms="4.6276152133941650e-01" purity="4.3554487824440002e-01" nType="-99"/>
        </Node>
        <Node pos="r" depth="1" NCoef="0" IVar="4" Cut="1.5050810241699219e+02" cType="1" res="2.8938114643096924e-02" rms="4.4178187847137451e-01" purity="5.4997742176055908e-01" nType="0">
          <Node pos="l" depth="2" NCoef="0" IVar="-1" Cut="0.0000000000000000e+00" cType="1" res="2.6950587052851915e-03" rms="4.3933343887329102e-01" purity="6.2053310871124268e-01" nType="-99"/>
          <Node pos="r" depth="2" NCoef="0" IVar="-1" Cut="0.0000000000000000e+00" cType="1" res="-1.8309593433514237e-03" rms="4.4064390659332275e-01" purity="3.6604186892509460e-01" nType="-99"/>
        </Node>
      </Node>
    </BinaryTree>
    <BinaryTree type="DecisionTree" boostWeight="1.0000000000000000e+00" itree="398">
      <Node pos="s" depth="0" NCoef="0" IVar="1" Cut="2.3831756591796875e+02" cType="1" res="-7.7292206697165966e-03" rms="4.5937511324882507e-01" purity="4.9302175641059875e-01" nType="0">
        <Node pos="l" depth="1" NCoef="0" IVar="1" Cut="7.8383758544921875e+01" cType="1" res="-4.0688528679311275e-04" rms="4.5844137668609619e-01" purity="5.2383446693420410e-01" nType="0">
          <Node pos="l" depth="2" NCoef="0" IVar="-1" Cut="0.0000000000000000e+00" cType="1" res="-2.0207334309816360e-03" rms="4.5886585116386414e-01" purity="3.8893881440162659e-01" nType="-99"/>
          <Node pos="r" depth="2" NCoef="0" IVar="-1" Cut="0.0000000000000000e+00" cType="1" res="4.1290558874607086e-04" rms="4.5779895782470703e-01" purity="5.5154019594192505e-01" nType="-99"/>
        </Node>
        <Node pos="r" depth="1" NCoef="0" IVar="7" Cut="9.3470394611358643e-01" cType="1" res="-2.8672829270362854e-02" rms="4.6139428019523621e-01" purity="4.0489003062248230e-01" nType="0">
          <Node pos="l" depth="2" NCoef="0" IVar="-1" Cut="0.0000000000000000e+00" cType="1" res="5.4293766152113676e-04" rms="4.3862688541412354e-01" purity="3.2294654846191406e-01" nType="-99"/>
          <Node pos="r" depth="2" NCoef="0" IVar="-1" Cut="0.0000000000000000e+00" cType="1" res="-1.9854917190968990e-03" rms="4.6901869773864746e-01" purity="4.3684309720993042e-01" nType="-99"/>
        </Node>
      </Node>
    </BinaryTree>
    <BinaryTree type="DecisionTree" boostWeight="1.0000000000000000e+00" itree="399">
      <Node pos="s" depth="0" NCoef="0" IVar="7" Cut="9.2380720376968384e-01" cType="1" res="-9.3194824876263738e-04" rms="4.5695680379867554e-01" purity="5.0085759162902832e-01" nType="0">
        <Node pos="l" depth="1" NCoef="0" IVar="4" Cut="6.9702735900878906e+01" cType="1" res="-3.6715980619192123e-02" rms="4.2730417847633362e-01" purity="2.9050478339195251e-01" nType="0">
          <Node pos="l" depth="2" NCoef="0" IVar="-1" Cut="0.0000000000000000e+00" cType="1" res="1.4367676340043545e-04" rms="4.3716880679130554e-01" purity="3.2182946801185608e-01" nType="-99"/>
          <Node pos="r" depth="2" NCoef="0" IVar="-1" Cut="0.0000000000000000e+00" cType="1" res="-2.8388053178787231e-03" rms="4.1691467165946960e-01" purity="2.6633444428443909e-01" nType="-99"/>
        </Node>
        <Node pos="r" depth="1" NCoef="0" IVar="4" Cut="1.0311571502685547e+02" cType="1" res="4.4934726320207119e-03" rms="4.6104383468627930e-01" purity="5.3275036811828613e-01" nType="0">
          <Node pos="l" depth="2" NCoef="0" IVar="-1" Cut="0.0000000000000000e+00" cType="1" res="-1.9507789693307132e-04" rms="4.6694982051849365e-01" purity="5.1163059473037720e-01" nType="-99"/>
          <Node pos="r" depth="2" NCoef="0" IVar="-1" Cut="0.0000000000000000e+00" cType="1" res="1.2753040064126253e-03" rms="4.4537317752838135e-01" purity="5.8494138717651367e-01" nType="-99"/>
        </Node>
      </Node>
    </BinaryTree>
    <BinaryTree type="DecisionTree" boostWeight="1.0000000000000000e+00" itree="400">
      <Node pos="s" depth="0" NCoef="0" IVar="3" Cut="2.7289388179779053e+00" cType="1" res="-2.1058528218418360e-03" rms="4.5946627855300903e-01" purity="4.9925071001052856e-01" nType="0">
        <Node pos="l" depth="1" NCoef="0" IVar="1" Cut="7.4464645385742188e+01" cType="1" res="1.5875410754233599e-03" rms="4.6425890922546387e-01" purity="5.2016830444335938e-01" nType="0">
          <Node pos="l" depth="2" NCoef="0" IVar="-1" Cut="0.0000000000000000e+00" cType="1" res="-1.3342465972527862e-03" rms="4.6744766831398010e-01" purity="4.1543602943420410e-01" nType="-99"/>
          <Node pos="r" depth="2" NCoef="0" IVar="-1" Cut="0.0000000000000000e+00" cType="1" res="2.5669203023426235e-04" rms="4.6369782090187073e-01" purity="5.3336274623870850e-01" nType="-99"/>
        </Node>
        <Node pos="r" depth="1" NCoef="0" IVar="-1" Cut="0.0000000000000000e+00" cType="1" res="-2.9250348452478647e-03" rms="3.7621366977691650e-01" purity="1.8595063686370850e-01" nType="-99"/>
      </Node>
    </BinaryTree>
    <BinaryTree type="DecisionTree" boostWeight="1.0000000000000000e+00" itree="401">
      <Node pos="s" depth="0" NCoef="0" IVar="9" Cut="5.9561956787109375e+02" cType="1" res="4.7548972070217133e-03" rms="4.5867940783500671e-01" purity="5.0841361284255981e-01" nType="0">
        <Node pos="l" depth="1" NCoef="0" IVar="6" Cut="9.8167900085449219e+01" cType="1" res="-2.6556242257356644e-02" rms="4.4833454489707947e-01" purity="4.3413811922073364e-01" nType="0">
          <Node pos="l" depth="2" NCoef="0" IVar="-1" Cut="0.0000000000000000e+00" cType="1" res="-5.5627105757594109e-04" rms="4.5165118575096130e-01" purity="4.5548981428146362e-01" nType="-99"/>
          <Node pos="r" depth="2" NCoef="0" IVar="-1" Cut="0.0000000000000000e+00" cType="1" res="-3.5165853332728148e-03" rms="4.3200525641441345e-01" purity="3.5624423623085022e-01" nType="-99"/>
        </Node>
        <Node pos="r" depth="1" NCoef="0" IVar="0" Cut="6.3900375366210938e+00" cType="1" res="1.7556445673108101e-02" rms="4.6223184466362000e-01" purity="5.3878110647201538e-01" nType="0">
          <Node pos="l" depth="2" NCoef="0" IVar="-1" Cut="0.0000000000000000e+00" cType="1" res="1.8628669204190373e-03" rms="4.6600481867790222e-01" purity="4.3478754162788391e-01" nType="-99"/>
          <Node pos="r" depth="2" NCoef="0" IVar="-1" Cut="0.0000000000000000e+00" cType="1" res="2.6328186504542828e-04" rms="4.5993179082870483e-01" purity="5.8840256929397583e-01" nType="-99"/>
        </Node>
      </Node>
    </BinaryTree>
    <BinaryTree type="DecisionTree" boostWeight="1.0000000000000000e+00" itree="402">
      <Node pos="s" depth="0" NCoef="0" IVar="3" Cut="1.9978671073913574e+00" cType="1" res="-4.2001572437584400e-03" rms="4.5813304185867310e-01" purity="4.9712875485420227e-01" nType="0">
        <Node pos="l" depth="1" NCoef="0" IVar="2" Cut="1.2489212751388550e+00" cType="1" res="2.0857458934187889e-02" rms="4.6244573593139648e-01" purity="6.0953205823898315e-01" nType="0">
          <Node pos="l" depth="2" NCoef="0" IVar="-1" Cut="0.0000000000000000e+00" cType="1" res="5.3526158444583416e-04" rms="4.5856088399887085e-01" purity="6.2390542030334473e-01" nType="-99"/>
          <Node pos="r" depth="2" NCoef="0" IVar="-1" Cut="0.0000000000000000e+00" cType="1" res="2.9827039688825607e-03" rms="4.7850760817527771e-01" purity="5.3796863555908203e-01" nType="-99"/>
        </Node>
        <Node pos="r" depth="1" NCoef="0" IVar="4" Cut="5.0780635833740234e+01" cType="1" res="-1.5342836268246174e-02" rms="4.5575985312461853e-01" purity="4.4714498519897461e-01" nType="0">
          <Node pos="l" depth="2" NCoef="0" IVar="-1" Cut="0.0000000000000000e+00" cType="1" res="-2.3313346318900585e-03" rms="4.3708816170692444e-01" purity="3.3263346552848816e-01" nType="-99"/>
          <Node pos="r" depth="2" NCoef="0" IVar="-1" Cut="0.0000000000000000e+00" cType="1" res="-3.3801450626924634e-04" rms="4.5930320024490356e-01" purity="4.7184121608734131e-01" nType="-99"/>
        </Node>
      </Node>
    </BinaryTree>
    <BinaryTree type="DecisionTree" boostWeight="1.0000000000000000e+00" itree="403">
      <Node pos="s" depth="0" NCoef="0" IVar="7" Cut="9.1232872009277344e-01" cType="1" res="-1.4468373730778694e-02" rms="4.5714628696441650e-01" purity="4.8635777831077576e-01" nType="0">
        <Node pos="l" depth="1" NCoef="0" IVar="-1" Cut="0.0000000000000000e+00" cType="1" res="-3.0856495723128319e-03" rms="4.0027543902397156e-01" purity="2.3470498621463776e-01" nType="-99"/>
        <Node pos="r" depth="1" NCoef="0" IVar="0" Cut="5.3276929855346680e+00" cType="1" res="-1.0238726623356342e-02" rms="4.6056726574897766e-01" purity="5.0397151708602905e-01" nType="0">
          <Node pos="l" depth="2" NCoef="0" IVar="-1" Cut="0.0000000000000000e+00" cType="1" res="1.8813753267750144e-03" rms="4.5449435710906982e-01" purity="3.9071279764175415e-01" nType="-99"/>
          <Node pos="r" depth="2" NCoef="0" IVar="-1" Cut="0.0000000000000000e+00" cType="1" res="-6.2816729769110680e-04" rms="4.6076288819313049e-01" purity="5.1157343387603760e-01" nType="-99"/>
        </Node>
      </Node>
    </BinaryTree>
    <BinaryTree type="DecisionTree" boostWeight="1.0000000000000000e+00" itree="404">
      <Node pos="s" depth="0" NCoef="0" IVar="4" Cut="1.3988919067382812e+02" cType="1" res="-1.0529103456065059e-03" rms="4.5814549922943115e-01" purity="4.9995279312133789e-01" nType="0">
        <Node pos="l" depth="1" NCoef="0" IVar="1" Cut="7.5683647155761719e+01" cType="1" res="4.0666814893484116e-03" rms="4.5900723338127136e-01" purity="5.1320868730545044e-01" nType="0">
          <Node pos="l" depth="2" NCoef="0" IVar="-1" Cut="0.0000000000000000e+00" cType="1" res="-1.6936382744461298e-03" rms="4.5475667715072632e-01" purity="3.9824712276458740e-01" nType="-99"/>
          <Node pos="r" depth="2" NCoef="0" IVar="-1" Cut="0.0000000000000000e+00" cType="1" res="4.7244929010048509e-04" rms="4.5929506421089172e-01" purity="5.2993136644363403e-01" nType="-99"/>
        </Node>
        <Node pos="r" depth="1" NCoef="0" IVar="-1" Cut="0.0000000000000000e+00" cType="1" res="-2.3518786765635014e-03" rms="4.4648033380508423e-01" purity="3.6971420049667358e-01" nType="-99"/>
      </Node>
    </BinaryTree>
    <BinaryTree type="DecisionTree" boostWeight="1.0000000000000000e+00" itree="405">
      <Node pos="s" depth="0" NCoef="0" IVar="2" Cut="8.5116112232208252e-01" cType="1" res="-8.9953960850834846e-03" rms="4.5811399817466736e-01" purity="4.9074879288673401e-01" nType="0">
        <Node pos="l" depth="1" NCoef="0" IVar="8" Cut="6.3840115070343018e-01" cType="1" res="1.4364555478096008e-02" rms="4.5056331157684326e-01" purity="6.6966128349304199e-01" nType="0">
          <Node pos="l" depth="2" NCoef="0" IVar="-1" Cut="0.0000000000000000e+00" cType="1" res="-3.3142490428872406e-04" rms="4.5216515660285950e-01" purity="6.6228681802749634e-01" nType="-99"/>
          <Node pos="r" depth="2" NCoef="0" IVar="-1" Cut="0.0000000000000000e+00" cType="1" res="1.8313535256311297e-03" rms="4.4774970412254333e-01" purity="6.7757898569107056e-01" nType="-99"/>
        </Node>
        <Node pos="r" depth="1" NCoef="0" IVar="9" Cut="6.7608068847656250e+02" cType="1" res="-1.6730619594454765e-02" rms="4.6032577753067017e-01" purity="4.3150523304939270e-01" nType="0">
          <Node pos="l" depth="2" NCoef="0" IVar="-1" Cut="0.0000000000000000e+00" cType="1" res="-1.6113639576360583e-03" rms="4.5100328326225281e-01" purity="3.8304346799850464e-01" nType="-99"/>
          <Node pos="r" depth="2" NCoef="0" IVar="-1" Cut="0.0000000000000000e+00" cType="1" res="-7.5379117333795875e-05" rms="4.6667370200157166e-01" purity="4.6807315945625305e-01" nType="-99"/>
        </Node>
      </Node>
    </BinaryTree>
    <BinaryTree type="DecisionTree" boostWeight="1.0000000000000000e+00" itree="406">
      <Node pos="s" depth="0" NCoef="0" IVar="5" Cut="8.7772294878959656e-02" cType="1" res="-1.0496452450752258e-03" rms="4.5649772882461548e-01" purity="4.9918100237846375e-01" nType="0">
        <Node pos="l" depth="1" NCoef="0" IVar="4" Cut="1.3033070373535156e+02" cType="1" res="-1.5085224993526936e-02" rms="4.5741125941276550e-01" purity="4.3319734930992126e-01" nType="0">
          <Node pos="l" depth="2" NCoef="0" IVar="-1" Cut="0.0000000000000000e+00" cType="1" res="-3.6836581421084702e-04" rms="4.5785877108573914e-01" purity="4.4426292181015015e-01" nType="-99"/>
          <Node pos="r" depth="2" NCoef="0" IVar="-1" Cut="0.0000000000000000e+00" cType="1" res="-2.3788404650986195e-03" rms="4.5329281687736511e-01" purity="3.7444436550140381e-01" nType="-99"/>
        </Node>
        <Node pos="r" depth="1" NCoef="0" IVar="2" Cut="8.4972703456878662e-01" cType="1" res="1.5265980735421181e-02" rms="4.5488953590393066e-01" purity="5.7588356733322144e-01" nType="0">
          <Node pos="l" depth="2" NCoef="0" IVar="-1" Cut="0.0000000000000000e+00" cType="1" res="2.4544966872781515e-03" rms="4.3567517399787903e-01" purity="7.1721756458282471e-01" nType="-99"/>
          <Node pos="r" depth="2" NCoef="0" IVar="-1" Cut="0.0000000000000000e+00" cType="1" res="-1.8409593394608237e-05" rms="4.6330881118774414e-01" purity="5.0590384006500244e-01" nType="-99"/>
        </Node>
      </Node>
    </BinaryTree>
    <BinaryTree type="DecisionTree" boostWeight="1.0000000000000000e+00" itree="407">
      <Node pos="s" depth="0" NCoef="0" IVar="5" Cut="9.6138216555118561e-02" cType="1" res="-3.6218945751897991e-04" rms="4.5668864250183105e-01" purity="4.9997606873512268e-01" nType="0">
        <Node pos="l" depth="1" NCoef="0" IVar="9" Cut="5.5137670898437500e+02" cType="1" res="-1.3980940915644169e-02" rms="4.5979470014572144e-01" purity="4.3999373912811279e-01" nType="0">
          <Node pos="l" depth="2" NCoef="0" IVar="-1" Cut="0.0000000000000000e+00" cType="1" res="-2.3954587522894144e-03" rms="4.3687614798545837e-01" purity="3.2023137807846069e-01" nType="-99"/>
          <Node pos="r" depth="2" NCoef="0" IVar="-1" Cut="0.0000000000000000e+00" cType="1" res="-3.1616946216672659e-04" rms="4.6348720788955688e-01" purity="4.6165919303894043e-01" nType="-99"/>
        </Node>
        <Node pos="r" depth="1" NCoef="0" IVar="4" Cut="8.4459716796875000e+01" cType="1" res="1.8534455448389053e-02" rms="4.5166382193565369e-01" purity="5.8320432901382446e-01" nType="0">
          <Node pos="l" depth="2" NCoef="0" IVar="-1" Cut="0.0000000000000000e+00" cType="1" res="-5.6346158089581877e-05" rms="4.6290200948715210e-01" purity="5.4013222455978394e-01" nType="-99"/>
          <Node pos="r" depth="2" NCoef="0" IVar="-1" Cut="0.0000000000000000e+00" cType="1" res="2.6866195257753134e-03" rms="4.2918494343757629e-01" purity="6.5832817554473877e-01" nType="-99"/>
        </Node>
      </Node>
    </BinaryTree>
    <BinaryTree type="DecisionTree" boostWeight="1.0000000000000000e+00" itree="408">
      <Node pos="s" depth="0" NCoef="0" IVar="5" Cut="3.5638477653264999e-02" cType="1" res="3.6039112601429224e-03" rms="4.5670190453529358e-01" purity="5.0442600250244141e-01" nType="0">
        <Node pos="l" depth="1" NCoef="0" IVar="3" Cut="2.2663662433624268e+00" cType="1" res="-3.6754518747329712e-02" rms="4.4647684693336487e-01" purity="3.7431097030639648e-01" nType="0">
          <Node pos="l" depth="2" NCoef="0" IVar="-1" Cut="0.0000000000000000e+00" cType="1" res="-2.4032578803598881e-03" rms="4.6751698851585388e-01" purity="4.5096644759178162e-01" nType="-99"/>
          <Node pos="r" depth="2" NCoef="0" IVar="-1" Cut="0.0000000000000000e+00" cType="1" res="-6.3973589567467570e-04" rms="4.2029392719268799e-01" purity="2.8791287541389465e-01" nType="-99"/>
        </Node>
        <Node pos="r" depth="1" NCoef="0" IVar="3" Cut="2.2014157772064209e+00" cType="1" res="1.1932320892810822e-02" rms="4.5834147930145264e-01" purity="5.3127664327621460e-01" nType="0">
          <Node pos="l" depth="2" NCoef="0" IVar="-1" Cut="0.0000000000000000e+00" cType="1" res="1.1186639312654734e-03" rms="4.6176385879516602e-01" purity="6.1544680595397949e-01" nType="-99"/>
          <Node pos="r" depth="2" NCoef="0" IVar="-1" Cut="0.0000000000000000e+00" cType="1" res="-2.6379400514997542e-04" rms="4.5253926515579224e-01" purity="4.0399178862571716e-01" nType="-99"/>
        </Node>
      </Node>
    </BinaryTree>
    <BinaryTree type="DecisionTree" boostWeight="1.0000000000000000e+00" itree="409">
      <Node pos="s" depth="0" NCoef="0" IVar="7" Cut="9.5115661621093750e-01" cType="1" res="1.7840455984696746e-04" rms="4.5770063996315002e-01" purity="5.0035434961318970e-01" nType="0">
        <Node pos="l" depth="1" NCoef="0" IVar="8" Cut="5.6824135780334473e-01" cType="1" res="-1.3334034010767937e-02" rms="4.5947161316871643e-01" purity="3.9634945988655090e-01" nType="0">
          <Node pos="l" depth="2" NCoef="0" IVar="-1" Cut="0.0000000000000000e+00" cType="1" res="5.4465059656649828e-04" rms="4.7623273730278015e-01" purity="5.0698930025100708e-01" nType="-99"/>
          <Node pos="r" depth="2" NCoef="0" IVar="-1" Cut="0.0000000000000000e+00" cType="1" res="-9.6960924565792084e-04" rms="4.5334413647651672e-01" purity="3.5906982421875000e-01" nType="-99"/>
        </Node>
        <Node pos="r" depth="1" NCoef="0" IVar="4" Cut="6.9205268859863281e+01" cType="1" res="1.3000087812542915e-02" rms="4.5564347505569458e-01" purity="5.9904253482818604e-01" nType="0">
          <Node pos="l" depth="2" NCoef="0" IVar="-1" Cut="0.0000000000000000e+00" cType="1" res="-6.3108839094638824e-04" rms="4.6720975637435913e-01" purity="5.3882932662963867e-01" nType="-99"/>
          <Node pos="r" depth="2" NCoef="0" IVar="-1" Cut="0.0000000000000000e+00" cType="1" res="1.7183098243549466e-03" rms="4.4522345066070557e-01" purity="6.4638614654541016e-01" nType="-99"/>
        </Node>
      </Node>
    </BinaryTree>
    <BinaryTree type="DecisionTree" boostWeight="1.0000000000000000e+00" itree="410">
      <Node pos="s" depth="0" NCoef="0" IVar="4" Cut="3.9310810089111328e+01" cType="1" res="5.7565113529562950e-03" rms="4.5486810803413391e-01" purity="5.0697261095046997e-01" nType="0">
        <Node pos="l" depth="1" NCoef="0" IVar="-1" Cut="0.0000000000000000e+00" cType="1" res="-1.7223875038325787e-03" rms="4.4654703140258789e-01" purity="3.7566438317298889e-01" nType="-99"/>
        <Node pos="r" depth="1" NCoef="0" IVar="1" Cut="3.2401504516601562e+02" cType="1" res="1.0711848735809326e-02" rms="4.5552137494087219e-01" purity="5.2165758609771729e-01" nType="0">
          <Node pos="l" depth="2" NCoef="0" IVar="-1" Cut="0.0000000000000000e+00" cType="1" res="8.1206246977671981e-04" rms="4.5449522137641907e-01" purity="5.4888707399368286e-01" nType="-99"/>
          <Node pos="r" depth="2" NCoef="0" IVar="-1" Cut="0.0000000000000000e+00" cType="1" res="-1.1029696324840188e-03" rms="4.5920482277870178e-01" purity="3.8067287206649780e-01" nType="-99"/>
        </Node>
      </Node>
    </BinaryTree>
    <BinaryTree type="DecisionTree" boostWeight="1.0000000000000000e+00" itree="411">
      <Node pos="s" depth="0" NCoef="0" IVar="9" Cut="9.0353204345703125e+02" cType="1" res="4.5756311155855656e-03" rms="4.5627266168594360e-01" purity="5.0428342819213867e-01" nType="0">
        <Node pos="l" depth="1" NCoef="0" IVar="5" Cut="1.3215187191963196e-01" cType="1" res="-4.7132228501141071e-03" rms="4.5614150166511536e-01" purity="4.8796910047531128e-01" nType="0">
          <Node pos="l" depth="2" NCoef="0" IVar="-1" Cut="0.0000000000000000e+00" cType="1" res="-8.0013985279947519e-04" rms="4.5757663249969482e-01" purity="4.3772304058074951e-01" nType="-99"/>
          <Node pos="r" depth="2" NCoef="0" IVar="-1" Cut="0.0000000000000000e+00" cType="1" res="1.1913107009604573e-03" rms="4.5138981938362122e-01" purity="6.0427653789520264e-01" nType="-99"/>
        </Node>
        <Node pos="r" depth="1" NCoef="0" IVar="6" Cut="1.0516597747802734e+02" cType="1" res="3.0005741864442825e-02" rms="4.5566377043724060e-01" purity="5.4894733428955078e-01" nType="0">
          <Node pos="l" depth="2" NCoef="0" IVar="-1" Cut="0.0000000000000000e+00" cType="1" res="2.9127381276339293e-04" rms="4.5992702245712280e-01" purity="5.3353679180145264e-01" nType="-99"/>
          <Node pos="r" depth="2" NCoef="0" IVar="-1" Cut="0.0000000000000000e+00" cType="1" res="3.0912980437278748e-03" rms="4.4678425788879395e-01" purity="5.7218104600906372e-01" nType="-99"/>
        </Node>
      </Node>
    </BinaryTree>
    <BinaryTree type="DecisionTree" boostWeight="1.0000000000000000e+00" itree="412">
      <Node pos="s" depth="0" NCoef="0" IVar="6" Cut="5.7893428802490234e+01" cType="1" res="-1.2758623342961073e-03" rms="4.5935332775115967e-01" purity="5.0073891878128052e-01" nType="0">
        <Node pos="l" depth="1" NCoef="0" IVar="3" Cut="2.1915502548217773e+00" cType="1" res="2.1937200799584389e-02" rms="4.6033501625061035e-01" purity="5.3795552253723145e-01" nType="0">
          <Node pos="l" depth="2" NCoef="0" IVar="-1" Cut="0.0000000000000000e+00" cType="1" res="2.0940450485795736e-03" rms="4.5957696437835693e-01" purity="6.3423579931259155e-01" nType="-99"/>
          <Node pos="r" depth="2" NCoef="0" IVar="-1" Cut="0.0000000000000000e+00" cType="1" res="-3.6758385249413550e-04" rms="4.5966583490371704e-01" purity="4.0618833899497986e-01" nType="-99"/>
        </Node>
        <Node pos="r" depth="1" NCoef="0" IVar="8" Cut="4.2227160930633545e-01" cType="1" res="-8.4491204470396042e-03" rms="4.5881205797195435e-01" purity="4.8923832178115845e-01" nType="0">
          <Node pos="l" depth="2" NCoef="0" IVar="-1" Cut="0.0000000000000000e+00" cType="1" res="1.2827415484935045e-03" rms="4.4891795516014099e-01" purity="6.1873668432235718e-01" nType="-99"/>
          <Node pos="r" depth="2" NCoef="0" IVar="-1" Cut="0.0000000000000000e+00" cType="1" res="-7.1857025614008307e-04" rms="4.6050849556922913e-01" purity="4.6220731735229492e-01" nType="-99"/>
        </Node>
      </Node>
    </BinaryTree>
    <BinaryTree type="DecisionTree" boostWeight="1.0000000000000000e+00" itree="413">
      <Node pos="s" depth="0" NCoef="0" IVar="5" Cut="8.7849445641040802e-02" cType="1" res="-1.2120442464947701e-02" rms="4.5693761110305786e-01" purity="4.8795855045318604e-01" nType="0">
        <Node pos="l" depth="1" NCoef="0" IVar="2" Cut="9.7387510538101196e-01" cType="1" res="-2.8029700741171837e-02" rms="4.5499402284622192e-01" purity="4.1617766022682190e-01" nType="0">
          <Node pos="l" depth="2" NCoef="0" IVar="-1" Cut="0.0000000000000000e+00" cType="1" res="-2.7466502506285906e-03" rms="4.7332412004470825e-01" purity="5.3733420372009277e-01" nType="-99"/>
          <Node pos="r" depth="2" NCoef="0" IVar="-1" Cut="0.0000000000000000e+00" cType="1" res="-7.0273655001074076e-04" rms="4.4734412431716919e-01" purity="3.7102484703063965e-01" nType="-99"/>
        </Node>
        <Node pos="r" depth="1" NCoef="0" IVar="3" Cut="2.0964577198028564e+00" cType="1" res="6.3725244253873825e-03" rms="4.5849323272705078e-01" purity="5.7139688730239868e-01" nType="0">
          <Node pos="l" depth="2" NCoef="0" IVar="-1" Cut="0.0000000000000000e+00" cType="1" res="1.4418431092053652e-03" rms="4.5093160867691040e-01" purity="6.5557360649108887e-01" nType="-99"/>
          <Node pos="r" depth="2" NCoef="0" IVar="-1" Cut="0.0000000000000000e+00" cType="1" res="-7.7020662138238549e-04" rms="4.6487638354301453e-01" purity="4.8581871390342712e-01" nType="-99"/>
        </Node>
      </Node>
    </BinaryTree>
    <BinaryTree type="DecisionTree" boostWeight="1.0000000000000000e+00" itree="414">
      <Node pos="s" depth="0" NCoef="0" IVar="0" Cut="8.0371828079223633e+00" cType="1" res="-9.3774292618036270e-03" rms="4.5748043060302734e-01" purity="4.9180725216865540e-01" nType="0">
        <Node pos="l" depth="1" NCoef="0" IVar="7" Cut="9.2830157279968262e-01" cType="1" res="-2.1026201546192169e-02" rms="4.6264508366584778e-01" purity="4.3889212608337402e-01" nType="0">
          <Node pos="l" depth="2" NCoef="0" IVar="-1" Cut="0.0000000000000000e+00" cType="1" res="-2.0513928029686213e-03" rms="4.2897373437881470e-01" purity="2.8464344143867493e-01" nType="-99"/>
          <Node pos="r" depth="2" NCoef="0" IVar="-1" Cut="0.0000000000000000e+00" cType="1" res="-5.5955990683287382e-04" rms="4.7215256094932556e-01" purity="4.8612019419670105e-01" nType="-99"/>
        </Node>
        <Node pos="r" depth="1" NCoef="0" IVar="4" Cut="7.1316596984863281e+01" cType="1" res="2.6302684098482132e-02" rms="4.3936768174171448e-01" purity="6.5388584136962891e-01" nType="0">
          <Node pos="l" depth="2" NCoef="0" IVar="-1" Cut="0.0000000000000000e+00" cType="1" res="-2.6187120238319039e-04" rms="4.5826372504234314e-01" purity="5.8226394653320312e-01" nType="-99"/>
          <Node pos="r" depth="2" NCoef="0" IVar="-1" Cut="0.0000000000000000e+00" cType="1" res="2.7446378953754902e-03" rms="4.2279177904129028e-01" purity="7.0851022005081177e-01" nType="-99"/>
        </Node>
      </Node>
    </BinaryTree>
    <BinaryTree type="DecisionTree" boostWeight="1.0000000000000000e+00" itree="415">
      <Node pos="s" depth="0" NCoef="0" IVar="9" Cut="6.6902044677734375e+02" cType="1" res="-5.4504623403772712e-04" rms="4.5485189557075500e-01" purity="4.9866509437561035e-01" nType="0">
        <Node pos="l" depth="1" NCoef="0" IVar="2" Cut="1.0913231372833252e+00" cType="1" res="-2.0252758637070656e-02" rms="4.5203074812889099e-01" purity="4.5131617784500122e-01" nType="0">
          <Node pos="l" depth="2" NCoef="0" IVar="-1" Cut="0.0000000000000000e+00" cType="1" res="2.4022004799917340e-04" rms="4.6992745995521545e-01" purity="5.8835071325302124e-01" nType="-99"/>
          <Node pos="r" depth="2" NCoef="0" IVar="-1" Cut="0.0000000000000000e+00" cType="1" res="-2.0400355570018291e-03" rms="4.3207451701164246e-01" purity="3.1543761491775513e-01" nType="-99"/>
        </Node>
        <Node pos="r" depth="1" NCoef="0" IVar="1" Cut="1.6703926086425781e+02" cType="1" res="1.3850284740328789e-02" rms="4.5636400580406189e-01" purity="5.3325068950653076e-01" nType="0">
          <Node pos="l" depth="2" NCoef="0" IVar="-1" Cut="0.0000000000000000e+00" cType="1" res="1.9043500069528818e-03" rms="4.5192050933837891e-01" purity="6.1299794912338257e-01" nType="-99"/>
          <Node pos="r" depth="2" NCoef="0" IVar="-1" Cut="0.0000000000000000e+00" cType="1" res="-4.6336828381754458e-04" rms="4.5917424559593201e-01" purity="4.5851606130599976e-01" nType="-99"/>
        </Node>
      </Node>
    </BinaryTree>
    <BinaryTree type="DecisionTree" boostWeight="1.0000000000000000e+00" itree="416">
      <Node pos="s" depth="0" NCoef="0" IVar="1" Cut="1.6521252441406250e+02" cType="1" res="-3.7866388447582722e-03" rms="4.5583385229110718e-01" purity="4.9734979867935181e-01" nType="0">
        <Node pos="l" depth="1" NCoef="0" IVar="7" Cut="9.7730499505996704e-01" cType="1" res="1.1911081150174141e-02" rms="4.5399957895278931e-01" purity="5.4992389678955078e-01" nType="0">
          <Node pos="l" depth="2" NCoef="0" IVar="-1" Cut="0.0000000000000000e+00" cType="1" res="1.0256464884150773e-04" rms="4.5993494987487793e-01" purity="5.1966804265975952e-01" nType="-99"/>
          <Node pos="r" depth="2" NCoef="0" IVar="-1" Cut="0.0000000000000000e+00" cType="1" res="3.9242580533027649e-03" rms="4.1162088513374329e-01" purity="7.3248279094696045e-01" nType="-99"/>
        </Node>
        <Node pos="r" depth="1" NCoef="0" IVar="3" Cut="2.1026909351348877e+00" cType="1" res="-2.3987751454114914e-02" rms="4.5739144086837769e-01" purity="4.2969304323196411e-01" nType="0">
          <Node pos="l" depth="2" NCoef="0" IVar="-1" Cut="0.0000000000000000e+00" cType="1" res="1.8110440578311682e-04" rms="4.7475436329841614e-01" purity="5.8088427782058716e-01" nType="-99"/>
          <Node pos="r" depth="2" NCoef="0" IVar="-1" Cut="0.0000000000000000e+00" cType="1" res="-1.6969144344329834e-03" rms="4.4783583283424377e-01" purity="3.5434982180595398e-01" nType="-99"/>
        </Node>
      </Node>
    </BinaryTree>
    <BinaryTree type="DecisionTree" boostWeight="1.0000000000000000e+00" itree="417">
      <Node pos="s" depth="0" NCoef="0" IVar="7" Cut="9.5250064134597778e-01" cType="1" res="6.2847323715686798e-03" rms="4.5780557394027710e-01" purity="5.0220364332199097e-01" nType="0">
        <Node pos="l" depth="1" NCoef="0" IVar="7" Cut="9.4719934463500977e-01" cType="1" res="-8.0954367294907570e-03" rms="4.6175783872604370e-01" purity="4.0537509322166443e-01" nType="0">
          <Node pos="l" depth="2" NCoef="0" IVar="-1" Cut="0.0000000000000000e+00" cType="1" res="-2.7751886591431685e-05" rms="4.6037280559539795e-01" purity="3.9808231592178345e-01" nType="-99"/>
          <Node pos="r" depth="2" NCoef="0" IVar="-1" Cut="0.0000000000000000e+00" cType="1" res="-2.0273970440030098e-03" rms="4.6696808934211731e-01" purity="4.4318699836730957e-01" nType="-99"/>
        </Node>
        <Node pos="r" depth="1" NCoef="0" IVar="1" Cut="1.4817254638671875e+02" cType="1" res="2.1796036511659622e-02" rms="4.5299232006072998e-01" purity="6.0664856433868408e-01" nType="0">
          <Node pos="l" depth="2" NCoef="0" IVar="-1" Cut="0.0000000000000000e+00" cType="1" res="2.4459031410515308e-03" rms="4.3852996826171875e-01" purity="6.6127014160156250e-01" nType="-99"/>
          <Node pos="r" depth="2" NCoef="0" IVar="-1" Cut="0.0000000000000000e+00" cType="1" res="-2.9918583459220827e-04" rms="4.6675789356231689e-01" purity="5.4654234647750854e-01" nType="-99"/>
        </Node>
      </Node>
    </BinaryTree>
    <BinaryTree type="DecisionTree" boostWeight="1.0000000000000000e+00" itree="418">
      <Node pos="s" depth="0" NCoef="0" IVar="4" Cut="6.9799591064453125e+01" cType="1" res="2.1120293531566858e-03" rms="4.6098920702934265e-01" purity="5.0435060262680054e-01" nType="0">
        <Node pos="l" depth="1" NCoef="0" IVar="3" Cut="1.9060859680175781e+00" cType="1" res="-2.0049205049872398e-02" rms="4.6277791261672974e-01" purity="4.5180976390838623e-01" nType="0">
          <Node pos="l" depth="2" NCoef="0" IVar="-1" Cut="0.0000000000000000e+00" cType="1" res="-1.9504765514284372e-03" rms="4.7627648711204529e-01" purity="5.0268030166625977e-01" nType="-99"/>
          <Node pos="r" depth="2" NCoef="0" IVar="-1" Cut="0.0000000000000000e+00" cType="1" res="-4.4516765046864748e-04" rms="4.5676973462104797e-01" purity="4.3106514215469360e-01" nType="-99"/>
        </Node>
        <Node pos="r" depth="1" NCoef="0" IVar="2" Cut="9.7779268026351929e-01" cType="1" res="2.0143857225775719e-02" rms="4.5873942971229553e-01" purity="5.4710125923156738e-01" nType="0">
          <Node pos="l" depth="2" NCoef="0" IVar="-1" Cut="0.0000000000000000e+00" cType="1" res="-3.5185448359698057e-04" rms="4.4660180807113647e-01" purity="6.6245472431182861e-01" nType="-99"/>
          <Node pos="r" depth="2" NCoef="0" IVar="-1" Cut="0.0000000000000000e+00" cType="1" res="1.5697524650022388e-03" rms="4.6435955166816711e-01" purity="4.8650631308555603e-01" nType="-99"/>
        </Node>
      </Node>
    </BinaryTree>
    <BinaryTree type="DecisionTree" boostWeight="1.0000000000000000e+00" itree="419">
      <Node pos="s" depth="0" NCoef="0" IVar="1" Cut="1.8538905334472656e+02" cType="1" res="-3.9707687683403492e-03" rms="4.5802840590476990e-01" purity="4.9388584494590759e-01" nType="0">
        <Node pos="l" depth="1" NCoef="0" IVar="1" Cut="7.7925155639648438e+01" cType="1" res="8.0975880846381187e-03" rms="4.5904338359832764e-01" purity="5.3971838951110840e-01" nType="0">
          <Node pos="l" depth="2" NCoef="0" IVar="-1" Cut="0.0000000000000000e+00" cType="1" res="-1.3783365720883012e-03" rms="4.5171183347702026e-01" purity="3.9845272898674011e-01" nType="-99"/>
          <Node pos="r" depth="2" NCoef="0" IVar="-1" Cut="0.0000000000000000e+00" cType="1" res="8.6971465498209000e-04" rms="4.6040827035903931e-01" purity="5.7734304666519165e-01" nType="-99"/>
        </Node>
        <Node pos="r" depth="1" NCoef="0" IVar="8" Cut="1.5737805366516113e+00" cType="1" res="-2.3902157321572304e-02" rms="4.5564788579940796e-01" purity="4.1819158196449280e-01" nType="0">
          <Node pos="l" depth="2" NCoef="0" IVar="-1" Cut="0.0000000000000000e+00" cType="1" res="-1.7669027438387275e-03" rms="4.6068173646926880e-01" purity="4.4386357069015503e-01" nType="-99"/>
          <Node pos="r" depth="2" NCoef="0" IVar="-1" Cut="0.0000000000000000e+00" cType="1" res="9.0474606258794665e-04" rms="4.3946510553359985e-01" purity="3.5144406557083130e-01" nType="-99"/>
        </Node>
      </Node>
    </BinaryTree>
    <BinaryTree type="DecisionTree" boostWeight="1.0000000000000000e+00" itree="420">
      <Node pos="s" depth="0" NCoef="0" IVar="6" Cut="1.4173602294921875e+02" cType="1" res="9.1126025654375553e-04" rms="4.5899432897567749e-01" purity="5.0200515985488892e-01" nType="0">
        <Node pos="l" depth="1" NCoef="0" IVar="0" Cut="5.6161766052246094e+00" cType="1" res="4.5167091302573681e-03" rms="4.5873394608497620e-01" purity="5.0882923603057861e-01" nType="0">
          <Node pos="l" depth="2" NCoef="0" IVar="-1" Cut="0.0000000000000000e+00" cType="1" res="-1.2661009095609188e-03" rms="4.3720686435699463e-01" purity="3.1027725338935852e-01" nType="-99"/>
          <Node pos="r" depth="2" NCoef="0" IVar="-1" Cut="0.0000000000000000e+00" cType="1" res="5.0358206499367952e-04" rms="4.6235164999961853e-01" purity="5.4568135738372803e-01" nType="-99"/>
        </Node>
        <Node pos="r" depth="1" NCoef="0" IVar="-1" Cut="0.0000000000000000e+00" cType="1" res="-1.9992047455161810e-03" rms="4.5983368158340454e-01" purity="4.1522040963172913e-01" nType="-99"/>
      </Node>
    </BinaryTree>
    <BinaryTree type="DecisionTree" boostWeight="1.0000000000000000e+00" itree="421">
      <Node pos="s" depth="0" NCoef="0" IVar="6" Cut="7.2196937561035156e+01" cType="1" res="-7.1710580959916115e-03" rms="4.5927405357360840e-01" purity="4.9549654126167297e-01" nType="0">
        <Node pos="l" depth="1" NCoef="0" IVar="8" Cut="9.0996998548507690e-01" cType="1" res="1.3259330764412880e-02" rms="4.5950683951377869e-01" purity="5.2755731344223022e-01" nType="0">
          <Node pos="l" depth="2" NCoef="0" IVar="-1" Cut="0.0000000000000000e+00" cType="1" res="-6.5848755184561014e-04" rms="4.6575412154197693e-01" purity="5.6693542003631592e-01" nType="-99"/>
          <Node pos="r" depth="2" NCoef="0" IVar="-1" Cut="0.0000000000000000e+00" cType="1" res="1.8209114205092192e-03" rms="4.5183470845222473e-01" purity="4.8954284191131592e-01" nType="-99"/>
        </Node>
        <Node pos="r" depth="1" NCoef="0" IVar="0" Cut="9.0084400177001953e+00" cType="1" res="-2.0482016727328300e-02" rms="4.5863297581672668e-01" purity="4.7460806369781494e-01" nType="0">
          <Node pos="l" depth="2" NCoef="0" IVar="-1" Cut="0.0000000000000000e+00" cType="1" res="-1.2279566144570708e-03" rms="4.6234104037284851e-01" purity="4.5030173659324646e-01" nType="-99"/>
          <Node pos="r" depth="2" NCoef="0" IVar="-1" Cut="0.0000000000000000e+00" cType="1" res="2.2563228849321604e-03" rms="4.1872701048851013e-01" purity="6.9283688068389893e-01" nType="-99"/>
        </Node>
      </Node>
    </BinaryTree>
    <BinaryTree type="DecisionTree" boostWeight="1.0000000000000000e+00" itree="422">
      <Node pos="s" depth="0" NCoef="0" IVar="2" Cut="6.9151157140731812e-01" cType="1" res="-3.3044407609850168e-03" rms="4.5697432756423950e-01" purity="4.9416673183441162e-01" nType="0">
        <Node pos="l" depth="1" NCoef="0" IVar="6" Cut="8.3251022338867188e+01" cType="1" res="4.6094812452793121e-02" rms="4.2667800188064575e-01" purity="7.2301518917083740e-01" nType="0">
          <Node pos="l" depth="2" NCoef="0" IVar="-1" Cut="0.0000000000000000e+00" cType="1" res="1.1580616701394320e-03" rms="4.4078621268272400e-01" purity="6.9526410102844238e-01" nType="-99"/>
          <Node pos="r" depth="2" NCoef="0" IVar="-1" Cut="0.0000000000000000e+00" cType="1" res="4.1158283129334450e-03" rms="4.0665972232818604e-01" purity="7.5727558135986328e-01" nType="-99"/>
        </Node>
        <Node pos="r" depth="1" NCoef="0" IVar="9" Cut="5.6306658935546875e+02" cType="1" res="-9.7534740343689919e-03" rms="4.6039152145385742e-01" purity="4.6429076790809631e-01" nType="0">
          <Node pos="l" depth="2" NCoef="0" IVar="-1" Cut="0.0000000000000000e+00" cType="1" res="-1.8257023766636848e-03" rms="4.4563728570938110e-01" purity="3.8284790515899658e-01" nType="-99"/>
          <Node pos="r" depth="2" NCoef="0" IVar="-1" Cut="0.0000000000000000e+00" cType="1" res="-1.5065333172969986e-05" rms="4.6438553929328918e-01" purity="4.8910865187644958e-01" nType="-99"/>
        </Node>
      </Node>
    </BinaryTree>
    <BinaryTree type="DecisionTree" boostWeight="1.0000000000000000e+00" itree="423">
      <Node pos="s" depth="0" NCoef="0" IVar="1" Cut="1.6521252441406250e+02" cType="1" res="1.7554719233885407e-03" rms="4.5565569400787354e-01" purity="5.0245851278305054e-01" nType="0">
        <Node pos="l" depth="1" NCoef="0" IVar="8" Cut="1.9323728084564209e+00" cType="1" res="1.4683873392641544e-02" rms="4.5363861322402954e-01" purity="5.5197954177856445e-01" nType="0">
          <Node pos="l" depth="2" NCoef="0" IVar="-1" Cut="0.0000000000000000e+00" cType="1" res="1.1904740240424871e-03" rms="4.5742401480674744e-01" purity="5.9469175338745117e-01" nType="-99"/>
          <Node pos="r" depth="2" NCoef="0" IVar="-1" Cut="0.0000000000000000e+00" cType="1" res="-2.2897701710462570e-03" rms="4.2446279525756836e-01" purity="2.9483541846275330e-01" nType="-99"/>
        </Node>
        <Node pos="r" depth="1" NCoef="0" IVar="9" Cut="5.8622003173828125e+02" cType="1" res="-1.4725960791110992e-02" rms="4.5768499374389648e-01" purity="4.3932780623435974e-01" nType="0">
          <Node pos="l" depth="2" NCoef="0" IVar="-1" Cut="0.0000000000000000e+00" cType="1" res="-2.6946980506181717e-03" rms="4.2079260945320129e-01" purity="3.0512049794197083e-01" nType="-99"/>
          <Node pos="r" depth="2" NCoef="0" IVar="-1" Cut="0.0000000000000000e+00" cType="1" res="-2.9975426150485873e-04" rms="4.6363240480422974e-01" purity="4.6375972032546997e-01" nType="-99"/>
        </Node>
      </Node>
    </BinaryTree>
    <BinaryTree type="DecisionTree" boostWeight="1.0000000000000000e+00" itree="424">
      <Node pos="s" depth="0" NCoef="0" IVar="9" Cut="4.7190008544921875e+02" cType="1" res="-3.9884201250970364e-03" rms="4.5885074138641357e-01" purity="4.9730217456817627e-01" nType="0">
        <Node pos="l" depth="1" NCoef="0" IVar="-1" Cut="0.0000000000000000e+00" cType="1" res="-2.4506924673914909e-03" rms="4.4390100240707397e-01" purity="3.7278181314468384e-01" nType="-99"/>
        <Node pos="r" depth="1" NCoef="0" IVar="6" Cut="5.1306716918945312e+01" cType="1" res="8.1180175766348839e-04" rms="4.5997282862663269e-01" purity="5.0924426317214966e-01" nType="0">
          <Node pos="l" depth="2" NCoef="0" IVar="-1" Cut="0.0000000000000000e+00" cType="1" res="1.4239193405956030e-03" rms="4.6009835600852966e-01" purity="5.5886566638946533e-01" nType="-99"/>
          <Node pos="r" depth="2" NCoef="0" IVar="-1" Cut="0.0000000000000000e+00" cType="1" res="-2.4503233726136386e-04" rms="4.5970568060874939e-01" purity="4.9904581904411316e-01" nType="-99"/>
        </Node>
      </Node>
    </BinaryTree>
    <BinaryTree type="DecisionTree" boostWeight="1.0000000000000000e+00" itree="425">
      <Node pos="s" depth="0" NCoef="0" IVar="1" Cut="1.0664020538330078e+02" cType="1" res="-3.7873326800763607e-04" rms="4.5453497767448425e-01" purity="4.9807906150817871e-01" nType="0">
        <Node pos="l" depth="1" NCoef="0" IVar="6" Cut="8.1272232055664062e+01" cType="1" res="-2.4885704740881920e-02" rms="4.5999649167060852e-01" purity="4.6769595146179199e-01" nType="0">
          <Node pos="l" depth="2" NCoef="0" IVar="-1" Cut="0.0000000000000000e+00" cType="1" res="6.1479391297325492e-04" rms="4.6428251266479492e-01" purity="5.1929706335067749e-01" nType="-99"/>
          <Node pos="r" depth="2" NCoef="0" IVar="-1" Cut="0.0000000000000000e+00" cType="1" res="-3.0212660785764456e-03" rms="4.5125886797904968e-01" purity="4.0984985232353210e-01" nType="-99"/>
        </Node>
        <Node pos="r" depth="1" NCoef="0" IVar="9" Cut="1.3251505126953125e+03" cType="1" res="8.7355198338627815e-03" rms="4.5214825868606567e-01" purity="5.0937867164611816e-01" nType="0">
          <Node pos="l" depth="2" NCoef="0" IVar="-1" Cut="0.0000000000000000e+00" cType="1" res="6.8055611336603761e-04" rms="4.5017522573471069e-01" purity="5.1510286331176758e-01" nType="-99"/>
          <Node pos="r" depth="2" NCoef="0" IVar="-1" Cut="0.0000000000000000e+00" cType="1" res="-2.4855264928191900e-03" rms="4.6867129206657410e-01" purity="4.4504374265670776e-01" nType="-99"/>
        </Node>
      </Node>
    </BinaryTree>
    <BinaryTree type="DecisionTree" boostWeight="1.0000000000000000e+00" itree="426">
      <Node pos="s" depth="0" NCoef="0" IVar="3" Cut="2.7461798191070557e+00" cType="1" res="2.1372842602431774e-03" rms="4.5663741230964661e-01" purity="5.0634896755218506e-01" nType="0">
        <Node pos="l" depth="1" NCoef="0" IVar="4" Cut="4.8613216400146484e+01" cType="1" res="7.5989225879311562e-03" rms="4.6205586194992065e-01" purity="5.2840226888656616e-01" nType="0">
          <Node pos="l" depth="2" NCoef="0" IVar="-1" Cut="0.0000000000000000e+00" cType="1" res="-9.4063609139993787e-04" rms="4.6457198262214661e-01" purity="4.2051360011100769e-01" nType="-99"/>
          <Node pos="r" depth="2" NCoef="0" IVar="-1" Cut="0.0000000000000000e+00" cType="1" res="7.0561468601226807e-04" rms="4.6108734607696533e-01" purity="5.5679440498352051e-01" nType="-99"/>
        </Node>
        <Node pos="r" depth="1" NCoef="0" IVar="-1" Cut="0.0000000000000000e+00" cType="1" res="-4.4207824394106865e-03" rms="3.4772479534149170e-01" purity="1.5406914055347443e-01" nType="-99"/>
      </Node>
    </BinaryTree>
    <BinaryTree type="DecisionTree" boostWeight="1.0000000000000000e+00" itree="427">
      <Node pos="s" depth="0" NCoef="0" IVar="3" Cut="2.1487901210784912e+00" cType="1" res="4.6312632039189339e-03" rms="4.5475983619689941e-01" purity="5.0601190328598022e-01" nType="0">
        <Node pos="l" depth="1" NCoef="0" IVar="6" Cut="5.1306716918945312e+01" cType="1" res="1.9434699788689613e-02" rms="4.6030926704406738e-01" purity="6.0648769140243530e-01" nType="0">
          <Node pos="l" depth="2" NCoef="0" IVar="-1" Cut="0.0000000000000000e+00" cType="1" res="3.6710952408611774e-03" rms="4.4262832403182983e-01" purity="6.7057287693023682e-01" nType="-99"/>
          <Node pos="r" depth="2" NCoef="0" IVar="-1" Cut="0.0000000000000000e+00" cType="1" res="2.4204998044297099e-04" rms="4.6346703171730042e-01" purity="5.9068089723587036e-01" nType="-99"/>
        </Node>
        <Node pos="r" depth="1" NCoef="0" IVar="7" Cut="9.6012425422668457e-01" cType="1" res="-1.1588601395487785e-02" rms="4.4803944230079651e-01" purity="3.9592239260673523e-01" nType="0">
          <Node pos="l" depth="2" NCoef="0" IVar="-1" Cut="0.0000000000000000e+00" cType="1" res="-1.0514993919059634e-03" rms="4.4019532203674316e-01" purity="3.2723590731620789e-01" nType="-99"/>
          <Node pos="r" depth="2" NCoef="0" IVar="-1" Cut="0.0000000000000000e+00" cType="1" res="6.0705048963427544e-04" rms="4.6274837851524353e-01" purity="5.3686326742172241e-01" nType="-99"/>
        </Node>
      </Node>
    </BinaryTree>
    <BinaryTree type="DecisionTree" boostWeight="1.0000000000000000e+00" itree="428">
      <Node pos="s" depth="0" NCoef="0" IVar="2" Cut="1.5658613443374634e+00" cType="1" res="3.1566794496029615e-03" rms="4.5740783214569092e-01" purity="5.0293457508087158e-01" nType="0">
        <Node pos="l" depth="1" NCoef="0" IVar="7" Cut="9.8643714189529419e-01" cType="1" res="8.4906630218029022e-03" rms="4.6373987197875977e-01" purity="5.3678113222122192e-01" nType="0">
          <Node pos="l" depth="2" NCoef="0" IVar="-1" Cut="0.0000000000000000e+00" cType="1" res="2.3638065613340586e-04" rms="4.6604385972023010e-01" purity="5.2508455514907837e-01" nType="-99"/>
          <Node pos="r" depth="2" NCoef="0" IVar="-1" Cut="0.0000000000000000e+00" cType="1" res="3.4247809089720249e-03" rms="4.2056369781494141e-01" purity="7.2854709625244141e-01" nType="-99"/>
        </Node>
        <Node pos="r" depth="1" NCoef="0" IVar="3" Cut="2.5706217288970947e+00" cType="1" res="-3.6110777407884598e-02" rms="4.0562435984611511e-01" purity="2.5376543402671814e-01" nType="0">
          <Node pos="l" depth="2" NCoef="0" IVar="-1" Cut="0.0000000000000000e+00" cType="1" res="-3.7338363472372293e-04" rms="4.5192676782608032e-01" purity="3.3996492624282837e-01" nType="-99"/>
          <Node pos="r" depth="2" NCoef="0" IVar="-1" Cut="0.0000000000000000e+00" cType="1" res="-3.5759881138801575e-03" rms="3.4498915076255798e-01" purity="1.5881139039993286e-01" nType="-99"/>
        </Node>
      </Node>
    </BinaryTree>
    <BinaryTree type="DecisionTree" boostWeight="1.0000000000000000e+00" itree="429">
      <Node pos="s" depth="0" NCoef="0" IVar="9" Cut="7.4240051269531250e+02" cType="1" res="-4.6536447480320930e-03" rms="4.5897689461708069e-01" purity="4.9959123134613037e-01" nType="0">
        <Node pos="l" depth="1" NCoef="0" IVar="2" Cut="1.0100020170211792e+00" cType="1" res="-1.8853148445487022e-02" rms="4.5807474851608276e-01" purity="4.6818366646766663e-01" nType="0">
          <Node pos="l" depth="2" NCoef="0" IVar="-1" Cut="0.0000000000000000e+00" cType="1" res="1.5739674563519657e-04" rms="4.6394708752632141e-01" purity="6.1419212818145752e-01" nType="-99"/>
          <Node pos="r" depth="2" NCoef="0" IVar="-1" Cut="0.0000000000000000e+00" cType="1" res="-1.5648603439331055e-03" rms="4.5308437943458557e-01" purity="3.6219203472137451e-01" nType="-99"/>
        </Node>
        <Node pos="r" depth="1" NCoef="0" IVar="4" Cut="1.4774317932128906e+02" cType="1" res="1.1395658366382122e-02" rms="4.5946639776229858e-01" purity="5.3509038686752319e-01" nType="0">
          <Node pos="l" depth="2" NCoef="0" IVar="-1" Cut="0.0000000000000000e+00" cType="1" res="8.8964879978448153e-04" rms="4.5907559990882874e-01" purity="5.5865806341171265e-01" nType="-99"/>
          <Node pos="r" depth="2" NCoef="0" IVar="-1" Cut="0.0000000000000000e+00" cType="1" res="-1.9228424644097686e-03" rms="4.5865964889526367e-01" purity="3.6885315179824829e-01" nType="-99"/>
        </Node>
      </Node>
    </BinaryTree>
    <BinaryTree type="DecisionTree" boostWeight="1.0000000000000000e+00" itree="430">
      <Node pos="s" depth="0" NCoef="0" IVar="9" Cut="7.2920794677734375e+02" cType="1" res="-4.1883210651576519e-03" rms="4.5822614431381226e-01" purity="4.9694493412971497e-01" nType="0">
        <Node pos="l" depth="1" NCoef="0" IVar="6" Cut="1.0165402984619141e+02" cType="1" res="-1.4690415933728218e-02" rms="4.5848426222801208e-01" purity="4.6574047207832336e-01" nType="0">
          <Node pos="l" depth="2" NCoef="0" IVar="-1" Cut="0.0000000000000000e+00" cType="1" res="-1.2272938329260796e-04" rms="4.6143704652786255e-01" purity="4.8320579528808594e-01" nType="-99"/>
          <Node pos="r" depth="2" NCoef="0" IVar="-1" Cut="0.0000000000000000e+00" cType="1" res="-2.3344408255070448e-03" rms="4.4701975584030151e-01" purity="4.1099572181701660e-01" nType="-99"/>
        </Node>
        <Node pos="r" depth="1" NCoef="0" IVar="2" Cut="1.1558537483215332e+00" cType="1" res="7.3810527101159096e-03" rms="4.5766270160675049e-01" purity="5.3132057189941406e-01" nType="0">
          <Node pos="l" depth="2" NCoef="0" IVar="-1" Cut="0.0000000000000000e+00" cType="1" res="-4.9258436774834991e-04" rms="4.6131747961044312e-01" purity="5.9913402795791626e-01" nType="-99"/>
          <Node pos="r" depth="2" NCoef="0" IVar="-1" Cut="0.0000000000000000e+00" cType="1" res="1.4467656146734953e-03" rms="4.5151081681251526e-01" purity="4.3881288170814514e-01" nType="-99"/>
        </Node>
      </Node>
    </BinaryTree>
    <BinaryTree type="DecisionTree" boostWeight="1.0000000000000000e+00" itree="431">
      <Node pos="s" depth="0" NCoef="0" IVar="5" Cut="1.4902846515178680e-01" cType="1" res="3.3956959377974272e-03" rms="4.5773932337760925e-01" purity="5.0363337993621826e-01" nType="0">
        <Node pos="l" depth="1" NCoef="0" IVar="6" Cut="1.1184640502929688e+02" cType="1" res="-4.3277144432067871e-03" rms="4.5793458819389343e-01" purity="4.7065359354019165e-01" nType="0">
          <Node pos="l" depth="2" NCoef="0" IVar="-1" Cut="0.0000000000000000e+00" cType="1" res="-6.2425574287772179e-04" rms="4.5633900165557861e-01" purity="4.6426111459732056e-01" nType="-99"/>
          <Node pos="r" depth="2" NCoef="0" IVar="-1" Cut="0.0000000000000000e+00" cType="1" res="1.1483727721497416e-03" rms="4.6163287758827209e-01" purity="4.9052858352661133e-01" nType="-99"/>
        </Node>
        <Node pos="r" depth="1" NCoef="0" IVar="8" Cut="1.2838480472564697e+00" cType="1" res="3.2957028597593307e-02" rms="4.5578363537788391e-01" purity="6.2986332178115845e-01" nType="0">
          <Node pos="l" depth="2" NCoef="0" IVar="-1" Cut="0.0000000000000000e+00" cType="1" res="8.7744282791391015e-04" rms="4.5255953073501587e-01" purity="6.4467585086822510e-01" nType="-99"/>
          <Node pos="r" depth="2" NCoef="0" IVar="-1" Cut="0.0000000000000000e+00" cType="1" res="3.5569714382290840e-03" rms="4.6238330006599426e-01" purity="5.8540016412734985e-01" nType="-99"/>
        </Node>
      </Node>
    </BinaryTree>
    <BinaryTree type="DecisionTree" boostWeight="1.0000000000000000e+00" itree="432">
      <Node pos="s" depth="0" NCoef="0" IVar="4" Cut="1.4495886230468750e+02" cType="1" res="-3.9276592433452606e-03" rms="4.5552971959114075e-01" purity="4.9616935849189758e-01" nType="0">
        <Node pos="l" depth="1" NCoef="0" IVar="4" Cut="5.9598648071289062e+01" cType="1" res="1.8512486713007092e-04" rms="4.5576456189155579e-01" purity="5.0850629806518555e-01" nType="0">
          <Node pos="l" depth="2" NCoef="0" IVar="-1" Cut="0.0000000000000000e+00" cType="1" res="-9.4504497246816754e-04" rms="4.6115022897720337e-01" purity="4.3574482202529907e-01" nType="-99"/>
          <Node pos="r" depth="2" NCoef="0" IVar="-1" Cut="0.0000000000000000e+00" cType="1" res="6.0909509193152189e-04" rms="4.5205399394035339e-01" purity="5.5174529552459717e-01" nType="-99"/>
        </Node>
        <Node pos="r" depth="1" NCoef="0" IVar="-1" Cut="0.0000000000000000e+00" cType="1" res="-2.3148462641984224e-03" rms="4.5021471381187439e-01" purity="3.5586926341056824e-01" nType="-99"/>
      </Node>
    </BinaryTree>
    <BinaryTree type="DecisionTree" boostWeight="1.0000000000000000e+00" itree="433">
      <Node pos="s" depth="0" NCoef="0" IVar="4" Cut="1.0065576934814453e+02" cType="1" res="1.5415020752698183e-03" rms="4.5886817574501038e-01" purity="5.0493359565734863e-01" nType="0">
        <Node pos="l" depth="1" NCoef="0" IVar="6" Cut="1.1092444610595703e+02" cType="1" res="-6.8773883394896984e-03" rms="4.6296301484107971e-01" purity="4.8490467667579651e-01" nType="0">
          <Node pos="l" depth="2" NCoef="0" IVar="-1" Cut="0.0000000000000000e+00" cType="1" res="3.4931188565678895e-05" rms="4.6274140477180481e-01" purity="4.9861669540405273e-01" nType="-99"/>
          <Node pos="r" depth="2" NCoef="0" IVar="-1" Cut="0.0000000000000000e+00" cType="1" res="-1.5322443796321750e-03" rms="4.6272516250610352e-01" purity="4.3599152565002441e-01" nType="-99"/>
        </Node>
        <Node pos="r" depth="1" NCoef="0" IVar="4" Cut="1.3505508422851562e+02" cType="1" res="2.0487381145358086e-02" rms="4.4893971085548401e-01" purity="5.5000668764114380e-01" nType="0">
          <Node pos="l" depth="2" NCoef="0" IVar="-1" Cut="0.0000000000000000e+00" cType="1" res="2.1462426520884037e-03" rms="4.4533690810203552e-01" purity="6.1829090118408203e-01" nType="-99"/>
          <Node pos="r" depth="2" NCoef="0" IVar="-1" Cut="0.0000000000000000e+00" cType="1" res="-1.0378439910709858e-03" rms="4.5249146223068237e-01" purity="4.2301672697067261e-01" nType="-99"/>
        </Node>
      </Node>
    </BinaryTree>
    <BinaryTree type="DecisionTree" boostWeight="1.0000000000000000e+00" itree="434">
      <Node pos="s" depth="0" NCoef="0" IVar="1" Cut="9.3066810607910156e+01" cType="1" res="7.1254209615290165e-04" rms="4.5831826329231262e-01" purity="5.0093126296997070e-01" nType="0">
        <Node pos="l" depth="1" NCoef="0" IVar="6" Cut="6.7881568908691406e+01" cType="1" res="-4.3760064989328384e-02" rms="4.5173403620719910e-01" purity="4.1867670416831970e-01" nType="0">
          <Node pos="l" depth="2" NCoef="0" IVar="-1" Cut="0.0000000000000000e+00" cType="1" res="8.4428873378783464e-05" rms="4.6235567331314087e-01" purity="4.9393871426582336e-01" nType="-99"/>
          <Node pos="r" depth="2" NCoef="0" IVar="-1" Cut="0.0000000000000000e+00" cType="1" res="-3.2101208344101906e-03" rms="4.4252133369445801e-01" purity="3.7134411931037903e-01" nType="-99"/>
        </Node>
        <Node pos="r" depth="1" NCoef="0" IVar="4" Cut="1.2614981079101562e+02" cType="1" res="1.1183252558112144e-02" rms="4.5922881364822388e-01" purity="5.2029746770858765e-01" nType="0">
          <Node pos="l" depth="2" NCoef="0" IVar="-1" Cut="0.0000000000000000e+00" cType="1" res="8.6166261462494731e-04" rms="4.5954820513725281e-01" purity="5.3490018844604492e-01" nType="-99"/>
          <Node pos="r" depth="2" NCoef="0" IVar="-1" Cut="0.0000000000000000e+00" cType="1" res="-1.0097088525071740e-03" rms="4.5638126134872437e-01" purity="4.5607876777648926e-01" nType="-99"/>
        </Node>
      </Node>
    </BinaryTree>
    <BinaryTree type="DecisionTree" boostWeight="1.0000000000000000e+00" itree="435">
      <Node pos="s" depth="0" NCoef="0" IVar="1" Cut="4.3836911010742188e+02" cType="1" res="-3.5054055042564869e-03" rms="4.5532000064849854e-01" purity="4.9819484353065491e-01" nType="0">
        <Node pos="l" depth="1" NCoef="0" IVar="9" Cut="5.0806143188476562e+02" cType="1" res="6.9575099041685462e-04" rms="4.5605963468551636e-01" purity="5.1395106315612793e-01" nType="0">
          <Node pos="l" depth="2" NCoef="0" IVar="-1" Cut="0.0000000000000000e+00" cType="1" res="-1.4959356049075723e-03" rms="4.3819347023963928e-01" purity="3.9671674370765686e-01" nType="-99"/>
          <Node pos="r" depth="2" NCoef="0" IVar="-1" Cut="0.0000000000000000e+00" cType="1" res="3.0150532256811857e-04" rms="4.5888462662696838e-01" purity="5.3458338975906372e-01" nType="-99"/>
        </Node>
        <Node pos="r" depth="1" NCoef="0" IVar="-1" Cut="0.0000000000000000e+00" cType="1" res="-2.5115583557635546e-03" rms="4.4287726283073425e-01" purity="3.0442866683006287e-01" nType="-99"/>
      </Node>
    </BinaryTree>
    <BinaryTree type="DecisionTree" boostWeight="1.0000000000000000e+00" itree="436">
      <Node pos="s" depth="0" NCoef="0" IVar="7" Cut="9.2617577314376831e-01" cType="1" res="-3.1381552107632160e-03" rms="4.5661780238151550e-01" purity="4.9777570366859436e-01" nType="0">
        <Node pos="l" depth="1" NCoef="0" IVar="4" Cut="7.1472038269042969e+01" cType="1" res="-3.6675974726676941e-02" rms="4.1971060633659363e-01" purity="2.8385949134826660e-01" nType="0">
          <Node pos="l" depth="2" NCoef="0" IVar="-1" Cut="0.0000000000000000e+00" cType="1" res="-8.0073694698512554e-04" rms="4.2763850092887878e-01" purity="3.0054581165313721e-01" nType="-99"/>
          <Node pos="r" depth="2" NCoef="0" IVar="-1" Cut="0.0000000000000000e+00" cType="1" res="-2.2806283086538315e-03" rms="4.1190290451049805e-01" purity="2.6909455657005310e-01" nType="-99"/>
        </Node>
        <Node pos="r" depth="1" NCoef="0" IVar="0" Cut="5.7878031730651855e+00" cType="1" res="3.0249506235122681e-03" rms="4.6281599998474121e-01" purity="5.3708624839782715e-01" nType="0">
          <Node pos="l" depth="2" NCoef="0" IVar="-1" Cut="0.0000000000000000e+00" cType="1" res="3.4503899514675140e-03" rms="4.7142824530601501e-01" purity="4.7177416086196899e-01" nType="-99"/>
          <Node pos="r" depth="2" NCoef="0" IVar="-1" Cut="0.0000000000000000e+00" cType="1" res="-1.3628945453092456e-04" rms="4.6160930395126343e-01" purity="5.4222762584686279e-01" nType="-99"/>
        </Node>
      </Node>
    </BinaryTree>
    <BinaryTree type="DecisionTree" boostWeight="1.0000000000000000e+00" itree="437">
      <Node pos="s" depth="0" NCoef="0" IVar="4" Cut="3.9310810089111328e+01" cType="1" res="-5.5698230862617493e-03" rms="4.5793807506561279e-01" purity="4.9232679605484009e-01" nType="0">
        <Node pos="l" depth="1" NCoef="0" IVar="-1" Cut="0.0000000000000000e+00" cType="1" res="-2.7126318309456110e-03" rms="4.3952530622482300e-01" purity="3.5175985097885132e-01" nType="-99"/>
        <Node pos="r" depth="1" NCoef="0" IVar="2" Cut="1.3161706924438477e+00" cType="1" res="1.1136272223666310e-03" rms="4.5965203642845154e-01" purity="5.0924241542816162e-01" nType="0">
          <Node pos="l" depth="2" NCoef="0" IVar="-1" Cut="0.0000000000000000e+00" cType="1" res="-3.2771145924925804e-04" rms="4.6579265594482422e-01" purity="5.6561350822448730e-01" nType="-99"/>
          <Node pos="r" depth="2" NCoef="0" IVar="-1" Cut="0.0000000000000000e+00" cType="1" res="1.0252739302814007e-03" rms="4.4322580099105835e-01" purity="3.6806854605674744e-01" nType="-99"/>
        </Node>
      </Node>
    </BinaryTree>
    <BinaryTree type="DecisionTree" boostWeight="1.0000000000000000e+00" itree="438">
      <Node pos="s" depth="0" NCoef="0" IVar="4" Cut="7.2836936950683594e+01" cType="1" res="3.2711222302168608e-03" rms="4.5699930191040039e-01" purity="5.0485217571258545e-01" nType="0">
        <Node pos="l" depth="1" NCoef="0" IVar="1" Cut="1.6623120117187500e+02" cType="1" res="-1.2462621554732323e-02" rms="4.6369016170501709e-01" purity="4.6256217360496521e-01" nType="0">
          <Node pos="l" depth="2" NCoef="0" IVar="-1" Cut="0.0000000000000000e+00" cType="1" res="1.6200919344555587e-04" rms="4.6778079867362976e-01" purity="5.0109529495239258e-01" nType="-99"/>
          <Node pos="r" depth="2" NCoef="0" IVar="-1" Cut="0.0000000000000000e+00" cType="1" res="-1.9287111936137080e-03" rms="4.5390334725379944e-01" purity="3.8690242171287537e-01" nType="-99"/>
        </Node>
        <Node pos="r" depth="1" NCoef="0" IVar="5" Cut="8.7475515902042389e-02" cType="1" res="1.7562372609972954e-02" rms="4.5035967230796814e-01" purity="5.4326492547988892e-01" nType="0">
          <Node pos="l" depth="2" NCoef="0" IVar="-1" Cut="0.0000000000000000e+00" cType="1" res="8.4221603174228221e-05" rms="4.5480498671531677e-01" purity="4.7568595409393311e-01" nType="-99"/>
          <Node pos="r" depth="2" NCoef="0" IVar="-1" Cut="0.0000000000000000e+00" cType="1" res="1.9208922749385238e-03" rms="4.4331371784210205e-01" purity="6.3557821512222290e-01" nType="-99"/>
        </Node>
      </Node>
    </BinaryTree>
    <BinaryTree type="DecisionTree" boostWeight="1.0000000000000000e+00" itree="439">
      <Node pos="s" depth="0" NCoef="0" IVar="3" Cut="1.6664035320281982e+00" cType="1" res="-5.3671933710575104e-03" rms="4.5560991764068604e-01" purity="4.9378207325935364e-01" nType="0">
        <Node pos="l" depth="1" NCoef="0" IVar="-1" Cut="0.0000000000000000e+00" cType="1" res="2.2183100227266550e-03" rms="4.5349842309951782e-01" purity="6.1350905895233154e-01" nType="-99"/>
        <Node pos="r" depth="1" NCoef="0" IVar="7" Cut="9.5848810672760010e-01" cType="1" res="-9.2187067493796349e-03" rms="4.5551803708076477e-01" purity="4.8518860340118408e-01" nType="0">
          <Node pos="l" depth="2" NCoef="0" IVar="-1" Cut="0.0000000000000000e+00" cType="1" res="-8.8803324615582824e-04" rms="4.5873832702636719e-01" purity="4.0776968002319336e-01" nType="-99"/>
          <Node pos="r" depth="2" NCoef="0" IVar="-1" Cut="0.0000000000000000e+00" cType="1" res="4.2901645065285265e-04" rms="4.4977417588233948e-01" purity="6.0836052894592285e-01" nType="-99"/>
        </Node>
      </Node>
    </BinaryTree>
    <BinaryTree type="DecisionTree" boostWeight="1.0000000000000000e+00" itree="440">
      <Node pos="s" depth="0" NCoef="0" IVar="5" Cut="2.0125921815633774e-02" cType="1" res="2.5891785044223070e-03" rms="4.5599624514579773e-01" purity="5.0136739015579224e-01" nType="0">
        <Node pos="l" depth="1" NCoef="0" IVar="-1" Cut="0.0000000000000000e+00" cType="1" res="-2.3899280931800604e-03" rms="4.4127184152603149e-01" purity="3.3738645911216736e-01" nType="-99"/>
        <Node pos="r" depth="1" NCoef="0" IVar="1" Cut="1.5080517578125000e+02" cType="1" res="6.6059422679245472e-03" rms="4.5675966143608093e-01" purity="5.1303154230117798e-01" nType="0">
          <Node pos="l" depth="2" NCoef="0" IVar="-1" Cut="0.0000000000000000e+00" cType="1" res="9.4917655223980546e-04" rms="4.5274689793586731e-01" purity="5.5996930599212646e-01" nType="-99"/>
          <Node pos="r" depth="2" NCoef="0" IVar="-1" Cut="0.0000000000000000e+00" cType="1" res="-3.3819978125393391e-04" rms="4.6048662066459656e-01" purity="4.6406802535057068e-01" nType="-99"/>
        </Node>
      </Node>
    </BinaryTree>
    <BinaryTree type="DecisionTree" boostWeight="1.0000000000000000e+00" itree="441">
      <Node pos="s" depth="0" NCoef="0" IVar="7" Cut="9.3450826406478882e-01" cType="1" res="4.6219890937209129e-03" rms="4.5633870363235474e-01" purity="5.0683480501174927e-01" nType="0">
        <Node pos="l" depth="1" NCoef="0" IVar="3" Cut="1.9736510515213013e+00" cType="1" res="-1.9319152459502220e-02" rms="4.4155031442642212e-01" purity="3.3540260791778564e-01" nType="0">
          <Node pos="l" depth="2" NCoef="0" IVar="-1" Cut="0.0000000000000000e+00" cType="1" res="1.5590765979140997e-03" rms="4.6877351403236389e-01" purity="4.8118102550506592e-01" nType="-99"/>
          <Node pos="r" depth="2" NCoef="0" IVar="-1" Cut="0.0000000000000000e+00" cType="1" res="-1.7118323594331741e-03" rms="4.3019703030586243e-01" purity="2.8604710102081299e-01" nType="-99"/>
        </Node>
        <Node pos="r" depth="1" NCoef="0" IVar="0" Cut="6.2985138893127441e+00" cType="1" res="1.2256872840225697e-02" rms="4.6069341897964478e-01" purity="5.6150490045547485e-01" nType="0">
          <Node pos="l" depth="2" NCoef="0" IVar="-1" Cut="0.0000000000000000e+00" cType="1" res="2.2012493573129177e-03" rms="4.7222986817359924e-01" purity="4.7504612803459167e-01" nType="-99"/>
          <Node pos="r" depth="2" NCoef="0" IVar="-1" Cut="0.0000000000000000e+00" cType="1" res="3.1257490627467632e-04" rms="4.5865178108215332e-01" purity="5.7457745075225830e-01" nType="-99"/>
        </Node>
      </Node>
    </BinaryTree>
    <BinaryTree type="DecisionTree" boostWeight="1.0000000000000000e+00" itree="442">
      <Node pos="s" depth="0" NCoef="0" IVar="6" Cut="5.1400917053222656e+01" cType="1" res="1.0110700968652964e-03" rms="4.5533084869384766e-01" purity="5.0213682651519775e-01" nType="0">
        <Node pos="l" depth="1" NCoef="0" IVar="5" Cut="1.2912867963314056e-01" cType="1" res="3.6513593047857285e-02" rms="4.5318153500556946e-01" purity="5.5438601970672607e-01" nType="0">
          <Node pos="l" depth="2" NCoef="0" IVar="-1" Cut="0.0000000000000000e+00" cType="1" res="8.2422787090763450e-04" rms="4.5963659882545471e-01" purity="4.9563735723495483e-01" nType="-99"/>
          <Node pos="r" depth="2" NCoef="0" IVar="-1" Cut="0.0000000000000000e+00" cType="1" res="3.7352261133491993e-03" rms="4.3625375628471375e-01" purity="6.8097186088562012e-01" nType="-99"/>
        </Node>
        <Node pos="r" depth="1" NCoef="0" IVar="1" Cut="7.8911964416503906e+01" cType="1" res="-6.9255717098712921e-03" rms="4.5543158054351807e-01" purity="4.9045643210411072e-01" nType="0">
          <Node pos="l" depth="2" NCoef="0" IVar="-1" Cut="0.0000000000000000e+00" cType="1" res="-1.9656519871205091e-03" rms="4.5589926838874817e-01" purity="3.8538628816604614e-01" nType="-99"/>
          <Node pos="r" depth="2" NCoef="0" IVar="-1" Cut="0.0000000000000000e+00" cType="1" res="-9.1646586952265352e-05" rms="4.5513993501663208e-01" purity="5.0433617830276489e-01" nType="-99"/>
        </Node>
      </Node>
    </BinaryTree>
    <BinaryTree type="DecisionTree" boostWeight="1.0000000000000000e+00" itree="443">
      <Node pos="s" depth="0" NCoef="0" IVar="9" Cut="1.3968256835937500e+03" cType="1" res="-4.5882491394877434e-04" rms="4.5744451880455017e-01" purity="5.0096845626831055e-01" nType="0">
        <Node pos="l" depth="1" NCoef="0" IVar="1" Cut="8.9218498229980469e+01" cType="1" res="2.4684988893568516e-03" rms="4.5639967918395996e-01" purity="5.0304096937179565e-01" nType="0">
          <Node pos="l" depth="2" NCoef="0" IVar="-1" Cut="0.0000000000000000e+00" cType="1" res="-1.2126195942983031e-03" rms="4.6326652169227600e-01" purity="4.2749029397964478e-01" nType="-99"/>
          <Node pos="r" depth="2" NCoef="0" IVar="-1" Cut="0.0000000000000000e+00" cType="1" res="4.1079768561758101e-04" rms="4.5465785264968872e-01" purity="5.1927697658538818e-01" nType="-99"/>
        </Node>
        <Node pos="r" depth="1" NCoef="0" IVar="-1" Cut="0.0000000000000000e+00" cType="1" res="-2.3869175929576159e-03" rms="4.7311657667160034e-01" purity="4.6259093284606934e-01" nType="-99"/>
      </Node>
    </BinaryTree>
    <BinaryTree type="DecisionTree" boostWeight="1.0000000000000000e+00" itree="444">
      <Node pos="s" depth="0" NCoef="0" IVar="5" Cut="1.9445873796939850e-02" cType="1" res="-6.2510604038834572e-04" rms="4.5749175548553467e-01" purity="5.0390899181365967e-01" nType="0">
        <Node pos="l" depth="1" NCoef="0" IVar="-1" Cut="0.0000000000000000e+00" cType="1" res="-2.7312748134136200e-03" rms="4.3493399024009705e-01" purity="3.2603964209556580e-01" nType="-99"/>
        <Node pos="r" depth="1" NCoef="0" IVar="1" Cut="3.3612942504882812e+02" cType="1" res="3.2064735423773527e-03" rms="4.5862069725990295e-01" purity="5.1521700620651245e-01" nType="0">
          <Node pos="l" depth="2" NCoef="0" IVar="-1" Cut="0.0000000000000000e+00" cType="1" res="3.6216076114214957e-04" rms="4.5983368158340454e-01" purity="5.3543895483016968e-01" nType="-99"/>
          <Node pos="r" depth="2" NCoef="0" IVar="-1" Cut="0.0000000000000000e+00" cType="1" res="-1.4030433958396316e-03" rms="4.4836556911468506e-01" purity="3.6923339962959290e-01" nType="-99"/>
        </Node>
      </Node>
    </BinaryTree>
    <BinaryTree type="DecisionTree" boostWeight="1.0000000000000000e+00" itree="445">
      <Node pos="s" depth="0" NCoef="0" IVar="3" Cut="2.7270872592926025e+00" cType="1" res="3.0987537465989590e-03" rms="4.5721024274826050e-01" purity="5.0689476728439331e-01" nType="0">
        <Node pos="l" depth="1" NCoef="0" IVar="2" Cut="1.2360497713088989e+00" cType="1" res="6.6877580247819424e-03" rms="4.6205496788024902e-01" purity="5.2739191055297852e-01" nType="0">
          <Node pos="l" depth="2" NCoef="0" IVar="-1" Cut="0.0000000000000000e+00" cType="1" res="-2.0066057913936675e-04" rms="4.6349424123764038e-01" purity="5.7608044147491455e-01" nType="-99"/>
          <Node pos="r" depth="2" NCoef="0" IVar="-1" Cut="0.0000000000000000e+00" cType="1" res="1.4410687144845724e-03" rms="4.5783248543739319e-01" purity="4.1792026162147522e-01" nType="-99"/>
        </Node>
        <Node pos="r" depth="1" NCoef="0" IVar="-1" Cut="0.0000000000000000e+00" cType="1" res="-2.9315666761249304e-03" rms="3.6507138609886169e-01" purity="1.7472907900810242e-01" nType="-99"/>
      </Node>
    </BinaryTree>
    <BinaryTree type="DecisionTree" boostWeight="1.0000000000000000e+00" itree="446">
      <Node pos="s" depth="0" NCoef="0" IVar="1" Cut="6.7283439636230469e+01" cType="1" res="-1.0322518646717072e-02" rms="4.5628505945205688e-01" purity="4.8985916376113892e-01" nType="0">
        <Node pos="l" depth="1" NCoef="0" IVar="-1" Cut="0.0000000000000000e+00" cType="1" res="-3.3745246473699808e-03" rms="4.4738098978996277e-01" purity="3.3992034196853638e-01" nType="-99"/>
        <Node pos="r" depth="1" NCoef="0" IVar="1" Cut="1.6185429382324219e+02" cType="1" res="-3.5938457585871220e-03" rms="4.5662707090377808e-01" purity="5.0492012500762939e-01" nType="0">
          <Node pos="l" depth="2" NCoef="0" IVar="-1" Cut="0.0000000000000000e+00" cType="1" res="7.2114967042580247e-04" rms="4.5686027407646179e-01" purity="5.7803803682327271e-01" nType="-99"/>
          <Node pos="r" depth="2" NCoef="0" IVar="-1" Cut="0.0000000000000000e+00" cType="1" res="-1.0581539245322347e-03" rms="4.5554497838020325e-01" purity="4.2847523093223572e-01" nType="-99"/>
        </Node>
      </Node>
    </BinaryTree>
    <BinaryTree type="DecisionTree" boostWeight="1.0000000000000000e+00" itree="447">
      <Node pos="s" depth="0" NCoef="0" IVar="8" Cut="8.8318395614624023e-01" cType="1" res="-8.2604382187128067e-03" rms="4.5453420281410217e-01" purity="4.9428766965866089e-01" nType="0">
        <Node pos="l" depth="1" NCoef="0" IVar="9" Cut="1.1065892333984375e+03" cType="1" res="9.5562925562262535e-03" rms="4.5689952373504639e-01" purity="5.8644580841064453e-01" nType="0">
          <Node pos="l" depth="2" NCoef="0" IVar="-1" Cut="0.0000000000000000e+00" cType="1" res="9.5243594842031598e-04" rms="4.5428049564361572e-01" purity="5.9951293468475342e-01" nType="-99"/>
          <Node pos="r" depth="2" NCoef="0" IVar="-1" Cut="0.0000000000000000e+00" cType="1" res="-2.1398442331701517e-03" rms="4.6674293279647827e-01" purity="5.1587426662445068e-01" nType="-99"/>
        </Node>
        <Node pos="r" depth="1" NCoef="0" IVar="6" Cut="7.3338882446289062e+01" cType="1" res="-2.3292863741517067e-02" rms="4.5198297500610352e-01" purity="4.1653150320053101e-01" nType="0">
          <Node pos="l" depth="2" NCoef="0" IVar="-1" Cut="0.0000000000000000e+00" cType="1" res="2.0754961587954313e-04" rms="4.5030725002288818e-01" purity="4.5690324902534485e-01" nType="-99"/>
          <Node pos="r" depth="2" NCoef="0" IVar="-1" Cut="0.0000000000000000e+00" cType="1" res="-1.8225198145955801e-03" rms="4.5215842127799988e-01" purity="3.9127320051193237e-01" nType="-99"/>
        </Node>
      </Node>
    </BinaryTree>
    <BinaryTree type="DecisionTree" boostWeight="1.0000000000000000e+00" itree="448">
      <Node pos="s" depth="0" NCoef="0" IVar="2" Cut="6.4598530530929565e-01" cType="1" res="6.1442297883331776e-03" rms="4.5667299628257751e-01" purity="5.0470054149627686e-01" nType="0">
        <Node pos="l" depth="1" NCoef="0" IVar="-1" Cut="0.0000000000000000e+00" cType="1" res="2.6422678492963314e-03" rms="4.2522427439689636e-01" purity="7.2570246458053589e-01" nType="-99"/>
        <Node pos="r" depth="1" NCoef="0" IVar="8" Cut="2.6980620622634888e-01" cType="1" res="1.8512189853936434e-03" rms="4.5941519737243652e-01" purity="4.8303782939910889e-01" nType="0">
          <Node pos="l" depth="2" NCoef="0" IVar="-1" Cut="0.0000000000000000e+00" cType="1" res="2.0131922792643309e-03" rms="4.5906054973602295e-01" purity="6.0878741741180420e-01" nType="-99"/>
          <Node pos="r" depth="2" NCoef="0" IVar="-1" Cut="0.0000000000000000e+00" cType="1" res="-6.5621003159321845e-05" rms="4.5928549766540527e-01" purity="4.7292697429656982e-01" nType="-99"/>
        </Node>
      </Node>
    </BinaryTree>
    <BinaryTree type="DecisionTree" boostWeight="1.0000000000000000e+00" itree="449">
      <Node pos="s" depth="0" NCoef="0" IVar="9" Cut="8.1582220458984375e+02" cType="1" res="-3.1080846674740314e-03" rms="4.5506098866462708e-01" purity="4.9648761749267578e-01" nType="0">
        <Node pos="l" depth="1" NCoef="0" IVar="5" Cut="6.2377680093050003e-02" cType="1" res="-1.6578968614339828e-02" rms="4.5301732420921326e-01" purity="4.7372114658355713e-01" nType="0">
          <Node pos="l" depth="2" NCoef="0" IVar="-1" Cut="0.0000000000000000e+00" cType="1" res="-2.2392517421394587e-03" rms="4.3183064460754395e-01" purity="3.4043622016906738e-01" nType="-99"/>
          <Node pos="r" depth="2" NCoef="0" IVar="-1" Cut="0.0000000000000000e+00" cType="1" res="-1.3326678890734911e-04" rms="4.6090218424797058e-01" purity="5.2948945760726929e-01" nType="-99"/>
        </Node>
        <Node pos="r" depth="1" NCoef="0" IVar="3" Cut="2.0358746051788330e+00" cType="1" res="2.0281653851270676e-02" rms="4.5764678716659546e-01" purity="5.3601753711700439e-01" nType="0">
          <Node pos="l" depth="2" NCoef="0" IVar="-1" Cut="0.0000000000000000e+00" cType="1" res="2.0439720246940851e-03" rms="4.4599604606628418e-01" purity="6.5739405155181885e-01" nType="-99"/>
          <Node pos="r" depth="2" NCoef="0" IVar="-1" Cut="0.0000000000000000e+00" cType="1" res="2.7109644724987447e-04" rms="4.6473366022109985e-01" purity="4.5477682352066040e-01" nType="-99"/>
        </Node>
      </Node>
    </BinaryTree>
    <BinaryTree type="DecisionTree" boostWeight="1.0000000000000000e+00" itree="450">
      <Node pos="s" depth="0" NCoef="0" IVar="4" Cut="1.3030455017089844e+02" cType="1" res="7.5535797514021397e-03" rms="4.5972123742103577e-01" purity="5.1174938678741455e-01" nType="0">
        <Node pos="l" depth="1" NCoef="0" IVar="4" Cut="1.0924158477783203e+02" cType="1" res="1.3565849512815475e-02" rms="4.6074694395065308e-01" purity="5.2389264106750488e-01" nType="0">
          <Node pos="l" depth="2" NCoef="0" IVar="-1" Cut="0.0000000000000000e+00" cType="1" res="3.4004665212705731e-04" rms="4.6291905641555786e-01" purity="5.0468462705612183e-01" nType="-99"/>
          <Node pos="r" depth="2" NCoef="0" IVar="-1" Cut="0.0000000000000000e+00" cType="1" res="2.6252362877130508e-03" rms="4.4510936737060547e-01" purity="6.4326465129852295e-01" nType="-99"/>
        </Node>
        <Node pos="r" depth="1" NCoef="0" IVar="4" Cut="1.4603450012207031e+02" cType="1" res="-3.4003514796495438e-02" rms="4.5037844777107239e-01" purity="4.2781454324722290e-01" nType="0">
          <Node pos="l" depth="2" NCoef="0" IVar="-1" Cut="0.0000000000000000e+00" cType="1" res="-2.8658017981797457e-03" rms="4.4888877868652344e-01" purity="4.7943508625030518e-01" nType="-99"/>
          <Node pos="r" depth="2" NCoef="0" IVar="-1" Cut="0.0000000000000000e+00" cType="1" res="-6.3704594504088163e-04" rms="4.5031866431236267e-01" purity="3.9126235246658325e-01" nType="-99"/>
        </Node>
      </Node>
    </BinaryTree>
    <BinaryTree type="DecisionTree" boostWeight="1.0000000000000000e+00" itree="451">
      <Node pos="s" depth="0" NCoef="0" IVar="4" Cut="3.8743186950683594e+01" cType="1" res="-1.9089297857135534e-03" rms="4.5701113343238831e-01" purity="4.9744391441345215e-01" nType="0">
        <Node pos="l" depth="1" NCoef="0" IVar="-1" Cut="0.0000000000000000e+00" cType="1" res="-1.6375372651964426e-03" rms="4.5522928237915039e-01" purity="3.7258365750312805e-01" nType="-99"/>
        <Node pos="r" depth="1" NCoef="0" IVar="3" Cut="2.4855012893676758e+00" cType="1" res="1.7876878846436739e-03" rms="4.5704469084739685e-01" purity="5.1072049140930176e-01" nType="0">
          <Node pos="l" depth="2" NCoef="0" IVar="-1" Cut="0.0000000000000000e+00" cType="1" res="3.2822601497173309e-04" rms="4.6535283327102661e-01" purity="5.6539422273635864e-01" nType="-99"/>
          <Node pos="r" depth="2" NCoef="0" IVar="-1" Cut="0.0000000000000000e+00" cType="1" res="-1.1137290857732296e-03" rms="4.1626858711242676e-01" purity="2.6193770766258240e-01" nType="-99"/>
        </Node>
      </Node>
    </BinaryTree>
    <BinaryTree type="DecisionTree" boostWeight="1.0000000000000000e+00" itree="452">
      <Node pos="s" depth="0" NCoef="0" IVar="2" Cut="6.8679523468017578e-01" cType="1" res="-5.1185693591833115e-03" rms="4.5436435937881470e-01" purity="4.9506518244743347e-01" nType="0">
        <Node pos="l" depth="1" NCoef="0" IVar="4" Cut="6.9838165283203125e+01" cType="1" res="4.7960575670003891e-02" rms="4.3109679222106934e-01" purity="7.2484731674194336e-01" nType="0">
          <Node pos="l" depth="2" NCoef="0" IVar="-1" Cut="0.0000000000000000e+00" cType="1" res="1.5349559253081679e-03" rms="4.6255263686180115e-01" purity="6.6760301589965820e-01" nType="-99"/>
          <Node pos="r" depth="2" NCoef="0" IVar="-1" Cut="0.0000000000000000e+00" cType="1" res="4.0641687810420990e-03" rms="3.8746854662895203e-01" purity="7.9602390527725220e-01" nType="-99"/>
        </Node>
        <Node pos="r" depth="1" NCoef="0" IVar="6" Cut="1.4379612731933594e+02" cType="1" res="-1.1853021569550037e-02" rms="4.5679113268852234e-01" purity="4.6591147780418396e-01" nType="0">
          <Node pos="l" depth="2" NCoef="0" IVar="-1" Cut="0.0000000000000000e+00" cType="1" res="-3.1109154224395752e-04" rms="4.5585876703262329e-01" purity="4.7318667173385620e-01" nType="-99"/>
          <Node pos="r" depth="2" NCoef="0" IVar="-1" Cut="0.0000000000000000e+00" cType="1" res="-3.3017059322446585e-03" rms="4.6385517716407776e-01" purity="3.6987066268920898e-01" nType="-99"/>
        </Node>
      </Node>
    </BinaryTree>
    <BinaryTree type="DecisionTree" boostWeight="1.0000000000000000e+00" itree="453">
      <Node pos="s" depth="0" NCoef="0" IVar="1" Cut="2.5953863525390625e+02" cType="1" res="1.6760003054514527e-03" rms="4.5481193065643311e-01" purity="5.0436055660247803e-01" nType="0">
        <Node pos="l" depth="1" NCoef="0" IVar="9" Cut="5.3197949218750000e+02" cType="1" res="9.1830855235457420e-03" rms="4.5526778697967529e-01" purity="5.3839349746704102e-01" nType="0">
          <Node pos="l" depth="2" NCoef="0" IVar="-1" Cut="0.0000000000000000e+00" cType="1" res="-1.2083015171810985e-03" rms="4.5222076773643494e-01" purity="4.2929595708847046e-01" nType="-99"/>
          <Node pos="r" depth="2" NCoef="0" IVar="-1" Cut="0.0000000000000000e+00" cType="1" res="8.8999519357457757e-04" rms="4.5560416579246521e-01" purity="5.6799626350402832e-01" nType="-99"/>
        </Node>
        <Node pos="r" depth="1" NCoef="0" IVar="2" Cut="1.2176098823547363e+00" cType="1" res="-2.2861134260892868e-02" rms="4.5245075225830078e-01" purity="3.9312300086021423e-01" nType="0">
          <Node pos="l" depth="2" NCoef="0" IVar="-1" Cut="0.0000000000000000e+00" cType="1" res="-2.2779216524213552e-03" rms="4.6303737163543701e-01" purity="4.6294978260993958e-01" nType="-99"/>
          <Node pos="r" depth="2" NCoef="0" IVar="-1" Cut="0.0000000000000000e+00" cType="1" res="5.0316361011937261e-04" rms="4.3814450502395630e-01" purity="3.1664645671844482e-01" nType="-99"/>
        </Node>
      </Node>
    </BinaryTree>
    <BinaryTree type="DecisionTree" boostWeight="1.0000000000000000e+00" itree="454">
      <Node pos="s" depth="0" NCoef="0" IVar="1" Cut="1.3882148742675781e+02" cType="1" res="-1.0370568372309208e-02" rms="4.5457187294960022e-01" purity="4.9065634608268738e-01" nType="0">
        <Node pos="l" depth="1" NCoef="0" IVar="1" Cut="1.0135516357421875e+02" cType="1" res="7.5442134402692318e-03" rms="4.5253017544746399e-01" purity="5.4599732160568237e-01" nType="0">
          <Node pos="l" depth="2" NCoef="0" IVar="-1" Cut="0.0000000000000000e+00" cType="1" res="-8.2658056635409594e-04" rms="4.5990794897079468e-01" purity="4.6137151122093201e-01" nType="-99"/>
          <Node pos="r" depth="2" NCoef="0" IVar="-1" Cut="0.0000000000000000e+00" cType="1" res="1.6624265117570758e-03" rms="4.4330218434333801e-01" purity="6.3271647691726685e-01" nType="-99"/>
        </Node>
        <Node pos="r" depth="1" NCoef="0" IVar="3" Cut="2.1013247966766357e+00" cType="1" res="-2.5629460811614990e-02" rms="4.5574867725372314e-01" purity="4.4351980090141296e-01" nType="0">
          <Node pos="l" depth="2" NCoef="0" IVar="-1" Cut="0.0000000000000000e+00" cType="1" res="-2.4400898837484419e-04" rms="4.7058930993080139e-01" purity="5.8110892772674561e-01" nType="-99"/>
          <Node pos="r" depth="2" NCoef="0" IVar="-1" Cut="0.0000000000000000e+00" cType="1" res="-1.6592132160440087e-03" rms="4.4685092568397522e-01" purity="3.6669588088989258e-01" nType="-99"/>
        </Node>
      </Node>
    </BinaryTree>
    <BinaryTree type="DecisionTree" boostWeight="1.0000000000000000e+00" itree="455">
      <Node pos="s" depth="0" NCoef="0" IVar="4" Cut="5.2552135467529297e+01" cType="1" res="-3.1759813427925110e-03" rms="4.5557436347007751e-01" purity="4.9590721726417542e-01" nType="0">
        <Node pos="l" depth="1" NCoef="0" IVar="4" Cut="3.7243076324462891e+01" cType="1" res="-2.5221578776836395e-02" rms="4.5791971683502197e-01" purity="4.1937792301177979e-01" nType="0">
          <Node pos="l" depth="2" NCoef="0" IVar="-1" Cut="0.0000000000000000e+00" cType="1" res="-2.4908115155994892e-03" rms="4.4735342264175415e-01" purity="3.5578489303588867e-01" nType="-99"/>
          <Node pos="r" depth="2" NCoef="0" IVar="-1" Cut="0.0000000000000000e+00" cType="1" res="-4.0124126826412976e-04" rms="4.6229487657546997e-01" purity="4.5128920674324036e-01" nType="-99"/>
        </Node>
        <Node pos="r" depth="1" NCoef="0" IVar="1" Cut="3.6321228027343750e+02" cType="1" res="4.1429782286286354e-03" rms="4.5455673336982727e-01" purity="5.2131432294845581e-01" nType="0">
          <Node pos="l" depth="2" NCoef="0" IVar="-1" Cut="0.0000000000000000e+00" cType="1" res="5.6551903253421187e-04" rms="4.5563021302223206e-01" purity="5.5114680528640747e-01" nType="-99"/>
          <Node pos="r" depth="2" NCoef="0" IVar="-1" Cut="0.0000000000000000e+00" cType="1" res="-1.8733832985162735e-03" rms="4.4555914402008057e-01" purity="3.4771385788917542e-01" nType="-99"/>
        </Node>
      </Node>
    </BinaryTree>
    <BinaryTree type="DecisionTree" boostWeight="1.0000000000000000e+00" itree="456">
      <Node pos="s" depth="0" NCoef="0" IVar="2" Cut="1.6881783008575439e+00" cType="1" res="-5.3541343659162521e-03" rms="4.5794904232025146e-01" purity="4.9593463540077209e-01" nType="0">
        <Node pos="l" depth="1" NCoef="0" IVar="2" Cut="9.8473459482192993e-01" cType="1" res="-2.1983466576784849e-03" rms="4.6191373467445374e-01" purity="5.1592481136322021e-01" nType="0">
          <Node pos="l" depth="2" NCoef="0" IVar="-1" Cut="0.0000000000000000e+00" cType="1" res="-8.3296152297407389e-04" rms="4.6190446615219116e-01" purity="6.1086535453796387e-01" nType="-99"/>
          <Node pos="r" depth="2" NCoef="0" IVar="-1" Cut="0.0000000000000000e+00" cType="1" res="3.8164298166520894e-04" rms="4.6161842346191406e-01" purity="4.4841200113296509e-01" nType="-99"/>
        </Node>
        <Node pos="r" depth="1" NCoef="0" IVar="-1" Cut="0.0000000000000000e+00" cType="1" res="-2.4713971652090549e-03" rms="3.9583209156990051e-01" purity="2.1665561199188232e-01" nType="-99"/>
      </Node>
    </BinaryTree>
    <BinaryTree type="DecisionTree" boostWeight="1.0000000000000000e+00" itree="457">
      <Node pos="s" depth="0" NCoef="0" IVar="9" Cut="5.4253295898437500e+02" cType="1" res="7.6955487020313740e-03" rms="4.5602825284004211e-01" purity="5.0605398416519165e-01" nType="0">
        <Node pos="l" depth="1" NCoef="0" IVar="2" Cut="1.3054209947586060e+00" cType="1" res="-2.2799724712967873e-02" rms="4.4700905680656433e-01" purity="4.1846859455108643e-01" nType="0">
          <Node pos="l" depth="2" NCoef="0" IVar="-1" Cut="0.0000000000000000e+00" cType="1" res="-1.6342115122824907e-04" rms="4.6828866004943848e-01" purity="5.0863200426101685e-01" nType="-99"/>
          <Node pos="r" depth="2" NCoef="0" IVar="-1" Cut="0.0000000000000000e+00" cType="1" res="-3.1819760333746672e-03" rms="3.9194244146347046e-01" purity="2.1678769588470459e-01" nType="-99"/>
        </Node>
        <Node pos="r" depth="1" NCoef="0" IVar="4" Cut="3.9310810089111328e+01" cType="1" res="1.5040137805044651e-02" rms="4.5787057280540466e-01" purity="5.2714842557907104e-01" nType="0">
          <Node pos="l" depth="2" NCoef="0" IVar="-1" Cut="0.0000000000000000e+00" cType="1" res="-1.6433409182354808e-03" rms="4.5576134324073792e-01" purity="3.7783062458038330e-01" nType="-99"/>
          <Node pos="r" depth="2" NCoef="0" IVar="-1" Cut="0.0000000000000000e+00" cType="1" res="9.1640563914552331e-04" rms="4.5777231454849243e-01" purity="5.4031068086624146e-01" nType="-99"/>
        </Node>
      </Node>
    </BinaryTree>
    <BinaryTree type="DecisionTree" boostWeight="1.0000000000000000e+00" itree="458">
      <Node pos="s" depth="0" NCoef="0" IVar="5" Cut="2.3460495471954346e-01" cType="1" res="-7.8913930337876081e-04" rms="4.5628240704536438e-01" purity="5.0038003921508789e-01" nType="0">
        <Node pos="l" depth="1" NCoef="0" IVar="2" Cut="1.1250052452087402e+00" cType="1" res="-4.0463749319314957e-03" rms="4.5703092217445374e-01" purity="4.9101164937019348e-01" nType="0">
          <Node pos="l" depth="2" NCoef="0" IVar="-1" Cut="0.0000000000000000e+00" cType="1" res="-7.8273360850289464e-04" rms="4.6195062994956970e-01" purity="5.7764130830764771e-01" nType="-99"/>
          <Node pos="r" depth="2" NCoef="0" IVar="-1" Cut="0.0000000000000000e+00" cType="1" res="4.5754271559417248e-04" rms="4.5113709568977356e-01" purity="3.9573729038238525e-01" nType="-99"/>
        </Node>
        <Node pos="r" depth="1" NCoef="0" IVar="-1" Cut="0.0000000000000000e+00" cType="1" res="2.9284565243870020e-03" rms="4.3759712576866150e-01" purity="6.7565530538558960e-01" nType="-99"/>
      </Node>
    </BinaryTree>
    <BinaryTree type="DecisionTree" boostWeight="1.0000000000000000e+00" itree="459">
      <Node pos="s" depth="0" NCoef="0" IVar="4" Cut="3.9957462310791016e+01" cType="1" res="-1.4521497068926692e-03" rms="4.5811453461647034e-01" purity="4.9863505363464355e-01" nType="0">
        <Node pos="l" depth="1" NCoef="0" IVar="7" Cut="9.5355528593063354e-01" cType="1" res="-5.9147320687770844e-02" rms="4.5053058862686157e-01" purity="3.5384431481361389e-01" nType="0">
          <Node pos="l" depth="2" NCoef="0" IVar="-1" Cut="0.0000000000000000e+00" cType="1" res="-1.2198425829410553e-03" rms="4.3929296731948853e-01" purity="3.1727302074432373e-01" nType="-99"/>
          <Node pos="r" depth="2" NCoef="0" IVar="-1" Cut="0.0000000000000000e+00" cType="1" res="-3.9924336597323418e-03" rms="4.5992624759674072e-01" purity="3.9332404732704163e-01" nType="-99"/>
        </Node>
        <Node pos="r" depth="1" NCoef="0" IVar="4" Cut="1.2872926330566406e+02" cType="1" res="6.0245557688176632e-03" rms="4.5855715870857239e-01" purity="5.1739841699600220e-01" nType="0">
          <Node pos="l" depth="2" NCoef="0" IVar="-1" Cut="0.0000000000000000e+00" cType="1" res="5.6724029127508402e-04" rms="4.5917049050331116e-01" purity="5.3247612714767456e-01" nType="-99"/>
          <Node pos="r" depth="2" NCoef="0" IVar="-1" Cut="0.0000000000000000e+00" cType="1" res="-1.2717448407784104e-03" rms="4.5378836989402771e-01" purity="4.3650820851325989e-01" nType="-99"/>
        </Node>
      </Node>
    </BinaryTree>
    <BinaryTree type="DecisionTree" boostWeight="1.0000000000000000e+00" itree="460">
      <Node pos="s" depth="0" NCoef="0" IVar="8" Cut="1.8116703033447266e+00" cType="1" res="-3.0447484459728003e-03" rms="4.5561811327934265e-01" purity="4.9429419636726379e-01" nType="0">
        <Node pos="l" depth="1" NCoef="0" IVar="1" Cut="3.5263293457031250e+02" cType="1" res="4.5611271634697914e-03" rms="4.6145436167716980e-01" purity="5.3942811489105225e-01" nType="0">
          <Node pos="l" depth="2" NCoef="0" IVar="-1" Cut="0.0000000000000000e+00" cType="1" res="4.7490993165411055e-04" rms="4.6282979846000671e-01" purity="5.6174576282501221e-01" nType="-99"/>
          <Node pos="r" depth="2" NCoef="0" IVar="-1" Cut="0.0000000000000000e+00" cType="1" res="-1.6056294552981853e-03" rms="4.4939410686492920e-01" purity="3.7971967458724976e-01" nType="-99"/>
        </Node>
        <Node pos="r" depth="1" NCoef="0" IVar="7" Cut="9.4898295402526855e-01" cType="1" res="-3.6145471036434174e-02" rms="4.2772352695465088e-01" purity="2.9787173867225647e-01" nType="0">
          <Node pos="l" depth="2" NCoef="0" IVar="-1" Cut="0.0000000000000000e+00" cType="1" res="-5.5570021504536271e-04" rms="4.1320133209228516e-01" purity="2.4943980574607849e-01" nType="-99"/>
          <Node pos="r" depth="2" NCoef="0" IVar="-1" Cut="0.0000000000000000e+00" cType="1" res="-2.7716329786926508e-03" rms="4.4051143527030945e-01" purity="3.4682223200798035e-01" nType="-99"/>
        </Node>
      </Node>
    </BinaryTree>
    <BinaryTree type="DecisionTree" boostWeight="1.0000000000000000e+00" itree="461">
      <Node pos="s" depth="0" NCoef="0" IVar="7" Cut="9.2326480150222778e-01" cType="1" res="6.4114076085388660e-03" rms="4.5605570077896118e-01" purity="5.0764811038970947e-01" nType="0">
        <Node pos="l" depth="1" NCoef="0" IVar="2" Cut="1.1379412412643433e+00" cType="1" res="-3.8230407983064651e-02" rms="4.2496800422668457e-01" purity="2.8207936882972717e-01" nType="0">
          <Node pos="l" depth="2" NCoef="0" IVar="-1" Cut="0.0000000000000000e+00" cType="1" res="3.2002534135244787e-04" rms="4.8094999790191650e-01" purity="4.1848823428153992e-01" nType="-99"/>
          <Node pos="r" depth="2" NCoef="0" IVar="-1" Cut="0.0000000000000000e+00" cType="1" res="-3.6726603284478188e-03" rms="3.6543187499046326e-01" purity="1.6472190618515015e-01" nType="-99"/>
        </Node>
        <Node pos="r" depth="1" NCoef="0" IVar="0" Cut="6.0789933204650879e+00" cType="1" res="1.2996250763535500e-02" rms="4.6009725332260132e-01" purity="5.4092037677764893e-01" nType="0">
          <Node pos="l" depth="2" NCoef="0" IVar="-1" Cut="0.0000000000000000e+00" cType="1" res="2.0547050517052412e-03" rms="4.6281647682189941e-01" purity="4.3821725249290466e-01" nType="-99"/>
          <Node pos="r" depth="2" NCoef="0" IVar="-1" Cut="0.0000000000000000e+00" cType="1" res="3.0555026023648679e-04" rms="4.5927339792251587e-01" purity="5.6114929914474487e-01" nType="-99"/>
        </Node>
      </Node>
    </BinaryTree>
    <BinaryTree type="DecisionTree" boostWeight="1.0000000000000000e+00" itree="462">
      <Node pos="s" depth="0" NCoef="0" IVar="4" Cut="1.5599768066406250e+02" cType="1" res="3.5009151324629784e-03" rms="4.5674204826354980e-01" purity="5.0426024198532104e-01" nType="0">
        <Node pos="l" depth="1" NCoef="0" IVar="8" Cut="2.3675725460052490e+00" cType="1" res="7.5517622753977776e-03" rms="4.5811116695404053e-01" purity="5.1575547456741333e-01" nType="0">
          <Node pos="l" depth="2" NCoef="0" IVar="-1" Cut="0.0000000000000000e+00" cType="1" res="5.4184434702619910e-04" rms="4.6160095930099487e-01" purity="5.3985977172851562e-01" nType="-99"/>
          <Node pos="r" depth="2" NCoef="0" IVar="-1" Cut="0.0000000000000000e+00" cType="1" res="-1.6296417452394962e-03" rms="4.1979679465293884e-01" purity="2.7716338634490967e-01" nType="-99"/>
        </Node>
        <Node pos="r" depth="1" NCoef="0" IVar="-1" Cut="0.0000000000000000e+00" cType="1" res="-2.7020743582397699e-03" rms="4.2956480383872986e-01" purity="3.2301220297813416e-01" nType="-99"/>
      </Node>
    </BinaryTree>
    <BinaryTree type="DecisionTree" boostWeight="1.0000000000000000e+00" itree="463">
      <Node pos="s" depth="0" NCoef="0" IVar="1" Cut="2.4010459899902344e+02" cType="1" res="2.2470089606940746e-03" rms="4.5529094338417053e-01" purity="5.0399994850158691e-01" nType="0">
        <Node pos="l" depth="1" NCoef="0" IVar="9" Cut="5.5603515625000000e+02" cType="1" res="1.3506922870874405e-02" rms="4.5483490824699402e-01" purity="5.4207402467727661e-01" nType="0">
          <Node pos="l" depth="2" NCoef="0" IVar="-1" Cut="0.0000000000000000e+00" cType="1" res="-9.0463005471974611e-04" rms="4.4966110587120056e-01" purity="4.4460341334342957e-01" nType="-99"/>
          <Node pos="r" depth="2" NCoef="0" IVar="-1" Cut="0.0000000000000000e+00" cType="1" res="1.2320377863943577e-03" rms="4.5610216259956360e-01" purity="5.7795363664627075e-01" nType="-99"/>
        </Node>
        <Node pos="r" depth="1" NCoef="0" IVar="8" Cut="5.7256460189819336e-01" cType="1" res="-3.0127964913845062e-02" rms="4.5505008101463318e-01" purity="3.9452794194221497e-01" nType="0">
          <Node pos="l" depth="2" NCoef="0" IVar="-1" Cut="0.0000000000000000e+00" cType="1" res="-4.0124701336026192e-03" rms="4.6226882934570312e-01" purity="4.0704476833343506e-01" nType="-99"/>
          <Node pos="r" depth="2" NCoef="0" IVar="-1" Cut="0.0000000000000000e+00" cType="1" res="-4.2160789598710835e-04" rms="4.5068088173866272e-01" purity="3.9036655426025391e-01" nType="-99"/>
        </Node>
      </Node>
    </BinaryTree>
    <BinaryTree type="DecisionTree" boostWeight="1.0000000000000000e+00" itree="464">
      <Node pos="s" depth="0" NCoef="0" IVar="5" Cut="1.9445873796939850e-02" cType="1" res="7.5337744783610106e-04" rms="4.5743224024772644e-01" purity="5.0020498037338257e-01" nType="0">
        <Node pos="l" depth="1" NCoef="0" IVar="-1" Cut="0.0000000000000000e+00" cType="1" res="-2.2928053513169289e-03" rms="4.4462695717811584e-01" purity="3.2937106490135193e-01" nType="-99"/>
        <Node pos="r" depth="1" NCoef="0" IVar="7" Cut="9.7601705789566040e-01" cType="1" res="3.7899285089224577e-03" rms="4.5799514651298523e-01" purity="5.1027584075927734e-01" nType="0">
          <Node pos="l" depth="2" NCoef="0" IVar="-1" Cut="0.0000000000000000e+00" cType="1" res="4.0992829599417746e-04" rms="4.5947021245956421e-01" purity="4.9237591028213501e-01" nType="-99"/>
          <Node pos="r" depth="2" NCoef="0" IVar="-1" Cut="0.0000000000000000e+00" cType="1" res="-1.3796731363981962e-03" rms="4.4812211394309998e-01" purity="6.1444163322448730e-01" nType="-99"/>
        </Node>
      </Node>
    </BinaryTree>
    <BinaryTree type="DecisionTree" boostWeight="1.0000000000000000e+00" itree="465">
      <Node pos="s" depth="0" NCoef="0" IVar="7" Cut="9.1441339254379272e-01" cType="1" res="-4.5673348358832300e-04" rms="4.5709407329559326e-01" purity="4.9588626623153687e-01" nType="0">
        <Node pos="l" depth="1" NCoef="0" IVar="-1" Cut="0.0000000000000000e+00" cType="1" res="-2.2810022346675396e-03" rms="4.0602922439575195e-01" purity="2.5156143307685852e-01" nType="-99"/>
        <Node pos="r" depth="1" NCoef="0" IVar="4" Cut="1.1004373168945312e+02" cType="1" res="3.6512671504169703e-03" rms="4.6057656407356262e-01" purity="5.1489740610122681e-01" nType="0">
          <Node pos="l" depth="2" NCoef="0" IVar="-1" Cut="0.0000000000000000e+00" cType="1" res="-2.1403525897767395e-04" rms="4.6285846829414368e-01" purity="4.9924981594085693e-01" nType="-99"/>
          <Node pos="r" depth="2" NCoef="0" IVar="-1" Cut="0.0000000000000000e+00" cType="1" res="1.4412521850317717e-03" rms="4.5241513848304749e-01" purity="5.6363439559936523e-01" nType="-99"/>
        </Node>
      </Node>
    </BinaryTree>
    <BinaryTree type="DecisionTree" boostWeight="1.0000000000000000e+00" itree="466">
      <Node pos="s" depth="0" NCoef="0" IVar="5" Cut="1.1350976675748825e-01" cType="1" res="-2.1012448705732822e-03" rms="4.5703285932540894e-01" purity="4.9665018916130066e-01" nType="0">
        <Node pos="l" depth="1" NCoef="0" IVar="7" Cut="9.1688024997711182e-01" cType="1" res="-1.3321164995431900e-02" rms="4.5552465319633484e-01" purity="4.4339966773986816e-01" nType="0">
          <Node pos="l" depth="2" NCoef="0" IVar="-1" Cut="0.0000000000000000e+00" cType="1" res="-2.5624758563935757e-03" rms="3.8485255837440491e-01" purity="2.1916738152503967e-01" nType="-99"/>
          <Node pos="r" depth="2" NCoef="0" IVar="-1" Cut="0.0000000000000000e+00" cType="1" res="-3.9601480239070952e-04" rms="4.6225118637084961e-01" purity="4.6755236387252808e-01" nType="-99"/>
        </Node>
        <Node pos="r" depth="1" NCoef="0" IVar="7" Cut="9.4632619619369507e-01" cType="1" res="2.0224239677190781e-02" rms="4.5920449495315552e-01" purity="6.0260844230651855e-01" nType="0">
          <Node pos="l" depth="2" NCoef="0" IVar="-1" Cut="0.0000000000000000e+00" cType="1" res="2.2466224618256092e-03" rms="4.7166353464126587e-01" purity="5.3185611963272095e-01" nType="-99"/>
          <Node pos="r" depth="2" NCoef="0" IVar="-1" Cut="0.0000000000000000e+00" cType="1" res="1.4544247824233025e-04" rms="4.5121857523918152e-01" purity="6.4180541038513184e-01" nType="-99"/>
        </Node>
      </Node>
    </BinaryTree>
    <BinaryTree type="DecisionTree" boostWeight="1.0000000000000000e+00" itree="467">
      <Node pos="s" depth="0" NCoef="0" IVar="6" Cut="4.9646133422851562e+01" cType="1" res="6.4474199898540974e-03" rms="4.5693281292915344e-01" purity="5.0838553905487061e-01" nType="0">
        <Node pos="l" depth="1" NCoef="0" IVar="1" Cut="1.3271105957031250e+02" cType="1" res="3.6596938967704773e-02" rms="4.5883330702781677e-01" purity="5.6069082021713257e-01" nType="0">
          <Node pos="l" depth="2" NCoef="0" IVar="-1" Cut="0.0000000000000000e+00" cType="1" res="3.1018548179417849e-03" rms="4.4742837548255920e-01" purity="6.1413270235061646e-01" nType="-99"/>
          <Node pos="r" depth="2" NCoef="0" IVar="-1" Cut="0.0000000000000000e+00" cType="1" res="4.9532862612977624e-04" rms="4.6747404336929321e-01" purity="5.1199853420257568e-01" nType="-99"/>
        </Node>
        <Node pos="r" depth="1" NCoef="0" IVar="4" Cut="9.8504470825195312e+01" cType="1" res="5.0735217519104481e-04" rms="4.5632261037826538e-01" purity="4.9808028340339661e-01" nType="0">
          <Node pos="l" depth="2" NCoef="0" IVar="-1" Cut="0.0000000000000000e+00" cType="1" res="-4.9444427713751793e-04" rms="4.6030953526496887e-01" purity="4.7249481081962585e-01" nType="-99"/>
          <Node pos="r" depth="2" NCoef="0" IVar="-1" Cut="0.0000000000000000e+00" cType="1" res="1.1520424159243703e-03" rms="4.4711607694625854e-01" purity="5.5063080787658691e-01" nType="-99"/>
        </Node>
      </Node>
    </BinaryTree>
    <BinaryTree type="DecisionTree" boostWeight="1.0000000000000000e+00" itree="468">
      <Node pos="s" depth="0" NCoef="0" IVar="2" Cut="8.7975394725799561e-01" cType="1" res="2.2245456930249929e-03" rms="4.5215907692909241e-01" purity="4.9956184625625610e-01" nType="0">
        <Node pos="l" depth="1" NCoef="0" IVar="7" Cut="9.4140303134918213e-01" cType="1" res="2.4071367457509041e-02" rms="4.4149640202522278e-01" purity="6.7531424760818481e-01" nType="0">
          <Node pos="l" depth="2" NCoef="0" IVar="-1" Cut="0.0000000000000000e+00" cType="1" res="-8.2464533625170588e-04" rms="4.8333591222763062e-01" purity="5.1256680488586426e-01" nType="-99"/>
          <Node pos="r" depth="2" NCoef="0" IVar="-1" Cut="0.0000000000000000e+00" cType="1" res="2.4077079724520445e-03" rms="4.2091256380081177e-01" purity="7.4495780467987061e-01" nType="-99"/>
        </Node>
        <Node pos="r" depth="1" NCoef="0" IVar="1" Cut="9.3066810607910156e+01" cType="1" res="-6.1848834156990051e-03" rms="4.5591807365417480e-01" purity="4.3191006779670715e-01" nType="0">
          <Node pos="l" depth="2" NCoef="0" IVar="-1" Cut="0.0000000000000000e+00" cType="1" res="-1.6352360835298896e-03" rms="4.4871729612350464e-01" purity="3.5854712128639221e-01" nType="-99"/>
          <Node pos="r" depth="2" NCoef="0" IVar="-1" Cut="0.0000000000000000e+00" cType="1" res="1.8788332454278134e-05" rms="4.5718348026275635e-01" purity="4.4769474864006042e-01" nType="-99"/>
        </Node>
      </Node>
    </BinaryTree>
    <BinaryTree type="DecisionTree" boostWeight="1.0000000000000000e+00" itree="469">
      <Node pos="s" depth="0" NCoef="0" IVar="0" Cut="4.8844518661499023e+00" cType="1" res="-4.9030068330466747e-03" rms="4.5701989531517029e-01" purity="4.9759793281555176e-01" nType="0">
        <Node pos="l" depth="1" NCoef="0" IVar="-1" Cut="0.0000000000000000e+00" cType="1" res="-3.1045395880937576e-03" rms="4.1702806949615479e-01" purity="2.7641934156417847e-01" nType="-99"/>
        <Node pos="r" depth="1" NCoef="0" IVar="5" Cut="1.4519706368446350e-01" cType="1" res="-9.8836515098810196e-04" rms="4.5892095565795898e-01" purity="5.1038944721221924e-01" nType="0">
          <Node pos="l" depth="2" NCoef="0" IVar="-1" Cut="0.0000000000000000e+00" cType="1" res="-3.2521050889045000e-04" rms="4.5961430668830872e-01" purity="4.7651979327201843e-01" nType="-99"/>
          <Node pos="r" depth="2" NCoef="0" IVar="-1" Cut="0.0000000000000000e+00" cType="1" res="9.8265649285167456e-04" rms="4.5588260889053345e-01" purity="6.2754303216934204e-01" nType="-99"/>
        </Node>
      </Node>
    </BinaryTree>
    <BinaryTree type="DecisionTree" boostWeight="1.0000000000000000e+00" itree="470">
      <Node pos="s" depth="0" NCoef="0" IVar="0" Cut="8.4978570938110352e+00" cType="1" res="3.7824076134711504e-03" rms="4.5632365345954895e-01" purity="5.0447398424148560e-01" nType="0">
        <Node pos="l" depth="1" NCoef="0" IVar="7" Cut="9.1637146472930908e-01" cType="1" res="-2.6992089115083218e-03" rms="4.6152454614639282e-01" purity="4.6909737586975098e-01" nType="0">
          <Node pos="l" depth="2" NCoef="0" IVar="-1" Cut="0.0000000000000000e+00" cType="1" res="-2.1117057185620070e-03" rms="4.0848961472511292e-01" purity="2.5557628273963928e-01" nType="-99"/>
          <Node pos="r" depth="2" NCoef="0" IVar="-1" Cut="0.0000000000000000e+00" cType="1" res="9.6928328275680542e-05" rms="4.6653667092323303e-01" purity="4.9175265431404114e-01" nType="-99"/>
        </Node>
        <Node pos="r" depth="1" NCoef="0" IVar="4" Cut="6.2422554016113281e+01" cType="1" res="3.6782730370759964e-02" rms="4.2734536528587341e-01" purity="6.8458968400955200e-01" nType="0">
          <Node pos="l" depth="2" NCoef="0" IVar="-1" Cut="0.0000000000000000e+00" cType="1" res="-5.9039727784693241e-04" rms="4.4398725032806396e-01" purity="5.8706796169281006e-01" nType="-99"/>
          <Node pos="r" depth="2" NCoef="0" IVar="-1" Cut="0.0000000000000000e+00" cType="1" res="3.4507147502154112e-03" rms="4.1645506024360657e-01" purity="7.3409932851791382e-01" nType="-99"/>
        </Node>
      </Node>
    </BinaryTree>
    <BinaryTree type="DecisionTree" boostWeight="1.0000000000000000e+00" itree="471">
      <Node pos="s" depth="0" NCoef="0" IVar="3" Cut="1.7487767934799194e+00" cType="1" res="-1.0081871412694454e-02" rms="4.6033146977424622e-01" purity="4.9323350191116333e-01" nType="0">
        <Node pos="l" depth="1" NCoef="0" IVar="-1" Cut="0.0000000000000000e+00" cType="1" res="-2.6357085444033146e-03" rms="4.7628706693649292e-01" purity="5.1618468761444092e-01" nType="-99"/>
        <Node pos="r" depth="1" NCoef="0" IVar="9" Cut="8.1913800048828125e+02" cType="1" res="-4.5940568670630455e-03" rms="4.5819666981697083e-01" purity="4.9068474769592285e-01" nType="0">
          <Node pos="l" depth="2" NCoef="0" IVar="-1" Cut="0.0000000000000000e+00" cType="1" res="-6.9194129901006818e-04" rms="4.5660805702209473e-01" purity="4.7152817249298096e-01" nType="-99"/>
          <Node pos="r" depth="2" NCoef="0" IVar="-1" Cut="0.0000000000000000e+00" cType="1" res="7.0487457560375333e-04" rms="4.6054905652999878e-01" purity="5.2696478366851807e-01" nType="-99"/>
        </Node>
      </Node>
    </BinaryTree>
    <BinaryTree type="DecisionTree" boostWeight="1.0000000000000000e+00" itree="472">
      <Node pos="s" depth="0" NCoef="0" IVar="4" Cut="1.0806504821777344e+02" cType="1" res="-4.6289316378533840e-03" rms="4.5801943540573120e-01" purity="4.9471914768218994e-01" nType="0">
        <Node pos="l" depth="1" NCoef="0" IVar="5" Cut="6.6519618034362793e-02" cType="1" res="-1.1406069621443748e-02" rms="4.6193456649780273e-01" purity="4.8364382982254028e-01" nType="0">
          <Node pos="l" depth="2" NCoef="0" IVar="-1" Cut="0.0000000000000000e+00" cType="1" res="-1.5005611348897219e-03" rms="4.5366498827934265e-01" purity="3.8994053006172180e-01" nType="-99"/>
          <Node pos="r" depth="2" NCoef="0" IVar="-1" Cut="0.0000000000000000e+00" cType="1" res="8.8238826720044017e-05" rms="4.6632254123687744e-01" purity="5.3991156816482544e-01" nType="-99"/>
        </Node>
        <Node pos="r" depth="1" NCoef="0" IVar="4" Cut="1.3591990661621094e+02" cType="1" res="1.5358938835561275e-02" rms="4.4567272067070007e-01" purity="5.2738350629806519e-01" nType="0">
          <Node pos="l" depth="2" NCoef="0" IVar="-1" Cut="0.0000000000000000e+00" cType="1" res="2.4001216515898705e-03" rms="4.3531596660614014e-01" purity="6.2231945991516113e-01" nType="-99"/>
          <Node pos="r" depth="2" NCoef="0" IVar="-1" Cut="0.0000000000000000e+00" cType="1" res="-1.2334345374256372e-03" rms="4.5494019985198975e-01" purity="4.0762346982955933e-01" nType="-99"/>
        </Node>
      </Node>
    </BinaryTree>
    <BinaryTree type="DecisionTree" boostWeight="1.0000000000000000e+00" itree="473">
      <Node pos="s" depth="0" NCoef="0" IVar="9" Cut="7.2920794677734375e+02" cType="1" res="-4.8499936237931252e-03" rms="4.5587283372879028e-01" purity="4.9517443776130676e-01" nType="0">
        <Node pos="l" depth="1" NCoef="0" IVar="2" Cut="7.8219169378280640e-01" cType="1" res="-1.9094521179795265e-02" rms="4.5099958777427673e-01" purity="4.5883738994598389e-01" nType="0">
          <Node pos="l" depth="2" NCoef="0" IVar="-1" Cut="0.0000000000000000e+00" cType="1" res="1.5222202055156231e-03" rms="4.4744837284088135e-01" purity="6.8190979957580566e-01" nType="-99"/>
          <Node pos="r" depth="2" NCoef="0" IVar="-1" Cut="0.0000000000000000e+00" cType="1" res="-1.3848508242517710e-03" rms="4.5104354619979858e-01" purity="4.0527698397636414e-01" nType="-99"/>
        </Node>
        <Node pos="r" depth="1" NCoef="0" IVar="0" Cut="7.7467331886291504e+00" cType="1" res="1.0681977495551109e-02" rms="4.6062606573104858e-01" purity="5.3479570150375366e-01" nType="0">
          <Node pos="l" depth="2" NCoef="0" IVar="-1" Cut="0.0000000000000000e+00" cType="1" res="1.1164511088281870e-03" rms="4.6528056263923645e-01" purity="4.8551321029663086e-01" nType="-99"/>
          <Node pos="r" depth="2" NCoef="0" IVar="-1" Cut="0.0000000000000000e+00" cType="1" res="-8.8930490892380476e-04" rms="4.4997099041938782e-01" purity="6.3231718540191650e-01" nType="-99"/>
        </Node>
      </Node>
    </BinaryTree>
    <BinaryTree type="DecisionTree" boostWeight="1.0000000000000000e+00" itree="474">
      <Node pos="s" depth="0" NCoef="0" IVar="6" Cut="1.4371447753906250e+02" cType="1" res="-5.5048819631338120e-03" rms="4.5494812726974487e-01" purity="4.9441227316856384e-01" nType="0">
        <Node pos="l" depth="1" NCoef="0" IVar="0" Cut="8.5684881210327148e+00" cType="1" res="-4.2172073153778911e-04" rms="4.5422634482383728e-01" purity="5.0331628322601318e-01" nType="0">
          <Node pos="l" depth="2" NCoef="0" IVar="-1" Cut="0.0000000000000000e+00" cType="1" res="-3.3676216844469309e-04" rms="4.5945304632186890e-01" purity="4.6810984611511230e-01" nType="-99"/>
          <Node pos="r" depth="2" NCoef="0" IVar="-1" Cut="0.0000000000000000e+00" cType="1" res="2.0161957945674658e-03" rms="4.2322432994842529e-01" purity="6.9153064489364624e-01" nType="-99"/>
        </Node>
        <Node pos="r" depth="1" NCoef="0" IVar="-1" Cut="0.0000000000000000e+00" cType="1" res="-3.1627852004021406e-03" rms="4.5910686254501343e-01" purity="3.7421172857284546e-01" nType="-99"/>
      </Node>
    </BinaryTree>
    <BinaryTree type="DecisionTree" boostWeight="1.0000000000000000e+00" itree="475">
      <Node pos="s" depth="0" NCoef="0" IVar="4" Cut="5.2748065948486328e+01" cType="1" res="4.6548941172659397e-03" rms="4.5560666918754578e-01" purity="5.0705051422119141e-01" nType="0">
        <Node pos="l" depth="1" NCoef="0" IVar="5" Cut="1.3112117350101471e-01" cType="1" res="-2.3823082447052002e-02" rms="4.6105882525444031e-01" purity="4.2380309104919434e-01" nType="0">
          <Node pos="l" depth="2" NCoef="0" IVar="-1" Cut="0.0000000000000000e+00" cType="1" res="-1.6775012481957674e-03" rms="4.5475199818611145e-01" purity="3.6837476491928101e-01" nType="-99"/>
          <Node pos="r" depth="2" NCoef="0" IVar="-1" Cut="0.0000000000000000e+00" cType="1" res="3.1109221163205802e-04" rms="4.7283935546875000e-01" purity="5.4279685020446777e-01" nType="-99"/>
        </Node>
        <Node pos="r" depth="1" NCoef="0" IVar="7" Cut="9.1780626773834229e-01" cType="1" res="1.4307358302175999e-02" rms="4.5333805680274963e-01" purity="5.3526675701141357e-01" nType="0">
          <Node pos="l" depth="2" NCoef="0" IVar="-1" Cut="0.0000000000000000e+00" cType="1" res="-1.4999238774180412e-03" rms="4.1996338963508606e-01" purity="2.8322184085845947e-01" nType="-99"/>
          <Node pos="r" depth="2" NCoef="0" IVar="-1" Cut="0.0000000000000000e+00" cType="1" res="9.2449056683108211e-04" rms="4.5638072490692139e-01" purity="5.6158065795898438e-01" nType="-99"/>
        </Node>
      </Node>
    </BinaryTree>
    <BinaryTree type="DecisionTree" boostWeight="1.0000000000000000e+00" itree="476">
      <Node pos="s" depth="0" NCoef="0" IVar="1" Cut="7.4464645385742188e+01" cType="1" res="2.4398737587034702e-03" rms="4.5941168069839478e-01" purity="5.0329428911209106e-01" nType="0">
        <Node pos="l" depth="1" NCoef="0" IVar="-1" Cut="0.0000000000000000e+00" cType="1" res="-1.5633355360478163e-03" rms="4.5751824975013733e-01" purity="3.8486483693122864e-01" nType="-99"/>
        <Node pos="r" depth="1" NCoef="0" IVar="1" Cut="1.2878060913085938e+02" cType="1" res="6.8659279495477676e-03" rms="4.5942929387092590e-01" purity="5.1715385913848877e-01" nType="0">
          <Node pos="l" depth="2" NCoef="0" IVar="-1" Cut="0.0000000000000000e+00" cType="1" res="1.4397761551663280e-03" rms="4.5570522546768188e-01" purity="6.0119676589965820e-01" nType="-99"/>
          <Node pos="r" depth="2" NCoef="0" IVar="-1" Cut="0.0000000000000000e+00" cType="1" res="-2.0991708151996136e-04" rms="4.6083721518516541e-01" purity="4.7549468278884888e-01" nType="-99"/>
        </Node>
      </Node>
    </BinaryTree>
    <BinaryTree type="DecisionTree" boostWeight="1.0000000000000000e+00" itree="477">
      <Node pos="s" depth="0" NCoef="0" IVar="0" Cut="5.7872157096862793e+00" cType="1" res="-8.8162021711468697e-03" rms="4.5472052693367004e-01" purity="4.9191328883171082e-01" nType="0">
        <Node pos="l" depth="1" NCoef="0" IVar="7" Cut="9.2799764871597290e-01" cType="1" res="-4.2574960738420486e-02" rms="4.2429620027542114e-01" purity="2.9984107613563538e-01" nType="0">
          <Node pos="l" depth="2" NCoef="0" IVar="-1" Cut="0.0000000000000000e+00" cType="1" res="-2.6759300380945206e-03" rms="4.0536531805992126e-01" purity="2.5272586941719055e-01" nType="-99"/>
          <Node pos="r" depth="2" NCoef="0" IVar="-1" Cut="0.0000000000000000e+00" cType="1" res="8.7566208094358444e-05" rms="4.6324616670608521e-01" purity="4.1201934218406677e-01" nType="-99"/>
        </Node>
        <Node pos="r" depth="1" NCoef="0" IVar="7" Cut="9.4821870326995850e-01" cType="1" res="-5.6035036686807871e-04" rms="4.6148034930229187e-01" purity="5.3888541460037231e-01" nType="0">
          <Node pos="l" depth="2" NCoef="0" IVar="-1" Cut="0.0000000000000000e+00" cType="1" res="8.9957617456093431e-04" rms="4.6997788548469543e-01" purity="4.6957126259803772e-01" nType="-99"/>
          <Node pos="r" depth="2" NCoef="0" IVar="-1" Cut="0.0000000000000000e+00" cType="1" res="-4.9723411211743951e-04" rms="4.5717135071754456e-01" purity="5.7092308998107910e-01" nType="-99"/>
        </Node>
      </Node>
    </BinaryTree>
    <BinaryTree type="DecisionTree" boostWeight="1.0000000000000000e+00" itree="478">
      <Node pos="s" depth="0" NCoef="0" IVar="1" Cut="1.3111991882324219e+02" cType="1" res="-4.2553027160465717e-03" rms="4.5743939280509949e-01" purity="4.9603292346000671e-01" nType="0">
        <Node pos="l" depth="1" NCoef="0" IVar="1" Cut="7.7980445861816406e+01" cType="1" res="1.4338267035782337e-02" rms="4.5525202155113220e-01" purity="5.5384808778762817e-01" nType="0">
          <Node pos="l" depth="2" NCoef="0" IVar="-1" Cut="0.0000000000000000e+00" cType="1" res="-1.2258889619261026e-03" rms="4.5832502841949463e-01" purity="4.0660509467124939e-01" nType="-99"/>
          <Node pos="r" depth="2" NCoef="0" IVar="-1" Cut="0.0000000000000000e+00" cType="1" res="1.5792258782312274e-03" rms="4.5270240306854248e-01" purity="6.1794340610504150e-01" nType="-99"/>
        </Node>
        <Node pos="r" depth="1" NCoef="0" IVar="4" Cut="5.8330577850341797e+01" cType="1" res="-1.7678389325737953e-02" rms="4.5854368805885315e-01" purity="4.5429494976997375e-01" nType="0">
          <Node pos="l" depth="2" NCoef="0" IVar="-1" Cut="0.0000000000000000e+00" cType="1" res="-2.0737969316542149e-03" rms="4.5707303285598755e-01" purity="3.8810449838638306e-01" nType="-99"/>
          <Node pos="r" depth="2" NCoef="0" IVar="-1" Cut="0.0000000000000000e+00" cType="1" res="-3.6995849222876132e-04" rms="4.5862463116645813e-01" purity="4.7621339559555054e-01" nType="-99"/>
        </Node>
      </Node>
    </BinaryTree>
    <BinaryTree type="DecisionTree" boostWeight="1.0000000000000000e+00" itree="479">
      <Node pos="s" depth="0" NCoef="0" IVar="4" Cut="1.0636306762695312e+02" cType="1" res="5.2191973663866520e-03" rms="4.5671337842941284e-01" purity="5.0207436084747314e-01" nType="0">
        <Node pos="l" depth="1" NCoef="0" IVar="7" Cut="9.6144515275955200e-01" cType="1" res="-3.1805697362869978e-03" rms="4.6036785840988159e-01" purity="4.8713058233261108e-01" nType="0">
          <Node pos="l" depth="2" NCoef="0" IVar="-1" Cut="0.0000000000000000e+00" cType="1" res="4.0728080784901977e-04" rms="4.6098971366882324e-01" purity="4.4168180227279663e-01" nType="-99"/>
          <Node pos="r" depth="2" NCoef="0" IVar="-1" Cut="0.0000000000000000e+00" cType="1" res="-1.2654956663027406e-03" rms="4.5835366845130920e-01" purity="5.7065480947494507e-01" nType="-99"/>
        </Node>
        <Node pos="r" depth="1" NCoef="0" IVar="8" Cut="4.9339005351066589e-01" cType="1" res="2.9066115617752075e-02" rms="4.4531267881393433e-01" purity="5.4449969530105591e-01" nType="0">
          <Node pos="l" depth="2" NCoef="0" IVar="-1" Cut="0.0000000000000000e+00" cType="1" res="4.2763086967170238e-03" rms="4.0617144107818604e-01" purity="6.8765985965728760e-01" nType="-99"/>
          <Node pos="r" depth="2" NCoef="0" IVar="-1" Cut="0.0000000000000000e+00" cType="1" res="7.8774895519018173e-04" rms="4.5336228609085083e-01" purity="5.0993072986602783e-01" nType="-99"/>
        </Node>
      </Node>
    </BinaryTree>
    <BinaryTree type="DecisionTree" boostWeight="1.0000000000000000e+00" itree="480">
      <Node pos="s" depth="0" NCoef="0" IVar="2" Cut="6.6515731811523438e-01" cType="1" res="6.0669425874948502e-03" rms="4.5774891972541809e-01" purity="5.0994741916656494e-01" nType="0">
        <Node pos="l" depth="1" NCoef="0" IVar="8" Cut="5.5028104782104492e-01" cType="1" res="4.6190604567527771e-02" rms="4.2206081748008728e-01" purity="7.2427177429199219e-01" nType="0">
          <Node pos="l" depth="2" NCoef="0" IVar="-1" Cut="0.0000000000000000e+00" cType="1" res="7.8771187691017985e-04" rms="4.3231359124183655e-01" purity="7.0479273796081543e-01" nType="-99"/>
          <Node pos="r" depth="2" NCoef="0" IVar="-1" Cut="0.0000000000000000e+00" cType="1" res="4.2815855704247952e-03" rms="4.0790912508964539e-01" purity="7.4546283483505249e-01" nType="-99"/>
        </Node>
        <Node pos="r" depth="1" NCoef="0" IVar="3" Cut="2.0293138027191162e+00" cType="1" res="1.3627115404233336e-03" rms="4.6152409911155701e-01" purity="4.8481929302215576e-01" nType="0">
          <Node pos="l" depth="2" NCoef="0" IVar="-1" Cut="0.0000000000000000e+00" cType="1" res="-7.8353151911869645e-04" rms="4.7146147489547729e-01" purity="5.5261647701263428e-01" nType="-99"/>
          <Node pos="r" depth="2" NCoef="0" IVar="-1" Cut="0.0000000000000000e+00" cType="1" res="4.6727046719752252e-04" rms="4.5648786425590515e-01" purity="4.5277315378189087e-01" nType="-99"/>
        </Node>
      </Node>
    </BinaryTree>
    <BinaryTree type="DecisionTree" boostWeight="1.0000000000000000e+00" itree="481">
      <Node pos="s" depth="0" NCoef="0" IVar="2" Cut="8.3460175991058350e-01" cType="1" res="-1.5383177669718862e-03" rms="4.5601543784141541e-01" purity="4.9980229139328003e-01" nType="0">
        <Node pos="l" depth="1" NCoef="0" IVar="1" Cut="1.3158305358886719e+02" cType="1" res="2.6264159008860588e-02" rms="4.4187626242637634e-01" purity="6.9074904918670654e-01" nType="0">
          <Node pos="l" depth="2" NCoef="0" IVar="-1" Cut="0.0000000000000000e+00" cType="1" res="3.0902633443474770e-03" rms="4.2007064819335938e-01" purity="7.2722572088241577e-01" nType="-99"/>
          <Node pos="r" depth="2" NCoef="0" IVar="-1" Cut="0.0000000000000000e+00" cType="1" res="-4.0727527812123299e-04" rms="4.6107706427574158e-01" purity="6.5260130167007446e-01" nType="-99"/>
        </Node>
        <Node pos="r" depth="1" NCoef="0" IVar="0" Cut="8.3842411041259766e+00" cType="1" res="-9.9562164396047592e-03" rms="4.5987936854362488e-01" purity="4.4198837876319885e-01" nType="0">
          <Node pos="l" depth="2" NCoef="0" IVar="-1" Cut="0.0000000000000000e+00" cType="1" res="-6.7468022461980581e-04" rms="4.6058282256126404e-01" purity="4.0513965487480164e-01" nType="-99"/>
          <Node pos="r" depth="2" NCoef="0" IVar="-1" Cut="0.0000000000000000e+00" cType="1" res="7.5705902418121696e-04" rms="4.5569625496864319e-01" purity="6.1658400297164917e-01" nType="-99"/>
        </Node>
      </Node>
    </BinaryTree>
    <BinaryTree type="DecisionTree" boostWeight="1.0000000000000000e+00" itree="482">
      <Node pos="s" depth="0" NCoef="0" IVar="4" Cut="1.3033070373535156e+02" cType="1" res="6.5617365762591362e-03" rms="4.5695558190345764e-01" purity="5.0888639688491821e-01" nType="0">
        <Node pos="l" depth="1" NCoef="0" IVar="4" Cut="1.0711460876464844e+02" cType="1" res="1.3316653668880463e-02" rms="4.5819842815399170e-01" purity="5.2315330505371094e-01" nType="0">
          <Node pos="l" depth="2" NCoef="0" IVar="-1" Cut="0.0000000000000000e+00" cType="1" res="2.2534873278345913e-04" rms="4.6211579442024231e-01" purity="4.9956783652305603e-01" nType="-99"/>
          <Node pos="r" depth="2" NCoef="0" IVar="-1" Cut="0.0000000000000000e+00" cType="1" res="3.1806663610041142e-03" rms="4.3172377347946167e-01" purity="6.5917372703552246e-01" nType="-99"/>
        </Node>
        <Node pos="r" depth="1" NCoef="0" IVar="0" Cut="6.8038845062255859e+00" cType="1" res="-3.7919301539659500e-02" rms="4.4613862037658691e-01" purity="4.1493847966194153e-01" nType="0">
          <Node pos="l" depth="2" NCoef="0" IVar="-1" Cut="0.0000000000000000e+00" cType="1" res="-1.0186970466747880e-03" rms="4.3686339259147644e-01" purity="3.2669198513031006e-01" nType="-99"/>
          <Node pos="r" depth="2" NCoef="0" IVar="-1" Cut="0.0000000000000000e+00" cType="1" res="-2.3452972527593374e-03" rms="4.5349675416946411e-01" purity="4.9034988880157471e-01" nType="-99"/>
        </Node>
      </Node>
    </BinaryTree>
    <BinaryTree type="DecisionTree" boostWeight="1.0000000000000000e+00" itree="483">
      <Node pos="s" depth="0" NCoef="0" IVar="4" Cut="1.3062385559082031e+02" cType="1" res="-5.2269408479332924e-04" rms="4.5906612277030945e-01" purity="5.0094616413116455e-01" nType="0">
        <Node pos="l" depth="1" NCoef="0" IVar="4" Cut="1.0512134552001953e+02" cType="1" res="5.1065064035356045e-03" rms="4.5984384417533875e-01" purity="5.1409691572189331e-01" nType="0">
          <Node pos="l" depth="2" NCoef="0" IVar="-1" Cut="0.0000000000000000e+00" cType="1" res="-2.1835636289324611e-04" rms="4.6280390024185181e-01" purity="4.8817449808120728e-01" nType="-99"/>
          <Node pos="r" depth="2" NCoef="0" IVar="-1" Cut="0.0000000000000000e+00" cType="1" res="2.7727046981453896e-03" rms="4.4152984023094177e-01" purity="6.4311265945434570e-01" nType="-99"/>
        </Node>
        <Node pos="r" depth="1" NCoef="0" IVar="1" Cut="2.1098451232910156e+02" cType="1" res="-3.6894924938678741e-02" rms="4.5232325792312622e-01" purity="4.1597476601600647e-01" nType="0">
          <Node pos="l" depth="2" NCoef="0" IVar="-1" Cut="0.0000000000000000e+00" cType="1" res="1.4808996638748795e-04" rms="4.5662015676498413e-01" purity="5.2674561738967896e-01" nType="-99"/>
          <Node pos="r" depth="2" NCoef="0" IVar="-1" Cut="0.0000000000000000e+00" cType="1" res="-3.1880370806902647e-03" rms="4.4579911231994629e-01" purity="3.2156783342361450e-01" nType="-99"/>
        </Node>
      </Node>
    </BinaryTree>
    <BinaryTree type="DecisionTree" boostWeight="1.0000000000000000e+00" itree="484">
      <Node pos="s" depth="0" NCoef="0" IVar="1" Cut="4.3836911010742188e+02" cType="1" res="-1.8991321558132768e-03" rms="4.5734766125679016e-01" purity="4.9885842204093933e-01" nType="0">
        <Node pos="l" depth="1" NCoef="0" IVar="1" Cut="1.7624514770507812e+02" cType="1" res="3.4364957828074694e-03" rms="4.5848211646080017e-01" purity="5.1692891120910645e-01" nType="0">
          <Node pos="l" depth="2" NCoef="0" IVar="-1" Cut="0.0000000000000000e+00" cType="1" res="7.2342349449172616e-04" rms="4.5680689811706543e-01" purity="5.5202013254165649e-01" nType="-99"/>
          <Node pos="r" depth="2" NCoef="0" IVar="-1" Cut="0.0000000000000000e+00" cType="1" res="-8.0675713252276182e-04" rms="4.6072638034820557e-01" purity="4.5342150330543518e-01" nType="-99"/>
        </Node>
        <Node pos="r" depth="1" NCoef="0" IVar="-1" Cut="0.0000000000000000e+00" cType="1" res="-2.7975898701697588e-03" rms="4.4010904431343079e-01" purity="2.9705667495727539e-01" nType="-99"/>
      </Node>
    </BinaryTree>
    <BinaryTree type="DecisionTree" boostWeight="1.0000000000000000e+00" itree="485">
      <Node pos="s" depth="0" NCoef="0" IVar="0" Cut="9.2781248092651367e+00" cType="1" res="-1.1881015961989760e-03" rms="4.5615631341934204e-01" purity="5.0135797262191772e-01" nType="0">
        <Node pos="l" depth="1" NCoef="0" IVar="8" Cut="7.8719377517700195e-01" cType="1" res="-5.0873169675469398e-03" rms="4.5842221379280090e-01" purity="4.8521184921264648e-01" nType="0">
          <Node pos="l" depth="2" NCoef="0" IVar="-1" Cut="0.0000000000000000e+00" cType="1" res="4.1229696944355965e-04" rms="4.6031472086906433e-01" purity="5.7585972547531128e-01" nType="-99"/>
          <Node pos="r" depth="2" NCoef="0" IVar="-1" Cut="0.0000000000000000e+00" cType="1" res="-6.5716647077351809e-04" rms="4.5691514015197754e-01" purity="4.2462065815925598e-01" nType="-99"/>
        </Node>
        <Node pos="r" depth="1" NCoef="0" IVar="-1" Cut="0.0000000000000000e+00" cType="1" res="2.8331745415925980e-03" rms="4.2149272561073303e-01" purity="7.1589767932891846e-01" nType="-99"/>
      </Node>
    </BinaryTree>
    <BinaryTree type="DecisionTree" boostWeight="1.0000000000000000e+00" itree="486">
      <Node pos="s" depth="0" NCoef="0" IVar="0" Cut="5.5023198127746582e+00" cType="1" res="-7.3307440616190434e-03" rms="4.5615896582603455e-01" purity="4.9466335773468018e-01" nType="0">
        <Node pos="l" depth="1" NCoef="0" IVar="5" Cut="5.8956936001777649e-02" cType="1" res="-3.7569615989923477e-02" rms="4.2305725812911987e-01" purity="2.9215160012245178e-01" nType="0">
          <Node pos="l" depth="2" NCoef="0" IVar="-1" Cut="0.0000000000000000e+00" cType="1" res="-3.3366456627845764e-03" rms="3.8156929612159729e-01" purity="2.0942069590091705e-01" nType="-99"/>
          <Node pos="r" depth="2" NCoef="0" IVar="-1" Cut="0.0000000000000000e+00" cType="1" res="-5.4189201910048723e-04" rms="4.4779667258262634e-01" purity="3.4929028153419495e-01" nType="-99"/>
        </Node>
        <Node pos="r" depth="1" NCoef="0" IVar="0" Cut="6.8368282318115234e+00" cType="1" res="-2.2057942114770412e-03" rms="4.6133753657341003e-01" purity="5.2898544073104858e-01" nType="0">
          <Node pos="l" depth="2" NCoef="0" IVar="-1" Cut="0.0000000000000000e+00" cType="1" res="5.8358284877613187e-04" rms="4.6855860948562622e-01" purity="4.4207462668418884e-01" nType="-99"/>
          <Node pos="r" depth="2" NCoef="0" IVar="-1" Cut="0.0000000000000000e+00" cType="1" res="-5.5046996567398310e-04" rms="4.5681303739547729e-01" purity="5.7984280586242676e-01" nType="-99"/>
        </Node>
      </Node>
    </BinaryTree>
    <BinaryTree type="DecisionTree" boostWeight="1.0000000000000000e+00" itree="487">
      <Node pos="s" depth="0" NCoef="0" IVar="4" Cut="4.8728153228759766e+01" cType="1" res="-2.9210504144430161e-03" rms="4.5677685737609863e-01" purity="4.9682661890983582e-01" nType="0">
        <Node pos="l" depth="1" NCoef="0" IVar="4" Cut="3.5964878082275391e+01" cType="1" res="-2.5480853393673897e-02" rms="4.5684576034545898e-01" purity="4.0371146798133850e-01" nType="0">
          <Node pos="l" depth="2" NCoef="0" IVar="-1" Cut="0.0000000000000000e+00" cType="1" res="-2.7470465283840895e-03" rms="4.4198599457740784e-01" purity="3.3979645371437073e-01" nType="-99"/>
          <Node pos="r" depth="2" NCoef="0" IVar="-1" Cut="0.0000000000000000e+00" cType="1" res="-2.6315380819141865e-04" rms="4.6350696682929993e-01" purity="4.3826425075531006e-01" nType="-99"/>
        </Node>
        <Node pos="r" depth="1" NCoef="0" IVar="3" Cut="2.6854417324066162e+00" cType="1" res="2.7861993294209242e-03" rms="4.5658278465270996e-01" purity="5.2038311958312988e-01" nType="0">
          <Node pos="l" depth="2" NCoef="0" IVar="-1" Cut="0.0000000000000000e+00" cType="1" res="2.8818630380555987e-04" rms="4.6213492751121521e-01" purity="5.4917067289352417e-01" nType="-99"/>
          <Node pos="r" depth="2" NCoef="0" IVar="-1" Cut="0.0000000000000000e+00" cType="1" res="-1.8600559560582042e-03" rms="3.8771742582321167e-01" purity="2.0113784074783325e-01" nType="-99"/>
        </Node>
      </Node>
    </BinaryTree>
    <BinaryTree type="DecisionTree" boostWeight="1.0000000000000000e+00" itree="488">
      <Node pos="s" depth="0" NCoef="0" IVar="7" Cut="9.8160874843597412e-01" cType="1" res="3.0782835092395544e-03" rms="4.5585453510284424e-01" purity="5.0415325164794922e-01" nType="0">
        <Node pos="l" depth="1" NCoef="0" IVar="9" Cut="5.5126733398437500e+02" cType="1" res="-6.1981508042663336e-04" rms="4.5936661958694458e-01" purity="4.8451027274131775e-01" nType="0">
          <Node pos="l" depth="2" NCoef="0" IVar="-1" Cut="0.0000000000000000e+00" cType="1" res="-1.2180646881461143e-03" rms="4.5220917463302612e-01" purity="4.0369859337806702e-01" nType="-99"/>
          <Node pos="r" depth="2" NCoef="0" IVar="-1" Cut="0.0000000000000000e+00" cType="1" res="2.8978133923374116e-04" rms="4.6097356081008911e-01" purity="5.0567787885665894e-01" nType="-99"/>
        </Node>
        <Node pos="r" depth="1" NCoef="0" IVar="-1" Cut="0.0000000000000000e+00" cType="1" res="2.2068961989134550e-03" rms="4.1755053400993347e-01" purity="6.9950193166732788e-01" nType="-99"/>
      </Node>
    </BinaryTree>
    <BinaryTree type="DecisionTree" boostWeight="1.0000000000000000e+00" itree="489">
      <Node pos="s" depth="0" NCoef="0" IVar="3" Cut="2.4248697757720947e+00" cType="1" res="-9.6755409613251686e-03" rms="4.5943474769592285e-01" purity="4.8933771252632141e-01" nType="0">
        <Node pos="l" depth="1" NCoef="0" IVar="1" Cut="2.9844146728515625e+02" cType="1" res="-1.6842633485794067e-02" rms="4.6488577127456665e-01" purity="5.3424888849258423e-01" nType="0">
          <Node pos="l" depth="2" NCoef="0" IVar="-1" Cut="0.0000000000000000e+00" cType="1" res="-5.1041151164099574e-04" rms="4.6463328599929810e-01" purity="5.5085164308547974e-01" nType="-99"/>
          <Node pos="r" depth="2" NCoef="0" IVar="-1" Cut="0.0000000000000000e+00" cType="1" res="-2.2700980771332979e-03" rms="4.6488258242607117e-01" purity="4.2965957522392273e-01" nType="-99"/>
        </Node>
        <Node pos="r" depth="1" NCoef="0" IVar="5" Cut="8.5908524692058563e-02" cType="1" res="1.8918870016932487e-02" rms="4.3583914637565613e-01" purity="3.1015655398368835e-01" nType="0">
          <Node pos="l" depth="2" NCoef="0" IVar="-1" Cut="0.0000000000000000e+00" cType="1" res="1.6595746856182814e-03" rms="4.3127650022506714e-01" purity="3.0076688528060913e-01" nType="-99"/>
          <Node pos="r" depth="2" NCoef="0" IVar="-1" Cut="0.0000000000000000e+00" cType="1" res="-4.8206280916929245e-04" rms="4.4409194588661194e-01" purity="3.3038172125816345e-01" nType="-99"/>
        </Node>
      </Node>
    </BinaryTree>
    <BinaryTree type="DecisionTree" boostWeight="1.0000000000000000e+00" itree="490">
      <Node pos="s" depth="0" NCoef="0" IVar="1" Cut="3.6955349731445312e+02" cType="1" res="9.1095790266990662e-03" rms="4.5250791311264038e-01" purity="5.0975602865219116e-01" nType="0">
        <Node pos="l" depth="1" NCoef="0" IVar="7" Cut="9.2932242155075073e-01" cType="1" res="1.4777624048292637e-02" rms="4.5307770371437073e-01" purity="5.3150910139083862e-01" nType="0">
          <Node pos="l" depth="2" NCoef="0" IVar="-1" Cut="0.0000000000000000e+00" cType="1" res="-9.4327644910663366e-04" rms="4.4389626383781433e-01" purity="3.3013796806335449e-01" nType="-99"/>
          <Node pos="r" depth="2" NCoef="0" IVar="-1" Cut="0.0000000000000000e+00" cType="1" res="1.0792320827022195e-03" rms="4.5462676882743835e-01" purity="5.7458907365798950e-01" nType="-99"/>
        </Node>
        <Node pos="r" depth="1" NCoef="0" IVar="2" Cut="1.2917120456695557e+00" cType="1" res="-3.6268956959247589e-02" rms="4.4532668590545654e-01" purity="3.3560070395469666e-01" nType="0">
          <Node pos="l" depth="2" NCoef="0" IVar="-1" Cut="0.0000000000000000e+00" cType="1" res="-3.2329598907381296e-03" rms="4.6165958046913147e-01" purity="3.9597085118293762e-01" nType="-99"/>
          <Node pos="r" depth="2" NCoef="0" IVar="-1" Cut="0.0000000000000000e+00" cType="1" res="2.9754595016129315e-04" rms="4.2343968152999878e-01" purity="2.7219656109809875e-01" nType="-99"/>
        </Node>
      </Node>
    </BinaryTree>
    <BinaryTree type="DecisionTree" boostWeight="1.0000000000000000e+00" itree="491">
      <Node pos="s" depth="0" NCoef="0" IVar="4" Cut="1.1004373168945312e+02" cType="1" res="-2.5578576605767012e-03" rms="4.5412012934684753e-01" purity="4.9630889296531677e-01" nType="0">
        <Node pos="l" depth="1" NCoef="0" IVar="6" Cut="7.2196937561035156e+01" cType="1" res="-1.1158013716340065e-02" rms="4.5795658230781555e-01" purity="4.7996175289154053e-01" nType="0">
          <Node pos="l" depth="2" NCoef="0" IVar="-1" Cut="0.0000000000000000e+00" cType="1" res="4.5674157445318997e-04" rms="4.5819291472434998e-01" purity="5.1280111074447632e-01" nType="-99"/>
          <Node pos="r" depth="2" NCoef="0" IVar="-1" Cut="0.0000000000000000e+00" cType="1" res="-1.1673487024381757e-03" rms="4.5722007751464844e-01" purity="4.5713093876838684e-01" nType="-99"/>
        </Node>
        <Node pos="r" depth="1" NCoef="0" IVar="4" Cut="1.2687386322021484e+02" cType="1" res="2.4912178516387939e-02" rms="4.4051969051361084e-01" purity="5.4852384328842163e-01" nType="0">
          <Node pos="l" depth="2" NCoef="0" IVar="-1" Cut="0.0000000000000000e+00" cType="1" res="3.8038461934775114e-03" rms="4.2933776974678040e-01" purity="6.6661757230758667e-01" nType="-99"/>
          <Node pos="r" depth="2" NCoef="0" IVar="-1" Cut="0.0000000000000000e+00" cType="1" res="-2.3992580827325583e-04" rms="4.4463956356048584e-01" purity="4.7560399770736694e-01" nType="-99"/>
        </Node>
      </Node>
    </BinaryTree>
    <BinaryTree type="DecisionTree" boostWeight="1.0000000000000000e+00" itree="492">
      <Node pos="s" depth="0" NCoef="0" IVar="0" Cut="8.2722644805908203e+00" cType="1" res="-7.9974886029958725e-03" rms="4.5596492290496826e-01" purity="4.9227699637413025e-01" nType="0">
        <Node pos="l" depth="1" NCoef="0" IVar="3" Cut="2.0492575168609619e+00" cType="1" res="-1.6094805672764778e-02" rms="4.6000683307647705e-01" purity="4.4817036390304565e-01" nType="0">
          <Node pos="l" depth="2" NCoef="0" IVar="-1" Cut="0.0000000000000000e+00" cType="1" res="1.9606493879109621e-04" rms="4.7217878699302673e-01" purity="5.5822038650512695e-01" nType="-99"/>
          <Node pos="r" depth="2" NCoef="0" IVar="-1" Cut="0.0000000000000000e+00" cType="1" res="-1.2648311676457524e-03" rms="4.5230194926261902e-01" purity="3.8378196954727173e-01" nType="-99"/>
        </Node>
        <Node pos="r" depth="1" NCoef="0" IVar="7" Cut="9.8021870851516724e-01" cType="1" res="2.4099946022033691e-02" rms="4.3810749053955078e-01" purity="6.6711384057998657e-01" nType="0">
          <Node pos="l" depth="2" NCoef="0" IVar="-1" Cut="0.0000000000000000e+00" cType="1" res="2.9581349808722734e-03" rms="4.3419560790061951e-01" purity="6.8873769044876099e-01" nType="-99"/>
          <Node pos="r" depth="2" NCoef="0" IVar="-1" Cut="0.0000000000000000e+00" cType="1" res="-3.8786933873780072e-04" rms="4.3967029452323914e-01" purity="6.4591842889785767e-01" nType="-99"/>
        </Node>
      </Node>
    </BinaryTree>
    <BinaryTree type="DecisionTree" boostWeight="1.0000000000000000e+00" itree="493">
      <Node pos="s" depth="0" NCoef="0" IVar="8" Cut="2.6062989234924316e+00" cType="1" res="4.2484365403652191e-03" rms="4.5625731348991394e-01" purity="5.0231087207794189e-01" nType="0">
        <Node pos="l" depth="1" NCoef="0" IVar="9" Cut="7.4284704589843750e+02" cType="1" res="7.8769251704216003e-03" rms="4.6006545424461365e-01" purity="5.2187830209732056e-01" nType="0">
          <Node pos="l" depth="2" NCoef="0" IVar="-1" Cut="0.0000000000000000e+00" cType="1" res="-1.8793676281347871e-04" rms="4.5564684271812439e-01" purity="4.8834136128425598e-01" nType="-99"/>
          <Node pos="r" depth="2" NCoef="0" IVar="-1" Cut="0.0000000000000000e+00" cType="1" res="9.9626753944903612e-04" rms="4.6463891863822937e-01" purity="5.5981290340423584e-01" nType="-99"/>
        </Node>
        <Node pos="r" depth="1" NCoef="0" IVar="-1" Cut="0.0000000000000000e+00" cType="1" res="-2.3608093615621328e-03" rms="3.9638343453407288e-01" purity="2.3123410344123840e-01" nType="-99"/>
      </Node>
    </BinaryTree>
    <BinaryTree type="DecisionTree" boostWeight="1.0000000000000000e+00" itree="494">
      <Node pos="s" depth="0" NCoef="0" IVar="7" Cut="9.1213452816009521e-01" cType="1" res="-4.5492723584175110e-03" rms="4.5623353123664856e-01" purity="4.9704888463020325e-01" nType="0">
        <Node pos="l" depth="1" NCoef="0" IVar="-1" Cut="0.0000000000000000e+00" cType="1" res="-2.3397693876177073e-03" rms="3.9887148141860962e-01" purity="2.4082471430301666e-01" nType="-99"/>
        <Node pos="r" depth="1" NCoef="0" IVar="5" Cut="1.2216213345527649e-01" cType="1" res="-1.2750013265758753e-03" rms="4.5960193872451782e-01" purity="5.1406282186508179e-01" nType="0">
          <Node pos="l" depth="2" NCoef="0" IVar="-1" Cut="0.0000000000000000e+00" cType="1" res="-3.8698330172337592e-04" rms="4.6167582273483276e-01" purity="4.6874648332595825e-01" nType="-99"/>
          <Node pos="r" depth="2" NCoef="0" IVar="-1" Cut="0.0000000000000000e+00" cType="1" res="7.4594351463019848e-04" rms="4.5435979962348938e-01" purity="6.1828041076660156e-01" nType="-99"/>
        </Node>
      </Node>
    </BinaryTree>
    <BinaryTree type="DecisionTree" boostWeight="1.0000000000000000e+00" itree="495">
      <Node pos="s" depth="0" NCoef="0" IVar="2" Cut="9.5818334817886353e-01" cType="1" res="3.2205092720687389e-03" rms="4.5422151684761047e-01" purity="5.0125521421432495e-01" nType="0">
        <Node pos="l" depth="1" NCoef="0" IVar="1" Cut="2.4116221618652344e+02" cType="1" res="2.3412410169839859e-02" rms="4.5153266191482544e-01" purity="6.5979379415512085e-01" nType="0">
          <Node pos="l" depth="2" NCoef="0" IVar="-1" Cut="0.0000000000000000e+00" cType="1" res="1.6684357542544603e-03" rms="4.4814464449882507e-01" purity="6.8035125732421875e-01" nType="-99"/>
          <Node pos="r" depth="2" NCoef="0" IVar="-1" Cut="0.0000000000000000e+00" cType="1" res="-7.7758613042533398e-04" rms="4.6313509345054626e-01" purity="5.7462447881698608e-01" nType="-99"/>
        </Node>
        <Node pos="r" depth="1" NCoef="0" IVar="9" Cut="7.3144573974609375e+02" cType="1" res="-7.8808525577187538e-03" rms="4.5531171560287476e-01" purity="4.1409179568290710e-01" nType="0">
          <Node pos="l" depth="2" NCoef="0" IVar="-1" Cut="0.0000000000000000e+00" cType="1" res="-1.0666528251022100e-03" rms="4.4798544049263000e-01" purity="3.7104430794715881e-01" nType="-99"/>
          <Node pos="r" depth="2" NCoef="0" IVar="-1" Cut="0.0000000000000000e+00" cType="1" res="4.0200658258982003e-04" rms="4.6239688992500305e-01" purity="4.5994344353675842e-01" nType="-99"/>
        </Node>
      </Node>
    </BinaryTree>
    <BinaryTree type="DecisionTree" boostWeight="1.0000000000000000e+00" itree="496">
      <Node pos="s" depth="0" NCoef="0" IVar="7" Cut="9.8148357868194580e-01" cType="1" res="1.6807176871225238e-03" rms="4.5734617114067078e-01" purity="5.0074452161788940e-01" nType="0">
        <Node pos="l" depth="1" NCoef="0" IVar="6" Cut="9.9738471984863281e+01" cType="1" res="5.6491261348128319e-03" rms="4.5748031139373779e-01" purity="4.8921623826026917e-01" nType="0">
          <Node pos="l" depth="2" NCoef="0" IVar="-1" Cut="0.0000000000000000e+00" cType="1" res="6.3729751855134964e-04" rms="4.5629116892814636e-01" purity="5.0341272354125977e-01" nType="-99"/>
          <Node pos="r" depth="2" NCoef="0" IVar="-1" Cut="0.0000000000000000e+00" cType="1" res="-4.8374367179349065e-04" rms="4.5939588546752930e-01" purity="4.6109211444854736e-01" nType="-99"/>
        </Node>
        <Node pos="r" depth="1" NCoef="0" IVar="-1" Cut="0.0000000000000000e+00" cType="1" res="-1.8085263436660171e-03" rms="4.5451986789703369e-01" purity="6.0600674152374268e-01" nType="-99"/>
      </Node>
    </BinaryTree>
    <BinaryTree type="DecisionTree" boostWeight="1.0000000000000000e+00" itree="497">
      <Node pos="s" depth="0" NCoef="0" IVar="4" Cut="7.9453086853027344e+01" cType="1" res="-7.9571260139346123e-03" rms="4.5710560679435730e-01" purity="4.9585151672363281e-01" nType="0">
        <Node pos="l" depth="1" NCoef="0" IVar="4" Cut="3.4796455383300781e+01" cType="1" res="-2.1080859005451202e-02" rms="4.6061402559280396e-01" purity="4.5995742082595825e-01" nType="0">
          <Node pos="l" depth="2" NCoef="0" IVar="-1" Cut="0.0000000000000000e+00" cType="1" res="-3.7670510355383158e-03" rms="4.4637227058410645e-01" purity="3.2013565301895142e-01" nType="-99"/>
          <Node pos="r" depth="2" NCoef="0" IVar="-1" Cut="0.0000000000000000e+00" cType="1" res="-5.6571117602288723e-04" rms="4.6185091137886047e-01" purity="4.7903311252593994e-01" nType="-99"/>
        </Node>
        <Node pos="r" depth="1" NCoef="0" IVar="7" Cut="9.6577912569046021e-01" cType="1" res="6.7434869706630707e-03" rms="4.5269185304641724e-01" purity="5.3605836629867554e-01" nType="0">
          <Node pos="l" depth="2" NCoef="0" IVar="-1" Cut="0.0000000000000000e+00" cType="1" res="-1.6573653556406498e-04" rms="4.5943957567214966e-01" purity="4.7550496459007263e-01" nType="-99"/>
          <Node pos="r" depth="2" NCoef="0" IVar="-1" Cut="0.0000000000000000e+00" cType="1" res="1.8654653104022145e-03" rms="4.3360629677772522e-01" purity="6.9265455007553101e-01" nType="-99"/>
        </Node>
      </Node>
    </BinaryTree>
    <BinaryTree type="DecisionTree" boostWeight="1.0000000000000000e+00" itree="498">
      <Node pos="s" depth="0" NCoef="0" IVar="6" Cut="1.4817022705078125e+02" cType="1" res="4.8093902296386659e-04" rms="4.5851391553878784e-01" purity="5.0137627124786377e-01" nType="0">
        <Node pos="l" depth="1" NCoef="0" IVar="5" Cut="1.8617905676364899e-01" cType="1" res="4.7622821293771267e-03" rms="4.5753470063209534e-01" purity="5.0868558883666992e-01" nType="0">
          <Node pos="l" depth="2" NCoef="0" IVar="-1" Cut="0.0000000000000000e+00" cType="1" res="-2.3716868327028351e-06" rms="4.5902907848358154e-01" purity="4.8819911479949951e-01" nType="-99"/>
          <Node pos="r" depth="2" NCoef="0" IVar="-1" Cut="0.0000000000000000e+00" cType="1" res="1.9687637686729431e-03" rms="4.4476696848869324e-01" purity="6.5962940454483032e-01" nType="-99"/>
        </Node>
        <Node pos="r" depth="1" NCoef="0" IVar="-1" Cut="0.0000000000000000e+00" cType="1" res="-2.8888729866594076e-03" rms="4.6857103705406189e-01" purity="3.8548314571380615e-01" nType="-99"/>
      </Node>
    </BinaryTree>
    <BinaryTree type="DecisionTree" boostWeight="1.0000000000000000e+00" itree="499">
      <Node pos="s" depth="0" NCoef="0" IVar="5" Cut="1.6537158191204071e-01" cType="1" res="2.9882886447012424e-03" rms="4.5655727386474609e-01" purity="5.0552010536193848e-01" nType="0">
        <Node pos="l" depth="1" NCoef="0" IVar="4" Cut="4.9942428588867188e+01" cType="1" res="-3.4774930682033300e-03" rms="4.5694911479949951e-01" purity="4.7747838497161865e-01" nType="0">
          <Node pos="l" depth="2" NCoef="0" IVar="-1" Cut="0.0000000000000000e+00" cType="1" res="-1.2534778797999024e-03" rms="4.4435939192771912e-01" purity="3.7970486283302307e-01" nType="-99"/>
          <Node pos="r" depth="2" NCoef="0" IVar="-1" Cut="0.0000000000000000e+00" cType="1" res="1.4638867287430912e-04" rms="4.6002092957496643e-01" purity="5.0354546308517456e-01" nType="-99"/>
        </Node>
        <Node pos="r" depth="1" NCoef="0" IVar="0" Cut="6.5635867118835449e+00" cType="1" res="3.6530345678329468e-02" rms="4.5304045081138611e-01" purity="6.5099024772644043e-01" nType="0">
          <Node pos="l" depth="2" NCoef="0" IVar="-1" Cut="0.0000000000000000e+00" cType="1" res="3.9062206633388996e-03" rms="4.6393173933029175e-01" purity="5.9054511785507202e-01" nType="-99"/>
          <Node pos="r" depth="2" NCoef="0" IVar="-1" Cut="0.0000000000000000e+00" cType="1" res="5.3098215721547604e-04" rms="4.4520437717437744e-01" purity="6.8085086345672607e-01" nType="-99"/>
        </Node>
      </Node>
    </BinaryTree>
    <BinaryTree type="DecisionTree" boostWeight="1.0000000000000000e+00" itree="500">
      <Node pos="s" depth="0" NCoef="0" IVar="9" Cut="6.5688519287109375e+02" cType="1" res="-1.8340018577873707e-03" rms="4.5782938599586487e-01" purity="4.9887651205062866e-01" nType="0">
        <Node pos="l" depth="1" NCoef="0" IVar="1" Cut="1.1287545776367188e+02" cType="1" res="-2.5031922385096550e-02" rms="4.5228368043899536e-01" purity="4.4226235151290894e-01" nType="0">
          <Node pos="l" depth="2" NCoef="0" IVar="-1" Cut="0.0000000000000000e+00" cType="1" res="3.2047628337750211e-05" rms="4.5110976696014404e-01" purity="4.7842231392860413e-01" nType="-99"/>
          <Node pos="r" depth="2" NCoef="0" IVar="-1" Cut="0.0000000000000000e+00" cType="1" res="-1.9182288087904453e-03" rms="4.5224916934967041e-01" purity="4.1793251037597656e-01" nType="-99"/>
        </Node>
        <Node pos="r" depth="1" NCoef="0" IVar="4" Cut="1.3202705383300781e+02" cType="1" res="1.3774087652564049e-02" rms="4.6086651086807251e-01" purity="5.3696787357330322e-01" nType="0">
          <Node pos="l" depth="2" NCoef="0" IVar="-1" Cut="0.0000000000000000e+00" cType="1" res="1.0180055396631360e-03" rms="4.6052199602127075e-01" purity="5.5639386177062988e-01" nType="-99"/>
          <Node pos="r" depth="2" NCoef="0" IVar="-1" Cut="0.0000000000000000e+00" cType="1" res="-1.0640950640663505e-03" rms="4.6065545082092285e-01" purity="4.4626709818840027e-01" nType="-99"/>
        </Node>
      </Node>
    </BinaryTree>
    <BinaryTree type="DecisionTree" boostWeight="1.0000000000000000e+00" itree="501">
      <Node pos="s" depth="0" NCoef="0" IVar="2" Cut="1.5062767267227173e+00" cType="1" res="7.0673869922757149e-03" rms="4.5586475729942322e-01" purity="5.0507241487503052e-01" nType="0">
        <Node pos="l" depth="1" NCoef="0" IVar="2" Cut="1.2027035951614380e+00" cType="1" res="1.2242337688803673e-02" rms="4.6265295147895813e-01" purity="5.4886233806610107e-01" nType="0">
          <Node pos="l" depth="2" NCoef="0" IVar="-1" Cut="0.0000000000000000e+00" cType="1" res="1.0363157343817875e-04" rms="4.6062660217285156e-01" purity="5.8431357145309448e-01" nType="-99"/>
          <Node pos="r" depth="2" NCoef="0" IVar="-1" Cut="0.0000000000000000e+00" cType="1" res="1.7323390347883105e-03" rms="4.6685272455215454e-01" purity="4.5727190375328064e-01" nType="-99"/>
        </Node>
        <Node pos="r" depth="1" NCoef="0" IVar="9" Cut="6.4204663085937500e+02" cType="1" res="-1.9934322685003281e-02" rms="4.1762492060661316e-01" purity="2.7658668160438538e-01" nType="0">
          <Node pos="l" depth="2" NCoef="0" IVar="-1" Cut="0.0000000000000000e+00" cType="1" res="-3.1245863065123558e-03" rms="3.6265170574188232e-01" purity="1.8530879914760590e-01" nType="-99"/>
          <Node pos="r" depth="2" NCoef="0" IVar="-1" Cut="0.0000000000000000e+00" cType="1" res="3.1222237157635391e-04" rms="4.4764229655265808e-01" purity="3.3569258451461792e-01" nType="-99"/>
        </Node>
      </Node>
    </BinaryTree>
    <BinaryTree type="DecisionTree" boostWeight="1.0000000000000000e+00" itree="502">
      <Node pos="s" depth="0" NCoef="0" IVar="8" Cut="8.5953235626220703e-01" cType="1" res="-6.7146564833819866e-04" rms="4.5844444632530212e-01" purity="5.0037455558776855e-01" nType="0">
        <Node pos="l" depth="1" NCoef="0" IVar="6" Cut="1.0296459960937500e+02" cType="1" res="1.7737390473484993e-02" rms="4.5998787879943848e-01" purity="5.9218066930770874e-01" nType="0">
          <Node pos="l" depth="2" NCoef="0" IVar="-1" Cut="0.0000000000000000e+00" cType="1" res="3.0589560628868639e-04" rms="4.5981296896934509e-01" purity="5.8607703447341919e-01" nType="-99"/>
          <Node pos="r" depth="2" NCoef="0" IVar="-1" Cut="0.0000000000000000e+00" cType="1" res="2.2401511669158936e-03" rms="4.5915514230728149e-01" purity="6.0796099901199341e-01" nType="-99"/>
        </Node>
        <Node pos="r" depth="1" NCoef="0" IVar="2" Cut="9.6952462196350098e-01" cType="1" res="-1.5126331709325314e-02" rms="4.5670905709266663e-01" purity="4.2828723788261414e-01" nType="0">
          <Node pos="l" depth="2" NCoef="0" IVar="-1" Cut="0.0000000000000000e+00" cType="1" res="-2.4122337345033884e-03" rms="4.7327053546905518e-01" purity="5.4728442430496216e-01" nType="-99"/>
          <Node pos="r" depth="2" NCoef="0" IVar="-1" Cut="0.0000000000000000e+00" cType="1" res="-1.0180864046560600e-04" rms="4.5011219382286072e-01" purity="3.8707938790321350e-01" nType="-99"/>
        </Node>
      </Node>
    </BinaryTree>
    <BinaryTree type="DecisionTree" boostWeight="1.0000000000000000e+00" itree="503">
      <Node pos="s" depth="0" NCoef="0" IVar="4" Cut="1.5599768066406250e+02" cType="1" res="-6.2894043512642384e-03" rms="4.5559942722320557e-01" purity="4.9487796425819397e-01" nType="0">
        <Node pos="l" depth="1" NCoef="0" IVar="4" Cut="1.0708153533935547e+02" cType="1" res="-2.7356822974979877e-03" rms="4.5586207509040833e-01" purity="5.0627827644348145e-01" nType="0">
          <Node pos="l" depth="2" NCoef="0" IVar="-1" Cut="0.0000000000000000e+00" cType="1" res="-5.2273122128099203e-04" rms="4.6091631054878235e-01" purity="4.8120105266571045e-01" nType="-99"/>
          <Node pos="r" depth="2" NCoef="0" IVar="-1" Cut="0.0000000000000000e+00" cType="1" res="1.4809140702709556e-03" rms="4.3481931090354919e-01" purity="6.0044562816619873e-01" nType="-99"/>
        </Node>
        <Node pos="r" depth="1" NCoef="0" IVar="-1" Cut="0.0000000000000000e+00" cType="1" res="-2.7235473971813917e-03" rms="4.4815978407859802e-01" purity="3.2203522324562073e-01" nType="-99"/>
      </Node>
    </BinaryTree>
    <BinaryTree type="DecisionTree" boostWeight="1.0000000000000000e+00" itree="504">
      <Node pos="s" depth="0" NCoef="0" IVar="4" Cut="1.2871382141113281e+02" cType="1" res="6.1903535388410091e-03" rms="4.5783174037933350e-01" purity="5.0886118412017822e-01" nType="0">
        <Node pos="l" depth="1" NCoef="0" IVar="4" Cut="3.5579544067382812e+01" cType="1" res="9.8139420151710510e-03" rms="4.5782604813575745e-01" purity="5.1943117380142212e-01" nType="0">
          <Node pos="l" depth="2" NCoef="0" IVar="-1" Cut="0.0000000000000000e+00" cType="1" res="-2.3246642667800188e-03" rms="4.6210619807243347e-01" purity="3.5467413067817688e-01" nType="-99"/>
          <Node pos="r" depth="2" NCoef="0" IVar="-1" Cut="0.0000000000000000e+00" cType="1" res="6.9278432056307793e-04" rms="4.5711514353752136e-01" purity="5.3268420696258545e-01" nType="-99"/>
        </Node>
        <Node pos="r" depth="1" NCoef="0" IVar="5" Cut="6.9228522479534149e-02" cType="1" res="-1.6135117039084435e-02" rms="4.5723375678062439e-01" purity="4.4373795390129089e-01" nType="0">
          <Node pos="l" depth="2" NCoef="0" IVar="-1" Cut="0.0000000000000000e+00" cType="1" res="8.0166780389845371e-04" rms="4.5084521174430847e-01" purity="4.2062017321586609e-01" nType="-99"/>
          <Node pos="r" depth="2" NCoef="0" IVar="-1" Cut="0.0000000000000000e+00" cType="1" res="-2.3724185302853584e-03" rms="4.6134614944458008e-01" purity="4.6845766901969910e-01" nType="-99"/>
        </Node>
      </Node>
    </BinaryTree>
    <BinaryTree type="DecisionTree" boostWeight="1.0000000000000000e+00" itree="505">
      <Node pos="s" depth="0" NCoef="0" IVar="0" Cut="9.4541816711425781e+00" cType="1" res="-9.9363608751446009e-04" rms="4.5721015334129333e-01" purity="5.0181353092193604e-01" nType="0">
        <Node pos="l" depth="1" NCoef="0" IVar="9" Cut="9.6262402343750000e+02" cType="1" res="-4.7470796853303909e-03" rms="4.6068978309631348e-01" purity="4.8673883080482483e-01" nType="0">
          <Node pos="l" depth="2" NCoef="0" IVar="-1" Cut="0.0000000000000000e+00" cType="1" res="1.1602702579693869e-04" rms="4.5760306715965271e-01" purity="4.8800107836723328e-01" nType="-99"/>
          <Node pos="r" depth="2" NCoef="0" IVar="-1" Cut="0.0000000000000000e+00" cType="1" res="-1.3452172279357910e-03" rms="4.7035127878189087e-01" purity="4.8237240314483643e-01" nType="-99"/>
        </Node>
        <Node pos="r" depth="1" NCoef="0" IVar="-1" Cut="0.0000000000000000e+00" cType="1" res="3.3507859334349632e-03" rms="3.9432689547538757e-01" purity="7.3728245496749878e-01" nType="-99"/>
      </Node>
    </BinaryTree>
    <BinaryTree type="DecisionTree" boostWeight="1.0000000000000000e+00" itree="506">
      <Node pos="s" depth="0" NCoef="0" IVar="8" Cut="1.6727304458618164e+00" cType="1" res="1.7616885015740991e-03" rms="4.5467993617057800e-01" purity="5.0216746330261230e-01" nType="0">
        <Node pos="l" depth="1" NCoef="0" IVar="9" Cut="7.5175061035156250e+02" cType="1" res="8.5458960384130478e-03" rms="4.5969718694686890e-01" purity="5.5090153217315674e-01" nType="0">
          <Node pos="l" depth="2" NCoef="0" IVar="-1" Cut="0.0000000000000000e+00" cType="1" res="-2.7619776665233076e-04" rms="4.5796427130699158e-01" purity="5.2201277017593384e-01" nType="-99"/>
          <Node pos="r" depth="2" NCoef="0" IVar="-1" Cut="0.0000000000000000e+00" cType="1" res="1.1657450813800097e-03" rms="4.6107602119445801e-01" purity="5.8311355113983154e-01" nType="-99"/>
        </Node>
        <Node pos="r" depth="1" NCoef="0" IVar="1" Cut="1.1146050262451172e+02" cType="1" res="-2.2441096603870392e-02" rms="4.3545076251029968e-01" purity="3.2830771803855896e-01" nType="0">
          <Node pos="l" depth="2" NCoef="0" IVar="-1" Cut="0.0000000000000000e+00" cType="1" res="-2.3249958176165819e-03" rms="4.2257571220397949e-01" purity="2.9573991894721985e-01" nType="-99"/>
          <Node pos="r" depth="2" NCoef="0" IVar="-1" Cut="0.0000000000000000e+00" cType="1" res="-5.8440014254301786e-04" rms="4.3982905149459839e-01" purity="3.4070003032684326e-01" nType="-99"/>
        </Node>
      </Node>
    </BinaryTree>
  </Weights>
</MethodSetup>
