<?xml version="1.0"?>
<MethodSetup Method="BDT::k1001">
  <GeneralInfo>
    <Info name="TMVA Release" value="4.2.1 [262657]"/>
    <Info name="ROOT Release" value="6.06/01 [394753]"/>
    <Info name="Creator" value="chrisjcc"/>
    <Info name="Date" value="Tue Mar 14 01:12:54 2017"/>
    <Info name="Host" value="Linux vocms0301.cern.ch 2.6.32-642.11.1.el6.x86_64 #1 SMP Wed Nov 16 09:40:09 CET 2016 x86_64 x86_64 x86_64 GNU/Linux"/>
    <Info name="Dir" value="/nfs/dust/cms/user/chrisjcc/Moriond17v6/workSpace"/>
    <Info name="Training events" value="14046"/>
    <Info name="TrainingTime" value="4.56405401e+00"/>
    <Info name="AnalysisType" value="Classification"/>
  </GeneralInfo>
  <Options>
    <Option name="V" modified="Yes">False</Option>
    <Option name="VerbosityLevel" modified="No">Default</Option>
    <Option name="VarTransform" modified="No">None</Option>
    <Option name="H" modified="Yes">False</Option>
    <Option name="CreateMVAPdfs" modified="No">False</Option>
    <Option name="IgnoreNegWeightsInTraining" modified="No">False</Option>
    <Option name="NTrees" modified="Yes">752</Option>
    <Option name="MaxDepth" modified="Yes">2</Option>
    <Option name="MinNodeSize" modified="No">5%</Option>
    <Option name="nCuts" modified="Yes">47</Option>
    <Option name="BoostType" modified="Yes">Grad</Option>
    <Option name="AdaBoostR2Loss" modified="No">quadratic</Option>
    <Option name="UseBaggedBoost" modified="Yes">True</Option>
    <Option name="Shrinkage" modified="Yes">1.577802e-02</Option>
    <Option name="AdaBoostBeta" modified="No">5.000000e-01</Option>
    <Option name="UseRandomisedTrees" modified="No">False</Option>
    <Option name="UseNvars" modified="No">3</Option>
    <Option name="UsePoissonNvars" modified="No">True</Option>
    <Option name="BaggedSampleFraction" modified="No">1.640671e-01</Option>
    <Option name="UseYesNoLeaf" modified="No">True</Option>
    <Option name="NegWeightTreatment" modified="Yes">ignorenegweightsintraining</Option>
    <Option name="Css" modified="No">1.000000e+00</Option>
    <Option name="Cts_sb" modified="No">1.000000e+00</Option>
    <Option name="Ctb_ss" modified="No">1.000000e+00</Option>
    <Option name="Cbb" modified="No">1.000000e+00</Option>
    <Option name="NodePurityLimit" modified="No">5.000000e-01</Option>
    <Option name="SeparationType" modified="No">giniindex</Option>
    <Option name="DoBoostMonitor" modified="No">False</Option>
    <Option name="UseFisherCuts" modified="No">False</Option>
    <Option name="MinLinCorrForFisher" modified="No">8.000000e-01</Option>
    <Option name="UseExclusiveVars" modified="No">False</Option>
    <Option name="DoPreselection" modified="No">False</Option>
    <Option name="SigToBkgFraction" modified="No">1.000000e+00</Option>
    <Option name="PruneMethod" modified="No">nopruning</Option>
    <Option name="PruneStrength" modified="No">0.000000e+00</Option>
    <Option name="PruningValFraction" modified="No">5.000000e-01</Option>
    <Option name="nEventsMin" modified="No">0</Option>
    <Option name="UseBaggedGrad" modified="No">False</Option>
    <Option name="GradBaggingFraction" modified="Yes">1.640671e-01</Option>
    <Option name="UseNTrainEvents" modified="No">0</Option>
    <Option name="NNodesMax" modified="No">0</Option>
  </Options>
  <Variables NVar="9">
    <Variable VarIndex="0" Expression="btagDiscriminatorAverage_tagged" Label="btagDiscriminatorAverage_tagged" Title="btagDiscriminatorAverage_tagged" Unit="" Internal="btagDiscriminatorAverage_tagged" Type="F" Min="8.58102381e-01" Max="9.99077916e-01"/>
    <Variable VarIndex="1" Expression="mass_tag_tag_min_deltaR" Label="mass_tag_tag_min_deltaR" Title="mass_tag_tag_min_deltaR" Unit="" Internal="mass_tag_tag_min_deltaR" Type="F" Min="1.40676622e+01" Max="8.12442871e+02"/>
    <Variable VarIndex="2" Expression="mass_tag_tag_max_mass" Label="mass_tag_tag_max_mass" Title="mass_tag_tag_max_mass" Unit="" Internal="mass_tag_tag_max_mass" Type="F" Min="3.13333340e+01" Max="1.91691187e+03"/>
    <Variable VarIndex="3" Expression="maxDeltaEta_jet_jet" Label="maxDeltaEta_jet_jet" Title="maxDeltaEta_jet_jet" Unit="" Internal="maxDeltaEta_jet_jet" Type="F" Min="1.98997259e-02" Max="4.76792049e+00"/>
    <Variable VarIndex="4" Expression="R4_tag" Label="R4_tag" Title="R4_tag" Unit="" Internal="R4_tag" Type="F" Min="4.36122358e-01" Max="9.77597713e-01"/>
    <Variable VarIndex="5" Expression="H1_jet" Label="H1_jet" Title="H1_jet" Unit="" Internal="H1_jet" Type="F" Min="6.71987116e-01" Max="2.75659156e+00"/>
    <Variable VarIndex="6" Expression="ptSum_jets_leptons" Label="ptSum_jets_leptons" Title="ptSum_jets_leptons" Unit="" Internal="ptSum_jets_leptons" Type="F" Min="1.37911240e+02" Max="1.85869910e+03"/>
    <Variable VarIndex="7" Expression="minDeltaR_jet_jet" Label="minDeltaR_jet_jet" Title="minDeltaR_jet_jet" Unit="" Internal="minDeltaR_jet_jet" Type="F" Min="3.92962277e-01" Max="3.55832148e+00"/>
    <Variable VarIndex="8" Expression="mass_higgsLikeDijet2" Label="mass_higgsLikeDijet2" Title="mass_higgsLikeDijet2" Unit="" Internal="mass_higgsLikeDijet2" Type="F" Min="2.38822041e+01" Max="5.87584717e+02"/>
  </Variables>
  <Spectators NSpec="0"/>
  <Classes NClass="2">
    <Class Name="Signal" Index="0"/>
    <Class Name="Background" Index="1"/>
  </Classes>
  <Transformations NTransformations="0"/>
  <MVAPdfs/>
  <Weights NTrees="752" AnalysisType="1">
    <BinaryTree type="DecisionTree" boostWeight="1.0000000000000000e+00" itree="0">
      <Node pos="s" depth="0" NCoef="0" IVar="3" Cut="2.2744266986846924e+00" cType="1" res="3.7536684423685074e-02" rms="4.9858900904655457e-01" purity="5.3753674030303955e-01" nType="0">
        <Node pos="l" depth="1" NCoef="0" IVar="6" Cut="2.9447406005859375e+02" cType="1" res="1.1487932503223419e-01" rms="4.8662382364273071e-01" purity="6.1487936973571777e-01" nType="0">
          <Node pos="l" depth="2" NCoef="0" IVar="-1" Cut="0.0000000000000000e+00" cType="1" res="-1.0383321205154061e-03" rms="4.8551315069198608e-01" purity="3.8051366806030273e-01" nType="-99"/>
          <Node pos="r" depth="2" NCoef="0" IVar="-1" Cut="0.0000000000000000e+00" cType="1" res="1.0553445899859071e-03" rms="4.5809724926948547e-01" purity="7.0036691427230835e-01" nType="-99"/>
        </Node>
        <Node pos="r" depth="1" NCoef="0" IVar="5" Cut="1.3623542785644531e+00" cType="1" res="-2.7033895254135132e-01" rms="4.2061483860015869e-01" purity="2.2966106235980988e-01" nType="0">
          <Node pos="l" depth="2" NCoef="0" IVar="-1" Cut="0.0000000000000000e+00" cType="1" res="-6.8143890239298344e-03" rms="3.5216113924980164e-01" purity="1.4505980908870697e-01" nType="-99"/>
          <Node pos="r" depth="2" NCoef="0" IVar="-1" Cut="0.0000000000000000e+00" cType="1" res="-4.2041897540912032e-04" rms="4.9618420004844666e-01" purity="4.3834584951400757e-01" nType="-99"/>
        </Node>
      </Node>
    </BinaryTree>
    <BinaryTree type="DecisionTree" boostWeight="1.0000000000000000e+00" itree="1">
      <Node pos="s" depth="0" NCoef="0" IVar="3" Cut="1.8740082979202271e+00" cType="1" res="-8.6212059250101447e-04" rms="4.9959054589271545e-01" purity="4.9874609708786011e-01" nType="0">
        <Node pos="l" depth="1" NCoef="0" IVar="0" Cut="9.6791946887969971e-01" cType="1" res="1.0917036980390549e-01" rms="4.8778286576271057e-01" purity="6.0939395427703857e-01" nType="0">
          <Node pos="l" depth="2" NCoef="0" IVar="-1" Cut="0.0000000000000000e+00" cType="1" res="-9.2879039584659040e-05" rms="4.9972790479660034e-01" purity="4.8668968677520752e-01" nType="-99"/>
          <Node pos="r" depth="2" NCoef="0" IVar="-1" Cut="0.0000000000000000e+00" cType="1" res="1.3142328243702650e-03" rms="4.1596496105194092e-01" purity="7.7731412649154663e-01" nType="-99"/>
        </Node>
        <Node pos="r" depth="1" NCoef="0" IVar="0" Cut="9.6605730056762695e-01" cType="1" res="-2.3035351932048798e-01" rms="4.4270628690719604e-01" purity="2.6797121763229370e-01" nType="0">
          <Node pos="l" depth="2" NCoef="0" IVar="-1" Cut="0.0000000000000000e+00" cType="1" res="-4.4510192237794399e-03" rms="3.9578762650489807e-01" purity="1.9482831656932831e-01" nType="-99"/>
          <Node pos="r" depth="2" NCoef="0" IVar="-1" Cut="0.0000000000000000e+00" cType="1" res="-5.3233740618452430e-04" rms="4.9548926949501038e-01" purity="4.3331143260002136e-01" nType="-99"/>
        </Node>
      </Node>
    </BinaryTree>
    <BinaryTree type="DecisionTree" boostWeight="1.0000000000000000e+00" itree="2">
      <Node pos="s" depth="0" NCoef="0" IVar="3" Cut="2.3155705928802490e+00" cType="1" res="4.1828509420156479e-02" rms="4.9761772155761719e-01" purity="5.4102474451065063e-01" nType="0">
        <Node pos="l" depth="1" NCoef="0" IVar="1" Cut="4.0561332702636719e+01" cType="1" res="1.0683643817901611e-01" rms="4.8823672533035278e-01" purity="6.0681450366973877e-01" nType="0">
          <Node pos="l" depth="2" NCoef="0" IVar="-1" Cut="0.0000000000000000e+00" cType="1" res="-2.8940949123352766e-03" rms="4.3972012400627136e-01" purity="2.6174807548522949e-01" nType="-99"/>
          <Node pos="r" depth="2" NCoef="0" IVar="-1" Cut="0.0000000000000000e+00" cType="1" res="8.0790533684194088e-04" rms="4.7788447141647339e-01" purity="6.4632576704025269e-01" nType="-99"/>
        </Node>
        <Node pos="r" depth="1" NCoef="0" IVar="0" Cut="9.7102618217468262e-01" cType="1" res="-2.4250869452953339e-01" rms="4.3444505333900452e-01" purity="2.5326773524284363e-01" nType="0">
          <Node pos="l" depth="2" NCoef="0" IVar="-1" Cut="0.0000000000000000e+00" cType="1" res="-6.5848832018673420e-03" rms="3.4185996651649475e-01" purity="1.3531249761581421e-01" nType="-99"/>
          <Node pos="r" depth="2" NCoef="0" IVar="-1" Cut="0.0000000000000000e+00" cType="1" res="3.4766166936606169e-04" rms="4.9769267439842224e-01" purity="5.4905831813812256e-01" nType="-99"/>
        </Node>
      </Node>
    </BinaryTree>
    <BinaryTree type="DecisionTree" boostWeight="1.0000000000000000e+00" itree="3">
      <Node pos="s" depth="0" NCoef="0" IVar="3" Cut="1.8315424919128418e+00" cType="1" res="-3.0535561963915825e-02" rms="4.9781677126884460e-01" purity="4.6820661425590515e-01" nType="0">
        <Node pos="l" depth="1" NCoef="0" IVar="6" Cut="3.2883963012695312e+02" cType="1" res="7.9842761158943176e-02" rms="4.9316254258155823e-01" purity="5.8045321702957153e-01" nType="0">
          <Node pos="l" depth="2" NCoef="0" IVar="-1" Cut="0.0000000000000000e+00" cType="1" res="-6.6381826763972640e-04" rms="4.9326893687248230e-01" purity="4.2031565308570862e-01" nType="-99"/>
          <Node pos="r" depth="2" NCoef="0" IVar="-1" Cut="0.0000000000000000e+00" cType="1" res="1.0301545262336731e-03" rms="4.6012201905250549e-01" purity="6.9546401500701904e-01" nType="-99"/>
        </Node>
        <Node pos="r" depth="1" NCoef="0" IVar="3" Cut="3.1173758506774902e+00" cType="1" res="-2.4042522907257080e-01" rms="4.3516775965690613e-01" purity="2.5476446747779846e-01" nType="0">
          <Node pos="l" depth="2" NCoef="0" IVar="-1" Cut="0.0000000000000000e+00" cType="1" res="-1.9157950300723314e-03" rms="4.6291688084602356e-01" purity="3.1161603331565857e-01" nType="-99"/>
          <Node pos="r" depth="2" NCoef="0" IVar="-1" Cut="0.0000000000000000e+00" cType="1" res="-2.7063284069299698e-02" rms="2.2276930976659060e-03" purity="0.0000000000000000e+00" nType="-99"/>
        </Node>
      </Node>
    </BinaryTree>
    <BinaryTree type="DecisionTree" boostWeight="1.0000000000000000e+00" itree="4">
      <Node pos="s" depth="0" NCoef="0" IVar="3" Cut="2.5622615814208984e+00" cType="1" res="-1.9244180992245674e-02" rms="4.9772980809211731e-01" purity="4.7852572798728943e-01" nType="0">
        <Node pos="l" depth="1" NCoef="0" IVar="6" Cut="3.3623931884765625e+02" cType="1" res="3.9378348737955093e-02" rms="4.9803251028060913e-01" purity="5.3887510299682617e-01" nType="0">
          <Node pos="l" depth="2" NCoef="0" IVar="-1" Cut="0.0000000000000000e+00" cType="1" res="-6.4424204174429178e-04" rms="4.9330964684486389e-01" purity="4.1987016797065735e-01" nType="-99"/>
          <Node pos="r" depth="2" NCoef="0" IVar="-1" Cut="0.0000000000000000e+00" cType="1" res="7.7141157817095518e-04" rms="4.8096817731857300e-01" purity="6.3554948568344116e-01" nType="-99"/>
        </Node>
        <Node pos="r" depth="1" NCoef="0" IVar="6" Cut="3.2116967773437500e+02" cType="1" res="-3.9116227626800537e-01" rms="2.9274007678031921e-01" purity="9.5652051270008087e-02" nType="0">
          <Node pos="l" depth="2" NCoef="0" IVar="-1" Cut="0.0000000000000000e+00" cType="1" res="-2.6444163173437119e-02" rms="6.6084121353924274e-03" purity="0.0000000000000000e+00" nType="-99"/>
          <Node pos="r" depth="2" NCoef="0" IVar="-1" Cut="0.0000000000000000e+00" cType="1" res="-3.8896892219781876e-03" rms="4.0093570947647095e-01" purity="2.0338165760040283e-01" nType="-99"/>
        </Node>
      </Node>
    </BinaryTree>
    <BinaryTree type="DecisionTree" boostWeight="1.0000000000000000e+00" itree="5">
      <Node pos="s" depth="0" NCoef="0" IVar="3" Cut="2.1034839153289795e+00" cType="1" res="-2.4454209953546524e-02" rms="4.9614465236663818e-01" purity="4.7220271825790405e-01" nType="0">
        <Node pos="l" depth="1" NCoef="0" IVar="6" Cut="3.0750921630859375e+02" cType="1" res="6.3237734138965607e-02" rms="4.9539336562156677e-01" purity="5.6368100643157959e-01" nType="0">
          <Node pos="l" depth="2" NCoef="0" IVar="-1" Cut="0.0000000000000000e+00" cType="1" res="-7.9955585533753037e-04" rms="4.9036553502082825e-01" purity="4.0353858470916748e-01" nType="-99"/>
          <Node pos="r" depth="2" NCoef="0" IVar="-1" Cut="0.0000000000000000e+00" cType="1" res="8.1099040107801557e-04" rms="4.7742089629173279e-01" purity="6.4769965410232544e-01" nType="-99"/>
        </Node>
        <Node pos="r" depth="1" NCoef="0" IVar="0" Cut="9.6032577753067017e-01" cType="1" res="-2.9462021589279175e-01" rms="3.8958117365837097e-01" purity="1.9037149846553802e-01" nType="0">
          <Node pos="l" depth="2" NCoef="0" IVar="-1" Cut="0.0000000000000000e+00" cType="1" res="-1.0103609412908554e-02" rms="2.8909438848495483e-01" purity="9.4094507396221161e-02" nType="-99"/>
          <Node pos="r" depth="2" NCoef="0" IVar="-1" Cut="0.0000000000000000e+00" cType="1" res="-1.1677476577460766e-03" rms="4.7866523265838623e-01" purity="3.6320549249649048e-01" nType="-99"/>
        </Node>
      </Node>
    </BinaryTree>
    <BinaryTree type="DecisionTree" boostWeight="1.0000000000000000e+00" itree="6">
      <Node pos="s" depth="0" NCoef="0" IVar="3" Cut="2.4484477043151855e+00" cType="1" res="-3.8257341366261244e-03" rms="4.9628749489784241e-01" purity="4.9244818091392517e-01" nType="0">
        <Node pos="l" depth="1" NCoef="0" IVar="6" Cut="3.0526928710937500e+02" cType="1" res="5.8042280375957489e-02" rms="4.9561709165573120e-01" purity="5.5769860744476318e-01" nType="0">
          <Node pos="l" depth="2" NCoef="0" IVar="-1" Cut="0.0000000000000000e+00" cType="1" res="-1.4007025165483356e-03" rms="4.7812941670417786e-01" purity="3.5627493262290955e-01" nType="-99"/>
          <Node pos="r" depth="2" NCoef="0" IVar="-1" Cut="0.0000000000000000e+00" cType="1" res="8.6057302542030811e-04" rms="4.7510677576065063e-01" purity="6.5414792299270630e-01" nType="-99"/>
        </Node>
        <Node pos="r" depth="1" NCoef="0" IVar="1" Cut="1.5218336486816406e+02" cType="1" res="-3.5100111365318298e-01" rms="3.2866847515106201e-01" purity="1.2629237771034241e-01" nType="0">
          <Node pos="l" depth="2" NCoef="0" IVar="-1" Cut="0.0000000000000000e+00" cType="1" res="-1.5850616618990898e-02" rms="1.8697780370712280e-01" purity="3.7709042429924011e-02" nType="-99"/>
          <Node pos="r" depth="2" NCoef="0" IVar="-1" Cut="0.0000000000000000e+00" cType="1" res="-2.0477068610489368e-03" rms="4.5289087295532227e-01" purity="2.9384964704513550e-01" nType="-99"/>
        </Node>
      </Node>
    </BinaryTree>
    <BinaryTree type="DecisionTree" boostWeight="1.0000000000000000e+00" itree="7">
      <Node pos="s" depth="0" NCoef="0" IVar="0" Cut="9.5761734247207642e-01" cType="1" res="-6.9051119498908520e-04" rms="4.9542540311813354e-01" purity="4.9438652396202087e-01" nType="0">
        <Node pos="l" depth="1" NCoef="0" IVar="3" Cut="9.8251801729202271e-01" cType="1" res="-1.6711565852165222e-01" rms="4.6407714486122131e-01" purity="3.2459217309951782e-01" nType="0">
          <Node pos="l" depth="2" NCoef="0" IVar="-1" Cut="0.0000000000000000e+00" cType="1" res="3.8014107849448919e-04" rms="4.9585109949111938e-01" purity="5.5966651439666748e-01" nType="-99"/>
          <Node pos="r" depth="2" NCoef="0" IVar="-1" Cut="0.0000000000000000e+00" cType="1" res="-3.0031914357095957e-03" rms="4.2861300706863403e-01" purity="2.4879556894302368e-01" nType="-99"/>
        </Node>
        <Node pos="r" depth="1" NCoef="0" IVar="3" Cut="2.0962965488433838e+00" cType="1" res="1.6612809896469116e-01" rms="4.6904683113098145e-01" purity="6.6458243131637573e-01" nType="0">
          <Node pos="l" depth="2" NCoef="0" IVar="-1" Cut="0.0000000000000000e+00" cType="1" res="1.1648463550955057e-03" rms="4.3911629915237427e-01" purity="7.3818612098693848e-01" nType="-99"/>
          <Node pos="r" depth="2" NCoef="0" IVar="-1" Cut="0.0000000000000000e+00" cType="1" res="-2.4901160504668951e-03" rms="4.4300445914268494e-01" purity="2.7420228719711304e-01" nType="-99"/>
        </Node>
      </Node>
    </BinaryTree>
    <BinaryTree type="DecisionTree" boostWeight="1.0000000000000000e+00" itree="8">
      <Node pos="s" depth="0" NCoef="0" IVar="3" Cut="1.7849699258804321e+00" cType="1" res="-3.1730689108371735e-02" rms="4.9448287487030029e-01" purity="4.6262428164482117e-01" nType="0">
        <Node pos="l" depth="1" NCoef="0" IVar="6" Cut="2.8044961547851562e+02" cType="1" res="8.0380633473396301e-02" rms="4.9258449673652649e-01" purity="5.8106201887130737e-01" nType="0">
          <Node pos="l" depth="2" NCoef="0" IVar="-1" Cut="0.0000000000000000e+00" cType="1" res="-1.2169351102784276e-03" rms="4.8190912604331970e-01" purity="3.6831679940223694e-01" nType="-99"/>
          <Node pos="r" depth="2" NCoef="0" IVar="-1" Cut="0.0000000000000000e+00" cType="1" res="8.1627571489661932e-04" rms="4.7621190547943115e-01" purity="6.5139538049697876e-01" nType="-99"/>
        </Node>
        <Node pos="r" depth="1" NCoef="0" IVar="0" Cut="9.6032577753067017e-01" cType="1" res="-2.3157291114330292e-01" rms="4.3071100115776062e-01" purity="2.5150489807128906e-01" nType="0">
          <Node pos="l" depth="2" NCoef="0" IVar="-1" Cut="0.0000000000000000e+00" cType="1" res="-6.1996155418455601e-03" rms="3.4758880734443665e-01" purity="1.4309461414813995e-01" nType="-99"/>
          <Node pos="r" depth="2" NCoef="0" IVar="-1" Cut="0.0000000000000000e+00" cType="1" res="-5.7623197790235281e-04" rms="4.9111962318420410e-01" purity="4.1873654723167419e-01" nType="-99"/>
        </Node>
      </Node>
    </BinaryTree>
    <BinaryTree type="DecisionTree" boostWeight="1.0000000000000000e+00" itree="9">
      <Node pos="s" depth="0" NCoef="0" IVar="3" Cut="2.0673198699951172e+00" cType="1" res="-3.4905295819044113e-02" rms="4.9281507730484009e-01" purity="4.5900225639343262e-01" nType="0">
        <Node pos="l" depth="1" NCoef="0" IVar="6" Cut="3.3838452148437500e+02" cType="1" res="7.2041489183902740e-02" rms="4.9345499277114868e-01" purity="5.7244491577148438e-01" nType="0">
          <Node pos="l" depth="2" NCoef="0" IVar="-1" Cut="0.0000000000000000e+00" cType="1" res="-8.1180629786103964e-04" rms="4.8971971869468689e-01" purity="4.0219521522521973e-01" nType="-99"/>
          <Node pos="r" depth="2" NCoef="0" IVar="-1" Cut="0.0000000000000000e+00" cType="1" res="1.0359772713854909e-03" rms="4.5648112893104553e-01" purity="7.0276719331741333e-01" nType="-99"/>
        </Node>
        <Node pos="r" depth="1" NCoef="0" IVar="0" Cut="9.6026051044464111e-01" cType="1" res="-3.3939513564109802e-01" rms="3.4028163552284241e-01" purity="1.3601791858673096e-01" nType="0">
          <Node pos="l" depth="2" NCoef="0" IVar="-1" Cut="0.0000000000000000e+00" cType="1" res="-1.7380502074956894e-02" rms="1.5983264148235321e-01" purity="2.6034338399767876e-02" nType="-99"/>
          <Node pos="r" depth="2" NCoef="0" IVar="-1" Cut="0.0000000000000000e+00" cType="1" res="-2.0626462064683437e-03" rms="4.5606294274330139e-01" purity="2.9708331823348999e-01" nType="-99"/>
        </Node>
      </Node>
    </BinaryTree>
    <BinaryTree type="DecisionTree" boostWeight="1.0000000000000000e+00" itree="10">
      <Node pos="s" depth="0" NCoef="0" IVar="3" Cut="2.1234796047210693e+00" cType="1" res="7.6805788557976484e-04" rms="4.9416962265968323e-01" purity="4.9305030703544617e-01" nType="0">
        <Node pos="l" depth="1" NCoef="0" IVar="1" Cut="7.6612510681152344e+01" cType="1" res="7.3136620223522186e-02" rms="4.9345096945762634e-01" purity="5.7315343618392944e-01" nType="0">
          <Node pos="l" depth="2" NCoef="0" IVar="-1" Cut="0.0000000000000000e+00" cType="1" res="-4.6550488332286477e-04" rms="4.9489319324493408e-01" purity="4.4052106142044067e-01" nType="-99"/>
          <Node pos="r" depth="2" NCoef="0" IVar="-1" Cut="0.0000000000000000e+00" cType="1" res="9.3611783813685179e-04" rms="4.6735703945159912e-01" purity="6.7618942260742188e-01" nType="-99"/>
        </Node>
        <Node pos="r" depth="1" NCoef="0" IVar="0" Cut="9.6996861696243286e-01" cType="1" res="-2.2451272606849670e-01" rms="4.2350730299949646e-01" purity="2.4369195103645325e-01" nType="0">
          <Node pos="l" depth="2" NCoef="0" IVar="-1" Cut="0.0000000000000000e+00" cType="1" res="-5.9088408015668392e-03" rms="3.4979104995727539e-01" purity="1.4454196393489838e-01" nType="-99"/>
          <Node pos="r" depth="2" NCoef="0" IVar="-1" Cut="0.0000000000000000e+00" cType="1" res="3.4895975841209292e-04" rms="4.9493700265884399e-01" purity="5.3523695468902588e-01" nType="-99"/>
        </Node>
      </Node>
    </BinaryTree>
    <BinaryTree type="DecisionTree" boostWeight="1.0000000000000000e+00" itree="11">
      <Node pos="s" depth="0" NCoef="0" IVar="3" Cut="2.2371108531951904e+00" cType="1" res="-3.9786074310541153e-02" rms="4.9175256490707397e-01" purity="4.5159375667572021e-01" nType="0">
        <Node pos="l" depth="1" NCoef="0" IVar="1" Cut="4.9378944396972656e+01" cType="1" res="2.6683926582336426e-02" rms="4.9802568554878235e-01" purity="5.2578991651535034e-01" nType="0">
          <Node pos="l" depth="2" NCoef="0" IVar="-1" Cut="0.0000000000000000e+00" cType="1" res="-2.4350967723876238e-03" rms="4.4943627715110779e-01" purity="2.8127691149711609e-01" nType="-99"/>
          <Node pos="r" depth="2" NCoef="0" IVar="-1" Cut="0.0000000000000000e+00" cType="1" res="5.1957927644252777e-04" rms="4.9210816621780396e-01" purity="5.8188986778259277e-01" nType="-99"/>
        </Node>
        <Node pos="r" depth="1" NCoef="0" IVar="7" Cut="1.7581020593643188e+00" cType="1" res="-2.7189022302627563e-01" rms="3.8838031888008118e-01" purity="1.9251102209091187e-01" nType="0">
          <Node pos="l" depth="2" NCoef="0" IVar="-1" Cut="0.0000000000000000e+00" cType="1" res="-1.3705298304557800e-02" rms="2.1461360156536102e-01" purity="5.0714977085590363e-02" nType="-99"/>
          <Node pos="r" depth="2" NCoef="0" IVar="-1" Cut="0.0000000000000000e+00" cType="1" res="-2.2673958446830511e-03" rms="4.3723347783088684e-01" purity="2.6924228668212891e-01" nType="-99"/>
        </Node>
      </Node>
    </BinaryTree>
    <BinaryTree type="DecisionTree" boostWeight="1.0000000000000000e+00" itree="12">
      <Node pos="s" depth="0" NCoef="0" IVar="3" Cut="1.8399995565414429e+00" cType="1" res="-1.8266561673954129e-03" rms="4.9278193712234497e-01" purity="4.8940795660018921e-01" nType="0">
        <Node pos="l" depth="1" NCoef="0" IVar="1" Cut="1.1112059020996094e+02" cType="1" res="1.2153454124927521e-01" rms="4.8349696397781372e-01" purity="6.2274885177612305e-01" nType="0">
          <Node pos="l" depth="2" NCoef="0" IVar="-1" Cut="0.0000000000000000e+00" cType="1" res="2.2405952040571719e-04" rms="4.9814248085021973e-01" purity="5.3291738033294678e-01" nType="-99"/>
          <Node pos="r" depth="2" NCoef="0" IVar="-1" Cut="0.0000000000000000e+00" cType="1" res="1.3770088553428650e-03" rms="4.0195429325103760e-01" purity="7.9647850990295410e-01" nType="-99"/>
        </Node>
        <Node pos="r" depth="1" NCoef="0" IVar="0" Cut="9.4837605953216553e-01" cType="1" res="-2.5912779569625854e-01" rms="4.0471717715263367e-01" purity="2.1129155158996582e-01" nType="0">
          <Node pos="l" depth="2" NCoef="0" IVar="-1" Cut="0.0000000000000000e+00" cType="1" res="-1.7287842929363251e-02" rms="1.6760544478893280e-01" purity="2.8543235734105110e-02" nType="-99"/>
          <Node pos="r" depth="2" NCoef="0" IVar="-1" Cut="0.0000000000000000e+00" cType="1" res="-1.5909271314740181e-03" rms="4.6651038527488708e-01" purity="3.2398760318756104e-01" nType="-99"/>
        </Node>
      </Node>
    </BinaryTree>
    <BinaryTree type="DecisionTree" boostWeight="1.0000000000000000e+00" itree="13">
      <Node pos="s" depth="0" NCoef="0" IVar="0" Cut="9.5704549551010132e-01" cType="1" res="-5.9808366931974888e-03" rms="4.9223726987838745e-01" purity="4.8422110080718994e-01" nType="0">
        <Node pos="l" depth="1" NCoef="0" IVar="3" Cut="2.0346617698669434e+00" cType="1" res="-1.9530673325061798e-01" rms="4.4502869248390198e-01" purity="2.8794395923614502e-01" nType="0">
          <Node pos="l" depth="2" NCoef="0" IVar="-1" Cut="0.0000000000000000e+00" cType="1" res="-9.5341686392202973e-04" rms="4.8560056090354919e-01" purity="3.8586398959159851e-01" nType="-99"/>
          <Node pos="r" depth="2" NCoef="0" IVar="-1" Cut="0.0000000000000000e+00" cType="1" res="-9.2630470171570778e-03" rms="2.6952055096626282e-01" purity="8.0070488154888153e-02" nType="-99"/>
        </Node>
        <Node pos="r" depth="1" NCoef="0" IVar="3" Cut="2.1549732685089111e+00" cType="1" res="1.5956880152225494e-01" rms="4.7142153978347778e-01" purity="6.5584897994995117e-01" nType="0">
          <Node pos="l" depth="2" NCoef="0" IVar="-1" Cut="0.0000000000000000e+00" cType="1" res="1.1245635105296969e-03" rms="4.4786131381988525e-01" purity="7.2059649229049683e-01" nType="-99"/>
          <Node pos="r" depth="2" NCoef="0" IVar="-1" Cut="0.0000000000000000e+00" cType="1" res="-6.3785637030377984e-04" rms="4.8996961116790771e-01" purity="3.9989909529685974e-01" nType="-99"/>
        </Node>
      </Node>
    </BinaryTree>
    <BinaryTree type="DecisionTree" boostWeight="1.0000000000000000e+00" itree="14">
      <Node pos="s" depth="0" NCoef="0" IVar="3" Cut="1.9104442596435547e+00" cType="1" res="4.1612520813941956e-02" rms="4.9106621742248535e-01" purity="5.3112989664077759e-01" nType="0">
        <Node pos="l" depth="1" NCoef="0" IVar="1" Cut="4.4181755065917969e+01" cType="1" res="1.3536632061004639e-01" rms="4.7940081357955933e-01" purity="6.3678663969039917e-01" nType="0">
          <Node pos="l" depth="2" NCoef="0" IVar="-1" Cut="0.0000000000000000e+00" cType="1" res="-2.2199116647243500e-03" rms="4.5805811882019043e-01" purity="3.0139696598052979e-01" nType="-99"/>
          <Node pos="r" depth="2" NCoef="0" IVar="-1" Cut="0.0000000000000000e+00" cType="1" res="9.8288687877357006e-04" rms="4.6378386020660400e-01" purity="6.8419879674911499e-01" nType="-99"/>
        </Node>
        <Node pos="r" depth="1" NCoef="0" IVar="1" Cut="9.2493904113769531e+01" cType="1" res="-1.5083143115043640e-01" rms="4.5750066637992859e-01" purity="3.1425338983535767e-01" nType="0">
          <Node pos="l" depth="2" NCoef="0" IVar="-1" Cut="0.0000000000000000e+00" cType="1" res="-5.9003578498959541e-03" rms="3.5610204935073853e-01" purity="1.5343783795833588e-01" nType="-99"/>
          <Node pos="r" depth="2" NCoef="0" IVar="-1" Cut="0.0000000000000000e+00" cType="1" res="-5.8738020015880466e-04" rms="4.8275971412658691e-01" purity="3.9866217970848083e-01" nType="-99"/>
        </Node>
      </Node>
    </BinaryTree>
    <BinaryTree type="DecisionTree" boostWeight="1.0000000000000000e+00" itree="15">
      <Node pos="s" depth="0" NCoef="0" IVar="3" Cut="1.3985991477966309e+00" cType="1" res="4.3501416221261024e-03" rms="4.9267286062240601e-01" purity="4.9215328693389893e-01" nType="0">
        <Node pos="l" depth="1" NCoef="0" IVar="1" Cut="8.1967803955078125e+01" cType="1" res="1.3183006644248962e-01" rms="4.7989338636398315e-01" purity="6.3419884443283081e-01" nType="0">
          <Node pos="l" depth="2" NCoef="0" IVar="-1" Cut="0.0000000000000000e+00" cType="1" res="-3.5961292451247573e-04" rms="4.9623683094978333e-01" purity="4.5226010680198669e-01" nType="-99"/>
          <Node pos="r" depth="2" NCoef="0" IVar="-1" Cut="0.0000000000000000e+00" cType="1" res="1.3465798692777753e-03" rms="3.9940300583839417e-01" purity="8.0026233196258545e-01" nType="-99"/>
        </Node>
        <Node pos="r" depth="1" NCoef="0" IVar="7" Cut="9.1424936056137085e-01" cType="1" res="-1.0628343373537064e-01" rms="4.7662314772605896e-01" purity="3.6887899041175842e-01" nType="0">
          <Node pos="l" depth="2" NCoef="0" IVar="-1" Cut="0.0000000000000000e+00" cType="1" res="-1.7559707164764404e-02" rms="2.0341356098651886e-01" purity="4.4731069356203079e-02" nType="-99"/>
          <Node pos="r" depth="2" NCoef="0" IVar="-1" Cut="0.0000000000000000e+00" cType="1" res="-6.0188130009919405e-04" rms="4.8459374904632568e-01" purity="4.0361431241035461e-01" nType="-99"/>
        </Node>
      </Node>
    </BinaryTree>
    <BinaryTree type="DecisionTree" boostWeight="1.0000000000000000e+00" itree="16">
      <Node pos="s" depth="0" NCoef="0" IVar="6" Cut="3.3077468872070312e+02" cType="1" res="-2.1234927407931536e-04" rms="4.9176284670829773e-01" purity="4.8862525820732117e-01" nType="0">
        <Node pos="l" depth="1" NCoef="0" IVar="1" Cut="4.8737171173095703e+01" cType="1" res="-1.3109947741031647e-01" rms="4.7100767493247986e-01" purity="3.5026201605796814e-01" nType="0">
          <Node pos="l" depth="2" NCoef="0" IVar="-1" Cut="0.0000000000000000e+00" cType="1" res="-1.0064234957098961e-02" rms="2.8597182035446167e-01" purity="9.1796137392520905e-02" nType="-99"/>
          <Node pos="r" depth="2" NCoef="0" IVar="-1" Cut="0.0000000000000000e+00" cType="1" res="-4.5495652011595666e-04" rms="4.8688617348670959e-01" purity="4.2434003949165344e-01" nType="-99"/>
        </Node>
        <Node pos="r" depth="1" NCoef="0" IVar="3" Cut="1.9831312894821167e+00" cType="1" res="1.1231119185686111e-01" rms="4.8126932978630066e-01" purity="6.0757607221603394e-01" nType="0">
          <Node pos="l" depth="2" NCoef="0" IVar="-1" Cut="0.0000000000000000e+00" cType="1" res="1.0284227319061756e-03" rms="4.5952025055885315e-01" purity="6.9452351331710815e-01" nType="-99"/>
          <Node pos="r" depth="2" NCoef="0" IVar="-1" Cut="0.0000000000000000e+00" cType="1" res="-1.4206808991730213e-03" rms="4.6278741955757141e-01" purity="3.2722890377044678e-01" nType="-99"/>
        </Node>
      </Node>
    </BinaryTree>
    <BinaryTree type="DecisionTree" boostWeight="1.0000000000000000e+00" itree="17">
      <Node pos="s" depth="0" NCoef="0" IVar="0" Cut="9.5610886812210083e-01" cType="1" res="5.1448646932840347e-02" rms="4.9010205268859863e-01" purity="5.3943693637847900e-01" nType="0">
        <Node pos="l" depth="1" NCoef="0" IVar="1" Cut="5.7746315002441406e+01" cType="1" res="-1.0709242522716522e-01" rms="4.7622841596603394e-01" purity="3.7173724174499512e-01" nType="0">
          <Node pos="l" depth="2" NCoef="0" IVar="-1" Cut="0.0000000000000000e+00" cType="1" res="-5.4663573391735554e-03" rms="3.5542994737625122e-01" purity="1.5530075132846832e-01" nType="-99"/>
          <Node pos="r" depth="2" NCoef="0" IVar="-1" Cut="0.0000000000000000e+00" cType="1" res="-2.8699613176286221e-04" rms="4.8929205536842346e-01" purity="4.4247761368751526e-01" nType="-99"/>
        </Node>
        <Node pos="r" depth="1" NCoef="0" IVar="3" Cut="2.5475850105285645e+00" cType="1" res="1.7997387051582336e-01" rms="4.6278840303421021e-01" purity="6.7538678646087646e-01" nType="0">
          <Node pos="l" depth="2" NCoef="0" IVar="-1" Cut="0.0000000000000000e+00" cType="1" res="1.1164436582475901e-03" rms="4.4588655233383179e-01" purity="7.2164130210876465e-01" nType="-99"/>
          <Node pos="r" depth="2" NCoef="0" IVar="-1" Cut="0.0000000000000000e+00" cType="1" res="-2.3408620618283749e-03" rms="4.4162833690643311e-01" purity="2.7079218626022339e-01" nType="-99"/>
        </Node>
      </Node>
    </BinaryTree>
    <BinaryTree type="DecisionTree" boostWeight="1.0000000000000000e+00" itree="18">
      <Node pos="s" depth="0" NCoef="0" IVar="3" Cut="2.8107495307922363e+00" cType="1" res="1.6559135168790817e-02" rms="4.9273157119750977e-01" purity="5.0190699100494385e-01" nType="0">
        <Node pos="l" depth="1" NCoef="0" IVar="0" Cut="9.5633023977279663e-01" cType="1" res="5.7514756917953491e-02" rms="4.9429765343666077e-01" purity="5.4727011919021606e-01" nType="0">
          <Node pos="l" depth="2" NCoef="0" IVar="-1" Cut="0.0000000000000000e+00" cType="1" res="-3.9393515908159316e-04" rms="4.9402421712875366e-01" purity="4.3182536959648132e-01" nType="-99"/>
          <Node pos="r" depth="2" NCoef="0" IVar="-1" Cut="0.0000000000000000e+00" cType="1" res="9.1025035362690687e-04" rms="4.7033274173736572e-01" purity="6.6343247890472412e-01" nType="-99"/>
        </Node>
        <Node pos="r" depth="1" NCoef="0" IVar="-1" Cut="0.0000000000000000e+00" cType="1" res="-1.4647337608039379e-02" rms="1.8629631400108337e-01" purity="3.8368593901395798e-02" nType="-99"/>
      </Node>
    </BinaryTree>
    <BinaryTree type="DecisionTree" boostWeight="1.0000000000000000e+00" itree="19">
      <Node pos="s" depth="0" NCoef="0" IVar="3" Cut="2.6500051021575928e+00" cType="1" res="1.6473397612571716e-02" rms="4.9108296632766724e-01" purity="5.0224053859710693e-01" nType="0">
        <Node pos="l" depth="1" NCoef="0" IVar="8" Cut="9.5010833740234375e+01" cType="1" res="6.6499702632427216e-02" rms="4.9263483285903931e-01" purity="5.5899429321289062e-01" nType="0">
          <Node pos="l" depth="2" NCoef="0" IVar="-1" Cut="0.0000000000000000e+00" cType="1" res="-2.9444291722029448e-03" rms="4.3478369712829590e-01" purity="2.5885504484176636e-01" nType="-99"/>
          <Node pos="r" depth="2" NCoef="0" IVar="-1" Cut="0.0000000000000000e+00" cType="1" res="6.3937372760847211e-04" rms="4.8637107014656067e-01" purity="5.9866046905517578e-01" nType="-99"/>
        </Node>
        <Node pos="r" depth="1" NCoef="0" IVar="5" Cut="1.1349474191665649e+00" cType="1" res="-3.5246169567108154e-01" rms="2.7447161078453064e-01" purity="8.3692111074924469e-02" nType="0">
          <Node pos="l" depth="2" NCoef="0" IVar="-1" Cut="0.0000000000000000e+00" cType="1" res="-2.3861449211835861e-02" rms="1.8669802695512772e-02" purity="0.0000000000000000e+00" nType="-99"/>
          <Node pos="r" depth="2" NCoef="0" IVar="-1" Cut="0.0000000000000000e+00" cType="1" res="-3.8567925803363323e-03" rms="3.9434173703193665e-01" purity="1.9558034837245941e-01" nType="-99"/>
        </Node>
      </Node>
    </BinaryTree>
    <BinaryTree type="DecisionTree" boostWeight="1.0000000000000000e+00" itree="20">
      <Node pos="s" depth="0" NCoef="0" IVar="3" Cut="2.0273010730743408e+00" cType="1" res="-1.0529730468988419e-02" rms="4.8735722899436951e-01" purity="4.7443976998329163e-01" nType="0">
        <Node pos="l" depth="1" NCoef="0" IVar="6" Cut="3.6257586669921875e+02" cType="1" res="8.8251531124114990e-02" rms="4.8894515633583069e-01" purity="5.8827131986618042e-01" nType="0">
          <Node pos="l" depth="2" NCoef="0" IVar="-1" Cut="0.0000000000000000e+00" cType="1" res="-5.4763106163591146e-04" rms="4.9290761351585388e-01" purity="4.2655685544013977e-01" nType="-99"/>
          <Node pos="r" depth="2" NCoef="0" IVar="-1" Cut="0.0000000000000000e+00" cType="1" res="1.1287634260952473e-03" rms="4.3928778171539307e-01" purity="7.3538678884506226e-01" nType="-99"/>
        </Node>
        <Node pos="r" depth="1" NCoef="0" IVar="1" Cut="9.4057586669921875e+01" cType="1" res="-2.4484449625015259e-01" rms="3.9470285177230835e-01" purity="2.0442481338977814e-01" nType="0">
          <Node pos="l" depth="2" NCoef="0" IVar="-1" Cut="0.0000000000000000e+00" cType="1" res="-1.5335182659327984e-02" rms="1.7663940787315369e-01" purity="3.5318259149789810e-02" nType="-99"/>
          <Node pos="r" depth="2" NCoef="0" IVar="-1" Cut="0.0000000000000000e+00" cType="1" res="-1.8345646094530821e-03" rms="4.4731378555297852e-01" purity="2.9191812872886658e-01" nType="-99"/>
        </Node>
      </Node>
    </BinaryTree>
    <BinaryTree type="DecisionTree" boostWeight="1.0000000000000000e+00" itree="21">
      <Node pos="s" depth="0" NCoef="0" IVar="0" Cut="9.4621211290359497e-01" cType="1" res="1.6409924253821373e-02" rms="4.8781985044479370e-01" purity="5.0254863500595093e-01" nType="0">
        <Node pos="l" depth="1" NCoef="0" IVar="3" Cut="1.8961372375488281e+00" cType="1" res="-2.1859158575534821e-01" rms="4.2279860377311707e-01" purity="2.5483334064483643e-01" nType="0">
          <Node pos="l" depth="2" NCoef="0" IVar="-1" Cut="0.0000000000000000e+00" cType="1" res="-1.0701186256483197e-03" rms="4.8104333877563477e-01" purity="3.7349733710289001e-01" nType="-99"/>
          <Node pos="r" depth="2" NCoef="0" IVar="-1" Cut="0.0000000000000000e+00" cType="1" res="-1.2789417058229446e-02" rms="1.9109164178371429e-01" purity="3.9481814950704575e-02" nType="-99"/>
        </Node>
        <Node pos="r" depth="1" NCoef="0" IVar="3" Cut="2.1414380073547363e+00" cType="1" res="1.2282057106494904e-01" rms="4.7796326875686646e-01" purity="6.1471617221832275e-01" nType="0">
          <Node pos="l" depth="2" NCoef="0" IVar="-1" Cut="0.0000000000000000e+00" cType="1" res="1.0262915166094899e-03" rms="4.5743525028228760e-01" purity="6.9668954610824585e-01" nType="-99"/>
          <Node pos="r" depth="2" NCoef="0" IVar="-1" Cut="0.0000000000000000e+00" cType="1" res="-1.6629182500764728e-03" rms="4.5126876235008240e-01" purity="2.9498735070228577e-01" nType="-99"/>
        </Node>
      </Node>
    </BinaryTree>
    <BinaryTree type="DecisionTree" boostWeight="1.0000000000000000e+00" itree="22">
      <Node pos="s" depth="0" NCoef="0" IVar="6" Cut="4.6848419189453125e+02" cType="1" res="1.6272833570837975e-02" rms="4.8877805471420288e-01" purity="4.9929314851760864e-01" nType="0">
        <Node pos="l" depth="1" NCoef="0" IVar="6" Cut="2.6788171386718750e+02" cType="1" res="-6.1810452491044998e-02" rms="4.8276698589324951e-01" purity="4.1696274280548096e-01" nType="0">
          <Node pos="l" depth="2" NCoef="0" IVar="-1" Cut="0.0000000000000000e+00" cType="1" res="-4.0868506766855717e-03" rms="3.8382893800735474e-01" purity="1.9154977798461914e-01" nType="-99"/>
          <Node pos="r" depth="2" NCoef="0" IVar="-1" Cut="0.0000000000000000e+00" cType="1" res="1.2000156857538968e-04" rms="4.9216878414154053e-01" purity="5.0156933069229126e-01" nType="-99"/>
        </Node>
        <Node pos="r" depth="1" NCoef="0" IVar="3" Cut="1.5130987167358398e+00" cType="1" res="2.6057866215705872e-01" rms="4.2239159345626831e-01" purity="7.5688731670379639e-01" nType="0">
          <Node pos="l" depth="2" NCoef="0" IVar="-1" Cut="0.0000000000000000e+00" cType="1" res="1.5709426952525973e-03" rms="3.4652951359748840e-01" purity="8.5958427190780640e-01" nType="-99"/>
          <Node pos="r" depth="2" NCoef="0" IVar="-1" Cut="0.0000000000000000e+00" cType="1" res="5.4818071657791734e-04" rms="4.9319666624069214e-01" purity="5.6172788143157959e-01" nType="-99"/>
        </Node>
      </Node>
    </BinaryTree>
    <BinaryTree type="DecisionTree" boostWeight="1.0000000000000000e+00" itree="23">
      <Node pos="s" depth="0" NCoef="0" IVar="3" Cut="2.1988885402679443e+00" cType="1" res="3.8327872753143311e-02" rms="4.8816019296646118e-01" purity="5.2208763360977173e-01" nType="0">
        <Node pos="l" depth="1" NCoef="0" IVar="0" Cut="9.5505851507186890e-01" cType="1" res="1.0963562130928040e-01" rms="4.8452123999595642e-01" purity="6.0695552825927734e-01" nType="0">
          <Node pos="l" depth="2" NCoef="0" IVar="-1" Cut="0.0000000000000000e+00" cType="1" res="-2.9385229572653770e-04" rms="4.9343478679656982e-01" purity="4.5470339059829712e-01" nType="-99"/>
          <Node pos="r" depth="2" NCoef="0" IVar="-1" Cut="0.0000000000000000e+00" cType="1" res="1.1404076358303428e-03" rms="4.4462150335311890e-01" purity="7.2579497098922729e-01" nType="-99"/>
        </Node>
        <Node pos="r" depth="1" NCoef="0" IVar="1" Cut="8.0538208007812500e+01" cType="1" res="-2.1578299999237061e-01" rms="4.1014799475669861e-01" purity="2.1965391933917999e-01" nType="0">
          <Node pos="l" depth="2" NCoef="0" IVar="-1" Cut="0.0000000000000000e+00" cType="1" res="-2.3472344502806664e-02" rms="2.7713587507605553e-02" purity="0.0000000000000000e+00" nType="-99"/>
          <Node pos="r" depth="2" NCoef="0" IVar="-1" Cut="0.0000000000000000e+00" cType="1" res="-1.5822533750906587e-03" rms="4.5201739668846130e-01" purity="2.9149428009986877e-01" nType="-99"/>
        </Node>
      </Node>
    </BinaryTree>
    <BinaryTree type="DecisionTree" boostWeight="1.0000000000000000e+00" itree="24">
      <Node pos="s" depth="0" NCoef="0" IVar="3" Cut="2.5340609550476074e+00" cType="1" res="5.1194462925195694e-02" rms="4.8798975348472595e-01" purity="5.3442662954330444e-01" nType="0">
        <Node pos="l" depth="1" NCoef="0" IVar="6" Cut="2.8116754150390625e+02" cType="1" res="1.0233393311500549e-01" rms="4.8712673783302307e-01" purity="5.9508347511291504e-01" nType="0">
          <Node pos="l" depth="2" NCoef="0" IVar="-1" Cut="0.0000000000000000e+00" cType="1" res="-3.4682362456806004e-04" rms="4.9545669555664062e-01" purity="4.3659406900405884e-01" nType="-99"/>
          <Node pos="r" depth="2" NCoef="0" IVar="-1" Cut="0.0000000000000000e+00" cType="1" res="8.4828241961076856e-04" rms="4.7382783889770508e-01" purity="6.4937740564346313e-01" nType="-99"/>
        </Node>
        <Node pos="r" depth="1" NCoef="0" IVar="1" Cut="1.5474789428710938e+02" cType="1" res="-2.7793827652931213e-01" rms="3.4407848119735718e-01" purity="1.4404003322124481e-01" nType="0">
          <Node pos="l" depth="2" NCoef="0" IVar="-1" Cut="0.0000000000000000e+00" cType="1" res="-1.8840238451957703e-02" rms="1.4727836847305298e-01" purity="2.3312205448746681e-02" nType="-99"/>
          <Node pos="r" depth="2" NCoef="0" IVar="-1" Cut="0.0000000000000000e+00" cType="1" res="-7.7517196768894792e-04" rms="4.7822207212448120e-01" purity="3.5780197381973267e-01" nType="-99"/>
        </Node>
      </Node>
    </BinaryTree>
    <BinaryTree type="DecisionTree" boostWeight="1.0000000000000000e+00" itree="25">
      <Node pos="s" depth="0" NCoef="0" IVar="0" Cut="9.4027382135391235e-01" cType="1" res="2.0289175212383270e-02" rms="4.8779872059822083e-01" purity="5.0097334384918213e-01" nType="0">
        <Node pos="l" depth="1" NCoef="0" IVar="1" Cut="5.4654861450195312e+01" cType="1" res="-2.1352526545524597e-01" rms="4.2502900958061218e-01" purity="2.4976216256618500e-01" nType="0">
          <Node pos="l" depth="2" NCoef="0" IVar="-1" Cut="0.0000000000000000e+00" cType="1" res="-1.2571556493639946e-02" rms="2.1757921576499939e-01" purity="5.1920805126428604e-02" nType="-99"/>
          <Node pos="r" depth="2" NCoef="0" IVar="-1" Cut="0.0000000000000000e+00" cType="1" res="-1.5188051620498300e-03" rms="4.5662754774093628e-01" purity="3.1801462173461914e-01" nType="-99"/>
        </Node>
        <Node pos="r" depth="1" NCoef="0" IVar="3" Cut="2.4510421752929688e+00" cType="1" res="1.0441341996192932e-01" rms="4.8147323727607727e-01" purity="5.9135681390762329e-01" nType="0">
          <Node pos="l" depth="2" NCoef="0" IVar="-1" Cut="0.0000000000000000e+00" cType="1" res="8.5441628471016884e-04" rms="4.7328263521194458e-01" purity="6.5145802497863770e-01" nType="-99"/>
          <Node pos="r" depth="2" NCoef="0" IVar="-1" Cut="0.0000000000000000e+00" cType="1" res="-1.9275933736935258e-03" rms="4.3742710351943970e-01" purity="2.7090951800346375e-01" nType="-99"/>
        </Node>
      </Node>
    </BinaryTree>
    <BinaryTree type="DecisionTree" boostWeight="1.0000000000000000e+00" itree="26">
      <Node pos="s" depth="0" NCoef="0" IVar="3" Cut="2.0847344398498535e+00" cType="1" res="1.3381090946495533e-02" rms="4.8744791746139526e-01" purity="4.9337565898895264e-01" nType="0">
        <Node pos="l" depth="1" NCoef="0" IVar="1" Cut="6.3459766387939453e+01" cType="1" res="8.0520801246166229e-02" rms="4.8973500728607178e-01" purity="5.7962608337402344e-01" nType="0">
          <Node pos="l" depth="2" NCoef="0" IVar="-1" Cut="0.0000000000000000e+00" cType="1" res="-1.0275298263877630e-03" rms="4.8201867938041687e-01" purity="3.7462013959884644e-01" nType="-99"/>
          <Node pos="r" depth="2" NCoef="0" IVar="-1" Cut="0.0000000000000000e+00" cType="1" res="9.3652529176324606e-04" rms="4.6688646078109741e-01" purity="6.7290592193603516e-01" nType="-99"/>
        </Node>
        <Node pos="r" depth="1" NCoef="0" IVar="1" Cut="8.6094245910644531e+01" cType="1" res="-1.6401907801628113e-01" rms="4.3395724892616272e-01" purity="2.6548019051551819e-01" nType="0">
          <Node pos="l" depth="2" NCoef="0" IVar="-1" Cut="0.0000000000000000e+00" cType="1" res="-1.1447522789239883e-02" rms="2.1787838637828827e-01" purity="5.0719153136014938e-02" nType="-99"/>
          <Node pos="r" depth="2" NCoef="0" IVar="-1" Cut="0.0000000000000000e+00" cType="1" res="-7.7569787390530109e-04" rms="4.7360792756080627e-01" purity="3.5349169373512268e-01" nType="-99"/>
        </Node>
      </Node>
    </BinaryTree>
    <BinaryTree type="DecisionTree" boostWeight="1.0000000000000000e+00" itree="27">
      <Node pos="s" depth="0" NCoef="0" IVar="6" Cut="2.7253805541992188e+02" cType="1" res="-1.4862646348774433e-02" rms="4.8656064271926880e-01" purity="4.6568858623504639e-01" nType="0">
        <Node pos="l" depth="1" NCoef="0" IVar="5" Cut="1.2545799016952515e+00" cType="1" res="-2.3167245090007782e-01" rms="4.1474825143814087e-01" purity="2.2554171085357666e-01" nType="0">
          <Node pos="l" depth="2" NCoef="0" IVar="-1" Cut="0.0000000000000000e+00" cType="1" res="-6.5604927949607372e-03" rms="3.1471794843673706e-01" purity="1.1579076200723648e-01" nType="-99"/>
          <Node pos="r" depth="2" NCoef="0" IVar="-1" Cut="0.0000000000000000e+00" cType="1" res="-1.4036938082426786e-03" rms="4.7107985615730286e-01" purity="3.2581502199172974e-01" nType="-99"/>
        </Node>
        <Node pos="r" depth="1" NCoef="0" IVar="3" Cut="2.4675083160400391e+00" cType="1" res="5.2271284162998199e-02" rms="4.8756614327430725e-01" purity="5.4004865884780884e-01" nType="0">
          <Node pos="l" depth="2" NCoef="0" IVar="-1" Cut="0.0000000000000000e+00" cType="1" res="6.1317154904827476e-04" rms="4.8658323287963867e-01" purity="5.9768712520599365e-01" nType="-99"/>
          <Node pos="r" depth="2" NCoef="0" IVar="-1" Cut="0.0000000000000000e+00" cType="1" res="-4.4031706638634205e-03" rms="3.5791257023811340e-01" purity="1.6244356334209442e-01" nType="-99"/>
        </Node>
      </Node>
    </BinaryTree>
    <BinaryTree type="DecisionTree" boostWeight="1.0000000000000000e+00" itree="28">
      <Node pos="s" depth="0" NCoef="0" IVar="3" Cut="1.2696324586868286e+00" cType="1" res="4.1267916560173035e-02" rms="4.8600536584854126e-01" purity="5.2107387781143188e-01" nType="0">
        <Node pos="l" depth="1" NCoef="0" IVar="0" Cut="9.5845627784729004e-01" cType="1" res="1.9240318238735199e-01" rms="4.5631703734397888e-01" purity="6.9484859704971313e-01" nType="0">
          <Node pos="l" depth="2" NCoef="0" IVar="-1" Cut="0.0000000000000000e+00" cType="1" res="3.0255169258452952e-04" rms="4.9559071660041809e-01" purity="5.4047930240631104e-01" nType="-99"/>
          <Node pos="r" depth="2" NCoef="0" IVar="-1" Cut="0.0000000000000000e+00" cType="1" res="1.4141274150460958e-03" rms="3.8055711984634399e-01" purity="8.2177352905273438e-01" nType="-99"/>
        </Node>
        <Node pos="r" depth="1" NCoef="0" IVar="3" Cut="3.1045773029327393e+00" cType="1" res="-6.9649994373321533e-02" rms="4.7714394330978394e-01" purity="3.9354088902473450e-01" nType="0">
          <Node pos="l" depth="2" NCoef="0" IVar="-1" Cut="0.0000000000000000e+00" cType="1" res="-2.7061358559876680e-04" rms="4.8965850472450256e-01" purity="4.3659523129463196e-01" nType="-99"/>
          <Node pos="r" depth="2" NCoef="0" IVar="-1" Cut="0.0000000000000000e+00" cType="1" res="-2.2368386387825012e-02" rms="3.1350735574960709e-02" purity="0.0000000000000000e+00" nType="-99"/>
        </Node>
      </Node>
    </BinaryTree>
    <BinaryTree type="DecisionTree" boostWeight="1.0000000000000000e+00" itree="29">
      <Node pos="s" depth="0" NCoef="0" IVar="3" Cut="2.2616491317749023e+00" cType="1" res="4.6851459890604019e-02" rms="4.8448631167411804e-01" purity="5.2728623151779175e-01" nType="0">
        <Node pos="l" depth="1" NCoef="0" IVar="1" Cut="5.2576374053955078e+01" cType="1" res="1.0891851782798767e-01" rms="4.8394775390625000e-01" purity="6.0512912273406982e-01" nType="0">
          <Node pos="l" depth="2" NCoef="0" IVar="-1" Cut="0.0000000000000000e+00" cType="1" res="-1.4780600322410464e-03" rms="4.6463665366172791e-01" purity="3.3189016580581665e-01" nType="-99"/>
          <Node pos="r" depth="2" NCoef="0" IVar="-1" Cut="0.0000000000000000e+00" cType="1" res="9.0947945136576891e-04" rms="4.6870717406272888e-01" purity="6.6607600450515747e-01" nType="-99"/>
        </Node>
        <Node pos="r" depth="1" NCoef="0" IVar="5" Cut="9.1833990812301636e-01" cType="1" res="-1.9601231813430786e-01" rms="4.0337461233139038e-01" purity="2.2269290685653687e-01" nType="0">
          <Node pos="l" depth="2" NCoef="0" IVar="-1" Cut="0.0000000000000000e+00" cType="1" res="-1.5994132263585925e-04" rms="4.7430905699729919e-01" purity="4.0156117081642151e-01" nType="-99"/>
          <Node pos="r" depth="2" NCoef="0" IVar="-1" Cut="0.0000000000000000e+00" cType="1" res="-6.9864904507994652e-03" rms="3.0153977870941162e-01" purity="1.0965610295534134e-01" nType="-99"/>
        </Node>
      </Node>
    </BinaryTree>
    <BinaryTree type="DecisionTree" boostWeight="1.0000000000000000e+00" itree="30">
      <Node pos="s" depth="0" NCoef="0" IVar="0" Cut="9.5470887422561646e-01" cType="1" res="4.5912880450487137e-02" rms="4.8228859901428223e-01" purity="5.2684074640274048e-01" nType="0">
        <Node pos="l" depth="1" NCoef="0" IVar="3" Cut="1.4319989681243896e+00" cType="1" res="-1.1720522493124008e-01" rms="4.5964214205741882e-01" purity="3.4626400470733643e-01" nType="0">
          <Node pos="l" depth="2" NCoef="0" IVar="-1" Cut="0.0000000000000000e+00" cType="1" res="3.6795088090002537e-04" rms="4.9319526553153992e-01" purity="5.5495512485504150e-01" nType="-99"/>
          <Node pos="r" depth="2" NCoef="0" IVar="-1" Cut="0.0000000000000000e+00" cType="1" res="-4.1955304332077503e-03" rms="3.7517803907394409e-01" purity="1.7814284563064575e-01" nType="-99"/>
        </Node>
        <Node pos="r" depth="1" NCoef="0" IVar="3" Cut="2.3600392341613770e+00" cType="1" res="1.7390522360801697e-01" rms="4.6052175760269165e-01" purity="6.6853225231170654e-01" nType="0">
          <Node pos="l" depth="2" NCoef="0" IVar="-1" Cut="0.0000000000000000e+00" cType="1" res="1.1196238920092583e-03" rms="4.4233381748199463e-01" purity="7.2710865736007690e-01" nType="-99"/>
          <Node pos="r" depth="2" NCoef="0" IVar="-1" Cut="0.0000000000000000e+00" cType="1" res="-2.2329152561724186e-03" rms="4.3292024731636047e-01" purity="2.5322255492210388e-01" nType="-99"/>
        </Node>
      </Node>
    </BinaryTree>
    <BinaryTree type="DecisionTree" boostWeight="1.0000000000000000e+00" itree="31">
      <Node pos="s" depth="0" NCoef="0" IVar="0" Cut="9.6073311567306519e-01" cType="1" res="-4.3487031012773514e-02" rms="4.8037627339363098e-01" purity="4.3304809927940369e-01" nType="0">
        <Node pos="l" depth="1" NCoef="0" IVar="6" Cut="3.4904785156250000e+02" cType="1" res="-1.4967866241931915e-01" rms="4.5093789696693420e-01" purity="3.1620821356773376e-01" nType="0">
          <Node pos="l" depth="2" NCoef="0" IVar="-1" Cut="0.0000000000000000e+00" cType="1" res="-3.7283599376678467e-03" rms="3.9225971698760986e-01" purity="1.9748690724372864e-01" nType="-99"/>
          <Node pos="r" depth="2" NCoef="0" IVar="-1" Cut="0.0000000000000000e+00" cType="1" res="-1.1345434904797003e-04" rms="4.8597183823585510e-01" purity="4.7185644507408142e-01" nType="-99"/>
        </Node>
        <Node pos="r" depth="1" NCoef="0" IVar="7" Cut="1.7713820934295654e+00" cType="1" res="1.0540968924760818e-01" rms="4.8085492849349976e-01" purity="5.9687525033950806e-01" nType="0">
          <Node pos="l" depth="2" NCoef="0" IVar="-1" Cut="0.0000000000000000e+00" cType="1" res="9.2107971431687474e-04" rms="4.6516826748847961e-01" purity="6.6391503810882568e-01" nType="-99"/>
          <Node pos="r" depth="2" NCoef="0" IVar="-1" Cut="0.0000000000000000e+00" cType="1" res="-1.6928830882534385e-03" rms="4.5679152011871338e-01" purity="3.1243935227394104e-01" nType="-99"/>
        </Node>
      </Node>
    </BinaryTree>
    <BinaryTree type="DecisionTree" boostWeight="1.0000000000000000e+00" itree="32">
      <Node pos="s" depth="0" NCoef="0" IVar="3" Cut="2.6940131187438965e+00" cType="1" res="2.0314287394285202e-02" rms="4.8515722155570984e-01" purity="4.9822437763214111e-01" nType="0">
        <Node pos="l" depth="1" NCoef="0" IVar="0" Cut="9.5702308416366577e-01" cType="1" res="6.3369311392307281e-02" rms="4.9014246463775635e-01" purity="5.5161142349243164e-01" nType="0">
          <Node pos="l" depth="2" NCoef="0" IVar="-1" Cut="0.0000000000000000e+00" cType="1" res="-4.2627344373613596e-04" rms="4.9026057124137878e-01" purity="4.2267861962318420e-01" nType="-99"/>
          <Node pos="r" depth="2" NCoef="0" IVar="-1" Cut="0.0000000000000000e+00" cType="1" res="9.1808562865480781e-04" rms="4.6468153595924377e-01" purity="6.7207729816436768e-01" nType="-99"/>
        </Node>
        <Node pos="r" depth="1" NCoef="0" IVar="8" Cut="1.3339477539062500e+02" cType="1" res="-3.2976478338241577e-01" rms="2.4127937853336334e-01" purity="6.4135998487472534e-02" nType="0">
          <Node pos="l" depth="2" NCoef="0" IVar="-1" Cut="0.0000000000000000e+00" cType="1" res="-2.2640211507678032e-02" rms="2.8235347941517830e-02" purity="0.0000000000000000e+00" nType="-99"/>
          <Node pos="r" depth="2" NCoef="0" IVar="-1" Cut="0.0000000000000000e+00" cType="1" res="-5.4920166730880737e-03" rms="3.3718848228454590e-01" purity="1.3504220545291901e-01" nType="-99"/>
        </Node>
      </Node>
    </BinaryTree>
    <BinaryTree type="DecisionTree" boostWeight="1.0000000000000000e+00" itree="33">
      <Node pos="s" depth="0" NCoef="0" IVar="6" Cut="3.2423666381835938e+02" cType="1" res="-1.7618704587221146e-02" rms="4.8175975680351257e-01" purity="4.5932471752166748e-01" nType="0">
        <Node pos="l" depth="1" NCoef="0" IVar="0" Cut="9.7063130140304565e-01" cType="1" res="-1.8421918153762817e-01" rms="4.3568426370620728e-01" purity="2.7315855026245117e-01" nType="0">
          <Node pos="l" depth="2" NCoef="0" IVar="-1" Cut="0.0000000000000000e+00" cType="1" res="-4.3580355122685432e-03" rms="3.7446767091751099e-01" purity="1.8068879842758179e-01" nType="-99"/>
          <Node pos="r" depth="2" NCoef="0" IVar="-1" Cut="0.0000000000000000e+00" cType="1" res="4.2336306069046259e-04" rms="4.9906980991363525e-01" purity="5.3440570831298828e-01" nType="-99"/>
        </Node>
        <Node pos="r" depth="1" NCoef="0" IVar="3" Cut="1.9423376321792603e+00" cType="1" res="1.0480241477489471e-01" rms="4.7725477814674377e-01" purity="5.9612315893173218e-01" nType="0">
          <Node pos="l" depth="2" NCoef="0" IVar="-1" Cut="0.0000000000000000e+00" cType="1" res="9.8991696722805500e-04" rms="4.5881116390228271e-01" purity="6.9430243968963623e-01" nType="-99"/>
          <Node pos="r" depth="2" NCoef="0" IVar="-1" Cut="0.0000000000000000e+00" cType="1" res="-1.6171126626431942e-03" rms="4.4352108240127563e-01" purity="2.9949721693992615e-01" nType="-99"/>
        </Node>
      </Node>
    </BinaryTree>
    <BinaryTree type="DecisionTree" boostWeight="1.0000000000000000e+00" itree="34">
      <Node pos="s" depth="0" NCoef="0" IVar="0" Cut="9.4827139377593994e-01" cType="1" res="2.5703012943267822e-02" rms="4.8267605900764465e-01" purity="5.0426912307739258e-01" nType="0">
        <Node pos="l" depth="1" NCoef="0" IVar="6" Cut="3.1772711181640625e+02" cType="1" res="-1.8003009259700775e-01" rms="4.3419247865676880e-01" purity="2.7815496921539307e-01" nType="0">
          <Node pos="l" depth="2" NCoef="0" IVar="-1" Cut="0.0000000000000000e+00" cType="1" res="-5.3708874620497227e-03" rms="3.4412580728530884e-01" purity="1.4507393538951874e-01" nType="-99"/>
          <Node pos="r" depth="2" NCoef="0" IVar="-1" Cut="0.0000000000000000e+00" cType="1" res="-5.5878103012219071e-04" rms="4.7987070679664612e-01" purity="4.0513321757316589e-01" nType="-99"/>
        </Node>
        <Node pos="r" depth="1" NCoef="0" IVar="3" Cut="1.9585272073745728e+00" cType="1" res="1.3348452746868134e-01" rms="4.7167110443115234e-01" purity="6.2272804975509644e-01" nType="0">
          <Node pos="l" depth="2" NCoef="0" IVar="-1" Cut="0.0000000000000000e+00" cType="1" res="1.0915066814050078e-03" rms="4.4709578156471252e-01" purity="7.1768707036972046e-01" nType="-99"/>
          <Node pos="r" depth="2" NCoef="0" IVar="-1" Cut="0.0000000000000000e+00" cType="1" res="-6.2823749613016844e-04" rms="4.7266763448715210e-01" purity="3.7665203213691711e-01" nType="-99"/>
        </Node>
      </Node>
    </BinaryTree>
    <BinaryTree type="DecisionTree" boostWeight="1.0000000000000000e+00" itree="35">
      <Node pos="s" depth="0" NCoef="0" IVar="3" Cut="2.2150416374206543e+00" cType="1" res="7.3716603219509125e-02" rms="4.8024222254753113e-01" purity="5.5368226766586304e-01" nType="0">
        <Node pos="l" depth="1" NCoef="0" IVar="1" Cut="6.6404922485351562e+01" cType="1" res="1.4017535746097565e-01" rms="4.7557273507118225e-01" purity="6.3745462894439697e-01" nType="0">
          <Node pos="l" depth="2" NCoef="0" IVar="-1" Cut="0.0000000000000000e+00" cType="1" res="-2.7232305728830397e-04" rms="4.9111953377723694e-01" purity="4.5229142904281616e-01" nType="-99"/>
          <Node pos="r" depth="2" NCoef="0" IVar="-1" Cut="0.0000000000000000e+00" cType="1" res="1.1110579362139106e-03" rms="4.4699943065643311e-01" purity="7.1884971857070923e-01" nType="-99"/>
        </Node>
        <Node pos="r" depth="1" NCoef="0" IVar="0" Cut="9.7289931774139404e-01" cType="1" res="-1.9279684126377106e-01" rms="3.9973637461662292e-01" purity="2.1773767471313477e-01" nType="0">
          <Node pos="l" depth="2" NCoef="0" IVar="-1" Cut="0.0000000000000000e+00" cType="1" res="-5.2328207530081272e-03" rms="3.4073883295059204e-01" purity="1.3470087945461273e-01" nType="-99"/>
          <Node pos="r" depth="2" NCoef="0" IVar="-1" Cut="0.0000000000000000e+00" cType="1" res="1.5238378546200693e-04" rms="4.8003005981445312e-01" purity="4.6725267171859741e-01" nType="-99"/>
        </Node>
      </Node>
    </BinaryTree>
    <BinaryTree type="DecisionTree" boostWeight="1.0000000000000000e+00" itree="36">
      <Node pos="s" depth="0" NCoef="0" IVar="0" Cut="9.5779204368591309e-01" cType="1" res="2.4986709468066692e-03" rms="4.8504921793937683e-01" purity="4.7572919726371765e-01" nType="0">
        <Node pos="l" depth="1" NCoef="0" IVar="3" Cut="2.5245161056518555e+00" cType="1" res="-8.5816875100135803e-02" rms="4.7011056542396545e-01" purity="3.7274137139320374e-01" nType="0">
          <Node pos="l" depth="2" NCoef="0" IVar="-1" Cut="0.0000000000000000e+00" cType="1" res="-2.9724600608460605e-04" rms="4.9328306317329407e-01" purity="4.3947991728782654e-01" nType="-99"/>
          <Node pos="r" depth="2" NCoef="0" IVar="-1" Cut="0.0000000000000000e+00" cType="1" res="-7.8317606821656227e-03" rms="2.6466718316078186e-01" purity="8.0976597964763641e-02" nType="-99"/>
        </Node>
        <Node pos="r" depth="1" NCoef="0" IVar="6" Cut="3.0189364624023438e+02" cType="1" res="1.0509987175464630e-01" rms="4.8193496465682983e-01" purity="5.9537601470947266e-01" nType="0">
          <Node pos="l" depth="2" NCoef="0" IVar="-1" Cut="0.0000000000000000e+00" cType="1" res="-8.8352436432614923e-04" rms="4.8160463571548462e-01" purity="3.7746518850326538e-01" nType="-99"/>
          <Node pos="r" depth="2" NCoef="0" IVar="-1" Cut="0.0000000000000000e+00" cType="1" res="9.7328051924705505e-04" rms="4.5838636159896851e-01" purity="6.8300223350524902e-01" nType="-99"/>
        </Node>
      </Node>
    </BinaryTree>
    <BinaryTree type="DecisionTree" boostWeight="1.0000000000000000e+00" itree="37">
      <Node pos="s" depth="0" NCoef="0" IVar="0" Cut="9.6434867382049561e-01" cType="1" res="-6.8936976604163647e-03" rms="4.8155817389488220e-01" purity="4.6833273768424988e-01" nType="0">
        <Node pos="l" depth="1" NCoef="0" IVar="6" Cut="3.7371881103515625e+02" cType="1" res="-1.0545790940523148e-01" rms="4.6204671263694763e-01" purity="3.5836413502693176e-01" nType="0">
          <Node pos="l" depth="2" NCoef="0" IVar="-1" Cut="0.0000000000000000e+00" cType="1" res="-2.6495561469346285e-03" rms="4.1511765122413635e-01" purity="2.4097390472888947e-01" nType="-99"/>
          <Node pos="r" depth="2" NCoef="0" IVar="-1" Cut="0.0000000000000000e+00" cType="1" res="4.5525684254243970e-04" rms="4.8391932249069214e-01" purity="5.5689626932144165e-01" nType="-99"/>
        </Node>
        <Node pos="r" depth="1" NCoef="0" IVar="6" Cut="3.3553582763671875e+02" cType="1" res="1.4736713469028473e-01" rms="4.7086319327354431e-01" purity="6.4044237136840820e-01" nType="0">
          <Node pos="l" depth="2" NCoef="0" IVar="-1" Cut="0.0000000000000000e+00" cType="1" res="3.4267603768967092e-04" rms="4.9018895626068115e-01" purity="5.3029799461364746e-01" nType="-99"/>
          <Node pos="r" depth="2" NCoef="0" IVar="-1" Cut="0.0000000000000000e+00" cType="1" res="1.1280408361926675e-03" rms="4.3970715999603271e-01" purity="7.2745317220687866e-01" nType="-99"/>
        </Node>
      </Node>
    </BinaryTree>
    <BinaryTree type="DecisionTree" boostWeight="1.0000000000000000e+00" itree="38">
      <Node pos="s" depth="0" NCoef="0" IVar="0" Cut="9.5617115497589111e-01" cType="1" res="-2.9281355440616608e-02" rms="4.7900894284248352e-01" purity="4.4651407003402710e-01" nType="0">
        <Node pos="l" depth="1" NCoef="0" IVar="1" Cut="6.3151153564453125e+01" cType="1" res="-1.6093994677066803e-01" rms="4.4162729382514954e-01" purity="2.9428809881210327e-01" nType="0">
          <Node pos="l" depth="2" NCoef="0" IVar="-1" Cut="0.0000000000000000e+00" cType="1" res="-7.4306544847786427e-03" rms="3.0325883626937866e-01" purity="1.0786633938550949e-01" nType="-99"/>
          <Node pos="r" depth="2" NCoef="0" IVar="-1" Cut="0.0000000000000000e+00" cType="1" res="-7.1260071126744151e-04" rms="4.6753644943237305e-01" purity="3.7552633881568909e-01" nType="-99"/>
        </Node>
        <Node pos="r" depth="1" NCoef="0" IVar="3" Cut="2.3918271064758301e+00" cType="1" res="9.7603984177112579e-02" rms="4.7938641905784607e-01" purity="5.9322118759155273e-01" nType="0">
          <Node pos="l" depth="2" NCoef="0" IVar="-1" Cut="0.0000000000000000e+00" cType="1" res="8.1843655789270997e-04" rms="4.7297221422195435e-01" purity="6.4999282360076904e-01" nType="-99"/>
          <Node pos="r" depth="2" NCoef="0" IVar="-1" Cut="0.0000000000000000e+00" cType="1" res="-5.3835888393223286e-03" rms="3.3631446957588196e-01" purity="1.4133174717426300e-01" nType="-99"/>
        </Node>
      </Node>
    </BinaryTree>
    <BinaryTree type="DecisionTree" boostWeight="1.0000000000000000e+00" itree="39">
      <Node pos="s" depth="0" NCoef="0" IVar="3" Cut="1.8164846897125244e+00" cType="1" res="5.9295341372489929e-02" rms="4.7953519225120544e-01" purity="5.3829044103622437e-01" nType="0">
        <Node pos="l" depth="1" NCoef="0" IVar="1" Cut="9.8170463562011719e+01" cType="1" res="1.5782696008682251e-01" rms="4.6842133998870850e-01" purity="6.5941697359085083e-01" nType="0">
          <Node pos="l" depth="2" NCoef="0" IVar="-1" Cut="0.0000000000000000e+00" cType="1" res="4.3167060357518494e-04" rms="4.9122381210327148e-01" purity="5.6119161844253540e-01" nType="-99"/>
          <Node pos="r" depth="2" NCoef="0" IVar="-1" Cut="0.0000000000000000e+00" cType="1" res="1.3388044899329543e-03" rms="3.9674508571624756e-01" purity="8.0187797546386719e-01" nType="-99"/>
        </Node>
        <Node pos="r" depth="1" NCoef="0" IVar="5" Cut="1.3418031930923462e+00" cType="1" res="-1.5065789222717285e-01" rms="4.3316951394081116e-01" purity="2.8019160032272339e-01" nType="0">
          <Node pos="l" depth="2" NCoef="0" IVar="-1" Cut="0.0000000000000000e+00" cType="1" res="-4.2111789807677269e-03" rms="3.6655664443969727e-01" purity="1.7359387874603271e-01" nType="-99"/>
          <Node pos="r" depth="2" NCoef="0" IVar="-1" Cut="0.0000000000000000e+00" cType="1" res="8.3483530033845454e-05" rms="4.8319667577743530e-01" purity="4.5583188533782959e-01" nType="-99"/>
        </Node>
      </Node>
    </BinaryTree>
    <BinaryTree type="DecisionTree" boostWeight="1.0000000000000000e+00" itree="40">
      <Node pos="s" depth="0" NCoef="0" IVar="0" Cut="9.5161396265029907e-01" cType="1" res="-2.0208900794386864e-02" rms="4.7954115271568298e-01" purity="4.5477700233459473e-01" nType="0">
        <Node pos="l" depth="1" NCoef="0" IVar="1" Cut="5.4102611541748047e+01" cType="1" res="-1.8321931362152100e-01" rms="4.2882502079010010e-01" purity="2.7005138993263245e-01" nType="0">
          <Node pos="l" depth="2" NCoef="0" IVar="-1" Cut="0.0000000000000000e+00" cType="1" res="-1.2266372330486774e-02" rms="2.1496576070785522e-01" purity="4.9174603074789047e-02" nType="-99"/>
          <Node pos="r" depth="2" NCoef="0" IVar="-1" Cut="0.0000000000000000e+00" cType="1" res="-1.2404758017510176e-03" rms="4.5387089252471924e-01" purity="3.2971730828285217e-01" nType="-99"/>
        </Node>
        <Node pos="r" depth="1" NCoef="0" IVar="3" Cut="1.6918796300888062e+00" cType="1" res="9.4225682318210602e-02" rms="4.8015734553337097e-01" purity="5.8445578813552856e-01" nType="0">
          <Node pos="l" depth="2" NCoef="0" IVar="-1" Cut="0.0000000000000000e+00" cType="1" res="1.0193830821663141e-03" rms="4.5113709568977356e-01" purity="7.0828711986541748e-01" nType="-99"/>
          <Node pos="r" depth="2" NCoef="0" IVar="-1" Cut="0.0000000000000000e+00" cType="1" res="-8.8880775729194283e-04" rms="4.7261142730712891e-01" purity="3.6300951242446899e-01" nType="-99"/>
        </Node>
      </Node>
    </BinaryTree>
    <BinaryTree type="DecisionTree" boostWeight="1.0000000000000000e+00" itree="41">
      <Node pos="s" depth="0" NCoef="0" IVar="0" Cut="9.5749384164810181e-01" cType="1" res="2.0431911572813988e-02" rms="4.8308795690536499e-01" purity="4.9509462714195251e-01" nType="0">
        <Node pos="l" depth="1" NCoef="0" IVar="3" Cut="1.8583928346633911e+00" cType="1" res="-1.1330017447471619e-01" rms="4.5791193842887878e-01" purity="3.4438446164131165e-01" nType="0">
          <Node pos="l" depth="2" NCoef="0" IVar="-1" Cut="0.0000000000000000e+00" cType="1" res="-1.8163470667786896e-04" rms="4.9423158168792725e-01" purity="4.6496340632438660e-01" nType="-99"/>
          <Node pos="r" depth="2" NCoef="0" IVar="-1" Cut="0.0000000000000000e+00" cType="1" res="-5.0420253537595272e-03" rms="3.3138149976730347e-01" purity="1.3210879266262054e-01" nType="-99"/>
        </Node>
        <Node pos="r" depth="1" NCoef="0" IVar="8" Cut="9.2540916442871094e+01" cType="1" res="1.4989006519317627e-01" rms="4.7141844034194946e-01" purity="6.4098829030990601e-01" nType="0">
          <Node pos="l" depth="2" NCoef="0" IVar="-1" Cut="0.0000000000000000e+00" cType="1" res="-6.3960766419768333e-04" rms="4.7573065757751465e-01" purity="4.1056472063064575e-01" nType="-99"/>
          <Node pos="r" depth="2" NCoef="0" IVar="-1" Cut="0.0000000000000000e+00" cType="1" res="9.6673541702330112e-04" rms="4.6404024958610535e-01" purity="6.6714030504226685e-01" nType="-99"/>
        </Node>
      </Node>
    </BinaryTree>
    <BinaryTree type="DecisionTree" boostWeight="1.0000000000000000e+00" itree="42">
      <Node pos="s" depth="0" NCoef="0" IVar="3" Cut="1.8676952123641968e+00" cType="1" res="2.0872021093964577e-02" rms="4.7952711582183838e-01" purity="4.9774205684661865e-01" nType="0">
        <Node pos="l" depth="1" NCoef="0" IVar="6" Cut="2.6984671020507812e+02" cType="1" res="1.1502253264188766e-01" rms="4.7932028770446777e-01" purity="6.1657500267028809e-01" nType="0">
          <Node pos="l" depth="2" NCoef="0" IVar="-1" Cut="0.0000000000000000e+00" cType="1" res="-1.6040822956711054e-03" rms="4.5959669351577759e-01" purity="3.2088074088096619e-01" nType="-99"/>
          <Node pos="r" depth="2" NCoef="0" IVar="-1" Cut="0.0000000000000000e+00" cType="1" res="9.4203685875982046e-04" rms="4.6323221921920776e-01" purity="6.7843133211135864e-01" nType="-99"/>
        </Node>
        <Node pos="r" depth="1" NCoef="0" IVar="1" Cut="6.7916999816894531e+01" cType="1" res="-1.8217031657695770e-01" rms="4.1234847903251648e-01" purity="2.4147029221057892e-01" nType="0">
          <Node pos="l" depth="2" NCoef="0" IVar="-1" Cut="0.0000000000000000e+00" cType="1" res="-2.2784527391195297e-02" rms="5.4631002247333527e-02" purity="0.0000000000000000e+00" nType="-99"/>
          <Node pos="r" depth="2" NCoef="0" IVar="-1" Cut="0.0000000000000000e+00" cType="1" res="-1.4696524012833834e-03" rms="4.4249060750007629e-01" purity="2.9637339711189270e-01" nType="-99"/>
        </Node>
      </Node>
    </BinaryTree>
    <BinaryTree type="DecisionTree" boostWeight="1.0000000000000000e+00" itree="43">
      <Node pos="s" depth="0" NCoef="0" IVar="3" Cut="2.4136297702789307e+00" cType="1" res="2.2102165967226028e-02" rms="4.8140716552734375e-01" purity="4.9445667862892151e-01" nType="0">
        <Node pos="l" depth="1" NCoef="0" IVar="1" Cut="6.7055000305175781e+01" cType="1" res="8.3823069930076599e-02" rms="4.8818099498748779e-01" purity="5.7227349281311035e-01" nType="0">
          <Node pos="l" depth="2" NCoef="0" IVar="-1" Cut="0.0000000000000000e+00" cType="1" res="-7.2132330387830734e-04" rms="4.8433843255043030e-01" purity="3.9092898368835449e-01" nType="-99"/>
          <Node pos="r" depth="2" NCoef="0" IVar="-1" Cut="0.0000000000000000e+00" cType="1" res="8.9696672512218356e-04" rms="4.7017326951026917e-01" purity="6.5800374746322632e-01" nType="-99"/>
        </Node>
        <Node pos="r" depth="1" NCoef="0" IVar="5" Cut="1.3115668296813965e+00" cType="1" res="-3.1150603294372559e-01" rms="2.5370863080024719e-01" purity="7.3848091065883636e-02" nType="0">
          <Node pos="l" depth="2" NCoef="0" IVar="-1" Cut="0.0000000000000000e+00" cType="1" res="-2.2186178714036942e-02" rms="4.1827876120805740e-02" purity="0.0000000000000000e+00" nType="-99"/>
          <Node pos="r" depth="2" NCoef="0" IVar="-1" Cut="0.0000000000000000e+00" cType="1" res="-2.3814879823476076e-03" rms="4.0669947862625122e-01" purity="2.2675253450870514e-01" nType="-99"/>
        </Node>
      </Node>
    </BinaryTree>
    <BinaryTree type="DecisionTree" boostWeight="1.0000000000000000e+00" itree="44">
      <Node pos="s" depth="0" NCoef="0" IVar="0" Cut="9.4293737411499023e-01" cType="1" res="6.6005855798721313e-02" rms="4.8071962594985962e-01" purity="5.3816032409667969e-01" nType="0">
        <Node pos="l" depth="1" NCoef="0" IVar="6" Cut="3.4978118896484375e+02" cType="1" res="-1.0825230181217194e-01" rms="4.5589345693588257e-01" purity="3.4108754992485046e-01" nType="0">
          <Node pos="l" depth="2" NCoef="0" IVar="-1" Cut="0.0000000000000000e+00" cType="1" res="-3.4018808510154486e-03" rms="3.8329893350601196e-01" purity="1.8918254971504211e-01" nType="-99"/>
          <Node pos="r" depth="2" NCoef="0" IVar="-1" Cut="0.0000000000000000e+00" cType="1" res="4.2248639510944486e-04" rms="4.8441800475120544e-01" purity="5.3779882192611694e-01" nType="-99"/>
        </Node>
        <Node pos="r" depth="1" NCoef="0" IVar="3" Cut="1.7800581455230713e+00" cType="1" res="1.4456367492675781e-01" rms="4.7086432576179504e-01" purity="6.2700325250625610e-01" nType="0">
          <Node pos="l" depth="2" NCoef="0" IVar="-1" Cut="0.0000000000000000e+00" cType="1" res="1.0641098488122225e-03" rms="4.4802036881446838e-01" purity="7.1514898538589478e-01" nType="-99"/>
          <Node pos="r" depth="2" NCoef="0" IVar="-1" Cut="0.0000000000000000e+00" cType="1" res="1.5516030543949455e-04" rms="4.8798537254333496e-01" purity="4.5777669548988342e-01" nType="-99"/>
        </Node>
      </Node>
    </BinaryTree>
    <BinaryTree type="DecisionTree" boostWeight="1.0000000000000000e+00" itree="45">
      <Node pos="s" depth="0" NCoef="0" IVar="3" Cut="2.6014120578765869e+00" cType="1" res="3.9369583129882812e-02" rms="4.8062458634376526e-01" purity="5.1148641109466553e-01" nType="0">
        <Node pos="l" depth="1" NCoef="0" IVar="0" Cut="9.2874336242675781e-01" cType="1" res="8.0388791859149933e-02" rms="4.8644426465034485e-01" purity="5.6757253408432007e-01" nType="0">
          <Node pos="l" depth="2" NCoef="0" IVar="-1" Cut="0.0000000000000000e+00" cType="1" res="-2.1134309936314821e-03" rms="4.4077304005622864e-01" purity="2.7374857664108276e-01" nType="-99"/>
          <Node pos="r" depth="2" NCoef="0" IVar="-1" Cut="0.0000000000000000e+00" cType="1" res="7.3232332943007350e-04" rms="4.8020163178443909e-01" purity="6.1088877916336060e-01" nType="-99"/>
        </Node>
        <Node pos="r" depth="1" NCoef="0" IVar="5" Cut="1.1589373350143433e+00" cType="1" res="-2.5667741894721985e-01" rms="3.0098739266395569e-01" purity="1.0669744014739990e-01" nType="0">
          <Node pos="l" depth="2" NCoef="0" IVar="-1" Cut="0.0000000000000000e+00" cType="1" res="-2.0694265142083168e-02" rms="3.7036247551441193e-02" purity="0.0000000000000000e+00" nType="-99"/>
          <Node pos="r" depth="2" NCoef="0" IVar="-1" Cut="0.0000000000000000e+00" cType="1" res="-1.6980650834739208e-03" rms="4.2651700973510742e-01" purity="2.5068387389183044e-01" nType="-99"/>
        </Node>
      </Node>
    </BinaryTree>
    <BinaryTree type="DecisionTree" boostWeight="1.0000000000000000e+00" itree="46">
      <Node pos="s" depth="0" NCoef="0" IVar="0" Cut="9.5793819427490234e-01" cType="1" res="2.8193164616823196e-02" rms="4.8017325997352600e-01" purity="4.9881529808044434e-01" nType="0">
        <Node pos="l" depth="1" NCoef="0" IVar="6" Cut="3.3068756103515625e+02" cType="1" res="-8.2021109759807587e-02" rms="4.6490827202796936e-01" purity="3.6736497282981873e-01" nType="0">
          <Node pos="l" depth="2" NCoef="0" IVar="-1" Cut="0.0000000000000000e+00" cType="1" res="-2.5542557705193758e-03" rms="4.1034734249114990e-01" purity="2.3309279978275299e-01" nType="-99"/>
          <Node pos="r" depth="2" NCoef="0" IVar="-1" Cut="0.0000000000000000e+00" cType="1" res="2.2669327154289931e-04" rms="4.8686334490776062e-01" purity="4.9868243932723999e-01" nType="-99"/>
        </Node>
        <Node pos="r" depth="1" NCoef="0" IVar="3" Cut="1.9423578977584839e+00" cType="1" res="1.3965235650539398e-01" rms="4.6951931715011597e-01" purity="6.3175034523010254e-01" nType="0">
          <Node pos="l" depth="2" NCoef="0" IVar="-1" Cut="0.0000000000000000e+00" cType="1" res="1.1349023552611470e-03" rms="4.4433835148811340e-01" purity="7.2597002983093262e-01" nType="-99"/>
          <Node pos="r" depth="2" NCoef="0" IVar="-1" Cut="0.0000000000000000e+00" cType="1" res="-7.7156495535746217e-04" rms="4.7086569666862488e-01" purity="3.6168992519378662e-01" nType="-99"/>
        </Node>
      </Node>
    </BinaryTree>
    <BinaryTree type="DecisionTree" boostWeight="1.0000000000000000e+00" itree="47">
      <Node pos="s" depth="0" NCoef="0" IVar="6" Cut="2.4344425964355469e+02" cType="1" res="2.8386555612087250e-02" rms="4.8042020201683044e-01" purity="4.9907949566841125e-01" nType="0">
        <Node pos="l" depth="1" NCoef="0" IVar="5" Cut="1.3434966802597046e+00" cType="1" res="-2.9637315869331360e-01" rms="3.3287632465362549e-01" purity="1.3379274308681488e-01" nType="0">
          <Node pos="l" depth="2" NCoef="0" IVar="-1" Cut="0.0000000000000000e+00" cType="1" res="-2.4066526442766190e-02" rms="7.1638226509094238e-02" purity="0.0000000000000000e+00" nType="-99"/>
          <Node pos="r" depth="2" NCoef="0" IVar="-1" Cut="0.0000000000000000e+00" cType="1" res="-1.7686502542346716e-03" rms="4.4590589404106140e-01" purity="2.8747904300689697e-01" nType="-99"/>
        </Node>
        <Node pos="r" depth="1" NCoef="0" IVar="3" Cut="2.7681729793548584e+00" cType="1" res="6.9876797497272491e-02" rms="4.8056027293205261e-01" purity="5.4574733972549438e-01" nType="0">
          <Node pos="l" depth="2" NCoef="0" IVar="-1" Cut="0.0000000000000000e+00" cType="1" res="6.3907675212249160e-04" rms="4.8358270525932312e-01" purity="5.9229010343551636e-01" nType="-99"/>
          <Node pos="r" depth="2" NCoef="0" IVar="-1" Cut="0.0000000000000000e+00" cType="1" res="-1.2545567005872726e-02" rms="1.9101350009441376e-01" purity="4.2467243969440460e-02" nType="-99"/>
        </Node>
      </Node>
    </BinaryTree>
    <BinaryTree type="DecisionTree" boostWeight="1.0000000000000000e+00" itree="48">
      <Node pos="s" depth="0" NCoef="0" IVar="0" Cut="9.6084088087081909e-01" cType="1" res="3.6680512130260468e-02" rms="4.7969770431518555e-01" purity="5.0384575128555298e-01" nType="0">
        <Node pos="l" depth="1" NCoef="0" IVar="3" Cut="2.2198805809020996e+00" cType="1" res="-7.6085887849330902e-02" rms="4.6529731154441833e-01" purity="3.7051418423652649e-01" nType="0">
          <Node pos="l" depth="2" NCoef="0" IVar="-1" Cut="0.0000000000000000e+00" cType="1" res="-7.0629008405376226e-05" rms="4.9631026387214661e-01" purity="4.6826407313346863e-01" nType="-99"/>
          <Node pos="r" depth="2" NCoef="0" IVar="-1" Cut="0.0000000000000000e+00" cType="1" res="-7.5681074522435665e-03" rms="2.8182455897331238e-01" purity="8.6018741130828857e-02" nType="-99"/>
        </Node>
        <Node pos="r" depth="1" NCoef="0" IVar="6" Cut="2.9042053222656250e+02" cType="1" res="1.6888540983200073e-01" rms="4.6225273609161377e-01" purity="6.6016083955764771e-01" nType="0">
          <Node pos="l" depth="2" NCoef="0" IVar="-1" Cut="0.0000000000000000e+00" cType="1" res="-8.4339501336216927e-04" rms="4.8305580019950867e-01" purity="3.6286461353302002e-01" nType="-99"/>
          <Node pos="r" depth="2" NCoef="0" IVar="-1" Cut="0.0000000000000000e+00" cType="1" res="1.1790045537054539e-03" rms="4.3349787592887878e-01" purity="7.3406326770782471e-01" nType="-99"/>
        </Node>
      </Node>
    </BinaryTree>
    <BinaryTree type="DecisionTree" boostWeight="1.0000000000000000e+00" itree="49">
      <Node pos="s" depth="0" NCoef="0" IVar="1" Cut="3.6003234863281250e+01" cType="1" res="6.3463419675827026e-02" rms="4.7927355766296387e-01" purity="5.3503632545471191e-01" nType="0">
        <Node pos="l" depth="1" NCoef="0" IVar="-1" Cut="0.0000000000000000e+00" cType="1" res="-7.4814818799495697e-03" rms="3.0465716123580933e-01" purity="1.1380399018526077e-01" nType="-99"/>
        <Node pos="r" depth="1" NCoef="0" IVar="3" Cut="2.1701009273529053e+00" cType="1" res="8.6869798600673676e-02" rms="4.7765904664993286e-01" purity="5.6019490957260132e-01" nType="0">
          <Node pos="l" depth="2" NCoef="0" IVar="-1" Cut="0.0000000000000000e+00" cType="1" res="7.9783936962485313e-04" rms="4.7358620166778564e-01" purity="6.4016872644424438e-01" nType="-99"/>
          <Node pos="r" depth="2" NCoef="0" IVar="-1" Cut="0.0000000000000000e+00" cType="1" res="-1.1466240976005793e-03" rms="4.4140699505805969e-01" purity="2.8692373633384705e-01" nType="-99"/>
        </Node>
      </Node>
    </BinaryTree>
    <BinaryTree type="DecisionTree" boostWeight="1.0000000000000000e+00" itree="50">
      <Node pos="s" depth="0" NCoef="0" IVar="3" Cut="1.6743741035461426e+00" cType="1" res="8.2755656912922859e-03" rms="4.7509601712226868e-01" purity="4.7878062725067139e-01" nType="0">
        <Node pos="l" depth="1" NCoef="0" IVar="1" Cut="7.0336166381835938e+01" cType="1" res="1.1412706971168518e-01" rms="4.7828012704849243e-01" purity="6.1571174860000610e-01" nType="0">
          <Node pos="l" depth="2" NCoef="0" IVar="-1" Cut="0.0000000000000000e+00" cType="1" res="-5.1366718253120780e-04" rms="4.8424756526947021e-01" purity="4.2160776257514954e-01" nType="-99"/>
          <Node pos="r" depth="2" NCoef="0" IVar="-1" Cut="0.0000000000000000e+00" cType="1" res="1.1535217054188251e-03" rms="4.3907135725021362e-01" purity="7.3573482036590576e-01" nType="-99"/>
        </Node>
        <Node pos="r" depth="1" NCoef="0" IVar="1" Cut="9.9481292724609375e+01" cType="1" res="-1.3646073639392853e-01" rms="4.3046048283576965e-01" purity="2.9154759645462036e-01" nType="0">
          <Node pos="l" depth="2" NCoef="0" IVar="-1" Cut="0.0000000000000000e+00" cType="1" res="-5.8112232945859432e-03" rms="3.2943549752235413e-01" purity="1.3486427068710327e-01" nType="-99"/>
          <Node pos="r" depth="2" NCoef="0" IVar="-1" Cut="0.0000000000000000e+00" cType="1" res="-3.0363601399585605e-04" rms="4.6587955951690674e-01" purity="4.0515130758285522e-01" nType="-99"/>
        </Node>
      </Node>
    </BinaryTree>
    <BinaryTree type="DecisionTree" boostWeight="1.0000000000000000e+00" itree="51">
      <Node pos="s" depth="0" NCoef="0" IVar="0" Cut="9.6638423204421997e-01" cType="1" res="1.4032198116183281e-02" rms="4.7912225127220154e-01" purity="4.8200485110282898e-01" nType="0">
        <Node pos="l" depth="1" NCoef="0" IVar="6" Cut="2.4879429626464844e+02" cType="1" res="-1.0642249137163162e-01" rms="4.5839232206344604e-01" purity="3.4655642509460449e-01" nType="0">
          <Node pos="l" depth="2" NCoef="0" IVar="-1" Cut="0.0000000000000000e+00" cType="1" res="-1.4066397212445736e-02" rms="1.9056241214275360e-01" purity="4.0128510445356369e-02" nType="-99"/>
          <Node pos="r" depth="2" NCoef="0" IVar="-1" Cut="0.0000000000000000e+00" cType="1" res="-5.4192339302971959e-04" rms="4.7483929991722107e-01" purity="3.9683461189270020e-01" nType="-99"/>
        </Node>
        <Node pos="r" depth="1" NCoef="0" IVar="7" Cut="1.7890510559082031e+00" cType="1" res="2.0288570225238800e-01" rms="4.4901511073112488e-01" purity="6.9436615705490112e-01" nType="0">
          <Node pos="l" depth="2" NCoef="0" IVar="-1" Cut="0.0000000000000000e+00" cType="1" res="1.2336333747953176e-03" rms="4.2808070778846741e-01" purity="7.4673432111740112e-01" nType="-99"/>
          <Node pos="r" depth="2" NCoef="0" IVar="-1" Cut="0.0000000000000000e+00" cType="1" res="-1.3655553630087525e-04" rms="4.7475001215934753e-01" purity="4.5726051926612854e-01" nType="-99"/>
        </Node>
      </Node>
    </BinaryTree>
    <BinaryTree type="DecisionTree" boostWeight="1.0000000000000000e+00" itree="52">
      <Node pos="s" depth="0" NCoef="0" IVar="3" Cut="1.8700968027114868e+00" cType="1" res="2.0940514281392097e-02" rms="4.7513711452484131e-01" purity="4.8966473340988159e-01" nType="0">
        <Node pos="l" depth="1" NCoef="0" IVar="1" Cut="4.1304317474365234e+01" cType="1" res="1.0498840361833572e-01" rms="4.7843772172927856e-01" purity="6.0662817955017090e-01" nType="0">
          <Node pos="l" depth="2" NCoef="0" IVar="-1" Cut="0.0000000000000000e+00" cType="1" res="-8.6145680397748947e-03" rms="2.9351323843002319e-01" purity="1.0324265807867050e-01" nType="-99"/>
          <Node pos="r" depth="2" NCoef="0" IVar="-1" Cut="0.0000000000000000e+00" cType="1" res="8.4731762763112783e-04" rms="4.6708568930625916e-01" purity="6.6089898347854614e-01" nType="-99"/>
        </Node>
        <Node pos="r" depth="1" NCoef="0" IVar="8" Cut="1.3915194702148438e+02" cType="1" res="-1.4292946457862854e-01" rms="4.2307505011558533e-01" purity="2.6161864399909973e-01" nType="0">
          <Node pos="l" depth="2" NCoef="0" IVar="-1" Cut="0.0000000000000000e+00" cType="1" res="-8.3114946028217673e-04" rms="4.5026007294654846e-01" purity="3.2918646931648254e-01" nType="-99"/>
          <Node pos="r" depth="2" NCoef="0" IVar="-1" Cut="0.0000000000000000e+00" cType="1" res="-6.2883906066417694e-03" rms="3.0778732895851135e-01" purity="1.0986986011266708e-01" nType="-99"/>
        </Node>
      </Node>
    </BinaryTree>
    <BinaryTree type="DecisionTree" boostWeight="1.0000000000000000e+00" itree="53">
      <Node pos="s" depth="0" NCoef="0" IVar="6" Cut="2.9253448486328125e+02" cType="1" res="1.8122250214219093e-02" rms="4.7673723101615906e-01" purity="4.8514226078987122e-01" nType="0">
        <Node pos="l" depth="1" NCoef="0" IVar="8" Cut="9.7609123229980469e+01" cType="1" res="-1.4632195234298706e-01" rms="4.3845593929290771e-01" purity="2.8557538986206055e-01" nType="0">
          <Node pos="l" depth="2" NCoef="0" IVar="-1" Cut="0.0000000000000000e+00" cType="1" res="-1.0646517388522625e-02" rms="2.5102448463439941e-01" purity="6.4215227961540222e-02" nType="-99"/>
          <Node pos="r" depth="2" NCoef="0" IVar="-1" Cut="0.0000000000000000e+00" cType="1" res="-9.1213738778606057e-04" rms="4.5665702223777771e-01" purity="3.3857923746109009e-01" nType="-99"/>
        </Node>
        <Node pos="r" depth="1" NCoef="0" IVar="3" Cut="2.6095130443572998e+00" cType="1" res="9.5794215798377991e-02" rms="4.7436350584030151e-01" purity="5.7940375804901123e-01" nType="0">
          <Node pos="l" depth="2" NCoef="0" IVar="-1" Cut="0.0000000000000000e+00" cType="1" res="7.8589573968201876e-04" rms="4.7342681884765625e-01" purity="6.3583439588546753e-01" nType="-99"/>
          <Node pos="r" depth="2" NCoef="0" IVar="-1" Cut="0.0000000000000000e+00" cType="1" res="-1.1210657656192780e-02" rms="2.1955199539661407e-01" purity="5.1393512636423111e-02" nType="-99"/>
        </Node>
      </Node>
    </BinaryTree>
    <BinaryTree type="DecisionTree" boostWeight="1.0000000000000000e+00" itree="54">
      <Node pos="s" depth="0" NCoef="0" IVar="3" Cut="2.5685307979583740e+00" cType="1" res="2.3954497650265694e-02" rms="4.7784700989723206e-01" purity="4.8827421665191650e-01" nType="0">
        <Node pos="l" depth="1" NCoef="0" IVar="1" Cut="5.3767360687255859e+01" cType="1" res="6.6512815654277802e-02" rms="4.8794633150100708e-01" purity="5.5055797100067139e-01" nType="0">
          <Node pos="l" depth="2" NCoef="0" IVar="-1" Cut="0.0000000000000000e+00" cType="1" res="-2.0468763541430235e-03" rms="4.4240286946296692e-01" purity="2.8809180855751038e-01" nType="-99"/>
          <Node pos="r" depth="2" NCoef="0" IVar="-1" Cut="0.0000000000000000e+00" cType="1" res="7.2757352609187365e-04" rms="4.8094761371612549e-01" purity="6.1297243833541870e-01" nType="-99"/>
        </Node>
        <Node pos="r" depth="1" NCoef="0" IVar="2" Cut="2.7150247192382812e+02" cType="1" res="-2.2240787744522095e-01" rms="3.1732541322708130e-01" purity="1.2772507965564728e-01" nType="0">
          <Node pos="l" depth="2" NCoef="0" IVar="-1" Cut="0.0000000000000000e+00" cType="1" res="-1.2269066646695137e-03" rms="4.0602174401283264e-01" purity="2.5256654620170593e-01" nType="-99"/>
          <Node pos="r" depth="2" NCoef="0" IVar="-1" Cut="0.0000000000000000e+00" cType="1" res="-2.1052533760666847e-02" rms="4.2963847517967224e-02" purity="0.0000000000000000e+00" nType="-99"/>
        </Node>
      </Node>
    </BinaryTree>
    <BinaryTree type="DecisionTree" boostWeight="1.0000000000000000e+00" itree="55">
      <Node pos="s" depth="0" NCoef="0" IVar="0" Cut="9.5431399345397949e-01" cType="1" res="3.1454294919967651e-02" rms="4.7866845130920410e-01" purity="4.9519565701484680e-01" nType="0">
        <Node pos="l" depth="1" NCoef="0" IVar="1" Cut="7.6353485107421875e+01" cType="1" res="-9.5504947006702423e-02" rms="4.5514842867851257e-01" purity="3.4617689251899719e-01" nType="0">
          <Node pos="l" depth="2" NCoef="0" IVar="-1" Cut="0.0000000000000000e+00" cType="1" res="-4.1777775622904301e-03" rms="3.7469273805618286e-01" purity="1.8014170229434967e-01" nType="-99"/>
          <Node pos="r" depth="2" NCoef="0" IVar="-1" Cut="0.0000000000000000e+00" cType="1" res="1.1561478459043428e-05" rms="4.7356292605400085e-01" purity="4.4961616396903992e-01" nType="-99"/>
        </Node>
        <Node pos="r" depth="1" NCoef="0" IVar="6" Cut="3.0300891113281250e+02" cType="1" res="1.4190879464149475e-01" rms="4.7117745876312256e-01" purity="6.2484192848205566e-01" nType="0">
          <Node pos="l" depth="2" NCoef="0" IVar="-1" Cut="0.0000000000000000e+00" cType="1" res="2.0342917196103372e-05" rms="4.9409529566764832e-01" purity="4.5693236589431763e-01" nType="-99"/>
          <Node pos="r" depth="2" NCoef="0" IVar="-1" Cut="0.0000000000000000e+00" cType="1" res="1.0656713275238872e-03" rms="4.4430395960807800e-01" purity="7.0597213506698608e-01" nType="-99"/>
        </Node>
      </Node>
    </BinaryTree>
    <BinaryTree type="DecisionTree" boostWeight="1.0000000000000000e+00" itree="56">
      <Node pos="s" depth="0" NCoef="0" IVar="3" Cut="1.8993246555328369e+00" cType="1" res="6.1868790537118912e-02" rms="4.7180286049842834e-01" purity="5.3208744525909424e-01" nType="0">
        <Node pos="l" depth="1" NCoef="0" IVar="1" Cut="6.2526576995849609e+01" cType="1" res="1.4537204802036285e-01" rms="4.6835428476333618e-01" purity="6.4576816558837891e-01" nType="0">
          <Node pos="l" depth="2" NCoef="0" IVar="-1" Cut="0.0000000000000000e+00" cType="1" res="-2.5265821022912860e-04" rms="4.8818564414978027e-01" purity="4.4451099634170532e-01" nType="-99"/>
          <Node pos="r" depth="2" NCoef="0" IVar="-1" Cut="0.0000000000000000e+00" cType="1" res="1.1426586424931884e-03" rms="4.3389609456062317e-01" purity="7.4128782749176025e-01" nType="-99"/>
        </Node>
        <Node pos="r" depth="1" NCoef="0" IVar="2" Cut="1.9314178466796875e+02" cType="1" res="-1.3905519247055054e-01" rms="4.1623434424400330e-01" purity="2.5855103135108948e-01" nType="0">
          <Node pos="l" depth="2" NCoef="0" IVar="-1" Cut="0.0000000000000000e+00" cType="1" res="6.8324603489600122e-05" rms="4.7728183865547180e-01" purity="4.2413070797920227e-01" nType="-99"/>
          <Node pos="r" depth="2" NCoef="0" IVar="-1" Cut="0.0000000000000000e+00" cType="1" res="-4.8079877160489559e-03" rms="3.3181545138359070e-01" purity="1.4410567283630371e-01" nType="-99"/>
        </Node>
      </Node>
    </BinaryTree>
    <BinaryTree type="DecisionTree" boostWeight="1.0000000000000000e+00" itree="57">
      <Node pos="s" depth="0" NCoef="0" IVar="3" Cut="2.2039291858673096e+00" cType="1" res="5.8259077370166779e-02" rms="4.7517764568328857e-01" purity="5.2415394783020020e-01" nType="0">
        <Node pos="l" depth="1" NCoef="0" IVar="0" Cut="9.5377779006958008e-01" cType="1" res="1.1745163798332214e-01" rms="4.7840347886085510e-01" purity="6.1100959777832031e-01" nType="0">
          <Node pos="l" depth="2" NCoef="0" IVar="-1" Cut="0.0000000000000000e+00" cType="1" res="3.5402763387537561e-06" rms="4.9228641390800476e-01" purity="4.7496542334556580e-01" nType="-99"/>
          <Node pos="r" depth="2" NCoef="0" IVar="-1" Cut="0.0000000000000000e+00" cType="1" res="1.0530856670811772e-03" rms="4.4863069057464600e-01" purity="7.1170973777770996e-01" nType="-99"/>
        </Node>
        <Node pos="r" depth="1" NCoef="0" IVar="5" Cut="1.5145105123519897e+00" cType="1" res="-1.4175200462341309e-01" rms="4.0442067384719849e-01" purity="2.3066943883895874e-01" nType="0">
          <Node pos="l" depth="2" NCoef="0" IVar="-1" Cut="0.0000000000000000e+00" cType="1" res="-3.7408689968287945e-03" rms="3.4920939803123474e-01" purity="1.5864311158657074e-01" nType="-99"/>
          <Node pos="r" depth="2" NCoef="0" IVar="-1" Cut="0.0000000000000000e+00" cType="1" res="6.0894893249496818e-04" rms="4.9090370535850525e-01" purity="4.7333329916000366e-01" nType="-99"/>
        </Node>
      </Node>
    </BinaryTree>
    <BinaryTree type="DecisionTree" boostWeight="1.0000000000000000e+00" itree="58">
      <Node pos="s" depth="0" NCoef="0" IVar="3" Cut="2.6098525524139404e+00" cType="1" res="9.6791042014956474e-03" rms="4.7736909985542297e-01" purity="4.7145700454711914e-01" nType="0">
        <Node pos="l" depth="1" NCoef="0" IVar="6" Cut="3.3658227539062500e+02" cType="1" res="4.9425106495618820e-02" rms="4.8955827951431274e-01" purity="5.3018003702163696e-01" nType="0">
          <Node pos="l" depth="2" NCoef="0" IVar="-1" Cut="0.0000000000000000e+00" cType="1" res="-2.7859056717716157e-04" rms="4.8930612206459045e-01" purity="4.2839369177818298e-01" nType="-99"/>
          <Node pos="r" depth="2" NCoef="0" IVar="-1" Cut="0.0000000000000000e+00" cType="1" res="7.6407234882935882e-04" rms="4.7559303045272827e-01" purity="6.3073617219924927e-01" nType="-99"/>
        </Node>
        <Node pos="r" depth="1" NCoef="0" IVar="7" Cut="1.7958701848983765e+00" cType="1" res="-2.6824611425399780e-01" rms="2.3911954462528229e-01" purity="6.0834541916847229e-02" nType="0">
          <Node pos="l" depth="2" NCoef="0" IVar="-1" Cut="0.0000000000000000e+00" cType="1" res="-3.5937693901360035e-03" rms="3.3466574549674988e-01" purity="1.3886429369449615e-01" nType="-99"/>
          <Node pos="r" depth="2" NCoef="0" IVar="-1" Cut="0.0000000000000000e+00" cType="1" res="-2.1300196647644043e-02" rms="3.8442566990852356e-02" purity="0.0000000000000000e+00" nType="-99"/>
        </Node>
      </Node>
    </BinaryTree>
    <BinaryTree type="DecisionTree" boostWeight="1.0000000000000000e+00" itree="59">
      <Node pos="s" depth="0" NCoef="0" IVar="3" Cut="1.3338836431503296e+00" cType="1" res="4.9250561743974686e-02" rms="4.7330999374389648e-01" purity="5.1803040504455566e-01" nType="0">
        <Node pos="l" depth="1" NCoef="0" IVar="1" Cut="4.1304317474365234e+01" cType="1" res="1.7717723548412323e-01" rms="4.5777463912963867e-01" purity="6.7997133731842041e-01" nType="0">
          <Node pos="l" depth="2" NCoef="0" IVar="-1" Cut="0.0000000000000000e+00" cType="1" res="-1.0951459407806396e-03" rms="4.6426042914390564e-01" purity="3.5955128073692322e-01" nType="-99"/>
          <Node pos="r" depth="2" NCoef="0" IVar="-1" Cut="0.0000000000000000e+00" cType="1" res="1.1019360972568393e-03" rms="4.4190442562103271e-01" purity="7.2477644681930542e-01" nType="-99"/>
        </Node>
        <Node pos="r" depth="1" NCoef="0" IVar="0" Cut="9.6990799903869629e-01" cType="1" res="-6.2199495732784271e-02" rms="4.5819810032844543e-01" purity="3.7694707512855530e-01" nType="0">
          <Node pos="l" depth="2" NCoef="0" IVar="-1" Cut="0.0000000000000000e+00" cType="1" res="-1.8166610971093178e-03" rms="4.1916260123252869e-01" purity="2.6974368095397949e-01" nType="-99"/>
          <Node pos="r" depth="2" NCoef="0" IVar="-1" Cut="0.0000000000000000e+00" cType="1" res="8.4930000593885779e-04" rms="4.7529783844947815e-01" purity="6.1485654115676880e-01" nType="-99"/>
        </Node>
      </Node>
    </BinaryTree>
    <BinaryTree type="DecisionTree" boostWeight="1.0000000000000000e+00" itree="60">
      <Node pos="s" depth="0" NCoef="0" IVar="0" Cut="9.5862400531768799e-01" cType="1" res="1.9645474851131439e-02" rms="4.7325271368026733e-01" purity="4.8644796013832092e-01" nType="0">
        <Node pos="l" depth="1" NCoef="0" IVar="7" Cut="1.9689108133316040e+00" cType="1" res="-1.1954241991043091e-01" rms="4.4610559940338135e-01" purity="3.1995326280593872e-01" nType="0">
          <Node pos="l" depth="2" NCoef="0" IVar="-1" Cut="0.0000000000000000e+00" cType="1" res="-6.8785052280873060e-04" rms="4.6789652109146118e-01" purity="3.7553846836090088e-01" nType="-99"/>
          <Node pos="r" depth="2" NCoef="0" IVar="-1" Cut="0.0000000000000000e+00" cType="1" res="-1.1112644337117672e-02" rms="2.3313967883586884e-01" purity="6.0166541486978531e-02" nType="-99"/>
        </Node>
        <Node pos="r" depth="1" NCoef="0" IVar="3" Cut="2.4618954658508301e+00" cType="1" res="1.5429306030273438e-01" rms="4.5960924029350281e-01" purity="6.4751166105270386e-01" nType="0">
          <Node pos="l" depth="2" NCoef="0" IVar="-1" Cut="0.0000000000000000e+00" cType="1" res="1.0133857140317559e-03" rms="4.5150482654571533e-01" purity="7.0187807083129883e-01" nType="-99"/>
          <Node pos="r" depth="2" NCoef="0" IVar="-1" Cut="0.0000000000000000e+00" cType="1" res="-2.5079359766095877e-03" rms="3.9147171378135681e-01" purity="2.0795865356922150e-01" nType="-99"/>
        </Node>
      </Node>
    </BinaryTree>
    <BinaryTree type="DecisionTree" boostWeight="1.0000000000000000e+00" itree="61">
      <Node pos="s" depth="0" NCoef="0" IVar="6" Cut="3.2657897949218750e+02" cType="1" res="3.0851582065224648e-02" rms="4.7236990928649902e-01" purity="4.9686112999916077e-01" nType="0">
        <Node pos="l" depth="1" NCoef="0" IVar="3" Cut="2.2484807968139648e+00" cType="1" res="-1.1160958558320999e-01" rms="4.4620573520660400e-01" purity="3.2720443606376648e-01" nType="0">
          <Node pos="l" depth="2" NCoef="0" IVar="-1" Cut="0.0000000000000000e+00" cType="1" res="-3.8763132761232555e-04" rms="4.8855966329574585e-01" purity="4.2300543189048767e-01" nType="-99"/>
          <Node pos="r" depth="2" NCoef="0" IVar="-1" Cut="0.0000000000000000e+00" cType="1" res="-1.2595396488904953e-02" rms="1.6266231238842010e-01" purity="3.2393809407949448e-02" nType="-99"/>
        </Node>
        <Node pos="r" depth="1" NCoef="0" IVar="0" Cut="9.5929658412933350e-01" cType="1" res="1.4406953752040863e-01" rms="4.6182918548583984e-01" purity="6.3169205188751221e-01" nType="0">
          <Node pos="l" depth="2" NCoef="0" IVar="-1" Cut="0.0000000000000000e+00" cType="1" res="1.6536667317268439e-05" rms="4.8557427525520325e-01" purity="4.6687695384025574e-01" nType="-99"/>
          <Node pos="r" depth="2" NCoef="0" IVar="-1" Cut="0.0000000000000000e+00" cType="1" res="1.2605902738869190e-03" rms="4.0247556567192078e-01" purity="7.7290487289428711e-01" nType="-99"/>
        </Node>
      </Node>
    </BinaryTree>
    <BinaryTree type="DecisionTree" boostWeight="1.0000000000000000e+00" itree="62">
      <Node pos="s" depth="0" NCoef="0" IVar="3" Cut="1.9186437129974365e+00" cType="1" res="4.8340734094381332e-02" rms="4.7253826260566711e-01" purity="5.1266908645629883e-01" nType="0">
        <Node pos="l" depth="1" NCoef="0" IVar="1" Cut="5.1745666503906250e+01" cType="1" res="1.3679860532283783e-01" rms="4.7269746661186218e-01" purity="6.3529682159423828e-01" nType="0">
          <Node pos="l" depth="2" NCoef="0" IVar="-1" Cut="0.0000000000000000e+00" cType="1" res="-5.3568917792290449e-04" rms="4.8256304860115051e-01" purity="4.0616482496261597e-01" nType="-99"/>
          <Node pos="r" depth="2" NCoef="0" IVar="-1" Cut="0.0000000000000000e+00" cType="1" res="1.0100336512550712e-03" rms="4.5513471961021423e-01" purity="6.9794511795043945e-01" nType="-99"/>
        </Node>
        <Node pos="r" depth="1" NCoef="0" IVar="0" Cut="9.7734069824218750e-01" cType="1" res="-1.7285256087779999e-01" rms="3.9296746253967285e-01" purity="2.0603223145008087e-01" nType="0">
          <Node pos="l" depth="2" NCoef="0" IVar="-1" Cut="0.0000000000000000e+00" cType="1" res="-5.4947151802480221e-03" rms="3.2222321629524231e-01" purity="1.2435138225555420e-01" nType="-99"/>
          <Node pos="r" depth="2" NCoef="0" IVar="-1" Cut="0.0000000000000000e+00" cType="1" res="7.9020851990208030e-04" rms="5.0158584117889404e-01" purity="5.1675969362258911e-01" nType="-99"/>
        </Node>
      </Node>
    </BinaryTree>
    <BinaryTree type="DecisionTree" boostWeight="1.0000000000000000e+00" itree="63">
      <Node pos="s" depth="0" NCoef="0" IVar="6" Cut="3.1217855834960938e+02" cType="1" res="4.7180429100990295e-02" rms="4.7332215309143066e-01" purity="5.1148682832717896e-01" nType="0">
        <Node pos="l" depth="1" NCoef="0" IVar="5" Cut="1.0970984697341919e+00" cType="1" res="-1.1900390684604645e-01" rms="4.4060379266738892e-01" purity="3.0745854973793030e-01" nType="0">
          <Node pos="l" depth="2" NCoef="0" IVar="-1" Cut="0.0000000000000000e+00" cType="1" res="-8.9022135362029076e-03" rms="2.6822614669799805e-01" purity="7.1694239974021912e-02" nType="-99"/>
          <Node pos="r" depth="2" NCoef="0" IVar="-1" Cut="0.0000000000000000e+00" cType="1" res="-3.3264473313465714e-04" rms="4.7275707125663757e-01" purity="4.0587112307548523e-01" nType="-99"/>
        </Node>
        <Node pos="r" depth="1" NCoef="0" IVar="3" Cut="1.8775081634521484e+00" cType="1" res="1.3953025639057159e-01" rms="4.6559116244316101e-01" purity="6.2486690282821655e-01" nType="0">
          <Node pos="l" depth="2" NCoef="0" IVar="-1" Cut="0.0000000000000000e+00" cType="1" res="1.0630051838234067e-03" rms="4.4255527853965759e-01" purity="7.2528165578842163e-01" nType="-99"/>
          <Node pos="r" depth="2" NCoef="0" IVar="-1" Cut="0.0000000000000000e+00" cType="1" res="-5.3444044897332788e-04" rms="4.7080230712890625e-01" purity="3.5214352607727051e-01" nType="-99"/>
        </Node>
      </Node>
    </BinaryTree>
    <BinaryTree type="DecisionTree" boostWeight="1.0000000000000000e+00" itree="64">
      <Node pos="s" depth="0" NCoef="0" IVar="3" Cut="1.4366954565048218e+00" cType="1" res="2.6930890977382660e-02" rms="4.7861430048942566e-01" purity="4.8404383659362793e-01" nType="0">
        <Node pos="l" depth="1" NCoef="0" IVar="8" Cut="9.6963943481445312e+01" cType="1" res="1.3604506850242615e-01" rms="4.7476649284362793e-01" purity="6.3436996936798096e-01" nType="0">
          <Node pos="l" depth="2" NCoef="0" IVar="-1" Cut="0.0000000000000000e+00" cType="1" res="-8.1177888205274940e-04" rms="4.8477810621261597e-01" purity="3.8914012908935547e-01" nType="-99"/>
          <Node pos="r" depth="2" NCoef="0" IVar="-1" Cut="0.0000000000000000e+00" cType="1" res="9.5004617469385266e-04" rms="4.5985293388366699e-01" purity="6.8347740173339844e-01" nType="-99"/>
        </Node>
        <Node pos="r" depth="1" NCoef="0" IVar="2" Cut="1.7663920593261719e+02" cType="1" res="-7.4247896671295166e-02" rms="4.5956078171730042e-01" purity="3.4465020895004272e-01" nType="0">
          <Node pos="l" depth="2" NCoef="0" IVar="-1" Cut="0.0000000000000000e+00" cType="1" res="3.4465346834622324e-04" rms="4.9229356646537781e-01" purity="4.8215493559837341e-01" nType="-99"/>
          <Node pos="r" depth="2" NCoef="0" IVar="-1" Cut="0.0000000000000000e+00" cType="1" res="-2.0109033212065697e-03" rms="4.1697728633880615e-01" purity="2.5258764624595642e-01" nType="-99"/>
        </Node>
      </Node>
    </BinaryTree>
    <BinaryTree type="DecisionTree" boostWeight="1.0000000000000000e+00" itree="65">
      <Node pos="s" depth="0" NCoef="0" IVar="3" Cut="2.1584818363189697e+00" cType="1" res="3.0147776007652283e-02" rms="4.6949651837348938e-01" purity="4.9646836519241333e-01" nType="0">
        <Node pos="l" depth="1" NCoef="0" IVar="1" Cut="8.7294906616210938e+01" cType="1" res="1.0230129212141037e-01" rms="4.7920292615890503e-01" purity="5.9838461875915527e-01" nType="0">
          <Node pos="l" depth="2" NCoef="0" IVar="-1" Cut="0.0000000000000000e+00" cType="1" res="-1.0982133971992880e-04" rms="4.8938712477684021e-01" purity="4.6775451302528381e-01" nType="-99"/>
          <Node pos="r" depth="2" NCoef="0" IVar="-1" Cut="0.0000000000000000e+00" cType="1" res="1.1136361863464117e-03" rms="4.3662831187248230e-01" purity="7.3349308967590332e-01" nType="-99"/>
        </Node>
        <Node pos="r" depth="1" NCoef="0" IVar="8" Cut="1.3394046020507812e+02" cType="1" res="-2.2510579228401184e-01" rms="3.2292252779006958e-01" purity="1.3592492043972015e-01" nType="0">
          <Node pos="l" depth="2" NCoef="0" IVar="-1" Cut="0.0000000000000000e+00" cType="1" res="-1.2990138493478298e-02" rms="1.7465074360370636e-01" purity="3.4626770764589310e-02" nType="-99"/>
          <Node pos="r" depth="2" NCoef="0" IVar="-1" Cut="0.0000000000000000e+00" cType="1" res="-1.8691982841119170e-03" rms="3.9849436283111572e-01" purity="2.3170126974582672e-01" nType="-99"/>
        </Node>
      </Node>
    </BinaryTree>
    <BinaryTree type="DecisionTree" boostWeight="1.0000000000000000e+00" itree="66">
      <Node pos="s" depth="0" NCoef="0" IVar="0" Cut="9.6997696161270142e-01" cType="1" res="3.4637596458196640e-02" rms="4.7485870122909546e-01" purity="4.9629029631614685e-01" nType="0">
        <Node pos="l" depth="1" NCoef="0" IVar="3" Cut="2.5267808437347412e+00" cType="1" res="-2.9237946495413780e-02" rms="4.6954548358917236e-01" purity="4.1726878285408020e-01" nType="0">
          <Node pos="l" depth="2" NCoef="0" IVar="-1" Cut="0.0000000000000000e+00" cType="1" res="1.0080006177304313e-04" rms="4.9087098240852356e-01" purity="4.8559555411338806e-01" nType="-99"/>
          <Node pos="r" depth="2" NCoef="0" IVar="-1" Cut="0.0000000000000000e+00" cType="1" res="-1.1098012328147888e-02" rms="2.0655505359172821e-01" purity="4.2857371270656586e-02" nType="-99"/>
        </Node>
        <Node pos="r" depth="1" NCoef="0" IVar="6" Cut="3.2254418945312500e+02" cType="1" res="1.7332318425178528e-01" rms="4.5639142394065857e-01" purity="6.6786050796508789e-01" nType="0">
          <Node pos="l" depth="2" NCoef="0" IVar="-1" Cut="0.0000000000000000e+00" cType="1" res="9.3607937742490321e-05" rms="4.8422440886497498e-01" purity="4.7936320304870605e-01" nType="-99"/>
          <Node pos="r" depth="2" NCoef="0" IVar="-1" Cut="0.0000000000000000e+00" cType="1" res="1.2227194383740425e-03" rms="4.1940104961395264e-01" purity="7.6125031709671021e-01" nType="-99"/>
        </Node>
      </Node>
    </BinaryTree>
    <BinaryTree type="DecisionTree" boostWeight="1.0000000000000000e+00" itree="67">
      <Node pos="s" depth="0" NCoef="0" IVar="3" Cut="2.8531770706176758e+00" cType="1" res="2.5573702529072762e-02" rms="4.7670847177505493e-01" purity="4.8387986421585083e-01" nType="0">
        <Node pos="l" depth="1" NCoef="0" IVar="1" Cut="7.1552131652832031e+01" cType="1" res="5.3795613348484039e-02" rms="4.8661872744560242e-01" purity="5.2684891223907471e-01" nType="0">
          <Node pos="l" depth="2" NCoef="0" IVar="-1" Cut="0.0000000000000000e+00" cType="1" res="-6.7242654040455818e-04" rms="4.7350963950157166e-01" purity="3.8199898600578308e-01" nType="-99"/>
          <Node pos="r" depth="2" NCoef="0" IVar="-1" Cut="0.0000000000000000e+00" cType="1" res="7.7481707558035851e-04" rms="4.7745436429977417e-01" purity="6.1280310153961182e-01" nType="-99"/>
        </Node>
        <Node pos="r" depth="1" NCoef="0" IVar="-1" Cut="0.0000000000000000e+00" cType="1" res="-1.0717508383095264e-02" rms="1.8979969620704651e-01" purity="4.0988545864820480e-02" nType="-99"/>
      </Node>
    </BinaryTree>
    <BinaryTree type="DecisionTree" boostWeight="1.0000000000000000e+00" itree="68">
      <Node pos="s" depth="0" NCoef="0" IVar="3" Cut="2.3285112380981445e+00" cType="1" res="6.0997795313596725e-02" rms="4.7430175542831421e-01" purity="5.1786553859710693e-01" nType="0">
        <Node pos="l" depth="1" NCoef="0" IVar="1" Cut="7.1117874145507812e+01" cType="1" res="1.0719595849514008e-01" rms="4.8120027780532837e-01" purity="5.9627079963684082e-01" nType="0">
          <Node pos="l" depth="2" NCoef="0" IVar="-1" Cut="0.0000000000000000e+00" cType="1" res="-2.2280607663560659e-04" rms="4.9026408791542053e-01" purity="4.4300448894500732e-01" nType="-99"/>
          <Node pos="r" depth="2" NCoef="0" IVar="-1" Cut="0.0000000000000000e+00" cType="1" res="9.6238701371476054e-04" rms="4.5942118763923645e-01" purity="6.8095147609710693e-01" nType="-99"/>
        </Node>
        <Node pos="r" depth="1" NCoef="0" IVar="2" Cut="2.4540257263183594e+02" cType="1" res="-1.2559229135513306e-01" rms="3.9357778429985046e-01" purity="2.0119416713714600e-01" nType="0">
          <Node pos="l" depth="2" NCoef="0" IVar="-1" Cut="0.0000000000000000e+00" cType="1" res="-1.9545044051483274e-04" rms="4.5649757981300354e-01" purity="3.1302553415298462e-01" nType="-99"/>
          <Node pos="r" depth="2" NCoef="0" IVar="-1" Cut="0.0000000000000000e+00" cType="1" res="-7.7702780254185200e-03" rms="2.5561571121215820e-01" purity="7.3830269277095795e-02" nType="-99"/>
        </Node>
      </Node>
    </BinaryTree>
    <BinaryTree type="DecisionTree" boostWeight="1.0000000000000000e+00" itree="69">
      <Node pos="s" depth="0" NCoef="0" IVar="0" Cut="9.5536202192306519e-01" cType="1" res="3.0619932338595390e-02" rms="4.7224605083465576e-01" purity="4.9190425872802734e-01" nType="0">
        <Node pos="l" depth="1" NCoef="0" IVar="3" Cut="1.4394972324371338e+00" cType="1" res="-9.7547791898250580e-02" rms="4.5068711042404175e-01" purity="3.3542332053184509e-01" nType="0">
          <Node pos="l" depth="2" NCoef="0" IVar="-1" Cut="0.0000000000000000e+00" cType="1" res="1.3863068306818604e-04" rms="4.9019515514373779e-01" purity="5.0707274675369263e-01" nType="-99"/>
          <Node pos="r" depth="2" NCoef="0" IVar="-1" Cut="0.0000000000000000e+00" cType="1" res="-3.1826884951442480e-03" rms="3.8792055845260620e-01" purity="1.9162495434284210e-01" nType="-99"/>
        </Node>
        <Node pos="r" depth="1" NCoef="0" IVar="6" Cut="3.2070504760742188e+02" cType="1" res="1.4778013527393341e-01" rms="4.6093627810478210e-01" purity="6.3494610786437988e-01" nType="0">
          <Node pos="l" depth="2" NCoef="0" IVar="-1" Cut="0.0000000000000000e+00" cType="1" res="1.0189231397816911e-04" rms="4.8902961611747742e-01" purity="4.6931019425392151e-01" nType="-99"/>
          <Node pos="r" depth="2" NCoef="0" IVar="-1" Cut="0.0000000000000000e+00" cType="1" res="1.1259001912549138e-03" rms="4.2380079627037048e-01" purity="7.3295271396636963e-01" nType="-99"/>
        </Node>
      </Node>
    </BinaryTree>
    <BinaryTree type="DecisionTree" boostWeight="1.0000000000000000e+00" itree="70">
      <Node pos="s" depth="0" NCoef="0" IVar="3" Cut="2.7857906818389893e+00" cType="1" res="2.8283784165978432e-02" rms="4.7283226251602173e-01" purity="4.8716193437576294e-01" nType="0">
        <Node pos="l" depth="1" NCoef="0" IVar="0" Cut="9.1785091161727905e-01" cType="1" res="6.2303859740495682e-02" rms="4.8432552814483643e-01" purity="5.3866207599639893e-01" nType="0">
          <Node pos="l" depth="2" NCoef="0" IVar="-1" Cut="0.0000000000000000e+00" cType="1" res="-7.0229377597570419e-03" rms="3.1094360351562500e-01" purity="1.2094148248434067e-01" nType="-99"/>
          <Node pos="r" depth="2" NCoef="0" IVar="-1" Cut="0.0000000000000000e+00" cType="1" res="5.7524093426764011e-04" rms="4.8288336396217346e-01" purity="5.6947046518325806e-01" nType="-99"/>
        </Node>
        <Node pos="r" depth="1" NCoef="0" IVar="-1" Cut="0.0000000000000000e+00" cType="1" res="-1.8762217834591866e-02" rms="1.0211100429296494e-01" purity="8.2536460831761360e-03" nType="-99"/>
      </Node>
    </BinaryTree>
    <BinaryTree type="DecisionTree" boostWeight="1.0000000000000000e+00" itree="71">
      <Node pos="s" depth="0" NCoef="0" IVar="3" Cut="2.1271314620971680e+00" cType="1" res="4.6717308461666107e-02" rms="4.6880823373794556e-01" purity="5.1017379760742188e-01" nType="0">
        <Node pos="l" depth="1" NCoef="0" IVar="2" Cut="9.8726799011230469e+01" cType="1" res="1.2110491842031479e-01" rms="4.7749888896942139e-01" purity="6.1556476354598999e-01" nType="0">
          <Node pos="l" depth="2" NCoef="0" IVar="-1" Cut="0.0000000000000000e+00" cType="1" res="-2.1433460060507059e-03" rms="4.4497978687286377e-01" purity="2.7090433239936829e-01" nType="-99"/>
          <Node pos="r" depth="2" NCoef="0" IVar="-1" Cut="0.0000000000000000e+00" cType="1" res="8.2319387001916766e-04" rms="4.7073325514793396e-01" purity="6.4567953348159790e-01" nType="-99"/>
        </Node>
        <Node pos="r" depth="1" NCoef="0" IVar="0" Cut="9.6727579832077026e-01" cType="1" res="-2.2189110517501831e-01" rms="3.1297466158866882e-01" purity="1.2961456179618835e-01" nType="0">
          <Node pos="l" depth="2" NCoef="0" IVar="-1" Cut="0.0000000000000000e+00" cType="1" res="-8.0461381003260612e-03" rms="2.3965744674205780e-01" purity="7.0007860660552979e-02" nType="-99"/>
          <Node pos="r" depth="2" NCoef="0" IVar="-1" Cut="0.0000000000000000e+00" cType="1" res="-1.1095274239778519e-03" rms="4.4849169254302979e-01" purity="3.1207919120788574e-01" nType="-99"/>
        </Node>
      </Node>
    </BinaryTree>
    <BinaryTree type="DecisionTree" boostWeight="1.0000000000000000e+00" itree="72">
      <Node pos="s" depth="0" NCoef="0" IVar="0" Cut="9.4593608379364014e-01" cType="1" res="4.9792267382144928e-03" rms="4.7286221385002136e-01" purity="4.5740157365798950e-01" nType="0">
        <Node pos="l" depth="1" NCoef="0" IVar="5" Cut="1.2006936073303223e+00" cType="1" res="-1.3351708650588989e-01" rms="4.3490749597549438e-01" purity="2.7884167432785034e-01" nType="0">
          <Node pos="l" depth="2" NCoef="0" IVar="-1" Cut="0.0000000000000000e+00" cType="1" res="-8.6328126490116119e-03" rms="2.6135715842247009e-01" purity="8.4076181054115295e-02" nType="-99"/>
          <Node pos="r" depth="2" NCoef="0" IVar="-1" Cut="0.0000000000000000e+00" cType="1" res="-1.6063707880675793e-04" rms="4.9021616578102112e-01" purity="4.1270267963409424e-01" nType="-99"/>
        </Node>
        <Node pos="r" depth="1" NCoef="0" IVar="3" Cut="2.1630115509033203e+00" cType="1" res="7.3039740324020386e-02" rms="4.7589069604873657e-01" purity="5.4515027999877930e-01" nType="0">
          <Node pos="l" depth="2" NCoef="0" IVar="-1" Cut="0.0000000000000000e+00" cType="1" res="7.2567921597510576e-04" rms="4.7505900263786316e-01" purity="6.3012444972991943e-01" nType="-99"/>
          <Node pos="r" depth="2" NCoef="0" IVar="-1" Cut="0.0000000000000000e+00" cType="1" res="-1.5803206479176879e-03" rms="4.3136590719223022e-01" purity="2.4592027068138123e-01" nType="-99"/>
        </Node>
      </Node>
    </BinaryTree>
    <BinaryTree type="DecisionTree" boostWeight="1.0000000000000000e+00" itree="73">
      <Node pos="s" depth="0" NCoef="0" IVar="3" Cut="2.5157165527343750e+00" cType="1" res="2.8839107602834702e-02" rms="4.6989196538925171e-01" purity="4.8737418651580811e-01" nType="0">
        <Node pos="l" depth="1" NCoef="0" IVar="1" Cut="9.4008689880371094e+01" cType="1" res="7.0074930787086487e-02" rms="4.8410186171531677e-01" purity="5.5375409126281738e-01" nType="0">
          <Node pos="l" depth="2" NCoef="0" IVar="-1" Cut="0.0000000000000000e+00" cType="1" res="-2.6570391491986811e-04" rms="4.8101904988288879e-01" purity="4.4126287102699280e-01" nType="-99"/>
          <Node pos="r" depth="2" NCoef="0" IVar="-1" Cut="0.0000000000000000e+00" cType="1" res="9.7862584516406059e-04" rms="4.6116086840629578e-01" purity="6.7822051048278809e-01" nType="-99"/>
        </Node>
        <Node pos="r" depth="1" NCoef="0" IVar="8" Cut="1.4144038391113281e+02" cType="1" res="-2.2445981204509735e-01" rms="2.5084251165390015e-01" purity="7.9622596502304077e-02" nType="0">
          <Node pos="l" depth="2" NCoef="0" IVar="-1" Cut="0.0000000000000000e+00" cType="1" res="-1.9823964685201645e-02" rms="4.9922350794076920e-02" purity="0.0000000000000000e+00" nType="-99"/>
          <Node pos="r" depth="2" NCoef="0" IVar="-1" Cut="0.0000000000000000e+00" cType="1" res="-2.2435688879340887e-03" rms="3.6545237898826599e-01" purity="1.9018945097923279e-01" nType="-99"/>
        </Node>
      </Node>
    </BinaryTree>
    <BinaryTree type="DecisionTree" boostWeight="1.0000000000000000e+00" itree="74">
      <Node pos="s" depth="0" NCoef="0" IVar="3" Cut="2.4729144573211670e+00" cType="1" res="3.3440034836530685e-02" rms="4.7138610482215881e-01" purity="4.9314475059509277e-01" nType="0">
        <Node pos="l" depth="1" NCoef="0" IVar="1" Cut="9.5532989501953125e+01" cType="1" res="7.3802702128887177e-02" rms="4.8488205671310425e-01" purity="5.5971896648406982e-01" nType="0">
          <Node pos="l" depth="2" NCoef="0" IVar="-1" Cut="0.0000000000000000e+00" cType="1" res="-2.0950294856447726e-04" rms="4.8471829295158386e-01" purity="4.5123612880706787e-01" nType="-99"/>
          <Node pos="r" depth="2" NCoef="0" IVar="-1" Cut="0.0000000000000000e+00" cType="1" res="1.0357414139434695e-03" rms="4.5640453696250916e-01" purity="6.9012993574142456e-01" nType="-99"/>
        </Node>
        <Node pos="r" depth="1" NCoef="0" IVar="2" Cut="3.3431298828125000e+02" cType="1" res="-2.1732015907764435e-01" rms="2.6272353529930115e-01" purity="7.9540468752384186e-02" nType="0">
          <Node pos="l" depth="2" NCoef="0" IVar="-1" Cut="0.0000000000000000e+00" cType="1" res="-1.9662946462631226e-02" rms="5.2734829485416412e-02" purity="0.0000000000000000e+00" nType="-99"/>
          <Node pos="r" depth="2" NCoef="0" IVar="-1" Cut="0.0000000000000000e+00" cType="1" res="-1.4065797440707684e-03" rms="3.9740103483200073e-01" purity="2.1734368801116943e-01" nType="-99"/>
        </Node>
      </Node>
    </BinaryTree>
    <BinaryTree type="DecisionTree" boostWeight="1.0000000000000000e+00" itree="75">
      <Node pos="s" depth="0" NCoef="0" IVar="1" Cut="5.4036869049072266e+01" cType="1" res="5.0988037139177322e-02" rms="4.7348701953887939e-01" purity="5.0547254085540771e-01" nType="0">
        <Node pos="l" depth="1" NCoef="0" IVar="1" Cut="3.9477169036865234e+01" cType="1" res="-1.3820816576480865e-01" rms="4.4001239538192749e-01" purity="2.9650634527206421e-01" nType="0">
          <Node pos="l" depth="2" NCoef="0" IVar="-1" Cut="0.0000000000000000e+00" cType="1" res="-8.0776466056704521e-03" rms="3.1467390060424805e-01" purity="1.0554345697164536e-01" nType="-99"/>
          <Node pos="r" depth="2" NCoef="0" IVar="-1" Cut="0.0000000000000000e+00" cType="1" res="-1.4083657879382372e-04" rms="4.7443315386772156e-01" purity="4.3126156926155090e-01" nType="-99"/>
        </Node>
        <Node pos="r" depth="1" NCoef="0" IVar="3" Cut="1.9007540941238403e+00" cType="1" res="9.8993152379989624e-02" rms="4.6964025497436523e-01" purity="5.5849391222000122e-01" nType="0">
          <Node pos="l" depth="2" NCoef="0" IVar="-1" Cut="0.0000000000000000e+00" cType="1" res="9.2448323266580701e-04" rms="4.6289327740669250e-01" purity="6.8065381050109863e-01" nType="-99"/>
          <Node pos="r" depth="2" NCoef="0" IVar="-1" Cut="0.0000000000000000e+00" cType="1" res="-1.3339577708393335e-04" rms="4.5780923962593079e-01" purity="3.6560752987861633e-01" nType="-99"/>
        </Node>
      </Node>
    </BinaryTree>
    <BinaryTree type="DecisionTree" boostWeight="1.0000000000000000e+00" itree="76">
      <Node pos="s" depth="0" NCoef="0" IVar="0" Cut="9.6487975120544434e-01" cType="1" res="7.9434767365455627e-02" rms="4.6756312251091003e-01" purity="5.4070502519607544e-01" nType="0">
        <Node pos="l" depth="1" NCoef="0" IVar="6" Cut="3.3387521362304688e+02" cType="1" res="-2.4795245379209518e-02" rms="4.6402513980865479e-01" purity="4.1146555542945862e-01" nType="0">
          <Node pos="l" depth="2" NCoef="0" IVar="-1" Cut="0.0000000000000000e+00" cType="1" res="-1.8118956359103322e-03" rms="4.1547858715057373e-01" purity="2.5796625018119812e-01" nType="-99"/>
          <Node pos="r" depth="2" NCoef="0" IVar="-1" Cut="0.0000000000000000e+00" cType="1" res="5.4545875173062086e-04" rms="4.7822293639183044e-01" purity="5.4822170734405518e-01" nType="-99"/>
        </Node>
        <Node pos="r" depth="1" NCoef="0" IVar="6" Cut="2.8452978515625000e+02" cType="1" res="2.2041061520576477e-01" rms="4.3417170643806458e-01" purity="7.1550726890563965e-01" nType="0">
          <Node pos="l" depth="2" NCoef="0" IVar="-1" Cut="0.0000000000000000e+00" cType="1" res="2.0638975547626615e-04" rms="4.8135989904403687e-01" purity="4.8910918831825256e-01" nType="-99"/>
          <Node pos="r" depth="2" NCoef="0" IVar="-1" Cut="0.0000000000000000e+00" cType="1" res="1.2826868332922459e-03" rms="4.0605944395065308e-01" purity="7.7523481845855713e-01" nType="-99"/>
        </Node>
      </Node>
    </BinaryTree>
    <BinaryTree type="DecisionTree" boostWeight="1.0000000000000000e+00" itree="77">
      <Node pos="s" depth="0" NCoef="0" IVar="1" Cut="4.6697498321533203e+01" cType="1" res="6.4831770956516266e-02" rms="4.7430157661437988e-01" purity="5.2176964282989502e-01" nType="0">
        <Node pos="l" depth="1" NCoef="0" IVar="0" Cut="9.4468283653259277e-01" cType="1" res="-2.1429985761642456e-01" rms="4.0219315886497498e-01" purity="2.0805269479751587e-01" nType="0">
          <Node pos="l" depth="2" NCoef="0" IVar="-1" Cut="0.0000000000000000e+00" cType="1" res="-8.6103118956089020e-03" rms="2.6449364423751831e-01" purity="7.3957070708274841e-02" nType="-99"/>
          <Node pos="r" depth="2" NCoef="0" IVar="-1" Cut="0.0000000000000000e+00" cType="1" res="-1.6711074858903885e-03" rms="4.5450919866561890e-01" purity="2.9197430610656738e-01" nType="-99"/>
        </Node>
        <Node pos="r" depth="1" NCoef="0" IVar="0" Cut="9.5749384164810181e-01" cType="1" res="1.0757719725370407e-01" rms="4.6998074650764465e-01" purity="5.6981140375137329e-01" nType="0">
          <Node pos="l" depth="2" NCoef="0" IVar="-1" Cut="0.0000000000000000e+00" cType="1" res="9.2857197159901261e-05" rms="4.7475597262382507e-01" purity="4.4340571761131287e-01" nType="-99"/>
          <Node pos="r" depth="2" NCoef="0" IVar="-1" Cut="0.0000000000000000e+00" cType="1" res="1.0669775074347854e-03" rms="4.4591033458709717e-01" purity="6.9260644912719727e-01" nType="-99"/>
        </Node>
      </Node>
    </BinaryTree>
    <BinaryTree type="DecisionTree" boostWeight="1.0000000000000000e+00" itree="78">
      <Node pos="s" depth="0" NCoef="0" IVar="0" Cut="9.5322442054748535e-01" cType="1" res="9.7165685147047043e-03" rms="4.6705242991447449e-01" purity="4.6606129407882690e-01" nType="0">
        <Node pos="l" depth="1" NCoef="0" IVar="1" Cut="7.7144851684570312e+01" cType="1" res="-1.3825938105583191e-01" rms="4.3107616901397705e-01" purity="2.7365124225616455e-01" nType="0">
          <Node pos="l" depth="2" NCoef="0" IVar="-1" Cut="0.0000000000000000e+00" cType="1" res="-4.7119199298322201e-03" rms="3.6105257272720337e-01" purity="1.5076349675655365e-01" nType="-99"/>
          <Node pos="r" depth="2" NCoef="0" IVar="-1" Cut="0.0000000000000000e+00" cType="1" res="-5.2129628602415323e-04" rms="4.5639577507972717e-01" purity="3.6054873466491699e-01" nType="-99"/>
        </Node>
        <Node pos="r" depth="1" NCoef="0" IVar="3" Cut="1.8668762445449829e+00" cType="1" res="1.1786030232906342e-01" rms="4.6265968680381775e-01" purity="6.0667836666107178e-01" nType="0">
          <Node pos="l" depth="2" NCoef="0" IVar="-1" Cut="0.0000000000000000e+00" cType="1" res="1.0126630077138543e-03" rms="4.4535839557647705e-01" purity="7.1527296304702759e-01" nType="-99"/>
          <Node pos="r" depth="2" NCoef="0" IVar="-1" Cut="0.0000000000000000e+00" cType="1" res="-1.2398640392348170e-03" rms="4.3338334560394287e-01" purity="3.0083170533180237e-01" nType="-99"/>
        </Node>
      </Node>
    </BinaryTree>
    <BinaryTree type="DecisionTree" boostWeight="1.0000000000000000e+00" itree="79">
      <Node pos="s" depth="0" NCoef="0" IVar="3" Cut="1.8244602680206299e+00" cType="1" res="2.2902175784111023e-02" rms="4.6952962875366211e-01" purity="4.7839218378067017e-01" nType="0">
        <Node pos="l" depth="1" NCoef="0" IVar="6" Cut="2.9048687744140625e+02" cType="1" res="9.5174320042133331e-02" rms="4.8024475574493408e-01" purity="5.9551131725311279e-01" nType="0">
          <Node pos="l" depth="2" NCoef="0" IVar="-1" Cut="0.0000000000000000e+00" cType="1" res="-5.8551511028781533e-04" rms="4.7872704267501831e-01" purity="3.9942026138305664e-01" nType="-99"/>
          <Node pos="r" depth="2" NCoef="0" IVar="-1" Cut="0.0000000000000000e+00" cType="1" res="8.2516588736325502e-04" rms="4.6823722124099731e-01" purity="6.6131037473678589e-01" nType="-99"/>
        </Node>
        <Node pos="r" depth="1" NCoef="0" IVar="5" Cut="1.2041287422180176e+00" cType="1" res="-1.0752921551465988e-01" rms="4.1910919547080994e-01" purity="2.6702430844306946e-01" nType="0">
          <Node pos="l" depth="2" NCoef="0" IVar="-1" Cut="0.0000000000000000e+00" cType="1" res="-4.8121833242475986e-03" rms="3.1351387500762939e-01" purity="1.2670029699802399e-01" nType="-99"/>
          <Node pos="r" depth="2" NCoef="0" IVar="-1" Cut="0.0000000000000000e+00" cType="1" res="1.6119891370180994e-04" rms="4.7564065456390381e-01" purity="4.1536217927932739e-01" nType="-99"/>
        </Node>
      </Node>
    </BinaryTree>
    <BinaryTree type="DecisionTree" boostWeight="1.0000000000000000e+00" itree="80">
      <Node pos="s" depth="0" NCoef="0" IVar="0" Cut="9.6399110555648804e-01" cType="1" res="6.0262985527515411e-02" rms="4.7080489993095398e-01" purity="5.1587074995040894e-01" nType="0">
        <Node pos="l" depth="1" NCoef="0" IVar="3" Cut="7.7383220195770264e-01" cType="1" res="-3.8191244006156921e-02" rms="4.6139070391654968e-01" purity="3.9183902740478516e-01" nType="0">
          <Node pos="l" depth="2" NCoef="0" IVar="-1" Cut="0.0000000000000000e+00" cType="1" res="8.7386235827580094e-04" rms="4.6908575296401978e-01" purity="6.4284092187881470e-01" nType="-99"/>
          <Node pos="r" depth="2" NCoef="0" IVar="-1" Cut="0.0000000000000000e+00" cType="1" res="-8.0186937702819705e-04" rms="4.4869753718376160e-01" purity="3.3861097693443298e-01" nType="-99"/>
        </Node>
        <Node pos="r" depth="1" NCoef="0" IVar="1" Cut="6.0785411834716797e+01" cType="1" res="1.9449865818023682e-01" rms="4.4987469911575317e-01" purity="6.8497967720031738e-01" nType="0">
          <Node pos="l" depth="2" NCoef="0" IVar="-1" Cut="0.0000000000000000e+00" cType="1" res="1.5145492216106504e-04" rms="4.8904910683631897e-01" purity="4.9886545538902283e-01" nType="-99"/>
          <Node pos="r" depth="2" NCoef="0" IVar="-1" Cut="0.0000000000000000e+00" cType="1" res="1.2231013970449567e-03" rms="4.2979744076728821e-01" purity="7.2905749082565308e-01" nType="-99"/>
        </Node>
      </Node>
    </BinaryTree>
    <BinaryTree type="DecisionTree" boostWeight="1.0000000000000000e+00" itree="81">
      <Node pos="s" depth="0" NCoef="0" IVar="0" Cut="9.7245174646377563e-01" cType="1" res="4.8684563487768173e-02" rms="4.6713361144065857e-01" purity="5.0812494754791260e-01" nType="0">
        <Node pos="l" depth="1" NCoef="0" IVar="3" Cut="1.5353362560272217e+00" cType="1" res="-4.4451110064983368e-02" rms="4.5965620875358582e-01" purity="3.9301925897598267e-01" nType="0">
          <Node pos="l" depth="2" NCoef="0" IVar="-1" Cut="0.0000000000000000e+00" cType="1" res="2.6745456852950156e-04" rms="4.9124279618263245e-01" purity="5.2890509366989136e-01" nType="-99"/>
          <Node pos="r" depth="2" NCoef="0" IVar="-1" Cut="0.0000000000000000e+00" cType="1" res="-1.5732324682176113e-03" rms="4.0990474820137024e-01" purity="2.5945812463760376e-01" nType="-99"/>
        </Node>
        <Node pos="r" depth="1" NCoef="0" IVar="1" Cut="5.9063747406005859e+01" cType="1" res="2.3750203847885132e-01" rms="4.2311403155326843e-01" purity="7.4148291349411011e-01" nType="0">
          <Node pos="l" depth="2" NCoef="0" IVar="-1" Cut="0.0000000000000000e+00" cType="1" res="3.4737051464617252e-04" rms="4.8477953672409058e-01" purity="5.4446130990982056e-01" nType="-99"/>
          <Node pos="r" depth="2" NCoef="0" IVar="-1" Cut="0.0000000000000000e+00" cType="1" res="1.2863696319982409e-03" rms="3.9880573749542236e-01" purity="7.8197211027145386e-01" nType="-99"/>
        </Node>
      </Node>
    </BinaryTree>
    <BinaryTree type="DecisionTree" boostWeight="1.0000000000000000e+00" itree="82">
      <Node pos="s" depth="0" NCoef="0" IVar="3" Cut="9.8674905300140381e-01" cType="1" res="-1.5886660665273666e-02" rms="4.6960571408271790e-01" purity="4.3558278679847717e-01" nType="0">
        <Node pos="l" depth="1" NCoef="0" IVar="1" Cut="5.3833774566650391e+01" cType="1" res="1.3772654533386230e-01" rms="4.7098153829574585e-01" purity="6.3659244775772095e-01" nType="0">
          <Node pos="l" depth="2" NCoef="0" IVar="-1" Cut="0.0000000000000000e+00" cType="1" res="-6.3098159444052726e-05" rms="4.8631978034973145e-01" purity="4.6342000365257263e-01" nType="-99"/>
          <Node pos="r" depth="2" NCoef="0" IVar="-1" Cut="0.0000000000000000e+00" cType="1" res="1.0683492291718721e-03" rms="4.4195669889450073e-01" purity="7.3227471113204956e-01" nType="-99"/>
        </Node>
        <Node pos="r" depth="1" NCoef="0" IVar="1" Cut="5.1048908233642578e+01" cType="1" res="-7.3510780930519104e-02" rms="4.5592948794364929e-01" purity="3.6017909646034241e-01" nType="0">
          <Node pos="l" depth="2" NCoef="0" IVar="-1" Cut="0.0000000000000000e+00" cType="1" res="-8.5469204932451248e-03" rms="2.8058278560638428e-01" purity="9.3165382742881775e-02" nType="-99"/>
          <Node pos="r" depth="2" NCoef="0" IVar="-1" Cut="0.0000000000000000e+00" cType="1" res="-3.0688929837197065e-04" rms="4.6682691574096680e-01" purity="4.0283960103988647e-01" nType="-99"/>
        </Node>
      </Node>
    </BinaryTree>
    <BinaryTree type="DecisionTree" boostWeight="1.0000000000000000e+00" itree="83">
      <Node pos="s" depth="0" NCoef="0" IVar="0" Cut="9.5728605985641479e-01" cType="1" res="5.7797860354185104e-02" rms="4.7200062870979309e-01" purity="5.1498180627822876e-01" nType="0">
        <Node pos="l" depth="1" NCoef="0" IVar="3" Cut="1.3470345735549927e+00" cType="1" res="-2.4673890322446823e-02" rms="4.6728095412254333e-01" purity="4.0063098073005676e-01" nType="0">
          <Node pos="l" depth="2" NCoef="0" IVar="-1" Cut="0.0000000000000000e+00" cType="1" res="4.7301969607360661e-04" rms="4.8762387037277222e-01" purity="5.6236553192138672e-01" nType="-99"/>
          <Node pos="r" depth="2" NCoef="0" IVar="-1" Cut="0.0000000000000000e+00" cType="1" res="-1.2196305906400084e-03" rms="4.3610540032386780e-01" purity="2.7941989898681641e-01" nType="-99"/>
        </Node>
        <Node pos="r" depth="1" NCoef="0" IVar="8" Cut="1.0766748046875000e+02" cType="1" res="1.4451453089714050e-01" rms="4.6127474308013916e-01" purity="6.3521832227706909e-01" nType="0">
          <Node pos="l" depth="2" NCoef="0" IVar="-1" Cut="0.0000000000000000e+00" cType="1" res="-6.7170924739912152e-04" rms="4.6656247973442078e-01" purity="4.0785324573516846e-01" nType="-99"/>
          <Node pos="r" depth="2" NCoef="0" IVar="-1" Cut="0.0000000000000000e+00" cType="1" res="1.0693303775042295e-03" rms="4.4317904114723206e-01" purity="6.9084542989730835e-01" nType="-99"/>
        </Node>
      </Node>
    </BinaryTree>
    <BinaryTree type="DecisionTree" boostWeight="1.0000000000000000e+00" itree="84">
      <Node pos="s" depth="0" NCoef="0" IVar="6" Cut="3.1597653198242188e+02" cType="1" res="6.1381585896015167e-02" rms="4.6956223249435425e-01" purity="5.1842063665390015e-01" nType="0">
        <Node pos="l" depth="1" NCoef="0" IVar="0" Cut="9.7246640920639038e-01" cType="1" res="-7.1080043911933899e-02" rms="4.5000913739204407e-01" purity="3.4935915470123291e-01" nType="0">
          <Node pos="l" depth="2" NCoef="0" IVar="-1" Cut="0.0000000000000000e+00" cType="1" res="-1.4213732210919261e-03" rms="4.2222586274147034e-01" purity="2.7305036783218384e-01" nType="-99"/>
          <Node pos="r" depth="2" NCoef="0" IVar="-1" Cut="0.0000000000000000e+00" cType="1" res="6.2983977841213346e-04" rms="4.8243573307991028e-01" purity="5.6038558483123779e-01" nType="-99"/>
        </Node>
        <Node pos="r" depth="1" NCoef="0" IVar="7" Cut="2.0708408355712891e+00" cType="1" res="1.4449532330036163e-01" rms="4.6244281530380249e-01" purity="6.2449914216995239e-01" nType="0">
          <Node pos="l" depth="2" NCoef="0" IVar="-1" Cut="0.0000000000000000e+00" cType="1" res="9.5949548995122313e-04" rms="4.5661303400993347e-01" purity="6.6741871833801270e-01" nType="-99"/>
          <Node pos="r" depth="2" NCoef="0" IVar="-1" Cut="0.0000000000000000e+00" cType="1" res="-1.2045952025800943e-03" rms="4.3312078714370728e-01" purity="2.9649186134338379e-01" nType="-99"/>
        </Node>
      </Node>
    </BinaryTree>
    <BinaryTree type="DecisionTree" boostWeight="1.0000000000000000e+00" itree="85">
      <Node pos="s" depth="0" NCoef="0" IVar="0" Cut="9.7104740142822266e-01" cType="1" res="8.0302931368350983e-02" rms="4.7088953852653503e-01" purity="5.3484940528869629e-01" nType="0">
        <Node pos="l" depth="1" NCoef="0" IVar="6" Cut="4.5722293090820312e+02" cType="1" res="-1.1432661995058879e-04" rms="4.6929121017456055e-01" purity="4.3504601716995239e-01" nType="0">
          <Node pos="l" depth="2" NCoef="0" IVar="-1" Cut="0.0000000000000000e+00" cType="1" res="-4.0028101648204029e-04" rms="4.5777428150177002e-01" purity="3.7896338105201721e-01" nType="-99"/>
          <Node pos="r" depth="2" NCoef="0" IVar="-1" Cut="0.0000000000000000e+00" cType="1" res="1.0029093828052282e-03" rms="4.7248229384422302e-01" purity="6.4787119626998901e-01" nType="-99"/>
        </Node>
        <Node pos="r" depth="1" NCoef="0" IVar="6" Cut="3.3077896118164062e+02" cType="1" res="2.4617484211921692e-01" rms="4.2893365025520325e-01" purity="7.4070793390274048e-01" nType="0">
          <Node pos="l" depth="2" NCoef="0" IVar="-1" Cut="0.0000000000000000e+00" cType="1" res="7.8161008423194289e-04" rms="4.7638949751853943e-01" purity="5.9684723615646362e-01" nType="-99"/>
          <Node pos="r" depth="2" NCoef="0" IVar="-1" Cut="0.0000000000000000e+00" cType="1" res="1.3729460770264268e-03" rms="3.8812455534934998e-01" purity="8.1368029117584229e-01" nType="-99"/>
        </Node>
      </Node>
    </BinaryTree>
    <BinaryTree type="DecisionTree" boostWeight="1.0000000000000000e+00" itree="86">
      <Node pos="s" depth="0" NCoef="0" IVar="0" Cut="9.6767693758010864e-01" cType="1" res="3.5332173109054565e-02" rms="4.6335756778717041e-01" purity="4.9958840012550354e-01" nType="0">
        <Node pos="l" depth="1" NCoef="0" IVar="3" Cut="1.7900786399841309e+00" cType="1" res="-1.1044178903102875e-01" rms="4.3446975946426392e-01" purity="3.2546851038932800e-01" nType="0">
          <Node pos="l" depth="2" NCoef="0" IVar="-1" Cut="0.0000000000000000e+00" cType="1" res="-9.0599576651584357e-05" rms="4.8900029063224792e-01" purity="4.7715297341346741e-01" nType="-99"/>
          <Node pos="r" depth="2" NCoef="0" IVar="-1" Cut="0.0000000000000000e+00" cType="1" res="-9.6728261560201645e-03" rms="2.3354412615299225e-01" purity="6.1024241149425507e-02" nType="-99"/>
        </Node>
        <Node pos="r" depth="1" NCoef="0" IVar="4" Cut="7.4981039762496948e-01" cType="1" res="2.2126545011997223e-01" rms="4.3140035867691040e-01" purity="7.2167658805847168e-01" nType="0">
          <Node pos="l" depth="2" NCoef="0" IVar="-1" Cut="0.0000000000000000e+00" cType="1" res="1.2588483514264226e-03" rms="4.1560396552085876e-01" purity="7.5829690694808960e-01" nType="-99"/>
          <Node pos="r" depth="2" NCoef="0" IVar="-1" Cut="0.0000000000000000e+00" cType="1" res="1.7708977975416929e-04" rms="4.6360120177268982e-01" purity="5.1796722412109375e-01" nType="-99"/>
        </Node>
      </Node>
    </BinaryTree>
    <BinaryTree type="DecisionTree" boostWeight="1.0000000000000000e+00" itree="87">
      <Node pos="s" depth="0" NCoef="0" IVar="6" Cut="2.5806890869140625e+02" cType="1" res="8.8234163820743561e-02" rms="4.6810954809188843e-01" purity="5.4540193080902100e-01" nType="0">
        <Node pos="l" depth="1" NCoef="0" IVar="4" Cut="5.9504222869873047e-01" cType="1" res="-1.2152054905891418e-01" rms="4.2309102416038513e-01" purity="2.7591621875762939e-01" nType="0">
          <Node pos="l" depth="2" NCoef="0" IVar="-1" Cut="0.0000000000000000e+00" cType="1" res="5.1990576321259141e-04" rms="4.9052643775939941e-01" purity="4.7804173827171326e-01" nType="-99"/>
          <Node pos="r" depth="2" NCoef="0" IVar="-1" Cut="0.0000000000000000e+00" cType="1" res="-3.2686104532331228e-03" rms="3.6143907904624939e-01" purity="1.8985910713672638e-01" nType="-99"/>
        </Node>
        <Node pos="r" depth="1" NCoef="0" IVar="7" Cut="1.9036936759948730e+00" cType="1" res="1.3007634878158569e-01" rms="4.6540573239326477e-01" purity="5.9915935993194580e-01" nType="0">
          <Node pos="l" depth="2" NCoef="0" IVar="-1" Cut="0.0000000000000000e+00" cType="1" res="9.8379352129995823e-04" rms="4.5763057470321655e-01" purity="6.5848642587661743e-01" nType="-99"/>
          <Node pos="r" depth="2" NCoef="0" IVar="-1" Cut="0.0000000000000000e+00" cType="1" res="-1.4196230331435800e-03" rms="4.2698925733566284e-01" purity="2.7858674526214600e-01" nType="-99"/>
        </Node>
      </Node>
    </BinaryTree>
    <BinaryTree type="DecisionTree" boostWeight="1.0000000000000000e+00" itree="88">
      <Node pos="s" depth="0" NCoef="0" IVar="0" Cut="9.5322442054748535e-01" cType="1" res="5.6276295334100723e-02" rms="4.6871498227119446e-01" purity="5.1102608442306519e-01" nType="0">
        <Node pos="l" depth="1" NCoef="0" IVar="1" Cut="7.3979629516601562e+01" cType="1" res="-7.9484187066555023e-02" rms="4.4763302803039551e-01" purity="3.3776864409446716e-01" nType="0">
          <Node pos="l" depth="2" NCoef="0" IVar="-1" Cut="0.0000000000000000e+00" cType="1" res="-4.0730242617428303e-03" rms="3.7097162008285522e-01" purity="1.6808591783046722e-01" nType="-99"/>
          <Node pos="r" depth="2" NCoef="0" IVar="-1" Cut="0.0000000000000000e+00" cType="1" res="1.5562871703878045e-04" rms="4.6257096529006958e-01" purity="4.4348701834678650e-01" nType="-99"/>
        </Node>
        <Node pos="r" depth="1" NCoef="0" IVar="6" Cut="3.2331781005859375e+02" cType="1" res="1.5417973697185516e-01" rms="4.5907372236251831e-01" purity="6.3597047328948975e-01" nType="0">
          <Node pos="l" depth="2" NCoef="0" IVar="-1" Cut="0.0000000000000000e+00" cType="1" res="9.1603673354256898e-05" rms="4.7811052203178406e-01" purity="4.6673870086669922e-01" nType="-99"/>
          <Node pos="r" depth="2" NCoef="0" IVar="-1" Cut="0.0000000000000000e+00" cType="1" res="1.2061824090778828e-03" rms="4.2488801479339600e-01" purity="7.3761343955993652e-01" nType="-99"/>
        </Node>
      </Node>
    </BinaryTree>
    <BinaryTree type="DecisionTree" boostWeight="1.0000000000000000e+00" itree="89">
      <Node pos="s" depth="0" NCoef="0" IVar="0" Cut="9.4586676359176636e-01" cType="1" res="4.3404851108789444e-02" rms="4.6747353672981262e-01" purity="4.9971282482147217e-01" nType="0">
        <Node pos="l" depth="1" NCoef="0" IVar="6" Cut="2.8747189331054688e+02" cType="1" res="-1.6592516005039215e-01" rms="4.1008013486862183e-01" purity="2.4163244664669037e-01" nType="0">
          <Node pos="l" depth="2" NCoef="0" IVar="-1" Cut="0.0000000000000000e+00" cType="1" res="-1.2004672549664974e-02" rms="2.4289466440677643e-01" purity="4.9402475357055664e-02" nType="-99"/>
          <Node pos="r" depth="2" NCoef="0" IVar="-1" Cut="0.0000000000000000e+00" cType="1" res="-8.0804881872609258e-04" rms="4.5844858884811401e-01" purity="3.4886169433593750e-01" nType="-99"/>
        </Node>
        <Node pos="r" depth="1" NCoef="0" IVar="6" Cut="3.0679779052734375e+02" cType="1" res="1.3577283918857574e-01" rms="4.6139833331108093e-01" purity="6.1359220743179321e-01" nType="0">
          <Node pos="l" depth="2" NCoef="0" IVar="-1" Cut="0.0000000000000000e+00" cType="1" res="-1.8656415704754181e-05" rms="4.8061710596084595e-01" purity="4.2733934521675110e-01" nType="-99"/>
          <Node pos="r" depth="2" NCoef="0" IVar="-1" Cut="0.0000000000000000e+00" cType="1" res="1.0523934615775943e-03" rms="4.3790501356124878e-01" purity="6.9936424493789673e-01" nType="-99"/>
        </Node>
      </Node>
    </BinaryTree>
    <BinaryTree type="DecisionTree" boostWeight="1.0000000000000000e+00" itree="90">
      <Node pos="s" depth="0" NCoef="0" IVar="6" Cut="2.8967858886718750e+02" cType="1" res="3.5311277955770493e-02" rms="4.6607100963592529e-01" purity="4.9314039945602417e-01" nType="0">
        <Node pos="l" depth="1" NCoef="0" IVar="5" Cut="1.3748288154602051e+00" cType="1" res="-1.3608664274215698e-01" rms="4.2355510592460632e-01" purity="2.6990491151809692e-01" nType="0">
          <Node pos="l" depth="2" NCoef="0" IVar="-1" Cut="0.0000000000000000e+00" cType="1" res="-4.0907920338213444e-03" rms="3.6088296771049500e-01" purity="1.6126565635204315e-01" nType="-99"/>
          <Node pos="r" depth="2" NCoef="0" IVar="-1" Cut="0.0000000000000000e+00" cType="1" res="-1.5111168613657355e-04" rms="4.7103631496429443e-01" purity="4.1704577207565308e-01" nType="-99"/>
        </Node>
        <Node pos="r" depth="1" NCoef="0" IVar="3" Cut="2.5900030136108398e+00" cType="1" res="1.0476422309875488e-01" rms="4.6456527709960938e-01" purity="5.8359873294830322e-01" nType="0">
          <Node pos="l" depth="2" NCoef="0" IVar="-1" Cut="0.0000000000000000e+00" cType="1" res="8.0619868822395802e-04" rms="4.6911624073982239e-01" purity="6.4048254489898682e-01" nType="-99"/>
          <Node pos="r" depth="2" NCoef="0" IVar="-1" Cut="0.0000000000000000e+00" cType="1" res="-1.9511314108967781e-02" rms="4.6918418258428574e-02" purity="0.0000000000000000e+00" nType="-99"/>
        </Node>
      </Node>
    </BinaryTree>
    <BinaryTree type="DecisionTree" boostWeight="1.0000000000000000e+00" itree="91">
      <Node pos="s" depth="0" NCoef="0" IVar="3" Cut="2.0990915298461914e+00" cType="1" res="5.3085334599018097e-02" rms="4.6632051467895508e-01" purity="5.1317316293716431e-01" nType="0">
        <Node pos="l" depth="1" NCoef="0" IVar="6" Cut="3.3020922851562500e+02" cType="1" res="1.1445997655391693e-01" rms="4.7584760189056396e-01" purity="6.1116045713424683e-01" nType="0">
          <Node pos="l" depth="2" NCoef="0" IVar="-1" Cut="0.0000000000000000e+00" cType="1" res="-2.6353439898230135e-04" rms="4.8933851718902588e-01" purity="4.3266615271568298e-01" nType="-99"/>
          <Node pos="r" depth="2" NCoef="0" IVar="-1" Cut="0.0000000000000000e+00" cType="1" res="1.0220790281891823e-03" rms="4.4545117020606995e-01" purity="7.1633505821228027e-01" nType="-99"/>
        </Node>
        <Node pos="r" depth="1" NCoef="0" IVar="0" Cut="9.7152984142303467e-01" cType="1" res="-1.5085528790950775e-01" rms="3.6540347337722778e-01" purity="1.8757306039333344e-01" nType="0">
          <Node pos="l" depth="2" NCoef="0" IVar="-1" Cut="0.0000000000000000e+00" cType="1" res="-5.1112757064402103e-03" rms="3.0043032765388489e-01" purity="1.0991888493299484e-01" nType="-99"/>
          <Node pos="r" depth="2" NCoef="0" IVar="-1" Cut="0.0000000000000000e+00" cType="1" res="1.3848410162609071e-04" rms="4.7460609674453735e-01" purity="4.1877335309982300e-01" nType="-99"/>
        </Node>
      </Node>
    </BinaryTree>
    <BinaryTree type="DecisionTree" boostWeight="1.0000000000000000e+00" itree="92">
      <Node pos="s" depth="0" NCoef="0" IVar="6" Cut="2.8730715942382812e+02" cType="1" res="2.3878868669271469e-02" rms="4.6396836638450623e-01" purity="4.7988566756248474e-01" nType="0">
        <Node pos="l" depth="1" NCoef="0" IVar="1" Cut="1.1344418334960938e+02" cType="1" res="-1.9215433299541473e-01" rms="3.8268101215362549e-01" purity="2.0709159970283508e-01" nType="0">
          <Node pos="l" depth="2" NCoef="0" IVar="-1" Cut="0.0000000000000000e+00" cType="1" res="-4.5332857407629490e-03" rms="3.4356912970542908e-01" purity="1.5874002873897552e-01" nType="-99"/>
          <Node pos="r" depth="2" NCoef="0" IVar="-1" Cut="0.0000000000000000e+00" cType="1" res="2.5265288422815502e-04" rms="4.5325061678886414e-01" purity="4.1100594401359558e-01" nType="-99"/>
        </Node>
        <Node pos="r" depth="1" NCoef="0" IVar="3" Cut="2.6555564403533936e+00" cType="1" res="1.0284207761287689e-01" rms="4.6597012877464294e-01" purity="5.7959580421447754e-01" nType="0">
          <Node pos="l" depth="2" NCoef="0" IVar="-1" Cut="0.0000000000000000e+00" cType="1" res="7.7651697210967541e-04" rms="4.7073867917060852e-01" purity="6.2896138429641724e-01" nType="-99"/>
          <Node pos="r" depth="2" NCoef="0" IVar="-1" Cut="0.0000000000000000e+00" cType="1" res="-1.8916096538305283e-02" rms="4.5107502490282059e-02" purity="0.0000000000000000e+00" nType="-99"/>
        </Node>
      </Node>
    </BinaryTree>
    <BinaryTree type="DecisionTree" boostWeight="1.0000000000000000e+00" itree="93">
      <Node pos="s" depth="0" NCoef="0" IVar="0" Cut="9.5986264944076538e-01" cType="1" res="6.4326040446758270e-02" rms="4.6449157595634460e-01" purity="5.2182090282440186e-01" nType="0">
        <Node pos="l" depth="1" NCoef="0" IVar="6" Cut="3.4905206298828125e+02" cType="1" res="-2.7733542025089264e-02" rms="4.5491889119148254e-01" purity="4.0178868174552917e-01" nType="0">
          <Node pos="l" depth="2" NCoef="0" IVar="-1" Cut="0.0000000000000000e+00" cType="1" res="-1.7893032636493444e-03" rms="4.0802535414695740e-01" purity="2.5052919983863831e-01" nType="-99"/>
          <Node pos="r" depth="2" NCoef="0" IVar="-1" Cut="0.0000000000000000e+00" cType="1" res="6.4122251933440566e-04" rms="4.7033846378326416e-01" purity="5.7453781366348267e-01" nType="-99"/>
        </Node>
        <Node pos="r" depth="1" NCoef="0" IVar="8" Cut="1.0015280151367188e+02" cType="1" res="1.6903372108936310e-01" rms="4.5294567942619324e-01" purity="6.5834450721740723e-01" nType="0">
          <Node pos="l" depth="2" NCoef="0" IVar="-1" Cut="0.0000000000000000e+00" cType="1" res="-7.3584722122177482e-04" rms="4.7659796476364136e-01" purity="3.8282555341720581e-01" nType="-99"/>
          <Node pos="r" depth="2" NCoef="0" IVar="-1" Cut="0.0000000000000000e+00" cType="1" res="1.0933760786429048e-03" rms="4.3740478157997131e-01" purity="6.9946008920669556e-01" nType="-99"/>
        </Node>
      </Node>
    </BinaryTree>
    <BinaryTree type="DecisionTree" boostWeight="1.0000000000000000e+00" itree="94">
      <Node pos="s" depth="0" NCoef="0" IVar="6" Cut="3.2329742431640625e+02" cType="1" res="6.8439699709415436e-02" rms="4.6463117003440857e-01" purity="5.2455013990402222e-01" nType="0">
        <Node pos="l" depth="1" NCoef="0" IVar="5" Cut="1.1081683635711670e+00" cType="1" res="-7.9283110797405243e-02" rms="4.4103842973709106e-01" purity="3.3471068739891052e-01" nType="0">
          <Node pos="l" depth="2" NCoef="0" IVar="-1" Cut="0.0000000000000000e+00" cType="1" res="-5.5579650215804577e-03" rms="3.0134880542755127e-01" purity="1.1903174221515656e-01" nType="-99"/>
          <Node pos="r" depth="2" NCoef="0" IVar="-1" Cut="0.0000000000000000e+00" cType="1" res="5.9754402172984555e-05" rms="4.7283282876014709e-01" purity="4.4214069843292236e-01" nType="-99"/>
        </Node>
        <Node pos="r" depth="1" NCoef="0" IVar="7" Cut="2.1627089977264404e+00" cType="1" res="1.6344015300273895e-01" rms="4.5449376106262207e-01" purity="6.4663571119308472e-01" nType="0">
          <Node pos="l" depth="2" NCoef="0" IVar="-1" Cut="0.0000000000000000e+00" cType="1" res="1.0263426229357719e-03" rms="4.4783383607864380e-01" purity="6.8709510564804077e-01" nType="-99"/>
          <Node pos="r" depth="2" NCoef="0" IVar="-1" Cut="0.0000000000000000e+00" cType="1" res="-1.6837902367115021e-03" rms="4.1217595338821411e-01" purity="2.5371131300926208e-01" nType="-99"/>
        </Node>
      </Node>
    </BinaryTree>
    <BinaryTree type="DecisionTree" boostWeight="1.0000000000000000e+00" itree="95">
      <Node pos="s" depth="0" NCoef="0" IVar="0" Cut="9.6933686733245850e-01" cType="1" res="5.3268898278474808e-02" rms="4.6947413682937622e-01" purity="5.0528687238693237e-01" nType="0">
        <Node pos="l" depth="1" NCoef="0" IVar="6" Cut="4.7103051757812500e+02" cType="1" res="-1.8423404544591904e-02" rms="4.6390700340270996e-01" purity="4.1216376423835754e-01" nType="0">
          <Node pos="l" depth="2" NCoef="0" IVar="-1" Cut="0.0000000000000000e+00" cType="1" res="-6.1019032727926970e-04" rms="4.5436385273933411e-01" purity="3.5595220327377319e-01" nType="-99"/>
          <Node pos="r" depth="2" NCoef="0" IVar="-1" Cut="0.0000000000000000e+00" cType="1" res="1.0015608277171850e-03" rms="4.5732468366622925e-01" purity="6.3931298255920410e-01" nType="-99"/>
        </Node>
        <Node pos="r" depth="1" NCoef="0" IVar="4" Cut="6.9634383916854858e-01" cType="1" res="1.9249391555786133e-01" rms="4.4847747683525085e-01" purity="6.8613004684448242e-01" nType="0">
          <Node pos="l" depth="2" NCoef="0" IVar="-1" Cut="0.0000000000000000e+00" cType="1" res="1.2553805718198419e-03" rms="4.2465537786483765e-01" purity="7.4705356359481812e-01" nType="-99"/>
          <Node pos="r" depth="2" NCoef="0" IVar="-1" Cut="0.0000000000000000e+00" cType="1" res="2.7541280724108219e-04" rms="4.7150558233261108e-01" purity="5.3218543529510498e-01" nType="-99"/>
        </Node>
      </Node>
    </BinaryTree>
    <BinaryTree type="DecisionTree" boostWeight="1.0000000000000000e+00" itree="96">
      <Node pos="s" depth="0" NCoef="0" IVar="0" Cut="9.6411997079849243e-01" cType="1" res="1.6997227445244789e-02" rms="4.6924838423728943e-01" purity="4.6584632992744446e-01" nType="0">
        <Node pos="l" depth="1" NCoef="0" IVar="6" Cut="3.9117739868164062e+02" cType="1" res="-7.6771199703216553e-02" rms="4.5465126633644104e-01" purity="3.4283381700515747e-01" nType="0">
          <Node pos="l" depth="2" NCoef="0" IVar="-1" Cut="0.0000000000000000e+00" cType="1" res="-1.5604731161147356e-03" rms="4.3242934346199036e-01" purity="2.6554313302040100e-01" nType="-99"/>
          <Node pos="r" depth="2" NCoef="0" IVar="-1" Cut="0.0000000000000000e+00" cType="1" res="3.8286033668555319e-04" rms="4.7661355137825012e-01" purity="5.1786720752716064e-01" nType="-99"/>
        </Node>
        <Node pos="r" depth="1" NCoef="0" IVar="5" Cut="1.0403122901916504e+00" cType="1" res="1.5305319428443909e-01" rms="4.5661070942878723e-01" purity="6.4433485269546509e-01" nType="0">
          <Node pos="l" depth="2" NCoef="0" IVar="-1" Cut="0.0000000000000000e+00" cType="1" res="-1.8433251534588635e-04" rms="4.7764515876770020e-01" purity="4.2939487099647522e-01" nType="-99"/>
          <Node pos="r" depth="2" NCoef="0" IVar="-1" Cut="0.0000000000000000e+00" cType="1" res="1.0697193210944533e-03" rms="4.3714210391044617e-01" purity="7.0768725872039795e-01" nType="-99"/>
        </Node>
      </Node>
    </BinaryTree>
    <BinaryTree type="DecisionTree" boostWeight="1.0000000000000000e+00" itree="97">
      <Node pos="s" depth="0" NCoef="0" IVar="6" Cut="3.0909207153320312e+02" cType="1" res="7.1659915149211884e-02" rms="4.6780243515968323e-01" purity="5.2756667137145996e-01" nType="0">
        <Node pos="l" depth="1" NCoef="0" IVar="0" Cut="9.4061005115509033e-01" cType="1" res="-8.8181160390377045e-02" rms="4.3910726904869080e-01" purity="3.2365840673446655e-01" nType="0">
          <Node pos="l" depth="2" NCoef="0" IVar="-1" Cut="0.0000000000000000e+00" cType="1" res="-6.5947659313678741e-03" rms="2.6755571365356445e-01" purity="8.6982108652591705e-02" nType="-99"/>
          <Node pos="r" depth="2" NCoef="0" IVar="-1" Cut="0.0000000000000000e+00" cType="1" res="-1.5643198275938630e-04" rms="4.6928605437278748e-01" purity="4.1241973638534546e-01" nType="-99"/>
        </Node>
        <Node pos="r" depth="1" NCoef="0" IVar="3" Cut="9.8233312368392944e-01" cType="1" res="1.5853390097618103e-01" rms="4.5994570851325989e-01" purity="6.3839131593704224e-01" nType="0">
          <Node pos="l" depth="2" NCoef="0" IVar="-1" Cut="0.0000000000000000e+00" cType="1" res="1.3209258904680610e-03" rms="3.7981447577476501e-01" purity="8.1847685575485229e-01" nType="-99"/>
          <Node pos="r" depth="2" NCoef="0" IVar="-1" Cut="0.0000000000000000e+00" cType="1" res="5.8890081709250808e-04" rms="4.8192062973976135e-01" purity="5.4225802421569824e-01" nType="-99"/>
        </Node>
      </Node>
    </BinaryTree>
    <BinaryTree type="DecisionTree" boostWeight="1.0000000000000000e+00" itree="98">
      <Node pos="s" depth="0" NCoef="0" IVar="0" Cut="9.3148541450500488e-01" cType="1" res="2.7415212243795395e-02" rms="4.6973484754562378e-01" purity="4.7490540146827698e-01" nType="0">
        <Node pos="l" depth="1" NCoef="0" IVar="7" Cut="1.0508080720901489e+00" cType="1" res="-1.8571795523166656e-01" rms="3.8426178693771362e-01" purity="2.1063905954360962e-01" nType="0">
          <Node pos="l" depth="2" NCoef="0" IVar="-1" Cut="0.0000000000000000e+00" cType="1" res="-7.5924115662928671e-05" rms="4.4930869340896606e-01" purity="4.1402554512023926e-01" nType="-99"/>
          <Node pos="r" depth="2" NCoef="0" IVar="-1" Cut="0.0000000000000000e+00" cType="1" res="-7.4593909084796906e-03" rms="2.8414395451545715e-01" purity="8.1380277872085571e-02" nType="-99"/>
        </Node>
        <Node pos="r" depth="1" NCoef="0" IVar="6" Cut="3.2497698974609375e+02" cType="1" res="7.4537068605422974e-02" rms="4.7384110093116760e-01" purity="5.3333234786987305e-01" nType="0">
          <Node pos="l" depth="2" NCoef="0" IVar="-1" Cut="0.0000000000000000e+00" cType="1" res="-7.2621784056536853e-05" rms="4.7527718544006348e-01" purity="4.1093829274177551e-01" nType="-99"/>
          <Node pos="r" depth="2" NCoef="0" IVar="-1" Cut="0.0000000000000000e+00" cType="1" res="8.1637897528707981e-04" rms="4.6278509497642517e-01" purity="6.2733596563339233e-01" nType="-99"/>
        </Node>
      </Node>
    </BinaryTree>
    <BinaryTree type="DecisionTree" boostWeight="1.0000000000000000e+00" itree="99">
      <Node pos="s" depth="0" NCoef="0" IVar="3" Cut="2.1878592967987061e+00" cType="1" res="4.8452742397785187e-02" rms="4.6370497345924377e-01" purity="5.0532835721969604e-01" nType="0">
        <Node pos="l" depth="1" NCoef="0" IVar="1" Cut="6.3757560729980469e+01" cType="1" res="9.9130757153034210e-02" rms="4.7379693388938904e-01" purity="5.9320086240768433e-01" nType="0">
          <Node pos="l" depth="2" NCoef="0" IVar="-1" Cut="0.0000000000000000e+00" cType="1" res="-5.1372346933931112e-04" rms="4.7259902954101562e-01" purity="4.0034487843513489e-01" nType="-99"/>
          <Node pos="r" depth="2" NCoef="0" IVar="-1" Cut="0.0000000000000000e+00" cType="1" res="9.1819086810573936e-04" rms="4.5729470252990723e-01" purity="6.7801469564437866e-01" nType="-99"/>
        </Node>
        <Node pos="r" depth="1" NCoef="0" IVar="1" Cut="1.2605543518066406e+02" cType="1" res="-1.4070858061313629e-01" rms="3.6652272939682007e-01" purity="1.7733441293239594e-01" nType="0">
          <Node pos="l" depth="2" NCoef="0" IVar="-1" Cut="0.0000000000000000e+00" cType="1" res="-1.2519338168203831e-02" rms="1.9080682098865509e-01" purity="3.2773666083812714e-02" nType="-99"/>
          <Node pos="r" depth="2" NCoef="0" IVar="-1" Cut="0.0000000000000000e+00" cType="1" res="-9.0424749942030758e-05" rms="4.5149755477905273e-01" purity="3.3022421598434448e-01" nType="-99"/>
        </Node>
      </Node>
    </BinaryTree>
    <BinaryTree type="DecisionTree" boostWeight="1.0000000000000000e+00" itree="100">
      <Node pos="s" depth="0" NCoef="0" IVar="6" Cut="3.3339535522460938e+02" cType="1" res="4.6287778764963150e-02" rms="4.6569949388504028e-01" purity="4.9830746650695801e-01" nType="0">
        <Node pos="l" depth="1" NCoef="0" IVar="7" Cut="8.2725960016250610e-01" cType="1" res="-7.2730399668216705e-02" rms="4.4524616003036499e-01" purity="3.3865696191787720e-01" nType="0">
          <Node pos="l" depth="2" NCoef="0" IVar="-1" Cut="0.0000000000000000e+00" cType="1" res="5.6819466408342123e-04" rms="4.7690322995185852e-01" purity="5.0100570917129517e-01" nType="-99"/>
          <Node pos="r" depth="2" NCoef="0" IVar="-1" Cut="0.0000000000000000e+00" cType="1" res="-1.6387029318138957e-03" rms="4.1562333703041077e-01" purity="2.7139499783515930e-01" nType="-99"/>
        </Node>
        <Node pos="r" depth="1" NCoef="0" IVar="7" Cut="1.9503535032272339e+00" cType="1" res="1.4246259629726410e-01" rms="4.5960387587547302e-01" purity="6.2731599807739258e-01" nType="0">
          <Node pos="l" depth="2" NCoef="0" IVar="-1" Cut="0.0000000000000000e+00" cType="1" res="1.0139384539797902e-03" rms="4.5094463229179382e-01" purity="6.8660998344421387e-01" nType="-99"/>
          <Node pos="r" depth="2" NCoef="0" IVar="-1" Cut="0.0000000000000000e+00" cType="1" res="-1.7587320180609822e-03" rms="4.0430453419685364e-01" purity="2.7210551500320435e-01" nType="-99"/>
        </Node>
      </Node>
    </BinaryTree>
    <BinaryTree type="DecisionTree" boostWeight="1.0000000000000000e+00" itree="101">
      <Node pos="s" depth="0" NCoef="0" IVar="8" Cut="1.4309936523437500e+02" cType="1" res="6.4319118857383728e-02" rms="4.6823692321777344e-01" purity="5.1774322986602783e-01" nType="0">
        <Node pos="l" depth="1" NCoef="0" IVar="8" Cut="9.9676452636718750e+01" cType="1" res="1.0582058131694794e-01" rms="4.6531042456626892e-01" purity="5.6324344873428345e-01" nType="0">
          <Node pos="l" depth="2" NCoef="0" IVar="-1" Cut="0.0000000000000000e+00" cType="1" res="-1.1399791110306978e-03" rms="4.2951092123985291e-01" purity="3.2560387253761292e-01" nType="-99"/>
          <Node pos="r" depth="2" NCoef="0" IVar="-1" Cut="0.0000000000000000e+00" cType="1" res="9.7412022296339273e-04" rms="4.5702663064002991e-01" purity="6.2669461965560913e-01" nType="-99"/>
        </Node>
        <Node pos="r" depth="1" NCoef="0" IVar="8" Cut="1.7250033569335938e+02" cType="1" res="-1.1767932027578354e-01" rms="4.3652039766311646e-01" purity="3.1820896267890930e-01" nType="0">
          <Node pos="l" depth="2" NCoef="0" IVar="-1" Cut="0.0000000000000000e+00" cType="1" res="-3.3327196724712849e-03" rms="3.7515595555305481e-01" purity="2.0764487981796265e-01" nType="-99"/>
          <Node pos="r" depth="2" NCoef="0" IVar="-1" Cut="0.0000000000000000e+00" cType="1" res="1.2364126450847834e-04" rms="4.6628612279891968e-01" purity="4.5030096173286438e-01" nType="-99"/>
        </Node>
      </Node>
    </BinaryTree>
    <BinaryTree type="DecisionTree" boostWeight="1.0000000000000000e+00" itree="102">
      <Node pos="s" depth="0" NCoef="0" IVar="0" Cut="9.4419902563095093e-01" cType="1" res="2.6686467230319977e-02" rms="4.6855735778808594e-01" purity="4.7544649243354797e-01" nType="0">
        <Node pos="l" depth="1" NCoef="0" IVar="3" Cut="1.3025799989700317e+00" cType="1" res="-1.4514470100402832e-01" rms="4.1140049695968628e-01" purity="2.5828912854194641e-01" nType="0">
          <Node pos="l" depth="2" NCoef="0" IVar="-1" Cut="0.0000000000000000e+00" cType="1" res="-2.0847332780249417e-04" rms="4.7928106784820557e-01" purity="4.4532391428947449e-01" nType="-99"/>
          <Node pos="r" depth="2" NCoef="0" IVar="-1" Cut="0.0000000000000000e+00" cType="1" res="-5.6338710710406303e-03" rms="3.2720458507537842e-01" purity="1.2126795947551727e-01" nType="-99"/>
        </Node>
        <Node pos="r" depth="1" NCoef="0" IVar="6" Cut="3.3404196166992188e+02" cType="1" res="1.0155841708183289e-01" rms="4.7221833467483521e-01" purity="5.7006841897964478e-01" nType="0">
          <Node pos="l" depth="2" NCoef="0" IVar="-1" Cut="0.0000000000000000e+00" cType="1" res="-9.4266779342433438e-06" rms="4.7869682312011719e-01" purity="4.3146604299545288e-01" nType="-99"/>
          <Node pos="r" depth="2" NCoef="0" IVar="-1" Cut="0.0000000000000000e+00" cType="1" res="9.9501281511038542e-04" rms="4.5118194818496704e-01" purity="6.7809522151947021e-01" nType="-99"/>
        </Node>
      </Node>
    </BinaryTree>
    <BinaryTree type="DecisionTree" boostWeight="1.0000000000000000e+00" itree="103">
      <Node pos="s" depth="0" NCoef="0" IVar="0" Cut="9.3417561054229736e-01" cType="1" res="1.5853662043809891e-02" rms="4.6278399229049683e-01" purity="4.6507722139358521e-01" nType="0">
        <Node pos="l" depth="1" NCoef="0" IVar="6" Cut="3.2714794921875000e+02" cType="1" res="-1.9306893646717072e-01" rms="3.7478226423263550e-01" purity="1.9859704375267029e-01" nType="0">
          <Node pos="l" depth="2" NCoef="0" IVar="-1" Cut="0.0000000000000000e+00" cType="1" res="-7.8496048226952553e-03" rms="2.6674285531044006e-01" purity="7.3962561786174774e-02" nType="-99"/>
          <Node pos="r" depth="2" NCoef="0" IVar="-1" Cut="0.0000000000000000e+00" cType="1" res="-1.0106537956744432e-03" rms="4.4913733005523682e-01" purity="3.3453860878944397e-01" nType="-99"/>
        </Node>
        <Node pos="r" depth="1" NCoef="0" IVar="6" Cut="3.0960369873046875e+02" cType="1" res="6.8304076790809631e-02" rms="4.6793615818023682e-01" purity="5.3197753429412842e-01" nType="0">
          <Node pos="l" depth="2" NCoef="0" IVar="-1" Cut="0.0000000000000000e+00" cType="1" res="-5.8044918114319444e-04" rms="4.6092069149017334e-01" purity="3.5862901806831360e-01" nType="-99"/>
          <Node pos="r" depth="2" NCoef="0" IVar="-1" Cut="0.0000000000000000e+00" cType="1" res="8.3718827227130532e-04" rms="4.5512750744819641e-01" purity="6.3413131237030029e-01" nType="-99"/>
        </Node>
      </Node>
    </BinaryTree>
    <BinaryTree type="DecisionTree" boostWeight="1.0000000000000000e+00" itree="104">
      <Node pos="s" depth="0" NCoef="0" IVar="6" Cut="2.8037237548828125e+02" cType="1" res="2.2722249850630760e-02" rms="4.6255216002464294e-01" purity="4.7556275129318237e-01" nType="0">
        <Node pos="l" depth="1" NCoef="0" IVar="1" Cut="6.9565284729003906e+01" cType="1" res="-1.4813323318958282e-01" rms="4.1366881132125854e-01" purity="2.3854544758796692e-01" nType="0">
          <Node pos="l" depth="2" NCoef="0" IVar="-1" Cut="0.0000000000000000e+00" cType="1" res="-5.7988157495856285e-03" rms="3.5747537016868591e-01" purity="1.2835294008255005e-01" nType="-99"/>
          <Node pos="r" depth="2" NCoef="0" IVar="-1" Cut="0.0000000000000000e+00" cType="1" res="-2.5634543271735311e-04" rms="4.3744644522666931e-01" purity="3.6029815673828125e-01" nType="-99"/>
        </Node>
        <Node pos="r" depth="1" NCoef="0" IVar="3" Cut="2.3009817600250244e+00" cType="1" res="7.9041101038455963e-02" rms="4.6398183703422546e-01" purity="5.5369049310684204e-01" nType="0">
          <Node pos="l" depth="2" NCoef="0" IVar="-1" Cut="0.0000000000000000e+00" cType="1" res="7.4911309638991952e-04" rms="4.6973332762718201e-01" purity="6.3616824150085449e-01" nType="-99"/>
          <Node pos="r" depth="2" NCoef="0" IVar="-1" Cut="0.0000000000000000e+00" cType="1" res="-5.0304429605603218e-03" rms="3.0272546410560608e-01" purity="1.0482645034790039e-01" nType="-99"/>
        </Node>
      </Node>
    </BinaryTree>
    <BinaryTree type="DecisionTree" boostWeight="1.0000000000000000e+00" itree="105">
      <Node pos="s" depth="0" NCoef="0" IVar="6" Cut="3.4283831787109375e+02" cType="1" res="3.2841097563505173e-02" rms="4.7017651796340942e-01" purity="4.7839796543121338e-01" nType="0">
        <Node pos="l" depth="1" NCoef="0" IVar="3" Cut="1.5304944515228271e+00" cType="1" res="-4.7171629965305328e-02" rms="4.5055490732192993e-01" purity="3.7056994438171387e-01" nType="0">
          <Node pos="l" depth="2" NCoef="0" IVar="-1" Cut="0.0000000000000000e+00" cType="1" res="4.1801383486017585e-04" rms="4.8404935002326965e-01" purity="5.3339517116546631e-01" nType="-99"/>
          <Node pos="r" depth="2" NCoef="0" IVar="-1" Cut="0.0000000000000000e+00" cType="1" res="-2.4417098611593246e-03" rms="3.8335224986076355e-01" purity="2.0442131161689758e-01" nType="-99"/>
        </Node>
        <Node pos="r" depth="1" NCoef="0" IVar="7" Cut="1.8486828804016113e+00" cType="1" res="1.1732620000839233e-01" rms="4.7565153241157532e-01" purity="5.9225308895111084e-01" nType="0">
          <Node pos="l" depth="2" NCoef="0" IVar="-1" Cut="0.0000000000000000e+00" cType="1" res="9.2754198703914881e-04" rms="4.6917906403541565e-01" purity="6.5591746568679810e-01" nType="-99"/>
          <Node pos="r" depth="2" NCoef="0" IVar="-1" Cut="0.0000000000000000e+00" cType="1" res="-6.9180334685370326e-04" rms="4.5313966274261475e-01" purity="3.5043129324913025e-01" nType="-99"/>
        </Node>
      </Node>
    </BinaryTree>
    <BinaryTree type="DecisionTree" boostWeight="1.0000000000000000e+00" itree="106">
      <Node pos="s" depth="0" NCoef="0" IVar="0" Cut="9.5520097017288208e-01" cType="1" res="5.5429566651582718e-02" rms="4.6236041188240051e-01" purity="5.1165640354156494e-01" nType="0">
        <Node pos="l" depth="1" NCoef="0" IVar="6" Cut="4.2470922851562500e+02" cType="1" res="-6.4339570701122284e-02" rms="4.4822511076927185e-01" purity="3.4519776701927185e-01" nType="0">
          <Node pos="l" depth="2" NCoef="0" IVar="-1" Cut="0.0000000000000000e+00" cType="1" res="-1.1330629931762815e-03" rms="4.3287885189056396e-01" purity="2.9213345050811768e-01" nType="-99"/>
          <Node pos="r" depth="2" NCoef="0" IVar="-1" Cut="0.0000000000000000e+00" cType="1" res="5.3188303718343377e-04" rms="4.7331121563911438e-01" purity="5.3799539804458618e-01" nType="-99"/>
        </Node>
        <Node pos="r" depth="1" NCoef="0" IVar="3" Cut="2.1482856273651123e+00" cType="1" res="1.5399861335754395e-01" rms="4.5038741827011108e-01" purity="6.4865058660507202e-01" nType="0">
          <Node pos="l" depth="2" NCoef="0" IVar="-1" Cut="0.0000000000000000e+00" cType="1" res="1.0460134362801909e-03" rms="4.3746134638786316e-01" purity="7.2854548692703247e-01" nType="-99"/>
          <Node pos="r" depth="2" NCoef="0" IVar="-1" Cut="0.0000000000000000e+00" cType="1" res="-1.2015004176646471e-03" rms="4.2971003055572510e-01" purity="2.7202504873275757e-01" nType="-99"/>
        </Node>
      </Node>
    </BinaryTree>
    <BinaryTree type="DecisionTree" boostWeight="1.0000000000000000e+00" itree="107">
      <Node pos="s" depth="0" NCoef="0" IVar="6" Cut="3.1715997314453125e+02" cType="1" res="4.0031664073467255e-02" rms="4.6143800020217896e-01" purity="4.9572268128395081e-01" nType="0">
        <Node pos="l" depth="1" NCoef="0" IVar="4" Cut="7.3774832487106323e-01" cType="1" res="-1.1955251544713974e-01" rms="4.2617979645729065e-01" purity="2.8072306513786316e-01" nType="0">
          <Node pos="l" depth="2" NCoef="0" IVar="-1" Cut="0.0000000000000000e+00" cType="1" res="-7.5485091656446457e-04" rms="4.4853460788726807e-01" purity="3.3397266268730164e-01" nType="-99"/>
          <Node pos="r" depth="2" NCoef="0" IVar="-1" Cut="0.0000000000000000e+00" cType="1" res="-1.1765461415052414e-02" rms="2.2215570509433746e-01" purity="4.8532366752624512e-02" nType="-99"/>
        </Node>
        <Node pos="r" depth="1" NCoef="0" IVar="0" Cut="9.5452785491943359e-01" cType="1" res="1.3182388246059418e-01" rms="4.5590773224830627e-01" purity="6.1938965320587158e-01" nType="0">
          <Node pos="l" depth="2" NCoef="0" IVar="-1" Cut="0.0000000000000000e+00" cType="1" res="-2.3360713385045528e-04" rms="4.6906417608261108e-01" purity="4.2020627856254578e-01" nType="-99"/>
          <Node pos="r" depth="2" NCoef="0" IVar="-1" Cut="0.0000000000000000e+00" cType="1" res="1.1241687461733818e-03" rms="4.1853138804435730e-01" purity="7.4218004941940308e-01" nType="-99"/>
        </Node>
      </Node>
    </BinaryTree>
    <BinaryTree type="DecisionTree" boostWeight="1.0000000000000000e+00" itree="108">
      <Node pos="s" depth="0" NCoef="0" IVar="6" Cut="3.3972973632812500e+02" cType="1" res="3.8356415927410126e-02" rms="4.6778035163879395e-01" purity="4.8602125048637390e-01" nType="0">
        <Node pos="l" depth="1" NCoef="0" IVar="5" Cut="1.1155362129211426e+00" cType="1" res="-6.5031833946704865e-02" rms="4.4996705651283264e-01" purity="3.4259012341499329e-01" nType="0">
          <Node pos="l" depth="2" NCoef="0" IVar="-1" Cut="0.0000000000000000e+00" cType="1" res="-3.3130645751953125e-03" rms="3.7629091739654541e-01" purity="1.8650494515895844e-01" nType="-99"/>
          <Node pos="r" depth="2" NCoef="0" IVar="-1" Cut="0.0000000000000000e+00" cType="1" res="-2.1108733562869020e-05" rms="4.7435978055000305e-01" purity="4.2858582735061646e-01" nType="-99"/>
        </Node>
        <Node pos="r" depth="1" NCoef="0" IVar="3" Cut="2.4860191345214844e+00" cType="1" res="1.3245348632335663e-01" rms="4.6380454301834106e-01" purity="6.1656266450881958e-01" nType="0">
          <Node pos="l" depth="2" NCoef="0" IVar="-1" Cut="0.0000000000000000e+00" cType="1" res="8.7704678298905492e-04" rms="4.6328651905059814e-01" purity="6.6777229309082031e-01" nType="-99"/>
          <Node pos="r" depth="2" NCoef="0" IVar="-1" Cut="0.0000000000000000e+00" cType="1" res="-2.8069822583347559e-03" rms="3.6818552017211914e-01" purity="1.5681992471218109e-01" nType="-99"/>
        </Node>
      </Node>
    </BinaryTree>
    <BinaryTree type="DecisionTree" boostWeight="1.0000000000000000e+00" itree="109">
      <Node pos="s" depth="0" NCoef="0" IVar="3" Cut="1.5957845449447632e+00" cType="1" res="6.4276717603206635e-02" rms="4.6357586979866028e-01" purity="5.1870059967041016e-01" nType="0">
        <Node pos="l" depth="1" NCoef="0" IVar="1" Cut="6.4004508972167969e+01" cType="1" res="1.5161967277526855e-01" rms="4.6121317148208618e-01" purity="6.5596467256546021e-01" nType="0">
          <Node pos="l" depth="2" NCoef="0" IVar="-1" Cut="0.0000000000000000e+00" cType="1" res="-3.9363640826195478e-04" rms="4.8300436139106750e-01" purity="4.1860434412956238e-01" nType="-99"/>
          <Node pos="r" depth="2" NCoef="0" IVar="-1" Cut="0.0000000000000000e+00" cType="1" res="1.1531935306265950e-03" rms="4.2434525489807129e-01" purity="7.5717467069625854e-01" nType="-99"/>
        </Node>
        <Node pos="r" depth="1" NCoef="0" IVar="2" Cut="1.7308143615722656e+02" cType="1" res="-6.2313910573720932e-02" rms="4.3702113628387451e-01" purity="3.1975680589675903e-01" nType="0">
          <Node pos="l" depth="2" NCoef="0" IVar="-1" Cut="0.0000000000000000e+00" cType="1" res="4.4038868509232998e-04" rms="4.7974464297294617e-01" purity="4.6709147095680237e-01" nType="-99"/>
          <Node pos="r" depth="2" NCoef="0" IVar="-1" Cut="0.0000000000000000e+00" cType="1" res="-1.9206296419724822e-03" rms="3.9018660783767700e-01" purity="2.2817166149616241e-01" nType="-99"/>
        </Node>
      </Node>
    </BinaryTree>
    <BinaryTree type="DecisionTree" boostWeight="1.0000000000000000e+00" itree="110">
      <Node pos="s" depth="0" NCoef="0" IVar="0" Cut="9.4896221160888672e-01" cType="1" res="3.3897250890731812e-02" rms="4.6511700749397278e-01" purity="4.8191791772842407e-01" nType="0">
        <Node pos="l" depth="1" NCoef="0" IVar="2" Cut="2.0295414733886719e+02" cType="1" res="-8.9013427495956421e-02" rms="4.4199198484420776e-01" purity="3.0574002861976624e-01" nType="0">
          <Node pos="l" depth="2" NCoef="0" IVar="-1" Cut="0.0000000000000000e+00" cType="1" res="-1.6545812832191586e-04" rms="4.7783192992210388e-01" purity="3.8474175333976746e-01" nType="-99"/>
          <Node pos="r" depth="2" NCoef="0" IVar="-1" Cut="0.0000000000000000e+00" cType="1" res="-3.3967182971537113e-03" rms="3.5752189159393311e-01" purity="1.8793135881423950e-01" nType="-99"/>
        </Node>
        <Node pos="r" depth="1" NCoef="0" IVar="3" Cut="2.2016363143920898e+00" cType="1" res="1.1379432678222656e-01" rms="4.6234831213951111e-01" purity="5.9644085168838501e-01" nType="0">
          <Node pos="l" depth="2" NCoef="0" IVar="-1" Cut="0.0000000000000000e+00" cType="1" res="8.9978659525513649e-04" rms="4.5929417014122009e-01" purity="6.7645639181137085e-01" nType="-99"/>
          <Node pos="r" depth="2" NCoef="0" IVar="-1" Cut="0.0000000000000000e+00" cType="1" res="-2.0581656135618687e-03" rms="3.9460867643356323e-01" purity="2.1109600365161896e-01" nType="-99"/>
        </Node>
      </Node>
    </BinaryTree>
    <BinaryTree type="DecisionTree" boostWeight="1.0000000000000000e+00" itree="111">
      <Node pos="s" depth="0" NCoef="0" IVar="8" Cut="8.6939064025878906e+01" cType="1" res="7.8318804502487183e-02" rms="4.6924245357513428e-01" purity="5.2313274145126343e-01" nType="0">
        <Node pos="l" depth="1" NCoef="0" IVar="-1" Cut="0.0000000000000000e+00" cType="1" res="-3.7915576249361038e-03" rms="3.7441042065620422e-01" purity="1.8216270208358765e-01" nType="-99"/>
        <Node pos="r" depth="1" NCoef="0" IVar="3" Cut="2.7128703594207764e+00" cType="1" res="1.0242938250303268e-01" rms="4.6778595447540283e-01" purity="5.5057573318481445e-01" nType="0">
          <Node pos="l" depth="2" NCoef="0" IVar="-1" Cut="0.0000000000000000e+00" cType="1" res="7.8614702215418220e-04" rms="4.7521254420280457e-01" purity="6.0484391450881958e-01" nType="-99"/>
          <Node pos="r" depth="2" NCoef="0" IVar="-1" Cut="0.0000000000000000e+00" cType="1" res="-3.4952661953866482e-03" rms="3.2219177484512329e-01" purity="1.2454757839441299e-01" nType="-99"/>
        </Node>
      </Node>
    </BinaryTree>
    <BinaryTree type="DecisionTree" boostWeight="1.0000000000000000e+00" itree="112">
      <Node pos="s" depth="0" NCoef="0" IVar="6" Cut="3.1835366821289062e+02" cType="1" res="6.7461855709552765e-02" rms="4.5974421501159668e-01" purity="5.2135223150253296e-01" nType="0">
        <Node pos="l" depth="1" NCoef="0" IVar="8" Cut="9.8162590026855469e+01" cType="1" res="-6.7331865429878235e-02" rms="4.3972274661064148e-01" purity="3.3418774604797363e-01" nType="0">
          <Node pos="l" depth="2" NCoef="0" IVar="-1" Cut="0.0000000000000000e+00" cType="1" res="-1.1545291170477867e-02" rms="2.2188790142536163e-01" purity="5.0401709973812103e-02" nType="-99"/>
          <Node pos="r" depth="2" NCoef="0" IVar="-1" Cut="0.0000000000000000e+00" cType="1" res="-8.6243475379887968e-05" rms="4.5368295907974243e-01" purity="3.9552894234657288e-01" nType="-99"/>
        </Node>
        <Node pos="r" depth="1" NCoef="0" IVar="4" Cut="7.4911344051361084e-01" cType="1" res="1.5175952017307281e-01" rms="4.5183861255645752e-01" purity="6.3840168714523315e-01" nType="0">
          <Node pos="l" depth="2" NCoef="0" IVar="-1" Cut="0.0000000000000000e+00" cType="1" res="1.0788011131808162e-03" rms="4.3767017126083374e-01" purity="6.9056040048599243e-01" nType="-99"/>
          <Node pos="r" depth="2" NCoef="0" IVar="-1" Cut="0.0000000000000000e+00" cType="1" res="-5.6993076577782631e-04" rms="4.5190605521202087e-01" purity="4.0162518620491028e-01" nType="-99"/>
        </Node>
      </Node>
    </BinaryTree>
    <BinaryTree type="DecisionTree" boostWeight="1.0000000000000000e+00" itree="113">
      <Node pos="s" depth="0" NCoef="0" IVar="6" Cut="2.6536087036132812e+02" cType="1" res="5.7068362832069397e-02" rms="4.6355697512626648e-01" purity="5.0548231601715088e-01" nType="0">
        <Node pos="l" depth="1" NCoef="0" IVar="8" Cut="1.0221829986572266e+02" cType="1" res="-1.4898657798767090e-01" rms="3.9373135566711426e-01" purity="2.2502207756042480e-01" nType="0">
          <Node pos="l" depth="2" NCoef="0" IVar="-1" Cut="0.0000000000000000e+00" cType="1" res="-2.2627538070082664e-02" rms="8.2265190780162811e-02" purity="0.0000000000000000e+00" nType="-99"/>
          <Node pos="r" depth="2" NCoef="0" IVar="-1" Cut="0.0000000000000000e+00" cType="1" res="-5.3170992759987712e-04" rms="4.3080046772956848e-01" purity="3.2297486066818237e-01" nType="-99"/>
        </Node>
        <Node pos="r" depth="1" NCoef="0" IVar="7" Cut="2.1020679473876953e+00" cType="1" res="1.0748589783906937e-01" rms="4.6540421247482300e-01" purity="5.7410538196563721e-01" nType="0">
          <Node pos="l" depth="2" NCoef="0" IVar="-1" Cut="0.0000000000000000e+00" cType="1" res="8.0827914644032717e-04" rms="4.6437799930572510e-01" purity="6.1712843179702759e-01" nType="-99"/>
          <Node pos="r" depth="2" NCoef="0" IVar="-1" Cut="0.0000000000000000e+00" cType="1" res="-3.2101257238537073e-03" rms="3.6808893084526062e-01" purity="1.7290255427360535e-01" nType="-99"/>
        </Node>
      </Node>
    </BinaryTree>
    <BinaryTree type="DecisionTree" boostWeight="1.0000000000000000e+00" itree="114">
      <Node pos="s" depth="0" NCoef="0" IVar="0" Cut="9.5591771602630615e-01" cType="1" res="5.1419027149677277e-02" rms="4.7039791941642761e-01" purity="4.9660548567771912e-01" nType="0">
        <Node pos="l" depth="1" NCoef="0" IVar="0" Cut="9.1530281305313110e-01" cType="1" res="-4.6998303383588791e-02" rms="4.5476219058036804e-01" purity="3.6096835136413574e-01" nType="0">
          <Node pos="l" depth="2" NCoef="0" IVar="-1" Cut="0.0000000000000000e+00" cType="1" res="-1.7965527251362801e-02" rms="1.6892243921756744e-01" purity="2.2249722853302956e-02" nType="-99"/>
          <Node pos="r" depth="2" NCoef="0" IVar="-1" Cut="0.0000000000000000e+00" cType="1" res="-4.8737361794337630e-05" rms="4.6521538496017456e-01" purity="4.0666243433952332e-01" nType="-99"/>
        </Node>
        <Node pos="r" depth="1" NCoef="0" IVar="6" Cut="3.3815676879882812e+02" cType="1" res="1.5130983293056488e-01" rms="4.6491631865501404e-01" purity="6.3427335023880005e-01" nType="0">
          <Node pos="l" depth="2" NCoef="0" IVar="-1" Cut="0.0000000000000000e+00" cType="1" res="1.3225995644461364e-04" rms="4.9043539166450500e-01" purity="4.5830613374710083e-01" nType="-99"/>
          <Node pos="r" depth="2" NCoef="0" IVar="-1" Cut="0.0000000000000000e+00" cType="1" res="1.2076901039108634e-03" rms="4.2600899934768677e-01" purity="7.4713277816772461e-01" nType="-99"/>
        </Node>
      </Node>
    </BinaryTree>
    <BinaryTree type="DecisionTree" boostWeight="1.0000000000000000e+00" itree="115">
      <Node pos="s" depth="0" NCoef="0" IVar="0" Cut="9.5536202192306519e-01" cType="1" res="2.6919778436422348e-02" rms="4.5695480704307556e-01" purity="4.7731170058250427e-01" nType="0">
        <Node pos="l" depth="1" NCoef="0" IVar="6" Cut="4.7897320556640625e+02" cType="1" res="-1.0786907374858856e-01" rms="4.2623770236968994e-01" purity="2.9400047659873962e-01" nType="0">
          <Node pos="l" depth="2" NCoef="0" IVar="-1" Cut="0.0000000000000000e+00" cType="1" res="-2.4723913520574570e-03" rms="3.9090922474861145e-01" purity="2.1978591382503510e-01" nType="-99"/>
          <Node pos="r" depth="2" NCoef="0" IVar="-1" Cut="0.0000000000000000e+00" cType="1" res="7.1291415952146053e-04" rms="4.8094829916954041e-01" purity="5.7531887292861938e-01" nType="-99"/>
        </Node>
        <Node pos="r" depth="1" NCoef="0" IVar="3" Cut="2.1729867458343506e+00" cType="1" res="1.4115415513515472e-01" rms="4.5094653964042664e-01" purity="6.3266909122467041e-01" nType="0">
          <Node pos="l" depth="2" NCoef="0" IVar="-1" Cut="0.0000000000000000e+00" cType="1" res="9.8091387189924717e-04" rms="4.4261163473129272e-01" purity="7.1125018596649170e-01" nType="-99"/>
          <Node pos="r" depth="2" NCoef="0" IVar="-1" Cut="0.0000000000000000e+00" cType="1" res="-1.4544106088578701e-03" rms="4.0481504797935486e-01" purity="2.4962869286537170e-01" nType="-99"/>
        </Node>
      </Node>
    </BinaryTree>
    <BinaryTree type="DecisionTree" boostWeight="1.0000000000000000e+00" itree="116">
      <Node pos="s" depth="0" NCoef="0" IVar="0" Cut="9.7801661491394043e-01" cType="1" res="4.4877260923385620e-02" rms="4.6299785375595093e-01" purity="4.9258863925933838e-01" nType="0">
        <Node pos="l" depth="1" NCoef="0" IVar="1" Cut="8.2620521545410156e+01" cType="1" res="-1.7881704494357109e-02" rms="4.5988020300865173e-01" purity="4.0847602486610413e-01" nType="0">
          <Node pos="l" depth="2" NCoef="0" IVar="-1" Cut="0.0000000000000000e+00" cType="1" res="-1.4852578751742840e-03" rms="4.2360138893127441e-01" purity="2.8430140018463135e-01" nType="-99"/>
          <Node pos="r" depth="2" NCoef="0" IVar="-1" Cut="0.0000000000000000e+00" cType="1" res="5.0435040611773729e-04" rms="4.6774733066558838e-01" purity="5.0568675994873047e-01" nType="-99"/>
        </Node>
        <Node pos="r" depth="1" NCoef="0" IVar="1" Cut="9.4634468078613281e+01" cType="1" res="2.2641371190547943e-01" rms="4.2230451107025146e-01" purity="7.3589253425598145e-01" nType="0">
          <Node pos="l" depth="2" NCoef="0" IVar="-1" Cut="0.0000000000000000e+00" cType="1" res="6.9891993189230561e-04" rms="4.7217306494712830e-01" purity="6.1194866895675659e-01" nType="-99"/>
          <Node pos="r" depth="2" NCoef="0" IVar="-1" Cut="0.0000000000000000e+00" cType="1" res="1.3437882298603654e-03" rms="3.7349542975425720e-01" purity="8.0989795923233032e-01" nType="-99"/>
        </Node>
      </Node>
    </BinaryTree>
    <BinaryTree type="DecisionTree" boostWeight="1.0000000000000000e+00" itree="117">
      <Node pos="s" depth="0" NCoef="0" IVar="0" Cut="9.5374727249145508e-01" cType="1" res="1.7851727083325386e-02" rms="4.5956954360008240e-01" purity="4.6542385220527649e-01" nType="0">
        <Node pos="l" depth="1" NCoef="0" IVar="3" Cut="2.1947154998779297e+00" cType="1" res="-1.2287526577711105e-01" rms="4.1869485378265381e-01" purity="2.7757444977760315e-01" nType="0">
          <Node pos="l" depth="2" NCoef="0" IVar="-1" Cut="0.0000000000000000e+00" cType="1" res="-7.8608893090859056e-04" rms="4.7381317615509033e-01" purity="3.7199592590332031e-01" nType="-99"/>
          <Node pos="r" depth="2" NCoef="0" IVar="-1" Cut="0.0000000000000000e+00" cType="1" res="-1.0340320877730846e-02" rms="1.7989160120487213e-01" purity="3.4269496798515320e-02" nType="-99"/>
        </Node>
        <Node pos="r" depth="1" NCoef="0" IVar="3" Cut="2.2751135826110840e+00" cType="1" res="1.2637725472450256e-01" rms="4.6025890111923218e-01" purity="6.1028909683227539e-01" nType="0">
          <Node pos="l" depth="2" NCoef="0" IVar="-1" Cut="0.0000000000000000e+00" cType="1" res="9.1913272626698017e-04" rms="4.5641377568244934e-01" purity="6.8362075090408325e-01" nType="-99"/>
          <Node pos="r" depth="2" NCoef="0" IVar="-1" Cut="0.0000000000000000e+00" cType="1" res="-1.5160765033215284e-03" rms="4.1002747416496277e-01" purity="2.2504305839538574e-01" nType="-99"/>
        </Node>
      </Node>
    </BinaryTree>
    <BinaryTree type="DecisionTree" boostWeight="1.0000000000000000e+00" itree="118">
      <Node pos="s" depth="0" NCoef="0" IVar="0" Cut="9.5795893669128418e-01" cType="1" res="2.5951383635401726e-02" rms="4.5972812175750732e-01" purity="4.7426915168762207e-01" nType="0">
        <Node pos="l" depth="1" NCoef="0" IVar="1" Cut="7.5818222045898438e+01" cType="1" res="-6.3083924353122711e-02" rms="4.4159239530563354e-01" purity="3.4440213441848755e-01" nType="0">
          <Node pos="l" depth="2" NCoef="0" IVar="-1" Cut="0.0000000000000000e+00" cType="1" res="-2.8871612157672644e-03" rms="3.7875980138778687e-01" purity="1.9498854875564575e-01" nType="-99"/>
          <Node pos="r" depth="2" NCoef="0" IVar="-1" Cut="0.0000000000000000e+00" cType="1" res="7.4725983722601086e-05" rms="4.5759445428848267e-01" purity="4.2814838886260986e-01" nType="-99"/>
        </Node>
        <Node pos="r" depth="1" NCoef="0" IVar="3" Cut="2.1431584358215332e+00" cType="1" res="1.2344285845756531e-01" rms="4.5941677689552307e-01" purity="6.1647033691406250e-01" nType="0">
          <Node pos="l" depth="2" NCoef="0" IVar="-1" Cut="0.0000000000000000e+00" cType="1" res="9.0401701163500547e-04" rms="4.5431011915206909e-01" purity="6.9140100479125977e-01" nType="-99"/>
          <Node pos="r" depth="2" NCoef="0" IVar="-1" Cut="0.0000000000000000e+00" cType="1" res="-1.0380398016422987e-03" rms="4.2417484521865845e-01" purity="2.8641635179519653e-01" nType="-99"/>
        </Node>
      </Node>
    </BinaryTree>
    <BinaryTree type="DecisionTree" boostWeight="1.0000000000000000e+00" itree="119">
      <Node pos="s" depth="0" NCoef="0" IVar="0" Cut="9.5605450868606567e-01" cType="1" res="4.5737657696008682e-02" rms="4.6441191434860229e-01" purity="4.8886445164680481e-01" nType="0">
        <Node pos="l" depth="1" NCoef="0" IVar="3" Cut="2.5188100337982178e+00" cType="1" res="-4.5858297497034073e-02" rms="4.4877028465270996e-01" purity="3.5603436827659607e-01" nType="0">
          <Node pos="l" depth="2" NCoef="0" IVar="-1" Cut="0.0000000000000000e+00" cType="1" res="-5.8995618019253016e-05" rms="4.8449194431304932e-01" purity="4.3090453743934631e-01" nType="-99"/>
          <Node pos="r" depth="2" NCoef="0" IVar="-1" Cut="0.0000000000000000e+00" cType="1" res="-1.7685579136013985e-02" rms="4.6649437397718430e-02" purity="0.0000000000000000e+00" nType="-99"/>
        </Node>
        <Node pos="r" depth="1" NCoef="0" IVar="3" Cut="1.5829856395721436e+00" cType="1" res="1.3536599278450012e-01" rms="4.6196579933166504e-01" purity="6.1884117126464844e-01" nType="0">
          <Node pos="l" depth="2" NCoef="0" IVar="-1" Cut="0.0000000000000000e+00" cType="1" res="1.1470128083601594e-03" rms="4.3150514364242554e-01" purity="7.4542212486267090e-01" nType="-99"/>
          <Node pos="r" depth="2" NCoef="0" IVar="-1" Cut="0.0000000000000000e+00" cType="1" res="-1.1127602192573249e-04" rms="4.7322174906730652e-01" purity="4.0807044506072998e-01" nType="-99"/>
        </Node>
      </Node>
    </BinaryTree>
    <BinaryTree type="DecisionTree" boostWeight="1.0000000000000000e+00" itree="120">
      <Node pos="s" depth="0" NCoef="0" IVar="3" Cut="1.8939656019210815e+00" cType="1" res="6.0761671513319016e-02" rms="4.6096366643905640e-01" purity="5.1194036006927490e-01" nType="0">
        <Node pos="l" depth="1" NCoef="0" IVar="2" Cut="9.8375915527343750e+01" cType="1" res="1.2292817980051041e-01" rms="4.6699690818786621e-01" purity="6.2354028224945068e-01" nType="0">
          <Node pos="l" depth="2" NCoef="0" IVar="-1" Cut="0.0000000000000000e+00" cType="1" res="-2.8091699350625277e-03" rms="4.0240615606307983e-01" purity="2.1328376233577728e-01" nType="-99"/>
          <Node pos="r" depth="2" NCoef="0" IVar="-1" Cut="0.0000000000000000e+00" cType="1" res="8.4823684301227331e-04" rms="4.6013593673706055e-01" purity="6.6128790378570557e-01" nType="-99"/>
        </Node>
        <Node pos="r" depth="1" NCoef="0" IVar="4" Cut="7.6452183723449707e-01" cType="1" res="-8.3669625222682953e-02" rms="4.1187506914138794e-01" purity="2.5266072154045105e-01" nType="0">
          <Node pos="l" depth="2" NCoef="0" IVar="-1" Cut="0.0000000000000000e+00" cType="1" res="-3.4696608781814575e-04" rms="4.3892705440521240e-01" purity="3.1195086240768433e-01" nType="-99"/>
          <Node pos="r" depth="2" NCoef="0" IVar="-1" Cut="0.0000000000000000e+00" cType="1" res="-2.1285144612193108e-02" rms="9.2530958354473114e-02" purity="0.0000000000000000e+00" nType="-99"/>
        </Node>
      </Node>
    </BinaryTree>
    <BinaryTree type="DecisionTree" boostWeight="1.0000000000000000e+00" itree="121">
      <Node pos="s" depth="0" NCoef="0" IVar="0" Cut="9.5952618122100830e-01" cType="1" res="5.1565628498792648e-02" rms="4.6058014035224915e-01" purity="4.9631506204605103e-01" nType="0">
        <Node pos="l" depth="1" NCoef="0" IVar="6" Cut="3.9742581176757812e+02" cType="1" res="-3.7068475037813187e-02" rms="4.4603309035301208e-01" purity="3.7056925892829895e-01" nType="0">
          <Node pos="l" depth="2" NCoef="0" IVar="-1" Cut="0.0000000000000000e+00" cType="1" res="-1.4031857717782259e-03" rms="4.1217231750488281e-01" purity="2.6297795772552490e-01" nType="-99"/>
          <Node pos="r" depth="2" NCoef="0" IVar="-1" Cut="0.0000000000000000e+00" cType="1" res="7.2219263529404998e-04" rms="4.6914938092231750e-01" purity="5.7328420877456665e-01" nType="-99"/>
        </Node>
        <Node pos="r" depth="1" NCoef="0" IVar="6" Cut="3.2465283203125000e+02" cType="1" res="1.5616866946220398e-01" rms="4.5550584793090820e-01" purity="6.4471608400344849e-01" nType="0">
          <Node pos="l" depth="2" NCoef="0" IVar="-1" Cut="0.0000000000000000e+00" cType="1" res="2.6158333639614284e-04" rms="4.8425558209419250e-01" purity="4.7877442836761475e-01" nType="-99"/>
          <Node pos="r" depth="2" NCoef="0" IVar="-1" Cut="0.0000000000000000e+00" cType="1" res="1.1300574988126755e-03" rms="4.1928625106811523e-01" purity="7.4691712856292725e-01" nType="-99"/>
        </Node>
      </Node>
    </BinaryTree>
    <BinaryTree type="DecisionTree" boostWeight="1.0000000000000000e+00" itree="122">
      <Node pos="s" depth="0" NCoef="0" IVar="6" Cut="2.8651412963867188e+02" cType="1" res="-2.7005041483789682e-03" rms="4.5203095674514771e-01" purity="4.4471940398216248e-01" nType="0">
        <Node pos="l" depth="1" NCoef="0" IVar="4" Cut="6.6054379940032959e-01" cType="1" res="-1.6236847639083862e-01" rms="3.8232576847076416e-01" purity="2.0921602845191956e-01" nType="0">
          <Node pos="l" depth="2" NCoef="0" IVar="-1" Cut="0.0000000000000000e+00" cType="1" res="-8.8849267922341824e-04" rms="4.2680102586746216e-01" purity="3.0124402046203613e-01" nType="-99"/>
          <Node pos="r" depth="2" NCoef="0" IVar="-1" Cut="0.0000000000000000e+00" cType="1" res="-7.0119202136993408e-03" rms="2.8575444221496582e-01" purity="9.0554431080818176e-02" nType="-99"/>
        </Node>
        <Node pos="r" depth="1" NCoef="0" IVar="3" Cut="2.0285906791687012e+00" cType="1" res="5.6941229850053787e-02" rms="4.6149370074272156e-01" purity="5.3268837928771973e-01" nType="0">
          <Node pos="l" depth="2" NCoef="0" IVar="-1" Cut="0.0000000000000000e+00" cType="1" res="6.8994890898466110e-04" rms="4.7146540880203247e-01" purity="6.3235616683959961e-01" nType="-99"/>
          <Node pos="r" depth="2" NCoef="0" IVar="-1" Cut="0.0000000000000000e+00" cType="1" res="-2.7061046566814184e-03" rms="3.5038131475448608e-01" purity="1.8245336413383484e-01" nType="-99"/>
        </Node>
      </Node>
    </BinaryTree>
    <BinaryTree type="DecisionTree" boostWeight="1.0000000000000000e+00" itree="123">
      <Node pos="s" depth="0" NCoef="0" IVar="0" Cut="9.5740509033203125e-01" cType="1" res="2.9406368732452393e-02" rms="4.5484620332717896e-01" purity="4.7794172167778015e-01" nType="0">
        <Node pos="l" depth="1" NCoef="0" IVar="3" Cut="1.4746887683868408e+00" cType="1" res="-7.1405477821826935e-02" rms="4.3308931589126587e-01" purity="3.3167946338653564e-01" nType="0">
          <Node pos="l" depth="2" NCoef="0" IVar="-1" Cut="0.0000000000000000e+00" cType="1" res="2.4786504218354821e-04" rms="4.8719140887260437e-01" purity="5.0515478849411011e-01" nType="-99"/>
          <Node pos="r" depth="2" NCoef="0" IVar="-1" Cut="0.0000000000000000e+00" cType="1" res="-3.0179636087268591e-03" rms="3.4698820114135742e-01" purity="1.7020511627197266e-01" nType="-99"/>
        </Node>
        <Node pos="r" depth="1" NCoef="0" IVar="1" Cut="6.6062210083007812e+01" cType="1" res="1.2873233854770660e-01" rms="4.5391649007797241e-01" purity="6.2204819917678833e-01" nType="0">
          <Node pos="l" depth="2" NCoef="0" IVar="-1" Cut="0.0000000000000000e+00" cType="1" res="-8.1124313874170184e-04" rms="4.6599221229553223e-01" purity="3.7964099645614624e-01" nType="-99"/>
          <Node pos="r" depth="2" NCoef="0" IVar="-1" Cut="0.0000000000000000e+00" cType="1" res="1.0063460795208812e-03" rms="4.3165197968482971e-01" purity="6.8872910737991333e-01" nType="-99"/>
        </Node>
      </Node>
    </BinaryTree>
    <BinaryTree type="DecisionTree" boostWeight="1.0000000000000000e+00" itree="124">
      <Node pos="s" depth="0" NCoef="0" IVar="1" Cut="5.6395004272460938e+01" cType="1" res="7.2089649736881256e-02" rms="4.5789796113967896e-01" purity="5.2329272031784058e-01" nType="0">
        <Node pos="l" depth="1" NCoef="0" IVar="0" Cut="9.6565949916839600e-01" cType="1" res="-1.7213502526283264e-01" rms="4.1211828589439392e-01" purity="2.3553498089313507e-01" nType="0">
          <Node pos="l" depth="2" NCoef="0" IVar="-1" Cut="0.0000000000000000e+00" cType="1" res="-7.2324066422879696e-03" rms="2.9086238145828247e-01" purity="9.6456907689571381e-02" nType="-99"/>
          <Node pos="r" depth="2" NCoef="0" IVar="-1" Cut="0.0000000000000000e+00" cType="1" res="3.1000020680949092e-04" rms="5.0898480415344238e-01" purity="4.9392122030258179e-01" nType="-99"/>
        </Node>
        <Node pos="r" depth="1" NCoef="0" IVar="3" Cut="1.5933642387390137e+00" cType="1" res="1.2910819053649902e-01" rms="4.4921362400054932e-01" purity="5.9047484397888184e-01" nType="0">
          <Node pos="l" depth="2" NCoef="0" IVar="-1" Cut="0.0000000000000000e+00" cType="1" res="1.1815729085355997e-03" rms="4.1756710410118103e-01" purity="7.6192247867584229e-01" nType="-99"/>
          <Node pos="r" depth="2" NCoef="0" IVar="-1" Cut="0.0000000000000000e+00" cType="1" res="-5.5303127737715840e-05" rms="4.4954836368560791e-01" purity="3.8086149096488953e-01" nType="-99"/>
        </Node>
      </Node>
    </BinaryTree>
    <BinaryTree type="DecisionTree" boostWeight="1.0000000000000000e+00" itree="125">
      <Node pos="s" depth="0" NCoef="0" IVar="3" Cut="1.8539999723434448e+00" cType="1" res="5.8878403156995773e-02" rms="4.5967805385589600e-01" purity="5.0643271207809448e-01" nType="0">
        <Node pos="l" depth="1" NCoef="0" IVar="6" Cut="2.4044488525390625e+02" cType="1" res="1.2415986508131027e-01" rms="4.6644577383995056e-01" purity="6.2457603216171265e-01" nType="0">
          <Node pos="l" depth="2" NCoef="0" IVar="-1" Cut="0.0000000000000000e+00" cType="1" res="-2.9772496782243252e-03" rms="3.8116878271102905e-01" purity="2.0612357556819916e-01" nType="-99"/>
          <Node pos="r" depth="2" NCoef="0" IVar="-1" Cut="0.0000000000000000e+00" cType="1" res="8.5707631660625339e-04" rms="4.6086892485618591e-01" purity="6.6322582960128784e-01" nType="-99"/>
        </Node>
        <Node pos="r" depth="1" NCoef="0" IVar="8" Cut="1.4046568298339844e+02" cType="1" res="-7.4036352336406708e-02" rms="4.1496917605400085e-01" purity="2.6588988304138184e-01" nType="0">
          <Node pos="l" depth="2" NCoef="0" IVar="-1" Cut="0.0000000000000000e+00" cType="1" res="-2.1940877195447683e-04" rms="4.3948444724082947e-01" purity="3.2279214262962341e-01" nType="-99"/>
          <Node pos="r" depth="2" NCoef="0" IVar="-1" Cut="0.0000000000000000e+00" cType="1" res="-4.2184595949947834e-03" rms="3.2067430019378662e-01" purity="1.3581635057926178e-01" nType="-99"/>
        </Node>
      </Node>
    </BinaryTree>
    <BinaryTree type="DecisionTree" boostWeight="1.0000000000000000e+00" itree="126">
      <Node pos="s" depth="0" NCoef="0" IVar="6" Cut="2.6976339721679688e+02" cType="1" res="6.5774224698543549e-02" rms="4.5895460247993469e-01" purity="5.1117593050003052e-01" nType="0">
        <Node pos="l" depth="1" NCoef="0" IVar="4" Cut="7.4047333002090454e-01" cType="1" res="-1.5022750198841095e-01" rms="3.9317154884338379e-01" purity="2.0977269113063812e-01" nType="0">
          <Node pos="l" depth="2" NCoef="0" IVar="-1" Cut="0.0000000000000000e+00" cType="1" res="-5.7781147770583630e-03" rms="3.1854167580604553e-01" purity="1.1803583055734634e-01" nType="-99"/>
          <Node pos="r" depth="2" NCoef="0" IVar="-1" Cut="0.0000000000000000e+00" cType="1" res="6.7934085382148623e-04" rms="4.5727783441543579e-01" purity="4.3369877338409424e-01" nType="-99"/>
        </Node>
        <Node pos="r" depth="1" NCoef="0" IVar="0" Cut="9.6501809358596802e-01" cType="1" res="1.1653365939855576e-01" rms="4.5855367183685303e-01" purity="5.8200430870056152e-01" nType="0">
          <Node pos="l" depth="2" NCoef="0" IVar="-1" Cut="0.0000000000000000e+00" cType="1" res="1.8570102110970765e-04" rms="4.6459627151489258e-01" purity="4.5891746878623962e-01" nType="-99"/>
          <Node pos="r" depth="2" NCoef="0" IVar="-1" Cut="0.0000000000000000e+00" cType="1" res="1.2110313400626183e-03" rms="4.1863691806793213e-01" purity="7.4979639053344727e-01" nType="-99"/>
        </Node>
      </Node>
    </BinaryTree>
    <BinaryTree type="DecisionTree" boostWeight="1.0000000000000000e+00" itree="127">
      <Node pos="s" depth="0" NCoef="0" IVar="6" Cut="3.3450305175781250e+02" cType="1" res="6.8867653608322144e-02" rms="4.6290680766105652e-01" purity="5.1432937383651733e-01" nType="0">
        <Node pos="l" depth="1" NCoef="0" IVar="4" Cut="7.1565425395965576e-01" cType="1" res="-6.4575679600238800e-02" rms="4.4213494658470154e-01" purity="3.3444041013717651e-01" nType="0">
          <Node pos="l" depth="2" NCoef="0" IVar="-1" Cut="0.0000000000000000e+00" cType="1" res="-7.9339202784467489e-05" rms="4.6123999357223511e-01" purity="3.9881858229637146e-01" nType="-99"/>
          <Node pos="r" depth="2" NCoef="0" IVar="-1" Cut="0.0000000000000000e+00" cType="1" res="-6.4838556572794914e-03" rms="2.9028725624084473e-01" purity="1.0607536882162094e-01" nType="-99"/>
        </Node>
        <Node pos="r" depth="1" NCoef="0" IVar="7" Cut="2.0748686790466309e+00" cType="1" res="1.7443163692951202e-01" rms="4.5157933235168457e-01" purity="6.5663546323776245e-01" nType="0">
          <Node pos="l" depth="2" NCoef="0" IVar="-1" Cut="0.0000000000000000e+00" cType="1" res="1.1064854916185141e-03" rms="4.4175878167152405e-01" purity="7.0529055595397949e-01" nType="-99"/>
          <Node pos="r" depth="2" NCoef="0" IVar="-1" Cut="0.0000000000000000e+00" cType="1" res="-1.5911749796941876e-03" rms="4.3179899454116821e-01" purity="2.5981533527374268e-01" nType="-99"/>
        </Node>
      </Node>
    </BinaryTree>
    <BinaryTree type="DecisionTree" boostWeight="1.0000000000000000e+00" itree="128">
      <Node pos="s" depth="0" NCoef="0" IVar="0" Cut="9.5916110277175903e-01" cType="1" res="8.6792595684528351e-02" rms="4.6476444602012634e-01" purity="5.3115141391754150e-01" nType="0">
        <Node pos="l" depth="1" NCoef="0" IVar="3" Cut="2.4992158412933350e+00" cType="1" res="-3.9740581996738911e-03" rms="4.6019384264945984e-01" purity="3.9856272935867310e-01" nType="0">
          <Node pos="l" depth="2" NCoef="0" IVar="-1" Cut="0.0000000000000000e+00" cType="1" res="2.8452300466597080e-04" rms="4.9205961823463440e-01" purity="4.7695079445838928e-01" nType="-99"/>
          <Node pos="r" depth="2" NCoef="0" IVar="-1" Cut="0.0000000000000000e+00" cType="1" res="-1.6926048323512077e-02" rms="4.9549769610166550e-02" purity="0.0000000000000000e+00" nType="-99"/>
        </Node>
        <Node pos="r" depth="1" NCoef="0" IVar="1" Cut="1.0325436401367188e+02" cType="1" res="1.8374973535537720e-01" rms="4.4980081915855408e-01" purity="6.7278307676315308e-01" nType="0">
          <Node pos="l" depth="2" NCoef="0" IVar="-1" Cut="0.0000000000000000e+00" cType="1" res="7.6636351877823472e-04" rms="4.7170263528823853e-01" purity="5.9817373752593994e-01" nType="-99"/>
          <Node pos="r" depth="2" NCoef="0" IVar="-1" Cut="0.0000000000000000e+00" cType="1" res="1.2651365250349045e-03" rms="4.1342288255691528e-01" purity="7.5297552347183228e-01" nType="-99"/>
        </Node>
      </Node>
    </BinaryTree>
    <BinaryTree type="DecisionTree" boostWeight="1.0000000000000000e+00" itree="129">
      <Node pos="s" depth="0" NCoef="0" IVar="8" Cut="9.5384918212890625e+01" cType="1" res="5.8041978627443314e-02" rms="4.5940437912940979e-01" purity="5.0368881225585938e-01" nType="0">
        <Node pos="l" depth="1" NCoef="0" IVar="5" Cut="1.1378818750381470e+00" cType="1" res="-1.7660257220268250e-01" rms="4.0373346209526062e-01" purity="2.1461714804172516e-01" nType="0">
          <Node pos="l" depth="2" NCoef="0" IVar="-1" Cut="0.0000000000000000e+00" cType="1" res="-3.0856288503855467e-04" rms="4.4532489776611328e-01" purity="3.3541351556777954e-01" nType="-99"/>
          <Node pos="r" depth="2" NCoef="0" IVar="-1" Cut="0.0000000000000000e+00" cType="1" res="-6.2992428429424763e-03" rms="3.3420690894126892e-01" purity="1.2905848026275635e-01" nType="-99"/>
        </Node>
        <Node pos="r" depth="1" NCoef="0" IVar="3" Cut="1.8387542963027954e+00" cType="1" res="9.1477528214454651e-02" rms="4.5709526538848877e-01" purity="5.4487991333007812e-01" nType="0">
          <Node pos="l" depth="2" NCoef="0" IVar="-1" Cut="0.0000000000000000e+00" cType="1" res="8.9310883777216077e-04" rms="4.5419222116470337e-01" purity="6.6900581121444702e-01" nType="-99"/>
          <Node pos="r" depth="2" NCoef="0" IVar="-1" Cut="0.0000000000000000e+00" cType="1" res="-3.9184911292977631e-04" rms="4.3465590476989746e-01" purity="3.2028177380561829e-01" nType="-99"/>
        </Node>
      </Node>
    </BinaryTree>
    <BinaryTree type="DecisionTree" boostWeight="1.0000000000000000e+00" itree="130">
      <Node pos="s" depth="0" NCoef="0" IVar="1" Cut="6.6062210083007812e+01" cType="1" res="6.0727190226316452e-02" rms="4.5766618847846985e-01" purity="5.0363576412200928e-01" nType="0">
        <Node pos="l" depth="1" NCoef="0" IVar="3" Cut="9.6900397539138794e-01" cType="1" res="-8.6595438420772552e-02" rms="4.3167906999588013e-01" purity="3.3457973599433899e-01" nType="0">
          <Node pos="l" depth="2" NCoef="0" IVar="-1" Cut="0.0000000000000000e+00" cType="1" res="5.0600204849615693e-04" rms="4.7290953993797302e-01" purity="5.5517566204071045e-01" nType="-99"/>
          <Node pos="r" depth="2" NCoef="0" IVar="-1" Cut="0.0000000000000000e+00" cType="1" res="-4.8589957877993584e-03" rms="3.3058455586433411e-01" purity="1.3916274905204773e-01" nType="-99"/>
        </Node>
        <Node pos="r" depth="1" NCoef="0" IVar="3" Cut="2.1214451789855957e+00" cType="1" res="1.2126544862985611e-01" rms="4.5428168773651123e-01" purity="5.7310479879379272e-01" nType="0">
          <Node pos="l" depth="2" NCoef="0" IVar="-1" Cut="0.0000000000000000e+00" cType="1" res="1.0205059079453349e-03" rms="4.4912037253379822e-01" purity="7.0045864582061768e-01" nType="-99"/>
          <Node pos="r" depth="2" NCoef="0" IVar="-1" Cut="0.0000000000000000e+00" cType="1" res="-9.0369215467944741e-04" rms="4.1579622030258179e-01" purity="2.4298551678657532e-01" nType="-99"/>
        </Node>
      </Node>
    </BinaryTree>
    <BinaryTree type="DecisionTree" boostWeight="1.0000000000000000e+00" itree="131">
      <Node pos="s" depth="0" NCoef="0" IVar="3" Cut="1.7827718257904053e+00" cType="1" res="1.5515252016484737e-02" rms="4.6232110261917114e-01" purity="4.5467084646224976e-01" nType="0">
        <Node pos="l" depth="1" NCoef="0" IVar="1" Cut="1.0221086883544922e+02" cType="1" res="8.1918179988861084e-02" rms="4.8187810182571411e-01" purity="5.7478308677673340e-01" nType="0">
          <Node pos="l" depth="2" NCoef="0" IVar="-1" Cut="0.0000000000000000e+00" cType="1" res="1.9819359295070171e-04" rms="4.9139747023582458e-01" purity="4.9966651201248169e-01" nType="-99"/>
          <Node pos="r" depth="2" NCoef="0" IVar="-1" Cut="0.0000000000000000e+00" cType="1" res="9.4719574553892016e-04" rms="4.4432142376899719e-01" purity="7.2188872098922729e-01" nType="-99"/>
        </Node>
        <Node pos="r" depth="1" NCoef="0" IVar="7" Cut="1.7183319330215454e+00" cType="1" res="-9.2563822865486145e-02" rms="4.0598982572555542e-01" purity="2.5917312502861023e-01" nType="0">
          <Node pos="l" depth="2" NCoef="0" IVar="-1" Cut="0.0000000000000000e+00" cType="1" res="7.2850874857977033e-05" rms="4.4080433249473572e-01" purity="3.6359491944313049e-01" nType="-99"/>
          <Node pos="r" depth="2" NCoef="0" IVar="-1" Cut="0.0000000000000000e+00" cType="1" res="-3.8744374178349972e-03" rms="3.3259725570678711e-01" purity="1.4650067687034607e-01" nType="-99"/>
        </Node>
      </Node>
    </BinaryTree>
    <BinaryTree type="DecisionTree" boostWeight="1.0000000000000000e+00" itree="132">
      <Node pos="s" depth="0" NCoef="0" IVar="6" Cut="2.8032427978515625e+02" cType="1" res="7.2132021188735962e-02" rms="4.6090272068977356e-01" purity="5.1352238655090332e-01" nType="0">
        <Node pos="l" depth="1" NCoef="0" IVar="5" Cut="1.5422573089599609e+00" cType="1" res="-9.9785089492797852e-02" rms="4.1278541088104248e-01" purity="2.7068811655044556e-01" nType="0">
          <Node pos="l" depth="2" NCoef="0" IVar="-1" Cut="0.0000000000000000e+00" cType="1" res="-3.6061492282897234e-03" rms="3.5631111264228821e-01" purity="1.6098514199256897e-01" nType="-99"/>
          <Node pos="r" depth="2" NCoef="0" IVar="-1" Cut="0.0000000000000000e+00" cType="1" res="7.8229350037872791e-04" rms="4.5821288228034973e-01" purity="5.4761034250259399e-01" nType="-99"/>
        </Node>
        <Node pos="r" depth="1" NCoef="0" IVar="0" Cut="9.5485478639602661e-01" cType="1" res="1.2888117134571075e-01" rms="4.6187853813171387e-01" purity="5.9368103742599487e-01" nType="0">
          <Node pos="l" depth="2" NCoef="0" IVar="-1" Cut="0.0000000000000000e+00" cType="1" res="2.3653333482798189e-04" rms="4.8058304190635681e-01" purity="4.4573509693145752e-01" nType="-99"/>
          <Node pos="r" depth="2" NCoef="0" IVar="-1" Cut="0.0000000000000000e+00" cType="1" res="1.0947349946945906e-03" rms="4.2925789952278137e-01" purity="7.1476155519485474e-01" nType="-99"/>
        </Node>
      </Node>
    </BinaryTree>
    <BinaryTree type="DecisionTree" boostWeight="1.0000000000000000e+00" itree="133">
      <Node pos="s" depth="0" NCoef="0" IVar="3" Cut="1.8503538370132446e+00" cType="1" res="6.3482187688350677e-02" rms="4.5601144433021545e-01" purity="5.1233631372451782e-01" nType="0">
        <Node pos="l" depth="1" NCoef="0" IVar="0" Cut="9.4828760623931885e-01" cType="1" res="1.3308840990066528e-01" rms="4.6347782015800476e-01" purity="6.3289290666580200e-01" nType="0">
          <Node pos="l" depth="2" NCoef="0" IVar="-1" Cut="0.0000000000000000e+00" cType="1" res="-3.0581108148908243e-05" rms="4.7844046354293823e-01" purity="4.6079209446907043e-01" nType="-99"/>
          <Node pos="r" depth="2" NCoef="0" IVar="-1" Cut="0.0000000000000000e+00" cType="1" res="1.0211154585704207e-03" rms="4.4006106257438660e-01" purity="7.1903592348098755e-01" nType="-99"/>
        </Node>
        <Node pos="r" depth="1" NCoef="0" IVar="1" Cut="1.0546125793457031e+02" cType="1" res="-8.2470484077930450e-02" rms="4.0260362625122070e-01" purity="2.5954902172088623e-01" nType="0">
          <Node pos="l" depth="2" NCoef="0" IVar="-1" Cut="0.0000000000000000e+00" cType="1" res="-5.1973527297377586e-03" rms="2.8919133543968201e-01" purity="1.0905151814222336e-01" nType="-99"/>
          <Node pos="r" depth="2" NCoef="0" IVar="-1" Cut="0.0000000000000000e+00" cType="1" res="6.7914748797193170e-05" rms="4.4877904653549194e-01" purity="3.7111645936965942e-01" nType="-99"/>
        </Node>
      </Node>
    </BinaryTree>
    <BinaryTree type="DecisionTree" boostWeight="1.0000000000000000e+00" itree="134">
      <Node pos="s" depth="0" NCoef="0" IVar="0" Cut="9.5779204368591309e-01" cType="1" res="4.7406252473592758e-02" rms="4.6591731905937195e-01" purity="4.8242226243019104e-01" nType="0">
        <Node pos="l" depth="1" NCoef="0" IVar="1" Cut="9.8932983398437500e+01" cType="1" res="-2.7640903368592262e-02" rms="4.5530918240547180e-01" purity="3.6509260535240173e-01" nType="0">
          <Node pos="l" depth="2" NCoef="0" IVar="-1" Cut="0.0000000000000000e+00" cType="1" res="-1.0431382106617093e-03" rms="4.3235602974891663e-01" purity="2.9764187335968018e-01" nType="-99"/>
          <Node pos="r" depth="2" NCoef="0" IVar="-1" Cut="0.0000000000000000e+00" cType="1" res="5.0001911586150527e-04" rms="4.6817740797996521e-01" purity="4.5314684510231018e-01" nType="-99"/>
        </Node>
        <Node pos="r" depth="1" NCoef="0" IVar="3" Cut="1.6530541181564331e+00" cType="1" res="1.3259410858154297e-01" rms="4.6316507458686829e-01" purity="6.1560589075088501e-01" nType="0">
          <Node pos="l" depth="2" NCoef="0" IVar="-1" Cut="0.0000000000000000e+00" cType="1" res="1.0531553998589516e-03" rms="4.3768617510795593e-01" purity="7.2963559627532959e-01" nType="-99"/>
          <Node pos="r" depth="2" NCoef="0" IVar="-1" Cut="0.0000000000000000e+00" cType="1" res="9.6632255008444190e-05" rms="4.7969651222229004e-01" purity="4.2173787951469421e-01" nType="-99"/>
        </Node>
      </Node>
    </BinaryTree>
    <BinaryTree type="DecisionTree" boostWeight="1.0000000000000000e+00" itree="135">
      <Node pos="s" depth="0" NCoef="0" IVar="1" Cut="5.6405555725097656e+01" cType="1" res="5.6019462645053864e-02" rms="4.6428096294403076e-01" purity="4.9462184309959412e-01" nType="0">
        <Node pos="l" depth="1" NCoef="0" IVar="5" Cut="1.1400332450866699e+00" cType="1" res="-1.0877139866352081e-01" rms="4.3849292397499084e-01" purity="2.8765287995338440e-01" nType="0">
          <Node pos="l" depth="2" NCoef="0" IVar="-1" Cut="0.0000000000000000e+00" cType="1" res="-2.2219989448785782e-02" rms="1.1706391721963882e-01" purity="0.0000000000000000e+00" nType="-99"/>
          <Node pos="r" depth="2" NCoef="0" IVar="-1" Cut="0.0000000000000000e+00" cType="1" res="-1.8966250354424119e-04" rms="4.7479230165481567e-01" purity="3.8907697796821594e-01" nType="-99"/>
        </Node>
        <Node pos="r" depth="1" NCoef="0" IVar="3" Cut="2.8093836307525635e+00" cType="1" res="9.8410859704017639e-02" rms="4.6126231551170349e-01" purity="5.4786324501037598e-01" nType="0">
          <Node pos="l" depth="2" NCoef="0" IVar="-1" Cut="0.0000000000000000e+00" cType="1" res="7.8410102287307382e-04" rms="4.6994411945343018e-01" purity="6.0491454601287842e-01" nType="-99"/>
          <Node pos="r" depth="2" NCoef="0" IVar="-1" Cut="0.0000000000000000e+00" cType="1" res="-5.0302338786423206e-03" rms="2.8399968147277832e-01" purity="8.7380014359951019e-02" nType="-99"/>
        </Node>
      </Node>
    </BinaryTree>
    <BinaryTree type="DecisionTree" boostWeight="1.0000000000000000e+00" itree="136">
      <Node pos="s" depth="0" NCoef="0" IVar="0" Cut="9.5489710569381714e-01" cType="1" res="3.0937999486923218e-02" rms="4.5997616648674011e-01" purity="4.7374391555786133e-01" nType="0">
        <Node pos="l" depth="1" NCoef="0" IVar="7" Cut="1.1026501655578613e+00" cType="1" res="-7.1207135915756226e-02" rms="4.4110018014907837e-01" purity="3.2210800051689148e-01" nType="0">
          <Node pos="l" depth="2" NCoef="0" IVar="-1" Cut="0.0000000000000000e+00" cType="1" res="5.0613190978765488e-04" rms="4.6014297008514404e-01" purity="4.9814295768737793e-01" nType="-99"/>
          <Node pos="r" depth="2" NCoef="0" IVar="-1" Cut="0.0000000000000000e+00" cType="1" res="-2.8669466264545918e-03" rms="3.9601919054985046e-01" purity="1.9231075048446655e-01" nType="-99"/>
        </Node>
        <Node pos="r" depth="1" NCoef="0" IVar="3" Cut="2.3709430694580078e+00" cType="1" res="1.2202592939138412e-01" rms="4.5732304453849792e-01" purity="6.0896515846252441e-01" nType="0">
          <Node pos="l" depth="2" NCoef="0" IVar="-1" Cut="0.0000000000000000e+00" cType="1" res="8.8770012371242046e-04" rms="4.5706957578659058e-01" purity="6.7592662572860718e-01" nType="-99"/>
          <Node pos="r" depth="2" NCoef="0" IVar="-1" Cut="0.0000000000000000e+00" cType="1" res="-2.5899934116750956e-03" rms="3.5772126913070679e-01" purity="1.7013439536094666e-01" nType="-99"/>
        </Node>
      </Node>
    </BinaryTree>
    <BinaryTree type="DecisionTree" boostWeight="1.0000000000000000e+00" itree="137">
      <Node pos="s" depth="0" NCoef="0" IVar="8" Cut="9.6890586853027344e+01" cType="1" res="6.1412498354911804e-02" rms="4.6797296404838562e-01" purity="5.0152814388275146e-01" nType="0">
        <Node pos="l" depth="1" NCoef="0" IVar="1" Cut="5.7992084503173828e+01" cType="1" res="-1.6644114255905151e-01" rms="3.9801093935966492e-01" purity="2.3389895260334015e-01" nType="0">
          <Node pos="l" depth="2" NCoef="0" IVar="-1" Cut="0.0000000000000000e+00" cType="1" res="-9.6589429304003716e-03" rms="2.5006118416786194e-01" purity="6.3990108668804169e-02" nType="-99"/>
          <Node pos="r" depth="2" NCoef="0" IVar="-1" Cut="0.0000000000000000e+00" cType="1" res="-5.9832289116457105e-04" rms="4.5150426030158997e-01" purity="3.5844534635543823e-01" nType="-99"/>
        </Node>
        <Node pos="r" depth="1" NCoef="0" IVar="7" Cut="1.7621122598648071e+00" cType="1" res="9.7778618335723877e-02" rms="4.6803820133209229e-01" purity="5.4424256086349487e-01" nType="0">
          <Node pos="l" depth="2" NCoef="0" IVar="-1" Cut="0.0000000000000000e+00" cType="1" res="8.8964594760909677e-04" rms="4.6572682261466980e-01" purity="6.1213147640228271e-01" nType="-99"/>
          <Node pos="r" depth="2" NCoef="0" IVar="-1" Cut="0.0000000000000000e+00" cType="1" res="-2.0168663468211889e-04" rms="4.5198839902877808e-01" purity="3.7925446033477783e-01" nType="-99"/>
        </Node>
      </Node>
    </BinaryTree>
    <BinaryTree type="DecisionTree" boostWeight="1.0000000000000000e+00" itree="138">
      <Node pos="s" depth="0" NCoef="0" IVar="1" Cut="1.0085423278808594e+02" cType="1" res="3.8205917924642563e-02" rms="4.5962136983871460e-01" purity="4.7586849331855774e-01" nType="0">
        <Node pos="l" depth="1" NCoef="0" IVar="2" Cut="2.0926376342773438e+02" cType="1" res="-6.6519901156425476e-02" rms="4.4805058836936951e-01" purity="3.5769760608673096e-01" nType="0">
          <Node pos="l" depth="2" NCoef="0" IVar="-1" Cut="0.0000000000000000e+00" cType="1" res="-1.7437114729546010e-04" rms="4.6419295668601990e-01" purity="4.1157758235931396e-01" nType="-99"/>
          <Node pos="r" depth="2" NCoef="0" IVar="-1" Cut="0.0000000000000000e+00" cType="1" res="-3.9942087605595589e-03" rms="3.4591799974441528e-01" purity="1.7485387623310089e-01" nType="-99"/>
        </Node>
        <Node pos="r" depth="1" NCoef="0" IVar="3" Cut="2.7192006111145020e+00" cType="1" res="1.5146146714687347e-01" rms="4.4488435983657837e-01" purity="6.0366410017013550e-01" nType="0">
          <Node pos="l" depth="2" NCoef="0" IVar="-1" Cut="0.0000000000000000e+00" cType="1" res="1.1226634960621595e-03" rms="4.4724026322364807e-01" purity="6.8861752748489380e-01" nType="-99"/>
          <Node pos="r" depth="2" NCoef="0" IVar="-1" Cut="0.0000000000000000e+00" cType="1" res="-6.9683091714978218e-03" rms="2.3868124186992645e-01" purity="6.1824552714824677e-02" nType="-99"/>
        </Node>
      </Node>
    </BinaryTree>
    <BinaryTree type="DecisionTree" boostWeight="1.0000000000000000e+00" itree="139">
      <Node pos="s" depth="0" NCoef="0" IVar="1" Cut="6.7890220642089844e+01" cType="1" res="3.4616328775882721e-02" rms="4.6171393990516663e-01" purity="4.7222536802291870e-01" nType="0">
        <Node pos="l" depth="1" NCoef="0" IVar="3" Cut="6.8126076459884644e-01" cType="1" res="-8.1875838339328766e-02" rms="4.4653049111366272e-01" purity="3.2880797982215881e-01" nType="0">
          <Node pos="l" depth="2" NCoef="0" IVar="-1" Cut="0.0000000000000000e+00" cType="1" res="5.7899625971913338e-04" rms="4.7173532843589783e-01" purity="5.7598632574081421e-01" nType="-99"/>
          <Node pos="r" depth="2" NCoef="0" IVar="-1" Cut="0.0000000000000000e+00" cType="1" res="-1.8978966400027275e-03" rms="4.2002782225608826e-01" purity="2.4321381747722626e-01" nType="-99"/>
        </Node>
        <Node pos="r" depth="1" NCoef="0" IVar="7" Cut="2.1429314613342285e+00" cType="1" res="8.7887682020664215e-02" rms="4.5874008536338806e-01" purity="5.3780949115753174e-01" nType="0">
          <Node pos="l" depth="2" NCoef="0" IVar="-1" Cut="0.0000000000000000e+00" cType="1" res="8.1791385309770703e-04" rms="4.6327677369117737e-01" purity="6.1288541555404663e-01" nType="-99"/>
          <Node pos="r" depth="2" NCoef="0" IVar="-1" Cut="0.0000000000000000e+00" cType="1" res="-3.5730288363993168e-03" rms="3.2706135511398315e-01" purity="1.3989737629890442e-01" nType="-99"/>
        </Node>
      </Node>
    </BinaryTree>
    <BinaryTree type="DecisionTree" boostWeight="1.0000000000000000e+00" itree="140">
      <Node pos="s" depth="0" NCoef="0" IVar="6" Cut="2.3095462036132812e+02" cType="1" res="7.6439082622528076e-02" rms="4.6634912490844727e-01" purity="5.1520341634750366e-01" nType="0">
        <Node pos="l" depth="1" NCoef="0" IVar="-1" Cut="0.0000000000000000e+00" cType="1" res="-6.5403864718973637e-03" rms="2.6385292410850525e-01" purity="9.2420324683189392e-02" nType="-99"/>
        <Node pos="r" depth="1" NCoef="0" IVar="7" Cut="1.4838153123855591e+00" cType="1" res="1.0118438303470612e-01" rms="4.6960809826850891e-01" purity="5.4814589023590088e-01" nType="0">
          <Node pos="l" depth="2" NCoef="0" IVar="-1" Cut="0.0000000000000000e+00" cType="1" res="9.9708815105259418e-04" rms="4.5649331808090210e-01" purity="6.4106011390686035e-01" nType="-99"/>
          <Node pos="r" depth="2" NCoef="0" IVar="-1" Cut="0.0000000000000000e+00" cType="1" res="-2.0660618611145765e-04" rms="4.6547716856002808e-01" purity="3.9075911045074463e-01" nType="-99"/>
        </Node>
      </Node>
    </BinaryTree>
    <BinaryTree type="DecisionTree" boostWeight="1.0000000000000000e+00" itree="141">
      <Node pos="s" depth="0" NCoef="0" IVar="0" Cut="9.6981632709503174e-01" cType="1" res="-1.3200159883126616e-03" rms="4.5500472187995911e-01" purity="4.3562439084053040e-01" nType="0">
        <Node pos="l" depth="1" NCoef="0" IVar="1" Cut="9.3862365722656250e+01" cType="1" res="-7.4263773858547211e-02" rms="4.3550658226013184e-01" purity="3.3746686577796936e-01" nType="0">
          <Node pos="l" depth="2" NCoef="0" IVar="-1" Cut="0.0000000000000000e+00" cType="1" res="-2.4256007745862007e-03" rms="3.9013355970382690e-01" purity="2.2524622082710266e-01" nType="-99"/>
          <Node pos="r" depth="2" NCoef="0" IVar="-1" Cut="0.0000000000000000e+00" cType="1" res="3.0773523030802608e-04" rms="4.5642811059951782e-01" purity="4.6478673815727234e-01" nType="-99"/>
        </Node>
        <Node pos="r" depth="1" NCoef="0" IVar="7" Cut="1.5397394895553589e+00" cType="1" res="1.5404769778251648e-01" rms="4.5666217803955078e-01" purity="6.4469647407531738e-01" nType="0">
          <Node pos="l" depth="2" NCoef="0" IVar="-1" Cut="0.0000000000000000e+00" cType="1" res="1.0539860231801867e-03" rms="4.3293756246566772e-01" purity="7.1549510955810547e-01" nType="-99"/>
          <Node pos="r" depth="2" NCoef="0" IVar="-1" Cut="0.0000000000000000e+00" cType="1" res="2.8872158145532012e-04" rms="4.8271846771240234e-01" purity="4.9683415889739990e-01" nType="-99"/>
        </Node>
      </Node>
    </BinaryTree>
    <BinaryTree type="DecisionTree" boostWeight="1.0000000000000000e+00" itree="142">
      <Node pos="s" depth="0" NCoef="0" IVar="0" Cut="9.6904289722442627e-01" cType="1" res="4.0653586387634277e-02" rms="4.5712605118751526e-01" purity="4.7948884963989258e-01" nType="0">
        <Node pos="l" depth="1" NCoef="0" IVar="3" Cut="1.3733233213424683e+00" cType="1" res="-2.7503203600645065e-02" rms="4.4942504167556763e-01" purity="3.7672641873359680e-01" nType="0">
          <Node pos="l" depth="2" NCoef="0" IVar="-1" Cut="0.0000000000000000e+00" cType="1" res="5.5077922297641635e-04" rms="4.7884994745254517e-01" purity="5.6427597999572754e-01" nType="-99"/>
          <Node pos="r" depth="2" NCoef="0" IVar="-1" Cut="0.0000000000000000e+00" cType="1" res="-1.7544637667015195e-03" rms="4.0109309554100037e-01" purity="2.2365820407867432e-01" nType="-99"/>
        </Node>
        <Node pos="r" depth="1" NCoef="0" IVar="7" Cut="1.6191086769104004e+00" cType="1" res="1.6740648448467255e-01" rms="4.4411963224411011e-01" purity="6.7059880495071411e-01" nType="0">
          <Node pos="l" depth="2" NCoef="0" IVar="-1" Cut="0.0000000000000000e+00" cType="1" res="1.2273872271180153e-03" rms="4.1222390532493591e-01" purity="7.5500279664993286e-01" nType="-99"/>
          <Node pos="r" depth="2" NCoef="0" IVar="-1" Cut="0.0000000000000000e+00" cType="1" res="-3.8474934990517795e-04" rms="4.6196743845939636e-01" purity="4.2275145649909973e-01" nType="-99"/>
        </Node>
      </Node>
    </BinaryTree>
    <BinaryTree type="DecisionTree" boostWeight="1.0000000000000000e+00" itree="143">
      <Node pos="s" depth="0" NCoef="0" IVar="6" Cut="2.8324981689453125e+02" cType="1" res="2.0151801407337189e-02" rms="4.5119622349739075e-01" purity="4.6272101998329163e-01" nType="0">
        <Node pos="l" depth="1" NCoef="0" IVar="5" Cut="9.1535025835037231e-01" cType="1" res="-1.5211850404739380e-01" rms="3.8954317569732666e-01" purity="2.0536485314369202e-01" nType="0">
          <Node pos="l" depth="2" NCoef="0" IVar="-1" Cut="0.0000000000000000e+00" cType="1" res="3.8807623786851764e-04" rms="4.5089957118034363e-01" purity="3.6632975935935974e-01" nType="-99"/>
          <Node pos="r" depth="2" NCoef="0" IVar="-1" Cut="0.0000000000000000e+00" cType="1" res="-3.9053405635058880e-03" rms="3.5173246264457703e-01" purity="1.5932986140251160e-01" nType="-99"/>
        </Node>
        <Node pos="r" depth="1" NCoef="0" IVar="0" Cut="9.5860064029693604e-01" cType="1" res="8.2387968897819519e-02" rms="4.5575147867202759e-01" purity="5.5569618940353394e-01" nType="0">
          <Node pos="l" depth="2" NCoef="0" IVar="-1" Cut="0.0000000000000000e+00" cType="1" res="-2.0576933457050472e-04" rms="4.5893678069114685e-01" purity="4.0055125951766968e-01" nType="-99"/>
          <Node pos="r" depth="2" NCoef="0" IVar="-1" Cut="0.0000000000000000e+00" cType="1" res="9.4101869035512209e-04" rms="4.3014854192733765e-01" purity="6.9919407367706299e-01" nType="-99"/>
        </Node>
      </Node>
    </BinaryTree>
    <BinaryTree type="DecisionTree" boostWeight="1.0000000000000000e+00" itree="144">
      <Node pos="s" depth="0" NCoef="0" IVar="0" Cut="9.5470076799392700e-01" cType="1" res="8.9581847190856934e-02" rms="4.6360439062118530e-01" purity="5.3601264953613281e-01" nType="0">
        <Node pos="l" depth="1" NCoef="0" IVar="6" Cut="2.3666139221191406e+02" cType="1" res="-2.4823606014251709e-02" rms="4.6079882979393005e-01" purity="3.6440670490264893e-01" nType="0">
          <Node pos="l" depth="2" NCoef="0" IVar="-1" Cut="0.0000000000000000e+00" cType="1" res="-6.6772503778338432e-03" rms="2.5075420737266541e-01" purity="7.5292460620403290e-02" nType="-99"/>
          <Node pos="r" depth="2" NCoef="0" IVar="-1" Cut="0.0000000000000000e+00" cType="1" res="3.3347103453706950e-05" rms="4.7594118118286133e-01" purity="4.0474930405616760e-01" nType="-99"/>
        </Node>
        <Node pos="r" depth="1" NCoef="0" IVar="1" Cut="6.2668800354003906e+01" cType="1" res="1.7507313191890717e-01" rms="4.4696485996246338e-01" purity="6.6424787044525146e-01" nType="0">
          <Node pos="l" depth="2" NCoef="0" IVar="-1" Cut="0.0000000000000000e+00" cType="1" res="-3.1330241472460330e-04" rms="4.6830421686172485e-01" purity="4.2780897021293640e-01" nType="-99"/>
          <Node pos="r" depth="2" NCoef="0" IVar="-1" Cut="0.0000000000000000e+00" cType="1" res="1.1844577966257930e-03" rms="4.2591705918312073e-01" purity="7.2163581848144531e-01" nType="-99"/>
        </Node>
      </Node>
    </BinaryTree>
    <BinaryTree type="DecisionTree" boostWeight="1.0000000000000000e+00" itree="145">
      <Node pos="s" depth="0" NCoef="0" IVar="6" Cut="3.3613928222656250e+02" cType="1" res="1.7275447025895119e-02" rms="4.5836558938026428e-01" purity="4.5111566781997681e-01" nType="0">
        <Node pos="l" depth="1" NCoef="0" IVar="4" Cut="6.3193655014038086e-01" cType="1" res="-7.4385665357112885e-02" rms="4.3301129341125488e-01" purity="3.1203404068946838e-01" nType="0">
          <Node pos="l" depth="2" NCoef="0" IVar="-1" Cut="0.0000000000000000e+00" cType="1" res="-3.0385302379727364e-03" rms="3.6954262852668762e-01" purity="1.9656251370906830e-01" nType="-99"/>
          <Node pos="r" depth="2" NCoef="0" IVar="-1" Cut="0.0000000000000000e+00" cType="1" res="-1.4453814947046340e-04" rms="4.4972369074821472e-01" purity="3.6946320533752441e-01" nType="-99"/>
        </Node>
        <Node pos="r" depth="1" NCoef="0" IVar="0" Cut="9.7105944156646729e-01" cType="1" res="1.0183019936084747e-01" rms="4.6480876207351685e-01" purity="5.7941454648971558e-01" nType="0">
          <Node pos="l" depth="2" NCoef="0" IVar="-1" Cut="0.0000000000000000e+00" cType="1" res="2.3076252546161413e-04" rms="4.7810021042823792e-01" purity="4.7697338461875916e-01" nType="-99"/>
          <Node pos="r" depth="2" NCoef="0" IVar="-1" Cut="0.0000000000000000e+00" cType="1" res="1.0987388668581843e-03" rms="4.1216626763343811e-01" purity="7.5688058137893677e-01" nType="-99"/>
        </Node>
      </Node>
    </BinaryTree>
    <BinaryTree type="DecisionTree" boostWeight="1.0000000000000000e+00" itree="146">
      <Node pos="s" depth="0" NCoef="0" IVar="3" Cut="2.3216257095336914e+00" cType="1" res="7.0910647511482239e-02" rms="4.5854839682579041e-01" purity="5.1963257789611816e-01" nType="0">
        <Node pos="l" depth="1" NCoef="0" IVar="0" Cut="9.5570659637451172e-01" cType="1" res="1.1073625087738037e-01" rms="4.7104337811470032e-01" purity="5.9494298696517944e-01" nType="0">
          <Node pos="l" depth="2" NCoef="0" IVar="-1" Cut="0.0000000000000000e+00" cType="1" res="4.4508611608762294e-05" rms="4.8388510942459106e-01" purity="4.4706556200981140e-01" nType="-99"/>
          <Node pos="r" depth="2" NCoef="0" IVar="-1" Cut="0.0000000000000000e+00" cType="1" res="9.8753185011446476e-04" rms="4.4454643130302429e-01" purity="7.0787388086318970e-01" nType="-99"/>
        </Node>
        <Node pos="r" depth="1" NCoef="0" IVar="4" Cut="6.5340679883956909e-01" cType="1" res="-1.3896439969539642e-01" rms="3.1088620424270630e-01" purity="1.2275801599025726e-01" nType="0">
          <Node pos="l" depth="2" NCoef="0" IVar="-1" Cut="0.0000000000000000e+00" cType="1" res="-1.1255716672167182e-03" rms="3.8476526737213135e-01" purity="1.9998863339424133e-01" nType="-99"/>
          <Node pos="r" depth="2" NCoef="0" IVar="-1" Cut="0.0000000000000000e+00" cType="1" res="-6.6448003053665161e-03" rms="2.3274554312229156e-01" purity="7.0476904511451721e-02" nType="-99"/>
        </Node>
      </Node>
    </BinaryTree>
    <BinaryTree type="DecisionTree" boostWeight="1.0000000000000000e+00" itree="147">
      <Node pos="s" depth="0" NCoef="0" IVar="3" Cut="1.3438556194305420e+00" cType="1" res="5.8385651558637619e-02" rms="4.5836400985717773e-01" purity="4.9974438548088074e-01" nType="0">
        <Node pos="l" depth="1" NCoef="0" IVar="1" Cut="4.1043472290039062e+01" cType="1" res="1.5169243514537811e-01" rms="4.6313217282295227e-01" purity="6.4777946472167969e-01" nType="0">
          <Node pos="l" depth="2" NCoef="0" IVar="-1" Cut="0.0000000000000000e+00" cType="1" res="-6.4310699235647917e-04" rms="4.5695897936820984e-01" purity="3.6749398708343506e-01" nType="-99"/>
          <Node pos="r" depth="2" NCoef="0" IVar="-1" Cut="0.0000000000000000e+00" cType="1" res="1.0072478326037526e-03" rms="4.5348048210144043e-01" purity="6.9760239124298096e-01" nType="-99"/>
        </Node>
        <Node pos="r" depth="1" NCoef="0" IVar="4" Cut="7.8701204061508179e-01" cType="1" res="-2.2463597357273102e-02" rms="4.3841755390167236e-01" purity="3.7147369980812073e-01" nType="0">
          <Node pos="l" depth="2" NCoef="0" IVar="-1" Cut="0.0000000000000000e+00" cType="1" res="1.0039186599897221e-04" rms="4.4929999113082886e-01" purity="4.1373550891876221e-01" nType="-99"/>
          <Node pos="r" depth="2" NCoef="0" IVar="-1" Cut="0.0000000000000000e+00" cType="1" res="-8.6864540353417397e-03" rms="2.3474706709384918e-01" purity="6.8968906998634338e-02" nType="-99"/>
        </Node>
      </Node>
    </BinaryTree>
    <BinaryTree type="DecisionTree" boostWeight="1.0000000000000000e+00" itree="148">
      <Node pos="s" depth="0" NCoef="0" IVar="3" Cut="2.3334059715270996e+00" cType="1" res="8.7241925299167633e-02" rms="4.5729500055313110e-01" purity="5.3314447402954102e-01" nType="0">
        <Node pos="l" depth="1" NCoef="0" IVar="0" Cut="9.5489364862442017e-01" cType="1" res="1.2362934648990631e-01" rms="4.6786490082740784e-01" purity="6.0629731416702271e-01" nType="0">
          <Node pos="l" depth="2" NCoef="0" IVar="-1" Cut="0.0000000000000000e+00" cType="1" res="2.0454393234103918e-04" rms="4.8919206857681274e-01" purity="4.6297734975814819e-01" nType="-99"/>
          <Node pos="r" depth="2" NCoef="0" IVar="-1" Cut="0.0000000000000000e+00" cType="1" res="1.0291887447237968e-03" rms="4.3557825684547424e-01" purity="7.1933108568191528e-01" nType="-99"/>
        </Node>
        <Node pos="r" depth="1" NCoef="0" IVar="6" Cut="2.7272698974609375e+02" cType="1" res="-1.0175748914480209e-01" rms="3.4018898010253906e-01" purity="1.5318213403224945e-01" nType="0">
          <Node pos="l" depth="2" NCoef="0" IVar="-1" Cut="0.0000000000000000e+00" cType="1" res="-1.8238220363855362e-02" rms="7.0193387567996979e-02" purity="0.0000000000000000e+00" nType="-99"/>
          <Node pos="r" depth="2" NCoef="0" IVar="-1" Cut="0.0000000000000000e+00" cType="1" res="-8.0344948219135404e-04" rms="3.9885753393173218e-01" purity="2.2546657919883728e-01" nType="-99"/>
        </Node>
      </Node>
    </BinaryTree>
    <BinaryTree type="DecisionTree" boostWeight="1.0000000000000000e+00" itree="149">
      <Node pos="s" depth="0" NCoef="0" IVar="0" Cut="9.5701336860656738e-01" cType="1" res="5.6407261639833450e-02" rms="4.5971402525901794e-01" purity="4.9431669712066650e-01" nType="0">
        <Node pos="l" depth="1" NCoef="0" IVar="7" Cut="1.8501048088073730e+00" cType="1" res="-4.1111160069704056e-02" rms="4.3827813863754272e-01" purity="3.4898036718368530e-01" nType="0">
          <Node pos="l" depth="2" NCoef="0" IVar="-1" Cut="0.0000000000000000e+00" cType="1" res="1.0123369429493323e-04" rms="4.6367996931076050e-01" purity="4.2542901635169983e-01" nType="-99"/>
          <Node pos="r" depth="2" NCoef="0" IVar="-1" Cut="0.0000000000000000e+00" cType="1" res="-6.1819944530725479e-03" rms="2.7238649129867554e-01" purity="9.2884905636310577e-02" nType="-99"/>
        </Node>
        <Node pos="r" depth="1" NCoef="0" IVar="1" Cut="7.1648674011230469e+01" cType="1" res="1.4879710972309113e-01" rms="4.6046531200408936e-01" purity="6.3200980424880981e-01" nType="0">
          <Node pos="l" depth="2" NCoef="0" IVar="-1" Cut="0.0000000000000000e+00" cType="1" res="1.1722836643457413e-04" rms="4.7580996155738831e-01" purity="4.8538047075271606e-01" nType="-99"/>
          <Node pos="r" depth="2" NCoef="0" IVar="-1" Cut="0.0000000000000000e+00" cType="1" res="1.1219553416594863e-03" rms="4.4192734360694885e-01" purity="6.9385683536529541e-01" nType="-99"/>
        </Node>
      </Node>
    </BinaryTree>
    <BinaryTree type="DecisionTree" boostWeight="1.0000000000000000e+00" itree="150">
      <Node pos="s" depth="0" NCoef="0" IVar="0" Cut="9.6054416894912720e-01" cType="1" res="6.1762746423482895e-02" rms="4.5602652430534363e-01" purity="5.0504672527313232e-01" nType="0">
        <Node pos="l" depth="1" NCoef="0" IVar="1" Cut="6.9869209289550781e+01" cType="1" res="-1.8985258415341377e-02" rms="4.5156070590019226e-01" purity="3.7828403711318970e-01" nType="0">
          <Node pos="l" depth="2" NCoef="0" IVar="-1" Cut="0.0000000000000000e+00" cType="1" res="-1.9039456965401769e-03" rms="4.0458196401596069e-01" purity="2.2833675146102905e-01" nType="-99"/>
          <Node pos="r" depth="2" NCoef="0" IVar="-1" Cut="0.0000000000000000e+00" cType="1" res="3.5088037839159369e-04" rms="4.6235081553459167e-01" purity="4.5668381452560425e-01" nType="-99"/>
        </Node>
        <Node pos="r" depth="1" NCoef="0" IVar="6" Cut="2.9942132568359375e+02" cType="1" res="1.5772487223148346e-01" rms="4.4251498579978943e-01" purity="6.5569341182708740e-01" nType="0">
          <Node pos="l" depth="2" NCoef="0" IVar="-1" Cut="0.0000000000000000e+00" cType="1" res="-8.0969133705366403e-05" rms="4.6899598836898804e-01" purity="4.2980143427848816e-01" nType="-99"/>
          <Node pos="r" depth="2" NCoef="0" IVar="-1" Cut="0.0000000000000000e+00" cType="1" res="1.1263756314292550e-03" rms="4.1402873396873474e-01" purity="7.4325293302536011e-01" nType="-99"/>
        </Node>
      </Node>
    </BinaryTree>
    <BinaryTree type="DecisionTree" boostWeight="1.0000000000000000e+00" itree="151">
      <Node pos="s" depth="0" NCoef="0" IVar="8" Cut="1.2969819641113281e+02" cType="1" res="8.1039667129516602e-03" rms="4.5845237374305725e-01" purity="4.4229134917259216e-01" nType="0">
        <Node pos="l" depth="1" NCoef="0" IVar="8" Cut="1.0999608612060547e+02" cType="1" res="6.7307308316230774e-02" rms="4.5979019999504089e-01" purity="5.0815325975418091e-01" nType="0">
          <Node pos="l" depth="2" NCoef="0" IVar="-1" Cut="0.0000000000000000e+00" cType="1" res="-2.7873393264599144e-04" rms="4.5138630270957947e-01" purity="3.9291897416114807e-01" nType="-99"/>
          <Node pos="r" depth="2" NCoef="0" IVar="-1" Cut="0.0000000000000000e+00" cType="1" res="9.3080865917727351e-04" rms="4.4925108551979065e-01" purity="6.1045914888381958e-01" nType="-99"/>
        </Node>
        <Node pos="r" depth="1" NCoef="0" IVar="5" Cut="1.3802821636199951e+00" cType="1" res="-1.3210177421569824e-01" rms="4.2345139384269714e-01" purity="2.8631684184074402e-01" nType="0">
          <Node pos="l" depth="2" NCoef="0" IVar="-1" Cut="0.0000000000000000e+00" cType="1" res="-5.8928795624524355e-04" rms="4.3866541981697083e-01" purity="3.5421800613403320e-01" nType="-99"/>
          <Node pos="r" depth="2" NCoef="0" IVar="-1" Cut="0.0000000000000000e+00" cType="1" res="-1.1814477853477001e-02" rms="2.6371976733207703e-01" purity="6.9200873374938965e-02" nType="-99"/>
        </Node>
      </Node>
    </BinaryTree>
    <BinaryTree type="DecisionTree" boostWeight="1.0000000000000000e+00" itree="152">
      <Node pos="s" depth="0" NCoef="0" IVar="3" Cut="1.5551991462707520e+00" cType="1" res="7.0750370621681213e-02" rms="4.5799916982650757e-01" purity="5.1254564523696899e-01" nType="0">
        <Node pos="l" depth="1" NCoef="0" IVar="8" Cut="9.9518203735351562e+01" cType="1" res="1.6051118075847626e-01" rms="4.5717042684555054e-01" purity="6.5865653753280640e-01" nType="0">
          <Node pos="l" depth="2" NCoef="0" IVar="-1" Cut="0.0000000000000000e+00" cType="1" res="-6.9830864958930761e-05" rms="4.8652103543281555e-01" purity="4.2961630225181580e-01" nType="-99"/>
          <Node pos="r" depth="2" NCoef="0" IVar="-1" Cut="0.0000000000000000e+00" cType="1" res="1.0259440168738365e-03" rms="4.4183400273323059e-01" purity="7.0905405282974243e-01" nType="-99"/>
        </Node>
        <Node pos="r" depth="1" NCoef="0" IVar="5" Cut="1.5671339035034180e+00" cType="1" res="-4.1967410594224930e-02" rms="4.3346595764160156e-01" purity="3.2906582951545715e-01" nType="0">
          <Node pos="l" depth="2" NCoef="0" IVar="-1" Cut="0.0000000000000000e+00" cType="1" res="-1.3396913418546319e-03" rms="4.0242543816566467e-01" purity="2.5886869430541992e-01" nType="-99"/>
          <Node pos="r" depth="2" NCoef="0" IVar="-1" Cut="0.0000000000000000e+00" cType="1" res="1.1432372266426682e-03" rms="4.6665266156196594e-01" purity="5.7839763164520264e-01" nType="-99"/>
        </Node>
      </Node>
    </BinaryTree>
    <BinaryTree type="DecisionTree" boostWeight="1.0000000000000000e+00" itree="153">
      <Node pos="s" depth="0" NCoef="0" IVar="0" Cut="9.6701246500015259e-01" cType="1" res="8.0597124993801117e-02" rms="4.6106329560279846e-01" purity="5.1686120033264160e-01" nType="0">
        <Node pos="l" depth="1" NCoef="0" IVar="8" Cut="1.3703506469726562e+02" cType="1" res="2.2149188444018364e-02" rms="4.6190521121025085e-01" purity="4.2199885845184326e-01" nType="0">
          <Node pos="l" depth="2" NCoef="0" IVar="-1" Cut="0.0000000000000000e+00" cType="1" res="5.0583248957991600e-04" rms="4.7270563244819641e-01" purity="4.6675091981887817e-01" nType="-99"/>
          <Node pos="r" depth="2" NCoef="0" IVar="-1" Cut="0.0000000000000000e+00" cType="1" res="-1.4419327490031719e-03" rms="3.9680659770965576e-01" purity="2.8140681982040405e-01" nType="-99"/>
        </Node>
        <Node pos="r" depth="1" NCoef="0" IVar="3" Cut="1.8640947341918945e+00" cType="1" res="1.8037202954292297e-01" rms="4.4211560487747192e-01" purity="6.7879813909530640e-01" nType="0">
          <Node pos="l" depth="2" NCoef="0" IVar="-1" Cut="0.0000000000000000e+00" cType="1" res="1.1108763283118606e-03" rms="4.1847652196884155e-01" purity="7.6115721464157104e-01" nType="-99"/>
          <Node pos="r" depth="2" NCoef="0" IVar="-1" Cut="0.0000000000000000e+00" cType="1" res="6.0541310813277960e-04" rms="4.8008513450622559e-01" purity="4.7663936018943787e-01" nType="-99"/>
        </Node>
      </Node>
    </BinaryTree>
    <BinaryTree type="DecisionTree" boostWeight="1.0000000000000000e+00" itree="154">
      <Node pos="s" depth="0" NCoef="0" IVar="6" Cut="3.1715997314453125e+02" cType="1" res="7.3862992227077484e-02" rms="4.5605474710464478e-01" purity="5.1725965738296509e-01" nType="0">
        <Node pos="l" depth="1" NCoef="0" IVar="8" Cut="9.2911613464355469e+01" cType="1" res="-3.1104940921068192e-02" rms="4.4372200965881348e-01" purity="3.5296595096588135e-01" nType="0">
          <Node pos="l" depth="2" NCoef="0" IVar="-1" Cut="0.0000000000000000e+00" cType="1" res="-9.2048840597271919e-03" rms="2.4544888734817505e-01" purity="6.0629561543464661e-02" nType="-99"/>
          <Node pos="r" depth="2" NCoef="0" IVar="-1" Cut="0.0000000000000000e+00" cType="1" res="1.0787592327687889e-04" rms="4.5519497990608215e-01" purity="4.0224418044090271e-01" nType="-99"/>
        </Node>
        <Node pos="r" depth="1" NCoef="0" IVar="3" Cut="2.4630634784698486e+00" cType="1" res="1.4912442862987518e-01" rms="4.4986432790756226e-01" purity="6.3505733013153076e-01" nType="0">
          <Node pos="l" depth="2" NCoef="0" IVar="-1" Cut="0.0000000000000000e+00" cType="1" res="9.7419496160000563e-04" rms="4.5051184296607971e-01" purity="6.8910676240921021e-01" nType="-99"/>
          <Node pos="r" depth="2" NCoef="0" IVar="-1" Cut="0.0000000000000000e+00" cType="1" res="-1.9392371177673340e-03" rms="3.6061489582061768e-01" purity="1.7149078845977783e-01" nType="-99"/>
        </Node>
      </Node>
    </BinaryTree>
    <BinaryTree type="DecisionTree" boostWeight="1.0000000000000000e+00" itree="155">
      <Node pos="s" depth="0" NCoef="0" IVar="7" Cut="2.1802434921264648e+00" cType="1" res="1.0449127852916718e-01" rms="4.5731532573699951e-01" purity="5.4958087205886841e-01" nType="0">
        <Node pos="l" depth="1" NCoef="0" IVar="1" Cut="1.0073847198486328e+02" cType="1" res="1.2936803698539734e-01" rms="4.6000471711158752e-01" purity="5.8567786216735840e-01" nType="0">
          <Node pos="l" depth="2" NCoef="0" IVar="-1" Cut="0.0000000000000000e+00" cType="1" res="4.5529552153311670e-04" rms="4.7316801548004150e-01" purity="4.8909682035446167e-01" nType="-99"/>
          <Node pos="r" depth="2" NCoef="0" IVar="-1" Cut="0.0000000000000000e+00" cType="1" res="1.2105894275009632e-03" rms="4.1774782538414001e-01" purity="7.3560780286788940e-01" nType="-99"/>
        </Node>
        <Node pos="r" depth="1" NCoef="0" IVar="-1" Cut="0.0000000000000000e+00" cType="1" res="-4.1969921439886093e-03" rms="2.9511928558349609e-01" purity="1.2474084645509720e-01" nType="-99"/>
      </Node>
    </BinaryTree>
    <BinaryTree type="DecisionTree" boostWeight="1.0000000000000000e+00" itree="156">
      <Node pos="s" depth="0" NCoef="0" IVar="3" Cut="1.1953748464584351e+00" cType="1" res="2.2728255018591881e-02" rms="4.5174926519393921e-01" purity="4.5901495218276978e-01" nType="0">
        <Node pos="l" depth="1" NCoef="0" IVar="6" Cut="3.0330700683593750e+02" cType="1" res="1.4682698249816895e-01" rms="4.4852736592292786e-01" purity="6.5579682588577271e-01" nType="0">
          <Node pos="l" depth="2" NCoef="0" IVar="-1" Cut="0.0000000000000000e+00" cType="1" res="-1.0012398706749082e-03" rms="4.5993039011955261e-01" purity="3.2833659648895264e-01" nType="-99"/>
          <Node pos="r" depth="2" NCoef="0" IVar="-1" Cut="0.0000000000000000e+00" cType="1" res="1.0689522605389357e-03" rms="4.1804605722427368e-01" purity="7.5684750080108643e-01" nType="-99"/>
        </Node>
        <Node pos="r" depth="1" NCoef="0" IVar="7" Cut="2.2763631343841553e+00" cType="1" res="-6.1068896204233170e-02" rms="4.3429821729660034e-01" purity="3.2613879442214966e-01" nType="0">
          <Node pos="l" depth="2" NCoef="0" IVar="-1" Cut="0.0000000000000000e+00" cType="1" res="-2.8543936787173152e-04" rms="4.5527324080467224e-01" purity="3.7298506498336792e-01" nType="-99"/>
          <Node pos="r" depth="2" NCoef="0" IVar="-1" Cut="0.0000000000000000e+00" cType="1" res="-2.0059904083609581e-02" rms="9.0244039893150330e-02" purity="0.0000000000000000e+00" nType="-99"/>
        </Node>
      </Node>
    </BinaryTree>
    <BinaryTree type="DecisionTree" boostWeight="1.0000000000000000e+00" itree="157">
      <Node pos="s" depth="0" NCoef="0" IVar="0" Cut="9.6039831638336182e-01" cType="1" res="5.7505104690790176e-02" rms="4.5848882198333740e-01" purity="4.9790593981742859e-01" nType="0">
        <Node pos="l" depth="1" NCoef="0" IVar="1" Cut="4.7366710662841797e+01" cType="1" res="-2.5316461920738220e-02" rms="4.5243325829505920e-01" purity="3.6842605471611023e-01" nType="0">
          <Node pos="l" depth="2" NCoef="0" IVar="-1" Cut="0.0000000000000000e+00" cType="1" res="-8.0134021118283272e-03" rms="2.4968805909156799e-01" purity="7.4983023107051849e-02" nType="-99"/>
          <Node pos="r" depth="2" NCoef="0" IVar="-1" Cut="0.0000000000000000e+00" cType="1" res="1.8904898024629802e-04" rms="4.6705651283264160e-01" purity="4.2505553364753723e-01" nType="-99"/>
        </Node>
        <Node pos="r" depth="1" NCoef="0" IVar="3" Cut="1.1599743366241455e+00" cType="1" res="1.5924187004566193e-01" rms="4.4520959258079529e-01" purity="6.5695708990097046e-01" nType="0">
          <Node pos="l" depth="2" NCoef="0" IVar="-1" Cut="0.0000000000000000e+00" cType="1" res="1.2385277077555656e-03" rms="3.8033372163772583e-01" purity="8.1368559598922729e-01" nType="-99"/>
          <Node pos="r" depth="2" NCoef="0" IVar="-1" Cut="0.0000000000000000e+00" cType="1" res="5.0825101789087057e-04" rms="4.7233179211616516e-01" purity="5.3284955024719238e-01" nType="-99"/>
        </Node>
      </Node>
    </BinaryTree>
    <BinaryTree type="DecisionTree" boostWeight="1.0000000000000000e+00" itree="158">
      <Node pos="s" depth="0" NCoef="0" IVar="0" Cut="9.5512980222702026e-01" cType="1" res="8.9261889457702637e-02" rms="4.5911639928817749e-01" purity="5.2625280618667603e-01" nType="0">
        <Node pos="l" depth="1" NCoef="0" IVar="8" Cut="1.4444958496093750e+02" cType="1" res="-5.2833170630037785e-03" rms="4.4539731740951538e-01" purity="3.8172590732574463e-01" nType="0">
          <Node pos="l" depth="2" NCoef="0" IVar="-1" Cut="0.0000000000000000e+00" cType="1" res="4.0329433977603912e-04" rms="4.5818448066711426e-01" purity="4.4746392965316772e-01" nType="-99"/>
          <Node pos="r" depth="2" NCoef="0" IVar="-1" Cut="0.0000000000000000e+00" cType="1" res="-1.0509883053600788e-02" rms="2.1807451546192169e-01" purity="4.7735050320625305e-02" nType="-99"/>
        </Node>
        <Node pos="r" depth="1" NCoef="0" IVar="6" Cut="2.9019412231445312e+02" cType="1" res="1.7005658149719238e-01" rms="4.5522049069404602e-01" purity="6.4975988864898682e-01" nType="0">
          <Node pos="l" depth="2" NCoef="0" IVar="-1" Cut="0.0000000000000000e+00" cType="1" res="-2.3211458028526977e-05" rms="4.7339326143264771e-01" purity="4.0657928586006165e-01" nType="-99"/>
          <Node pos="r" depth="2" NCoef="0" IVar="-1" Cut="0.0000000000000000e+00" cType="1" res="1.1621398152783513e-03" rms="4.3669807910919189e-01" purity="7.2208410501480103e-01" nType="-99"/>
        </Node>
      </Node>
    </BinaryTree>
    <BinaryTree type="DecisionTree" boostWeight="1.0000000000000000e+00" itree="159">
      <Node pos="s" depth="0" NCoef="0" IVar="6" Cut="3.2615588378906250e+02" cType="1" res="4.6931583434343338e-02" rms="4.4858288764953613e-01" purity="4.9395492672920227e-01" nType="0">
        <Node pos="l" depth="1" NCoef="0" IVar="0" Cut="9.4315987825393677e-01" cType="1" res="-8.4843635559082031e-02" rms="4.1946285963058472e-01" purity="2.9759150743484497e-01" nType="0">
          <Node pos="l" depth="2" NCoef="0" IVar="-1" Cut="0.0000000000000000e+00" cType="1" res="-7.8884260728955269e-03" rms="2.4688236415386200e-01" purity="6.1167381703853607e-02" nType="-99"/>
          <Node pos="r" depth="2" NCoef="0" IVar="-1" Cut="0.0000000000000000e+00" cType="1" res="-8.3514540165197104e-05" rms="4.5987400412559509e-01" purity="4.0732720494270325e-01" nType="-99"/>
        </Node>
        <Node pos="r" depth="1" NCoef="0" IVar="3" Cut="1.1210892200469971e+00" cType="1" res="1.3841286301612854e-01" rms="4.4536617398262024e-01" purity="6.3027477264404297e-01" nType="0">
          <Node pos="l" depth="2" NCoef="0" IVar="-1" Cut="0.0000000000000000e+00" cType="1" res="1.1729992693290114e-03" rms="3.9266538619995117e-01" purity="8.0171793699264526e-01" nType="-99"/>
          <Node pos="r" depth="2" NCoef="0" IVar="-1" Cut="0.0000000000000000e+00" cType="1" res="3.1882463372312486e-04" rms="4.5885279774665833e-01" purity="5.0133436918258667e-01" nType="-99"/>
        </Node>
      </Node>
    </BinaryTree>
    <BinaryTree type="DecisionTree" boostWeight="1.0000000000000000e+00" itree="160">
      <Node pos="s" depth="0" NCoef="0" IVar="3" Cut="1.4700579643249512e+00" cType="1" res="6.9469541311264038e-02" rms="4.5473900437355042e-01" purity="5.1173788309097290e-01" nType="0">
        <Node pos="l" depth="1" NCoef="0" IVar="6" Cut="2.9099432373046875e+02" cType="1" res="1.8326137959957123e-01" rms="4.4645348191261292e-01" purity="6.8413758277893066e-01" nType="0">
          <Node pos="l" depth="2" NCoef="0" IVar="-1" Cut="0.0000000000000000e+00" cType="1" res="2.9445282416418195e-04" rms="4.9347499012947083e-01" purity="4.5661163330078125e-01" nType="-99"/>
          <Node pos="r" depth="2" NCoef="0" IVar="-1" Cut="0.0000000000000000e+00" cType="1" res="1.1264279019087553e-03" rms="4.2023578286170959e-01" purity="7.5572007894515991e-01" nType="-99"/>
        </Node>
        <Node pos="r" depth="1" NCoef="0" IVar="4" Cut="6.3405686616897583e-01" cType="1" res="-5.9651251882314682e-02" rms="4.2883008718490601e-01" purity="3.1611412763595581e-01" nType="0">
          <Node pos="l" depth="2" NCoef="0" IVar="-1" Cut="0.0000000000000000e+00" cType="1" res="3.8840190973132849e-04" rms="4.5551753044128418e-01" purity="4.3361124396324158e-01" nType="-99"/>
          <Node pos="r" depth="2" NCoef="0" IVar="-1" Cut="0.0000000000000000e+00" cType="1" res="-1.7628361238166690e-03" rms="3.9637383818626404e-01" purity="2.4161536991596222e-01" nType="-99"/>
        </Node>
      </Node>
    </BinaryTree>
    <BinaryTree type="DecisionTree" boostWeight="1.0000000000000000e+00" itree="161">
      <Node pos="s" depth="0" NCoef="0" IVar="6" Cut="3.0400091552734375e+02" cType="1" res="4.8850692808628082e-02" rms="4.5432615280151367e-01" purity="4.9063667654991150e-01" nType="0">
        <Node pos="l" depth="1" NCoef="0" IVar="0" Cut="9.4342464208602905e-01" cType="1" res="-9.7309768199920654e-02" rms="4.1224843263626099e-01" purity="2.6950833201408386e-01" nType="0">
          <Node pos="l" depth="2" NCoef="0" IVar="-1" Cut="0.0000000000000000e+00" cType="1" res="-6.4609209075570107e-03" rms="2.5252613425254822e-01" purity="7.2927378118038177e-02" nType="-99"/>
          <Node pos="r" depth="2" NCoef="0" IVar="-1" Cut="0.0000000000000000e+00" cType="1" res="-2.5670308968983591e-04" rms="4.6218949556350708e-01" purity="3.7622728943824768e-01" nType="-99"/>
        </Node>
        <Node pos="r" depth="1" NCoef="0" IVar="3" Cut="2.2737574577331543e+00" cType="1" res="1.1995376646518707e-01" rms="4.5683985948562622e-01" purity="5.9820961952209473e-01" nType="0">
          <Node pos="l" depth="2" NCoef="0" IVar="-1" Cut="0.0000000000000000e+00" cType="1" res="8.7386317318305373e-04" rms="4.5941275358200073e-01" purity="6.7249828577041626e-01" nType="-99"/>
          <Node pos="r" depth="2" NCoef="0" IVar="-1" Cut="0.0000000000000000e+00" cType="1" res="-2.3171501234173775e-03" rms="3.5536244511604309e-01" purity="1.6222892701625824e-01" nType="-99"/>
        </Node>
      </Node>
    </BinaryTree>
    <BinaryTree type="DecisionTree" boostWeight="1.0000000000000000e+00" itree="162">
      <Node pos="s" depth="0" NCoef="0" IVar="6" Cut="3.2852694702148438e+02" cType="1" res="3.2247949391603470e-02" rms="4.5430397987365723e-01" purity="4.7081601619720459e-01" nType="0">
        <Node pos="l" depth="1" NCoef="0" IVar="1" Cut="7.4017059326171875e+01" cType="1" res="-8.8470257818698883e-02" rms="4.1931918263435364e-01" purity="2.9354184865951538e-01" nType="0">
          <Node pos="l" depth="2" NCoef="0" IVar="-1" Cut="0.0000000000000000e+00" cType="1" res="-3.1241807155311108e-03" rms="3.7059995532035828e-01" purity="1.8265730142593384e-01" nType="-99"/>
          <Node pos="r" depth="2" NCoef="0" IVar="-1" Cut="0.0000000000000000e+00" cType="1" res="-1.1949457075388636e-05" rms="4.4221138954162598e-01" purity="3.9598581194877625e-01" nType="-99"/>
        </Node>
        <Node pos="r" depth="1" NCoef="0" IVar="0" Cut="9.5551961660385132e-01" cType="1" res="1.2674589455127716e-01" rms="4.5823541283607483e-01" purity="6.0958570241928101e-01" nType="0">
          <Node pos="l" depth="2" NCoef="0" IVar="-1" Cut="0.0000000000000000e+00" cType="1" res="-9.9890865385532379e-05" rms="4.6290308237075806e-01" purity="4.3442282080650330e-01" nType="-99"/>
          <Node pos="r" depth="2" NCoef="0" IVar="-1" Cut="0.0000000000000000e+00" cType="1" res="1.1244309134781361e-03" rms="4.3121176958084106e-01" purity="7.2556525468826294e-01" nType="-99"/>
        </Node>
      </Node>
    </BinaryTree>
    <BinaryTree type="DecisionTree" boostWeight="1.0000000000000000e+00" itree="163">
      <Node pos="s" depth="0" NCoef="0" IVar="4" Cut="7.7637577056884766e-01" cType="1" res="8.6475521326065063e-02" rms="4.5597350597381592e-01" purity="5.2480757236480713e-01" nType="0">
        <Node pos="l" depth="1" NCoef="0" IVar="3" Cut="2.4729144573211670e+00" cType="1" res="1.1909121274948120e-01" rms="4.5252829790115356e-01" purity="5.6662946939468384e-01" nType="0">
          <Node pos="l" depth="2" NCoef="0" IVar="-1" Cut="0.0000000000000000e+00" cType="1" res="8.8935630628839135e-04" rms="4.6053597331047058e-01" purity="6.3424873352050781e-01" nType="-99"/>
          <Node pos="r" depth="2" NCoef="0" IVar="-1" Cut="0.0000000000000000e+00" cType="1" res="-2.8723520226776600e-03" rms="3.0280867218971252e-01" purity="1.2625564634799957e-01" nType="-99"/>
        </Node>
        <Node pos="r" depth="1" NCoef="0" IVar="4" Cut="8.1434571743011475e-01" cType="1" res="-1.4270904660224915e-01" rms="4.1219541430473328e-01" purity="2.3093247413635254e-01" nType="0">
          <Node pos="l" depth="2" NCoef="0" IVar="-1" Cut="0.0000000000000000e+00" cType="1" res="-2.7103527099825442e-04" rms="4.8246118426322937e-01" purity="3.6745032668113708e-01" nType="-99"/>
          <Node pos="r" depth="2" NCoef="0" IVar="-1" Cut="0.0000000000000000e+00" cType="1" res="-6.2049659900367260e-03" rms="2.9699319601058960e-01" purity="1.0459535568952560e-01" nType="-99"/>
        </Node>
      </Node>
    </BinaryTree>
    <BinaryTree type="DecisionTree" boostWeight="1.0000000000000000e+00" itree="164">
      <Node pos="s" depth="0" NCoef="0" IVar="0" Cut="9.5505821704864502e-01" cType="1" res="5.7681880891323090e-02" rms="4.6136388182640076e-01" purity="4.9252280592918396e-01" nType="0">
        <Node pos="l" depth="1" NCoef="0" IVar="0" Cut="9.2104083299636841e-01" cType="1" res="-2.8377894312143326e-02" rms="4.5215240120887756e-01" purity="3.4255307912826538e-01" nType="0">
          <Node pos="l" depth="2" NCoef="0" IVar="-1" Cut="0.0000000000000000e+00" cType="1" res="-3.9932420477271080e-03" rms="3.2643318176269531e-01" purity="1.5402109920978546e-01" nType="-99"/>
          <Node pos="r" depth="2" NCoef="0" IVar="-1" Cut="0.0000000000000000e+00" cType="1" res="1.2019136920571327e-04" rms="4.6874830126762390e-01" purity="3.8843232393264771e-01" nType="-99"/>
        </Node>
        <Node pos="r" depth="1" NCoef="0" IVar="6" Cut="2.7721609497070312e+02" cType="1" res="1.3264940679073334e-01" rms="4.5619630813598633e-01" purity="6.2316286563873291e-01" nType="0">
          <Node pos="l" depth="2" NCoef="0" IVar="-1" Cut="0.0000000000000000e+00" cType="1" res="-3.7922890624031425e-04" rms="4.7218900918960571e-01" purity="3.6899453401565552e-01" nType="-99"/>
          <Node pos="r" depth="2" NCoef="0" IVar="-1" Cut="0.0000000000000000e+00" cType="1" res="9.2372141079977155e-04" rms="4.4397920370101929e-01" purity="6.7913699150085449e-01" nType="-99"/>
        </Node>
      </Node>
    </BinaryTree>
    <BinaryTree type="DecisionTree" boostWeight="1.0000000000000000e+00" itree="165">
      <Node pos="s" depth="0" NCoef="0" IVar="0" Cut="9.2961496114730835e-01" cType="1" res="5.9302374720573425e-02" rms="4.6429350972175598e-01" purity="4.9189260601997375e-01" nType="0">
        <Node pos="l" depth="1" NCoef="0" IVar="1" Cut="7.5413612365722656e+01" cType="1" res="-9.4004452228546143e-02" rms="4.0882918238639832e-01" purity="2.5946879386901855e-01" nType="0">
          <Node pos="l" depth="2" NCoef="0" IVar="-1" Cut="0.0000000000000000e+00" cType="1" res="-3.2628560438752174e-03" rms="3.4653463959693909e-01" purity="1.5803106129169464e-01" nType="-99"/>
          <Node pos="r" depth="2" NCoef="0" IVar="-1" Cut="0.0000000000000000e+00" cType="1" res="-2.5835732230916619e-04" rms="4.3846383690834045e-01" purity="3.3735683560371399e-01" nType="-99"/>
        </Node>
        <Node pos="r" depth="1" NCoef="0" IVar="4" Cut="6.9346129894256592e-01" cType="1" res="8.9952722191810608e-02" rms="4.6862784028053284e-01" purity="5.3836065530776978e-01" nType="0">
          <Node pos="l" depth="2" NCoef="0" IVar="-1" Cut="0.0000000000000000e+00" cType="1" res="8.7358884047716856e-04" rms="4.6223300695419312e-01" purity="5.9170430898666382e-01" nType="-99"/>
          <Node pos="r" depth="2" NCoef="0" IVar="-1" Cut="0.0000000000000000e+00" cType="1" res="-2.1156211005290970e-05" rms="4.6702522039413452e-01" purity="4.3538200855255127e-01" nType="-99"/>
        </Node>
      </Node>
    </BinaryTree>
    <BinaryTree type="DecisionTree" boostWeight="1.0000000000000000e+00" itree="166">
      <Node pos="s" depth="0" NCoef="0" IVar="0" Cut="9.5950943231582642e-01" cType="1" res="4.0976297110319138e-02" rms="4.5487225055694580e-01" purity="4.7932267189025879e-01" nType="0">
        <Node pos="l" depth="1" NCoef="0" IVar="6" Cut="4.7062478637695312e+02" cType="1" res="-7.6746545732021332e-02" rms="4.2795696854591370e-01" purity="3.0852648615837097e-01" nType="0">
          <Node pos="l" depth="2" NCoef="0" IVar="-1" Cut="0.0000000000000000e+00" cType="1" res="-2.0999433472752571e-03" rms="3.9174765348434448e-01" purity="2.1826027333736420e-01" nType="-99"/>
          <Node pos="r" depth="2" NCoef="0" IVar="-1" Cut="0.0000000000000000e+00" cType="1" res="1.0023115901276469e-03" rms="4.6099266409873962e-01" purity="6.1005455255508423e-01" nType="-99"/>
        </Node>
        <Node pos="r" depth="1" NCoef="0" IVar="3" Cut="9.8649019002914429e-01" cType="1" res="1.6374462842941284e-01" rms="4.4962656497955322e-01" purity="6.5743905305862427e-01" nType="0">
          <Node pos="l" depth="2" NCoef="0" IVar="-1" Cut="0.0000000000000000e+00" cType="1" res="1.3488376280292869e-03" rms="3.5170695185661316e-01" purity="8.4810191392898560e-01" nType="-99"/>
          <Node pos="r" depth="2" NCoef="0" IVar="-1" Cut="0.0000000000000000e+00" cType="1" res="5.0905195530503988e-04" rms="4.8009753227233887e-01" purity="5.3775638341903687e-01" nType="-99"/>
        </Node>
      </Node>
    </BinaryTree>
    <BinaryTree type="DecisionTree" boostWeight="1.0000000000000000e+00" itree="167">
      <Node pos="s" depth="0" NCoef="0" IVar="1" Cut="9.1127685546875000e+01" cType="1" res="3.6073580384254456e-02" rms="4.6515083312988281e-01" purity="4.6758398413658142e-01" nType="0">
        <Node pos="l" depth="1" NCoef="0" IVar="5" Cut="1.6470924615859985e+00" cType="1" res="-5.6226260960102081e-02" rms="4.5740860700607300e-01" purity="3.5462114214897156e-01" nType="0">
          <Node pos="l" depth="2" NCoef="0" IVar="-1" Cut="0.0000000000000000e+00" cType="1" res="-2.5251985061913729e-04" rms="4.6035262942314148e-01" purity="3.8240039348602295e-01" nType="-99"/>
          <Node pos="r" depth="2" NCoef="0" IVar="-1" Cut="0.0000000000000000e+00" cType="1" res="-5.9754331596195698e-03" rms="3.6665838956832886e-01" purity="1.4485163986682892e-01" nType="-99"/>
        </Node>
        <Node pos="r" depth="1" NCoef="0" IVar="3" Cut="1.1772880554199219e+00" cType="1" res="1.2398093193769455e-01" rms="4.5533123612403870e-01" purity="5.7517099380493164e-01" nType="0">
          <Node pos="l" depth="2" NCoef="0" IVar="-1" Cut="0.0000000000000000e+00" cType="1" res="1.2752355542033911e-03" rms="3.6483702063560486e-01" purity="8.3964210748672485e-01" nType="-99"/>
          <Node pos="r" depth="2" NCoef="0" IVar="-1" Cut="0.0000000000000000e+00" cType="1" res="4.2414708877913654e-04" rms="4.7178089618682861e-01" purity="4.6311849355697632e-01" nType="-99"/>
        </Node>
      </Node>
    </BinaryTree>
    <BinaryTree type="DecisionTree" boostWeight="1.0000000000000000e+00" itree="168">
      <Node pos="s" depth="0" NCoef="0" IVar="0" Cut="9.5993530750274658e-01" cType="1" res="3.9896070957183838e-02" rms="4.5382779836654663e-01" purity="4.7931987047195435e-01" nType="0">
        <Node pos="l" depth="1" NCoef="0" IVar="6" Cut="2.5896725463867188e+02" cType="1" res="-4.0999475866556168e-02" rms="4.3861663341522217e-01" purity="3.5360762476921082e-01" nType="0">
          <Node pos="l" depth="2" NCoef="0" IVar="-1" Cut="0.0000000000000000e+00" cType="1" res="-7.4544441886246204e-03" rms="2.4408799409866333e-01" purity="6.7253492772579193e-02" nType="-99"/>
          <Node pos="r" depth="2" NCoef="0" IVar="-1" Cut="0.0000000000000000e+00" cType="1" res="2.9195276511018164e-05" rms="4.6154215931892395e-01" purity="4.2061302065849304e-01" nType="-99"/>
        </Node>
        <Node pos="r" depth="1" NCoef="0" IVar="4" Cut="6.9607663154602051e-01" cType="1" res="1.3575859367847443e-01" rms="4.5288181304931641e-01" purity="6.2829089164733887e-01" nType="0">
          <Node pos="l" depth="2" NCoef="0" IVar="-1" Cut="0.0000000000000000e+00" cType="1" res="1.0423557832837105e-03" rms="4.4054874777793884e-01" purity="6.9329023361206055e-01" nType="-99"/>
          <Node pos="r" depth="2" NCoef="0" IVar="-1" Cut="0.0000000000000000e+00" cType="1" res="8.3344108134042472e-05" rms="4.5115378499031067e-01" purity="4.9937078356742859e-01" nType="-99"/>
        </Node>
      </Node>
    </BinaryTree>
    <BinaryTree type="DecisionTree" boostWeight="1.0000000000000000e+00" itree="169">
      <Node pos="s" depth="0" NCoef="0" IVar="6" Cut="3.3045251464843750e+02" cType="1" res="6.2222711741924286e-02" rms="4.5453447103500366e-01" purity="5.0732237100601196e-01" nType="0">
        <Node pos="l" depth="1" NCoef="0" IVar="2" Cut="1.0675737762451172e+02" cType="1" res="-3.6137107759714127e-02" rms="4.3735110759735107e-01" purity="3.5365465283393860e-01" nType="0">
          <Node pos="l" depth="2" NCoef="0" IVar="-1" Cut="0.0000000000000000e+00" cType="1" res="-9.8116202279925346e-03" rms="2.2608070075511932e-01" purity="6.6681355237960815e-02" nType="-99"/>
          <Node pos="r" depth="2" NCoef="0" IVar="-1" Cut="0.0000000000000000e+00" cType="1" res="8.9751840278040618e-05" rms="4.4542229175567627e-01" purity="3.9954590797424316e-01" nType="-99"/>
        </Node>
        <Node pos="r" depth="1" NCoef="0" IVar="7" Cut="2.1130599975585938e+00" cType="1" res="1.3722741603851318e-01" rms="4.5308390259742737e-01" purity="6.2450236082077026e-01" nType="0">
          <Node pos="l" depth="2" NCoef="0" IVar="-1" Cut="0.0000000000000000e+00" cType="1" res="9.3901384389027953e-04" rms="4.4973915815353394e-01" purity="6.7171454429626465e-01" nType="-99"/>
          <Node pos="r" depth="2" NCoef="0" IVar="-1" Cut="0.0000000000000000e+00" cType="1" res="-4.0248651057481766e-03" rms="3.4584268927574158e-01" purity="1.5109235048294067e-01" nType="-99"/>
        </Node>
      </Node>
    </BinaryTree>
    <BinaryTree type="DecisionTree" boostWeight="1.0000000000000000e+00" itree="170">
      <Node pos="s" depth="0" NCoef="0" IVar="0" Cut="9.7028458118438721e-01" cType="1" res="3.4762609750032425e-02" rms="4.5283675193786621e-01" purity="4.7281116247177124e-01" nType="0">
        <Node pos="l" depth="1" NCoef="0" IVar="6" Cut="2.8698007202148438e+02" cType="1" res="-2.6586705818772316e-02" rms="4.4723364710807800e-01" purity="3.7484043836593628e-01" nType="0">
          <Node pos="l" depth="2" NCoef="0" IVar="-1" Cut="0.0000000000000000e+00" cType="1" res="-2.8423818293958902e-03" rms="3.6648452281951904e-01" purity="1.6863144934177399e-01" nType="-99"/>
          <Node pos="r" depth="2" NCoef="0" IVar="-1" Cut="0.0000000000000000e+00" cType="1" res="2.1966538042761385e-04" rms="4.6908468008041382e-01" purity="4.6790364384651184e-01" nType="-99"/>
        </Node>
        <Node pos="r" depth="1" NCoef="0" IVar="6" Cut="3.8731646728515625e+02" cType="1" res="1.6262415051460266e-01" rms="4.3746894598007202e-01" purity="6.7699748277664185e-01" nType="0">
          <Node pos="l" depth="2" NCoef="0" IVar="-1" Cut="0.0000000000000000e+00" cType="1" res="5.1233102567493916e-04" rms="4.7327965497970581e-01" purity="5.5492985248565674e-01" nType="-99"/>
          <Node pos="r" depth="2" NCoef="0" IVar="-1" Cut="0.0000000000000000e+00" cType="1" res="1.1597682023420930e-03" rms="3.7390285730361938e-01" purity="8.0789285898208618e-01" nType="-99"/>
        </Node>
      </Node>
    </BinaryTree>
    <BinaryTree type="DecisionTree" boostWeight="1.0000000000000000e+00" itree="171">
      <Node pos="s" depth="0" NCoef="0" IVar="6" Cut="2.9294152832031250e+02" cType="1" res="4.7585155814886093e-02" rms="4.6308964490890503e-01" purity="4.7977018356323242e-01" nType="0">
        <Node pos="l" depth="1" NCoef="0" IVar="5" Cut="1.4752759933471680e+00" cType="1" res="-9.2912495136260986e-02" rms="4.2518669366836548e-01" purity="2.4031147360801697e-01" nType="0">
          <Node pos="l" depth="2" NCoef="0" IVar="-1" Cut="0.0000000000000000e+00" cType="1" res="-3.1095843296498060e-03" rms="3.6704617738723755e-01" purity="1.6438817977905273e-01" nType="-99"/>
          <Node pos="r" depth="2" NCoef="0" IVar="-1" Cut="0.0000000000000000e+00" cType="1" res="5.5727217113599181e-04" rms="5.0390738248825073e-01" purity="4.1692584753036499e-01" nType="-99"/>
        </Node>
        <Node pos="r" depth="1" NCoef="0" IVar="7" Cut="2.1922895908355713e+00" cType="1" res="1.0543458908796310e-01" rms="4.6566140651702881e-01" purity="5.7836645841598511e-01" nType="0">
          <Node pos="l" depth="2" NCoef="0" IVar="-1" Cut="0.0000000000000000e+00" cType="1" res="7.7763898298144341e-04" rms="4.6760681271553040e-01" purity="6.1582708358764648e-01" nType="-99"/>
          <Node pos="r" depth="2" NCoef="0" IVar="-1" Cut="0.0000000000000000e+00" cType="1" res="-2.4177974555641413e-03" rms="3.6552134156227112e-01" purity="1.7827460169792175e-01" nType="-99"/>
        </Node>
      </Node>
    </BinaryTree>
    <BinaryTree type="DecisionTree" boostWeight="1.0000000000000000e+00" itree="172">
      <Node pos="s" depth="0" NCoef="0" IVar="1" Cut="6.5630310058593750e+01" cType="1" res="6.6019408404827118e-02" rms="4.5275226235389709e-01" purity="5.0571680068969727e-01" nType="0">
        <Node pos="l" depth="1" NCoef="0" IVar="8" Cut="1.3619535827636719e+02" cType="1" res="-1.0593009740114212e-01" rms="4.2309215664863586e-01" purity="2.9227229952812195e-01" nType="0">
          <Node pos="l" depth="2" NCoef="0" IVar="-1" Cut="0.0000000000000000e+00" cType="1" res="-4.1928436257876456e-04" rms="4.4450640678405762e-01" purity="3.6117994785308838e-01" nType="-99"/>
          <Node pos="r" depth="2" NCoef="0" IVar="-1" Cut="0.0000000000000000e+00" cType="1" res="-2.3113612085580826e-02" rms="1.2434590607881546e-01" purity="0.0000000000000000e+00" nType="-99"/>
        </Node>
        <Node pos="r" depth="1" NCoef="0" IVar="3" Cut="1.5239931344985962e+00" cType="1" res="1.3016971945762634e-01" rms="4.4668823480606079e-01" purity="5.8534795045852661e-01" nType="0">
          <Node pos="l" depth="2" NCoef="0" IVar="-1" Cut="0.0000000000000000e+00" cType="1" res="1.2155129807069898e-03" rms="4.0380138158798218e-01" purity="7.8381776809692383e-01" nType="-99"/>
          <Node pos="r" depth="2" NCoef="0" IVar="-1" Cut="0.0000000000000000e+00" cType="1" res="1.3614269846584648e-04" rms="4.5443886518478394e-01" purity="3.9804542064666748e-01" nType="-99"/>
        </Node>
      </Node>
    </BinaryTree>
    <BinaryTree type="DecisionTree" boostWeight="1.0000000000000000e+00" itree="173">
      <Node pos="s" depth="0" NCoef="0" IVar="0" Cut="9.5951437950134277e-01" cType="1" res="4.5175332576036453e-02" rms="4.6073710918426514e-01" purity="4.7445473074913025e-01" nType="0">
        <Node pos="l" depth="1" NCoef="0" IVar="1" Cut="7.4002693176269531e+01" cType="1" res="-2.1053431555628777e-02" rms="4.4937878847122192e-01" purity="3.6281666159629822e-01" nType="0">
          <Node pos="l" depth="2" NCoef="0" IVar="-1" Cut="0.0000000000000000e+00" cType="1" res="-2.5339059066027403e-03" rms="3.8324874639511108e-01" purity="1.9109131395816803e-01" nType="-99"/>
          <Node pos="r" depth="2" NCoef="0" IVar="-1" Cut="0.0000000000000000e+00" cType="1" res="4.7200376866385341e-04" rms="4.6469742059707642e-01" purity="4.6092531085014343e-01" nType="-99"/>
        </Node>
        <Node pos="r" depth="1" NCoef="0" IVar="3" Cut="1.1823762655258179e+00" cType="1" res="1.2715148925781250e-01" rms="4.6143770217895508e-01" purity="6.1263728141784668e-01" nType="0">
          <Node pos="l" depth="2" NCoef="0" IVar="-1" Cut="0.0000000000000000e+00" cType="1" res="1.1767209507524967e-03" rms="4.0582680702209473e-01" purity="7.7758866548538208e-01" nType="-99"/>
          <Node pos="r" depth="2" NCoef="0" IVar="-1" Cut="0.0000000000000000e+00" cType="1" res="3.8628125912509859e-04" rms="4.7897920012474060e-01" purity="5.0711643695831299e-01" nType="-99"/>
        </Node>
      </Node>
    </BinaryTree>
    <BinaryTree type="DecisionTree" boostWeight="1.0000000000000000e+00" itree="174">
      <Node pos="s" depth="0" NCoef="0" IVar="3" Cut="2.0847344398498535e+00" cType="1" res="6.4934417605400085e-02" rms="4.5307147502899170e-01" purity="5.0606864690780640e-01" nType="0">
        <Node pos="l" depth="1" NCoef="0" IVar="1" Cut="9.2298904418945312e+01" cType="1" res="1.1932542175054550e-01" rms="4.6594792604446411e-01" purity="6.1046808958053589e-01" nType="0">
          <Node pos="l" depth="2" NCoef="0" IVar="-1" Cut="0.0000000000000000e+00" cType="1" res="2.4226850655395538e-04" rms="4.7748667001724243e-01" purity="4.9779939651489258e-01" nType="-99"/>
          <Node pos="r" depth="2" NCoef="0" IVar="-1" Cut="0.0000000000000000e+00" cType="1" res="1.0919449850916862e-03" rms="4.3108046054840088e-01" purity="7.4294126033782959e-01" nType="-99"/>
        </Node>
        <Node pos="r" depth="1" NCoef="0" IVar="0" Cut="9.6165388822555542e-01" cType="1" res="-1.1216814070940018e-01" rms="3.5460385680198669e-01" purity="1.6613356769084930e-01" nType="0">
          <Node pos="l" depth="2" NCoef="0" IVar="-1" Cut="0.0000000000000000e+00" cType="1" res="-9.1800844529643655e-04" rms="3.7092000246047974e-01" purity="2.0255160331726074e-01" nType="-99"/>
          <Node pos="r" depth="2" NCoef="0" IVar="-1" Cut="0.0000000000000000e+00" cType="1" res="-9.5324283465743065e-03" rms="2.2657169401645660e-01" purity="5.9836555272340775e-02" nType="-99"/>
        </Node>
      </Node>
    </BinaryTree>
    <BinaryTree type="DecisionTree" boostWeight="1.0000000000000000e+00" itree="175">
      <Node pos="s" depth="0" NCoef="0" IVar="0" Cut="9.1684216260910034e-01" cType="1" res="8.8071584701538086e-02" rms="4.5768737792968750e-01" purity="5.2556133270263672e-01" nType="0">
        <Node pos="l" depth="1" NCoef="0" IVar="-1" Cut="0.0000000000000000e+00" cType="1" res="-6.2351198866963387e-03" rms="2.6496085524559021e-01" purity="9.6492715179920197e-02" nType="-99"/>
        <Node pos="r" depth="1" NCoef="0" IVar="6" Cut="2.9162991333007812e+02" cType="1" res="1.1204159259796143e-01" rms="4.5952945947647095e-01" purity="5.5682760477066040e-01" nType="0">
          <Node pos="l" depth="2" NCoef="0" IVar="-1" Cut="0.0000000000000000e+00" cType="1" res="-2.0549054897855967e-04" rms="4.4366696476936340e-01" purity="3.4537461400032043e-01" nType="-99"/>
          <Node pos="r" depth="2" NCoef="0" IVar="-1" Cut="0.0000000000000000e+00" cType="1" res="9.6326245693489909e-04" rms="4.5539969205856323e-01" purity="6.3729989528656006e-01" nType="-99"/>
        </Node>
      </Node>
    </BinaryTree>
    <BinaryTree type="DecisionTree" boostWeight="1.0000000000000000e+00" itree="176">
      <Node pos="s" depth="0" NCoef="0" IVar="0" Cut="9.5438617467880249e-01" cType="1" res="6.1568181961774826e-02" rms="4.5496681332588196e-01" purity="5.0057423114776611e-01" nType="0">
        <Node pos="l" depth="1" NCoef="0" IVar="6" Cut="4.1668353271484375e+02" cType="1" res="-3.0166655778884888e-02" rms="4.3758255243301392e-01" purity="3.5365325212478638e-01" nType="0">
          <Node pos="l" depth="2" NCoef="0" IVar="-1" Cut="0.0000000000000000e+00" cType="1" res="-1.2306594289839268e-03" rms="4.1175585985183716e-01" purity="2.5426447391510010e-01" nType="-99"/>
          <Node pos="r" depth="2" NCoef="0" IVar="-1" Cut="0.0000000000000000e+00" cType="1" res="7.9523655585944653e-04" rms="4.5704051852226257e-01" purity="5.8703762292861938e-01" nType="-99"/>
        </Node>
        <Node pos="r" depth="1" NCoef="0" IVar="7" Cut="1.8096909523010254e+00" cType="1" res="1.4122760295867920e-01" rms="4.5476970076560974e-01" purity="6.2815541028976440e-01" nType="0">
          <Node pos="l" depth="2" NCoef="0" IVar="-1" Cut="0.0000000000000000e+00" cType="1" res="1.0519610950723290e-03" rms="4.4213807582855225e-01" purity="6.9821482896804810e-01" nType="-99"/>
          <Node pos="r" depth="2" NCoef="0" IVar="-1" Cut="0.0000000000000000e+00" cType="1" res="-1.1787497205659747e-03" rms="4.3015918135643005e-01" purity="3.1047353148460388e-01" nType="-99"/>
        </Node>
      </Node>
    </BinaryTree>
    <BinaryTree type="DecisionTree" boostWeight="1.0000000000000000e+00" itree="177">
      <Node pos="s" depth="0" NCoef="0" IVar="0" Cut="9.7109764814376831e-01" cType="1" res="3.9105329662561417e-02" rms="4.5810762047767639e-01" purity="4.6626910567283630e-01" nType="0">
        <Node pos="l" depth="1" NCoef="0" IVar="6" Cut="4.0043161010742188e+02" cType="1" res="-1.7454979941248894e-02" rms="4.4791871309280396e-01" purity="3.8419562578201294e-01" nType="0">
          <Node pos="l" depth="2" NCoef="0" IVar="-1" Cut="0.0000000000000000e+00" cType="1" res="-1.0325750336050987e-03" rms="4.1752761602401733e-01" purity="2.8229305148124695e-01" nType="-99"/>
          <Node pos="r" depth="2" NCoef="0" IVar="-1" Cut="0.0000000000000000e+00" cType="1" res="7.2763522621244192e-04" rms="4.7400677204132080e-01" purity="5.8563929796218872e-01" nType="-99"/>
        </Node>
        <Node pos="r" depth="1" NCoef="0" IVar="7" Cut="1.4728828668594360e+00" cType="1" res="1.7480246722698212e-01" rms="4.5378571748733521e-01" purity="6.6317653656005859e-01" nType="0">
          <Node pos="l" depth="2" NCoef="0" IVar="-1" Cut="0.0000000000000000e+00" cType="1" res="1.2426242465153337e-03" rms="4.2216566205024719e-01" purity="7.4549800157546997e-01" nType="-99"/>
          <Node pos="r" depth="2" NCoef="0" IVar="-1" Cut="0.0000000000000000e+00" cType="1" res="3.3773857285268605e-04" rms="4.8642259836196899e-01" purity="4.9383568763732910e-01" nType="-99"/>
        </Node>
      </Node>
    </BinaryTree>
    <BinaryTree type="DecisionTree" boostWeight="1.0000000000000000e+00" itree="178">
      <Node pos="s" depth="0" NCoef="0" IVar="3" Cut="1.4623272418975830e+00" cType="1" res="5.9913124889135361e-02" rms="4.5707213878631592e-01" purity="4.9502220749855042e-01" nType="0">
        <Node pos="l" depth="1" NCoef="0" IVar="0" Cut="9.5454180240631104e-01" cType="1" res="1.4507295191287994e-01" rms="4.5664313435554504e-01" purity="6.4355355501174927e-01" nType="0">
          <Node pos="l" depth="2" NCoef="0" IVar="-1" Cut="0.0000000000000000e+00" cType="1" res="2.3205579782370478e-04" rms="4.7995936870574951e-01" purity="4.8461952805519104e-01" nType="-99"/>
          <Node pos="r" depth="2" NCoef="0" IVar="-1" Cut="0.0000000000000000e+00" cType="1" res="1.1225490598008037e-03" rms="4.2125675082206726e-01" purity="7.5630360841751099e-01" nType="-99"/>
        </Node>
        <Node pos="r" depth="1" NCoef="0" IVar="5" Cut="1.6151322126388550e+00" cType="1" res="-3.0795071274042130e-02" rms="4.3974965810775757e-01" purity="3.3681371808052063e-01" nType="0">
          <Node pos="l" depth="2" NCoef="0" IVar="-1" Cut="0.0000000000000000e+00" cType="1" res="-3.8540376408491284e-05" rms="4.4536921381950378e-01" purity="3.6217984557151794e-01" nType="-99"/>
          <Node pos="r" depth="2" NCoef="0" IVar="-1" Cut="0.0000000000000000e+00" cType="1" res="-6.6168527118861675e-03" rms="3.0536028742790222e-01" purity="1.2207180261611938e-01" nType="-99"/>
        </Node>
      </Node>
    </BinaryTree>
    <BinaryTree type="DecisionTree" boostWeight="1.0000000000000000e+00" itree="179">
      <Node pos="s" depth="0" NCoef="0" IVar="3" Cut="1.4668624401092529e+00" cType="1" res="4.6097408980131149e-02" rms="4.5263099670410156e-01" purity="4.8414424061775208e-01" nType="0">
        <Node pos="l" depth="1" NCoef="0" IVar="2" Cut="1.5437876892089844e+02" cType="1" res="1.3217967748641968e-01" rms="4.5326587557792664e-01" purity="6.4038151502609253e-01" nType="0">
          <Node pos="l" depth="2" NCoef="0" IVar="-1" Cut="0.0000000000000000e+00" cType="1" res="-9.4514805823564529e-04" rms="4.5090839266777039e-01" purity="3.6173740029335022e-01" nType="-99"/>
          <Node pos="r" depth="2" NCoef="0" IVar="-1" Cut="0.0000000000000000e+00" cType="1" res="1.1134501546621323e-03" rms="4.1681841015815735e-01" purity="7.6287579536437988e-01" nType="-99"/>
        </Node>
        <Node pos="r" depth="1" NCoef="0" IVar="0" Cut="9.8016059398651123e-01" cType="1" res="-4.1125901043415070e-02" rms="4.3494346737861633e-01" purity="3.2583597302436829e-01" nType="0">
          <Node pos="l" depth="2" NCoef="0" IVar="-1" Cut="0.0000000000000000e+00" cType="1" res="-1.1281595798209310e-03" rms="4.1741058230400085e-01" purity="2.6120987534523010e-01" nType="-99"/>
          <Node pos="r" depth="2" NCoef="0" IVar="-1" Cut="0.0000000000000000e+00" cType="1" res="9.6324714832007885e-04" rms="4.5565539598464966e-01" purity="6.2673842906951904e-01" nType="-99"/>
        </Node>
      </Node>
    </BinaryTree>
    <BinaryTree type="DecisionTree" boostWeight="1.0000000000000000e+00" itree="180">
      <Node pos="s" depth="0" NCoef="0" IVar="2" Cut="9.9733512878417969e+01" cType="1" res="5.3451199084520340e-02" rms="4.5496305823326111e-01" purity="4.9107220768928528e-01" nType="0">
        <Node pos="l" depth="1" NCoef="0" IVar="-1" Cut="0.0000000000000000e+00" cType="1" res="-7.4573839083313942e-03" rms="2.4806670844554901e-01" purity="7.5537033379077911e-02" nType="-99"/>
        <Node pos="r" depth="1" NCoef="0" IVar="3" Cut="2.4478156566619873e+00" cType="1" res="7.4599049985408783e-02" rms="4.5585057139396667e-01" purity="5.1597684621810913e-01" nType="0">
          <Node pos="l" depth="2" NCoef="0" IVar="-1" Cut="0.0000000000000000e+00" cType="1" res="6.6125969169661403e-04" rms="4.6927928924560547e-01" purity="5.9324938058853149e-01" nType="-99"/>
          <Node pos="r" depth="2" NCoef="0" IVar="-1" Cut="0.0000000000000000e+00" cType="1" res="-2.5450815446674824e-03" rms="3.3559626340866089e-01" purity="1.3382485508918762e-01" nType="-99"/>
        </Node>
      </Node>
    </BinaryTree>
    <BinaryTree type="DecisionTree" boostWeight="1.0000000000000000e+00" itree="181">
      <Node pos="s" depth="0" NCoef="0" IVar="0" Cut="9.4872224330902100e-01" cType="1" res="4.2040113359689713e-02" rms="4.5410570502281189e-01" purity="4.7564044594764709e-01" nType="0">
        <Node pos="l" depth="1" NCoef="0" IVar="4" Cut="6.1774015426635742e-01" cType="1" res="-9.2924967408180237e-02" rms="4.0413254499435425e-01" purity="2.7725377678871155e-01" nType="0">
          <Node pos="l" depth="2" NCoef="0" IVar="-1" Cut="0.0000000000000000e+00" cType="1" res="-5.9370691888034344e-03" rms="2.8106790781021118e-01" purity="1.0387022048234940e-01" nType="-99"/>
          <Node pos="r" depth="2" NCoef="0" IVar="-1" Cut="0.0000000000000000e+00" cType="1" res="-4.2516060057096183e-04" rms="4.2516714334487915e-01" purity="3.3293545246124268e-01" nType="-99"/>
        </Node>
        <Node pos="r" depth="1" NCoef="0" IVar="6" Cut="2.6713452148437500e+02" cType="1" res="1.1851152777671814e-01" rms="4.6297302842140198e-01" purity="5.8804661035537720e-01" nType="0">
          <Node pos="l" depth="2" NCoef="0" IVar="-1" Cut="0.0000000000000000e+00" cType="1" res="-1.1111671483376995e-04" rms="4.6637800335884094e-01" purity="3.6208260059356689e-01" nType="-99"/>
          <Node pos="r" depth="2" NCoef="0" IVar="-1" Cut="0.0000000000000000e+00" cType="1" res="8.7574217468500137e-04" rms="4.5723125338554382e-01" purity="6.3837814331054688e-01" nType="-99"/>
        </Node>
      </Node>
    </BinaryTree>
    <BinaryTree type="DecisionTree" boostWeight="1.0000000000000000e+00" itree="182">
      <Node pos="s" depth="0" NCoef="0" IVar="0" Cut="9.6439254283905029e-01" cType="1" res="6.5586686134338379e-02" rms="4.5677351951599121e-01" purity="5.0205934047698975e-01" nType="0">
        <Node pos="l" depth="1" NCoef="0" IVar="3" Cut="1.4194993972778320e+00" cType="1" res="-1.2606275267899036e-02" rms="4.4983014464378357e-01" purity="3.8201421499252319e-01" nType="0">
          <Node pos="l" depth="2" NCoef="0" IVar="-1" Cut="0.0000000000000000e+00" cType="1" res="5.8433337835595012e-04" rms="4.7884225845336914e-01" purity="5.6126081943511963e-01" nType="-99"/>
          <Node pos="r" depth="2" NCoef="0" IVar="-1" Cut="0.0000000000000000e+00" cType="1" res="-1.5805792063474655e-03" rms="4.0164041519165039e-01" purity="2.2611331939697266e-01" nType="-99"/>
        </Node>
        <Node pos="r" depth="1" NCoef="0" IVar="7" Cut="1.6360583305358887e+00" cType="1" res="1.7401625216007233e-01" rms="4.4399970769882202e-01" purity="6.6852498054504395e-01" nType="0">
          <Node pos="l" depth="2" NCoef="0" IVar="-1" Cut="0.0000000000000000e+00" cType="1" res="1.1376868933439255e-03" rms="4.2062956094741821e-01" purity="7.3480111360549927e-01" nType="-99"/>
          <Node pos="r" depth="2" NCoef="0" IVar="-1" Cut="0.0000000000000000e+00" cType="1" res="1.2476342089939862e-04" rms="4.7941556572914124e-01" purity="4.5294544100761414e-01" nType="-99"/>
        </Node>
      </Node>
    </BinaryTree>
    <BinaryTree type="DecisionTree" boostWeight="1.0000000000000000e+00" itree="183">
      <Node pos="s" depth="0" NCoef="0" IVar="1" Cut="6.1863273620605469e+01" cType="1" res="6.6792540252208710e-02" rms="4.5714563131332397e-01" purity="4.9568066000938416e-01" nType="0">
        <Node pos="l" depth="1" NCoef="0" IVar="8" Cut="1.2522740173339844e+02" cType="1" res="-6.4045980572700500e-02" rms="4.3998935818672180e-01" purity="3.1985750794410706e-01" nType="0">
          <Node pos="l" depth="2" NCoef="0" IVar="-1" Cut="0.0000000000000000e+00" cType="1" res="-5.6609111197758466e-05" rms="4.5486569404602051e-01" purity="3.8133066892623901e-01" nType="-99"/>
          <Node pos="r" depth="2" NCoef="0" IVar="-1" Cut="0.0000000000000000e+00" cType="1" res="-3.0237184837460518e-03" rms="3.8057252764701843e-01" purity="1.9298717379570007e-01" nType="-99"/>
        </Node>
        <Node pos="r" depth="1" NCoef="0" IVar="7" Cut="1.8705368041992188e+00" cType="1" res="1.1659669876098633e-01" rms="4.5370054244995117e-01" purity="5.6260842084884644e-01" nType="0">
          <Node pos="l" depth="2" NCoef="0" IVar="-1" Cut="0.0000000000000000e+00" cType="1" res="1.0503293015062809e-03" rms="4.5496150851249695e-01" purity="6.5699052810668945e-01" nType="-99"/>
          <Node pos="r" depth="2" NCoef="0" IVar="-1" Cut="0.0000000000000000e+00" cType="1" res="-5.3000677144154906e-04" rms="4.0756148099899292e-01" purity="3.1521093845367432e-01" nType="-99"/>
        </Node>
      </Node>
    </BinaryTree>
    <BinaryTree type="DecisionTree" boostWeight="1.0000000000000000e+00" itree="184">
      <Node pos="s" depth="0" NCoef="0" IVar="0" Cut="9.6781563758850098e-01" cType="1" res="5.8347456157207489e-02" rms="4.5521169900894165e-01" purity="4.9289178848266602e-01" nType="0">
        <Node pos="l" depth="1" NCoef="0" IVar="8" Cut="1.2744817352294922e+02" cType="1" res="-3.6482876166701317e-03" rms="4.5678731799125671e-01" purity="3.8685923814773560e-01" nType="0">
          <Node pos="l" depth="2" NCoef="0" IVar="-1" Cut="0.0000000000000000e+00" cType="1" res="3.9994256803765893e-04" rms="4.7267302870750427e-01" purity="4.4522526860237122e-01" nType="-99"/>
          <Node pos="r" depth="2" NCoef="0" IVar="-1" Cut="0.0000000000000000e+00" cType="1" res="-1.3232171768322587e-03" rms="4.0437445044517517e-01" purity="2.7272632718086243e-01" nType="-99"/>
        </Node>
        <Node pos="r" depth="1" NCoef="0" IVar="3" Cut="1.9720243215560913e+00" cType="1" res="1.6163916885852814e-01" rms="4.3330216407775879e-01" purity="6.6955351829528809e-01" nType="0">
          <Node pos="l" depth="2" NCoef="0" IVar="-1" Cut="0.0000000000000000e+00" cType="1" res="1.0820556199178100e-03" rms="4.1403612494468689e-01" purity="7.6240223646163940e-01" nType="-99"/>
          <Node pos="r" depth="2" NCoef="0" IVar="-1" Cut="0.0000000000000000e+00" cType="1" res="-8.9375302195549011e-04" rms="4.3437016010284424e-01" purity="2.8824454545974731e-01" nType="-99"/>
        </Node>
      </Node>
    </BinaryTree>
    <BinaryTree type="DecisionTree" boostWeight="1.0000000000000000e+00" itree="185">
      <Node pos="s" depth="0" NCoef="0" IVar="0" Cut="9.5775771141052246e-01" cType="1" res="8.4126122295856476e-02" rms="4.5601844787597656e-01" purity="5.2063524723052979e-01" nType="0">
        <Node pos="l" depth="1" NCoef="0" IVar="5" Cut="9.5151388645172119e-01" cType="1" res="-2.1993502974510193e-02" rms="4.4135814905166626e-01" purity="3.5840517282485962e-01" nType="0">
          <Node pos="l" depth="2" NCoef="0" IVar="-1" Cut="0.0000000000000000e+00" cType="1" res="-5.0593842752277851e-03" rms="3.2502904534339905e-01" purity="1.0569575428962708e-01" nType="-99"/>
          <Node pos="r" depth="2" NCoef="0" IVar="-1" Cut="0.0000000000000000e+00" cType="1" res="5.9796399000333622e-05" rms="4.5193961262702942e-01" purity="4.0143999457359314e-01" nType="-99"/>
        </Node>
        <Node pos="r" depth="1" NCoef="0" IVar="6" Cut="3.9813516235351562e+02" cType="1" res="1.7721371352672577e-01" rms="4.4827368855476379e-01" purity="6.6294270753860474e-01" nType="0">
          <Node pos="l" depth="2" NCoef="0" IVar="-1" Cut="0.0000000000000000e+00" cType="1" res="7.1885442594066262e-04" rms="4.6616885066032410e-01" purity="5.7394003868103027e-01" nType="-99"/>
          <Node pos="r" depth="2" NCoef="0" IVar="-1" Cut="0.0000000000000000e+00" cType="1" res="1.4009088044986129e-03" rms="3.9741253852844238e-01" purity="8.0179190635681152e-01" nType="-99"/>
        </Node>
      </Node>
    </BinaryTree>
    <BinaryTree type="DecisionTree" boostWeight="1.0000000000000000e+00" itree="186">
      <Node pos="s" depth="0" NCoef="0" IVar="0" Cut="9.7329539060592651e-01" cType="1" res="3.6482680588960648e-02" rms="4.4806939363479614e-01" purity="4.7127592563629150e-01" nType="0">
        <Node pos="l" depth="1" NCoef="0" IVar="3" Cut="1.3075941801071167e+00" cType="1" res="-2.1592963486909866e-02" rms="4.3822327256202698e-01" purity="3.8365700840950012e-01" nType="0">
          <Node pos="l" depth="2" NCoef="0" IVar="-1" Cut="0.0000000000000000e+00" cType="1" res="6.1561737675219774e-04" rms="4.6796554327011108e-01" purity="5.8016622066497803e-01" nType="-99"/>
          <Node pos="r" depth="2" NCoef="0" IVar="-1" Cut="0.0000000000000000e+00" cType="1" res="-1.5779682435095310e-03" rms="3.9142432808876038e-01" purity="2.3546545207500458e-01" nType="-99"/>
        </Node>
        <Node pos="r" depth="1" NCoef="0" IVar="5" Cut="1.4744075536727905e+00" cType="1" res="1.7446123063564301e-01" rms="4.4096234440803528e-01" purity="6.7944443225860596e-01" nType="0">
          <Node pos="l" depth="2" NCoef="0" IVar="-1" Cut="0.0000000000000000e+00" cType="1" res="6.2358769355341792e-04" rms="4.6541148424148560e-01" purity="5.9002083539962769e-01" nType="-99"/>
          <Node pos="r" depth="2" NCoef="0" IVar="-1" Cut="0.0000000000000000e+00" cType="1" res="1.3452359708026052e-03" rms="3.6933338642120361e-01" purity="8.1915861368179321e-01" nType="-99"/>
        </Node>
      </Node>
    </BinaryTree>
    <BinaryTree type="DecisionTree" boostWeight="1.0000000000000000e+00" itree="187">
      <Node pos="s" depth="0" NCoef="0" IVar="4" Cut="7.2415363788604736e-01" cType="1" res="7.2410531342029572e-02" rms="4.5535588264465332e-01" purity="5.1175564527511597e-01" nType="0">
        <Node pos="l" depth="1" NCoef="0" IVar="0" Cut="9.4821858406066895e-01" cType="1" res="1.1327453702688217e-01" rms="4.5019948482513428e-01" purity="5.6470316648483276e-01" nType="0">
          <Node pos="l" depth="2" NCoef="0" IVar="-1" Cut="0.0000000000000000e+00" cType="1" res="-1.3371414388529956e-04" rms="4.4978436827659607e-01" purity="3.5842368006706238e-01" nType="-99"/>
          <Node pos="r" depth="2" NCoef="0" IVar="-1" Cut="0.0000000000000000e+00" cType="1" res="9.9231849890202284e-04" rms="4.3604874610900879e-01" purity="6.7173969745635986e-01" nType="-99"/>
        </Node>
        <Node pos="r" depth="1" NCoef="0" IVar="6" Cut="4.0443652343750000e+02" cType="1" res="-5.5798228830099106e-02" rms="4.4757395982742310e-01" purity="3.4563523530960083e-01" nType="0">
          <Node pos="l" depth="2" NCoef="0" IVar="-1" Cut="0.0000000000000000e+00" cType="1" res="-1.7584669403731823e-03" rms="4.0151131153106689e-01" purity="2.3815885186195374e-01" nType="-99"/>
          <Node pos="r" depth="2" NCoef="0" IVar="-1" Cut="0.0000000000000000e+00" cType="1" res="5.2694848272949457e-04" rms="4.9336591362953186e-01" purity="5.3791934251785278e-01" nType="-99"/>
        </Node>
      </Node>
    </BinaryTree>
    <BinaryTree type="DecisionTree" boostWeight="1.0000000000000000e+00" itree="188">
      <Node pos="s" depth="0" NCoef="0" IVar="0" Cut="9.4205528497695923e-01" cType="1" res="5.2863884717226028e-02" rms="4.5519611239433289e-01" purity="4.8817801475524902e-01" nType="0">
        <Node pos="l" depth="1" NCoef="0" IVar="1" Cut="5.4426567077636719e+01" cType="1" res="-6.2721304595470428e-02" rms="4.1758641600608826e-01" purity="3.0186831951141357e-01" nType="0">
          <Node pos="l" depth="2" NCoef="0" IVar="-1" Cut="0.0000000000000000e+00" cType="1" res="-5.1884111016988754e-03" rms="2.7751591801643372e-01" purity="1.0350882261991501e-01" nType="-99"/>
          <Node pos="r" depth="2" NCoef="0" IVar="-1" Cut="0.0000000000000000e+00" cType="1" res="-9.9949320429004729e-05" rms="4.4228178262710571e-01" purity="3.6733707785606384e-01" nType="-99"/>
        </Node>
        <Node pos="r" depth="1" NCoef="0" IVar="8" Cut="9.2441703796386719e+01" cType="1" res="1.0237062722444534e-01" rms="4.6161651611328125e-01" purity="5.6797707080841064e-01" nType="0">
          <Node pos="l" depth="2" NCoef="0" IVar="-1" Cut="0.0000000000000000e+00" cType="1" res="-1.9953420851379633e-03" rms="4.0640768408775330e-01" purity="2.7588263154029846e-01" nType="-99"/>
          <Node pos="r" depth="2" NCoef="0" IVar="-1" Cut="0.0000000000000000e+00" cType="1" res="7.8683614265173674e-04" rms="4.5891833305358887e-01" purity="5.9625214338302612e-01" nType="-99"/>
        </Node>
      </Node>
    </BinaryTree>
    <BinaryTree type="DecisionTree" boostWeight="1.0000000000000000e+00" itree="189">
      <Node pos="s" depth="0" NCoef="0" IVar="1" Cut="1.1246539306640625e+02" cType="1" res="3.4705359488725662e-02" rms="4.5374238491058350e-01" purity="4.7233062982559204e-01" nType="0">
        <Node pos="l" depth="1" NCoef="0" IVar="2" Cut="1.1965877532958984e+02" cType="1" res="-3.0489418655633926e-02" rms="4.5361778140068054e-01" purity="3.9249205589294434e-01" nType="0">
          <Node pos="l" depth="2" NCoef="0" IVar="-1" Cut="0.0000000000000000e+00" cType="1" res="-4.2815064080059528e-03" rms="3.5758066177368164e-01" purity="1.6697315871715546e-01" nType="-99"/>
          <Node pos="r" depth="2" NCoef="0" IVar="-1" Cut="0.0000000000000000e+00" cType="1" res="1.5906375483609736e-04" rms="4.6095266938209534e-01" purity="4.4914162158966064e-01" nType="-99"/>
        </Node>
        <Node pos="r" depth="1" NCoef="0" IVar="7" Cut="2.1936821937561035e+00" cType="1" res="1.3686874508857727e-01" rms="4.3469694256782532e-01" purity="5.9744161367416382e-01" nType="0">
          <Node pos="l" depth="2" NCoef="0" IVar="-1" Cut="0.0000000000000000e+00" cType="1" res="1.0770682711154222e-03" rms="4.3060240149497986e-01" purity="6.9672155380249023e-01" nType="-99"/>
          <Node pos="r" depth="2" NCoef="0" IVar="-1" Cut="0.0000000000000000e+00" cType="1" res="-4.6558529138565063e-03" rms="2.8995463252067566e-01" purity="1.1019878834486008e-01" nType="-99"/>
        </Node>
      </Node>
    </BinaryTree>
    <BinaryTree type="DecisionTree" boostWeight="1.0000000000000000e+00" itree="190">
      <Node pos="s" depth="0" NCoef="0" IVar="1" Cut="3.5753620147705078e+01" cType="1" res="7.1130149066448212e-02" rms="4.5154860615730286e-01" purity="5.1242536306381226e-01" nType="0">
        <Node pos="l" depth="1" NCoef="0" IVar="-1" Cut="0.0000000000000000e+00" cType="1" res="-1.0101977735757828e-02" rms="2.3447933793067932e-01" purity="5.6771915405988693e-02" nType="-99"/>
        <Node pos="r" depth="1" NCoef="0" IVar="3" Cut="2.5643837451934814e+00" cType="1" res="9.1895714402198792e-02" rms="4.5260673761367798e-01" purity="5.3915977478027344e-01" nType="0">
          <Node pos="l" depth="2" NCoef="0" IVar="-1" Cut="0.0000000000000000e+00" cType="1" res="7.4563833186402917e-04" rms="4.6487155556678772e-01" purity="6.0352468490600586e-01" nType="-99"/>
          <Node pos="r" depth="2" NCoef="0" IVar="-1" Cut="0.0000000000000000e+00" cType="1" res="-3.3502653241157532e-03" rms="2.8645038604736328e-01" purity="1.0753309726715088e-01" nType="-99"/>
        </Node>
      </Node>
    </BinaryTree>
    <BinaryTree type="DecisionTree" boostWeight="1.0000000000000000e+00" itree="191">
      <Node pos="s" depth="0" NCoef="0" IVar="1" Cut="1.0436052703857422e+02" cType="1" res="3.8742698729038239e-02" rms="4.5525211095809937e-01" purity="4.7284010052680969e-01" nType="0">
        <Node pos="l" depth="1" NCoef="0" IVar="1" Cut="3.6597572326660156e+01" cType="1" res="-4.0692996233701706e-02" rms="4.5323354005813599e-01" purity="3.6510923504829407e-01" nType="0">
          <Node pos="l" depth="2" NCoef="0" IVar="-1" Cut="0.0000000000000000e+00" cType="1" res="-5.1198420114815235e-03" rms="2.8405320644378662e-01" purity="1.1914101988077164e-01" nType="-99"/>
          <Node pos="r" depth="2" NCoef="0" IVar="-1" Cut="0.0000000000000000e+00" cType="1" res="-1.2590683763846755e-04" rms="4.6633312106132507e-01" purity="3.9994522929191589e-01" nType="-99"/>
        </Node>
        <Node pos="r" depth="1" NCoef="0" IVar="3" Cut="2.4867081642150879e+00" cType="1" res="1.3587479293346405e-01" rms="4.3857318162918091e-01" purity="6.0457074642181396e-01" nType="0">
          <Node pos="l" depth="2" NCoef="0" IVar="-1" Cut="0.0000000000000000e+00" cType="1" res="1.0218819370493293e-03" rms="4.4312819838523865e-01" purity="7.0276701450347900e-01" nType="-99"/>
          <Node pos="r" depth="2" NCoef="0" IVar="-1" Cut="0.0000000000000000e+00" cType="1" res="-1.2256424874067307e-02" rms="1.8831825256347656e-01" purity="3.4267060458660126e-02" nType="-99"/>
        </Node>
      </Node>
    </BinaryTree>
    <BinaryTree type="DecisionTree" boostWeight="1.0000000000000000e+00" itree="192">
      <Node pos="s" depth="0" NCoef="0" IVar="2" Cut="2.6703063964843750e+02" cType="1" res="5.8078445494174957e-02" rms="4.6192240715026855e-01" purity="4.8688319325447083e-01" nType="0">
        <Node pos="l" depth="1" NCoef="0" IVar="6" Cut="3.7455740356445312e+02" cType="1" res="9.9969871342182159e-02" rms="4.6314418315887451e-01" purity="5.3871065378189087e-01" nType="0">
          <Node pos="l" depth="2" NCoef="0" IVar="-1" Cut="0.0000000000000000e+00" cType="1" res="4.1203002911061049e-04" rms="4.7063595056533813e-01" purity="4.5827141404151917e-01" nType="-99"/>
          <Node pos="r" depth="2" NCoef="0" IVar="-1" Cut="0.0000000000000000e+00" cType="1" res="1.1496110819280148e-03" rms="4.1541934013366699e-01" purity="7.5294756889343262e-01" nType="-99"/>
        </Node>
        <Node pos="r" depth="1" NCoef="0" IVar="5" Cut="1.0040181875228882e+00" cType="1" res="-1.1327478289604187e-01" rms="4.1498088836669922e-01" purity="2.7488744258880615e-01" nType="0">
          <Node pos="l" depth="2" NCoef="0" IVar="-1" Cut="0.0000000000000000e+00" cType="1" res="-8.5488483309745789e-03" rms="2.5877711176872253e-01" purity="6.7317314445972443e-02" nType="-99"/>
          <Node pos="r" depth="2" NCoef="0" IVar="-1" Cut="0.0000000000000000e+00" cType="1" res="-5.2005989709869027e-04" rms="4.4964870810508728e-01" purity="3.5831022262573242e-01" nType="-99"/>
        </Node>
      </Node>
    </BinaryTree>
    <BinaryTree type="DecisionTree" boostWeight="1.0000000000000000e+00" itree="193">
      <Node pos="s" depth="0" NCoef="0" IVar="6" Cut="3.1597653198242188e+02" cType="1" res="8.8863790035247803e-02" rms="4.4890531897544861e-01" purity="5.2786862850189209e-01" nType="0">
        <Node pos="l" depth="1" NCoef="0" IVar="5" Cut="1.3635714054107666e+00" cType="1" res="-4.6363819390535355e-02" rms="4.2980766296386719e-01" purity="3.1680455803871155e-01" nType="0">
          <Node pos="l" depth="2" NCoef="0" IVar="-1" Cut="0.0000000000000000e+00" cType="1" res="-2.1891684737056494e-03" rms="3.8193184137344360e-01" purity="1.9984282553195953e-01" nType="-99"/>
          <Node pos="r" depth="2" NCoef="0" IVar="-1" Cut="0.0000000000000000e+00" cType="1" res="4.2701148777268827e-04" rms="4.6381720900535583e-01" purity="4.6705105900764465e-01" nType="-99"/>
        </Node>
        <Node pos="r" depth="1" NCoef="0" IVar="3" Cut="9.8527139425277710e-01" cType="1" res="1.7207618057727814e-01" rms="4.4007441401481628e-01" purity="6.5774703025817871e-01" nType="0">
          <Node pos="l" depth="2" NCoef="0" IVar="-1" Cut="0.0000000000000000e+00" cType="1" res="1.3177443761378527e-03" rms="3.6608293652534485e-01" purity="8.3117717504501343e-01" nType="-99"/>
          <Node pos="r" depth="2" NCoef="0" IVar="-1" Cut="0.0000000000000000e+00" cType="1" res="7.0961797609925270e-04" rms="4.6293723583221436e-01" purity="5.6425422430038452e-01" nType="-99"/>
        </Node>
      </Node>
    </BinaryTree>
    <BinaryTree type="DecisionTree" boostWeight="1.0000000000000000e+00" itree="194">
      <Node pos="s" depth="0" NCoef="0" IVar="0" Cut="9.5743405818939209e-01" cType="1" res="8.8719457387924194e-02" rms="4.5858314633369446e-01" purity="5.2179318666458130e-01" nType="0">
        <Node pos="l" depth="1" NCoef="0" IVar="1" Cut="7.3483917236328125e+01" cType="1" res="8.9659048244357109e-03" rms="4.5491024851799011e-01" purity="3.9086216688156128e-01" nType="0">
          <Node pos="l" depth="2" NCoef="0" IVar="-1" Cut="0.0000000000000000e+00" cType="1" res="-1.2606140226125717e-03" rms="4.2306095361709595e-01" purity="2.5215870141983032e-01" nType="-99"/>
          <Node pos="r" depth="2" NCoef="0" IVar="-1" Cut="0.0000000000000000e+00" cType="1" res="5.3093698807060719e-04" rms="4.6257361769676208e-01" purity="4.7424843907356262e-01" nType="-99"/>
        </Node>
        <Node pos="r" depth="1" NCoef="0" IVar="4" Cut="7.5778609514236450e-01" cType="1" res="1.7190296947956085e-01" rms="4.4748660922050476e-01" purity="6.5835505723953247e-01" nType="0">
          <Node pos="l" depth="2" NCoef="0" IVar="-1" Cut="0.0000000000000000e+00" cType="1" res="1.0927725816145539e-03" rms="4.3616449832916260e-01" purity="6.9341933727264404e-01" nType="-99"/>
          <Node pos="r" depth="2" NCoef="0" IVar="-1" Cut="0.0000000000000000e+00" cType="1" res="-3.9587842184118927e-04" rms="4.6762600541114807e-01" purity="4.0720561146736145e-01" nType="-99"/>
        </Node>
      </Node>
    </BinaryTree>
    <BinaryTree type="DecisionTree" boostWeight="1.0000000000000000e+00" itree="195">
      <Node pos="s" depth="0" NCoef="0" IVar="3" Cut="1.8823609352111816e+00" cType="1" res="7.5994521379470825e-02" rms="4.4780513644218445e-01" purity="5.2029263973236084e-01" nType="0">
        <Node pos="l" depth="1" NCoef="0" IVar="1" Cut="3.7511360168457031e+01" cType="1" res="1.3960458338260651e-01" rms="4.5565658807754517e-01" purity="6.4010131359100342e-01" nType="0">
          <Node pos="l" depth="2" NCoef="0" IVar="-1" Cut="0.0000000000000000e+00" cType="1" res="-6.0163331218063831e-03" rms="3.0704054236412048e-01" purity="1.2813933193683624e-01" nType="-99"/>
          <Node pos="r" depth="2" NCoef="0" IVar="-1" Cut="0.0000000000000000e+00" cType="1" res="9.3068619025871158e-04" rms="4.5072209835052490e-01" purity="6.7779475450515747e-01" nType="-99"/>
        </Node>
        <Node pos="r" depth="1" NCoef="0" IVar="4" Cut="6.9450986385345459e-01" cType="1" res="-7.5644798576831818e-02" rms="3.8856026530265808e-01" purity="2.3468199372291565e-01" nType="0">
          <Node pos="l" depth="2" NCoef="0" IVar="-1" Cut="0.0000000000000000e+00" cType="1" res="-1.2882174632977694e-04" rms="4.2015790939331055e-01" purity="3.1434300541877747e-01" nType="-99"/>
          <Node pos="r" depth="2" NCoef="0" IVar="-1" Cut="0.0000000000000000e+00" cType="1" res="-4.6097096055746078e-03" rms="3.0511912703514099e-01" purity="1.0746174305677414e-01" nType="-99"/>
        </Node>
      </Node>
    </BinaryTree>
    <BinaryTree type="DecisionTree" boostWeight="1.0000000000000000e+00" itree="196">
      <Node pos="s" depth="0" NCoef="0" IVar="0" Cut="9.5214325189590454e-01" cType="1" res="4.7233741730451584e-02" rms="4.5271879434585571e-01" purity="4.8274582624435425e-01" nType="0">
        <Node pos="l" depth="1" NCoef="0" IVar="8" Cut="9.6617027282714844e+01" cType="1" res="-6.3088826835155487e-02" rms="4.2179328203201294e-01" purity="3.1229215860366821e-01" nType="0">
          <Node pos="l" depth="2" NCoef="0" IVar="-1" Cut="0.0000000000000000e+00" cType="1" res="-1.0144055821001530e-02" rms="2.1755342185497284e-01" purity="5.1046364009380341e-02" nType="-99"/>
          <Node pos="r" depth="2" NCoef="0" IVar="-1" Cut="0.0000000000000000e+00" cType="1" res="-2.1017983090132475e-04" rms="4.3855854868888855e-01" purity="3.6281725764274597e-01" nType="-99"/>
        </Node>
        <Node pos="r" depth="1" NCoef="0" IVar="6" Cut="3.5365133666992188e+02" cType="1" res="1.2773776054382324e-01" rms="4.5752263069152832e-01" purity="6.0712832212448120e-01" nType="0">
          <Node pos="l" depth="2" NCoef="0" IVar="-1" Cut="0.0000000000000000e+00" cType="1" res="2.9007878038100898e-04" rms="4.6993646025657654e-01" purity="4.8288887739181519e-01" nType="-99"/>
          <Node pos="r" depth="2" NCoef="0" IVar="-1" Cut="0.0000000000000000e+00" cType="1" res="1.1233746772632003e-03" rms="4.2543721199035645e-01" purity="7.3385536670684814e-01" nType="-99"/>
        </Node>
      </Node>
    </BinaryTree>
    <BinaryTree type="DecisionTree" boostWeight="1.0000000000000000e+00" itree="197">
      <Node pos="s" depth="0" NCoef="0" IVar="1" Cut="5.5974212646484375e+01" cType="1" res="6.0539048165082932e-02" rms="4.5790398120880127e-01" purity="4.9624150991439819e-01" nType="0">
        <Node pos="l" depth="1" NCoef="0" IVar="3" Cut="7.8159767389297485e-01" cType="1" res="-9.0180896222591400e-02" rms="4.2238914966583252e-01" purity="2.9692444205284119e-01" nType="0">
          <Node pos="l" depth="2" NCoef="0" IVar="-1" Cut="0.0000000000000000e+00" cType="1" res="5.0031783757731318e-04" rms="4.6497270464897156e-01" purity="5.1945704221725464e-01" nType="-99"/>
          <Node pos="r" depth="2" NCoef="0" IVar="-1" Cut="0.0000000000000000e+00" cType="1" res="-3.2739830203354359e-03" rms="3.7406593561172485e-01" purity="1.8662787973880768e-01" nType="-99"/>
        </Node>
        <Node pos="r" depth="1" NCoef="0" IVar="3" Cut="2.9916293621063232e+00" cType="1" res="1.0007628053426743e-01" rms="4.5864462852478027e-01" purity="5.4852694272994995e-01" nType="0">
          <Node pos="l" depth="2" NCoef="0" IVar="-1" Cut="0.0000000000000000e+00" cType="1" res="7.6842575799673796e-04" rms="4.6800938248634338e-01" purity="5.9068942070007324e-01" nType="-99"/>
          <Node pos="r" depth="2" NCoef="0" IVar="-1" Cut="0.0000000000000000e+00" cType="1" res="-5.3246906027197838e-03" rms="2.1954479813575745e-01" purity="6.3567407429218292e-02" nType="-99"/>
        </Node>
      </Node>
    </BinaryTree>
    <BinaryTree type="DecisionTree" boostWeight="1.0000000000000000e+00" itree="198">
      <Node pos="s" depth="0" NCoef="0" IVar="6" Cut="3.1209097290039062e+02" cType="1" res="7.1824043989181519e-02" rms="4.5110499858856201e-01" purity="5.0936508178710938e-01" nType="0">
        <Node pos="l" depth="1" NCoef="0" IVar="1" Cut="4.0376480102539062e+01" cType="1" res="-4.7752201557159424e-02" rms="4.3144249916076660e-01" purity="3.0901578068733215e-01" nType="0">
          <Node pos="l" depth="2" NCoef="0" IVar="-1" Cut="0.0000000000000000e+00" cType="1" res="-8.7284399196505547e-03" rms="2.6081207394599915e-01" purity="6.1925623565912247e-02" nType="-99"/>
          <Node pos="r" depth="2" NCoef="0" IVar="-1" Cut="0.0000000000000000e+00" cType="1" res="-6.3311075791716576e-05" rms="4.4714304804801941e-01" purity="3.5909938812255859e-01" nType="-99"/>
        </Node>
        <Node pos="r" depth="1" NCoef="0" IVar="3" Cut="2.0890426635742188e+00" cType="1" res="1.3957305252552032e-01" rms="4.4792461395263672e-01" purity="6.2287813425064087e-01" nType="0">
          <Node pos="l" depth="2" NCoef="0" IVar="-1" Cut="0.0000000000000000e+00" cType="1" res="1.0118596255779266e-03" rms="4.4070258736610413e-01" purity="7.1784120798110962e-01" nType="-99"/>
          <Node pos="r" depth="2" NCoef="0" IVar="-1" Cut="0.0000000000000000e+00" cType="1" res="-1.6571715241298079e-03" rms="4.0209501981735229e-01" purity="2.0320227742195129e-01" nType="-99"/>
        </Node>
      </Node>
    </BinaryTree>
    <BinaryTree type="DecisionTree" boostWeight="1.0000000000000000e+00" itree="199">
      <Node pos="s" depth="0" NCoef="0" IVar="3" Cut="1.5162454843521118e+00" cType="1" res="6.5198168158531189e-02" rms="4.5295155048370361e-01" purity="5.0356298685073853e-01" nType="0">
        <Node pos="l" depth="1" NCoef="0" IVar="6" Cut="3.0932443237304688e+02" cType="1" res="1.3756513595581055e-01" rms="4.5519396662712097e-01" purity="6.4204126596450806e-01" nType="0">
          <Node pos="l" depth="2" NCoef="0" IVar="-1" Cut="0.0000000000000000e+00" cType="1" res="1.8448640184942633e-04" rms="4.8639461398124695e-01" purity="4.4284769892692566e-01" nType="-99"/>
          <Node pos="r" depth="2" NCoef="0" IVar="-1" Cut="0.0000000000000000e+00" cType="1" res="9.7820104565471411e-04" rms="4.3059232831001282e-01" purity="7.3127806186676025e-01" nType="-99"/>
        </Node>
        <Node pos="r" depth="1" NCoef="0" IVar="1" Cut="1.6852847290039062e+02" cType="1" res="-1.3646475970745087e-02" rms="4.3706309795379639e-01" purity="3.5268926620483398e-01" nType="0">
          <Node pos="l" depth="2" NCoef="0" IVar="-1" Cut="0.0000000000000000e+00" cType="1" res="1.7955404473468661e-04" rms="4.4488984346389771e-01" purity="3.8630199432373047e-01" nType="-99"/>
          <Node pos="r" depth="2" NCoef="0" IVar="-1" Cut="0.0000000000000000e+00" cType="1" res="-6.3308812677860260e-03" rms="2.8106057643890381e-01" purity="1.0874800384044647e-01" nType="-99"/>
        </Node>
      </Node>
    </BinaryTree>
    <BinaryTree type="DecisionTree" boostWeight="1.0000000000000000e+00" itree="200">
      <Node pos="s" depth="0" NCoef="0" IVar="3" Cut="2.1103837490081787e+00" cType="1" res="8.4957525134086609e-02" rms="4.4974586367607117e-01" purity="5.2834165096282959e-01" nType="0">
        <Node pos="l" depth="1" NCoef="0" IVar="0" Cut="9.6552491188049316e-01" cType="1" res="1.3280948996543884e-01" rms="4.5951670408248901e-01" purity="6.2525445222854614e-01" nType="0">
          <Node pos="l" depth="2" NCoef="0" IVar="-1" Cut="0.0000000000000000e+00" cType="1" res="4.7497305786237121e-04" rms="4.7880622744560242e-01" purity="5.2905988693237305e-01" nType="-99"/>
          <Node pos="r" depth="2" NCoef="0" IVar="-1" Cut="0.0000000000000000e+00" cType="1" res="1.1152394581586123e-03" rms="4.1198015213012695e-01" purity="7.6839429140090942e-01" nType="-99"/>
        </Node>
        <Node pos="r" depth="1" NCoef="0" IVar="4" Cut="5.8811211585998535e-01" cType="1" res="-9.1830238699913025e-02" rms="3.6018756031990051e-01" purity="1.7030006647109985e-01" nType="0">
          <Node pos="l" depth="2" NCoef="0" IVar="-1" Cut="0.0000000000000000e+00" cType="1" res="9.2039478477090597e-04" rms="4.7052317857742310e-01" purity="3.4140214323997498e-01" nType="-99"/>
          <Node pos="r" depth="2" NCoef="0" IVar="-1" Cut="0.0000000000000000e+00" cType="1" res="-3.7789014168083668e-03" rms="2.9979971051216125e-01" purity="1.1726440489292145e-01" nType="-99"/>
        </Node>
      </Node>
    </BinaryTree>
    <BinaryTree type="DecisionTree" boostWeight="1.0000000000000000e+00" itree="201">
      <Node pos="s" depth="0" NCoef="0" IVar="1" Cut="9.8447463989257812e+01" cType="1" res="7.9464770853519440e-02" rms="4.5542010664939880e-01" purity="5.0742071866989136e-01" nType="0">
        <Node pos="l" depth="1" NCoef="0" IVar="3" Cut="1.2557945251464844e+00" cType="1" res="1.6552424058318138e-02" rms="4.5800784230232239e-01" purity="4.2702490091323853e-01" nType="0">
          <Node pos="l" depth="2" NCoef="0" IVar="-1" Cut="0.0000000000000000e+00" cType="1" res="5.9835636056959629e-04" rms="4.7705215215682983e-01" purity="5.6074625253677368e-01" nType="-99"/>
          <Node pos="r" depth="2" NCoef="0" IVar="-1" Cut="0.0000000000000000e+00" cType="1" res="-6.9094495847821236e-04" rms="4.2637121677398682e-01" purity="2.9501643776893616e-01" nType="-99"/>
        </Node>
        <Node pos="r" depth="1" NCoef="0" IVar="7" Cut="1.8204644918441772e+00" cType="1" res="1.5339800715446472e-01" rms="4.4103544950485229e-01" purity="6.0190016031265259e-01" nType="0">
          <Node pos="l" depth="2" NCoef="0" IVar="-1" Cut="0.0000000000000000e+00" cType="1" res="1.2892395025119185e-03" rms="4.0789473056793213e-01" purity="7.6441884040832520e-01" nType="-99"/>
          <Node pos="r" depth="2" NCoef="0" IVar="-1" Cut="0.0000000000000000e+00" cType="1" res="1.9586482085287571e-04" rms="4.4904547929763794e-01" purity="3.8290998339653015e-01" nType="-99"/>
        </Node>
      </Node>
    </BinaryTree>
    <BinaryTree type="DecisionTree" boostWeight="1.0000000000000000e+00" itree="202">
      <Node pos="s" depth="0" NCoef="0" IVar="4" Cut="8.1336402893066406e-01" cType="1" res="7.0436708629131317e-02" rms="4.5921543240547180e-01" purity="5.0430577993392944e-01" nType="0">
        <Node pos="l" depth="1" NCoef="0" IVar="8" Cut="1.0102170562744141e+02" cType="1" res="8.9879252016544342e-02" rms="4.6238985657691956e-01" purity="5.2999156713485718e-01" nType="0">
          <Node pos="l" depth="2" NCoef="0" IVar="-1" Cut="0.0000000000000000e+00" cType="1" res="-6.3066062284633517e-04" rms="4.2694914340972900e-01" purity="3.5195586085319519e-01" nType="-99"/>
          <Node pos="r" depth="2" NCoef="0" IVar="-1" Cut="0.0000000000000000e+00" cType="1" res="8.0060336040332913e-04" rms="4.6283003687858582e-01" purity="5.6632238626480103e-01" nType="-99"/>
        </Node>
        <Node pos="r" depth="1" NCoef="0" IVar="-1" Cut="0.0000000000000000e+00" cType="1" res="-3.2757499720901251e-03" rms="3.1564182043075562e-01" purity="1.6182979941368103e-01" nType="-99"/>
      </Node>
    </BinaryTree>
    <BinaryTree type="DecisionTree" boostWeight="1.0000000000000000e+00" itree="203">
      <Node pos="s" depth="0" NCoef="0" IVar="3" Cut="2.3286256790161133e+00" cType="1" res="6.4941003918647766e-02" rms="4.5269036293029785e-01" purity="4.9880081415176392e-01" nType="0">
        <Node pos="l" depth="1" NCoef="0" IVar="8" Cut="8.6075866699218750e+01" cType="1" res="1.0781646519899368e-01" rms="4.7095215320587158e-01" purity="5.8553504943847656e-01" nType="0">
          <Node pos="l" depth="2" NCoef="0" IVar="-1" Cut="0.0000000000000000e+00" cType="1" res="-7.3139253072440624e-03" rms="2.8865066170692444e-01" purity="1.1697599291801453e-01" nType="-99"/>
          <Node pos="r" depth="2" NCoef="0" IVar="-1" Cut="0.0000000000000000e+00" cType="1" res="8.2383566768839955e-04" rms="4.6821537613868713e-01" purity="6.1734342575073242e-01" nType="-99"/>
        </Node>
        <Node pos="r" depth="1" NCoef="0" IVar="8" Cut="1.1276783752441406e+02" cType="1" res="-1.2508587539196014e-01" rms="2.9311022162437439e-01" purity="1.1438914388418198e-01" nType="0">
          <Node pos="l" depth="2" NCoef="0" IVar="-1" Cut="0.0000000000000000e+00" cType="1" res="-1.7913835123181343e-02" rms="8.5107997059822083e-02" purity="0.0000000000000000e+00" nType="-99"/>
          <Node pos="r" depth="2" NCoef="0" IVar="-1" Cut="0.0000000000000000e+00" cType="1" res="-1.8434413941577077e-03" rms="3.3674022555351257e-01" purity="1.6196197271347046e-01" nType="-99"/>
        </Node>
      </Node>
    </BinaryTree>
    <BinaryTree type="DecisionTree" boostWeight="1.0000000000000000e+00" itree="204">
      <Node pos="s" depth="0" NCoef="0" IVar="3" Cut="1.7211521863937378e+00" cType="1" res="7.7957130968570709e-02" rms="4.5134314894676208e-01" purity="5.1209896802902222e-01" nType="0">
        <Node pos="l" depth="1" NCoef="0" IVar="1" Cut="8.6701362609863281e+01" cType="1" res="1.3792410492897034e-01" rms="4.5135539770126343e-01" purity="6.3868331909179688e-01" nType="0">
          <Node pos="l" depth="2" NCoef="0" IVar="-1" Cut="0.0000000000000000e+00" cType="1" res="2.9761012410745025e-04" rms="4.7422653436660767e-01" purity="5.0068181753158569e-01" nType="-99"/>
          <Node pos="r" depth="2" NCoef="0" IVar="-1" Cut="0.0000000000000000e+00" cType="1" res="1.1677244910970330e-03" rms="4.0027385950088501e-01" purity="7.8779339790344238e-01" nType="-99"/>
        </Node>
        <Node pos="r" depth="1" NCoef="0" IVar="4" Cut="6.1592787504196167e-01" cType="1" res="-1.3232941739261150e-02" rms="4.3578642606735229e-01" purity="3.1960564851760864e-01" nType="0">
          <Node pos="l" depth="2" NCoef="0" IVar="-1" Cut="0.0000000000000000e+00" cType="1" res="-2.8979564085602760e-03" rms="3.6066791415214539e-01" purity="1.7182241380214691e-01" nType="-99"/>
          <Node pos="r" depth="2" NCoef="0" IVar="-1" Cut="0.0000000000000000e+00" cType="1" res="2.3798158508725464e-04" rms="4.4800868630409241e-01" purity="3.6181384325027466e-01" nType="-99"/>
        </Node>
      </Node>
    </BinaryTree>
    <BinaryTree type="DecisionTree" boostWeight="1.0000000000000000e+00" itree="205">
      <Node pos="s" depth="0" NCoef="0" IVar="0" Cut="9.8448383808135986e-01" cType="1" res="4.3408270925283432e-02" rms="4.5915737748146057e-01" purity="4.6961596608161926e-01" nType="0">
        <Node pos="l" depth="1" NCoef="0" IVar="1" Cut="5.2595428466796875e+01" cType="1" res="1.4678675681352615e-02" rms="4.5333081483840942e-01" purity="4.3319070339202881e-01" nType="0">
          <Node pos="l" depth="2" NCoef="0" IVar="-1" Cut="0.0000000000000000e+00" cType="1" res="-1.8310773884877563e-03" rms="4.1340288519859314e-01" purity="2.2867600619792938e-01" nType="-99"/>
          <Node pos="r" depth="2" NCoef="0" IVar="-1" Cut="0.0000000000000000e+00" cType="1" res="3.7527873064391315e-04" rms="4.5600816607475281e-01" purity="4.8346197605133057e-01" nType="-99"/>
        </Node>
        <Node pos="r" depth="1" NCoef="0" IVar="-1" Cut="0.0000000000000000e+00" cType="1" res="1.2982451589778066e-03" rms="4.5086336135864258e-01" purity="7.1688824892044067e-01" nType="-99"/>
      </Node>
    </BinaryTree>
    <BinaryTree type="DecisionTree" boostWeight="1.0000000000000000e+00" itree="206">
      <Node pos="s" depth="0" NCoef="0" IVar="0" Cut="9.4749271869659424e-01" cType="1" res="8.7460219860076904e-02" rms="4.5254853367805481e-01" purity="5.2992033958435059e-01" nType="0">
        <Node pos="l" depth="1" NCoef="0" IVar="1" Cut="5.5429698944091797e+01" cType="1" res="-2.4409618228673935e-02" rms="4.4535624980926514e-01" purity="3.4005403518676758e-01" nType="0">
          <Node pos="l" depth="2" NCoef="0" IVar="-1" Cut="0.0000000000000000e+00" cType="1" res="-8.6437305435538292e-03" rms="2.2842317819595337e-01" purity="5.2816867828369141e-02" nType="-99"/>
          <Node pos="r" depth="2" NCoef="0" IVar="-1" Cut="0.0000000000000000e+00" cType="1" res="3.1807765481062233e-04" rms="4.6809050440788269e-01" purity="4.1467025876045227e-01" nType="-99"/>
        </Node>
        <Node pos="r" depth="1" NCoef="0" IVar="6" Cut="3.1009863281250000e+02" cType="1" res="1.4691078662872314e-01" rms="4.4502475857734680e-01" purity="6.3082027435302734e-01" nType="0">
          <Node pos="l" depth="2" NCoef="0" IVar="-1" Cut="0.0000000000000000e+00" cType="1" res="3.5510168527252972e-04" rms="4.7901052236557007e-01" purity="4.4683778285980225e-01" nType="-99"/>
          <Node pos="r" depth="2" NCoef="0" IVar="-1" Cut="0.0000000000000000e+00" cType="1" res="1.0059765772894025e-03" rms="4.2079517245292664e-01" purity="7.1353077888488770e-01" nType="-99"/>
        </Node>
      </Node>
    </BinaryTree>
    <BinaryTree type="DecisionTree" boostWeight="1.0000000000000000e+00" itree="207">
      <Node pos="s" depth="0" NCoef="0" IVar="6" Cut="3.3413571166992188e+02" cType="1" res="6.7453563213348389e-02" rms="4.4976449012756348e-01" purity="5.0640171766281128e-01" nType="0">
        <Node pos="l" depth="1" NCoef="0" IVar="5" Cut="1.6614880561828613e+00" cType="1" res="-2.6773132383823395e-02" rms="4.4336432218551636e-01" purity="3.3785036206245422e-01" nType="0">
          <Node pos="l" depth="2" NCoef="0" IVar="-1" Cut="0.0000000000000000e+00" cType="1" res="-6.6051224712282419e-04" rms="4.3061363697052002e-01" purity="3.0170476436614990e-01" nType="-99"/>
          <Node pos="r" depth="2" NCoef="0" IVar="-1" Cut="0.0000000000000000e+00" cType="1" res="9.8651926964521408e-04" rms="4.7459074854850769e-01" purity="5.4452449083328247e-01" nType="-99"/>
        </Node>
        <Node pos="r" depth="1" NCoef="0" IVar="0" Cut="9.6872091293334961e-01" cType="1" res="1.4141403138637543e-01" rms="4.4083514809608459e-01" purity="6.3870108127593994e-01" nType="0">
          <Node pos="l" depth="2" NCoef="0" IVar="-1" Cut="0.0000000000000000e+00" cType="1" res="4.9771089106798172e-04" rms="4.6208262443542480e-01" purity="5.3729408979415894e-01" nType="-99"/>
          <Node pos="r" depth="2" NCoef="0" IVar="-1" Cut="0.0000000000000000e+00" cType="1" res="1.1621088488027453e-03" rms="3.8625705242156982e-01" purity="7.8696417808532715e-01" nType="-99"/>
        </Node>
      </Node>
    </BinaryTree>
    <BinaryTree type="DecisionTree" boostWeight="1.0000000000000000e+00" itree="208">
      <Node pos="s" depth="0" NCoef="0" IVar="0" Cut="9.4415354728698730e-01" cType="1" res="1.0012502223253250e-01" rms="4.4501060247421265e-01" purity="5.4773271083831787e-01" nType="0">
        <Node pos="l" depth="1" NCoef="0" IVar="2" Cut="1.4349786376953125e+02" cType="1" res="-6.9226905703544617e-02" rms="4.1283026337623596e-01" purity="2.8356990218162537e-01" nType="0">
          <Node pos="l" depth="2" NCoef="0" IVar="-1" Cut="0.0000000000000000e+00" cType="1" res="5.9178483206778765e-04" rms="4.6506503224372864e-01" purity="4.3652543425559998e-01" nType="-99"/>
          <Node pos="r" depth="2" NCoef="0" IVar="-1" Cut="0.0000000000000000e+00" cType="1" res="-2.0320520270615816e-03" rms="3.6714485287666321e-01" purity="2.1145923435688019e-01" nType="-99"/>
        </Node>
        <Node pos="r" depth="1" NCoef="0" IVar="1" Cut="9.3344978332519531e+01" cType="1" res="1.6322867572307587e-01" rms="4.4005906581878662e-01" purity="6.4616471529006958e-01" nType="0">
          <Node pos="l" depth="2" NCoef="0" IVar="-1" Cut="0.0000000000000000e+00" cType="1" res="3.3989487565122545e-04" rms="4.6558934450149536e-01" purity="5.0305008888244629e-01" nType="-99"/>
          <Node pos="r" depth="2" NCoef="0" IVar="-1" Cut="0.0000000000000000e+00" cType="1" res="1.2109207455068827e-03" rms="4.0347975492477417e-01" purity="7.4346697330474854e-01" nType="-99"/>
        </Node>
      </Node>
    </BinaryTree>
    <BinaryTree type="DecisionTree" boostWeight="1.0000000000000000e+00" itree="209">
      <Node pos="s" depth="0" NCoef="0" IVar="3" Cut="1.4723902940750122e+00" cType="1" res="8.3413958549499512e-02" rms="4.5214718580245972e-01" purity="5.2046024799346924e-01" nType="0">
        <Node pos="l" depth="1" NCoef="0" IVar="1" Cut="4.6875972747802734e+01" cType="1" res="1.6313800215721130e-01" rms="4.4839349389076233e-01" purity="6.6521847248077393e-01" nType="0">
          <Node pos="l" depth="2" NCoef="0" IVar="-1" Cut="0.0000000000000000e+00" cType="1" res="1.3721402501687407e-04" rms="4.6569526195526123e-01" purity="4.2523413896560669e-01" nType="-99"/>
          <Node pos="r" depth="2" NCoef="0" IVar="-1" Cut="0.0000000000000000e+00" cType="1" res="1.0237992973998189e-03" rms="4.3664380908012390e-01" purity="7.2401797771453857e-01" nType="-99"/>
        </Node>
        <Node pos="r" depth="1" NCoef="0" IVar="6" Cut="3.6135101318359375e+02" cType="1" res="-2.3725351784378290e-03" rms="4.4031342864036560e-01" purity="3.6469417810440063e-01" nType="0">
          <Node pos="l" depth="2" NCoef="0" IVar="-1" Cut="0.0000000000000000e+00" cType="1" res="-1.4827974373474717e-03" rms="3.9541220664978027e-01" purity="2.2395117580890656e-01" nType="-99"/>
          <Node pos="r" depth="2" NCoef="0" IVar="-1" Cut="0.0000000000000000e+00" cType="1" res="8.0000731395557523e-04" rms="4.6570199728012085e-01" purity="5.5109131336212158e-01" nType="-99"/>
        </Node>
      </Node>
    </BinaryTree>
    <BinaryTree type="DecisionTree" boostWeight="1.0000000000000000e+00" itree="210">
      <Node pos="s" depth="0" NCoef="0" IVar="0" Cut="9.6334159374237061e-01" cType="1" res="8.8140495121479034e-02" rms="4.4084873795509338e-01" purity="5.3703123331069946e-01" nType="0">
        <Node pos="l" depth="1" NCoef="0" IVar="6" Cut="5.2039263916015625e+02" cType="1" res="-7.8077223151922226e-03" rms="4.3836703896522522e-01" purity="3.8815331459045410e-01" nType="0">
          <Node pos="l" depth="2" NCoef="0" IVar="-1" Cut="0.0000000000000000e+00" cType="1" res="-5.7069060858339071e-04" rms="4.2715001106262207e-01" purity="3.2714653015136719e-01" nType="-99"/>
          <Node pos="r" depth="2" NCoef="0" IVar="-1" Cut="0.0000000000000000e+00" cType="1" res="1.3711280189454556e-03" rms="4.0816742181777954e-01" purity="7.3484599590301514e-01" nType="-99"/>
        </Node>
        <Node pos="r" depth="1" NCoef="0" IVar="3" Cut="1.5968486070632935e+00" cType="1" res="2.0751047134399414e-01" rms="4.1395607590675354e-01" purity="7.2225135564804077e-01" nType="0">
          <Node pos="l" depth="2" NCoef="0" IVar="-1" Cut="0.0000000000000000e+00" cType="1" res="1.2342350091785192e-03" rms="3.7096276879310608e-01" purity="8.1915611028671265e-01" nType="-99"/>
          <Node pos="r" depth="2" NCoef="0" IVar="-1" Cut="0.0000000000000000e+00" cType="1" res="6.4875936368480325e-04" rms="4.7007858753204346e-01" purity="5.2170151472091675e-01" nType="-99"/>
        </Node>
      </Node>
    </BinaryTree>
    <BinaryTree type="DecisionTree" boostWeight="1.0000000000000000e+00" itree="211">
      <Node pos="s" depth="0" NCoef="0" IVar="0" Cut="9.6882259845733643e-01" cType="1" res="5.5118054151535034e-02" rms="4.5277303457260132e-01" purity="4.8463743925094604e-01" nType="0">
        <Node pos="l" depth="1" NCoef="0" IVar="5" Cut="1.5660002231597900e+00" cType="1" res="2.2997451014816761e-03" rms="4.4831722974777222e-01" purity="3.9530155062675476e-01" nType="0">
          <Node pos="l" depth="2" NCoef="0" IVar="-1" Cut="0.0000000000000000e+00" cType="1" res="-5.6816084543243051e-04" rms="4.2731374502182007e-01" purity="3.3096557855606079e-01" nType="-99"/>
          <Node pos="r" depth="2" NCoef="0" IVar="-1" Cut="0.0000000000000000e+00" cType="1" res="9.5361151034012437e-04" rms="4.6732860803604126e-01" purity="5.6736475229263306e-01" nType="-99"/>
        </Node>
        <Node pos="r" depth="1" NCoef="0" IVar="5" Cut="9.8389345407485962e-01" cType="1" res="1.6223019361495972e-01" rms="4.4273608922958374e-01" purity="6.6580480337142944e-01" nType="0">
          <Node pos="l" depth="2" NCoef="0" IVar="-1" Cut="0.0000000000000000e+00" cType="1" res="-2.5334174279123545e-04" rms="4.4607484340667725e-01" purity="4.7037655115127563e-01" nType="-99"/>
          <Node pos="r" depth="2" NCoef="0" IVar="-1" Cut="0.0000000000000000e+00" cType="1" res="1.0983132524415851e-03" rms="4.3045508861541748e-01" purity="7.0927858352661133e-01" nType="-99"/>
        </Node>
      </Node>
    </BinaryTree>
    <BinaryTree type="DecisionTree" boostWeight="1.0000000000000000e+00" itree="212">
      <Node pos="s" depth="0" NCoef="0" IVar="0" Cut="9.5893710851669312e-01" cType="1" res="7.0582054555416107e-02" rms="4.5468220114707947e-01" purity="5.0649583339691162e-01" nType="0">
        <Node pos="l" depth="1" NCoef="0" IVar="5" Cut="1.6212792396545410e+00" cType="1" res="-1.2700901366770267e-02" rms="4.3740233778953552e-01" purity="3.7011465430259705e-01" nType="0">
          <Node pos="l" depth="2" NCoef="0" IVar="-1" Cut="0.0000000000000000e+00" cType="1" res="2.0083572599105537e-04" rms="4.4250339269638062e-01" purity="4.0760338306427002e-01" nType="-99"/>
          <Node pos="r" depth="2" NCoef="0" IVar="-1" Cut="0.0000000000000000e+00" cType="1" res="-1.0602177120745182e-02" rms="2.3143230378627777e-01" purity="5.7489365339279175e-02" nType="-99"/>
        </Node>
        <Node pos="r" depth="1" NCoef="0" IVar="6" Cut="3.0803427124023438e+02" cType="1" res="1.5859965980052948e-01" rms="4.5601522922515869e-01" purity="6.5063017606735229e-01" nType="0">
          <Node pos="l" depth="2" NCoef="0" IVar="-1" Cut="0.0000000000000000e+00" cType="1" res="2.6058024377562106e-04" rms="4.6302980184555054e-01" purity="4.7517758607864380e-01" nType="-99"/>
          <Node pos="r" depth="2" NCoef="0" IVar="-1" Cut="0.0000000000000000e+00" cType="1" res="1.1159073328599334e-03" rms="4.3993484973907471e-01" purity="7.3565089702606201e-01" nType="-99"/>
        </Node>
      </Node>
    </BinaryTree>
    <BinaryTree type="DecisionTree" boostWeight="1.0000000000000000e+00" itree="213">
      <Node pos="s" depth="0" NCoef="0" IVar="3" Cut="2.3202278614044189e+00" cType="1" res="4.8956822603940964e-02" rms="4.4995242357254028e-01" purity="4.8241552710533142e-01" nType="0">
        <Node pos="l" depth="1" NCoef="0" IVar="6" Cut="2.8081610107421875e+02" cType="1" res="8.9400425553321838e-02" rms="4.6888291835784912e-01" purity="5.6933659315109253e-01" nType="0">
          <Node pos="l" depth="2" NCoef="0" IVar="-1" Cut="0.0000000000000000e+00" cType="1" res="-9.4665109645575285e-04" rms="4.4104287028312683e-01" purity="3.0762293934822083e-01" nType="-99"/>
          <Node pos="r" depth="2" NCoef="0" IVar="-1" Cut="0.0000000000000000e+00" cType="1" res="7.8969111200422049e-04" rms="4.6511712670326233e-01" purity="6.4272433519363403e-01" nType="-99"/>
        </Node>
        <Node pos="r" depth="1" NCoef="0" IVar="2" Cut="2.2120396423339844e+02" cType="1" res="-1.2869329750537872e-01" rms="2.9548072814941406e-01" purity="1.0061153769493103e-01" nType="0">
          <Node pos="l" depth="2" NCoef="0" IVar="-1" Cut="0.0000000000000000e+00" cType="1" res="2.5486355298198760e-04" rms="4.2173719406127930e-01" purity="2.5512641668319702e-01" nType="-99"/>
          <Node pos="r" depth="2" NCoef="0" IVar="-1" Cut="0.0000000000000000e+00" cType="1" res="-1.8363570794463158e-02" rms="7.7256195247173309e-02" purity="0.0000000000000000e+00" nType="-99"/>
        </Node>
      </Node>
    </BinaryTree>
    <BinaryTree type="DecisionTree" boostWeight="1.0000000000000000e+00" itree="214">
      <Node pos="s" depth="0" NCoef="0" IVar="1" Cut="7.7569183349609375e+01" cType="1" res="8.0653689801692963e-02" rms="4.6071949601173401e-01" purity="5.0807559490203857e-01" nType="0">
        <Node pos="l" depth="1" NCoef="0" IVar="7" Cut="1.3058757781982422e+00" cType="1" res="-3.8156457245349884e-02" rms="4.5982244610786438e-01" purity="3.5368287563323975e-01" nType="0">
          <Node pos="l" depth="2" NCoef="0" IVar="-1" Cut="0.0000000000000000e+00" cType="1" res="9.5913746918085963e-05" rms="4.7535362839698792e-01" purity="4.0806707739830017e-01" nType="-99"/>
          <Node pos="r" depth="2" NCoef="0" IVar="-1" Cut="0.0000000000000000e+00" cType="1" res="-9.8424581810832024e-03" rms="2.5788897275924683e-01" purity="8.0343753099441528e-02" nType="-99"/>
        </Node>
        <Node pos="r" depth="1" NCoef="0" IVar="7" Cut="1.6480389833450317e+00" cType="1" res="1.5006089210510254e-01" rms="4.4685706496238708e-01" purity="5.9826970100402832e-01" nType="0">
          <Node pos="l" depth="2" NCoef="0" IVar="-1" Cut="0.0000000000000000e+00" cType="1" res="1.2292976025491953e-03" rms="4.1315439343452454e-01" purity="7.4263650178909302e-01" nType="-99"/>
          <Node pos="r" depth="2" NCoef="0" IVar="-1" Cut="0.0000000000000000e+00" cType="1" res="4.6608169213868678e-04" rms="4.6186709403991699e-01" purity="4.4475471973419189e-01" nType="-99"/>
        </Node>
      </Node>
    </BinaryTree>
    <BinaryTree type="DecisionTree" boostWeight="1.0000000000000000e+00" itree="215">
      <Node pos="s" depth="0" NCoef="0" IVar="0" Cut="9.6089702844619751e-01" cType="1" res="4.4837489724159241e-02" rms="4.4551113247871399e-01" purity="4.8569837212562561e-01" nType="0">
        <Node pos="l" depth="1" NCoef="0" IVar="8" Cut="1.0472070312500000e+02" cType="1" res="-5.0512842833995819e-02" rms="4.2463517189025879e-01" purity="3.2784608006477356e-01" nType="0">
          <Node pos="l" depth="2" NCoef="0" IVar="-1" Cut="0.0000000000000000e+00" cType="1" res="-4.2388085275888443e-03" rms="3.1648388504981995e-01" purity="1.4090865850448608e-01" nType="-99"/>
          <Node pos="r" depth="2" NCoef="0" IVar="-1" Cut="0.0000000000000000e+00" cType="1" res="-2.2027297745808028e-05" rms="4.4198328256607056e-01" purity="3.8577121496200562e-01" nType="-99"/>
        </Node>
        <Node pos="r" depth="1" NCoef="0" IVar="3" Cut="8.5029733180999756e-01" cType="1" res="1.4392720162868500e-01" rms="4.4507381319999695e-01" purity="6.4974117279052734e-01" nType="0">
          <Node pos="l" depth="2" NCoef="0" IVar="-1" Cut="0.0000000000000000e+00" cType="1" res="1.2571748811751604e-03" rms="3.6373659968376160e-01" purity="8.2785636186599731e-01" nType="-99"/>
          <Node pos="r" depth="2" NCoef="0" IVar="-1" Cut="0.0000000000000000e+00" cType="1" res="5.8787740999832749e-04" rms="4.6340343356132507e-01" purity="5.7870095968246460e-01" nType="-99"/>
        </Node>
      </Node>
    </BinaryTree>
    <BinaryTree type="DecisionTree" boostWeight="1.0000000000000000e+00" itree="216">
      <Node pos="s" depth="0" NCoef="0" IVar="3" Cut="1.1826376914978027e+00" cType="1" res="6.6722907125949860e-02" rms="4.5582255721092224e-01" purity="4.9467769265174866e-01" nType="0">
        <Node pos="l" depth="1" NCoef="0" IVar="8" Cut="1.3495899963378906e+02" cType="1" res="1.6005115211009979e-01" rms="4.5091813802719116e-01" purity="6.6132831573486328e-01" nType="0">
          <Node pos="l" depth="2" NCoef="0" IVar="-1" Cut="0.0000000000000000e+00" cType="1" res="1.0313759557902813e-03" rms="4.3860572576522827e-01" purity="6.8602722883224487e-01" nType="-99"/>
          <Node pos="r" depth="2" NCoef="0" IVar="-1" Cut="0.0000000000000000e+00" cType="1" res="-9.0621051640482619e-06" rms="4.7989484667778015e-01" purity="5.3062105178833008e-01" nType="-99"/>
        </Node>
        <Node pos="r" depth="1" NCoef="0" IVar="1" Cut="5.6115211486816406e+01" cType="1" res="1.3382829725742340e-02" rms="4.4999170303344727e-01" purity="3.9943158626556396e-01" nType="0">
          <Node pos="l" depth="2" NCoef="0" IVar="-1" Cut="0.0000000000000000e+00" cType="1" res="-4.1728466749191284e-03" rms="3.1465792655944824e-01" purity="1.2140218168497086e-01" nType="-99"/>
          <Node pos="r" depth="2" NCoef="0" IVar="-1" Cut="0.0000000000000000e+00" cType="1" res="4.2807019781321287e-04" rms="4.6049261093139648e-01" purity="4.5280119776725769e-01" nType="-99"/>
        </Node>
      </Node>
    </BinaryTree>
    <BinaryTree type="DecisionTree" boostWeight="1.0000000000000000e+00" itree="217">
      <Node pos="s" depth="0" NCoef="0" IVar="6" Cut="2.3095462036132812e+02" cType="1" res="9.9672652781009674e-02" rms="4.4963386654853821e-01" purity="5.4319381713867188e-01" nType="0">
        <Node pos="l" depth="1" NCoef="0" IVar="-1" Cut="0.0000000000000000e+00" cType="1" res="-8.4714647382497787e-03" rms="2.3373062908649445e-01" purity="6.1770100146532059e-02" nType="-99"/>
        <Node pos="r" depth="1" NCoef="0" IVar="0" Cut="9.4409942626953125e-01" cType="1" res="1.2679515779018402e-01" rms="4.5217964053153992e-01" purity="5.8249145746231079e-01" nType="0">
          <Node pos="l" depth="2" NCoef="0" IVar="-1" Cut="0.0000000000000000e+00" cType="1" res="5.2917188440915197e-05" rms="4.4638022780418396e-01" purity="3.8945379853248596e-01" nType="-99"/>
          <Node pos="r" depth="2" NCoef="0" IVar="-1" Cut="0.0000000000000000e+00" cType="1" res="9.7930501215159893e-04" rms="4.4543021917343140e-01" purity="6.5923041105270386e-01" nType="-99"/>
        </Node>
      </Node>
    </BinaryTree>
    <BinaryTree type="DecisionTree" boostWeight="1.0000000000000000e+00" itree="218">
      <Node pos="s" depth="0" NCoef="0" IVar="0" Cut="9.5621049404144287e-01" cType="1" res="6.4914122223854065e-02" rms="4.5142164826393127e-01" purity="5.0081843137741089e-01" nType="0">
        <Node pos="l" depth="1" NCoef="0" IVar="1" Cut="8.6318099975585938e+01" cType="1" res="-2.3614680394530296e-02" rms="4.3808138370513916e-01" purity="3.5554000735282898e-01" nType="0">
          <Node pos="l" depth="2" NCoef="0" IVar="-1" Cut="0.0000000000000000e+00" cType="1" res="-1.6741111176088452e-03" rms="4.1062864661216736e-01" purity="2.2804908454418182e-01" nType="-99"/>
          <Node pos="r" depth="2" NCoef="0" IVar="-1" Cut="0.0000000000000000e+00" cType="1" res="4.0960707701742649e-04" rms="4.4597268104553223e-01" purity="4.6278995275497437e-01" nType="-99"/>
        </Node>
        <Node pos="r" depth="1" NCoef="0" IVar="6" Cut="3.4113885498046875e+02" cType="1" res="1.4985089004039764e-01" rms="4.4769701361656189e-01" purity="6.4020222425460815e-01" nType="0">
          <Node pos="l" depth="2" NCoef="0" IVar="-1" Cut="0.0000000000000000e+00" cType="1" res="4.0884068585000932e-04" rms="4.6689620614051819e-01" purity="4.9928307533264160e-01" nType="-99"/>
          <Node pos="r" depth="2" NCoef="0" IVar="-1" Cut="0.0000000000000000e+00" cType="1" res="1.1526574380695820e-03" rms="4.1472494602203369e-01" purity="7.5675964355468750e-01" nType="-99"/>
        </Node>
      </Node>
    </BinaryTree>
    <BinaryTree type="DecisionTree" boostWeight="1.0000000000000000e+00" itree="219">
      <Node pos="s" depth="0" NCoef="0" IVar="1" Cut="5.0722381591796875e+01" cType="1" res="8.8399179279804230e-02" rms="4.5693504810333252e-01" purity="5.1962131261825562e-01" nType="0">
        <Node pos="l" depth="1" NCoef="0" IVar="1" Cut="4.4495246887207031e+01" cType="1" res="-7.6407648622989655e-02" rms="4.2097079753875732e-01" purity="2.8786104917526245e-01" nType="0">
          <Node pos="l" depth="2" NCoef="0" IVar="-1" Cut="0.0000000000000000e+00" cType="1" res="-3.9642793126404285e-03" rms="3.5877686738967896e-01" purity="1.5058180689811707e-01" nType="-99"/>
          <Node pos="r" depth="2" NCoef="0" IVar="-1" Cut="0.0000000000000000e+00" cType="1" res="9.5846911426633596e-04" rms="4.4817253947257996e-01" purity="5.4496651887893677e-01" nType="-99"/>
        </Node>
        <Node pos="r" depth="1" NCoef="0" IVar="7" Cut="1.4592159986495972e+00" cType="1" res="1.2062425166368484e-01" rms="4.5674267411231995e-01" purity="5.6493800878524780e-01" nType="0">
          <Node pos="l" depth="2" NCoef="0" IVar="-1" Cut="0.0000000000000000e+00" cType="1" res="1.0379604063928127e-03" rms="4.3878981471061707e-01" purity="6.7900252342224121e-01" nType="-99"/>
          <Node pos="r" depth="2" NCoef="0" IVar="-1" Cut="0.0000000000000000e+00" cType="1" res="4.4258328853175044e-04" rms="4.6347939968109131e-01" purity="4.5657402276992798e-01" nType="-99"/>
        </Node>
      </Node>
    </BinaryTree>
    <BinaryTree type="DecisionTree" boostWeight="1.0000000000000000e+00" itree="220">
      <Node pos="s" depth="0" NCoef="0" IVar="0" Cut="9.5320653915405273e-01" cType="1" res="2.4192068725824356e-02" rms="4.5314583182334900e-01" purity="4.5508503913879395e-01" nType="0">
        <Node pos="l" depth="1" NCoef="0" IVar="7" Cut="1.2575120925903320e+00" cType="1" res="-7.0043019950389862e-02" rms="4.3062657117843628e-01" purity="2.8989139199256897e-01" nType="0">
          <Node pos="l" depth="2" NCoef="0" IVar="-1" Cut="0.0000000000000000e+00" cType="1" res="-4.5163761824369431e-03" rms="3.2373860478401184e-01" purity="1.4711970090866089e-01" nType="-99"/>
          <Node pos="r" depth="2" NCoef="0" IVar="-1" Cut="0.0000000000000000e+00" cType="1" res="1.2470076399040408e-05" rms="4.5924097299575806e-01" purity="3.6181265115737915e-01" nType="-99"/>
        </Node>
        <Node pos="r" depth="1" NCoef="0" IVar="3" Cut="1.2047836780548096e+00" cType="1" res="9.5799356698989868e-02" rms="4.5671504735946655e-01" purity="5.8061224222183228e-01" nType="0">
          <Node pos="l" depth="2" NCoef="0" IVar="-1" Cut="0.0000000000000000e+00" cType="1" res="1.0137092322111130e-03" rms="4.1398558020591736e-01" purity="7.4993026256561279e-01" nType="-99"/>
          <Node pos="r" depth="2" NCoef="0" IVar="-1" Cut="0.0000000000000000e+00" cType="1" res="8.6453335825353861e-05" rms="4.7173643112182617e-01" purity="4.4301030039787292e-01" nType="-99"/>
        </Node>
      </Node>
    </BinaryTree>
    <BinaryTree type="DecisionTree" boostWeight="1.0000000000000000e+00" itree="221">
      <Node pos="s" depth="0" NCoef="0" IVar="6" Cut="2.6934063720703125e+02" cType="1" res="5.0305526703596115e-02" rms="4.5977452397346497e-01" purity="4.7577959299087524e-01" nType="0">
        <Node pos="l" depth="1" NCoef="0" IVar="0" Cut="9.5750302076339722e-01" cType="1" res="-1.0524029284715652e-01" rms="3.7684372067451477e-01" purity="2.2506697475910187e-01" nType="0">
          <Node pos="l" depth="2" NCoef="0" IVar="-1" Cut="0.0000000000000000e+00" cType="1" res="-1.1071323417127132e-02" rms="2.0846785604953766e-01" purity="3.8387246429920197e-02" nType="-99"/>
          <Node pos="r" depth="2" NCoef="0" IVar="-1" Cut="0.0000000000000000e+00" cType="1" res="3.3198227174580097e-04" rms="4.6722224354743958e-01" purity="4.4313004612922668e-01" nType="-99"/>
        </Node>
        <Node pos="r" depth="1" NCoef="0" IVar="3" Cut="2.9804027080535889e+00" cType="1" res="9.1330848634243011e-02" rms="4.7077342867851257e-01" purity="5.4190522432327271e-01" nType="0">
          <Node pos="l" depth="2" NCoef="0" IVar="-1" Cut="0.0000000000000000e+00" cType="1" res="6.8949809065088630e-04" rms="4.7954335808753967e-01" purity="5.7647579908370972e-01" nType="-99"/>
          <Node pos="r" depth="2" NCoef="0" IVar="-1" Cut="0.0000000000000000e+00" cType="1" res="-4.9425940960645676e-03" rms="2.4210134148597717e-01" purity="7.1380361914634705e-02" nType="-99"/>
        </Node>
      </Node>
    </BinaryTree>
    <BinaryTree type="DecisionTree" boostWeight="1.0000000000000000e+00" itree="222">
      <Node pos="s" depth="0" NCoef="0" IVar="1" Cut="7.1346031188964844e+01" cType="1" res="7.3945648968219757e-02" rms="4.5436552166938782e-01" purity="5.0399488210678101e-01" nType="0">
        <Node pos="l" depth="1" NCoef="0" IVar="0" Cut="9.5814329385757446e-01" cType="1" res="-1.8898265436291695e-02" rms="4.4179531931877136e-01" purity="3.7029203772544861e-01" nType="0">
          <Node pos="l" depth="2" NCoef="0" IVar="-1" Cut="0.0000000000000000e+00" cType="1" res="-1.7435423796996474e-03" rms="3.7835726141929626e-01" purity="2.1509639918804169e-01" nType="-99"/>
          <Node pos="r" depth="2" NCoef="0" IVar="-1" Cut="0.0000000000000000e+00" cType="1" res="6.6632998641580343e-04" rms="4.8274978995323181e-01" purity="5.5931437015533447e-01" nType="-99"/>
        </Node>
        <Node pos="r" depth="1" NCoef="0" IVar="7" Cut="1.5283474922180176e+00" cType="1" res="1.2363713979721069e-01" rms="4.5320457220077515e-01" purity="5.7555472850799561e-01" nType="0">
          <Node pos="l" depth="2" NCoef="0" IVar="-1" Cut="0.0000000000000000e+00" cType="1" res="1.1754918377846479e-03" rms="4.0846434235572815e-01" purity="7.4787425994873047e-01" nType="-99"/>
          <Node pos="r" depth="2" NCoef="0" IVar="-1" Cut="0.0000000000000000e+00" cType="1" res="2.3152753419708461e-04" rms="4.6902179718017578e-01" purity="4.1997134685516357e-01" nType="-99"/>
        </Node>
      </Node>
    </BinaryTree>
    <BinaryTree type="DecisionTree" boostWeight="1.0000000000000000e+00" itree="223">
      <Node pos="s" depth="0" NCoef="0" IVar="1" Cut="3.6166942596435547e+01" cType="1" res="3.5987026989459991e-02" rms="4.6051031351089478e-01" purity="4.5862156152725220e-01" nType="0">
        <Node pos="l" depth="1" NCoef="0" IVar="-1" Cut="0.0000000000000000e+00" cType="1" res="-9.2314360663294792e-03" rms="2.4658958613872528e-01" purity="6.0987100005149841e-02" nType="-99"/>
        <Node pos="r" depth="1" NCoef="0" IVar="5" Cut="1.5405722856521606e+00" cType="1" res="5.6826293468475342e-02" rms="4.6459773182868958e-01" purity="4.8617702722549438e-01" nType="0">
          <Node pos="l" depth="2" NCoef="0" IVar="-1" Cut="0.0000000000000000e+00" cType="1" res="9.2903108452446759e-05" rms="4.5760247111320496e-01" purity="4.3375435471534729e-01" nType="-99"/>
          <Node pos="r" depth="2" NCoef="0" IVar="-1" Cut="0.0000000000000000e+00" cType="1" res="1.0532699525356293e-03" rms="4.6052250266075134e-01" purity="6.2790274620056152e-01" nType="-99"/>
        </Node>
      </Node>
    </BinaryTree>
    <BinaryTree type="DecisionTree" boostWeight="1.0000000000000000e+00" itree="224">
      <Node pos="s" depth="0" NCoef="0" IVar="3" Cut="2.4828324317932129e+00" cType="1" res="9.7960866987705231e-02" rms="4.4689825177192688e-01" purity="5.4204189777374268e-01" nType="0">
        <Node pos="l" depth="1" NCoef="0" IVar="0" Cut="9.5426148176193237e-01" cType="1" res="1.3192220032215118e-01" rms="4.5970049500465393e-01" purity="6.1176764965057373e-01" nType="0">
          <Node pos="l" depth="2" NCoef="0" IVar="-1" Cut="0.0000000000000000e+00" cType="1" res="4.1869486449286342e-04" rms="4.8498135805130005e-01" purity="4.6538075804710388e-01" nType="-99"/>
          <Node pos="r" depth="2" NCoef="0" IVar="-1" Cut="0.0000000000000000e+00" cType="1" res="9.8987296223640442e-04" rms="4.3006035685539246e-01" purity="7.2304767370223999e-01" nType="-99"/>
        </Node>
        <Node pos="r" depth="1" NCoef="0" IVar="7" Cut="1.7244026660919189e+00" cType="1" res="-1.2657201290130615e-01" rms="2.5483715534210205e-01" purity="8.1055067479610443e-02" nType="0">
          <Node pos="l" depth="2" NCoef="0" IVar="-1" Cut="0.0000000000000000e+00" cType="1" res="-9.8165575764141977e-05" rms="3.5785052180290222e-01" purity="2.0008954405784607e-01" nType="-99"/>
          <Node pos="r" depth="2" NCoef="0" IVar="-1" Cut="0.0000000000000000e+00" cType="1" res="-1.8151031807065010e-02" rms="7.1390382945537567e-02" purity="0.0000000000000000e+00" nType="-99"/>
        </Node>
      </Node>
    </BinaryTree>
    <BinaryTree type="DecisionTree" boostWeight="1.0000000000000000e+00" itree="225">
      <Node pos="s" depth="0" NCoef="0" IVar="0" Cut="9.7215056419372559e-01" cType="1" res="5.0503741949796677e-03" rms="4.4682639837265015e-01" purity="4.3368276953697205e-01" nType="0">
        <Node pos="l" depth="1" NCoef="0" IVar="1" Cut="8.4119911193847656e+01" cType="1" res="-5.0134666264057159e-02" rms="4.4027885794639587e-01" purity="3.4194508194923401e-01" nType="0">
          <Node pos="l" depth="2" NCoef="0" IVar="-1" Cut="0.0000000000000000e+00" cType="1" res="-2.3683074396103621e-03" rms="3.8497158885002136e-01" purity="2.1456475555896759e-01" nType="-99"/>
          <Node pos="r" depth="2" NCoef="0" IVar="-1" Cut="0.0000000000000000e+00" cType="1" res="3.0337885254994035e-04" rms="4.6259751915931702e-01" purity="4.4364231824874878e-01" nType="-99"/>
        </Node>
        <Node pos="r" depth="1" NCoef="0" IVar="3" Cut="1.8349047899246216e+00" cType="1" res="1.4432954788208008e-01" rms="4.3269911408424377e-01" purity="6.6521555185317993e-01" nType="0">
          <Node pos="l" depth="2" NCoef="0" IVar="-1" Cut="0.0000000000000000e+00" cType="1" res="1.0077226907014847e-03" rms="4.1960772871971130e-01" purity="7.5147879123687744e-01" nType="-99"/>
          <Node pos="r" depth="2" NCoef="0" IVar="-1" Cut="0.0000000000000000e+00" cType="1" res="-6.3434614276047796e-05" rms="4.3689200282096863e-01" purity="4.0173771977424622e-01" nType="-99"/>
        </Node>
      </Node>
    </BinaryTree>
    <BinaryTree type="DecisionTree" boostWeight="1.0000000000000000e+00" itree="226">
      <Node pos="s" depth="0" NCoef="0" IVar="1" Cut="7.9960311889648438e+01" cType="1" res="8.0311350524425507e-02" rms="4.4415849447250366e-01" purity="5.2074563503265381e-01" nType="0">
        <Node pos="l" depth="1" NCoef="0" IVar="6" Cut="2.7451837158203125e+02" cType="1" res="-4.8159394413232803e-02" rms="4.3151581287384033e-01" purity="3.4837618470191956e-01" nType="0">
          <Node pos="l" depth="2" NCoef="0" IVar="-1" Cut="0.0000000000000000e+00" cType="1" res="-4.4337571598589420e-03" rms="3.2427090406417847e-01" purity="1.1774605512619019e-01" nType="-99"/>
          <Node pos="r" depth="2" NCoef="0" IVar="-1" Cut="0.0000000000000000e+00" cType="1" res="2.1986207866575569e-04" rms="4.6304878592491150e-01" purity="4.7696480154991150e-01" nType="-99"/>
        </Node>
        <Node pos="r" depth="1" NCoef="0" IVar="7" Cut="1.5155670642852783e+00" cType="1" res="1.5080721676349640e-01" rms="4.3511536717414856e-01" purity="6.1533004045486450e-01" nType="0">
          <Node pos="l" depth="2" NCoef="0" IVar="-1" Cut="0.0000000000000000e+00" cType="1" res="1.2920589651912451e-03" rms="3.9905986189842224e-01" purity="7.8798508644104004e-01" nType="-99"/>
          <Node pos="r" depth="2" NCoef="0" IVar="-1" Cut="0.0000000000000000e+00" cType="1" res="3.9595065754838288e-04" rms="4.3761259317398071e-01" purity="4.7969606518745422e-01" nType="-99"/>
        </Node>
      </Node>
    </BinaryTree>
    <BinaryTree type="DecisionTree" boostWeight="1.0000000000000000e+00" itree="227">
      <Node pos="s" depth="0" NCoef="0" IVar="3" Cut="1.7213339805603027e+00" cType="1" res="4.2982667684555054e-02" rms="4.5642840862274170e-01" purity="4.6637907624244690e-01" nType="0">
        <Node pos="l" depth="1" NCoef="0" IVar="1" Cut="1.0247879028320312e+02" cType="1" res="1.0082795470952988e-01" rms="4.7046908736228943e-01" purity="5.8996236324310303e-01" nType="0">
          <Node pos="l" depth="2" NCoef="0" IVar="-1" Cut="0.0000000000000000e+00" cType="1" res="3.5360516631044447e-04" rms="4.8143911361694336e-01" purity="5.0846785306930542e-01" nType="-99"/>
          <Node pos="r" depth="2" NCoef="0" IVar="-1" Cut="0.0000000000000000e+00" cType="1" res="1.0485323145985603e-03" rms="4.3106293678283691e-01" purity="7.4902367591857910e-01" nType="-99"/>
        </Node>
        <Node pos="r" depth="1" NCoef="0" IVar="8" Cut="1.3862278747558594e+02" cType="1" res="-5.1512684673070908e-02" rms="4.1553756594657898e-01" purity="2.6449495553970337e-01" nType="0">
          <Node pos="l" depth="2" NCoef="0" IVar="-1" Cut="0.0000000000000000e+00" cType="1" res="1.3666358427144587e-04" rms="4.4572323560714722e-01" purity="3.3842095732688904e-01" nType="-99"/>
          <Node pos="r" depth="2" NCoef="0" IVar="-1" Cut="0.0000000000000000e+00" cType="1" res="-6.5216310322284698e-03" rms="2.6826944947242737e-01" purity="7.9969123005867004e-02" nType="-99"/>
        </Node>
      </Node>
    </BinaryTree>
    <BinaryTree type="DecisionTree" boostWeight="1.0000000000000000e+00" itree="228">
      <Node pos="s" depth="0" NCoef="0" IVar="0" Cut="9.6750795841217041e-01" cType="1" res="7.0319518446922302e-02" rms="4.5635533332824707e-01" purity="4.9742248654365540e-01" nType="0">
        <Node pos="l" depth="1" NCoef="0" IVar="1" Cut="4.2912757873535156e+01" cType="1" res="5.0694234669208527e-03" rms="4.5016017556190491e-01" purity="3.9260023832321167e-01" nType="0">
          <Node pos="l" depth="2" NCoef="0" IVar="-1" Cut="0.0000000000000000e+00" cType="1" res="-4.9356240779161453e-03" rms="2.7267912030220032e-01" purity="1.1295933276414871e-01" nType="-99"/>
          <Node pos="r" depth="2" NCoef="0" IVar="-1" Cut="0.0000000000000000e+00" cType="1" res="2.7914292877539992e-04" rms="4.6114483475685120e-01" purity="4.2889979481697083e-01" nType="-99"/>
        </Node>
        <Node pos="r" depth="1" NCoef="0" IVar="1" Cut="6.4470527648925781e+01" cType="1" res="1.8961168825626373e-01" rms="4.4329801201820374e-01" purity="6.8906164169311523e-01" nType="0">
          <Node pos="l" depth="2" NCoef="0" IVar="-1" Cut="0.0000000000000000e+00" cType="1" res="1.6888177196960896e-04" rms="4.7696980834007263e-01" purity="4.9454835057258606e-01" nType="-99"/>
          <Node pos="r" depth="2" NCoef="0" IVar="-1" Cut="0.0000000000000000e+00" cType="1" res="1.2474497780203819e-03" rms="4.2061024904251099e-01" purity="7.4572193622589111e-01" nType="-99"/>
        </Node>
      </Node>
    </BinaryTree>
    <BinaryTree type="DecisionTree" boostWeight="1.0000000000000000e+00" itree="229">
      <Node pos="s" depth="0" NCoef="0" IVar="6" Cut="4.7190533447265625e+02" cType="1" res="7.2266079485416412e-02" rms="4.5090535283088684e-01" purity="5.0788855552673340e-01" nType="0">
        <Node pos="l" depth="1" NCoef="0" IVar="6" Cut="2.8880914306640625e+02" cType="1" res="2.6725392788648605e-02" rms="4.5073077082633972e-01" purity="4.3981146812438965e-01" nType="0">
          <Node pos="l" depth="2" NCoef="0" IVar="-1" Cut="0.0000000000000000e+00" cType="1" res="-1.1364145902916789e-03" rms="4.1433626413345337e-01" purity="2.4598506093025208e-01" nType="-99"/>
          <Node pos="r" depth="2" NCoef="0" IVar="-1" Cut="0.0000000000000000e+00" cType="1" res="5.7914381613954902e-04" rms="4.5930370688438416e-01" purity="5.4609066247940063e-01" nType="-99"/>
        </Node>
        <Node pos="r" depth="1" NCoef="0" IVar="8" Cut="1.3752822875976562e+02" cType="1" res="2.2512826323509216e-01" rms="4.1655212640762329e-01" purity="7.3639667034149170e-01" nType="0">
          <Node pos="l" depth="2" NCoef="0" IVar="-1" Cut="0.0000000000000000e+00" cType="1" res="1.4515187358483672e-03" rms="3.6730459332466125e-01" purity="8.2587069272994995e-01" nType="-99"/>
          <Node pos="r" depth="2" NCoef="0" IVar="-1" Cut="0.0000000000000000e+00" cType="1" res="6.2688806792721152e-04" rms="4.5787230134010315e-01" purity="5.8919101953506470e-01" nType="-99"/>
        </Node>
      </Node>
    </BinaryTree>
    <BinaryTree type="DecisionTree" boostWeight="1.0000000000000000e+00" itree="230">
      <Node pos="s" depth="0" NCoef="0" IVar="3" Cut="2.4151048660278320e+00" cType="1" res="9.1110505163669586e-02" rms="4.4900286197662354e-01" purity="5.2727204561233521e-01" nType="0">
        <Node pos="l" depth="1" NCoef="0" IVar="1" Cut="7.3228569030761719e+01" cType="1" res="1.2401848286390305e-01" rms="4.6180921792984009e-01" purity="5.9761631488800049e-01" nType="0">
          <Node pos="l" depth="2" NCoef="0" IVar="-1" Cut="0.0000000000000000e+00" cType="1" res="1.9426661310717463e-04" rms="4.6401277184486389e-01" purity="4.4757845997810364e-01" nType="-99"/>
          <Node pos="r" depth="2" NCoef="0" IVar="-1" Cut="0.0000000000000000e+00" cType="1" res="1.0157456854358315e-03" rms="4.4913858175277710e-01" purity="6.9309896230697632e-01" nType="-99"/>
        </Node>
        <Node pos="r" depth="1" NCoef="0" IVar="7" Cut="1.6722708940505981e+00" cType="1" res="-1.0068795830011368e-01" rms="3.0086955428123474e-01" purity="1.1728285998106003e-01" nType="0">
          <Node pos="l" depth="2" NCoef="0" IVar="-1" Cut="0.0000000000000000e+00" cType="1" res="1.8406441085971892e-04" rms="3.8792651891708374e-01" purity="2.3467907309532166e-01" nType="-99"/>
          <Node pos="r" depth="2" NCoef="0" IVar="-1" Cut="0.0000000000000000e+00" cType="1" res="-8.6899548768997192e-03" rms="1.9306357204914093e-01" purity="3.9687700569629669e-02" nType="-99"/>
        </Node>
      </Node>
    </BinaryTree>
    <BinaryTree type="DecisionTree" boostWeight="1.0000000000000000e+00" itree="231">
      <Node pos="s" depth="0" NCoef="0" IVar="3" Cut="2.7229087352752686e+00" cType="1" res="9.8963737487792969e-02" rms="4.4953548908233643e-01" purity="5.3648579120635986e-01" nType="0">
        <Node pos="l" depth="1" NCoef="0" IVar="1" Cut="3.7063751220703125e+01" cType="1" res="1.2547791004180908e-01" rms="4.6211680769920349e-01" purity="5.9037983417510986e-01" nType="0">
          <Node pos="l" depth="2" NCoef="0" IVar="-1" Cut="0.0000000000000000e+00" cType="1" res="-4.8125321045517921e-03" rms="2.9096561670303345e-01" purity="1.2431095540523529e-01" nType="-99"/>
          <Node pos="r" depth="2" NCoef="0" IVar="-1" Cut="0.0000000000000000e+00" cType="1" res="9.0198632096871734e-04" rms="4.6207839250564575e-01" purity="6.2024301290512085e-01" nType="-99"/>
        </Node>
        <Node pos="r" depth="1" NCoef="0" IVar="7" Cut="2.0702047348022461e+00" cType="1" res="-1.5447866916656494e-01" rms="1.4660345017910004e-01" purity="2.1326513960957527e-02" nType="0">
          <Node pos="l" depth="2" NCoef="0" IVar="-1" Cut="0.0000000000000000e+00" cType="1" res="-1.6915900632739067e-02" rms="6.2505409121513367e-02" purity="0.0000000000000000e+00" nType="-99"/>
          <Node pos="r" depth="2" NCoef="0" IVar="-1" Cut="0.0000000000000000e+00" cType="1" res="-9.1893924400210381e-03" rms="1.9612433016300201e-01" purity="4.2724587023258209e-02" nType="-99"/>
        </Node>
      </Node>
    </BinaryTree>
    <BinaryTree type="DecisionTree" boostWeight="1.0000000000000000e+00" itree="232">
      <Node pos="s" depth="0" NCoef="0" IVar="1" Cut="9.3085556030273438e+01" cType="1" res="8.3286099135875702e-02" rms="4.5846629142761230e-01" purity="5.1085752248764038e-01" nType="0">
        <Node pos="l" depth="1" NCoef="0" IVar="3" Cut="1.2307537794113159e+00" cType="1" res="1.2421355582773685e-02" rms="4.6007972955703735e-01" purity="4.2076644301414490e-01" nType="0">
          <Node pos="l" depth="2" NCoef="0" IVar="-1" Cut="0.0000000000000000e+00" cType="1" res="6.4240570645779371e-04" rms="4.7882527112960815e-01" purity="5.6431519985198975e-01" nType="-99"/>
          <Node pos="r" depth="2" NCoef="0" IVar="-1" Cut="0.0000000000000000e+00" cType="1" res="-9.5274037448689342e-04" rms="4.2388799786567688e-01" purity="2.7839156985282898e-01" nType="-99"/>
        </Node>
        <Node pos="r" depth="1" NCoef="0" IVar="1" Cut="1.5755586242675781e+02" cType="1" res="1.4846384525299072e-01" rms="4.4717031717300415e-01" purity="5.9371864795684814e-01" nType="0">
          <Node pos="l" depth="2" NCoef="0" IVar="-1" Cut="0.0000000000000000e+00" cType="1" res="1.1178577551618218e-03" rms="4.3659722805023193e-01" purity="6.5268605947494507e-01" nType="-99"/>
          <Node pos="r" depth="2" NCoef="0" IVar="-1" Cut="0.0000000000000000e+00" cType="1" res="2.0921125542372465e-04" rms="4.5441117882728577e-01" purity="4.1975647211074829e-01" nType="-99"/>
        </Node>
      </Node>
    </BinaryTree>
    <BinaryTree type="DecisionTree" boostWeight="1.0000000000000000e+00" itree="233">
      <Node pos="s" depth="0" NCoef="0" IVar="0" Cut="9.5828372240066528e-01" cType="1" res="7.6342932879924774e-02" rms="4.5436593890190125e-01" purity="5.0992965698242188e-01" nType="0">
        <Node pos="l" depth="1" NCoef="0" IVar="1" Cut="1.2331965637207031e+02" cType="1" res="-1.9177617505192757e-02" rms="4.4507539272308350e-01" purity="3.4739226102828979e-01" nType="0">
          <Node pos="l" depth="2" NCoef="0" IVar="-1" Cut="0.0000000000000000e+00" cType="1" res="-7.1577326161786914e-04" rms="4.3003088235855103e-01" purity="2.9523828625679016e-01" nType="-99"/>
          <Node pos="r" depth="2" NCoef="0" IVar="-1" Cut="0.0000000000000000e+00" cType="1" res="6.9991842610761523e-04" rms="4.6462383866310120e-01" purity="4.7481131553649902e-01" nType="-99"/>
        </Node>
        <Node pos="r" depth="1" NCoef="0" IVar="4" Cut="7.7590554952621460e-01" cType="1" res="1.6239508986473083e-01" rms="4.4536685943603516e-01" purity="6.5635567903518677e-01" nType="0">
          <Node pos="l" depth="2" NCoef="0" IVar="-1" Cut="0.0000000000000000e+00" cType="1" res="1.0500106727704406e-03" rms="4.3827018141746521e-01" purity="6.8493968248367310e-01" nType="-99"/>
          <Node pos="r" depth="2" NCoef="0" IVar="-1" Cut="0.0000000000000000e+00" cType="1" res="-5.6788075016811490e-04" rms="4.4377484917640686e-01" purity="3.9462181925773621e-01" nType="-99"/>
        </Node>
      </Node>
    </BinaryTree>
    <BinaryTree type="DecisionTree" boostWeight="1.0000000000000000e+00" itree="234">
      <Node pos="s" depth="0" NCoef="0" IVar="3" Cut="1.3690842390060425e+00" cType="1" res="8.2970097661018372e-02" rms="4.4820362329483032e-01" purity="5.1750075817108154e-01" nType="0">
        <Node pos="l" depth="1" NCoef="0" IVar="1" Cut="7.7163665771484375e+01" cType="1" res="1.7122286558151245e-01" rms="4.4075062870979309e-01" purity="6.7952543497085571e-01" nType="0">
          <Node pos="l" depth="2" NCoef="0" IVar="-1" Cut="0.0000000000000000e+00" cType="1" res="5.7546125026419759e-04" rms="4.7391888499259949e-01" purity="5.4705369472503662e-01" nType="-99"/>
          <Node pos="r" depth="2" NCoef="0" IVar="-1" Cut="0.0000000000000000e+00" cType="1" res="1.1459155939519405e-03" rms="3.8934794068336487e-01" purity="8.0868947505950928e-01" nType="-99"/>
        </Node>
        <Node pos="r" depth="1" NCoef="0" IVar="0" Cut="9.5584338903427124e-01" cType="1" res="4.6728453598916531e-03" rms="4.4014096260070801e-01" purity="3.7375369668006897e-01" nType="0">
          <Node pos="l" depth="2" NCoef="0" IVar="-1" Cut="0.0000000000000000e+00" cType="1" res="-9.2587195103988051e-04" rms="4.2281726002693176e-01" purity="2.4032533168792725e-01" nType="-99"/>
          <Node pos="r" depth="2" NCoef="0" IVar="-1" Cut="0.0000000000000000e+00" cType="1" res="5.3062191000208259e-04" rms="4.4849443435668945e-01" purity="5.2481645345687866e-01" nType="-99"/>
        </Node>
      </Node>
    </BinaryTree>
    <BinaryTree type="DecisionTree" boostWeight="1.0000000000000000e+00" itree="235">
      <Node pos="s" depth="0" NCoef="0" IVar="0" Cut="9.3314951658248901e-01" cType="1" res="5.7532027363777161e-02" rms="4.4429996609687805e-01" purity="4.9333143234252930e-01" nType="0">
        <Node pos="l" depth="1" NCoef="0" IVar="1" Cut="8.4490257263183594e+01" cType="1" res="-1.4631403982639313e-01" rms="3.4477278590202332e-01" purity="1.9999441504478455e-01" nType="0">
          <Node pos="l" depth="2" NCoef="0" IVar="-1" Cut="0.0000000000000000e+00" cType="1" res="-1.9643938168883324e-02" rms="1.1814451217651367e-01" purity="0.0000000000000000e+00" nType="-99"/>
          <Node pos="r" depth="2" NCoef="0" IVar="-1" Cut="0.0000000000000000e+00" cType="1" res="-4.2853216291405261e-04" rms="4.0946227312088013e-01" purity="3.4256115555763245e-01" nType="-99"/>
        </Node>
        <Node pos="r" depth="1" NCoef="0" IVar="6" Cut="3.0198754882812500e+02" cType="1" res="1.0462195426225662e-01" rms="4.5136222243309021e-01" purity="5.6109440326690674e-01" nType="0">
          <Node pos="l" depth="2" NCoef="0" IVar="-1" Cut="0.0000000000000000e+00" cType="1" res="-3.0824454734101892e-04" rms="4.3438026309013367e-01" purity="3.4761175513267517e-01" nType="-99"/>
          <Node pos="r" depth="2" NCoef="0" IVar="-1" Cut="0.0000000000000000e+00" cType="1" res="9.4133248785510659e-04" rms="4.4592455029487610e-01" purity="6.5690183639526367e-01" nType="-99"/>
        </Node>
      </Node>
    </BinaryTree>
    <BinaryTree type="DecisionTree" boostWeight="1.0000000000000000e+00" itree="236">
      <Node pos="s" depth="0" NCoef="0" IVar="6" Cut="2.4339024353027344e+02" cType="1" res="3.0536549165844917e-02" rms="4.4799208641052246e-01" purity="4.6037209033966064e-01" nType="0">
        <Node pos="l" depth="1" NCoef="0" IVar="3" Cut="1.9534256458282471e+00" cType="1" res="-2.0142655074596405e-01" rms="2.8677046298980713e-01" purity="7.0808358490467072e-02" nType="0">
          <Node pos="l" depth="2" NCoef="0" IVar="-1" Cut="0.0000000000000000e+00" cType="1" res="-2.1044263616204262e-02" rms="1.1095188558101654e-01" purity="6.2397988513112068e-03" nType="-99"/>
          <Node pos="r" depth="2" NCoef="0" IVar="-1" Cut="0.0000000000000000e+00" cType="1" res="-2.1682525984942913e-03" rms="3.3990189433097839e-01" purity="1.3247388601303101e-01" nType="-99"/>
        </Node>
        <Node pos="r" depth="1" NCoef="0" IVar="3" Cut="2.2013149261474609e+00" cType="1" res="5.9556491672992706e-02" rms="4.5600786805152893e-01" purity="5.0910884141921997e-01" nType="0">
          <Node pos="l" depth="2" NCoef="0" IVar="-1" Cut="0.0000000000000000e+00" cType="1" res="6.0431228484958410e-04" rms="4.7230628132820129e-01" purity="5.9635365009307861e-01" nType="-99"/>
          <Node pos="r" depth="2" NCoef="0" IVar="-1" Cut="0.0000000000000000e+00" cType="1" res="-2.0868985448032618e-03" rms="3.4203469753265381e-01" purity="1.5735840797424316e-01" nType="-99"/>
        </Node>
      </Node>
    </BinaryTree>
    <BinaryTree type="DecisionTree" boostWeight="1.0000000000000000e+00" itree="237">
      <Node pos="s" depth="0" NCoef="0" IVar="6" Cut="2.4719163513183594e+02" cType="1" res="9.1180458664894104e-02" rms="4.4830805063247681e-01" purity="5.2624839544296265e-01" nType="0">
        <Node pos="l" depth="1" NCoef="0" IVar="7" Cut="1.2543988227844238e+00" cType="1" res="-1.7660616338253021e-01" rms="2.8207942843437195e-01" purity="1.0522990673780441e-01" nType="0">
          <Node pos="l" depth="2" NCoef="0" IVar="-1" Cut="0.0000000000000000e+00" cType="1" res="-1.4923418639227748e-03" rms="3.6366307735443115e-01" purity="2.1391808986663818e-01" nType="-99"/>
          <Node pos="r" depth="2" NCoef="0" IVar="-1" Cut="0.0000000000000000e+00" cType="1" res="-1.9480066373944283e-02" rms="1.1344140768051147e-01" purity="0.0000000000000000e+00" nType="-99"/>
        </Node>
        <Node pos="r" depth="1" NCoef="0" IVar="3" Cut="1.5638703107833862e+00" cType="1" res="1.2584777176380157e-01" rms="4.5410636067390442e-01" purity="5.8075290918350220e-01" nType="0">
          <Node pos="l" depth="2" NCoef="0" IVar="-1" Cut="0.0000000000000000e+00" cType="1" res="9.8663242533802986e-04" rms="4.3501806259155273e-01" purity="7.0980000495910645e-01" nType="-99"/>
          <Node pos="r" depth="2" NCoef="0" IVar="-1" Cut="0.0000000000000000e+00" cType="1" res="4.1342654731124640e-04" rms="4.6690854430198669e-01" purity="4.0456038713455200e-01" nType="-99"/>
        </Node>
      </Node>
    </BinaryTree>
    <BinaryTree type="DecisionTree" boostWeight="1.0000000000000000e+00" itree="238">
      <Node pos="s" depth="0" NCoef="0" IVar="8" Cut="1.1006095123291016e+02" cType="1" res="5.8158885687589645e-02" rms="4.4183534383773804e-01" purity="4.9682164192199707e-01" nType="0">
        <Node pos="l" depth="1" NCoef="0" IVar="1" Cut="6.0462341308593750e+01" cType="1" res="-8.1741794943809509e-02" rms="4.0837752819061279e-01" purity="3.2246628403663635e-01" nType="0">
          <Node pos="l" depth="2" NCoef="0" IVar="-1" Cut="0.0000000000000000e+00" cType="1" res="-1.1435182765126228e-02" rms="1.9419524073600769e-01" purity="4.3578244745731354e-02" nType="-99"/>
          <Node pos="r" depth="2" NCoef="0" IVar="-1" Cut="0.0000000000000000e+00" cType="1" res="1.5283397806342691e-04" rms="4.4225734472274780e-01" purity="4.5395314693450928e-01" nType="-99"/>
        </Node>
        <Node pos="r" depth="1" NCoef="0" IVar="3" Cut="2.2988290786743164e+00" cType="1" res="1.0504218190908432e-01" rms="4.4271242618560791e-01" purity="5.5525135993957520e-01" nType="0">
          <Node pos="l" depth="2" NCoef="0" IVar="-1" Cut="0.0000000000000000e+00" cType="1" res="8.5894193034619093e-04" rms="4.5318716764450073e-01" purity="6.4923435449600220e-01" nType="-99"/>
          <Node pos="r" depth="2" NCoef="0" IVar="-1" Cut="0.0000000000000000e+00" cType="1" res="-2.0978171378374100e-03" rms="3.3068215847015381e-01" purity="1.3871498405933380e-01" nType="-99"/>
        </Node>
      </Node>
    </BinaryTree>
    <BinaryTree type="DecisionTree" boostWeight="1.0000000000000000e+00" itree="239">
      <Node pos="s" depth="0" NCoef="0" IVar="8" Cut="8.5673896789550781e+01" cType="1" res="8.0766208469867706e-02" rms="4.5003846287727356e-01" purity="5.1993185281753540e-01" nType="0">
        <Node pos="l" depth="1" NCoef="0" IVar="-1" Cut="0.0000000000000000e+00" cType="1" res="-3.6127145867794752e-03" rms="3.2190468907356262e-01" purity="1.4800779521465302e-01" nType="-99"/>
        <Node pos="r" depth="1" NCoef="0" IVar="0" Cut="9.5177352428436279e-01" cType="1" res="1.0254737734794617e-01" rms="4.5164355635643005e-01" purity="5.4955488443374634e-01" nType="0">
          <Node pos="l" depth="2" NCoef="0" IVar="-1" Cut="0.0000000000000000e+00" cType="1" res="1.5117214934434742e-04" rms="4.5842969417572021e-01" purity="3.7990352511405945e-01" nType="-99"/>
          <Node pos="r" depth="2" NCoef="0" IVar="-1" Cut="0.0000000000000000e+00" cType="1" res="8.9828658383339643e-04" rms="4.3849948048591614e-01" purity="6.5610241889953613e-01" nType="-99"/>
        </Node>
      </Node>
    </BinaryTree>
    <BinaryTree type="DecisionTree" boostWeight="1.0000000000000000e+00" itree="240">
      <Node pos="s" depth="0" NCoef="0" IVar="0" Cut="9.5849591493606567e-01" cType="1" res="6.7095369100570679e-02" rms="4.5502084493637085e-01" purity="4.9741008877754211e-01" nType="0">
        <Node pos="l" depth="1" NCoef="0" IVar="3" Cut="1.1801792383193970e+00" cType="1" res="9.2384982854127884e-03" rms="4.5048439502716064e-01" purity="3.7641257047653198e-01" nType="0">
          <Node pos="l" depth="2" NCoef="0" IVar="-1" Cut="0.0000000000000000e+00" cType="1" res="8.4986654110252857e-04" rms="4.7164800763130188e-01" purity="5.8998501300811768e-01" nType="-99"/>
          <Node pos="r" depth="2" NCoef="0" IVar="-1" Cut="0.0000000000000000e+00" cType="1" res="-8.4467988926917315e-04" rms="4.2228507995605469e-01" purity="2.5876009464263916e-01" nType="-99"/>
        </Node>
        <Node pos="r" depth="1" NCoef="0" IVar="8" Cut="1.5652738952636719e+02" cType="1" res="1.2851232290267944e-01" rms="4.5175111293792725e-01" purity="6.2585294246673584e-01" nType="0">
          <Node pos="l" depth="2" NCoef="0" IVar="-1" Cut="0.0000000000000000e+00" cType="1" res="9.2370371567085385e-04" rms="4.4542327523231506e-01" purity="6.6402083635330200e-01" nType="-99"/>
          <Node pos="r" depth="2" NCoef="0" IVar="-1" Cut="0.0000000000000000e+00" cType="1" res="-1.2813981156796217e-03" rms="4.1464459896087646e-01" purity="3.3962878584861755e-01" nType="-99"/>
        </Node>
      </Node>
    </BinaryTree>
    <BinaryTree type="DecisionTree" boostWeight="1.0000000000000000e+00" itree="241">
      <Node pos="s" depth="0" NCoef="0" IVar="1" Cut="6.8319259643554688e+01" cType="1" res="5.5773973464965820e-02" rms="4.4598501920700073e-01" purity="4.8825752735137939e-01" nType="0">
        <Node pos="l" depth="1" NCoef="0" IVar="5" Cut="1.2862342596054077e+00" cType="1" res="-6.6708467900753021e-02" rms="4.2548808455467224e-01" purity="3.1844300031661987e-01" nType="0">
          <Node pos="l" depth="2" NCoef="0" IVar="-1" Cut="0.0000000000000000e+00" cType="1" res="-2.6232039090245962e-03" rms="3.9077085256576538e-01" purity="1.9942745566368103e-01" nType="-99"/>
          <Node pos="r" depth="2" NCoef="0" IVar="-1" Cut="0.0000000000000000e+00" cType="1" res="-1.2099471859983169e-05" rms="4.3914064764976501e-01" purity="4.0933179855346680e-01" nType="-99"/>
        </Node>
        <Node pos="r" depth="1" NCoef="0" IVar="7" Cut="2.2941756248474121e+00" cType="1" res="1.0723358392715454e-01" rms="4.4436064362525940e-01" purity="5.5960315465927124e-01" nType="0">
          <Node pos="l" depth="2" NCoef="0" IVar="-1" Cut="0.0000000000000000e+00" cType="1" res="8.1251951633021235e-04" rms="4.5153498649597168e-01" purity="6.1077731847763062e-01" nType="-99"/>
          <Node pos="r" depth="2" NCoef="0" IVar="-1" Cut="0.0000000000000000e+00" cType="1" res="-3.6927626933902502e-03" rms="2.7715694904327393e-01" purity="1.0316766798496246e-01" nType="-99"/>
        </Node>
      </Node>
    </BinaryTree>
    <BinaryTree type="DecisionTree" boostWeight="1.0000000000000000e+00" itree="242">
      <Node pos="s" depth="0" NCoef="0" IVar="1" Cut="7.8520973205566406e+01" cType="1" res="7.7244751155376434e-02" rms="4.5853391289710999e-01" purity="4.9721494317054749e-01" nType="0">
        <Node pos="l" depth="1" NCoef="0" IVar="7" Cut="1.3417142629623413e+00" cType="1" res="-3.1641244888305664e-02" rms="4.4152823090553284e-01" purity="3.4759649634361267e-01" nType="0">
          <Node pos="l" depth="2" NCoef="0" IVar="-1" Cut="0.0000000000000000e+00" cType="1" res="9.8131575214210898e-05" rms="4.5765995979309082e-01" purity="4.0274363756179810e-01" nType="-99"/>
          <Node pos="r" depth="2" NCoef="0" IVar="-1" Cut="0.0000000000000000e+00" cType="1" res="-1.6538010910153389e-02" rms="2.0841488242149353e-01" purity="3.3238131552934647e-02" nType="-99"/>
        </Node>
        <Node pos="r" depth="1" NCoef="0" IVar="7" Cut="1.7539991140365601e+00" cType="1" res="1.4324545860290527e-01" rms="4.5605748891830444e-01" purity="5.8790546655654907e-01" nType="0">
          <Node pos="l" depth="2" NCoef="0" IVar="-1" Cut="0.0000000000000000e+00" cType="1" res="1.1697837617248297e-03" rms="4.4162288308143616e-01" purity="7.1404480934143066e-01" nType="-99"/>
          <Node pos="r" depth="2" NCoef="0" IVar="-1" Cut="0.0000000000000000e+00" cType="1" res="2.2319769777823240e-04" rms="4.5256683230400085e-01" purity="3.9111998677253723e-01" nType="-99"/>
        </Node>
      </Node>
    </BinaryTree>
    <BinaryTree type="DecisionTree" boostWeight="1.0000000000000000e+00" itree="243">
      <Node pos="s" depth="0" NCoef="0" IVar="4" Cut="8.1476897001266479e-01" cType="1" res="2.1012233570218086e-02" rms="4.4460693001747131e-01" purity="4.4954496622085571e-01" nType="0">
        <Node pos="l" depth="1" NCoef="0" IVar="8" Cut="9.3774383544921875e+01" cType="1" res="4.1293095797300339e-02" rms="4.4914638996124268e-01" purity="4.7705134749412537e-01" nType="0">
          <Node pos="l" depth="2" NCoef="0" IVar="-1" Cut="0.0000000000000000e+00" cType="1" res="-2.4233448784798384e-03" rms="3.5619565844535828e-01" purity="2.1877810359001160e-01" nType="-99"/>
          <Node pos="r" depth="2" NCoef="0" IVar="-1" Cut="0.0000000000000000e+00" cType="1" res="4.9720238894224167e-04" rms="4.5411345362663269e-01" purity="5.1382672786712646e-01" nType="-99"/>
        </Node>
        <Node pos="r" depth="1" NCoef="0" IVar="-1" Cut="0.0000000000000000e+00" cType="1" res="-1.0540751740336418e-02" rms="2.1979562938213348e-01" purity="5.3909648209810257e-02" nType="-99"/>
      </Node>
    </BinaryTree>
    <BinaryTree type="DecisionTree" boostWeight="1.0000000000000000e+00" itree="244">
      <Node pos="s" depth="0" NCoef="0" IVar="0" Cut="9.5930993556976318e-01" cType="1" res="6.8041175603866577e-02" rms="4.5030522346496582e-01" purity="4.9921661615371704e-01" nType="0">
        <Node pos="l" depth="1" NCoef="0" IVar="5" Cut="1.5281105041503906e+00" cType="1" res="-1.0917650535702705e-02" rms="4.4913733005523682e-01" purity="3.4707990288734436e-01" nType="0">
          <Node pos="l" depth="2" NCoef="0" IVar="-1" Cut="0.0000000000000000e+00" cType="1" res="-8.1854261225089431e-04" rms="4.1852602362632751e-01" purity="2.8546145558357239e-01" nType="-99"/>
          <Node pos="r" depth="2" NCoef="0" IVar="-1" Cut="0.0000000000000000e+00" cType="1" res="1.0793474502861500e-03" rms="4.8918050527572632e-01" purity="5.1242965459823608e-01" nType="-99"/>
        </Node>
        <Node pos="r" depth="1" NCoef="0" IVar="3" Cut="1.4470441341400146e+00" cType="1" res="1.5207119286060333e-01" rms="4.3611553311347961e-01" purity="6.6112446784973145e-01" nType="0">
          <Node pos="l" depth="2" NCoef="0" IVar="-1" Cut="0.0000000000000000e+00" cType="1" res="1.1591381626203656e-03" rms="3.9901328086853027e-01" purity="7.8573000431060791e-01" nType="-99"/>
          <Node pos="r" depth="2" NCoef="0" IVar="-1" Cut="0.0000000000000000e+00" cType="1" res="1.9094323215540498e-04" rms="4.5913556218147278e-01" purity="4.7070729732513428e-01" nType="-99"/>
        </Node>
      </Node>
    </BinaryTree>
    <BinaryTree type="DecisionTree" boostWeight="1.0000000000000000e+00" itree="245">
      <Node pos="s" depth="0" NCoef="0" IVar="6" Cut="4.6099420166015625e+02" cType="1" res="7.9053200781345367e-02" rms="4.4898265600204468e-01" purity="5.1603472232818604e-01" nType="0">
        <Node pos="l" depth="1" NCoef="0" IVar="3" Cut="1.7592985630035400e+00" cType="1" res="3.8621041923761368e-02" rms="4.4952148199081421e-01" purity="4.5407167077064514e-01" nType="0">
          <Node pos="l" depth="2" NCoef="0" IVar="-1" Cut="0.0000000000000000e+00" cType="1" res="6.3095981022343040e-04" rms="4.6495497226715088e-01" purity="5.7951426506042480e-01" nType="-99"/>
          <Node pos="r" depth="2" NCoef="0" IVar="-1" Cut="0.0000000000000000e+00" cType="1" res="-9.5291313482448459e-04" rms="4.0262410044670105e-01" purity="2.4474689364433289e-01" nType="-99"/>
        </Node>
        <Node pos="r" depth="1" NCoef="0" IVar="0" Cut="9.5154219865798950e-01" cType="1" res="2.1544592082500458e-01" rms="4.1932636499404907e-01" purity="7.2505909204483032e-01" nType="0">
          <Node pos="l" depth="2" NCoef="0" IVar="-1" Cut="0.0000000000000000e+00" cType="1" res="8.0077355960384011e-04" rms="4.7716206312179565e-01" purity="5.6275027990341187e-01" nType="-99"/>
          <Node pos="r" depth="2" NCoef="0" IVar="-1" Cut="0.0000000000000000e+00" cType="1" res="1.3050647685304284e-03" rms="3.7108039855957031e-01" purity="8.1696063280105591e-01" nType="-99"/>
        </Node>
      </Node>
    </BinaryTree>
    <BinaryTree type="DecisionTree" boostWeight="1.0000000000000000e+00" itree="246">
      <Node pos="s" depth="0" NCoef="0" IVar="6" Cut="2.8249346923828125e+02" cType="1" res="4.1060637682676315e-02" rms="4.5352223515510559e-01" purity="4.6487194299697876e-01" nType="0">
        <Node pos="l" depth="1" NCoef="0" IVar="1" Cut="9.6720840454101562e+01" cType="1" res="-6.2083255499601364e-02" rms="4.0483513474464417e-01" purity="2.5810393691062927e-01" nType="0">
          <Node pos="l" depth="2" NCoef="0" IVar="-1" Cut="0.0000000000000000e+00" cType="1" res="-2.3415607865899801e-03" rms="3.6979466676712036e-01" purity="1.8413706123828888e-01" nType="-99"/>
          <Node pos="r" depth="2" NCoef="0" IVar="-1" Cut="0.0000000000000000e+00" cType="1" res="8.7987165898084641e-04" rms="4.4466122984886169e-01" purity="4.6090081334114075e-01" nType="-99"/>
        </Node>
        <Node pos="r" depth="1" NCoef="0" IVar="7" Cut="2.1059696674346924e+00" cType="1" res="8.2285344600677490e-02" rms="4.6522459387779236e-01" purity="5.4751330614089966e-01" nType="0">
          <Node pos="l" depth="2" NCoef="0" IVar="-1" Cut="0.0000000000000000e+00" cType="1" res="6.8760098656639457e-04" rms="4.7139787673950195e-01" purity="5.9475874900817871e-01" nType="-99"/>
          <Node pos="r" depth="2" NCoef="0" IVar="-1" Cut="0.0000000000000000e+00" cType="1" res="-2.3071193136274815e-03" rms="3.4661990404129028e-01" purity="1.7853012681007385e-01" nType="-99"/>
        </Node>
      </Node>
    </BinaryTree>
    <BinaryTree type="DecisionTree" boostWeight="1.0000000000000000e+00" itree="247">
      <Node pos="s" depth="0" NCoef="0" IVar="0" Cut="9.4776731729507446e-01" cType="1" res="4.0787864476442337e-02" rms="4.4365152716636658e-01" purity="4.7218722105026245e-01" nType="0">
        <Node pos="l" depth="1" NCoef="0" IVar="4" Cut="6.3417160511016846e-01" cType="1" res="-8.8451154530048370e-02" rms="4.0219965577125549e-01" purity="2.6103693246841431e-01" nType="0">
          <Node pos="l" depth="2" NCoef="0" IVar="-1" Cut="0.0000000000000000e+00" cType="1" res="-6.4936876296997070e-03" rms="2.8302818536758423e-01" purity="8.5222572088241577e-02" nType="-99"/>
          <Node pos="r" depth="2" NCoef="0" IVar="-1" Cut="0.0000000000000000e+00" cType="1" res="-3.9598537841811776e-04" rms="4.2469200491905212e-01" purity="3.2454937696456909e-01" nType="-99"/>
        </Node>
        <Node pos="r" depth="1" NCoef="0" IVar="8" Cut="9.4560180664062500e+01" cType="1" res="1.1457508057355881e-01" rms="4.4929298758506775e-01" purity="5.9274059534072876e-01" nType="0">
          <Node pos="l" depth="2" NCoef="0" IVar="-1" Cut="0.0000000000000000e+00" cType="1" res="-2.1921326406300068e-03" rms="4.0150672197341919e-01" purity="2.3541302978992462e-01" nType="-99"/>
          <Node pos="r" depth="2" NCoef="0" IVar="-1" Cut="0.0000000000000000e+00" cType="1" res="8.6228898726403713e-04" rms="4.4421681761741638e-01" purity="6.3194835186004639e-01" nType="-99"/>
        </Node>
      </Node>
    </BinaryTree>
    <BinaryTree type="DecisionTree" boostWeight="1.0000000000000000e+00" itree="248">
      <Node pos="s" depth="0" NCoef="0" IVar="0" Cut="9.6587651968002319e-01" cType="1" res="6.6987819969654083e-02" rms="4.4920337200164795e-01" purity="4.9806815385818481e-01" nType="0">
        <Node pos="l" depth="1" NCoef="0" IVar="4" Cut="7.6984727382659912e-01" cType="1" res="3.3301210496574640e-03" rms="4.5361477136611938e-01" purity="3.7846213579177856e-01" nType="0">
          <Node pos="l" depth="2" NCoef="0" IVar="-1" Cut="0.0000000000000000e+00" cType="1" res="2.4733715690672398e-04" rms="4.6387925744056702e-01" purity="4.0985766053199768e-01" nType="-99"/>
          <Node pos="r" depth="2" NCoef="0" IVar="-1" Cut="0.0000000000000000e+00" cType="1" res="-2.2814173717051744e-03" rms="3.5600006580352783e-01" purity="1.9630904495716095e-01" nType="-99"/>
        </Node>
        <Node pos="r" depth="1" NCoef="0" IVar="3" Cut="1.7308512926101685e+00" cType="1" res="1.6790845990180969e-01" rms="4.2291876673698425e-01" purity="6.8768715858459473e-01" nType="0">
          <Node pos="l" depth="2" NCoef="0" IVar="-1" Cut="0.0000000000000000e+00" cType="1" res="1.1209901422262192e-03" rms="3.8183104991912842e-01" purity="8.0109190940856934e-01" nType="-99"/>
          <Node pos="r" depth="2" NCoef="0" IVar="-1" Cut="0.0000000000000000e+00" cType="1" res="1.4289765385910869e-04" rms="4.7373530268669128e-01" purity="4.1881299018859863e-01" nType="-99"/>
        </Node>
      </Node>
    </BinaryTree>
    <BinaryTree type="DecisionTree" boostWeight="1.0000000000000000e+00" itree="249">
      <Node pos="s" depth="0" NCoef="0" IVar="1" Cut="7.9936103820800781e+01" cType="1" res="3.3831760287284851e-02" rms="4.5153996348381042e-01" purity="4.5506051182746887e-01" nType="0">
        <Node pos="l" depth="1" NCoef="0" IVar="3" Cut="1.8993246555328369e+00" cType="1" res="-7.9011313617229462e-02" rms="4.2102709412574768e-01" purity="2.9681602120399475e-01" nType="0">
          <Node pos="l" depth="2" NCoef="0" IVar="-1" Cut="0.0000000000000000e+00" cType="1" res="-2.9246803023852408e-04" rms="4.6918934583663940e-01" purity="3.9020434021949768e-01" nType="-99"/>
          <Node pos="r" depth="2" NCoef="0" IVar="-1" Cut="0.0000000000000000e+00" cType="1" res="-1.8979324027895927e-02" rms="1.1137822270393372e-01" purity="0.0000000000000000e+00" nType="-99"/>
        </Node>
        <Node pos="r" depth="1" NCoef="0" IVar="7" Cut="1.6382786035537720e+00" cType="1" res="1.0202597081661224e-01" rms="4.5566719770431519e-01" purity="5.5069202184677124e-01" nType="0">
          <Node pos="l" depth="2" NCoef="0" IVar="-1" Cut="0.0000000000000000e+00" cType="1" res="1.1146999895572662e-03" rms="4.2622965574264526e-01" purity="7.3385065793991089e-01" nType="-99"/>
          <Node pos="r" depth="2" NCoef="0" IVar="-1" Cut="0.0000000000000000e+00" cType="1" res="-2.8429311350919306e-04" rms="4.5466855168342590e-01" purity="3.4109324216842651e-01" nType="-99"/>
        </Node>
      </Node>
    </BinaryTree>
    <BinaryTree type="DecisionTree" boostWeight="1.0000000000000000e+00" itree="250">
      <Node pos="s" depth="0" NCoef="0" IVar="0" Cut="9.8401534557342529e-01" cType="1" res="6.5858118236064911e-02" rms="4.4506809115409851e-01" purity="4.9477913975715637e-01" nType="0">
        <Node pos="l" depth="1" NCoef="0" IVar="6" Cut="3.3663964843750000e+02" cType="1" res="3.1846139580011368e-02" rms="4.4326755404472351e-01" purity="4.4600412249565125e-01" nType="0">
          <Node pos="l" depth="2" NCoef="0" IVar="-1" Cut="0.0000000000000000e+00" cType="1" res="-6.4619322074577212e-04" rms="4.1697344183921814e-01" purity="2.8677120804786682e-01" nType="-99"/>
          <Node pos="r" depth="2" NCoef="0" IVar="-1" Cut="0.0000000000000000e+00" cType="1" res="7.1477796882390976e-04" rms="4.5216029882431030e-01" purity="5.9716081619262695e-01" nType="-99"/>
        </Node>
        <Node pos="r" depth="1" NCoef="0" IVar="-1" Cut="0.0000000000000000e+00" cType="1" res="1.2519708834588528e-03" rms="4.1033622622489929e-01" purity="7.5146871805191040e-01" nType="-99"/>
      </Node>
    </BinaryTree>
    <BinaryTree type="DecisionTree" boostWeight="1.0000000000000000e+00" itree="251">
      <Node pos="s" depth="0" NCoef="0" IVar="6" Cut="3.2888546752929688e+02" cType="1" res="9.9461704492568970e-02" rms="4.4655612111091614e-01" purity="5.2943116426467896e-01" nType="0">
        <Node pos="l" depth="1" NCoef="0" IVar="1" Cut="5.9185142517089844e+01" cType="1" res="-7.4833002872765064e-03" rms="4.2767226696014404e-01" purity="3.5291099548339844e-01" nType="0">
          <Node pos="l" depth="2" NCoef="0" IVar="-1" Cut="0.0000000000000000e+00" cType="1" res="-2.3560049012303352e-03" rms="3.6561131477355957e-01" purity="1.9275163114070892e-01" nType="-99"/>
          <Node pos="r" depth="2" NCoef="0" IVar="-1" Cut="0.0000000000000000e+00" cType="1" res="5.2203959785401821e-04" rms="4.4250965118408203e-01" purity="4.3898713588714600e-01" nType="-99"/>
        </Node>
        <Node pos="r" depth="1" NCoef="0" IVar="2" Cut="2.7916653442382812e+02" cType="1" res="1.8094101548194885e-01" rms="4.4343817234039307e-01" purity="6.6391843557357788e-01" nType="0">
          <Node pos="l" depth="2" NCoef="0" IVar="-1" Cut="0.0000000000000000e+00" cType="1" res="1.2048705248162150e-03" rms="4.3126142024993896e-01" purity="7.2840529680252075e-01" nType="-99"/>
          <Node pos="r" depth="2" NCoef="0" IVar="-1" Cut="0.0000000000000000e+00" cType="1" res="6.1716535128653049e-04" rms="4.5057374238967896e-01" purity="5.4140067100524902e-01" nType="-99"/>
        </Node>
      </Node>
    </BinaryTree>
    <BinaryTree type="DecisionTree" boostWeight="1.0000000000000000e+00" itree="252">
      <Node pos="s" depth="0" NCoef="0" IVar="4" Cut="7.9253160953521729e-01" cType="1" res="9.5110684633255005e-02" rms="4.5330816507339478e-01" purity="5.2021253108978271e-01" nType="0">
        <Node pos="l" depth="1" NCoef="0" IVar="6" Cut="2.9129013061523438e+02" cType="1" res="1.2172681838274002e-01" rms="4.5312136411666870e-01" purity="5.5599319934844971e-01" nType="0">
          <Node pos="l" depth="2" NCoef="0" IVar="-1" Cut="0.0000000000000000e+00" cType="1" res="1.2524222256615758e-04" rms="4.4843021035194397e-01" purity="3.3499938249588013e-01" nType="-99"/>
          <Node pos="r" depth="2" NCoef="0" IVar="-1" Cut="0.0000000000000000e+00" cType="1" res="9.9004537332803011e-04" rms="4.4669991731643677e-01" purity="6.5215378999710083e-01" nType="-99"/>
        </Node>
        <Node pos="r" depth="1" NCoef="0" IVar="-1" Cut="0.0000000000000000e+00" cType="1" res="-2.7567178476601839e-03" rms="3.7127909064292908e-01" purity="1.8393446505069733e-01" nType="-99"/>
      </Node>
    </BinaryTree>
    <BinaryTree type="DecisionTree" boostWeight="1.0000000000000000e+00" itree="253">
      <Node pos="s" depth="0" NCoef="0" IVar="3" Cut="2.9935188293457031e+00" cType="1" res="8.7991558015346527e-02" rms="4.5498079061508179e-01" purity="5.1361745595932007e-01" nType="0">
        <Node pos="l" depth="1" NCoef="0" IVar="1" Cut="4.3347759246826172e+01" cType="1" res="1.0623032599687576e-01" rms="4.6614575386047363e-01" purity="5.5160778760910034e-01" nType="0">
          <Node pos="l" depth="2" NCoef="0" IVar="-1" Cut="0.0000000000000000e+00" cType="1" res="-6.8101205397397280e-04" rms="4.1746383905410767e-01" purity="2.9387629032135010e-01" nType="-99"/>
          <Node pos="r" depth="2" NCoef="0" IVar="-1" Cut="0.0000000000000000e+00" cType="1" res="8.4546086145564914e-04" rms="4.6788397431373596e-01" purity="5.8671790361404419e-01" nType="-99"/>
        </Node>
        <Node pos="r" depth="1" NCoef="0" IVar="-1" Cut="0.0000000000000000e+00" cType="1" res="-1.6742195934057236e-02" rms="5.1633834838867188e-02" purity="0.0000000000000000e+00" nType="-99"/>
      </Node>
    </BinaryTree>
    <BinaryTree type="DecisionTree" boostWeight="1.0000000000000000e+00" itree="254">
      <Node pos="s" depth="0" NCoef="0" IVar="3" Cut="2.2293033599853516e+00" cType="1" res="8.0074116587638855e-02" rms="4.4814181327819824e-01" purity="5.1513689756393433e-01" nType="0">
        <Node pos="l" depth="1" NCoef="0" IVar="1" Cut="1.1011792755126953e+02" cType="1" res="1.1768353730440140e-01" rms="4.6257692575454712e-01" purity="6.0080963373184204e-01" nType="0">
          <Node pos="l" depth="2" NCoef="0" IVar="-1" Cut="0.0000000000000000e+00" cType="1" res="4.7629539039917290e-04" rms="4.7041139006614685e-01" purity="5.2722311019897461e-01" nType="-99"/>
          <Node pos="r" depth="2" NCoef="0" IVar="-1" Cut="0.0000000000000000e+00" cType="1" res="1.0593414772301912e-03" rms="4.3317365646362305e-01" purity="7.3985213041305542e-01" nType="-99"/>
        </Node>
        <Node pos="r" depth="1" NCoef="0" IVar="7" Cut="2.3117430210113525e+00" cType="1" res="-7.5419649481773376e-02" rms="3.4125074744224548e-01" purity="1.6092841327190399e-01" nType="0">
          <Node pos="l" depth="2" NCoef="0" IVar="-1" Cut="0.0000000000000000e+00" cType="1" res="-5.1710318075492978e-04" rms="3.8171827793121338e-01" purity="2.1588754653930664e-01" nType="-99"/>
          <Node pos="r" depth="2" NCoef="0" IVar="-1" Cut="0.0000000000000000e+00" cType="1" res="-1.8154822289943695e-02" rms="8.1862196326255798e-02" purity="0.0000000000000000e+00" nType="-99"/>
        </Node>
      </Node>
    </BinaryTree>
    <BinaryTree type="DecisionTree" boostWeight="1.0000000000000000e+00" itree="255">
      <Node pos="s" depth="0" NCoef="0" IVar="1" Cut="9.2599082946777344e+01" cType="1" res="1.3259372673928738e-02" rms="4.4361254572868347e-01" purity="4.3579190969467163e-01" nType="0">
        <Node pos="l" depth="1" NCoef="0" IVar="4" Cut="7.7490705251693726e-01" cType="1" res="-6.7428827285766602e-02" rms="4.2352643609046936e-01" purity="3.3123296499252319e-01" nType="0">
          <Node pos="l" depth="2" NCoef="0" IVar="-1" Cut="0.0000000000000000e+00" cType="1" res="-2.9690953670069575e-04" rms="4.4028967618942261e-01" purity="3.8050359487533569e-01" nType="-99"/>
          <Node pos="r" depth="2" NCoef="0" IVar="-1" Cut="0.0000000000000000e+00" cType="1" res="-1.4229346066713333e-02" rms="2.0071765780448914e-01" purity="3.6346662789583206e-02" nType="-99"/>
        </Node>
        <Node pos="r" depth="1" NCoef="0" IVar="3" Cut="1.7744939327239990e+00" cType="1" res="9.1251641511917114e-02" rms="4.4861090183258057e-01" purity="5.3685748577117920e-01" nType="0">
          <Node pos="l" depth="2" NCoef="0" IVar="-1" Cut="0.0000000000000000e+00" cType="1" res="9.1024098219349980e-04" rms="4.3804526329040527e-01" purity="7.2988218069076538e-01" nType="-99"/>
          <Node pos="r" depth="2" NCoef="0" IVar="-1" Cut="0.0000000000000000e+00" cType="1" res="8.1706020864658058e-05" rms="4.4440302252769470e-01" purity="3.3109149336814880e-01" nType="-99"/>
        </Node>
      </Node>
    </BinaryTree>
    <BinaryTree type="DecisionTree" boostWeight="1.0000000000000000e+00" itree="256">
      <Node pos="s" depth="0" NCoef="0" IVar="0" Cut="9.5588362216949463e-01" cType="1" res="7.5442075729370117e-02" rms="4.5723664760589600e-01" purity="4.9850970506668091e-01" nType="0">
        <Node pos="l" depth="1" NCoef="0" IVar="5" Cut="1.2233802080154419e+00" cType="1" res="5.0981510430574417e-03" rms="4.5992797613143921e-01" purity="3.4918865561485291e-01" nType="0">
          <Node pos="l" depth="2" NCoef="0" IVar="-1" Cut="0.0000000000000000e+00" cType="1" res="-1.7771720886230469e-03" rms="3.9135208725929260e-01" purity="2.0893394947052002e-01" nType="-99"/>
          <Node pos="r" depth="2" NCoef="0" IVar="-1" Cut="0.0000000000000000e+00" cType="1" res="6.5679359249770641e-04" rms="4.8872473835945129e-01" purity="4.4533401727676392e-01" nType="-99"/>
        </Node>
        <Node pos="r" depth="1" NCoef="0" IVar="3" Cut="8.3287936449050903e-01" cType="1" res="1.3949480652809143e-01" rms="4.4520694017410278e-01" purity="6.3447624444961548e-01" nType="0">
          <Node pos="l" depth="2" NCoef="0" IVar="-1" Cut="0.0000000000000000e+00" cType="1" res="1.2115370482206345e-03" rms="3.6735859513282776e-01" purity="8.1869095563888550e-01" nType="-99"/>
          <Node pos="r" depth="2" NCoef="0" IVar="-1" Cut="0.0000000000000000e+00" cType="1" res="6.3113786745816469e-04" rms="4.6231979131698608e-01" purity="5.6710642576217651e-01" nType="-99"/>
        </Node>
      </Node>
    </BinaryTree>
    <BinaryTree type="DecisionTree" boostWeight="1.0000000000000000e+00" itree="257">
      <Node pos="s" depth="0" NCoef="0" IVar="1" Cut="4.1103832244873047e+01" cType="1" res="6.7867748439311981e-02" rms="4.4461306929588318e-01" purity="5.0394147634506226e-01" nType="0">
        <Node pos="l" depth="1" NCoef="0" IVar="-1" Cut="0.0000000000000000e+00" cType="1" res="-2.9990416951477528e-03" rms="3.3513662219047546e-01" purity="1.5626250207424164e-01" nType="-99"/>
        <Node pos="r" depth="1" NCoef="0" IVar="3" Cut="8.9837151765823364e-01" cType="1" res="9.1962620615959167e-02" rms="4.4795069098472595e-01" purity="5.4076498746871948e-01" nType="0">
          <Node pos="l" depth="2" NCoef="0" IVar="-1" Cut="0.0000000000000000e+00" cType="1" res="1.1736535234376788e-03" rms="3.9469611644744873e-01" purity="7.7751398086547852e-01" nType="-99"/>
          <Node pos="r" depth="2" NCoef="0" IVar="-1" Cut="0.0000000000000000e+00" cType="1" res="3.2614340307191014e-04" rms="4.5352789759635925e-01" purity="4.5962065458297729e-01" nType="-99"/>
        </Node>
      </Node>
    </BinaryTree>
    <BinaryTree type="DecisionTree" boostWeight="1.0000000000000000e+00" itree="258">
      <Node pos="s" depth="0" NCoef="0" IVar="8" Cut="1.0491194915771484e+02" cType="1" res="6.5959528088569641e-02" rms="4.4524171948432922e-01" purity="4.9849995970726013e-01" nType="0">
        <Node pos="l" depth="1" NCoef="0" IVar="0" Cut="9.6977543830871582e-01" cType="1" res="-8.6106419563293457e-02" rms="4.1427385807037354e-01" purity="3.0390647053718567e-01" nType="0">
          <Node pos="l" depth="2" NCoef="0" IVar="-1" Cut="0.0000000000000000e+00" cType="1" res="-5.0585470162332058e-03" rms="3.4112748503684998e-01" purity="1.2213907390832901e-01" nType="-99"/>
          <Node pos="r" depth="2" NCoef="0" IVar="-1" Cut="0.0000000000000000e+00" cType="1" res="6.2980112852528691e-04" rms="4.4848385453224182e-01" purity="5.9104454517364502e-01" nType="-99"/>
        </Node>
        <Node pos="r" depth="1" NCoef="0" IVar="5" Cut="1.1995738744735718e+00" cType="1" res="1.0544088482856750e-01" rms="4.4450914859771729e-01" purity="5.4902291297912598e-01" nType="0">
          <Node pos="l" depth="2" NCoef="0" IVar="-1" Cut="0.0000000000000000e+00" cType="1" res="3.7314544897526503e-05" rms="4.4157400727272034e-01" purity="4.1143938899040222e-01" nType="-99"/>
          <Node pos="r" depth="2" NCoef="0" IVar="-1" Cut="0.0000000000000000e+00" cType="1" res="1.0373484110459685e-03" rms="4.3214941024780273e-01" purity="6.4817684888839722e-01" nType="-99"/>
        </Node>
      </Node>
    </BinaryTree>
    <BinaryTree type="DecisionTree" boostWeight="1.0000000000000000e+00" itree="259">
      <Node pos="s" depth="0" NCoef="0" IVar="3" Cut="1.8355162143707275e+00" cType="1" res="7.1703143417835236e-02" rms="4.4584661722183228e-01" purity="5.0642031431198120e-01" nType="0">
        <Node pos="l" depth="1" NCoef="0" IVar="8" Cut="8.6721405029296875e+01" cType="1" res="1.2611810863018036e-01" rms="4.5984700322151184e-01" purity="6.1966466903686523e-01" nType="0">
          <Node pos="l" depth="2" NCoef="0" IVar="-1" Cut="0.0000000000000000e+00" cType="1" res="-9.4829918816685677e-04" rms="4.0678805112838745e-01" purity="3.2178103923797607e-01" nType="-99"/>
          <Node pos="r" depth="2" NCoef="0" IVar="-1" Cut="0.0000000000000000e+00" cType="1" res="8.5858971579000354e-04" rms="4.5917409658432007e-01" purity="6.4748716354370117e-01" nType="-99"/>
        </Node>
        <Node pos="r" depth="1" NCoef="0" IVar="4" Cut="6.9313526153564453e-01" cType="1" res="-4.5415416359901428e-02" rms="3.8909882307052612e-01" purity="2.6268187165260315e-01" nType="0">
          <Node pos="l" depth="2" NCoef="0" IVar="-1" Cut="0.0000000000000000e+00" cType="1" res="4.6432294766418636e-04" rms="4.2512327432632446e-01" purity="3.8358670473098755e-01" nType="-99"/>
          <Node pos="r" depth="2" NCoef="0" IVar="-1" Cut="0.0000000000000000e+00" cType="1" res="-7.9099740833044052e-03" rms="2.5034770369529724e-01" purity="5.9661462903022766e-02" nType="-99"/>
        </Node>
      </Node>
    </BinaryTree>
    <BinaryTree type="DecisionTree" boostWeight="1.0000000000000000e+00" itree="260">
      <Node pos="s" depth="0" NCoef="0" IVar="1" Cut="7.9126548767089844e+01" cType="1" res="2.4634292349219322e-02" rms="4.4824296236038208e-01" purity="4.5059174299240112e-01" nType="0">
        <Node pos="l" depth="1" NCoef="0" IVar="8" Cut="1.0150761413574219e+02" cType="1" res="-6.9282606244087219e-02" rms="4.2647764086723328e-01" purity="3.1574842333793640e-01" nType="0">
          <Node pos="l" depth="2" NCoef="0" IVar="-1" Cut="0.0000000000000000e+00" cType="1" res="-6.5309335477650166e-03" rms="2.8744083642959595e-01" purity="1.0846126079559326e-01" nType="-99"/>
          <Node pos="r" depth="2" NCoef="0" IVar="-1" Cut="0.0000000000000000e+00" cType="1" res="-6.2279737903736532e-05" rms="4.5437341928482056e-01" purity="3.9623320102691650e-01" nType="-99"/>
        </Node>
        <Node pos="r" depth="1" NCoef="0" IVar="7" Cut="1.6477923393249512e+00" cType="1" res="8.4845118224620819e-02" rms="4.5149457454681396e-01" purity="5.3704077005386353e-01" nType="0">
          <Node pos="l" depth="2" NCoef="0" IVar="-1" Cut="0.0000000000000000e+00" cType="1" res="1.0157957440242171e-03" rms="4.3050137162208557e-01" purity="7.1779680252075195e-01" nType="-99"/>
          <Node pos="r" depth="2" NCoef="0" IVar="-1" Cut="0.0000000000000000e+00" cType="1" res="-7.2546460432931781e-04" rms="4.3802779912948608e-01" purity="3.0246216058731079e-01" nType="-99"/>
        </Node>
      </Node>
    </BinaryTree>
    <BinaryTree type="DecisionTree" boostWeight="1.0000000000000000e+00" itree="261">
      <Node pos="s" depth="0" NCoef="0" IVar="0" Cut="9.5718884468078613e-01" cType="1" res="5.5024057626724243e-02" rms="4.4914391636848450e-01" purity="4.7882199287414551e-01" nType="0">
        <Node pos="l" depth="1" NCoef="0" IVar="8" Cut="1.0023540496826172e+02" cType="1" res="-1.8217433243989944e-02" rms="4.2913022637367249e-01" purity="3.3764249086380005e-01" nType="0">
          <Node pos="l" depth="2" NCoef="0" IVar="-1" Cut="0.0000000000000000e+00" cType="1" res="-3.5956907086074352e-03" rms="2.9877153038978577e-01" purity="1.4102025330066681e-01" nType="-99"/>
          <Node pos="r" depth="2" NCoef="0" IVar="-1" Cut="0.0000000000000000e+00" cType="1" res="1.7131053027696908e-04" rms="4.4805663824081421e-01" purity="3.8618874549865723e-01" nType="-99"/>
        </Node>
        <Node pos="r" depth="1" NCoef="0" IVar="1" Cut="6.8329925537109375e+01" cType="1" res="1.2610201537609100e-01" rms="4.5665153861045837e-01" purity="6.1583113670349121e-01" nType="0">
          <Node pos="l" depth="2" NCoef="0" IVar="-1" Cut="0.0000000000000000e+00" cType="1" res="4.3224066757829860e-05" rms="4.6452537178993225e-01" purity="4.6366637945175171e-01" nType="-99"/>
          <Node pos="r" depth="2" NCoef="0" IVar="-1" Cut="0.0000000000000000e+00" cType="1" res="9.7115203971043229e-04" rms="4.4512498378753662e-01" purity="6.7368227243423462e-01" nType="-99"/>
        </Node>
      </Node>
    </BinaryTree>
    <BinaryTree type="DecisionTree" boostWeight="1.0000000000000000e+00" itree="262">
      <Node pos="s" depth="0" NCoef="0" IVar="6" Cut="3.2329742431640625e+02" cType="1" res="8.3148241043090820e-02" rms="4.4370481371879578e-01" purity="5.2016508579254150e-01" nType="0">
        <Node pos="l" depth="1" NCoef="0" IVar="5" Cut="1.1381685733795166e+00" cType="1" res="-1.8984992057085037e-02" rms="4.2527082562446594e-01" purity="3.3087924122810364e-01" nType="0">
          <Node pos="l" depth="2" NCoef="0" IVar="-1" Cut="0.0000000000000000e+00" cType="1" res="-2.7289434801787138e-03" rms="3.3917164802551270e-01" purity="1.7392452061176300e-01" nType="-99"/>
          <Node pos="r" depth="2" NCoef="0" IVar="-1" Cut="0.0000000000000000e+00" cType="1" res="4.1737212450243533e-04" rms="4.5231434702873230e-01" purity="4.1524904966354370e-01" nType="-99"/>
        </Node>
        <Node pos="r" depth="1" NCoef="0" IVar="1" Cut="1.1605071258544922e+02" cType="1" res="1.5029156208038330e-01" rms="4.4276291131973267e-01" purity="6.4460325241088867e-01" nType="0">
          <Node pos="l" depth="2" NCoef="0" IVar="-1" Cut="0.0000000000000000e+00" cType="1" res="5.2706903079524636e-04" rms="4.5257446169853210e-01" purity="5.9005665779113770e-01" nType="-99"/>
          <Node pos="r" depth="2" NCoef="0" IVar="-1" Cut="0.0000000000000000e+00" cType="1" res="1.1809659190475941e-03" rms="4.2305916547775269e-01" purity="6.9958788156509399e-01" nType="-99"/>
        </Node>
      </Node>
    </BinaryTree>
    <BinaryTree type="DecisionTree" boostWeight="1.0000000000000000e+00" itree="263">
      <Node pos="s" depth="0" NCoef="0" IVar="0" Cut="9.5845448970794678e-01" cType="1" res="8.7518051266670227e-02" rms="4.3916741013526917e-01" purity="5.3032267093658447e-01" nType="0">
        <Node pos="l" depth="1" NCoef="0" IVar="7" Cut="1.6519365310668945e+00" cType="1" res="-2.0398620981723070e-03" rms="4.3917715549468994e-01" purity="3.6984825134277344e-01" nType="0">
          <Node pos="l" depth="2" NCoef="0" IVar="-1" Cut="0.0000000000000000e+00" cType="1" res="4.3912080582231283e-04" rms="4.5972549915313721e-01" purity="4.5081219077110291e-01" nType="-99"/>
          <Node pos="r" depth="2" NCoef="0" IVar="-1" Cut="0.0000000000000000e+00" cType="1" res="-3.1160591170191765e-03" rms="3.3649259805679321e-01" purity="1.5564270317554474e-01" nType="-99"/>
        </Node>
        <Node pos="r" depth="1" NCoef="0" IVar="3" Cut="2.3670246601104736e+00" cType="1" res="1.7595714330673218e-01" rms="4.2085352540016174e-01" purity="6.8879234790802002e-01" nType="0">
          <Node pos="l" depth="2" NCoef="0" IVar="-1" Cut="0.0000000000000000e+00" cType="1" res="1.0575748747214675e-03" rms="4.1629159450531006e-01" purity="7.5102347135543823e-01" nType="-99"/>
          <Node pos="r" depth="2" NCoef="0" IVar="-1" Cut="0.0000000000000000e+00" cType="1" res="-1.5709566650912166e-03" rms="3.5868552327156067e-01" purity="1.8864502012729645e-01" nType="-99"/>
        </Node>
      </Node>
    </BinaryTree>
    <BinaryTree type="DecisionTree" boostWeight="1.0000000000000000e+00" itree="264">
      <Node pos="s" depth="0" NCoef="0" IVar="8" Cut="9.3417915344238281e+01" cType="1" res="7.3415689170360565e-02" rms="4.6197026968002319e-01" purity="4.8971453309059143e-01" nType="0">
        <Node pos="l" depth="1" NCoef="0" IVar="8" Cut="8.0289031982421875e+01" cType="1" res="-1.1759742349386215e-01" rms="3.8722375035285950e-01" purity="2.4190908670425415e-01" nType="0">
          <Node pos="l" depth="2" NCoef="0" IVar="-1" Cut="0.0000000000000000e+00" cType="1" res="-2.6622993755154312e-04" rms="4.2124032974243164e-01" purity="3.2764154672622681e-01" nType="-99"/>
          <Node pos="r" depth="2" NCoef="0" IVar="-1" Cut="0.0000000000000000e+00" cType="1" res="-5.2906284108757973e-03" rms="2.9503768682479858e-01" purity="1.2891235947608948e-01" nType="-99"/>
        </Node>
        <Node pos="r" depth="1" NCoef="0" IVar="8" Cut="1.3509263610839844e+02" cType="1" res="1.0176547616720200e-01" rms="4.6542277932167053e-01" purity="5.2649331092834473e-01" nType="0">
          <Node pos="l" depth="2" NCoef="0" IVar="-1" Cut="0.0000000000000000e+00" cType="1" res="1.0177281219512224e-03" rms="4.6936821937561035e-01" purity="5.8324223756790161e-01" nType="-99"/>
          <Node pos="r" depth="2" NCoef="0" IVar="-1" Cut="0.0000000000000000e+00" cType="1" res="-6.9716203142888844e-05" rms="4.3720358610153198e-01" purity="4.0666660666465759e-01" nType="-99"/>
        </Node>
      </Node>
    </BinaryTree>
    <BinaryTree type="DecisionTree" boostWeight="1.0000000000000000e+00" itree="265">
      <Node pos="s" depth="0" NCoef="0" IVar="4" Cut="7.6365894079208374e-01" cType="1" res="8.5077881813049316e-02" rms="4.4553238153457642e-01" purity="5.1673579216003418e-01" nType="0">
        <Node pos="l" depth="1" NCoef="0" IVar="0" Cut="9.7189307212829590e-01" cType="1" res="1.1576126515865326e-01" rms="4.4846609234809875e-01" purity="5.5435109138488770e-01" nType="0">
          <Node pos="l" depth="2" NCoef="0" IVar="-1" Cut="0.0000000000000000e+00" cType="1" res="5.3991650929674506e-04" rms="4.5315968990325928e-01" purity="4.6474131941795349e-01" nType="-99"/>
          <Node pos="r" depth="2" NCoef="0" IVar="-1" Cut="0.0000000000000000e+00" cType="1" res="1.1545763118192554e-03" rms="4.1939470171928406e-01" purity="7.4783414602279663e-01" nType="-99"/>
        </Node>
        <Node pos="r" depth="1" NCoef="0" IVar="3" Cut="1.5790563821792603e+00" cType="1" res="-8.8412992656230927e-02" rms="3.8502889871597290e-01" purity="3.0405026674270630e-01" nType="0">
          <Node pos="l" depth="2" NCoef="0" IVar="-1" Cut="0.0000000000000000e+00" cType="1" res="3.4180417424067855e-04" rms="4.5071601867675781e-01" purity="5.6481289863586426e-01" nType="-99"/>
          <Node pos="r" depth="2" NCoef="0" IVar="-1" Cut="0.0000000000000000e+00" cType="1" res="-7.1356804110109806e-03" rms="2.5017708539962769e-01" purity="6.6162943840026855e-02" nType="-99"/>
        </Node>
      </Node>
    </BinaryTree>
    <BinaryTree type="DecisionTree" boostWeight="1.0000000000000000e+00" itree="266">
      <Node pos="s" depth="0" NCoef="0" IVar="0" Cut="9.5468080043792725e-01" cType="1" res="6.6343910992145538e-02" rms="4.5531645417213440e-01" purity="4.8812311887741089e-01" nType="0">
        <Node pos="l" depth="1" NCoef="0" IVar="2" Cut="1.7434783935546875e+02" cType="1" res="-1.0464658960700035e-02" rms="4.4643604755401611e-01" purity="3.3625292778015137e-01" nType="0">
          <Node pos="l" depth="2" NCoef="0" IVar="-1" Cut="0.0000000000000000e+00" cType="1" res="6.7033042432740331e-04" rms="4.7425329685211182e-01" purity="4.2641669511795044e-01" nType="-99"/>
          <Node pos="r" depth="2" NCoef="0" IVar="-1" Cut="0.0000000000000000e+00" cType="1" res="-1.4727460220456123e-03" rms="3.9573699235916138e-01" purity="2.4119591712951660e-01" nType="-99"/>
        </Node>
        <Node pos="r" depth="1" NCoef="0" IVar="3" Cut="1.5084772109985352e+00" cType="1" res="1.3323725759983063e-01" rms="4.5240968465805054e-01" purity="6.2038832902908325e-01" nType="0">
          <Node pos="l" depth="2" NCoef="0" IVar="-1" Cut="0.0000000000000000e+00" cType="1" res="1.0192196350544691e-03" rms="4.2069256305694580e-01" purity="7.4713706970214844e-01" nType="-99"/>
          <Node pos="r" depth="2" NCoef="0" IVar="-1" Cut="0.0000000000000000e+00" cType="1" res="3.5313513944856822e-04" rms="4.7777062654495239e-01" purity="4.4801044464111328e-01" nType="-99"/>
        </Node>
      </Node>
    </BinaryTree>
    <BinaryTree type="DecisionTree" boostWeight="1.0000000000000000e+00" itree="267">
      <Node pos="s" depth="0" NCoef="0" IVar="1" Cut="9.9207389831542969e+01" cType="1" res="6.1795558780431747e-02" rms="4.4643518328666687e-01" purity="4.9574691057205200e-01" nType="0">
        <Node pos="l" depth="1" NCoef="0" IVar="2" Cut="2.0837640380859375e+02" cType="1" res="-3.5187426954507828e-02" rms="4.4402426481246948e-01" purity="3.6176612973213196e-01" nType="0">
          <Node pos="l" depth="2" NCoef="0" IVar="-1" Cut="0.0000000000000000e+00" cType="1" res="1.8003351578954607e-04" rms="4.5968237519264221e-01" purity="4.2624816298484802e-01" nType="-99"/>
          <Node pos="r" depth="2" NCoef="0" IVar="-1" Cut="0.0000000000000000e+00" cType="1" res="-4.4161234982311726e-03" rms="3.3098721504211426e-01" purity="1.5551622211933136e-01" nType="-99"/>
        </Node>
        <Node pos="r" depth="1" NCoef="0" IVar="3" Cut="2.7857906818389893e+00" cType="1" res="1.5988707542419434e-01" rms="4.2701360583305359e-01" purity="6.3125908374786377e-01" nType="0">
          <Node pos="l" depth="2" NCoef="0" IVar="-1" Cut="0.0000000000000000e+00" cType="1" res="1.0632689809426665e-03" rms="4.3288061022758484e-01" purity="6.9900965690612793e-01" nType="-99"/>
          <Node pos="r" depth="2" NCoef="0" IVar="-1" Cut="0.0000000000000000e+00" cType="1" res="-4.3474463745951653e-03" rms="2.5130653381347656e-01" purity="7.2910554707050323e-02" nType="-99"/>
        </Node>
      </Node>
    </BinaryTree>
    <BinaryTree type="DecisionTree" boostWeight="1.0000000000000000e+00" itree="268">
      <Node pos="s" depth="0" NCoef="0" IVar="6" Cut="3.0776181030273438e+02" cType="1" res="6.6858336329460144e-02" rms="4.4302529096603394e-01" purity="4.9910101294517517e-01" nType="0">
        <Node pos="l" depth="1" NCoef="0" IVar="5" Cut="1.0728425979614258e+00" cType="1" res="-5.8943126350641251e-02" rms="4.0368160605430603e-01" purity="2.7662324905395508e-01" nType="0">
          <Node pos="l" depth="2" NCoef="0" IVar="-1" Cut="0.0000000000000000e+00" cType="1" res="-6.6194487735629082e-03" rms="2.8962403535842896e-01" purity="8.8204026222229004e-02" nType="-99"/>
          <Node pos="r" depth="2" NCoef="0" IVar="-1" Cut="0.0000000000000000e+00" cType="1" res="-5.7761793868849054e-05" rms="4.3115550279617310e-01" purity="3.5426476597785950e-01" nType="-99"/>
        </Node>
        <Node pos="r" depth="1" NCoef="0" IVar="0" Cut="9.5689475536346436e-01" cType="1" res="1.3445767760276794e-01" rms="4.4843965768814087e-01" purity="6.1864924430847168e-01" nType="0">
          <Node pos="l" depth="2" NCoef="0" IVar="-1" Cut="0.0000000000000000e+00" cType="1" res="4.2584567563608289e-04" rms="4.7388318181037903e-01" purity="4.6550580859184265e-01" nType="-99"/>
          <Node pos="r" depth="2" NCoef="0" IVar="-1" Cut="0.0000000000000000e+00" cType="1" res="1.0256433160975575e-03" rms="4.1765910387039185e-01" purity="7.3418354988098145e-01" nType="-99"/>
        </Node>
      </Node>
    </BinaryTree>
    <BinaryTree type="DecisionTree" boostWeight="1.0000000000000000e+00" itree="269">
      <Node pos="s" depth="0" NCoef="0" IVar="0" Cut="9.3290209770202637e-01" cType="1" res="5.8582197874784470e-02" rms="4.4871231913566589e-01" purity="4.8461654782295227e-01" nType="0">
        <Node pos="l" depth="1" NCoef="0" IVar="6" Cut="4.0537789916992188e+02" cType="1" res="-8.1745006144046783e-02" rms="3.8943791389465332e-01" purity="2.4101071059703827e-01" nType="0">
          <Node pos="l" depth="2" NCoef="0" IVar="-1" Cut="0.0000000000000000e+00" cType="1" res="-3.6194529384374619e-03" rms="3.0040541291236877e-01" purity="1.2425333261489868e-01" nType="-99"/>
          <Node pos="r" depth="2" NCoef="0" IVar="-1" Cut="0.0000000000000000e+00" cType="1" res="7.4900529580190778e-04" rms="4.9516293406486511e-01" purity="5.1624792814254761e-01" nType="-99"/>
        </Node>
        <Node pos="r" depth="1" NCoef="0" IVar="7" Cut="1.5661495923995972e+00" cType="1" res="9.1041594743728638e-02" rms="4.5522078871726990e-01" purity="5.4096549749374390e-01" nType="0">
          <Node pos="l" depth="2" NCoef="0" IVar="-1" Cut="0.0000000000000000e+00" cType="1" res="8.3383987657725811e-04" rms="4.4614818692207336e-01" purity="6.1482000350952148e-01" nType="-99"/>
          <Node pos="r" depth="2" NCoef="0" IVar="-1" Cut="0.0000000000000000e+00" cType="1" res="5.0971452765224967e-06" rms="4.5863202214241028e-01" purity="4.0004757046699524e-01" nType="-99"/>
        </Node>
      </Node>
    </BinaryTree>
    <BinaryTree type="DecisionTree" boostWeight="1.0000000000000000e+00" itree="270">
      <Node pos="s" depth="0" NCoef="0" IVar="0" Cut="9.4006282091140747e-01" cType="1" res="9.7196765244007111e-02" rms="4.4401881098747253e-01" purity="5.3277075290679932e-01" nType="0">
        <Node pos="l" depth="1" NCoef="0" IVar="6" Cut="4.2442382812500000e+02" cType="1" res="-6.3376761972904205e-02" rms="4.0873429179191589e-01" purity="2.6564162969589233e-01" nType="0">
          <Node pos="l" depth="2" NCoef="0" IVar="-1" Cut="0.0000000000000000e+00" cType="1" res="-3.2918914221227169e-03" rms="3.2716026902198792e-01" purity="1.3569277524948120e-01" nType="-99"/>
          <Node pos="r" depth="2" NCoef="0" IVar="-1" Cut="0.0000000000000000e+00" cType="1" res="1.0658735409379005e-03" rms="4.8769900202751160e-01" purity="5.7740020751953125e-01" nType="-99"/>
        </Node>
        <Node pos="r" depth="1" NCoef="0" IVar="4" Cut="7.7815455198287964e-01" cType="1" res="1.4441041648387909e-01" rms="4.4293275475502014e-01" purity="6.1131513118743896e-01" nType="0">
          <Node pos="l" depth="2" NCoef="0" IVar="-1" Cut="0.0000000000000000e+00" cType="1" res="9.9475635215640068e-04" rms="4.3882954120635986e-01" purity="6.4164203405380249e-01" nType="-99"/>
          <Node pos="r" depth="2" NCoef="0" IVar="-1" Cut="0.0000000000000000e+00" cType="1" res="-8.5047818720340729e-04" rms="4.2572373151779175e-01" purity="3.1612116098403931e-01" nType="-99"/>
        </Node>
      </Node>
    </BinaryTree>
    <BinaryTree type="DecisionTree" boostWeight="1.0000000000000000e+00" itree="271">
      <Node pos="s" depth="0" NCoef="0" IVar="6" Cut="3.0063180541992188e+02" cType="1" res="8.1668637692928314e-02" rms="4.4958803057670593e-01" purity="5.0947046279907227e-01" nType="0">
        <Node pos="l" depth="1" NCoef="0" IVar="4" Cut="6.4877730607986450e-01" cType="1" res="-2.9716787859797478e-02" rms="4.3026259541511536e-01" purity="2.9494729638099670e-01" nType="0">
          <Node pos="l" depth="2" NCoef="0" IVar="-1" Cut="0.0000000000000000e+00" cType="1" res="5.9366639470681548e-04" rms="4.7802743315696716e-01" purity="3.9547818899154663e-01" nType="-99"/>
          <Node pos="r" depth="2" NCoef="0" IVar="-1" Cut="0.0000000000000000e+00" cType="1" res="-2.3638983257114887e-03" rms="3.4552022814750671e-01" purity="1.8572932481765747e-01" nType="-99"/>
        </Node>
        <Node pos="r" depth="1" NCoef="0" IVar="0" Cut="9.6382832527160645e-01" cType="1" res="1.3570176064968109e-01" rms="4.4882035255432129e-01" purity="6.1353576183319092e-01" nType="0">
          <Node pos="l" depth="2" NCoef="0" IVar="-1" Cut="0.0000000000000000e+00" cType="1" res="5.3861940978094935e-04" rms="4.6817484498023987e-01" purity="5.0929838418960571e-01" nType="-99"/>
          <Node pos="r" depth="2" NCoef="0" IVar="-1" Cut="0.0000000000000000e+00" cType="1" res="1.1034613708034158e-03" rms="4.0979531407356262e-01" purity="7.4692511558532715e-01" nType="-99"/>
        </Node>
      </Node>
    </BinaryTree>
    <BinaryTree type="DecisionTree" boostWeight="1.0000000000000000e+00" itree="272">
      <Node pos="s" depth="0" NCoef="0" IVar="6" Cut="2.4827931213378906e+02" cType="1" res="4.7471512109041214e-02" rms="4.4558554887771606e-01" purity="4.7116586565971375e-01" nType="0">
        <Node pos="l" depth="1" NCoef="0" IVar="7" Cut="1.5646344423294067e+00" cType="1" res="-1.6056066751480103e-01" rms="2.8661808371543884e-01" purity="1.2132096290588379e-01" nType="0">
          <Node pos="l" depth="2" NCoef="0" IVar="-1" Cut="0.0000000000000000e+00" cType="1" res="-8.4337545558810234e-03" rms="2.1201211214065552e-01" purity="5.2377458661794662e-02" nType="-99"/>
          <Node pos="r" depth="2" NCoef="0" IVar="-1" Cut="0.0000000000000000e+00" cType="1" res="-9.4789330614730716e-04" rms="3.4171408414840698e-01" purity="2.1466682851314545e-01" nType="-99"/>
        </Node>
        <Node pos="r" depth="1" NCoef="0" IVar="7" Cut="2.1116166114807129e+00" cType="1" res="7.8782364726066589e-02" rms="4.5669600367546082e-01" purity="5.2382087707519531e-01" nType="0">
          <Node pos="l" depth="2" NCoef="0" IVar="-1" Cut="0.0000000000000000e+00" cType="1" res="6.7617278546094894e-04" rms="4.6150201559066772e-01" purity="5.6686246395111084e-01" nType="-99"/>
          <Node pos="r" depth="2" NCoef="0" IVar="-1" Cut="0.0000000000000000e+00" cType="1" res="-4.1869152337312698e-03" rms="3.4127783775329590e-01" purity="1.2637262046337128e-01" nType="-99"/>
        </Node>
      </Node>
    </BinaryTree>
    <BinaryTree type="DecisionTree" boostWeight="1.0000000000000000e+00" itree="273">
      <Node pos="s" depth="0" NCoef="0" IVar="6" Cut="2.8058776855468750e+02" cType="1" res="7.0604443550109863e-02" rms="4.5109066367149353e-01" purity="4.9677708745002747e-01" nType="0">
        <Node pos="l" depth="1" NCoef="0" IVar="3" Cut="1.4523186683654785e+00" cType="1" res="-6.4978435635566711e-02" rms="4.0263083577156067e-01" purity="2.3788425326347351e-01" nType="0">
          <Node pos="l" depth="2" NCoef="0" IVar="-1" Cut="0.0000000000000000e+00" cType="1" res="-6.8513308651745319e-03" rms="3.2329490780830383e-01" purity="1.2057649344205856e-01" nType="-99"/>
          <Node pos="r" depth="2" NCoef="0" IVar="-1" Cut="0.0000000000000000e+00" cType="1" res="1.2914251419715583e-04" rms="4.0953296422958374e-01" purity="2.8735306859016418e-01" nType="-99"/>
        </Node>
        <Node pos="r" depth="1" NCoef="0" IVar="0" Cut="9.5450288057327271e-01" cType="1" res="1.1542710661888123e-01" rms="4.5724558830261230e-01" purity="5.8236503601074219e-01" nType="0">
          <Node pos="l" depth="2" NCoef="0" IVar="-1" Cut="0.0000000000000000e+00" cType="1" res="2.1215132437646389e-04" rms="4.6835240721702576e-01" purity="4.1635116934776306e-01" nType="-99"/>
          <Node pos="r" depth="2" NCoef="0" IVar="-1" Cut="0.0000000000000000e+00" cType="1" res="9.8512484692037106e-04" rms="4.3748265504837036e-01" purity="7.0060753822326660e-01" nType="-99"/>
        </Node>
      </Node>
    </BinaryTree>
    <BinaryTree type="DecisionTree" boostWeight="1.0000000000000000e+00" itree="274">
      <Node pos="s" depth="0" NCoef="0" IVar="3" Cut="1.4146455526351929e+00" cType="1" res="4.9267672002315521e-02" rms="4.4434592127799988e-01" purity="4.7777202725410461e-01" nType="0">
        <Node pos="l" depth="1" NCoef="0" IVar="6" Cut="2.7435913085937500e+02" cType="1" res="1.4642591774463654e-01" rms="4.5000895857810974e-01" purity="6.5227580070495605e-01" nType="0">
          <Node pos="l" depth="2" NCoef="0" IVar="-1" Cut="0.0000000000000000e+00" cType="1" res="-2.7127619250677526e-04" rms="4.5796939730644226e-01" purity="3.4104779362678528e-01" nType="-99"/>
          <Node pos="r" depth="2" NCoef="0" IVar="-1" Cut="0.0000000000000000e+00" cType="1" res="9.4040401745587587e-04" rms="4.4080007076263428e-01" purity="7.1259307861328125e-01" nType="-99"/>
        </Node>
        <Node pos="r" depth="1" NCoef="0" IVar="0" Cut="9.6904289722442627e-01" cType="1" res="-5.0599455833435059e-02" rms="4.1540455818176270e-01" purity="2.9840296506881714e-01" nType="0">
          <Node pos="l" depth="2" NCoef="0" IVar="-1" Cut="0.0000000000000000e+00" cType="1" res="-1.8383826827630401e-03" rms="3.7176784873008728e-01" purity="2.0523592829704285e-01" nType="-99"/>
          <Node pos="r" depth="2" NCoef="0" IVar="-1" Cut="0.0000000000000000e+00" cType="1" res="6.1710836598649621e-04" rms="4.7938522696495056e-01" purity="5.2264451980590820e-01" nType="-99"/>
        </Node>
      </Node>
    </BinaryTree>
    <BinaryTree type="DecisionTree" boostWeight="1.0000000000000000e+00" itree="275">
      <Node pos="s" depth="0" NCoef="0" IVar="1" Cut="5.5840579986572266e+01" cType="1" res="9.2570438981056213e-02" rms="4.4672957062721252e-01" purity="5.2819818258285522e-01" nType="0">
        <Node pos="l" depth="1" NCoef="0" IVar="8" Cut="1.0336988830566406e+02" cType="1" res="-4.9931380897760391e-02" rms="4.1565355658531189e-01" purity="3.0065047740936279e-01" nType="0">
          <Node pos="l" depth="2" NCoef="0" IVar="-1" Cut="0.0000000000000000e+00" cType="1" res="-8.8733881711959839e-03" rms="2.0265041291713715e-01" purity="5.7607602328062057e-02" nType="-99"/>
          <Node pos="r" depth="2" NCoef="0" IVar="-1" Cut="0.0000000000000000e+00" cType="1" res="4.0920134051702917e-04" rms="4.5432692766189575e-01" purity="4.1478085517883301e-01" nType="-99"/>
        </Node>
        <Node pos="r" depth="1" NCoef="0" IVar="7" Cut="1.8786530494689941e+00" cType="1" res="1.2306606769561768e-01" rms="4.4724351167678833e-01" purity="5.7689374685287476e-01" nType="0">
          <Node pos="l" depth="2" NCoef="0" IVar="-1" Cut="0.0000000000000000e+00" cType="1" res="9.7262091003358364e-04" rms="4.4735193252563477e-01" purity="6.5367770195007324e-01" nType="-99"/>
          <Node pos="r" depth="2" NCoef="0" IVar="-1" Cut="0.0000000000000000e+00" cType="1" res="-3.5038558416999876e-04" rms="4.1298785805702209e-01" purity="3.0689898133277893e-01" nType="-99"/>
        </Node>
      </Node>
    </BinaryTree>
    <BinaryTree type="DecisionTree" boostWeight="1.0000000000000000e+00" itree="276">
      <Node pos="s" depth="0" NCoef="0" IVar="0" Cut="9.5986491441726685e-01" cType="1" res="5.3882356733083725e-02" rms="4.4355487823486328e-01" purity="4.7768524289131165e-01" nType="0">
        <Node pos="l" depth="1" NCoef="0" IVar="5" Cut="1.4675185680389404e+00" cType="1" res="-3.1984321773052216e-02" rms="4.3668422102928162e-01" purity="3.2084965705871582e-01" nType="0">
          <Node pos="l" depth="2" NCoef="0" IVar="-1" Cut="0.0000000000000000e+00" cType="1" res="1.5016157703939825e-04" rms="4.4702672958374023e-01" purity="3.6503636837005615e-01" nType="-99"/>
          <Node pos="r" depth="2" NCoef="0" IVar="-1" Cut="0.0000000000000000e+00" cType="1" res="-3.2791080884635448e-03" rms="3.5597854852676392e-01" purity="1.7020641267299652e-01" nType="-99"/>
        </Node>
        <Node pos="r" depth="1" NCoef="0" IVar="8" Cut="1.3262016296386719e+02" cType="1" res="1.5148954093456268e-01" rms="4.3093767762184143e-01" purity="6.5596485137939453e-01" nType="0">
          <Node pos="l" depth="2" NCoef="0" IVar="-1" Cut="0.0000000000000000e+00" cType="1" res="1.0867182863876224e-03" rms="4.1176921129226685e-01" purity="7.1277248859405518e-01" nType="-99"/>
          <Node pos="r" depth="2" NCoef="0" IVar="-1" Cut="0.0000000000000000e+00" cType="1" res="-1.1886194261023775e-04" rms="4.4852876663208008e-01" purity="4.7274932265281677e-01" nType="-99"/>
        </Node>
      </Node>
    </BinaryTree>
    <BinaryTree type="DecisionTree" boostWeight="1.0000000000000000e+00" itree="277">
      <Node pos="s" depth="0" NCoef="0" IVar="0" Cut="9.5989668369293213e-01" cType="1" res="8.5170902311801910e-02" rms="4.4939348101615906e-01" purity="5.1228052377700806e-01" nType="0">
        <Node pos="l" depth="1" NCoef="0" IVar="6" Cut="4.3283764648437500e+02" cType="1" res="1.7121007665991783e-02" rms="4.4238337874412537e-01" purity="3.8013976812362671e-01" nType="0">
          <Node pos="l" depth="2" NCoef="0" IVar="-1" Cut="0.0000000000000000e+00" cType="1" res="-2.8582356753759086e-04" rms="4.3043208122253418e-01" purity="2.9929468035697937e-01" nType="-99"/>
          <Node pos="r" depth="2" NCoef="0" IVar="-1" Cut="0.0000000000000000e+00" cType="1" res="8.2754966570064425e-04" rms="4.5512041449546814e-01" purity="6.0385465621948242e-01" nType="-99"/>
        </Node>
        <Node pos="r" depth="1" NCoef="0" IVar="8" Cut="1.0607536315917969e+02" cType="1" res="1.6126640141010284e-01" rms="4.4494521617889404e-01" purity="6.6004443168640137e-01" nType="0">
          <Node pos="l" depth="2" NCoef="0" IVar="-1" Cut="0.0000000000000000e+00" cType="1" res="1.8424977315589786e-04" rms="4.7217798233032227e-01" purity="4.7042378783226013e-01" nType="-99"/>
          <Node pos="r" depth="2" NCoef="0" IVar="-1" Cut="0.0000000000000000e+00" cType="1" res="1.0753633687272668e-03" rms="4.3344298005104065e-01" purity="6.9959324598312378e-01" nType="-99"/>
        </Node>
      </Node>
    </BinaryTree>
    <BinaryTree type="DecisionTree" boostWeight="1.0000000000000000e+00" itree="278">
      <Node pos="s" depth="0" NCoef="0" IVar="0" Cut="9.5837622880935669e-01" cType="1" res="3.7140607833862305e-02" rms="4.4714474678039551e-01" purity="4.6906551718711853e-01" nType="0">
        <Node pos="l" depth="1" NCoef="0" IVar="0" Cut="9.4827467203140259e-01" cType="1" res="-3.8114849478006363e-02" rms="4.3571168184280396e-01" purity="3.1986555457115173e-01" nType="0">
          <Node pos="l" depth="2" NCoef="0" IVar="-1" Cut="0.0000000000000000e+00" cType="1" res="2.0587354811141267e-05" rms="4.3784797191619873e-01" purity="3.5419040918350220e-01" nType="-99"/>
          <Node pos="r" depth="2" NCoef="0" IVar="-1" Cut="0.0000000000000000e+00" cType="1" res="-3.2637207768857479e-03" rms="3.9455631375312805e-01" purity="1.9468559324741364e-01" nType="-99"/>
        </Node>
        <Node pos="r" depth="1" NCoef="0" IVar="7" Cut="1.8493052721023560e+00" cType="1" res="1.1545446515083313e-01" rms="4.4543886184692383e-01" purity="6.2432914972305298e-01" nType="0">
          <Node pos="l" depth="2" NCoef="0" IVar="-1" Cut="0.0000000000000000e+00" cType="1" res="9.0932135935872793e-04" rms="4.4030499458312988e-01" purity="6.7953741550445557e-01" nType="-99"/>
          <Node pos="r" depth="2" NCoef="0" IVar="-1" Cut="0.0000000000000000e+00" cType="1" res="-1.1324799852445722e-03" rms="4.0521195530891418e-01" purity="3.1537145376205444e-01" nType="-99"/>
        </Node>
      </Node>
    </BinaryTree>
    <BinaryTree type="DecisionTree" boostWeight="1.0000000000000000e+00" itree="279">
      <Node pos="s" depth="0" NCoef="0" IVar="6" Cut="3.0715789794921875e+02" cType="1" res="9.3398287892341614e-02" rms="4.4376882910728455e-01" purity="5.2568596601486206e-01" nType="0">
        <Node pos="l" depth="1" NCoef="0" IVar="4" Cut="6.9857573509216309e-01" cType="1" res="9.0599795803427696e-03" rms="4.3256840109825134e-01" purity="3.4909117221832275e-01" nType="0">
          <Node pos="l" depth="2" NCoef="0" IVar="-1" Cut="0.0000000000000000e+00" cType="1" res="6.2970625003799796e-04" rms="4.5501551032066345e-01" purity="4.3459796905517578e-01" nType="-99"/>
          <Node pos="r" depth="2" NCoef="0" IVar="-1" Cut="0.0000000000000000e+00" cType="1" res="-3.5328990779817104e-03" rms="3.2222115993499756e-01" purity="1.4067393541336060e-01" nType="-99"/>
        </Node>
        <Node pos="r" depth="1" NCoef="0" IVar="2" Cut="4.1066812133789062e+02" cType="1" res="1.4023020863533020e-01" rms="4.4298776984214783e-01" purity="6.2374663352966309e-01" nType="0">
          <Node pos="l" depth="2" NCoef="0" IVar="-1" Cut="0.0000000000000000e+00" cType="1" res="9.5352227799594402e-04" rms="4.4078996777534485e-01" purity="6.5811383724212646e-01" nType="-99"/>
          <Node pos="r" depth="2" NCoef="0" IVar="-1" Cut="0.0000000000000000e+00" cType="1" res="-1.8824195722118020e-03" rms="3.6863145232200623e-01" purity="2.3999911546707153e-01" nType="-99"/>
        </Node>
      </Node>
    </BinaryTree>
    <BinaryTree type="DecisionTree" boostWeight="1.0000000000000000e+00" itree="280">
      <Node pos="s" depth="0" NCoef="0" IVar="0" Cut="9.2760711908340454e-01" cType="1" res="9.8503202199935913e-02" rms="4.4930443167686462e-01" purity="5.2832144498825073e-01" nType="0">
        <Node pos="l" depth="1" NCoef="0" IVar="7" Cut="1.5088613033294678e+00" cType="1" res="-6.9618575274944305e-02" rms="3.8890382647514343e-01" purity="2.5746846199035645e-01" nType="0">
          <Node pos="l" depth="2" NCoef="0" IVar="-1" Cut="0.0000000000000000e+00" cType="1" res="-1.8727632414083928e-04" rms="4.2209130525588989e-01" purity="3.2315286993980408e-01" nType="-99"/>
          <Node pos="r" depth="2" NCoef="0" IVar="-1" Cut="0.0000000000000000e+00" cType="1" res="-2.8846489731222391e-03" rms="3.1770300865173340e-01" purity="1.6026128828525543e-01" nType="-99"/>
        </Node>
        <Node pos="r" depth="1" NCoef="0" IVar="1" Cut="9.9915573120117188e+01" cType="1" res="1.2639911472797394e-01" rms="4.5255604386329651e-01" purity="5.7326316833496094e-01" nType="0">
          <Node pos="l" depth="2" NCoef="0" IVar="-1" Cut="0.0000000000000000e+00" cType="1" res="4.9865373875945807e-04" rms="4.5963212847709656e-01" purity="4.9101105332374573e-01" nType="-99"/>
          <Node pos="r" depth="2" NCoef="0" IVar="-1" Cut="0.0000000000000000e+00" cType="1" res="1.1193162063136697e-03" rms="4.3482691049575806e-01" purity="6.6449409723281860e-01" nType="-99"/>
        </Node>
      </Node>
    </BinaryTree>
    <BinaryTree type="DecisionTree" boostWeight="1.0000000000000000e+00" itree="281">
      <Node pos="s" depth="0" NCoef="0" IVar="6" Cut="4.0781668090820312e+02" cType="1" res="3.3808667212724686e-02" rms="4.3682783842086792e-01" purity="4.6910601854324341e-01" nType="0">
        <Node pos="l" depth="1" NCoef="0" IVar="2" Cut="2.3118301391601562e+02" cType="1" res="-2.0458893850445747e-02" rms="4.2757987976074219e-01" purity="3.7465924024581909e-01" nType="0">
          <Node pos="l" depth="2" NCoef="0" IVar="-1" Cut="0.0000000000000000e+00" cType="1" res="1.5596918819937855e-04" rms="4.4876208901405334e-01" purity="4.4164055585861206e-01" nType="-99"/>
          <Node pos="r" depth="2" NCoef="0" IVar="-1" Cut="0.0000000000000000e+00" cType="1" res="-6.5809343941509724e-03" rms="2.5481563806533813e-01" purity="8.0623619258403778e-02" nType="-99"/>
        </Node>
        <Node pos="r" depth="1" NCoef="0" IVar="3" Cut="1.2403544187545776e+00" cType="1" res="1.4955289661884308e-01" rms="4.3380945920944214e-01" purity="6.7054635286331177e-01" nType="0">
          <Node pos="l" depth="2" NCoef="0" IVar="-1" Cut="0.0000000000000000e+00" cType="1" res="1.1090835323557258e-03" rms="3.9255595207214355e-01" purity="8.0118596553802490e-01" nType="-99"/>
          <Node pos="r" depth="2" NCoef="0" IVar="-1" Cut="0.0000000000000000e+00" cType="1" res="4.5981488074176013e-04" rms="4.5576435327529907e-01" purity="5.4152923822402954e-01" nType="-99"/>
        </Node>
      </Node>
    </BinaryTree>
    <BinaryTree type="DecisionTree" boostWeight="1.0000000000000000e+00" itree="282">
      <Node pos="s" depth="0" NCoef="0" IVar="0" Cut="9.6236616373062134e-01" cType="1" res="5.4239600896835327e-02" rms="4.3672212958335876e-01" purity="4.8993602395057678e-01" nType="0">
        <Node pos="l" depth="1" NCoef="0" IVar="8" Cut="9.8944343566894531e+01" cType="1" res="-1.8960528075695038e-02" rms="4.3333557248115540e-01" purity="3.5295876860618591e-01" nType="0">
          <Node pos="l" depth="2" NCoef="0" IVar="-1" Cut="0.0000000000000000e+00" cType="1" res="-3.9332606829702854e-03" rms="3.1596288084983826e-01" purity="1.3068750500679016e-01" nType="-99"/>
          <Node pos="r" depth="2" NCoef="0" IVar="-1" Cut="0.0000000000000000e+00" cType="1" res="1.0192123590968549e-04" rms="4.4801804423332214e-01" purity="3.9888405799865723e-01" nType="-99"/>
        </Node>
        <Node pos="r" depth="1" NCoef="0" IVar="7" Cut="1.9053627252578735e+00" cType="1" res="1.4790105819702148e-01" rms="4.2292770743370056e-01" purity="6.6520202159881592e-01" nType="0">
          <Node pos="l" depth="2" NCoef="0" IVar="-1" Cut="0.0000000000000000e+00" cType="1" res="9.6358481096103787e-04" rms="4.0954735875129700e-01" purity="7.1712517738342285e-01" nType="-99"/>
          <Node pos="r" depth="2" NCoef="0" IVar="-1" Cut="0.0000000000000000e+00" cType="1" res="-7.5309933163225651e-04" rms="4.3763440847396851e-01" purity="3.4712716937065125e-01" nType="-99"/>
        </Node>
      </Node>
    </BinaryTree>
    <BinaryTree type="DecisionTree" boostWeight="1.0000000000000000e+00" itree="283">
      <Node pos="s" depth="0" NCoef="0" IVar="3" Cut="7.0776838064193726e-01" cType="1" res="7.3061682283878326e-02" rms="4.4048610329627991e-01" purity="5.0678479671478271e-01" nType="0">
        <Node pos="l" depth="1" NCoef="0" IVar="-1" Cut="0.0000000000000000e+00" cType="1" res="1.1672776890918612e-03" rms="3.9750272035598755e-01" purity="7.6216804981231689e-01" nType="-99"/>
        <Node pos="r" depth="1" NCoef="0" IVar="8" Cut="1.0277655792236328e+02" cType="1" res="3.8954060524702072e-02" rms="4.4079524278640747e-01" purity="4.5551761984825134e-01" nType="0">
          <Node pos="l" depth="2" NCoef="0" IVar="-1" Cut="0.0000000000000000e+00" cType="1" res="-2.0244377665221691e-03" rms="3.6272212862968445e-01" purity="2.2608250379562378e-01" nType="-99"/>
          <Node pos="r" depth="2" NCoef="0" IVar="-1" Cut="0.0000000000000000e+00" cType="1" res="5.8536336291581392e-04" rms="4.4754618406295776e-01" purity="5.0860852003097534e-01" nType="-99"/>
        </Node>
      </Node>
    </BinaryTree>
    <BinaryTree type="DecisionTree" boostWeight="1.0000000000000000e+00" itree="284">
      <Node pos="s" depth="0" NCoef="0" IVar="6" Cut="3.5206866455078125e+02" cType="1" res="8.0593056976795197e-02" rms="4.4085672497749329e-01" purity="5.1565027236938477e-01" nType="0">
        <Node pos="l" depth="1" NCoef="0" IVar="3" Cut="1.1170961856842041e+00" cType="1" res="1.7484610900282860e-02" rms="4.3384835124015808e-01" purity="3.9372408390045166e-01" nType="0">
          <Node pos="l" depth="2" NCoef="0" IVar="-1" Cut="0.0000000000000000e+00" cType="1" res="8.2361721433699131e-04" rms="4.5190161466598511e-01" purity="5.9481936693191528e-01" nType="-99"/>
          <Node pos="r" depth="2" NCoef="0" IVar="-1" Cut="0.0000000000000000e+00" cType="1" res="-6.0466997092589736e-04" rms="4.0914094448089600e-01" purity="2.8224018216133118e-01" nType="-99"/>
        </Node>
        <Node pos="r" depth="1" NCoef="0" IVar="0" Cut="9.4400399923324585e-01" cType="1" res="1.5122224390506744e-01" rms="4.3791511654853821e-01" purity="6.5210682153701782e-01" nType="0">
          <Node pos="l" depth="2" NCoef="0" IVar="-1" Cut="0.0000000000000000e+00" cType="1" res="3.2959412783384323e-04" rms="4.7658383846282959e-01" purity="4.4995412230491638e-01" nType="-99"/>
          <Node pos="r" depth="2" NCoef="0" IVar="-1" Cut="0.0000000000000000e+00" cType="1" res="9.9646078888326883e-04" rms="4.1698092222213745e-01" purity="7.2145855426788330e-01" nType="-99"/>
        </Node>
      </Node>
    </BinaryTree>
    <BinaryTree type="DecisionTree" boostWeight="1.0000000000000000e+00" itree="285">
      <Node pos="s" depth="0" NCoef="0" IVar="3" Cut="2.6093831062316895e+00" cType="1" res="7.7255800366401672e-02" rms="4.4371053576469421e-01" purity="5.0632643699645996e-01" nType="0">
        <Node pos="l" depth="1" NCoef="0" IVar="8" Cut="9.5901954650878906e+01" cType="1" res="1.0480207204818726e-01" rms="4.6044296026229858e-01" purity="5.6998646259307861e-01" nType="0">
          <Node pos="l" depth="2" NCoef="0" IVar="-1" Cut="0.0000000000000000e+00" cType="1" res="-1.5285606496036053e-03" rms="3.8729596138000488e-01" purity="2.8191709518432617e-01" nType="-99"/>
          <Node pos="r" depth="2" NCoef="0" IVar="-1" Cut="0.0000000000000000e+00" cType="1" res="8.2904309965670109e-04" rms="4.6054095029830933e-01" purity="6.0768795013427734e-01" nType="-99"/>
        </Node>
        <Node pos="r" depth="1" NCoef="0" IVar="0" Cut="9.4214797019958496e-01" cType="1" res="-1.2544403970241547e-01" rms="1.9718925654888153e-01" purity="3.7882830947637558e-02" nType="0">
          <Node pos="l" depth="2" NCoef="0" IVar="-1" Cut="0.0000000000000000e+00" cType="1" res="-1.5924934996291995e-03" rms="2.6753029227256775e-01" purity="8.6909882724285126e-02" nType="-99"/>
          <Node pos="r" depth="2" NCoef="0" IVar="-1" Cut="0.0000000000000000e+00" cType="1" res="-1.7875760793685913e-02" rms="5.9134986251592636e-02" purity="0.0000000000000000e+00" nType="-99"/>
        </Node>
      </Node>
    </BinaryTree>
    <BinaryTree type="DecisionTree" boostWeight="1.0000000000000000e+00" itree="286">
      <Node pos="s" depth="0" NCoef="0" IVar="6" Cut="2.5278750610351562e+02" cType="1" res="9.6043661236763000e-02" rms="4.4485807418823242e-01" purity="5.2959007024765015e-01" nType="0">
        <Node pos="l" depth="1" NCoef="0" IVar="6" Cut="2.2642504882812500e+02" cType="1" res="-6.3037365674972534e-02" rms="3.6691334843635559e-01" purity="2.1725371479988098e-01" nType="0">
          <Node pos="l" depth="2" NCoef="0" IVar="-1" Cut="0.0000000000000000e+00" cType="1" res="-4.2950813658535480e-03" rms="2.8802335262298584e-01" purity="1.0147726535797119e-01" nType="-99"/>
          <Node pos="r" depth="2" NCoef="0" IVar="-1" Cut="0.0000000000000000e+00" cType="1" res="1.0712189396144822e-04" rms="4.1097426414489746e-01" purity="3.1953090429306030e-01" nType="-99"/>
        </Node>
        <Node pos="r" depth="1" NCoef="0" IVar="7" Cut="1.9299917221069336e+00" cType="1" res="1.2360043823719025e-01" rms="4.5134913921356201e-01" purity="5.8369439840316772e-01" nType="0">
          <Node pos="l" depth="2" NCoef="0" IVar="-1" Cut="0.0000000000000000e+00" cType="1" res="8.8789348956197500e-04" rms="4.4902065396308899e-01" purity="6.3174510002136230e-01" nType="-99"/>
          <Node pos="r" depth="2" NCoef="0" IVar="-1" Cut="0.0000000000000000e+00" cType="1" res="-1.9224846619181335e-04" rms="4.3809583783149719e-01" purity="3.2609969377517700e-01" nType="-99"/>
        </Node>
      </Node>
    </BinaryTree>
    <BinaryTree type="DecisionTree" boostWeight="1.0000000000000000e+00" itree="287">
      <Node pos="s" depth="0" NCoef="0" IVar="6" Cut="3.3847003173828125e+02" cType="1" res="1.7189677804708481e-02" rms="4.3969073891639709e-01" purity="4.5202448964118958e-01" nType="0">
        <Node pos="l" depth="1" NCoef="0" IVar="8" Cut="1.3393215942382812e+02" cType="1" res="-6.8136706948280334e-02" rms="4.1408744454383850e-01" purity="2.9033851623535156e-01" nType="0">
          <Node pos="l" depth="2" NCoef="0" IVar="-1" Cut="0.0000000000000000e+00" cType="1" res="-3.3414215431548655e-04" rms="4.3263816833496094e-01" purity="3.4501343965530396e-01" nType="-99"/>
          <Node pos="r" depth="2" NCoef="0" IVar="-1" Cut="0.0000000000000000e+00" cType="1" res="-6.1790770851075649e-03" rms="2.9603704810142517e-01" purity="8.6536385118961334e-02" nType="-99"/>
        </Node>
        <Node pos="r" depth="1" NCoef="0" IVar="3" Cut="1.1036754846572876e+00" cType="1" res="9.3021206557750702e-02" rms="4.4781044125556946e-01" purity="5.9571856260299683e-01" nType="0">
          <Node pos="l" depth="2" NCoef="0" IVar="-1" Cut="0.0000000000000000e+00" cType="1" res="9.7145850304514170e-04" rms="4.1478994488716125e-01" purity="7.6057153940200806e-01" nType="-99"/>
          <Node pos="r" depth="2" NCoef="0" IVar="-1" Cut="0.0000000000000000e+00" cType="1" res="1.3512860459741205e-04" rms="4.5681524276733398e-01" purity="4.7231858968734741e-01" nType="-99"/>
        </Node>
      </Node>
    </BinaryTree>
    <BinaryTree type="DecisionTree" boostWeight="1.0000000000000000e+00" itree="288">
      <Node pos="s" depth="0" NCoef="0" IVar="3" Cut="1.3399417400360107e+00" cType="1" res="7.5076326727867126e-02" rms="4.5579877495765686e-01" purity="4.9146580696105957e-01" nType="0">
        <Node pos="l" depth="1" NCoef="0" IVar="4" Cut="6.0186928510665894e-01" cType="1" res="1.6435793042182922e-01" rms="4.5695388317108154e-01" purity="6.5754145383834839e-01" nType="0">
          <Node pos="l" depth="2" NCoef="0" IVar="-1" Cut="0.0000000000000000e+00" cType="1" res="1.2927240459248424e-03" rms="4.2427125573158264e-01" purity="7.4616730213165283e-01" nType="-99"/>
          <Node pos="r" depth="2" NCoef="0" IVar="-1" Cut="0.0000000000000000e+00" cType="1" res="7.8919361112639308e-04" rms="4.6498656272888184e-01" purity="6.2076503038406372e-01" nType="-99"/>
        </Node>
        <Node pos="r" depth="1" NCoef="0" IVar="1" Cut="6.5273529052734375e+01" cType="1" res="4.2101661674678326e-03" rms="4.4222915172576904e-01" purity="3.5964533686637878e-01" nType="0">
          <Node pos="l" depth="2" NCoef="0" IVar="-1" Cut="0.0000000000000000e+00" cType="1" res="-5.0403201021254063e-03" rms="3.0636832118034363e-01" purity="9.9550642073154449e-02" nType="-99"/>
          <Node pos="r" depth="2" NCoef="0" IVar="-1" Cut="0.0000000000000000e+00" cType="1" res="4.2980848229490221e-04" rms="4.5873317122459412e-01" purity="4.2272150516510010e-01" nType="-99"/>
        </Node>
      </Node>
    </BinaryTree>
    <BinaryTree type="DecisionTree" boostWeight="1.0000000000000000e+00" itree="289">
      <Node pos="s" depth="0" NCoef="0" IVar="3" Cut="1.1482393741607666e+00" cType="1" res="6.4390301704406738e-02" rms="4.4175654649734497e-01" purity="4.9829393625259399e-01" nType="0">
        <Node pos="l" depth="1" NCoef="0" IVar="8" Cut="1.2767427062988281e+02" cType="1" res="1.7525246739387512e-01" rms="4.3793526291847229e-01" purity="6.9046282768249512e-01" nType="0">
          <Node pos="l" depth="2" NCoef="0" IVar="-1" Cut="0.0000000000000000e+00" cType="1" res="1.1245036730542779e-03" rms="4.1835600137710571e-01" purity="7.2215563058853149e-01" nType="-99"/>
          <Node pos="r" depth="2" NCoef="0" IVar="-1" Cut="0.0000000000000000e+00" cType="1" res="3.5924641997553408e-04" rms="4.7828117012977600e-01" purity="5.8592593669891357e-01" nType="-99"/>
        </Node>
        <Node pos="r" depth="1" NCoef="0" IVar="6" Cut="2.8131024169921875e+02" cType="1" res="-2.3741920012980700e-03" rms="4.3048128485679626e-01" purity="3.8256409764289856e-01" nType="0">
          <Node pos="l" depth="2" NCoef="0" IVar="-1" Cut="0.0000000000000000e+00" cType="1" res="-2.8085794765502214e-03" rms="3.4001764655113220e-01" purity="1.5440580248832703e-01" nType="-99"/>
          <Node pos="r" depth="2" NCoef="0" IVar="-1" Cut="0.0000000000000000e+00" cType="1" res="3.6314068711362779e-04" rms="4.5171993970870972e-01" purity="4.7008645534515381e-01" nType="-99"/>
        </Node>
      </Node>
    </BinaryTree>
    <BinaryTree type="DecisionTree" boostWeight="1.0000000000000000e+00" itree="290">
      <Node pos="s" depth="0" NCoef="0" IVar="0" Cut="9.5594590902328491e-01" cType="1" res="7.1105949580669403e-02" rms="4.4759052991867065e-01" purity="5.0291550159454346e-01" nType="0">
        <Node pos="l" depth="1" NCoef="0" IVar="3" Cut="8.5612255334854126e-01" cType="1" res="-2.4358892813324928e-02" rms="4.3662303686141968e-01" purity="3.2869035005569458e-01" nType="0">
          <Node pos="l" depth="2" NCoef="0" IVar="-1" Cut="0.0000000000000000e+00" cType="1" res="-3.5428276751190424e-03" rms="3.6303392052650452e-01" purity="2.0659215748310089e-01" nType="-99"/>
          <Node pos="r" depth="2" NCoef="0" IVar="-1" Cut="0.0000000000000000e+00" cType="1" res="6.0938571550650522e-05" rms="4.3835160136222839e-01" purity="3.4655785560607910e-01" nType="-99"/>
        </Node>
        <Node pos="r" depth="1" NCoef="0" IVar="1" Cut="5.5627475738525391e+01" cType="1" res="1.4928084611892700e-01" rms="4.4125306606292725e-01" purity="6.4558613300323486e-01" nType="0">
          <Node pos="l" depth="2" NCoef="0" IVar="-1" Cut="0.0000000000000000e+00" cType="1" res="1.1739321053028107e-04" rms="4.6489545702934265e-01" purity="4.5079544186592102e-01" nType="-99"/>
          <Node pos="r" depth="2" NCoef="0" IVar="-1" Cut="0.0000000000000000e+00" cType="1" res="9.9928723648190498e-04" rms="4.3030384182929993e-01" purity="6.8842607736587524e-01" nType="-99"/>
        </Node>
      </Node>
    </BinaryTree>
    <BinaryTree type="DecisionTree" boostWeight="1.0000000000000000e+00" itree="291">
      <Node pos="s" depth="0" NCoef="0" IVar="1" Cut="5.8569126129150391e+01" cType="1" res="6.4784750342369080e-02" rms="4.4722834229469299e-01" purity="4.9230030179023743e-01" nType="0">
        <Node pos="l" depth="1" NCoef="0" IVar="0" Cut="9.6072971820831299e-01" cType="1" res="-6.3135541975498199e-02" rms="4.1081017255783081e-01" purity="2.9389056563377380e-01" nType="0">
          <Node pos="l" depth="2" NCoef="0" IVar="-1" Cut="0.0000000000000000e+00" cType="1" res="-3.0614000279456377e-03" rms="3.5037943720817566e-01" purity="1.4862203598022461e-01" nType="-99"/>
          <Node pos="r" depth="2" NCoef="0" IVar="-1" Cut="0.0000000000000000e+00" cType="1" res="4.6167263644747436e-04" rms="4.6086025238037109e-01" purity="5.1504743099212646e-01" nType="-99"/>
        </Node>
        <Node pos="r" depth="1" NCoef="0" IVar="7" Cut="1.7086130380630493e+00" cType="1" res="1.0423437505960464e-01" rms="4.5060762763023376e-01" purity="5.5348837375640869e-01" nType="0">
          <Node pos="l" depth="2" NCoef="0" IVar="-1" Cut="0.0000000000000000e+00" cType="1" res="9.7517052199691534e-04" rms="4.4789242744445801e-01" purity="6.5992128849029541e-01" nType="-99"/>
          <Node pos="r" depth="2" NCoef="0" IVar="-1" Cut="0.0000000000000000e+00" cType="1" res="-1.7184980970341712e-04" rms="4.3082991242408752e-01" purity="3.4868228435516357e-01" nType="-99"/>
        </Node>
      </Node>
    </BinaryTree>
    <BinaryTree type="DecisionTree" boostWeight="1.0000000000000000e+00" itree="292">
      <Node pos="s" depth="0" NCoef="0" IVar="6" Cut="2.8131024169921875e+02" cType="1" res="6.8189531564712524e-02" rms="4.4693854451179504e-01" purity="4.9307918548583984e-01" nType="0">
        <Node pos="l" depth="1" NCoef="0" IVar="1" Cut="7.4018066406250000e+01" cType="1" res="-5.0075817853212357e-02" rms="4.0068545937538147e-01" purity="2.6425522565841675e-01" nType="0">
          <Node pos="l" depth="2" NCoef="0" IVar="-1" Cut="0.0000000000000000e+00" cType="1" res="-3.3877796959131956e-03" rms="3.1544718146324158e-01" purity="1.4550413191318512e-01" nType="-99"/>
          <Node pos="r" depth="2" NCoef="0" IVar="-1" Cut="0.0000000000000000e+00" cType="1" res="6.8698986433446407e-04" rms="4.5612117648124695e-01" purity="4.1334035992622375e-01" nType="-99"/>
        </Node>
        <Node pos="r" depth="1" NCoef="0" IVar="3" Cut="1.1599068641662598e+00" cType="1" res="1.1107212305068970e-01" rms="4.5503768324851990e-01" purity="5.7604998350143433e-01" nType="0">
          <Node pos="l" depth="2" NCoef="0" IVar="-1" Cut="0.0000000000000000e+00" cType="1" res="9.7524176817387342e-04" rms="4.4549891352653503e-01" purity="7.2025364637374878e-01" nType="-99"/>
          <Node pos="r" depth="2" NCoef="0" IVar="-1" Cut="0.0000000000000000e+00" cType="1" res="5.1270116819068789e-04" rms="4.5477113127708435e-01" purity="4.8806145787239075e-01" nType="-99"/>
        </Node>
      </Node>
    </BinaryTree>
    <BinaryTree type="DecisionTree" boostWeight="1.0000000000000000e+00" itree="293">
      <Node pos="s" depth="0" NCoef="0" IVar="3" Cut="1.8993246555328369e+00" cType="1" res="7.2584062814712524e-02" rms="4.4781234860420227e-01" purity="5.0322675704956055e-01" nType="0">
        <Node pos="l" depth="1" NCoef="0" IVar="0" Cut="9.2117047309875488e-01" cType="1" res="1.2458042055368423e-01" rms="4.6066880226135254e-01" purity="6.1801761388778687e-01" nType="0">
          <Node pos="l" depth="2" NCoef="0" IVar="-1" Cut="0.0000000000000000e+00" cType="1" res="-1.0611140169203281e-03" rms="4.0722915530204773e-01" purity="3.0398085713386536e-01" nType="-99"/>
          <Node pos="r" depth="2" NCoef="0" IVar="-1" Cut="0.0000000000000000e+00" cType="1" res="8.4006990073248744e-04" rms="4.6000498533248901e-01" purity="6.4855241775512695e-01" nType="-99"/>
        </Node>
        <Node pos="r" depth="1" NCoef="0" IVar="6" Cut="4.3109051513671875e+02" cType="1" res="-4.7309666872024536e-02" rms="3.9114689826965332e-01" purity="2.3854094743728638e-01" nType="0">
          <Node pos="l" depth="2" NCoef="0" IVar="-1" Cut="0.0000000000000000e+00" cType="1" res="-1.6886391676962376e-03" rms="3.5562521219253540e-01" purity="1.8001778423786163e-01" nType="-99"/>
          <Node pos="r" depth="2" NCoef="0" IVar="-1" Cut="0.0000000000000000e+00" cType="1" res="1.1024837149307132e-03" rms="4.7224935889244080e-01" purity="4.7302892804145813e-01" nType="-99"/>
        </Node>
      </Node>
    </BinaryTree>
    <BinaryTree type="DecisionTree" boostWeight="1.0000000000000000e+00" itree="294">
      <Node pos="s" depth="0" NCoef="0" IVar="6" Cut="3.0659051513671875e+02" cType="1" res="9.3936972320079803e-02" rms="4.3859931826591492e-01" purity="5.2663928270339966e-01" nType="0">
        <Node pos="l" depth="1" NCoef="0" IVar="7" Cut="2.1891024112701416e+00" cType="1" res="-5.0759054720401764e-03" rms="4.3320116400718689e-01" purity="3.1522336602210999e-01" nType="0">
          <Node pos="l" depth="2" NCoef="0" IVar="-1" Cut="0.0000000000000000e+00" cType="1" res="-6.3582113943994045e-04" rms="4.1246581077575684e-01" purity="2.7918729186058044e-01" nType="-99"/>
          <Node pos="r" depth="2" NCoef="0" IVar="-1" Cut="0.0000000000000000e+00" cType="1" res="2.0029519218951464e-03" rms="4.5565944910049438e-01" purity="5.1596319675445557e-01" nType="-99"/>
        </Node>
        <Node pos="r" depth="1" NCoef="0" IVar="3" Cut="1.5244203805923462e+00" cType="1" res="1.4952777326107025e-01" rms="4.3176043033599854e-01" purity="6.4533883333206177e-01" nType="0">
          <Node pos="l" depth="2" NCoef="0" IVar="-1" Cut="0.0000000000000000e+00" cType="1" res="1.0489488486200571e-03" rms="4.0663173794746399e-01" purity="7.6652175188064575e-01" nType="-99"/>
          <Node pos="r" depth="2" NCoef="0" IVar="-1" Cut="0.0000000000000000e+00" cType="1" res="4.7284015454351902e-04" rms="4.5216816663742065e-01" purity="4.6065849065780640e-01" nType="-99"/>
        </Node>
      </Node>
    </BinaryTree>
    <BinaryTree type="DecisionTree" boostWeight="1.0000000000000000e+00" itree="295">
      <Node pos="s" depth="0" NCoef="0" IVar="7" Cut="1.5930744409561157e+00" cType="1" res="6.7312687635421753e-02" rms="4.4729769229888916e-01" purity="4.9325799942016602e-01" nType="0">
        <Node pos="l" depth="1" NCoef="0" IVar="1" Cut="9.1663711547851562e+01" cType="1" res="1.1703452467918396e-01" rms="4.4927591085433960e-01" purity="5.6251740455627441e-01" nType="0">
          <Node pos="l" depth="2" NCoef="0" IVar="-1" Cut="0.0000000000000000e+00" cType="1" res="4.5939220581203699e-04" rms="4.6175602078437805e-01" purity="4.5553484559059143e-01" nType="-99"/>
          <Node pos="r" depth="2" NCoef="0" IVar="-1" Cut="0.0000000000000000e+00" cType="1" res="1.2187545653432608e-03" rms="3.9259806275367737e-01" purity="7.8170287609100342e-01" nType="-99"/>
        </Node>
        <Node pos="r" depth="1" NCoef="0" IVar="0" Cut="9.7100710868835449e-01" cType="1" res="-3.1855884939432144e-02" rms="4.2634791135787964e-01" purity="3.5512241721153259e-01" nType="0">
          <Node pos="l" depth="2" NCoef="0" IVar="-1" Cut="0.0000000000000000e+00" cType="1" res="-1.2496556155383587e-03" rms="4.0091049671173096e-01" purity="2.5228124856948853e-01" nType="-99"/>
          <Node pos="r" depth="2" NCoef="0" IVar="-1" Cut="0.0000000000000000e+00" cType="1" res="6.9695367710664868e-04" rms="4.4954040646553040e-01" purity="5.9767019748687744e-01" nType="-99"/>
        </Node>
      </Node>
    </BinaryTree>
    <BinaryTree type="DecisionTree" boostWeight="1.0000000000000000e+00" itree="296">
      <Node pos="s" depth="0" NCoef="0" IVar="3" Cut="2.2424993515014648e+00" cType="1" res="5.6296374648809433e-02" rms="4.4493973255157471e-01" purity="4.8516225814819336e-01" nType="0">
        <Node pos="l" depth="1" NCoef="0" IVar="6" Cut="2.5731094360351562e+02" cType="1" res="9.3039937317371368e-02" rms="4.6652474999427795e-01" purity="5.7440578937530518e-01" nType="0">
          <Node pos="l" depth="2" NCoef="0" IVar="-1" Cut="0.0000000000000000e+00" cType="1" res="-1.3581292005255818e-03" rms="4.0319368243217468e-01" purity="2.4197003245353699e-01" nType="-99"/>
          <Node pos="r" depth="2" NCoef="0" IVar="-1" Cut="0.0000000000000000e+00" cType="1" res="7.1809539804235101e-04" rms="4.6895393729209900e-01" purity="6.2573724985122681e-01" nType="-99"/>
        </Node>
        <Node pos="r" depth="1" NCoef="0" IVar="0" Cut="9.6752059459686279e-01" cType="1" res="-8.9767292141914368e-02" rms="3.0505993962287903e-01" purity="1.3039998710155487e-01" nType="0">
          <Node pos="l" depth="2" NCoef="0" IVar="-1" Cut="0.0000000000000000e+00" cType="1" res="-6.5280538983643055e-03" rms="2.1284414827823639e-01" purity="5.0872452557086945e-02" nType="-99"/>
          <Node pos="r" depth="2" NCoef="0" IVar="-1" Cut="0.0000000000000000e+00" cType="1" res="2.3741342010907829e-04" rms="4.4733142852783203e-01" purity="3.3689519762992859e-01" nType="-99"/>
        </Node>
      </Node>
    </BinaryTree>
    <BinaryTree type="DecisionTree" boostWeight="1.0000000000000000e+00" itree="297">
      <Node pos="s" depth="0" NCoef="0" IVar="1" Cut="4.3152416229248047e+01" cType="1" res="8.5317097604274750e-02" rms="4.5466879010200500e-01" purity="5.0813728570938110e-01" nType="0">
        <Node pos="l" depth="1" NCoef="0" IVar="-1" Cut="0.0000000000000000e+00" cType="1" res="-2.2500145714730024e-03" rms="3.4997439384460449e-01" purity="2.0204122364521027e-01" nType="-99"/>
        <Node pos="r" depth="1" NCoef="0" IVar="3" Cut="2.6955809593200684e+00" cType="1" res="1.0890568047761917e-01" rms="4.5833161473274231e-01" purity="5.4109019041061401e-01" nType="0">
          <Node pos="l" depth="2" NCoef="0" IVar="-1" Cut="0.0000000000000000e+00" cType="1" res="8.5977849084883928e-04" rms="4.7272485494613647e-01" purity="5.9833991527557373e-01" nType="-99"/>
          <Node pos="r" depth="2" NCoef="0" IVar="-1" Cut="0.0000000000000000e+00" cType="1" res="-4.0112799033522606e-03" rms="2.3421849310398102e-01" purity="7.1268923580646515e-02" nType="-99"/>
        </Node>
      </Node>
    </BinaryTree>
    <BinaryTree type="DecisionTree" boostWeight="1.0000000000000000e+00" itree="298">
      <Node pos="s" depth="0" NCoef="0" IVar="0" Cut="9.4079482555389404e-01" cType="1" res="9.3564741313457489e-02" rms="4.4769525527954102e-01" purity="5.2230656147003174e-01" nType="0">
        <Node pos="l" depth="1" NCoef="0" IVar="3" Cut="1.0200154781341553e+00" cType="1" res="-4.5446936041116714e-02" rms="4.1104120016098022e-01" purity="2.8045359253883362e-01" nType="0">
          <Node pos="l" depth="2" NCoef="0" IVar="-1" Cut="0.0000000000000000e+00" cType="1" res="8.8588491780683398e-04" rms="4.7496154904365540e-01" purity="5.5559760332107544e-01" nType="-99"/>
          <Node pos="r" depth="2" NCoef="0" IVar="-1" Cut="0.0000000000000000e+00" cType="1" res="-1.9635239150375128e-03" rms="3.6386895179748535e-01" purity="1.7762804031372070e-01" nType="-99"/>
        </Node>
        <Node pos="r" depth="1" NCoef="0" IVar="8" Cut="9.2441703796386719e+01" cType="1" res="1.3958695530891418e-01" rms="4.4981786608695984e-01" purity="6.0237622261047363e-01" nType="0">
          <Node pos="l" depth="2" NCoef="0" IVar="-1" Cut="0.0000000000000000e+00" cType="1" res="-1.6684860747773200e-04" rms="4.4722613692283630e-01" purity="3.7794303894042969e-01" nType="-99"/>
          <Node pos="r" depth="2" NCoef="0" IVar="-1" Cut="0.0000000000000000e+00" cType="1" res="9.5903477631509304e-04" rms="4.4679585099220276e-01" purity="6.2668031454086304e-01" nType="-99"/>
        </Node>
      </Node>
    </BinaryTree>
    <BinaryTree type="DecisionTree" boostWeight="1.0000000000000000e+00" itree="299">
      <Node pos="s" depth="0" NCoef="0" IVar="6" Cut="4.5951596069335938e+02" cType="1" res="6.1905112117528915e-02" rms="4.3968319892883301e-01" purity="4.9687787890434265e-01" nType="0">
        <Node pos="l" depth="1" NCoef="0" IVar="0" Cut="9.4128352403640747e-01" cType="1" res="2.1698849275708199e-02" rms="4.4096094369888306e-01" purity="4.2553183436393738e-01" nType="0">
          <Node pos="l" depth="2" NCoef="0" IVar="-1" Cut="0.0000000000000000e+00" cType="1" res="-2.3886968847364187e-03" rms="3.4652286767959595e-01" purity="1.6534653306007385e-01" nType="-99"/>
          <Node pos="r" depth="2" NCoef="0" IVar="-1" Cut="0.0000000000000000e+00" cType="1" res="5.4009316954761744e-04" rms="4.5792707800865173e-01" purity="5.1827740669250488e-01" nType="-99"/>
        </Node>
        <Node pos="r" depth="1" NCoef="0" IVar="4" Cut="7.4027538299560547e-01" cType="1" res="1.9155442714691162e-01" rms="4.0947666764259338e-01" purity="7.2694087028503418e-01" nType="0">
          <Node pos="l" depth="2" NCoef="0" IVar="-1" Cut="0.0000000000000000e+00" cType="1" res="1.1534818913787603e-03" rms="3.8838043808937073e-01" purity="7.7368557453155518e-01" nType="-99"/>
          <Node pos="r" depth="2" NCoef="0" IVar="-1" Cut="0.0000000000000000e+00" cType="1" res="5.3704675519838929e-04" rms="4.4506025314331055e-01" purity="5.9763514995574951e-01" nType="-99"/>
        </Node>
      </Node>
    </BinaryTree>
    <BinaryTree type="DecisionTree" boostWeight="1.0000000000000000e+00" itree="300">
      <Node pos="s" depth="0" NCoef="0" IVar="3" Cut="1.7280032634735107e+00" cType="1" res="4.7190021723508835e-02" rms="4.4267517328262329e-01" purity="4.7284477949142456e-01" nType="0">
        <Node pos="l" depth="1" NCoef="0" IVar="8" Cut="9.8228042602539062e+01" cType="1" res="1.0573758929967880e-01" rms="4.5937553048133850e-01" purity="6.0946780443191528e-01" nType="0">
          <Node pos="l" depth="2" NCoef="0" IVar="-1" Cut="0.0000000000000000e+00" cType="1" res="-3.1337945256382227e-04" rms="4.4938722252845764e-01" purity="3.8778266310691833e-01" nType="-99"/>
          <Node pos="r" depth="2" NCoef="0" IVar="-1" Cut="0.0000000000000000e+00" cType="1" res="7.7011773828417063e-04" rms="4.5620617270469666e-01" purity="6.5298837423324585e-01" nType="-99"/>
        </Node>
        <Node pos="r" depth="1" NCoef="0" IVar="8" Cut="1.2146981048583984e+02" cType="1" res="-4.2456168681383133e-02" rms="3.9951211214065552e-01" purity="2.6365193724632263e-01" nType="0">
          <Node pos="l" depth="2" NCoef="0" IVar="-1" Cut="0.0000000000000000e+00" cType="1" res="5.1093025831505656e-04" rms="4.4015571475028992e-01" purity="3.6640065908432007e-01" nType="-99"/>
          <Node pos="r" depth="2" NCoef="0" IVar="-1" Cut="0.0000000000000000e+00" cType="1" res="-2.1985769271850586e-03" rms="3.4083044528961182e-01" purity="1.7377343773841858e-01" nType="-99"/>
        </Node>
      </Node>
    </BinaryTree>
    <BinaryTree type="DecisionTree" boostWeight="1.0000000000000000e+00" itree="301">
      <Node pos="s" depth="0" NCoef="0" IVar="3" Cut="2.0434541702270508e+00" cType="1" res="8.0233169719576836e-03" rms="4.3926665186882019e-01" purity="4.2890617251396179e-01" nType="0">
        <Node pos="l" depth="1" NCoef="0" IVar="1" Cut="1.0461705017089844e+02" cType="1" res="4.9724008888006210e-02" rms="4.7216504812240601e-01" purity="5.3705340623855591e-01" nType="0">
          <Node pos="l" depth="2" NCoef="0" IVar="-1" Cut="0.0000000000000000e+00" cType="1" res="-1.6495223098900169e-04" rms="4.7784197330474854e-01" purity="4.2630645632743835e-01" nType="-99"/>
          <Node pos="r" depth="2" NCoef="0" IVar="-1" Cut="0.0000000000000000e+00" cType="1" res="8.7887339759618044e-04" rms="4.3929502367973328e-01" purity="7.2005534172058105e-01" nType="-99"/>
        </Node>
        <Node pos="r" depth="1" NCoef="0" IVar="0" Cut="9.7629308700561523e-01" cType="1" res="-9.6190899610519409e-02" rms="3.2064646482467651e-01" purity="1.5863527357578278e-01" nType="0">
          <Node pos="l" depth="2" NCoef="0" IVar="-1" Cut="0.0000000000000000e+00" cType="1" res="-6.9079915992915630e-03" rms="2.2784842550754547e-01" purity="5.8567382395267487e-02" nType="-99"/>
          <Node pos="r" depth="2" NCoef="0" IVar="-1" Cut="0.0000000000000000e+00" cType="1" res="1.0013604769483209e-03" rms="4.6133914589881897e-01" purity="5.0865709781646729e-01" nType="-99"/>
        </Node>
      </Node>
    </BinaryTree>
    <BinaryTree type="DecisionTree" boostWeight="1.0000000000000000e+00" itree="302">
      <Node pos="s" depth="0" NCoef="0" IVar="3" Cut="1.1984577178955078e+00" cType="1" res="5.2839778363704681e-02" rms="4.5040678977966309e-01" purity="4.7615596652030945e-01" nType="0">
        <Node pos="l" depth="1" NCoef="0" IVar="4" Cut="6.6169726848602295e-01" cType="1" res="1.5398670732975006e-01" rms="4.4909209012985229e-01" purity="6.6206300258636475e-01" nType="0">
          <Node pos="l" depth="2" NCoef="0" IVar="-1" Cut="0.0000000000000000e+00" cType="1" res="1.1789641575887799e-03" rms="4.2799392342567444e-01" purity="7.2213149070739746e-01" nType="-99"/>
          <Node pos="r" depth="2" NCoef="0" IVar="-1" Cut="0.0000000000000000e+00" cType="1" res="2.4088338250294328e-04" rms="4.5815148949623108e-01" purity="5.6286442279815674e-01" nType="-99"/>
        </Node>
        <Node pos="r" depth="1" NCoef="0" IVar="1" Cut="6.6629005432128906e+01" cType="1" res="-1.1916686780750751e-02" rms="4.3918111920356750e-01" purity="3.5713419318199158e-01" nType="0">
          <Node pos="l" depth="2" NCoef="0" IVar="-1" Cut="0.0000000000000000e+00" cType="1" res="-4.8303524963557720e-03" rms="2.9952561855316162e-01" purity="9.6372164785861969e-02" nType="-99"/>
          <Node pos="r" depth="2" NCoef="0" IVar="-1" Cut="0.0000000000000000e+00" cType="1" res="3.0415999935939908e-04" rms="4.5995366573333740e-01" purity="4.2915290594100952e-01" nType="-99"/>
        </Node>
      </Node>
    </BinaryTree>
    <BinaryTree type="DecisionTree" boostWeight="1.0000000000000000e+00" itree="303">
      <Node pos="s" depth="0" NCoef="0" IVar="0" Cut="9.7020834684371948e-01" cType="1" res="4.3410547077655792e-02" rms="4.3315511941909790e-01" purity="4.7610196471214294e-01" nType="0">
        <Node pos="l" depth="1" NCoef="0" IVar="3" Cut="1.4229600429534912e+00" cType="1" res="-1.5112826600670815e-02" rms="4.2430728673934937e-01" purity="3.7307903170585632e-01" nType="0">
          <Node pos="l" depth="2" NCoef="0" IVar="-1" Cut="0.0000000000000000e+00" cType="1" res="5.5341562256217003e-04" rms="4.6413022279739380e-01" purity="5.6313329935073853e-01" nType="-99"/>
          <Node pos="r" depth="2" NCoef="0" IVar="-1" Cut="0.0000000000000000e+00" cType="1" res="-1.8089069053530693e-03" rms="3.6181595921516418e-01" purity="2.0272070169448853e-01" nType="-99"/>
        </Node>
        <Node pos="r" depth="1" NCoef="0" IVar="8" Cut="1.2576139831542969e+02" cType="1" res="1.6211080551147461e-01" rms="4.2658475041389465e-01" purity="6.8505865335464478e-01" nType="0">
          <Node pos="l" depth="2" NCoef="0" IVar="-1" Cut="0.0000000000000000e+00" cType="1" res="1.1530469637364149e-03" rms="3.9393934607505798e-01" purity="7.4931204319000244e-01" nType="-99"/>
          <Node pos="r" depth="2" NCoef="0" IVar="-1" Cut="0.0000000000000000e+00" cType="1" res="4.7617426025681198e-04" rms="4.5929762721061707e-01" purity="5.8437967300415039e-01" nType="-99"/>
        </Node>
      </Node>
    </BinaryTree>
    <BinaryTree type="DecisionTree" boostWeight="1.0000000000000000e+00" itree="304">
      <Node pos="s" depth="0" NCoef="0" IVar="1" Cut="3.9865623474121094e+01" cType="1" res="7.6787054538726807e-02" rms="4.4728139042854309e-01" purity="5.0770056247711182e-01" nType="0">
        <Node pos="l" depth="1" NCoef="0" IVar="-1" Cut="0.0000000000000000e+00" cType="1" res="-5.9656295925378799e-03" rms="2.9221242666244507e-01" purity="9.0838648378849030e-02" nType="-99"/>
        <Node pos="r" depth="1" NCoef="0" IVar="3" Cut="3.0054199695587158e+00" cType="1" res="1.0068692266941071e-01" rms="4.5006293058395386e-01" purity="5.4322010278701782e-01" nType="0">
          <Node pos="l" depth="2" NCoef="0" IVar="-1" Cut="0.0000000000000000e+00" cType="1" res="7.6915125828236341e-04" rms="4.6067735552787781e-01" purity="5.8186650276184082e-01" nType="-99"/>
          <Node pos="r" depth="2" NCoef="0" IVar="-1" Cut="0.0000000000000000e+00" cType="1" res="-1.6622440889477730e-02" rms="4.8894234001636505e-02" purity="0.0000000000000000e+00" nType="-99"/>
        </Node>
      </Node>
    </BinaryTree>
    <BinaryTree type="DecisionTree" boostWeight="1.0000000000000000e+00" itree="305">
      <Node pos="s" depth="0" NCoef="0" IVar="3" Cut="1.3515853881835938e+00" cType="1" res="5.4349735379219055e-02" rms="4.4231390953063965e-01" purity="4.8083814978599548e-01" nType="0">
        <Node pos="l" depth="1" NCoef="0" IVar="1" Cut="7.2978736877441406e+01" cType="1" res="1.3217355310916901e-01" rms="4.4662755727767944e-01" purity="6.4743471145629883e-01" nType="0">
          <Node pos="l" depth="2" NCoef="0" IVar="-1" Cut="0.0000000000000000e+00" cType="1" res="3.1544695957563818e-04" rms="4.7613668441772461e-01" purity="4.9064624309539795e-01" nType="-99"/>
          <Node pos="r" depth="2" NCoef="0" IVar="-1" Cut="0.0000000000000000e+00" cType="1" res="1.0236229281872511e-03" rms="4.0634572505950928e-01" purity="7.7727085351943970e-01" nType="-99"/>
        </Node>
        <Node pos="r" depth="1" NCoef="0" IVar="1" Cut="9.3391242980957031e+01" cType="1" res="-1.2318560853600502e-02" rms="4.2746186256408691e-01" purity="3.3812221884727478e-01" nType="0">
          <Node pos="l" depth="2" NCoef="0" IVar="-1" Cut="0.0000000000000000e+00" cType="1" res="-1.2673521414399147e-03" rms="3.7947908043861389e-01" purity="2.2621834278106689e-01" nType="-99"/>
          <Node pos="r" depth="2" NCoef="0" IVar="-1" Cut="0.0000000000000000e+00" cType="1" res="4.1175936348736286e-04" rms="4.5580482482910156e-01" purity="4.3209379911422729e-01" nType="-99"/>
        </Node>
      </Node>
    </BinaryTree>
    <BinaryTree type="DecisionTree" boostWeight="1.0000000000000000e+00" itree="306">
      <Node pos="s" depth="0" NCoef="0" IVar="1" Cut="4.6596599578857422e+01" cType="1" res="8.3344057202339172e-02" rms="4.4331532716751099e-01" purity="5.1474577188491821e-01" nType="0">
        <Node pos="l" depth="1" NCoef="0" IVar="1" Cut="3.6425048828125000e+01" cType="1" res="-1.1283905059099197e-01" rms="3.6520233750343323e-01" purity="2.2387294471263885e-01" nType="0">
          <Node pos="l" depth="2" NCoef="0" IVar="-1" Cut="0.0000000000000000e+00" cType="1" res="-7.2411415167152882e-03" rms="2.3724129796028137e-01" purity="6.5807543694972992e-02" nType="-99"/>
          <Node pos="r" depth="2" NCoef="0" IVar="-1" Cut="0.0000000000000000e+00" cType="1" res="-2.7449495973996818e-04" rms="4.2201820015907288e-01" purity="3.5030198097229004e-01" nType="-99"/>
        </Node>
        <Node pos="r" depth="1" NCoef="0" IVar="3" Cut="3.0464320182800293e+00" cType="1" res="1.1469791084527969e-01" rms="4.4664061069488525e-01" purity="5.6123286485671997e-01" nType="0">
          <Node pos="l" depth="2" NCoef="0" IVar="-1" Cut="0.0000000000000000e+00" cType="1" res="8.5448980098590255e-04" rms="4.5644232630729675e-01" purity="5.9984689950942993e-01" nType="-99"/>
          <Node pos="r" depth="2" NCoef="0" IVar="-1" Cut="0.0000000000000000e+00" cType="1" res="-1.6559284180402756e-02" rms="5.0011359155178070e-02" purity="0.0000000000000000e+00" nType="-99"/>
        </Node>
      </Node>
    </BinaryTree>
    <BinaryTree type="DecisionTree" boostWeight="1.0000000000000000e+00" itree="307">
      <Node pos="s" depth="0" NCoef="0" IVar="3" Cut="2.3775255680084229e+00" cType="1" res="5.6027214974164963e-02" rms="4.3303522467613220e-01" purity="4.9222815036773682e-01" nType="0">
        <Node pos="l" depth="1" NCoef="0" IVar="1" Cut="7.3630722045898438e+01" cType="1" res="8.7347850203514099e-02" rms="4.5400118827819824e-01" purity="5.7420825958251953e-01" nType="0">
          <Node pos="l" depth="2" NCoef="0" IVar="-1" Cut="0.0000000000000000e+00" cType="1" res="-1.8987240036949515e-04" rms="4.4799849390983582e-01" purity="3.9186459779739380e-01" nType="-99"/>
          <Node pos="r" depth="2" NCoef="0" IVar="-1" Cut="0.0000000000000000e+00" cType="1" res="8.3830562653020024e-04" rms="4.4600009918212891e-01" purity="6.7669093608856201e-01" nType="-99"/>
        </Node>
        <Node pos="r" depth="1" NCoef="0" IVar="8" Cut="1.2969819641113281e+02" cType="1" res="-9.7269579768180847e-02" rms="2.6113906502723694e-01" purity="9.0981863439083099e-02" nType="0">
          <Node pos="l" depth="2" NCoef="0" IVar="-1" Cut="0.0000000000000000e+00" cType="1" res="-5.5831990903243423e-04" rms="3.2826009392738342e-01" purity="1.6816623508930206e-01" nType="-99"/>
          <Node pos="r" depth="2" NCoef="0" IVar="-1" Cut="0.0000000000000000e+00" cType="1" res="-1.8043467774987221e-02" rms="8.9580237865447998e-02" purity="0.0000000000000000e+00" nType="-99"/>
        </Node>
      </Node>
    </BinaryTree>
    <BinaryTree type="DecisionTree" boostWeight="1.0000000000000000e+00" itree="308">
      <Node pos="s" depth="0" NCoef="0" IVar="6" Cut="4.6639697265625000e+02" cType="1" res="4.7061856836080551e-02" rms="4.5019459724426270e-01" purity="4.6411845088005066e-01" nType="0">
        <Node pos="l" depth="1" NCoef="0" IVar="0" Cut="9.4839370250701904e-01" cType="1" res="1.5713555738329887e-02" rms="4.4829431176185608e-01" purity="4.0788415074348450e-01" nType="0">
          <Node pos="l" depth="2" NCoef="0" IVar="-1" Cut="0.0000000000000000e+00" cType="1" res="-1.3067513937130570e-03" rms="3.9622470736503601e-01" purity="2.1704219281673431e-01" nType="-99"/>
          <Node pos="r" depth="2" NCoef="0" IVar="-1" Cut="0.0000000000000000e+00" cType="1" res="5.5499380687251687e-04" rms="4.6750009059906006e-01" purity="5.2680486440658569e-01" nType="-99"/>
        </Node>
        <Node pos="r" depth="1" NCoef="0" IVar="4" Cut="7.0370817184448242e-01" cType="1" res="1.7023280262947083e-01" rms="4.3629288673400879e-01" purity="6.8506926298141479e-01" nType="0">
          <Node pos="l" depth="2" NCoef="0" IVar="-1" Cut="0.0000000000000000e+00" cType="1" res="5.5236392654478550e-04" rms="4.4668886065483093e-01" purity="6.1939549446105957e-01" nType="-99"/>
          <Node pos="r" depth="2" NCoef="0" IVar="-1" Cut="0.0000000000000000e+00" cType="1" res="1.2411472853273153e-03" rms="4.1579988598823547e-01" purity="7.4007016420364380e-01" nType="-99"/>
        </Node>
      </Node>
    </BinaryTree>
    <BinaryTree type="DecisionTree" boostWeight="1.0000000000000000e+00" itree="309">
      <Node pos="s" depth="0" NCoef="0" IVar="6" Cut="4.6523266601562500e+02" cType="1" res="6.6654354333877563e-02" rms="4.5600834488868713e-01" purity="4.8151829838752747e-01" nType="0">
        <Node pos="l" depth="1" NCoef="0" IVar="0" Cut="9.4293737411499023e-01" cType="1" res="2.9764538630843163e-02" rms="4.5661947131156921e-01" purity="4.1875794529914856e-01" nType="0">
          <Node pos="l" depth="2" NCoef="0" IVar="-1" Cut="0.0000000000000000e+00" cType="1" res="-1.3640959514304996e-03" rms="3.9965045452117920e-01" purity="2.0633228123188019e-01" nType="-99"/>
          <Node pos="r" depth="2" NCoef="0" IVar="-1" Cut="0.0000000000000000e+00" cType="1" res="5.5492750834673643e-04" rms="4.7196483612060547e-01" purity="5.1170063018798828e-01" nType="-99"/>
        </Node>
        <Node pos="r" depth="1" NCoef="0" IVar="7" Cut="1.6596440076828003e+00" cType="1" res="2.0228563249111176e-01" rms="4.2719292640686035e-01" purity="7.1226680278778076e-01" nType="0">
          <Node pos="l" depth="2" NCoef="0" IVar="-1" Cut="0.0000000000000000e+00" cType="1" res="1.2797628296539187e-03" rms="3.9628136157989502e-01" purity="7.9494929313659668e-01" nType="-99"/>
          <Node pos="r" depth="2" NCoef="0" IVar="-1" Cut="0.0000000000000000e+00" cType="1" res="6.4759544329717755e-04" rms="4.7043117880821228e-01" purity="5.2117562294006348e-01" nType="-99"/>
        </Node>
      </Node>
    </BinaryTree>
    <BinaryTree type="DecisionTree" boostWeight="1.0000000000000000e+00" itree="310">
      <Node pos="s" depth="0" NCoef="0" IVar="4" Cut="6.7850059270858765e-01" cType="1" res="7.5400613248348236e-02" rms="4.5097938179969788e-01" purity="4.9775654077529907e-01" nType="0">
        <Node pos="l" depth="1" NCoef="0" IVar="0" Cut="9.5321536064147949e-01" cType="1" res="1.4538122713565826e-01" rms="4.4993042945861816e-01" purity="5.8698070049285889e-01" nType="0">
          <Node pos="l" depth="2" NCoef="0" IVar="-1" Cut="0.0000000000000000e+00" cType="1" res="3.8281298475340009e-04" rms="4.5946890115737915e-01" purity="3.7963569164276123e-01" nType="-99"/>
          <Node pos="r" depth="2" NCoef="0" IVar="-1" Cut="0.0000000000000000e+00" cType="1" res="1.1471173493191600e-03" rms="4.3150737881660461e-01" purity="7.1108275651931763e-01" nType="-99"/>
        </Node>
        <Node pos="r" depth="1" NCoef="0" IVar="2" Cut="1.5778936767578125e+02" cType="1" res="-3.3486373722553253e-02" rms="4.3055367469787598e-01" purity="3.5892733931541443e-01" nType="0">
          <Node pos="l" depth="2" NCoef="0" IVar="-1" Cut="0.0000000000000000e+00" cType="1" res="-4.7563156113028526e-03" rms="3.0510538816452026e-01" purity="1.4279596507549286e-01" nType="-99"/>
          <Node pos="r" depth="2" NCoef="0" IVar="-1" Cut="0.0000000000000000e+00" cType="1" res="1.7375563038513064e-04" rms="4.4125765562057495e-01" purity="4.1333103179931641e-01" nType="-99"/>
        </Node>
      </Node>
    </BinaryTree>
    <BinaryTree type="DecisionTree" boostWeight="1.0000000000000000e+00" itree="311">
      <Node pos="s" depth="0" NCoef="0" IVar="5" Cut="9.5294314622879028e-01" cType="1" res="1.0027139633893967e-01" rms="4.4900047779083252e-01" purity="5.2540624141693115e-01" nType="0">
        <Node pos="l" depth="1" NCoef="0" IVar="8" Cut="1.1879912567138672e+02" cType="1" res="-4.3349765241146088e-02" rms="4.2029625177383423e-01" purity="3.1958884000778198e-01" nType="0">
          <Node pos="l" depth="2" NCoef="0" IVar="-1" Cut="0.0000000000000000e+00" cType="1" res="-3.8870999123901129e-03" rms="3.1505981087684631e-01" purity="1.4414756000041962e-01" nType="-99"/>
          <Node pos="r" depth="2" NCoef="0" IVar="-1" Cut="0.0000000000000000e+00" cType="1" res="1.6868585953488946e-04" rms="4.4288629293441772e-01" purity="3.9296901226043701e-01" nType="-99"/>
        </Node>
        <Node pos="r" depth="1" NCoef="0" IVar="3" Cut="2.5723662376403809e+00" cType="1" res="1.2938830256462097e-01" rms="4.4903293251991272e-01" purity="5.6713247299194336e-01" nType="0">
          <Node pos="l" depth="2" NCoef="0" IVar="-1" Cut="0.0000000000000000e+00" cType="1" res="9.0871565043926239e-04" rms="4.5832416415214539e-01" purity="6.1436277627944946e-01" nType="-99"/>
          <Node pos="r" depth="2" NCoef="0" IVar="-1" Cut="0.0000000000000000e+00" cType="1" res="-1.5510201919823885e-03" rms="2.9683816432952881e-01" purity="1.1867998540401459e-01" nType="-99"/>
        </Node>
      </Node>
    </BinaryTree>
    <BinaryTree type="DecisionTree" boostWeight="1.0000000000000000e+00" itree="312">
      <Node pos="s" depth="0" NCoef="0" IVar="0" Cut="9.5581007003784180e-01" cType="1" res="7.0920489728450775e-02" rms="4.4526055455207825e-01" purity="5.0273334980010986e-01" nType="0">
        <Node pos="l" depth="1" NCoef="0" IVar="4" Cut="6.1073428392410278e-01" cType="1" res="-8.8074635714292526e-03" rms="4.5097997784614563e-01" purity="3.3062598109245300e-01" nType="0">
          <Node pos="l" depth="2" NCoef="0" IVar="-1" Cut="0.0000000000000000e+00" cType="1" res="9.7801012452691793e-04" rms="4.8686665296554565e-01" purity="4.7105407714843750e-01" nType="-99"/>
          <Node pos="r" depth="2" NCoef="0" IVar="-1" Cut="0.0000000000000000e+00" cType="1" res="-9.0269616339355707e-04" rms="4.2228657007217407e-01" purity="2.6817643642425537e-01" nType="-99"/>
        </Node>
        <Node pos="r" depth="1" NCoef="0" IVar="3" Cut="2.1125326156616211e+00" cType="1" res="1.4086444675922394e-01" rms="4.2812541127204895e-01" purity="6.5372020006179810e-01" nType="0">
          <Node pos="l" depth="2" NCoef="0" IVar="-1" Cut="0.0000000000000000e+00" cType="1" res="9.7319658380001783e-04" rms="4.2258685827255249e-01" purity="7.3946940898895264e-01" nType="-99"/>
          <Node pos="r" depth="2" NCoef="0" IVar="-1" Cut="0.0000000000000000e+00" cType="1" res="-1.7486668657511473e-03" rms="3.7346741557121277e-01" purity="2.1375113725662231e-01" nType="-99"/>
        </Node>
      </Node>
    </BinaryTree>
    <BinaryTree type="DecisionTree" boostWeight="1.0000000000000000e+00" itree="313">
      <Node pos="s" depth="0" NCoef="0" IVar="1" Cut="5.0418800354003906e+01" cType="1" res="2.1682498976588249e-02" rms="4.3309190869331360e-01" purity="4.4537338614463806e-01" nType="0">
        <Node pos="l" depth="1" NCoef="0" IVar="4" Cut="6.9327104091644287e-01" cType="1" res="-1.3758169114589691e-01" rms="3.5986337065696716e-01" purity="1.9716094434261322e-01" nType="0">
          <Node pos="l" depth="2" NCoef="0" IVar="-1" Cut="0.0000000000000000e+00" cType="1" res="-6.0761964414268732e-04" rms="4.1592842340469360e-01" purity="3.0790689587593079e-01" nType="-99"/>
          <Node pos="r" depth="2" NCoef="0" IVar="-1" Cut="0.0000000000000000e+00" cType="1" res="-2.0613089203834534e-02" rms="1.3831524550914764e-01" purity="2.9033671598881483e-03" nType="-99"/>
        </Node>
        <Node pos="r" depth="1" NCoef="0" IVar="3" Cut="2.2075014114379883e+00" cType="1" res="5.3551159799098969e-02" rms="4.3942761421203613e-01" purity="4.9504050612449646e-01" nType="0">
          <Node pos="l" depth="2" NCoef="0" IVar="-1" Cut="0.0000000000000000e+00" cType="1" res="6.3921057153493166e-04" rms="4.6648451685905457e-01" purity="6.1697441339492798e-01" nType="-99"/>
          <Node pos="r" depth="2" NCoef="0" IVar="-1" Cut="0.0000000000000000e+00" cType="1" res="-2.4635887239128351e-03" rms="2.9690641164779663e-01" purity="1.3031570613384247e-01" nType="-99"/>
        </Node>
      </Node>
    </BinaryTree>
    <BinaryTree type="DecisionTree" boostWeight="1.0000000000000000e+00" itree="314">
      <Node pos="s" depth="0" NCoef="0" IVar="1" Cut="5.4202030181884766e+01" cType="1" res="9.7999356687068939e-02" rms="4.5497214794158936e-01" purity="5.2543985843658447e-01" nType="0">
        <Node pos="l" depth="1" NCoef="0" IVar="8" Cut="1.0526221466064453e+02" cType="1" res="-4.0638260543346405e-02" rms="4.2136171460151672e-01" purity="2.9745632410049438e-01" nType="0">
          <Node pos="l" depth="2" NCoef="0" IVar="-1" Cut="0.0000000000000000e+00" cType="1" res="6.5568275749683380e-04" rms="4.4196754693984985e-01" purity="4.0331768989562988e-01" nType="-99"/>
          <Node pos="r" depth="2" NCoef="0" IVar="-1" Cut="0.0000000000000000e+00" cType="1" res="-2.3355423472821712e-03" rms="3.6901891231536865e-01" purity="1.9509437680244446e-01" nType="-99"/>
        </Node>
        <Node pos="r" depth="1" NCoef="0" IVar="0" Cut="9.2460680007934570e-01" cType="1" res="1.2719368934631348e-01" rms="4.5640149712562561e-01" purity="5.7344871759414673e-01" nType="0">
          <Node pos="l" depth="2" NCoef="0" IVar="-1" Cut="0.0000000000000000e+00" cType="1" res="1.6429440584033728e-03" rms="4.6197533607482910e-01" purity="6.1018031835556030e-01" nType="-99"/>
          <Node pos="r" depth="2" NCoef="0" IVar="-1" Cut="0.0000000000000000e+00" cType="1" res="6.6464714473113418e-04" rms="4.5037272572517395e-01" purity="5.6551253795623779e-01" nType="-99"/>
        </Node>
      </Node>
    </BinaryTree>
    <BinaryTree type="DecisionTree" boostWeight="1.0000000000000000e+00" itree="315">
      <Node pos="s" depth="0" NCoef="0" IVar="0" Cut="9.7110104560852051e-01" cType="1" res="1.1151091009378433e-01" rms="4.4995182752609253e-01" purity="5.3694367408752441e-01" nType="0">
        <Node pos="l" depth="1" NCoef="0" IVar="8" Cut="1.3638893127441406e+02" cType="1" res="6.7156516015529633e-02" rms="4.5714122056961060e-01" purity="4.5074701309204102e-01" nType="0">
          <Node pos="l" depth="2" NCoef="0" IVar="-1" Cut="0.0000000000000000e+00" cType="1" res="8.5775594925507903e-04" rms="4.5836827158927917e-01" purity="5.1012939214706421e-01" nType="-99"/>
          <Node pos="r" depth="2" NCoef="0" IVar="-1" Cut="0.0000000000000000e+00" cType="1" res="-1.0528590064495802e-03" rms="4.2172503471374512e-01" purity="2.7807468175888062e-01" nType="-99"/>
        </Node>
        <Node pos="r" depth="1" NCoef="0" IVar="6" Cut="3.3587557983398438e+02" cType="1" res="2.0720468461513519e-01" rms="4.1831213235855103e-01" purity="7.2291129827499390e-01" nType="0">
          <Node pos="l" depth="2" NCoef="0" IVar="-1" Cut="0.0000000000000000e+00" cType="1" res="7.2252855170518160e-04" rms="5.0038295984268188e-01" purity="4.9654960632324219e-01" nType="-99"/>
          <Node pos="r" depth="2" NCoef="0" IVar="-1" Cut="0.0000000000000000e+00" cType="1" res="1.2213345617055893e-03" rms="3.6048799753189087e-01" purity="8.2942819595336914e-01" nType="-99"/>
        </Node>
      </Node>
    </BinaryTree>
    <BinaryTree type="DecisionTree" boostWeight="1.0000000000000000e+00" itree="316">
      <Node pos="s" depth="0" NCoef="0" IVar="1" Cut="7.5957405090332031e+01" cType="1" res="7.7735178172588348e-02" rms="4.6185445785522461e-01" purity="4.9895769357681274e-01" nType="0">
        <Node pos="l" depth="1" NCoef="0" IVar="8" Cut="1.3518830871582031e+02" cType="1" res="1.9775565713644028e-02" rms="4.6148562431335449e-01" purity="3.9244684576988220e-01" nType="0">
          <Node pos="l" depth="2" NCoef="0" IVar="-1" Cut="0.0000000000000000e+00" cType="1" res="5.8545614592730999e-04" rms="4.6770006418228149e-01" purity="4.4109299778938293e-01" nType="-99"/>
          <Node pos="r" depth="2" NCoef="0" IVar="-1" Cut="0.0000000000000000e+00" cType="1" res="-3.3294120803475380e-03" rms="3.6260703206062317e-01" purity="1.7903062701225281e-01" nType="-99"/>
        </Node>
        <Node pos="r" depth="1" NCoef="0" IVar="0" Cut="9.5532524585723877e-01" cType="1" res="1.1462026834487915e-01" rms="4.5828804373741150e-01" purity="5.6674039363861084e-01" nType="0">
          <Node pos="l" depth="2" NCoef="0" IVar="-1" Cut="0.0000000000000000e+00" cType="1" res="3.8573358324356377e-04" rms="4.6329766511917114e-01" purity="4.2392811179161072e-01" nType="-99"/>
          <Node pos="r" depth="2" NCoef="0" IVar="-1" Cut="0.0000000000000000e+00" cType="1" res="1.0088635608553886e-03" rms="4.4613465666770935e-01" purity="6.7984586954116821e-01" nType="-99"/>
        </Node>
      </Node>
    </BinaryTree>
    <BinaryTree type="DecisionTree" boostWeight="1.0000000000000000e+00" itree="317">
      <Node pos="s" depth="0" NCoef="0" IVar="6" Cut="3.3933886718750000e+02" cType="1" res="9.7313523292541504e-02" rms="4.5653006434440613e-01" purity="5.2028840780258179e-01" nType="0">
        <Node pos="l" depth="1" NCoef="0" IVar="0" Cut="9.1787552833557129e-01" cType="1" res="4.4099674560129642e-03" rms="4.5166313648223877e-01" purity="3.4043964743614197e-01" nType="0">
          <Node pos="l" depth="2" NCoef="0" IVar="-1" Cut="0.0000000000000000e+00" cType="1" res="2.4379109963774681e-03" rms="4.9464461207389832e-01" purity="4.6167480945587158e-01" nType="-99"/>
          <Node pos="r" depth="2" NCoef="0" IVar="-1" Cut="0.0000000000000000e+00" cType="1" res="-4.5517808757722378e-04" rms="4.2833822965621948e-01" purity="3.1664106249809265e-01" nType="-99"/>
        </Node>
        <Node pos="r" depth="1" NCoef="0" IVar="8" Cut="9.4906059265136719e+01" cType="1" res="1.7276829481124878e-01" rms="4.4643723964691162e-01" purity="6.6635859012603760e-01" nType="0">
          <Node pos="l" depth="2" NCoef="0" IVar="-1" Cut="0.0000000000000000e+00" cType="1" res="-2.7002330170944333e-04" rms="4.6934428811073303e-01" purity="4.0422281622886658e-01" nType="-99"/>
          <Node pos="r" depth="2" NCoef="0" IVar="-1" Cut="0.0000000000000000e+00" cType="1" res="1.0587160941213369e-03" rms="4.3870911002159119e-01" purity="6.9338983297348022e-01" nType="-99"/>
        </Node>
      </Node>
    </BinaryTree>
    <BinaryTree type="DecisionTree" boostWeight="1.0000000000000000e+00" itree="318">
      <Node pos="s" depth="0" NCoef="0" IVar="0" Cut="9.5623320341110229e-01" cType="1" res="1.1835716664791107e-01" rms="4.5286557078361511e-01" purity="5.4068231582641602e-01" nType="0">
        <Node pos="l" depth="1" NCoef="0" IVar="4" Cut="7.3970413208007812e-01" cType="1" res="5.5721670389175415e-02" rms="4.4926127791404724e-01" purity="4.0557318925857544e-01" nType="0">
          <Node pos="l" depth="2" NCoef="0" IVar="-1" Cut="0.0000000000000000e+00" cType="1" res="1.2948101357324049e-05" rms="4.4075247645378113e-01" purity="3.5454994440078735e-01" nType="-99"/>
          <Node pos="r" depth="2" NCoef="0" IVar="-1" Cut="0.0000000000000000e+00" cType="1" res="1.3006338849663734e-03" rms="4.4644659757614136e-01" purity="5.0651729106903076e-01" nType="-99"/>
        </Node>
        <Node pos="r" depth="1" NCoef="0" IVar="1" Cut="4.3339130401611328e+01" cType="1" res="1.7729319632053375e-01" rms="4.4830986857414246e-01" purity="6.6781145334243774e-01" nType="0">
          <Node pos="l" depth="2" NCoef="0" IVar="-1" Cut="0.0000000000000000e+00" cType="1" res="-1.3840162137057632e-04" rms="4.6846488118171692e-01" purity="4.0359368920326233e-01" nType="-99"/>
          <Node pos="r" depth="2" NCoef="0" IVar="-1" Cut="0.0000000000000000e+00" cType="1" res="1.1150230420753360e-03" rms="4.4119390845298767e-01" purity="6.9569510221481323e-01" nType="-99"/>
        </Node>
      </Node>
    </BinaryTree>
    <BinaryTree type="DecisionTree" boostWeight="1.0000000000000000e+00" itree="319">
      <Node pos="s" depth="0" NCoef="0" IVar="6" Cut="3.2920822143554688e+02" cType="1" res="9.8818764090538025e-02" rms="4.4073027372360229e-01" purity="5.3569573163986206e-01" nType="0">
        <Node pos="l" depth="1" NCoef="0" IVar="1" Cut="7.4027122497558594e+01" cType="1" res="5.0207357853651047e-03" rms="4.2561522126197815e-01" purity="3.6419677734375000e-01" nType="0">
          <Node pos="l" depth="2" NCoef="0" IVar="-1" Cut="0.0000000000000000e+00" cType="1" res="-1.4660815941169858e-03" rms="3.8882747292518616e-01" purity="2.2497084736824036e-01" nType="-99"/>
          <Node pos="r" depth="2" NCoef="0" IVar="-1" Cut="0.0000000000000000e+00" cType="1" res="7.1295525413006544e-04" rms="4.3677610158920288e-01" purity="4.8707449436187744e-01" nType="-99"/>
        </Node>
        <Node pos="r" depth="1" NCoef="0" IVar="0" Cut="9.2741942405700684e-01" cType="1" res="1.6482333838939667e-01" rms="4.3921542167663574e-01" purity="6.5637761354446411e-01" nType="0">
          <Node pos="l" depth="2" NCoef="0" IVar="-1" Cut="0.0000000000000000e+00" cType="1" res="8.0570702266413718e-05" rms="4.4222569465637207e-01" purity="3.9829337596893311e-01" nType="-99"/>
          <Node pos="r" depth="2" NCoef="0" IVar="-1" Cut="0.0000000000000000e+00" cType="1" res="1.0473676957190037e-03" rms="4.3482726812362671e-01" purity="6.8941879272460938e-01" nType="-99"/>
        </Node>
      </Node>
    </BinaryTree>
    <BinaryTree type="DecisionTree" boostWeight="1.0000000000000000e+00" itree="320">
      <Node pos="s" depth="0" NCoef="0" IVar="0" Cut="9.5538049936294556e-01" cType="1" res="6.2599785625934601e-02" rms="4.5632457733154297e-01" purity="4.7606900334358215e-01" nType="0">
        <Node pos="l" depth="1" NCoef="0" IVar="4" Cut="6.0340547561645508e-01" cType="1" res="-5.0434544682502747e-02" rms="4.1593414545059204e-01" purity="2.9201057553291321e-01" nType="0">
          <Node pos="l" depth="2" NCoef="0" IVar="-1" Cut="0.0000000000000000e+00" cType="1" res="5.2098970627412200e-04" rms="4.4402107596397400e-01" purity="4.1584324836730957e-01" nType="-99"/>
          <Node pos="r" depth="2" NCoef="0" IVar="-1" Cut="0.0000000000000000e+00" cType="1" res="-1.1860257945954800e-03" rms="3.9850541949272156e-01" purity="2.4802604317665100e-01" nType="-99"/>
        </Node>
        <Node pos="r" depth="1" NCoef="0" IVar="3" Cut="2.8825733661651611e+00" cType="1" res="1.6101047396659851e-01" rms="4.6700814366340637e-01" purity="6.3631522655487061e-01" nType="0">
          <Node pos="l" depth="2" NCoef="0" IVar="-1" Cut="0.0000000000000000e+00" cType="1" res="8.1304932245984674e-04" rms="4.5823305845260620e-01" purity="6.4697021245956421e-01" nType="-99"/>
          <Node pos="r" depth="2" NCoef="0" IVar="-1" Cut="0.0000000000000000e+00" cType="1" res="3.4841636661440134e-03" rms="4.8562043905258179e-01" purity="5.5459958314895630e-01" nType="-99"/>
        </Node>
      </Node>
    </BinaryTree>
    <BinaryTree type="DecisionTree" boostWeight="1.0000000000000000e+00" itree="321">
      <Node pos="s" depth="0" NCoef="0" IVar="0" Cut="9.5725387334823608e-01" cType="1" res="7.5891345739364624e-02" rms="4.4837304949760437e-01" purity="5.0463789701461792e-01" nType="0">
        <Node pos="l" depth="1" NCoef="0" IVar="5" Cut="1.6585133075714111e+00" cType="1" res="-1.7603330314159393e-02" rms="4.4359070062637329e-01" purity="3.2950726151466370e-01" nType="0">
          <Node pos="l" depth="2" NCoef="0" IVar="-1" Cut="0.0000000000000000e+00" cType="1" res="1.3210027827881277e-04" rms="4.5121252536773682e-01" purity="3.5935026407241821e-01" nType="-99"/>
          <Node pos="r" depth="2" NCoef="0" IVar="-1" Cut="0.0000000000000000e+00" cType="1" res="-6.8940380588173866e-03" rms="2.6370587944984436e-01" purity="8.1518538296222687e-02" nType="-99"/>
        </Node>
        <Node pos="r" depth="1" NCoef="0" IVar="3" Cut="1.7886997461318970e+00" cType="1" res="1.5819314122200012e-01" rms="4.3626257777214050e-01" purity="6.5880244970321655e-01" nType="0">
          <Node pos="l" depth="2" NCoef="0" IVar="-1" Cut="0.0000000000000000e+00" cType="1" res="1.0387704242020845e-03" rms="4.0550240874290466e-01" purity="7.6938211917877197e-01" nType="-99"/>
          <Node pos="r" depth="2" NCoef="0" IVar="-1" Cut="0.0000000000000000e+00" cType="1" res="2.8401828603819013e-04" rms="4.8233652114868164e-01" purity="3.7588027119636536e-01" nType="-99"/>
        </Node>
      </Node>
    </BinaryTree>
    <BinaryTree type="DecisionTree" boostWeight="1.0000000000000000e+00" itree="322">
      <Node pos="s" depth="0" NCoef="0" IVar="5" Cut="1.3127529621124268e+00" cType="1" res="7.8959979116916656e-02" rms="4.4740688800811768e-01" purity="5.0622689723968506e-01" nType="0">
        <Node pos="l" depth="1" NCoef="0" IVar="1" Cut="6.6412506103515625e+01" cType="1" res="6.8614487536251545e-03" rms="4.3354928493499756e-01" purity="4.1771826148033142e-01" nType="0">
          <Node pos="l" depth="2" NCoef="0" IVar="-1" Cut="0.0000000000000000e+00" cType="1" res="-1.5056192642077804e-03" rms="3.7824320793151855e-01" purity="2.5112164020538330e-01" nType="-99"/>
          <Node pos="r" depth="2" NCoef="0" IVar="-1" Cut="0.0000000000000000e+00" cType="1" res="3.8382693310268223e-04" rms="4.4392934441566467e-01" purity="4.7505745291709900e-01" nType="-99"/>
        </Node>
        <Node pos="r" depth="1" NCoef="0" IVar="4" Cut="8.1015187501907349e-01" cType="1" res="1.5921737253665924e-01" rms="4.4892609119415283e-01" purity="6.0475128889083862e-01" nType="0">
          <Node pos="l" depth="2" NCoef="0" IVar="-1" Cut="0.0000000000000000e+00" cType="1" res="1.1090229963883758e-03" rms="4.4711580872535706e-01" purity="6.4469736814498901e-01" nType="-99"/>
          <Node pos="r" depth="2" NCoef="0" IVar="-1" Cut="0.0000000000000000e+00" cType="1" res="-1.1918459786102176e-03" rms="3.7585720419883728e-01" purity="2.7133747935295105e-01" nType="-99"/>
        </Node>
      </Node>
    </BinaryTree>
    <BinaryTree type="DecisionTree" boostWeight="1.0000000000000000e+00" itree="323">
      <Node pos="s" depth="0" NCoef="0" IVar="0" Cut="9.6772962808609009e-01" cType="1" res="9.5670334994792938e-02" rms="4.4075489044189453e-01" purity="5.2659827470779419e-01" nType="0">
        <Node pos="l" depth="1" NCoef="0" IVar="8" Cut="1.2229350280761719e+02" cType="1" res="2.9849881306290627e-02" rms="4.4867730140686035e-01" purity="4.0494018793106079e-01" nType="0">
          <Node pos="l" depth="2" NCoef="0" IVar="-1" Cut="0.0000000000000000e+00" cType="1" res="6.8469170946627855e-04" rms="4.5150929689407349e-01" purity="4.6471205353736877e-01" nType="-99"/>
          <Node pos="r" depth="2" NCoef="0" IVar="-1" Cut="0.0000000000000000e+00" cType="1" res="-5.0241232383996248e-04" rms="4.3369120359420776e-01" purity="3.2630819082260132e-01" nType="-99"/>
        </Node>
        <Node pos="r" depth="1" NCoef="0" IVar="8" Cut="1.0509533691406250e+02" cType="1" res="2.1111810207366943e-01" rms="4.0122124552726746e-01" purity="7.3998409509658813e-01" nType="0">
          <Node pos="l" depth="2" NCoef="0" IVar="-1" Cut="0.0000000000000000e+00" cType="1" res="4.6064282651059330e-04" rms="4.5113787055015564e-01" purity="5.7288354635238647e-01" nType="-99"/>
          <Node pos="r" depth="2" NCoef="0" IVar="-1" Cut="0.0000000000000000e+00" cType="1" res="1.2527768267318606e-03" rms="3.8054305315017700e-01" purity="7.8021496534347534e-01" nType="-99"/>
        </Node>
      </Node>
    </BinaryTree>
    <BinaryTree type="DecisionTree" boostWeight="1.0000000000000000e+00" itree="324">
      <Node pos="s" depth="0" NCoef="0" IVar="8" Cut="9.0744453430175781e+01" cType="1" res="9.3006610870361328e-02" rms="4.3624794483184814e-01" purity="5.2889871597290039e-01" nType="0">
        <Node pos="l" depth="1" NCoef="0" IVar="-1" Cut="0.0000000000000000e+00" cType="1" res="-2.8277062810957432e-03" rms="3.3995524048805237e-01" purity="1.7799577116966248e-01" nType="-99"/>
        <Node pos="r" depth="1" NCoef="0" IVar="3" Cut="2.4934990406036377e+00" cType="1" res="1.1854302138090134e-01" rms="4.3747383356094360e-01" purity="5.6596887111663818e-01" nType="0">
          <Node pos="l" depth="2" NCoef="0" IVar="-1" Cut="0.0000000000000000e+00" cType="1" res="8.8732951553538442e-04" rms="4.4938868284225464e-01" purity="6.3988125324249268e-01" nType="-99"/>
          <Node pos="r" depth="2" NCoef="0" IVar="-1" Cut="0.0000000000000000e+00" cType="1" res="-2.9227950144559145e-03" rms="2.8030326962471008e-01" purity="9.2014372348785400e-02" nType="-99"/>
        </Node>
      </Node>
    </BinaryTree>
    <BinaryTree type="DecisionTree" boostWeight="1.0000000000000000e+00" itree="325">
      <Node pos="s" depth="0" NCoef="0" IVar="8" Cut="1.0262442779541016e+02" cType="1" res="6.8182364106178284e-02" rms="4.5376157760620117e-01" purity="4.9102970957756042e-01" nType="0">
        <Node pos="l" depth="1" NCoef="0" IVar="5" Cut="1.1835370063781738e+00" cType="1" res="-5.5972810834646225e-02" rms="4.2090499401092529e-01" purity="3.0242472887039185e-01" nType="0">
          <Node pos="l" depth="2" NCoef="0" IVar="-1" Cut="0.0000000000000000e+00" cType="1" res="6.4734916668385267e-04" rms="4.5095756649971008e-01" purity="4.2090022563934326e-01" nType="-99"/>
          <Node pos="r" depth="2" NCoef="0" IVar="-1" Cut="0.0000000000000000e+00" cType="1" res="-2.8227048460394144e-03" rms="3.5001423954963684e-01" purity="1.9370180368423462e-01" nType="-99"/>
        </Node>
        <Node pos="r" depth="1" NCoef="0" IVar="6" Cut="4.4508578491210938e+02" cType="1" res="9.7214475274085999e-02" rms="4.5625913143157959e-01" purity="5.3513264656066895e-01" nType="0">
          <Node pos="l" depth="2" NCoef="0" IVar="-1" Cut="0.0000000000000000e+00" cType="1" res="5.2495609270408750e-04" rms="4.5863029360771179e-01" purity="4.7389960289001465e-01" nType="-99"/>
          <Node pos="r" depth="2" NCoef="0" IVar="-1" Cut="0.0000000000000000e+00" cType="1" res="1.0283975861966610e-03" rms="4.3869125843048096e-01" purity="7.0271134376525879e-01" nType="-99"/>
        </Node>
      </Node>
    </BinaryTree>
    <BinaryTree type="DecisionTree" boostWeight="1.0000000000000000e+00" itree="326">
      <Node pos="s" depth="0" NCoef="0" IVar="3" Cut="1.4194993972778320e+00" cType="1" res="2.8219442814588547e-02" rms="4.4046741724014282e-01" purity="4.5675155520439148e-01" nType="0">
        <Node pos="l" depth="1" NCoef="0" IVar="6" Cut="3.5786914062500000e+02" cType="1" res="1.0626817494630814e-01" rms="4.6730092167854309e-01" purity="6.0432553291320801e-01" nType="0">
          <Node pos="l" depth="2" NCoef="0" IVar="-1" Cut="0.0000000000000000e+00" cType="1" res="9.1961142607033253e-04" rms="4.6504577994346619e-01" purity="5.9519422054290771e-01" nType="-99"/>
          <Node pos="r" depth="2" NCoef="0" IVar="-1" Cut="0.0000000000000000e+00" cType="1" res="2.8308748733252287e-04" rms="4.6426767110824585e-01" purity="6.1801218986511230e-01" nType="-99"/>
        </Node>
        <Node pos="r" depth="1" NCoef="0" IVar="0" Cut="9.5997262001037598e-01" cType="1" res="-4.6333327889442444e-02" rms="3.9920815825462341e-01" purity="3.1578776240348816e-01" nType="0">
          <Node pos="l" depth="2" NCoef="0" IVar="-1" Cut="0.0000000000000000e+00" cType="1" res="-2.4158020969480276e-03" rms="3.5215818881988525e-01" purity="1.6570633649826050e-01" nType="-99"/>
          <Node pos="r" depth="2" NCoef="0" IVar="-1" Cut="0.0000000000000000e+00" cType="1" res="3.1575476168654859e-04" rms="4.3366533517837524e-01" purity="4.9928990006446838e-01" nType="-99"/>
        </Node>
      </Node>
    </BinaryTree>
    <BinaryTree type="DecisionTree" boostWeight="1.0000000000000000e+00" itree="327">
      <Node pos="s" depth="0" NCoef="0" IVar="3" Cut="1.5293728113174438e+00" cType="1" res="5.1760014146566391e-02" rms="4.4108614325523376e-01" purity="4.8494547605514526e-01" nType="0">
        <Node pos="l" depth="1" NCoef="0" IVar="1" Cut="1.0111991882324219e+02" cType="1" res="1.2398825585842133e-01" rms="4.4566252827644348e-01" purity="6.3613623380661011e-01" nType="0">
          <Node pos="l" depth="2" NCoef="0" IVar="-1" Cut="0.0000000000000000e+00" cType="1" res="4.9133988795801997e-04" rms="4.7531569004058838e-01" purity="5.2584719657897949e-01" nType="-99"/>
          <Node pos="r" depth="2" NCoef="0" IVar="-1" Cut="0.0000000000000000e+00" cType="1" res="1.0412357514724135e-03" rms="3.7625980377197266e-01" purity="8.1619930267333984e-01" nType="-99"/>
        </Node>
        <Node pos="r" depth="1" NCoef="0" IVar="8" Cut="1.4546932983398438e+02" cType="1" res="-3.7825249135494232e-02" rms="4.1836297512054443e-01" purity="2.9742234945297241e-01" nType="0">
          <Node pos="l" depth="2" NCoef="0" IVar="-1" Cut="0.0000000000000000e+00" cType="1" res="1.8460290448274463e-05" rms="4.3583944439888000e-01" purity="3.4734392166137695e-01" nType="-99"/>
          <Node pos="r" depth="2" NCoef="0" IVar="-1" Cut="0.0000000000000000e+00" cType="1" res="-4.3048667721450329e-03" rms="3.1936758756637573e-01" purity="1.2973146140575409e-01" nType="-99"/>
        </Node>
      </Node>
    </BinaryTree>
    <BinaryTree type="DecisionTree" boostWeight="1.0000000000000000e+00" itree="328">
      <Node pos="s" depth="0" NCoef="0" IVar="6" Cut="3.9487060546875000e+02" cType="1" res="6.7663505673408508e-02" rms="4.4736582040786743e-01" purity="4.9337834119796753e-01" nType="0">
        <Node pos="l" depth="1" NCoef="0" IVar="0" Cut="9.2299973964691162e-01" cType="1" res="1.1728812009096146e-02" rms="4.3748477101325989e-01" purity="3.9938464760780334e-01" nType="0">
          <Node pos="l" depth="2" NCoef="0" IVar="-1" Cut="0.0000000000000000e+00" cType="1" res="-1.8043939024209976e-02" rms="1.3006919622421265e-01" purity="0.0000000000000000e+00" nType="-99"/>
          <Node pos="r" depth="2" NCoef="0" IVar="-1" Cut="0.0000000000000000e+00" cType="1" res="3.8615305675193667e-04" rms="4.5072123408317566e-01" purity="4.5064756274223328e-01" nType="-99"/>
        </Node>
        <Node pos="r" depth="1" NCoef="0" IVar="4" Cut="7.4514710903167725e-01" cType="1" res="1.7443035542964935e-01" rms="4.4660270214080811e-01" purity="6.7279130220413208e-01" nType="0">
          <Node pos="l" depth="2" NCoef="0" IVar="-1" Cut="0.0000000000000000e+00" cType="1" res="6.6630443325266242e-04" rms="4.4764575362205505e-01" purity="6.3103014230728149e-01" nType="-99"/>
          <Node pos="r" depth="2" NCoef="0" IVar="-1" Cut="0.0000000000000000e+00" cType="1" res="1.4902444090694189e-03" rms="4.2602294683456421e-01" purity="7.3534619808197021e-01" nType="-99"/>
        </Node>
      </Node>
    </BinaryTree>
    <BinaryTree type="DecisionTree" boostWeight="1.0000000000000000e+00" itree="329">
      <Node pos="s" depth="0" NCoef="0" IVar="4" Cut="7.7627205848693848e-01" cType="1" res="6.9295451045036316e-02" rms="4.4507104158401489e-01" purity="4.9618899822235107e-01" nType="0">
        <Node pos="l" depth="1" NCoef="0" IVar="6" Cut="3.3428048706054688e+02" cType="1" res="9.8358765244483948e-02" rms="4.4992268085479736e-01" purity="5.3611326217651367e-01" nType="0">
          <Node pos="l" depth="2" NCoef="0" IVar="-1" Cut="0.0000000000000000e+00" cType="1" res="2.9221249860711396e-04" rms="4.5280200242996216e-01" purity="3.8948029279708862e-01" nType="-99"/>
          <Node pos="r" depth="2" NCoef="0" IVar="-1" Cut="0.0000000000000000e+00" cType="1" res="9.1381149832159281e-04" rms="4.3792715668678284e-01" purity="6.7126822471618652e-01" nType="-99"/>
        </Node>
        <Node pos="r" depth="1" NCoef="0" IVar="7" Cut="1.0941412448883057e+00" cType="1" res="-1.5409588813781738e-01" rms="3.2911464571952820e-01" purity="1.8931643664836884e-01" nType="0">
          <Node pos="l" depth="2" NCoef="0" IVar="-1" Cut="0.0000000000000000e+00" cType="1" res="-9.5797743415459991e-04" rms="3.7294057011604309e-01" purity="2.9229786992073059e-01" nType="-99"/>
          <Node pos="r" depth="2" NCoef="0" IVar="-1" Cut="0.0000000000000000e+00" cType="1" res="-6.9284839555621147e-03" rms="2.7506592869758606e-01" purity="1.0530994832515717e-01" nType="-99"/>
        </Node>
      </Node>
    </BinaryTree>
    <BinaryTree type="DecisionTree" boostWeight="1.0000000000000000e+00" itree="330">
      <Node pos="s" depth="0" NCoef="0" IVar="3" Cut="1.5245122909545898e+00" cType="1" res="6.9096647202968597e-02" rms="4.4400638341903687e-01" purity="5.0211578607559204e-01" nType="0">
        <Node pos="l" depth="1" NCoef="0" IVar="1" Cut="8.6137451171875000e+01" cType="1" res="1.2673094868659973e-01" rms="4.4852101802825928e-01" purity="6.3507652282714844e-01" nType="0">
          <Node pos="l" depth="2" NCoef="0" IVar="-1" Cut="0.0000000000000000e+00" cType="1" res="4.9926817882806063e-04" rms="4.6725848317146301e-01" purity="5.2772945165634155e-01" nType="-99"/>
          <Node pos="r" depth="2" NCoef="0" IVar="-1" Cut="0.0000000000000000e+00" cType="1" res="1.0222836863249540e-03" rms="4.1164395213127136e-01" purity="7.7597421407699585e-01" nType="-99"/>
        </Node>
        <Node pos="r" depth="1" NCoef="0" IVar="4" Cut="7.1287751197814941e-01" cType="1" res="-3.4047050867229700e-03" rms="4.2736139893531799e-01" purity="3.3485719561576843e-01" nType="0">
          <Node pos="l" depth="2" NCoef="0" IVar="-1" Cut="0.0000000000000000e+00" cType="1" res="4.8360467189922929e-04" rms="4.4112819433212280e-01" purity="4.0752863883972168e-01" nType="-99"/>
          <Node pos="r" depth="2" NCoef="0" IVar="-1" Cut="0.0000000000000000e+00" cType="1" res="-2.2940384224057198e-03" rms="3.6862754821777344e-01" purity="1.7883729934692383e-01" nType="-99"/>
        </Node>
      </Node>
    </BinaryTree>
    <BinaryTree type="DecisionTree" boostWeight="1.0000000000000000e+00" itree="331">
      <Node pos="s" depth="0" NCoef="0" IVar="8" Cut="1.3696086120605469e+02" cType="1" res="4.8133317381143570e-02" rms="4.4506248831748962e-01" purity="4.7217804193496704e-01" nType="0">
        <Node pos="l" depth="1" NCoef="0" IVar="1" Cut="1.0722518157958984e+02" cType="1" res="8.6652845144271851e-02" rms="4.4604614377021790e-01" purity="5.1935684680938721e-01" nType="0">
          <Node pos="l" depth="2" NCoef="0" IVar="-1" Cut="0.0000000000000000e+00" cType="1" res="2.3187008628156036e-04" rms="4.4809922575950623e-01" purity="4.3766990303993225e-01" nType="-99"/>
          <Node pos="r" depth="2" NCoef="0" IVar="-1" Cut="0.0000000000000000e+00" cType="1" res="1.1753471335396171e-03" rms="4.1963204741477966e-01" purity="6.7578303813934326e-01" nType="-99"/>
        </Node>
        <Node pos="r" depth="1" NCoef="0" IVar="1" Cut="7.7815788269042969e+01" cType="1" res="-6.9481082260608673e-02" rms="4.2076191306114197e-01" purity="3.2812371850013733e-01" nType="0">
          <Node pos="l" depth="2" NCoef="0" IVar="-1" Cut="0.0000000000000000e+00" cType="1" res="-3.8950233720242977e-03" rms="3.4460872411727905e-01" purity="1.4972241222858429e-01" nType="-99"/>
          <Node pos="r" depth="2" NCoef="0" IVar="-1" Cut="0.0000000000000000e+00" cType="1" res="-1.4813468442298472e-04" rms="4.3847033381462097e-01" purity="4.0395244956016541e-01" nType="-99"/>
        </Node>
      </Node>
    </BinaryTree>
    <BinaryTree type="DecisionTree" boostWeight="1.0000000000000000e+00" itree="332">
      <Node pos="s" depth="0" NCoef="0" IVar="3" Cut="1.3421461582183838e+00" cType="1" res="9.4142787158489227e-02" rms="4.4793936610221863e-01" purity="5.2592426538467407e-01" nType="0">
        <Node pos="l" depth="1" NCoef="0" IVar="0" Cut="9.4248163700103760e-01" cType="1" res="1.6554370522499084e-01" rms="4.3902030587196350e-01" purity="6.8109226226806641e-01" nType="0">
          <Node pos="l" depth="2" NCoef="0" IVar="-1" Cut="0.0000000000000000e+00" cType="1" res="-2.0999580738134682e-04" rms="4.4701737165451050e-01" purity="4.1199719905853271e-01" nType="-99"/>
          <Node pos="r" depth="2" NCoef="0" IVar="-1" Cut="0.0000000000000000e+00" cType="1" res="1.0957533959299326e-03" rms="4.2251932621002197e-01" purity="7.5349009037017822e-01" nType="-99"/>
        </Node>
        <Node pos="r" depth="1" NCoef="0" IVar="8" Cut="9.8329757690429688e+01" cType="1" res="2.9231565073132515e-02" rms="4.4608664512634277e-01" purity="3.8485965132713318e-01" nType="0">
          <Node pos="l" depth="2" NCoef="0" IVar="-1" Cut="0.0000000000000000e+00" cType="1" res="-4.4136499054729939e-03" rms="2.9998561739921570e-01" purity="1.0770303010940552e-01" nType="-99"/>
          <Node pos="r" depth="2" NCoef="0" IVar="-1" Cut="0.0000000000000000e+00" cType="1" res="5.0924229435622692e-04" rms="4.5589911937713623e-01" purity="4.2278489470481873e-01" nType="-99"/>
        </Node>
      </Node>
    </BinaryTree>
    <BinaryTree type="DecisionTree" boostWeight="1.0000000000000000e+00" itree="333">
      <Node pos="s" depth="0" NCoef="0" IVar="0" Cut="9.5878416299819946e-01" cType="1" res="8.7896987795829773e-02" rms="4.3929639458656311e-01" purity="5.2802830934524536e-01" nType="0">
        <Node pos="l" depth="1" NCoef="0" IVar="6" Cut="4.6299069213867188e+02" cType="1" res="2.9754426330327988e-02" rms="4.4911074638366699e-01" purity="3.8688594102859497e-01" nType="0">
          <Node pos="l" depth="2" NCoef="0" IVar="-1" Cut="0.0000000000000000e+00" cType="1" res="-9.6333118563052267e-05" rms="4.4011583924293518e-01" purity="3.1665697693824768e-01" nType="-99"/>
          <Node pos="r" depth="2" NCoef="0" IVar="-1" Cut="0.0000000000000000e+00" cType="1" res="9.9509267602115870e-04" rms="4.5420062541961670e-01" purity="6.4022040367126465e-01" nType="-99"/>
        </Node>
        <Node pos="r" depth="1" NCoef="0" IVar="3" Cut="2.1997973918914795e+00" cType="1" res="1.4830759167671204e-01" rms="4.2042857408523560e-01" purity="6.7467635869979858e-01" nType="0">
          <Node pos="l" depth="2" NCoef="0" IVar="-1" Cut="0.0000000000000000e+00" cType="1" res="9.5183076336979866e-04" rms="4.1645935177803040e-01" purity="7.4723029136657715e-01" nType="-99"/>
          <Node pos="r" depth="2" NCoef="0" IVar="-1" Cut="0.0000000000000000e+00" cType="1" res="-2.0900247618556023e-03" rms="3.5334363579750061e-01" purity="1.7032295465469360e-01" nType="-99"/>
        </Node>
      </Node>
    </BinaryTree>
    <BinaryTree type="DecisionTree" boostWeight="1.0000000000000000e+00" itree="334">
      <Node pos="s" depth="0" NCoef="0" IVar="0" Cut="9.5446026325225830e-01" cType="1" res="5.7060766965150833e-02" rms="4.4455954432487488e-01" purity="4.8571148514747620e-01" nType="0">
        <Node pos="l" depth="1" NCoef="0" IVar="8" Cut="1.4328285217285156e+02" cType="1" res="-1.6838889569044113e-02" rms="4.3256887793540955e-01" purity="3.3375242352485657e-01" nType="0">
          <Node pos="l" depth="2" NCoef="0" IVar="-1" Cut="0.0000000000000000e+00" cType="1" res="1.0491317516425624e-04" rms="4.4331121444702148e-01" purity="3.6918109655380249e-01" nType="-99"/>
          <Node pos="r" depth="2" NCoef="0" IVar="-1" Cut="0.0000000000000000e+00" cType="1" res="-2.8714002110064030e-03" rms="3.5675919055938721e-01" purity="1.7711615562438965e-01" nType="-99"/>
        </Node>
        <Node pos="r" depth="1" NCoef="0" IVar="3" Cut="9.1927534341812134e-01" cType="1" res="1.2438651919364929e-01" rms="4.4464239478111267e-01" purity="6.2415277957916260e-01" nType="0">
          <Node pos="l" depth="2" NCoef="0" IVar="-1" Cut="0.0000000000000000e+00" cType="1" res="1.1030971072614193e-03" rms="3.8502091169357300e-01" purity="7.9746180772781372e-01" nType="-99"/>
          <Node pos="r" depth="2" NCoef="0" IVar="-1" Cut="0.0000000000000000e+00" cType="1" res="5.2484334446489811e-04" rms="4.6102410554885864e-01" purity="5.4547947645187378e-01" nType="-99"/>
        </Node>
      </Node>
    </BinaryTree>
    <BinaryTree type="DecisionTree" boostWeight="1.0000000000000000e+00" itree="335">
      <Node pos="s" depth="0" NCoef="0" IVar="1" Cut="5.2764606475830078e+01" cType="1" res="6.4985342323780060e-02" rms="4.4194668531417847e-01" purity="4.9422940611839294e-01" nType="0">
        <Node pos="l" depth="1" NCoef="0" IVar="5" Cut="1.3630483150482178e+00" cType="1" res="-9.5194905996322632e-02" rms="3.9179071784019470e-01" purity="2.3941248655319214e-01" nType="0">
          <Node pos="l" depth="2" NCoef="0" IVar="-1" Cut="0.0000000000000000e+00" cType="1" res="-1.8741657549981028e-04" rms="4.1750243306159973e-01" purity="3.2402914762496948e-01" nType="-99"/>
          <Node pos="r" depth="2" NCoef="0" IVar="-1" Cut="0.0000000000000000e+00" cType="1" res="-7.6224012300372124e-03" rms="2.9298990964889526e-01" purity="8.7262228131294250e-02" nType="-99"/>
        </Node>
        <Node pos="r" depth="1" NCoef="0" IVar="7" Cut="2.2028367519378662e+00" cType="1" res="9.9119149148464203e-02" rms="4.4451683759689331e-01" purity="5.4852992296218872e-01" nType="0">
          <Node pos="l" depth="2" NCoef="0" IVar="-1" Cut="0.0000000000000000e+00" cType="1" res="8.0648076254874468e-04" rms="4.5229858160018921e-01" purity="6.0203260183334351e-01" nType="-99"/>
          <Node pos="r" depth="2" NCoef="0" IVar="-1" Cut="0.0000000000000000e+00" cType="1" res="-4.3581458739936352e-03" rms="2.7709540724754333e-01" purity="1.1231462657451630e-01" nType="-99"/>
        </Node>
      </Node>
    </BinaryTree>
    <BinaryTree type="DecisionTree" boostWeight="1.0000000000000000e+00" itree="336">
      <Node pos="s" depth="0" NCoef="0" IVar="5" Cut="1.4533545970916748e+00" cType="1" res="7.2056658565998077e-02" rms="4.4511586427688599e-01" purity="5.0439530611038208e-01" nType="0">
        <Node pos="l" depth="1" NCoef="0" IVar="6" Cut="3.5225198364257812e+02" cType="1" res="2.5004623457789421e-02" rms="4.3949460983276367e-01" purity="4.4896128773689270e-01" nType="0">
          <Node pos="l" depth="2" NCoef="0" IVar="-1" Cut="0.0000000000000000e+00" cType="1" res="-3.8957560900598764e-04" rms="4.2630225419998169e-01" purity="3.1638765335083008e-01" nType="-99"/>
          <Node pos="r" depth="2" NCoef="0" IVar="-1" Cut="0.0000000000000000e+00" cType="1" res="5.9898511972278357e-04" rms="4.4463911652565002e-01" purity="6.0695689916610718e-01" nType="-99"/>
        </Node>
        <Node pos="r" depth="1" NCoef="0" IVar="4" Cut="7.9924917221069336e-01" cType="1" res="1.6375364363193512e-01" rms="4.4169682264328003e-01" purity="6.1242741346359253e-01" nType="0">
          <Node pos="l" depth="2" NCoef="0" IVar="-1" Cut="0.0000000000000000e+00" cType="1" res="1.1680915486067533e-03" rms="4.3688589334487915e-01" purity="6.7754364013671875e-01" nType="-99"/>
          <Node pos="r" depth="2" NCoef="0" IVar="-1" Cut="0.0000000000000000e+00" cType="1" res="-5.8150675613433123e-04" rms="3.9233735203742981e-01" purity="3.1967869400978088e-01" nType="-99"/>
        </Node>
      </Node>
    </BinaryTree>
    <BinaryTree type="DecisionTree" boostWeight="1.0000000000000000e+00" itree="337">
      <Node pos="s" depth="0" NCoef="0" IVar="7" Cut="1.9791060686111450e+00" cType="1" res="9.5112696290016174e-02" rms="4.4908800721168518e-01" purity="5.2308684587478638e-01" nType="0">
        <Node pos="l" depth="1" NCoef="0" IVar="8" Cut="1.0579180908203125e+02" cType="1" res="1.2099023908376694e-01" rms="4.5255038142204285e-01" purity="5.6975418329238892e-01" nType="0">
          <Node pos="l" depth="2" NCoef="0" IVar="-1" Cut="0.0000000000000000e+00" cType="1" res="2.0373331790324301e-04" rms="4.4118058681488037e-01" purity="4.1860064864158630e-01" nType="-99"/>
          <Node pos="r" depth="2" NCoef="0" IVar="-1" Cut="0.0000000000000000e+00" cType="1" res="9.8776526283472776e-04" rms="4.5136553049087524e-01" purity="6.2659466266632080e-01" nType="-99"/>
        </Node>
        <Node pos="r" depth="1" NCoef="0" IVar="2" Cut="1.9351023864746094e+02" cType="1" res="-6.7417778074741364e-02" rms="3.8916674256324768e-01" purity="2.2998048365116119e-01" nType="0">
          <Node pos="l" depth="2" NCoef="0" IVar="-1" Cut="0.0000000000000000e+00" cType="1" res="6.4150133403018117e-04" rms="4.7449755668640137e-01" purity="4.1421857476234436e-01" nType="-99"/>
          <Node pos="r" depth="2" NCoef="0" IVar="-1" Cut="0.0000000000000000e+00" cType="1" res="-3.7831440567970276e-03" rms="3.0086633563041687e-01" purity="1.1945157498121262e-01" nType="-99"/>
        </Node>
      </Node>
    </BinaryTree>
    <BinaryTree type="DecisionTree" boostWeight="1.0000000000000000e+00" itree="338">
      <Node pos="s" depth="0" NCoef="0" IVar="6" Cut="2.5654357910156250e+02" cType="1" res="4.4335767626762390e-02" rms="4.3881398439407349e-01" purity="4.6820640563964844e-01" nType="0">
        <Node pos="l" depth="1" NCoef="0" IVar="1" Cut="7.9848945617675781e+01" cType="1" res="-9.2264786362648010e-02" rms="3.5391831398010254e-01" purity="1.8004713952541351e-01" nType="0">
          <Node pos="l" depth="2" NCoef="0" IVar="-1" Cut="0.0000000000000000e+00" cType="1" res="-4.9723479896783829e-03" rms="2.4948255717754364e-01" purity="8.0413050949573517e-02" nType="-99"/>
          <Node pos="r" depth="2" NCoef="0" IVar="-1" Cut="0.0000000000000000e+00" cType="1" res="9.2267978470772505e-04" rms="4.4774270057678223e-01" purity="3.6293521523475647e-01" nType="-99"/>
        </Node>
        <Node pos="r" depth="1" NCoef="0" IVar="2" Cut="1.4331216430664062e+02" cType="1" res="7.2501957416534424e-02" rms="4.4921442866325378e-01" purity="5.2762311697006226e-01" nType="0">
          <Node pos="l" depth="2" NCoef="0" IVar="-1" Cut="0.0000000000000000e+00" cType="1" res="1.0955996112897992e-03" rms="4.5361164212226868e-01" purity="6.6209912300109863e-01" nType="-99"/>
          <Node pos="r" depth="2" NCoef="0" IVar="-1" Cut="0.0000000000000000e+00" cType="1" res="1.8431077478453517e-04" rms="4.3794921040534973e-01" purity="4.7505041956901550e-01" nType="-99"/>
        </Node>
      </Node>
    </BinaryTree>
    <BinaryTree type="DecisionTree" boostWeight="1.0000000000000000e+00" itree="339">
      <Node pos="s" depth="0" NCoef="0" IVar="3" Cut="1.3972462415695190e+00" cType="1" res="1.0691171139478683e-01" rms="4.4293001294136047e-01" purity="5.4218566417694092e-01" nType="0">
        <Node pos="l" depth="1" NCoef="0" IVar="1" Cut="3.7873321533203125e+01" cType="1" res="1.6608940064907074e-01" rms="4.3367123603820801e-01" purity="6.8009197711944580e-01" nType="0">
          <Node pos="l" depth="2" NCoef="0" IVar="-1" Cut="0.0000000000000000e+00" cType="1" res="-7.6932372758165002e-04" rms="4.1056933999061584e-01" purity="2.9643717408180237e-01" nType="-99"/>
          <Node pos="r" depth="2" NCoef="0" IVar="-1" Cut="0.0000000000000000e+00" cType="1" res="1.0326233459636569e-03" rms="4.2815771698951721e-01" purity="7.2243201732635498e-01" nType="-99"/>
        </Node>
        <Node pos="r" depth="1" NCoef="0" IVar="2" Cut="2.8907403564453125e+02" cType="1" res="4.9308937042951584e-02" rms="4.4425261020660400e-01" purity="4.0794947743415833e-01" nType="0">
          <Node pos="l" depth="2" NCoef="0" IVar="-1" Cut="0.0000000000000000e+00" cType="1" res="6.9456448545679450e-04" rms="4.6068242192268372e-01" purity="4.4710409641265869e-01" nType="-99"/>
          <Node pos="r" depth="2" NCoef="0" IVar="-1" Cut="0.0000000000000000e+00" cType="1" res="-7.7582435915246606e-04" rms="3.6433365941047668e-01" purity="2.7793401479721069e-01" nType="-99"/>
        </Node>
      </Node>
    </BinaryTree>
    <BinaryTree type="DecisionTree" boostWeight="1.0000000000000000e+00" itree="340">
      <Node pos="s" depth="0" NCoef="0" IVar="0" Cut="9.5210981369018555e-01" cType="1" res="4.7053728252649307e-02" rms="4.4076171517372131e-01" purity="4.7764867544174194e-01" nType="0">
        <Node pos="l" depth="1" NCoef="0" IVar="6" Cut="4.3057373046875000e+02" cType="1" res="-5.8256402611732483e-02" rms="4.0991616249084473e-01" purity="2.9120948910713196e-01" nType="0">
          <Node pos="l" depth="2" NCoef="0" IVar="-1" Cut="0.0000000000000000e+00" cType="1" res="-1.2786957668140531e-03" rms="3.8280096650123596e-01" purity="2.2987844049930573e-01" nType="-99"/>
          <Node pos="r" depth="2" NCoef="0" IVar="-1" Cut="0.0000000000000000e+00" cType="1" res="2.6900746161118150e-04" rms="4.7489374876022339e-01" purity="4.8646026849746704e-01" nType="-99"/>
        </Node>
        <Node pos="r" depth="1" NCoef="0" IVar="6" Cut="3.3257217407226562e+02" cType="1" res="1.2388299405574799e-01" rms="4.4656512141227722e-01" purity="6.1366581916809082e-01" nType="0">
          <Node pos="l" depth="2" NCoef="0" IVar="-1" Cut="0.0000000000000000e+00" cType="1" res="3.3647433156147599e-04" rms="4.7650158405303955e-01" purity="4.4396108388900757e-01" nType="-99"/>
          <Node pos="r" depth="2" NCoef="0" IVar="-1" Cut="0.0000000000000000e+00" cType="1" res="9.5010577933862805e-04" rms="4.1695752739906311e-01" purity="7.2239559888839722e-01" nType="-99"/>
        </Node>
      </Node>
    </BinaryTree>
    <BinaryTree type="DecisionTree" boostWeight="1.0000000000000000e+00" itree="341">
      <Node pos="s" depth="0" NCoef="0" IVar="6" Cut="3.0664099121093750e+02" cType="1" res="6.6155269742012024e-02" rms="4.3682032823562622e-01" purity="5.0045675039291382e-01" nType="0">
        <Node pos="l" depth="1" NCoef="0" IVar="4" Cut="6.1083859205245972e-01" cType="1" res="-3.8328051567077637e-02" rms="4.0529555082321167e-01" purity="2.9772284626960754e-01" nType="0">
          <Node pos="l" depth="2" NCoef="0" IVar="-1" Cut="0.0000000000000000e+00" cType="1" res="6.9450691808015108e-04" rms="4.6516367793083191e-01" purity="4.3664208054542542e-01" nType="-99"/>
          <Node pos="r" depth="2" NCoef="0" IVar="-1" Cut="0.0000000000000000e+00" cType="1" res="-1.6702945576980710e-03" rms="3.4958454966545105e-01" purity="2.1993823349475861e-01" nType="-99"/>
        </Node>
        <Node pos="r" depth="1" NCoef="0" IVar="1" Cut="1.5086227416992188e+02" cType="1" res="1.2188237905502319e-01" rms="4.4276776909828186e-01" purity="6.0858672857284546e-01" nType="0">
          <Node pos="l" depth="2" NCoef="0" IVar="-1" Cut="0.0000000000000000e+00" cType="1" res="9.1704737860709429e-04" rms="4.3395274877548218e-01" purity="6.5503019094467163e-01" nType="-99"/>
          <Node pos="r" depth="2" NCoef="0" IVar="-1" Cut="0.0000000000000000e+00" cType="1" res="-2.8565089451149106e-04" rms="4.4731724262237549e-01" purity="4.1138896346092224e-01" nType="-99"/>
        </Node>
      </Node>
    </BinaryTree>
    <BinaryTree type="DecisionTree" boostWeight="1.0000000000000000e+00" itree="342">
      <Node pos="s" depth="0" NCoef="0" IVar="1" Cut="4.0935005187988281e+01" cType="1" res="8.9115440845489502e-02" rms="4.3695759773254395e-01" purity="5.2994602918624878e-01" nType="0">
        <Node pos="l" depth="1" NCoef="0" IVar="-1" Cut="0.0000000000000000e+00" cType="1" res="-6.1805681325495243e-03" rms="2.2967858612537384e-01" purity="8.5210502147674561e-02" nType="-99"/>
        <Node pos="r" depth="1" NCoef="0" IVar="0" Cut="9.5837622880935669e-01" cType="1" res="1.1563695222139359e-01" rms="4.4004172086715698e-01" purity="5.6763172149658203e-01" nType="0">
          <Node pos="l" depth="2" NCoef="0" IVar="-1" Cut="0.0000000000000000e+00" cType="1" res="2.7843812131322920e-04" rms="4.4785109162330627e-01" purity="4.0424224734306335e-01" nType="-99"/>
          <Node pos="r" depth="2" NCoef="0" IVar="-1" Cut="0.0000000000000000e+00" cType="1" res="1.0440459009259939e-03" rms="4.1860902309417725e-01" purity="7.1324032545089722e-01" nType="-99"/>
        </Node>
      </Node>
    </BinaryTree>
    <BinaryTree type="DecisionTree" boostWeight="1.0000000000000000e+00" itree="343">
      <Node pos="s" depth="0" NCoef="0" IVar="3" Cut="2.2174689769744873e+00" cType="1" res="4.7956317663192749e-02" rms="4.4093936681747437e-01" purity="4.7454461455345154e-01" nType="0">
        <Node pos="l" depth="1" NCoef="0" IVar="1" Cut="8.9423675537109375e+01" cType="1" res="7.8259818255901337e-02" rms="4.6257576346397400e-01" purity="5.6184673309326172e-01" nType="0">
          <Node pos="l" depth="2" NCoef="0" IVar="-1" Cut="0.0000000000000000e+00" cType="1" res="-2.0755271179950796e-05" rms="4.7558665275573730e-01" purity="4.0872836112976074e-01" nType="-99"/>
          <Node pos="r" depth="2" NCoef="0" IVar="-1" Cut="0.0000000000000000e+00" cType="1" res="8.4414414595812559e-04" rms="4.3484687805175781e-01" purity="7.1342039108276367e-01" nType="-99"/>
        </Node>
        <Node pos="r" depth="1" NCoef="0" IVar="0" Cut="9.4214797019958496e-01" cType="1" res="-6.8228825926780701e-02" rms="3.2008835673332214e-01" purity="1.3982421159744263e-01" nType="0">
          <Node pos="l" depth="2" NCoef="0" IVar="-1" Cut="0.0000000000000000e+00" cType="1" res="1.1471393518149853e-03" rms="3.7830173969268799e-01" purity="2.0930179953575134e-01" nType="-99"/>
          <Node pos="r" depth="2" NCoef="0" IVar="-1" Cut="0.0000000000000000e+00" cType="1" res="-5.1086656749248505e-03" rms="2.2827886044979095e-01" purity="8.6664520204067230e-02" nType="-99"/>
        </Node>
      </Node>
    </BinaryTree>
    <BinaryTree type="DecisionTree" boostWeight="1.0000000000000000e+00" itree="344">
      <Node pos="s" depth="0" NCoef="0" IVar="0" Cut="9.5279133319854736e-01" cType="1" res="3.2924167811870575e-02" rms="4.4298571348190308e-01" purity="4.5934826135635376e-01" nType="0">
        <Node pos="l" depth="1" NCoef="0" IVar="1" Cut="9.3658782958984375e+01" cType="1" res="-7.2453416883945465e-02" rms="4.0957736968994141e-01" purity="2.6707765460014343e-01" nType="0">
          <Node pos="l" depth="2" NCoef="0" IVar="-1" Cut="0.0000000000000000e+00" cType="1" res="-4.3834759853780270e-03" rms="3.2988357543945312e-01" purity="1.1941511183977127e-01" nType="-99"/>
          <Node pos="r" depth="2" NCoef="0" IVar="-1" Cut="0.0000000000000000e+00" cType="1" res="3.7916522705927491e-04" rms="4.5418605208396912e-01" purity="4.2656317353248596e-01" nType="-99"/>
        </Node>
        <Node pos="r" depth="1" NCoef="0" IVar="7" Cut="2.0266799926757812e+00" cType="1" res="1.0924371331930161e-01" rms="4.5055282115936279e-01" purity="5.9859985113143921e-01" nType="0">
          <Node pos="l" depth="2" NCoef="0" IVar="-1" Cut="0.0000000000000000e+00" cType="1" res="8.6823583114892244e-04" rms="4.5085427165031433e-01" purity="6.5324562788009644e-01" nType="-99"/>
          <Node pos="r" depth="2" NCoef="0" IVar="-1" Cut="0.0000000000000000e+00" cType="1" res="-5.1475730724632740e-03" rms="2.9481106996536255e-01" purity="1.2156730145215988e-01" nType="-99"/>
        </Node>
      </Node>
    </BinaryTree>
    <BinaryTree type="DecisionTree" boostWeight="1.0000000000000000e+00" itree="345">
      <Node pos="s" depth="0" NCoef="0" IVar="0" Cut="9.3694067001342773e-01" cType="1" res="4.8589836806058884e-02" rms="4.4172769784927368e-01" purity="4.7165188193321228e-01" nType="0">
        <Node pos="l" depth="1" NCoef="0" IVar="1" Cut="9.2033790588378906e+01" cType="1" res="-9.9343694746494293e-02" rms="3.8120299577713013e-01" purity="2.1294638514518738e-01" nType="0">
          <Node pos="l" depth="2" NCoef="0" IVar="-1" Cut="0.0000000000000000e+00" cType="1" res="-4.1847606189548969e-03" rms="3.1385239958763123e-01" purity="1.1379306763410568e-01" nType="-99"/>
          <Node pos="r" depth="2" NCoef="0" IVar="-1" Cut="0.0000000000000000e+00" cType="1" res="-2.6949093444272876e-04" rms="4.3434426188468933e-01" purity="3.2744094729423523e-01" nType="-99"/>
        </Node>
        <Node pos="r" depth="1" NCoef="0" IVar="8" Cut="1.1198677062988281e+02" cType="1" res="9.5214121043682098e-02" rms="4.4916602969169617e-01" purity="5.5318820476531982e-01" nType="0">
          <Node pos="l" depth="2" NCoef="0" IVar="-1" Cut="0.0000000000000000e+00" cType="1" res="-6.0009919252479449e-05" rms="4.5396578311920166e-01" purity="4.0382179617881775e-01" nType="-99"/>
          <Node pos="r" depth="2" NCoef="0" IVar="-1" Cut="0.0000000000000000e+00" cType="1" res="8.5833185585215688e-04" rms="4.4113904237747192e-01" purity="6.1048346757888794e-01" nType="-99"/>
        </Node>
      </Node>
    </BinaryTree>
    <BinaryTree type="DecisionTree" boostWeight="1.0000000000000000e+00" itree="346">
      <Node pos="s" depth="0" NCoef="0" IVar="0" Cut="9.5653700828552246e-01" cType="1" res="4.5166764408349991e-02" rms="4.3506973981857300e-01" purity="4.7052669525146484e-01" nType="0">
        <Node pos="l" depth="1" NCoef="0" IVar="4" Cut="6.3838100433349609e-01" cType="1" res="-3.2321792095899582e-02" rms="4.2242833971977234e-01" purity="3.0320814251899719e-01" nType="0">
          <Node pos="l" depth="2" NCoef="0" IVar="-1" Cut="0.0000000000000000e+00" cType="1" res="-2.6536106597632170e-03" rms="3.9171990752220154e-01" purity="1.8598289787769318e-01" nType="-99"/>
          <Node pos="r" depth="2" NCoef="0" IVar="-1" Cut="0.0000000000000000e+00" cType="1" res="2.2755378449801356e-04" rms="4.2633414268493652e-01" purity="3.6122518777847290e-01" nType="-99"/>
        </Node>
        <Node pos="r" depth="1" NCoef="0" IVar="6" Cut="3.9057550048828125e+02" cType="1" res="1.1775116622447968e-01" rms="4.3421956896781921e-01" purity="6.2725585699081421e-01" nType="0">
          <Node pos="l" depth="2" NCoef="0" IVar="-1" Cut="0.0000000000000000e+00" cType="1" res="4.3192639714106917e-04" rms="4.5157679915428162e-01" purity="5.2308619022369385e-01" nType="-99"/>
          <Node pos="r" depth="2" NCoef="0" IVar="-1" Cut="0.0000000000000000e+00" cType="1" res="9.9066179245710373e-04" rms="3.9181604981422424e-01" purity="7.8110390901565552e-01" nType="-99"/>
        </Node>
      </Node>
    </BinaryTree>
    <BinaryTree type="DecisionTree" boostWeight="1.0000000000000000e+00" itree="347">
      <Node pos="s" depth="0" NCoef="0" IVar="0" Cut="9.6341478824615479e-01" cType="1" res="7.3071584105491638e-02" rms="4.4302088022232056e-01" purity="4.9345168471336365e-01" nType="0">
        <Node pos="l" depth="1" NCoef="0" IVar="5" Cut="1.2846146821975708e+00" cType="1" res="3.1260028481483459e-02" rms="4.4371399283409119e-01" purity="3.8250142335891724e-01" nType="0">
          <Node pos="l" depth="2" NCoef="0" IVar="-1" Cut="0.0000000000000000e+00" cType="1" res="-3.6335413460619748e-04" rms="4.0543007850646973e-01" purity="2.9528635740280151e-01" nType="-99"/>
          <Node pos="r" depth="2" NCoef="0" IVar="-1" Cut="0.0000000000000000e+00" cType="1" res="7.4450817191973329e-04" rms="4.7167527675628662e-01" purity="4.7207683324813843e-01" nType="-99"/>
        </Node>
        <Node pos="r" depth="1" NCoef="0" IVar="3" Cut="1.2481714487075806e+00" cType="1" res="1.3178160786628723e-01" rms="4.3531930446624756e-01" purity="6.4924335479736328e-01" nType="0">
          <Node pos="l" depth="2" NCoef="0" IVar="-1" Cut="0.0000000000000000e+00" cType="1" res="1.0038738837465644e-03" rms="3.8050904870033264e-01" purity="7.9821789264678955e-01" nType="-99"/>
          <Node pos="r" depth="2" NCoef="0" IVar="-1" Cut="0.0000000000000000e+00" cType="1" res="4.9728783778846264e-04" rms="4.7271767258644104e-01" purity="5.0485235452651978e-01" nType="-99"/>
        </Node>
      </Node>
    </BinaryTree>
    <BinaryTree type="DecisionTree" boostWeight="1.0000000000000000e+00" itree="348">
      <Node pos="s" depth="0" NCoef="0" IVar="0" Cut="9.5719188451766968e-01" cType="1" res="7.8928731381893158e-02" rms="4.4696396589279175e-01" purity="5.1506489515304565e-01" nType="0">
        <Node pos="l" depth="1" NCoef="0" IVar="8" Cut="1.3205198669433594e+02" cType="1" res="2.1393967792391777e-02" rms="4.5229718089103699e-01" purity="3.7349915504455566e-01" nType="0">
          <Node pos="l" depth="2" NCoef="0" IVar="-1" Cut="0.0000000000000000e+00" cType="1" res="7.0106948260217905e-04" rms="4.6882349252700806e-01" purity="4.2889952659606934e-01" nType="-99"/>
          <Node pos="r" depth="2" NCoef="0" IVar="-1" Cut="0.0000000000000000e+00" cType="1" res="-1.5777050284668803e-03" rms="3.8029742240905762e-01" purity="2.4354365468025208e-01" nType="-99"/>
        </Node>
        <Node pos="r" depth="1" NCoef="0" IVar="1" Cut="8.3096527099609375e+01" cType="1" res="1.3312652707099915e-01" rms="4.3497514724731445e-01" purity="6.4841985702514648e-01" nType="0">
          <Node pos="l" depth="2" NCoef="0" IVar="-1" Cut="0.0000000000000000e+00" cType="1" res="3.7462412728928030e-04" rms="4.4841831922531128e-01" purity="5.5086123943328857e-01" nType="-99"/>
          <Node pos="r" depth="2" NCoef="0" IVar="-1" Cut="0.0000000000000000e+00" cType="1" res="1.0696474928408861e-03" rms="4.1718202829360962e-01" purity="7.1552288532257080e-01" nType="-99"/>
        </Node>
      </Node>
    </BinaryTree>
    <BinaryTree type="DecisionTree" boostWeight="1.0000000000000000e+00" itree="349">
      <Node pos="s" depth="0" NCoef="0" IVar="0" Cut="9.5884799957275391e-01" cType="1" res="6.1372831463813782e-02" rms="4.3758040666580200e-01" purity="4.9960234761238098e-01" nType="0">
        <Node pos="l" depth="1" NCoef="0" IVar="5" Cut="1.0449217557907104e+00" cType="1" res="-9.9161183461546898e-03" rms="4.3534520268440247e-01" purity="3.4365260601043701e-01" nType="0">
          <Node pos="l" depth="2" NCoef="0" IVar="-1" Cut="0.0000000000000000e+00" cType="1" res="7.5883098179474473e-04" rms="4.2616790533065796e-01" purity="4.2626330256462097e-01" nType="-99"/>
          <Node pos="r" depth="2" NCoef="0" IVar="-1" Cut="0.0000000000000000e+00" cType="1" res="-7.2664296021685004e-04" rms="4.3153789639472961e-01" purity="2.9818531870841980e-01" nType="-99"/>
        </Node>
        <Node pos="r" depth="1" NCoef="0" IVar="5" Cut="9.3204432725906372e-01" cType="1" res="1.3097108900547028e-01" rms="4.2845770716667175e-01" purity="6.5185356140136719e-01" nType="0">
          <Node pos="l" depth="2" NCoef="0" IVar="-1" Cut="0.0000000000000000e+00" cType="1" res="-1.4585192548111081e-03" rms="4.0133127570152283e-01" purity="3.1690943241119385e-01" nType="-99"/>
          <Node pos="r" depth="2" NCoef="0" IVar="-1" Cut="0.0000000000000000e+00" cType="1" res="9.0187496971338987e-04" rms="4.2054864764213562e-01" purity="6.9290620088577271e-01" nType="-99"/>
        </Node>
      </Node>
    </BinaryTree>
    <BinaryTree type="DecisionTree" boostWeight="1.0000000000000000e+00" itree="350">
      <Node pos="s" depth="0" NCoef="0" IVar="3" Cut="1.2105288505554199e+00" cType="1" res="3.1167957931756973e-02" rms="4.3615275621414185e-01" purity="4.5144274830818176e-01" nType="0">
        <Node pos="l" depth="1" NCoef="0" IVar="0" Cut="9.4554257392883301e-01" cType="1" res="1.4088386297225952e-01" rms="4.3538701534271240e-01" purity="6.5399527549743652e-01" nType="0">
          <Node pos="l" depth="2" NCoef="0" IVar="-1" Cut="0.0000000000000000e+00" cType="1" res="-3.8160826079547405e-04" rms="4.2229434847831726e-01" purity="3.9378663897514343e-01" nType="-99"/>
          <Node pos="r" depth="2" NCoef="0" IVar="-1" Cut="0.0000000000000000e+00" cType="1" res="1.0322941234335303e-03" rms="4.2121922969818115e-01" purity="7.4647855758666992e-01" nType="-99"/>
        </Node>
        <Node pos="r" depth="1" NCoef="0" IVar="1" Cut="9.3988540649414062e+01" cType="1" res="-4.8790499567985535e-02" rms="4.1898632049560547e-01" purity="3.0382704734802246e-01" nType="0">
          <Node pos="l" depth="2" NCoef="0" IVar="-1" Cut="0.0000000000000000e+00" cType="1" res="-1.9941164646297693e-03" rms="3.5349604487419128e-01" purity="2.0264558494091034e-01" nType="-99"/>
          <Node pos="r" depth="2" NCoef="0" IVar="-1" Cut="0.0000000000000000e+00" cType="1" res="1.3288034824654460e-04" rms="4.5786595344543457e-01" purity="3.8885620236396790e-01" nType="-99"/>
        </Node>
      </Node>
    </BinaryTree>
    <BinaryTree type="DecisionTree" boostWeight="1.0000000000000000e+00" itree="351">
      <Node pos="s" depth="0" NCoef="0" IVar="0" Cut="9.2610806226730347e-01" cType="1" res="7.8157037496566772e-02" rms="4.5028802752494812e-01" purity="5.0268542766571045e-01" nType="0">
        <Node pos="l" depth="1" NCoef="0" IVar="1" Cut="9.4921455383300781e+01" cType="1" res="-1.0254950076341629e-01" rms="3.5209152102470398e-01" purity="2.0761249959468842e-01" nType="0">
          <Node pos="l" depth="2" NCoef="0" IVar="-1" Cut="0.0000000000000000e+00" cType="1" res="-7.0959003642201424e-03" rms="2.9304251074790955e-01" purity="8.2731120288372040e-02" nType="-99"/>
          <Node pos="r" depth="2" NCoef="0" IVar="-1" Cut="0.0000000000000000e+00" cType="1" res="-2.0176573889330029e-04" rms="3.9645788073539734e-01" purity="3.5898172855377197e-01" nType="-99"/>
        </Node>
        <Node pos="r" depth="1" NCoef="0" IVar="2" Cut="2.3240876770019531e+02" cType="1" res="1.0422626137733459e-01" rms="4.5687571167945862e-01" purity="5.4525345563888550e-01" nType="0">
          <Node pos="l" depth="2" NCoef="0" IVar="-1" Cut="0.0000000000000000e+00" cType="1" res="9.4309885753318667e-04" rms="4.5880737900733948e-01" purity="5.9509587287902832e-01" nType="-99"/>
          <Node pos="r" depth="2" NCoef="0" IVar="-1" Cut="0.0000000000000000e+00" cType="1" res="-6.2276551034301519e-05" rms="4.3252235651016235e-01" purity="4.1637206077575684e-01" nType="-99"/>
        </Node>
      </Node>
    </BinaryTree>
    <BinaryTree type="DecisionTree" boostWeight="1.0000000000000000e+00" itree="352">
      <Node pos="s" depth="0" NCoef="0" IVar="6" Cut="3.5523291015625000e+02" cType="1" res="4.6962782740592957e-02" rms="4.3983939290046692e-01" purity="4.7221863269805908e-01" nType="0">
        <Node pos="l" depth="1" NCoef="0" IVar="5" Cut="1.1882858276367188e+00" cType="1" res="-6.7919180728495121e-03" rms="4.3133679032325745e-01" purity="3.4605976939201355e-01" nType="0">
          <Node pos="l" depth="2" NCoef="0" IVar="-1" Cut="0.0000000000000000e+00" cType="1" res="-2.5247449520975351e-03" rms="3.3883267641067505e-01" purity="1.6727572679519653e-01" nType="-99"/>
          <Node pos="r" depth="2" NCoef="0" IVar="-1" Cut="0.0000000000000000e+00" cType="1" res="6.9236324634402990e-04" rms="4.6311917901039124e-01" purity="4.7066602110862732e-01" nType="-99"/>
        </Node>
        <Node pos="r" depth="1" NCoef="0" IVar="1" Cut="7.0163200378417969e+01" cType="1" res="1.0963632911443710e-01" rms="4.4135919213294983e-01" purity="6.1930948495864868e-01" nType="0">
          <Node pos="l" depth="2" NCoef="0" IVar="-1" Cut="0.0000000000000000e+00" cType="1" res="-7.4395071715116501e-04" rms="4.4684675335884094e-01" purity="3.9175903797149658e-01" nType="-99"/>
          <Node pos="r" depth="2" NCoef="0" IVar="-1" Cut="0.0000000000000000e+00" cType="1" res="8.4418297046795487e-04" rms="4.3115216493606567e-01" purity="6.6202312707901001e-01" nType="-99"/>
        </Node>
      </Node>
    </BinaryTree>
    <BinaryTree type="DecisionTree" boostWeight="1.0000000000000000e+00" itree="353">
      <Node pos="s" depth="0" NCoef="0" IVar="0" Cut="9.6051549911499023e-01" cType="1" res="8.3176024258136749e-02" rms="4.5333018898963928e-01" purity="5.0605052709579468e-01" nType="0">
        <Node pos="l" depth="1" NCoef="0" IVar="8" Cut="1.4683622741699219e+02" cType="1" res="-1.0782828554511070e-02" rms="4.3797916173934937e-01" purity="3.3964014053344727e-01" nType="0">
          <Node pos="l" depth="2" NCoef="0" IVar="-1" Cut="0.0000000000000000e+00" cType="1" res="2.2551816073246300e-04" rms="4.5185557007789612e-01" purity="3.8135781884193420e-01" nType="-99"/>
          <Node pos="r" depth="2" NCoef="0" IVar="-1" Cut="0.0000000000000000e+00" cType="1" res="-4.4161402620375156e-03" rms="3.1004217267036438e-01" purity="1.3477294147014618e-01" nType="-99"/>
        </Node>
        <Node pos="r" depth="1" NCoef="0" IVar="3" Cut="2.6301734447479248e+00" cType="1" res="1.8249757587909698e-01" rms="4.4807901978492737e-01" purity="6.8195873498916626e-01" nType="0">
          <Node pos="l" depth="2" NCoef="0" IVar="-1" Cut="0.0000000000000000e+00" cType="1" res="8.1122486153617501e-04" rms="4.3244329094886780e-01" purity="6.9519931077957153e-01" nType="-99"/>
          <Node pos="r" depth="2" NCoef="0" IVar="-1" Cut="0.0000000000000000e+00" cType="1" res="3.3092461526393890e-03" rms="4.7323220968246460e-01" purity="6.0864067077636719e-01" nType="-99"/>
        </Node>
      </Node>
    </BinaryTree>
    <BinaryTree type="DecisionTree" boostWeight="1.0000000000000000e+00" itree="354">
      <Node pos="s" depth="0" NCoef="0" IVar="7" Cut="2.0669844150543213e+00" cType="1" res="8.2435615360736847e-02" rms="4.3977120518684387e-01" purity="5.2064561843872070e-01" nType="0">
        <Node pos="l" depth="1" NCoef="0" IVar="6" Cut="2.8735845947265625e+02" cType="1" res="1.0964364558458328e-01" rms="4.4417175650596619e-01" purity="5.7277083396911621e-01" nType="0">
          <Node pos="l" depth="2" NCoef="0" IVar="-1" Cut="0.0000000000000000e+00" cType="1" res="-2.1711990120820701e-04" rms="4.0919682383537292e-01" purity="3.1291088461875916e-01" nType="-99"/>
          <Node pos="r" depth="2" NCoef="0" IVar="-1" Cut="0.0000000000000000e+00" cType="1" res="8.8744831737130880e-04" rms="4.4691476225852966e-01" purity="6.6065967082977295e-01" nType="-99"/>
        </Node>
        <Node pos="r" depth="1" NCoef="0" IVar="3" Cut="2.8090531826019287e+00" cType="1" res="-1.3771773874759674e-01" rms="3.2782119512557983e-01" purity="9.8874919116497040e-02" nType="0">
          <Node pos="l" depth="2" NCoef="0" IVar="-1" Cut="0.0000000000000000e+00" cType="1" res="-8.6784353479743004e-03" rms="2.4353112280368805e-01" purity="6.1463449150323868e-02" nType="-99"/>
          <Node pos="r" depth="2" NCoef="0" IVar="-1" Cut="0.0000000000000000e+00" cType="1" res="5.7226244825869799e-04" rms="3.5066780447959900e-01" purity="1.4383298158645630e-01" nType="-99"/>
        </Node>
      </Node>
    </BinaryTree>
    <BinaryTree type="DecisionTree" boostWeight="1.0000000000000000e+00" itree="355">
      <Node pos="s" depth="0" NCoef="0" IVar="8" Cut="1.4326550292968750e+02" cType="1" res="1.0086476057767868e-01" rms="4.5811328291893005e-01" purity="5.1391178369522095e-01" nType="0">
        <Node pos="l" depth="1" NCoef="0" IVar="5" Cut="1.2268483638763428e+00" cType="1" res="1.3234691321849823e-01" rms="4.5909079909324646e-01" purity="5.4827231168746948e-01" nType="0">
          <Node pos="l" depth="2" NCoef="0" IVar="-1" Cut="0.0000000000000000e+00" cType="1" res="4.1489629074931145e-04" rms="4.3807578086853027e-01" purity="4.5763796567916870e-01" nType="-99"/>
          <Node pos="r" depth="2" NCoef="0" IVar="-1" Cut="0.0000000000000000e+00" cType="1" res="1.2243842938914895e-03" rms="4.6491935849189758e-01" purity="6.1412084102630615e-01" nType="-99"/>
        </Node>
        <Node pos="r" depth="1" NCoef="0" IVar="1" Cut="1.6789533996582031e+02" cType="1" res="-3.4110099077224731e-02" rms="4.2843469977378845e-01" purity="3.6659628152847290e-01" nType="0">
          <Node pos="l" depth="2" NCoef="0" IVar="-1" Cut="0.0000000000000000e+00" cType="1" res="-1.6839905874803662e-03" rms="4.1117927432060242e-01" purity="2.5897771120071411e-01" nType="-99"/>
          <Node pos="r" depth="2" NCoef="0" IVar="-1" Cut="0.0000000000000000e+00" cType="1" res="5.4710335098206997e-04" rms="4.2294627428054810e-01" purity="4.8009288311004639e-01" nType="-99"/>
        </Node>
      </Node>
    </BinaryTree>
    <BinaryTree type="DecisionTree" boostWeight="1.0000000000000000e+00" itree="356">
      <Node pos="s" depth="0" NCoef="0" IVar="0" Cut="9.3102860450744629e-01" cType="1" res="4.8906449228525162e-02" rms="4.3987691402435303e-01" purity="4.7895106673240662e-01" nType="0">
        <Node pos="l" depth="1" NCoef="0" IVar="5" Cut="1.1278123855590820e+00" cType="1" res="-8.5945203900337219e-02" rms="3.7027785181999207e-01" purity="2.4396334588527679e-01" nType="0">
          <Node pos="l" depth="2" NCoef="0" IVar="-1" Cut="0.0000000000000000e+00" cType="1" res="-9.8537048324942589e-03" rms="2.1576257050037384e-01" purity="4.8004921525716782e-02" nType="-99"/>
          <Node pos="r" depth="2" NCoef="0" IVar="-1" Cut="0.0000000000000000e+00" cType="1" res="-2.4054996902123094e-04" rms="4.0904706716537476e-01" purity="3.3540242910385132e-01" nType="-99"/>
        </Node>
        <Node pos="r" depth="1" NCoef="0" IVar="8" Cut="1.2610308074951172e+02" cType="1" res="7.8437492251396179e-02" rms="4.4831374287605286e-01" purity="5.3041082620620728e-01" nType="0">
          <Node pos="l" depth="2" NCoef="0" IVar="-1" Cut="0.0000000000000000e+00" cType="1" res="8.5607887012884021e-04" rms="4.4168451428413391e-01" purity="5.7857000827789307e-01" nType="-99"/>
          <Node pos="r" depth="2" NCoef="0" IVar="-1" Cut="0.0000000000000000e+00" cType="1" res="-1.4267245660448680e-06" rms="4.4738817214965820e-01" purity="4.5466479659080505e-01" nType="-99"/>
        </Node>
      </Node>
    </BinaryTree>
    <BinaryTree type="DecisionTree" boostWeight="1.0000000000000000e+00" itree="357">
      <Node pos="s" depth="0" NCoef="0" IVar="6" Cut="2.6730664062500000e+02" cType="1" res="8.8336765766143799e-02" rms="4.4846257567405701e-01" purity="5.1113778352737427e-01" nType="0">
        <Node pos="l" depth="1" NCoef="0" IVar="5" Cut="1.4682663679122925e+00" cType="1" res="-4.1926886886358261e-02" rms="3.9684158563613892e-01" purity="2.3695810139179230e-01" nType="0">
          <Node pos="l" depth="2" NCoef="0" IVar="-1" Cut="0.0000000000000000e+00" cType="1" res="-2.1052174270153046e-03" rms="3.4801754355430603e-01" purity="1.5973539650440216e-01" nType="-99"/>
          <Node pos="r" depth="2" NCoef="0" IVar="-1" Cut="0.0000000000000000e+00" cType="1" res="1.0190021712332964e-03" rms="4.6553149819374084e-01" purity="4.2442753911018372e-01" nType="-99"/>
        </Node>
        <Node pos="r" depth="1" NCoef="0" IVar="4" Cut="5.5920320749282837e-01" cType="1" res="1.1999245733022690e-01" rms="4.5452937483787537e-01" purity="5.7776689529418945e-01" nType="0">
          <Node pos="l" depth="2" NCoef="0" IVar="-1" Cut="0.0000000000000000e+00" cType="1" res="-4.8439681995660067e-04" rms="3.9288815855979919e-01" purity="4.1423308849334717e-01" nType="-99"/>
          <Node pos="r" depth="2" NCoef="0" IVar="-1" Cut="0.0000000000000000e+00" cType="1" res="8.7308959336951375e-04" rms="4.5600420236587524e-01" purity="5.9031957387924194e-01" nType="-99"/>
        </Node>
      </Node>
    </BinaryTree>
    <BinaryTree type="DecisionTree" boostWeight="1.0000000000000000e+00" itree="358">
      <Node pos="s" depth="0" NCoef="0" IVar="1" Cut="9.1852264404296875e+01" cType="1" res="6.8187713623046875e-02" rms="4.4580832123756409e-01" purity="4.9414047598838806e-01" nType="0">
        <Node pos="l" depth="1" NCoef="0" IVar="3" Cut="6.0523730516433716e-01" cType="1" res="8.7529944721609354e-04" rms="4.4836607575416565e-01" purity="3.8139203190803528e-01" nType="0">
          <Node pos="l" depth="2" NCoef="0" IVar="-1" Cut="0.0000000000000000e+00" cType="1" res="1.1914623901247978e-03" rms="4.7074186801910400e-01" purity="6.3500726222991943e-01" nType="-99"/>
          <Node pos="r" depth="2" NCoef="0" IVar="-1" Cut="0.0000000000000000e+00" cType="1" res="-3.6437425296753645e-04" rms="4.3522205948829651e-01" purity="3.3692914247512817e-01" nType="-99"/>
        </Node>
        <Node pos="r" depth="1" NCoef="0" IVar="2" Cut="2.5678479003906250e+02" cType="1" res="1.3169749081134796e-01" rms="4.3391093611717224e-01" purity="6.0051941871643066e-01" nType="0">
          <Node pos="l" depth="2" NCoef="0" IVar="-1" Cut="0.0000000000000000e+00" cType="1" res="1.1391474399715662e-03" rms="4.2887550592422485e-01" purity="6.9709855318069458e-01" nType="-99"/>
          <Node pos="r" depth="2" NCoef="0" IVar="-1" Cut="0.0000000000000000e+00" cType="1" res="-1.8899024871643633e-04" rms="4.0288060903549194e-01" purity="4.0757188200950623e-01" nType="-99"/>
        </Node>
      </Node>
    </BinaryTree>
    <BinaryTree type="DecisionTree" boostWeight="1.0000000000000000e+00" itree="359">
      <Node pos="s" depth="0" NCoef="0" IVar="8" Cut="9.4218994140625000e+01" cType="1" res="7.6958812773227692e-02" rms="4.4382965564727783e-01" purity="5.0838720798492432e-01" nType="0">
        <Node pos="l" depth="1" NCoef="0" IVar="1" Cut="6.4817207336425781e+01" cType="1" res="-1.9841746985912323e-01" rms="2.8473868966102600e-01" purity="1.3145218789577484e-01" nType="0">
          <Node pos="l" depth="2" NCoef="0" IVar="-1" Cut="0.0000000000000000e+00" cType="1" res="-2.0100954920053482e-02" rms="1.2347263097763062e-01" purity="0.0000000000000000e+00" nType="-99"/>
          <Node pos="r" depth="2" NCoef="0" IVar="-1" Cut="0.0000000000000000e+00" cType="1" res="-1.7534801736474037e-03" rms="3.6873108148574829e-01" purity="2.6245698332786560e-01" nType="-99"/>
        </Node>
        <Node pos="r" depth="1" NCoef="0" IVar="0" Cut="9.5738947391510010e-01" cType="1" res="1.0726565867662430e-01" rms="4.4774648547172546e-01" purity="5.4987126588821411e-01" nType="0">
          <Node pos="l" depth="2" NCoef="0" IVar="-1" Cut="0.0000000000000000e+00" cType="1" res="3.6962187732569873e-04" rms="4.4982486963272095e-01" purity="4.0916708111763000e-01" nType="-99"/>
          <Node pos="r" depth="2" NCoef="0" IVar="-1" Cut="0.0000000000000000e+00" cType="1" res="9.7359274514019489e-04" rms="4.3557688593864441e-01" purity="6.9107013940811157e-01" nType="-99"/>
        </Node>
      </Node>
    </BinaryTree>
    <BinaryTree type="DecisionTree" boostWeight="1.0000000000000000e+00" itree="360">
      <Node pos="s" depth="0" NCoef="0" IVar="5" Cut="9.3519705533981323e-01" cType="1" res="7.9890094697475433e-02" rms="4.3419048190116882e-01" purity="5.2196109294891357e-01" nType="0">
        <Node pos="l" depth="1" NCoef="0" IVar="3" Cut="1.5460184812545776e+00" cType="1" res="-1.1710564792156219e-01" rms="3.7409463524818420e-01" purity="2.5914710760116577e-01" nType="0">
          <Node pos="l" depth="2" NCoef="0" IVar="-1" Cut="0.0000000000000000e+00" cType="1" res="1.8869081395678222e-04" rms="4.7343847155570984e-01" purity="5.5541825294494629e-01" nType="-99"/>
          <Node pos="r" depth="2" NCoef="0" IVar="-1" Cut="0.0000000000000000e+00" cType="1" res="-1.0650767944753170e-02" rms="2.2411116957664490e-01" purity="3.8385700434446335e-02" nType="-99"/>
        </Node>
        <Node pos="r" depth="1" NCoef="0" IVar="1" Cut="3.7053749084472656e+01" cType="1" res="1.1489055305719376e-01" rms="4.3477776646614075e-01" purity="5.6865561008453369e-01" nType="0">
          <Node pos="l" depth="2" NCoef="0" IVar="-1" Cut="0.0000000000000000e+00" cType="1" res="-2.5060428306460381e-03" rms="3.3852043747901917e-01" purity="1.6542020440101624e-01" nType="-99"/>
          <Node pos="r" depth="2" NCoef="0" IVar="-1" Cut="0.0000000000000000e+00" cType="1" res="8.4359018364921212e-04" rms="4.3547150492668152e-01" purity="5.9986704587936401e-01" nType="-99"/>
        </Node>
      </Node>
    </BinaryTree>
    <BinaryTree type="DecisionTree" boostWeight="1.0000000000000000e+00" itree="361">
      <Node pos="s" depth="0" NCoef="0" IVar="4" Cut="8.0734348297119141e-01" cType="1" res="7.7484034001827240e-02" rms="4.5035764575004578e-01" purity="4.9878424406051636e-01" nType="0">
        <Node pos="l" depth="1" NCoef="0" IVar="7" Cut="1.0624775886535645e+00" cType="1" res="9.3708246946334839e-02" rms="4.5372369885444641e-01" purity="5.2277463674545288e-01" nType="0">
          <Node pos="l" depth="2" NCoef="0" IVar="-1" Cut="0.0000000000000000e+00" cType="1" res="1.1179641587659717e-03" rms="4.5480725169181824e-01" purity="5.9785634279251099e-01" nType="-99"/>
          <Node pos="r" depth="2" NCoef="0" IVar="-1" Cut="0.0000000000000000e+00" cType="1" res="4.1904087993316352e-04" rms="4.4773006439208984e-01" purity="4.8401015996932983e-01" nType="-99"/>
        </Node>
        <Node pos="r" depth="1" NCoef="0" IVar="-1" Cut="0.0000000000000000e+00" cType="1" res="-2.2798455320298672e-03" rms="3.4190151095390320e-01" purity="1.9057065248489380e-01" nType="-99"/>
      </Node>
    </BinaryTree>
    <BinaryTree type="DecisionTree" boostWeight="1.0000000000000000e+00" itree="362">
      <Node pos="s" depth="0" NCoef="0" IVar="3" Cut="1.8775081634521484e+00" cType="1" res="8.4089681506156921e-02" rms="4.4115287065505981e-01" purity="5.1722514629364014e-01" nType="0">
        <Node pos="l" depth="1" NCoef="0" IVar="2" Cut="1.0250707244873047e+02" cType="1" res="1.3941556215286255e-01" rms="4.5529022812843323e-01" purity="6.3879269361495972e-01" nType="0">
          <Node pos="l" depth="2" NCoef="0" IVar="-1" Cut="0.0000000000000000e+00" cType="1" res="-7.3442806024104357e-04" rms="3.9789685606956482e-01" purity="2.8164243698120117e-01" nType="-99"/>
          <Node pos="r" depth="2" NCoef="0" IVar="-1" Cut="0.0000000000000000e+00" cType="1" res="9.0487295528873801e-04" rms="4.5578822493553162e-01" purity="6.7731684446334839e-01" nType="-99"/>
        </Node>
        <Node pos="r" depth="1" NCoef="0" IVar="4" Cut="6.9783550500869751e-01" cType="1" res="-4.5329585671424866e-02" rms="3.7558040022850037e-01" purity="2.3285220563411713e-01" nType="0">
          <Node pos="l" depth="2" NCoef="0" IVar="-1" Cut="0.0000000000000000e+00" cType="1" res="4.1232426883652806e-04" rms="4.2118513584136963e-01" purity="3.4476736187934875e-01" nType="-99"/>
          <Node pos="r" depth="2" NCoef="0" IVar="-1" Cut="0.0000000000000000e+00" cType="1" res="-7.9741673544049263e-03" rms="2.3436054587364197e-01" purity="5.4841078817844391e-02" nType="-99"/>
        </Node>
      </Node>
    </BinaryTree>
    <BinaryTree type="DecisionTree" boostWeight="1.0000000000000000e+00" itree="363">
      <Node pos="s" depth="0" NCoef="0" IVar="1" Cut="1.4418811035156250e+02" cType="1" res="9.1528482735157013e-02" rms="4.4592881202697754e-01" purity="5.2203845977783203e-01" nType="0">
        <Node pos="l" depth="1" NCoef="0" IVar="1" Cut="1.0127844238281250e+02" cType="1" res="1.1693563312292099e-01" rms="4.4585120677947998e-01" purity="5.4854679107666016e-01" nType="0">
          <Node pos="l" depth="2" NCoef="0" IVar="-1" Cut="0.0000000000000000e+00" cType="1" res="4.5786288683302701e-04" rms="4.5327541232109070e-01" purity="4.5791023969650269e-01" nType="-99"/>
          <Node pos="r" depth="2" NCoef="0" IVar="-1" Cut="0.0000000000000000e+00" cType="1" res="1.2922935420647264e-03" rms="4.0327107906341553e-01" purity="7.3241972923278809e-01" nType="-99"/>
        </Node>
        <Node pos="r" depth="1" NCoef="0" IVar="0" Cut="9.6009564399719238e-01" cType="1" res="-6.0073979198932648e-02" rms="4.1524744033813477e-01" purity="3.6386570334434509e-01" nType="0">
          <Node pos="l" depth="2" NCoef="0" IVar="-1" Cut="0.0000000000000000e+00" cType="1" res="-3.0806644354015589e-03" rms="3.4615325927734375e-01" purity="1.7900925874710083e-01" nType="-99"/>
          <Node pos="r" depth="2" NCoef="0" IVar="-1" Cut="0.0000000000000000e+00" cType="1" res="5.5363285355269909e-04" rms="4.4172316789627075e-01" purity="5.7782763242721558e-01" nType="-99"/>
        </Node>
      </Node>
    </BinaryTree>
    <BinaryTree type="DecisionTree" boostWeight="1.0000000000000000e+00" itree="364">
      <Node pos="s" depth="0" NCoef="0" IVar="0" Cut="9.1114455461502075e-01" cType="1" res="6.5123043954372406e-02" rms="4.5035561919212341e-01" purity="4.8721876740455627e-01" nType="0">
        <Node pos="l" depth="1" NCoef="0" IVar="-1" Cut="0.0000000000000000e+00" cType="1" res="-2.6766776572912931e-03" rms="3.0366501212120056e-01" purity="1.4343127608299255e-01" nType="-99"/>
        <Node pos="r" depth="1" NCoef="0" IVar="3" Cut="1.6376700401306152e+00" cType="1" res="7.7587239444255829e-02" rms="4.5458358526229858e-01" purity="5.0769919157028198e-01" nType="0">
          <Node pos="l" depth="2" NCoef="0" IVar="-1" Cut="0.0000000000000000e+00" cType="1" res="7.3635758599266410e-04" rms="4.6028679609298706e-01" purity="6.2925952672958374e-01" nType="-99"/>
          <Node pos="r" depth="2" NCoef="0" IVar="-1" Cut="0.0000000000000000e+00" cType="1" res="2.3650348884984851e-04" rms="4.4100138545036316e-01" purity="3.5254669189453125e-01" nType="-99"/>
        </Node>
      </Node>
    </BinaryTree>
    <BinaryTree type="DecisionTree" boostWeight="1.0000000000000000e+00" itree="365">
      <Node pos="s" depth="0" NCoef="0" IVar="7" Cut="1.7161872386932373e+00" cType="1" res="7.3635049164295197e-02" rms="4.3967574834823608e-01" purity="4.9938672780990601e-01" nType="0">
        <Node pos="l" depth="1" NCoef="0" IVar="0" Cut="9.6432286500930786e-01" cType="1" res="1.1311827600002289e-01" rms="4.4529798626899719e-01" purity="5.6106871366500854e-01" nType="0">
          <Node pos="l" depth="2" NCoef="0" IVar="-1" Cut="0.0000000000000000e+00" cType="1" res="5.0298019777983427e-04" rms="4.5512387156486511e-01" purity="4.4198763370513916e-01" nType="-99"/>
          <Node pos="r" depth="2" NCoef="0" IVar="-1" Cut="0.0000000000000000e+00" cType="1" res="1.0380292078480124e-03" rms="4.1974908113479614e-01" purity="7.2585558891296387e-01" nType="-99"/>
        </Node>
        <Node pos="r" depth="1" NCoef="0" IVar="5" Cut="1.1017087697982788e+00" cType="1" res="-3.5433884710073471e-02" rms="4.0418791770935059e-01" purity="3.2899558544158936e-01" nType="0">
          <Node pos="l" depth="2" NCoef="0" IVar="-1" Cut="0.0000000000000000e+00" cType="1" res="4.1366409277543426e-04" rms="3.9983287453651428e-01" purity="4.1140526533126831e-01" nType="-99"/>
          <Node pos="r" depth="2" NCoef="0" IVar="-1" Cut="0.0000000000000000e+00" cType="1" res="-2.4667407851666212e-03" rms="3.8046428561210632e-01" purity="2.0917339622974396e-01" nType="-99"/>
        </Node>
      </Node>
    </BinaryTree>
    <BinaryTree type="DecisionTree" boostWeight="1.0000000000000000e+00" itree="366">
      <Node pos="s" depth="0" NCoef="0" IVar="0" Cut="9.6420055627822876e-01" cType="1" res="4.5076608657836914e-02" rms="4.3643245100975037e-01" purity="4.8070305585861206e-01" nType="0">
        <Node pos="l" depth="1" NCoef="0" IVar="6" Cut="2.7904571533203125e+02" cType="1" res="-3.0917555093765259e-02" rms="4.3129807710647583e-01" purity="3.3959755301475525e-01" nType="0">
          <Node pos="l" depth="2" NCoef="0" IVar="-1" Cut="0.0000000000000000e+00" cType="1" res="-5.7711848057806492e-03" rms="2.9403170943260193e-01" purity="8.1022135913372040e-02" nType="-99"/>
          <Node pos="r" depth="2" NCoef="0" IVar="-1" Cut="0.0000000000000000e+00" cType="1" res="1.1169476056238636e-04" rms="4.6265721321105957e-01" purity="4.3144452571868896e-01" nType="-99"/>
        </Node>
        <Node pos="r" depth="1" NCoef="0" IVar="1" Cut="7.1653800964355469e+01" cType="1" res="1.4565299451351166e-01" rms="4.2262381315231323e-01" purity="6.6745269298553467e-01" nType="0">
          <Node pos="l" depth="2" NCoef="0" IVar="-1" Cut="0.0000000000000000e+00" cType="1" res="3.0243629589676857e-04" rms="4.3396940827369690e-01" purity="5.4268616437911987e-01" nType="-99"/>
          <Node pos="r" depth="2" NCoef="0" IVar="-1" Cut="0.0000000000000000e+00" cType="1" res="1.0217801900580525e-03" rms="4.1011241078376770e-01" purity="7.2062432765960693e-01" nType="-99"/>
        </Node>
      </Node>
    </BinaryTree>
    <BinaryTree type="DecisionTree" boostWeight="1.0000000000000000e+00" itree="367">
      <Node pos="s" depth="0" NCoef="0" IVar="3" Cut="2.8120012283325195e+00" cType="1" res="6.9698281586170197e-02" rms="4.4503217935562134e-01" purity="4.9506187438964844e-01" nType="0">
        <Node pos="l" depth="1" NCoef="0" IVar="7" Cut="5.9683048725128174e-01" cType="1" res="8.8867597281932831e-02" rms="4.6140041947364807e-01" purity="5.4315984249114990e-01" nType="0">
          <Node pos="l" depth="2" NCoef="0" IVar="-1" Cut="0.0000000000000000e+00" cType="1" res="-2.5681501720100641e-03" rms="3.6954998970031738e-01" purity="2.1074248850345612e-01" nType="-99"/>
          <Node pos="r" depth="2" NCoef="0" IVar="-1" Cut="0.0000000000000000e+00" cType="1" res="7.2354258736595511e-04" rms="4.6171906590461731e-01" purity="5.6293839216232300e-01" nType="-99"/>
        </Node>
        <Node pos="r" depth="1" NCoef="0" IVar="-1" Cut="0.0000000000000000e+00" cType="1" res="-1.6172192990779877e-02" rms="5.1298584789037704e-02" purity="0.0000000000000000e+00" nType="-99"/>
      </Node>
    </BinaryTree>
    <BinaryTree type="DecisionTree" boostWeight="1.0000000000000000e+00" itree="368">
      <Node pos="s" depth="0" NCoef="0" IVar="0" Cut="9.6789401769638062e-01" cType="1" res="7.6939947903156281e-02" rms="4.4368964433670044e-01" purity="4.9896696209907532e-01" nType="0">
        <Node pos="l" depth="1" NCoef="0" IVar="4" Cut="5.6961154937744141e-01" cType="1" res="2.8796328231692314e-02" rms="4.3339946866035461e-01" purity="4.0481132268905640e-01" nType="0">
          <Node pos="l" depth="2" NCoef="0" IVar="-1" Cut="0.0000000000000000e+00" cType="1" res="1.3610764872282743e-03" rms="4.4692772626876831e-01" purity="5.8347058296203613e-01" nType="-99"/>
          <Node pos="r" depth="2" NCoef="0" IVar="-1" Cut="0.0000000000000000e+00" cType="1" res="-7.9763165558688343e-05" rms="4.2133179306983948e-01" purity="3.6782830953598022e-01" nType="-99"/>
        </Node>
        <Node pos="r" depth="1" NCoef="0" IVar="5" Cut="1.0360416173934937e+00" cType="1" res="1.6720816493034363e-01" rms="4.4865214824676514e-01" purity="6.7550653219223022e-01" nType="0">
          <Node pos="l" depth="2" NCoef="0" IVar="-1" Cut="0.0000000000000000e+00" cType="1" res="3.1390645744977519e-05" rms="4.6591374278068542e-01" purity="4.7949689626693726e-01" nType="-99"/>
          <Node pos="r" depth="2" NCoef="0" IVar="-1" Cut="0.0000000000000000e+00" cType="1" res="1.1909476015716791e-03" rms="4.3221718072891235e-01" purity="7.3204606771469116e-01" nType="-99"/>
        </Node>
      </Node>
    </BinaryTree>
    <BinaryTree type="DecisionTree" boostWeight="1.0000000000000000e+00" itree="369">
      <Node pos="s" depth="0" NCoef="0" IVar="0" Cut="9.5260101556777954e-01" cType="1" res="8.6048930883407593e-02" rms="4.4252833724021912e-01" purity="5.2168738842010498e-01" nType="0">
        <Node pos="l" depth="1" NCoef="0" IVar="6" Cut="4.8627069091796875e+02" cType="1" res="-1.5025390312075615e-03" rms="4.1875308752059937e-01" purity="3.4711059927940369e-01" nType="0">
          <Node pos="l" depth="2" NCoef="0" IVar="-1" Cut="0.0000000000000000e+00" cType="1" res="-5.3968786960467696e-04" rms="4.0160542726516724e-01" purity="2.7293828129768372e-01" nType="-99"/>
          <Node pos="r" depth="2" NCoef="0" IVar="-1" Cut="0.0000000000000000e+00" cType="1" res="1.0051380377262831e-03" rms="4.4334161281585693e-01" purity="6.5242427587509155e-01" nType="-99"/>
        </Node>
        <Node pos="r" depth="1" NCoef="0" IVar="7" Cut="1.7867140769958496e+00" cType="1" res="1.4759854972362518e-01" rms="4.4838586449623108e-01" purity="6.4441674947738647e-01" nType="0">
          <Node pos="l" depth="2" NCoef="0" IVar="-1" Cut="0.0000000000000000e+00" cType="1" res="9.7180472221225500e-04" rms="4.3988463282585144e-01" purity="6.8987166881561279e-01" nType="-99"/>
          <Node pos="r" depth="2" NCoef="0" IVar="-1" Cut="0.0000000000000000e+00" cType="1" res="5.6261586723849177e-04" rms="4.6514785289764404e-01" purity="5.1251286268234253e-01" nType="-99"/>
        </Node>
      </Node>
    </BinaryTree>
    <BinaryTree type="DecisionTree" boostWeight="1.0000000000000000e+00" itree="370">
      <Node pos="s" depth="0" NCoef="0" IVar="7" Cut="1.6557883024215698e+00" cType="1" res="4.8932846635580063e-02" rms="4.4140568375587463e-01" purity="4.6764782071113586e-01" nType="0">
        <Node pos="l" depth="1" NCoef="0" IVar="0" Cut="9.5562237501144409e-01" cType="1" res="1.0032690316438675e-01" rms="4.4669300317764282e-01" purity="5.5006867647171021e-01" nType="0">
          <Node pos="l" depth="2" NCoef="0" IVar="-1" Cut="0.0000000000000000e+00" cType="1" res="2.8912510606460273e-04" rms="4.4916889071464539e-01" purity="3.9623820781707764e-01" nType="-99"/>
          <Node pos="r" depth="2" NCoef="0" IVar="-1" Cut="0.0000000000000000e+00" cType="1" res="9.4132218509912491e-04" rms="4.3452277779579163e-01" purity="6.9233775138854980e-01" nType="-99"/>
        </Node>
        <Node pos="r" depth="1" NCoef="0" IVar="5" Cut="8.2497078180313110e-01" cType="1" res="-8.8000059127807617e-02" rms="3.9565110206604004e-01" purity="2.4804805219173431e-01" nType="0">
          <Node pos="l" depth="2" NCoef="0" IVar="-1" Cut="0.0000000000000000e+00" cType="1" res="1.1491125915199518e-03" rms="4.7989177703857422e-01" purity="3.8902601599693298e-01" nType="-99"/>
          <Node pos="r" depth="2" NCoef="0" IVar="-1" Cut="0.0000000000000000e+00" cType="1" res="-2.2831435780972242e-03" rms="3.5748320817947388e-01" purity="2.1263994276523590e-01" nType="-99"/>
        </Node>
      </Node>
    </BinaryTree>
    <BinaryTree type="DecisionTree" boostWeight="1.0000000000000000e+00" itree="371">
      <Node pos="s" depth="0" NCoef="0" IVar="4" Cut="7.8495681285858154e-01" cType="1" res="7.1537539362907410e-02" rms="4.2481505870819092e-01" purity="5.1975518465042114e-01" nType="0">
        <Node pos="l" depth="1" NCoef="0" IVar="0" Cut="9.5603531599044800e-01" cType="1" res="9.9596120417118073e-02" rms="4.2422088980674744e-01" purity="5.6310099363327026e-01" nType="0">
          <Node pos="l" depth="2" NCoef="0" IVar="-1" Cut="0.0000000000000000e+00" cType="1" res="-1.4139838458504528e-04" rms="4.2422810196876526e-01" purity="3.3618307113647461e-01" nType="-99"/>
          <Node pos="r" depth="2" NCoef="0" IVar="-1" Cut="0.0000000000000000e+00" cType="1" res="9.4545230967923999e-04" rms="4.0733620524406433e-01" purity="7.1425950527191162e-01" nType="-99"/>
        </Node>
        <Node pos="r" depth="1" NCoef="0" IVar="-1" Cut="0.0000000000000000e+00" cType="1" res="-9.4040613621473312e-03" rms="3.1124037504196167e-01" purity="8.0812275409698486e-02" nType="-99"/>
      </Node>
    </BinaryTree>
    <BinaryTree type="DecisionTree" boostWeight="1.0000000000000000e+00" itree="372">
      <Node pos="s" depth="0" NCoef="0" IVar="7" Cut="1.7207510471343994e+00" cType="1" res="7.4288636445999146e-02" rms="4.4800642132759094e-01" purity="5.0275987386703491e-01" nType="0">
        <Node pos="l" depth="1" NCoef="0" IVar="8" Cut="1.0187599945068359e+02" cType="1" res="1.0799060016870499e-01" rms="4.5361101627349854e-01" purity="5.6296265125274658e-01" nType="0">
          <Node pos="l" depth="2" NCoef="0" IVar="-1" Cut="0.0000000000000000e+00" cType="1" res="-2.9297405853867531e-04" rms="4.4287130236625671e-01" purity="3.4005299210548401e-01" nType="-99"/>
          <Node pos="r" depth="2" NCoef="0" IVar="-1" Cut="0.0000000000000000e+00" cType="1" res="9.2624261742457747e-04" rms="4.4910463690757751e-01" purity="6.2607657909393311e-01" nType="-99"/>
        </Node>
        <Node pos="r" depth="1" NCoef="0" IVar="0" Cut="9.7217810153961182e-01" cType="1" res="-1.3419919647276402e-02" rms="4.2060694098472595e-01" purity="3.4608331322669983e-01" nType="0">
          <Node pos="l" depth="2" NCoef="0" IVar="-1" Cut="0.0000000000000000e+00" cType="1" res="-1.3618647353723645e-03" rms="3.8902452588081360e-01" purity="2.3263411223888397e-01" nType="-99"/>
          <Node pos="r" depth="2" NCoef="0" IVar="-1" Cut="0.0000000000000000e+00" cType="1" res="9.2789309564977884e-04" rms="4.5084273815155029e-01" purity="6.1722767353057861e-01" nType="-99"/>
        </Node>
      </Node>
    </BinaryTree>
    <BinaryTree type="DecisionTree" boostWeight="1.0000000000000000e+00" itree="373">
      <Node pos="s" depth="0" NCoef="0" IVar="5" Cut="1.6311043500900269e+00" cType="1" res="6.4800806343555450e-02" rms="4.3539351224899292e-01" purity="5.0265997648239136e-01" nType="0">
        <Node pos="l" depth="1" NCoef="0" IVar="6" Cut="2.7442584228515625e+02" cType="1" res="9.0162642300128937e-02" rms="4.3385431170463562e-01" purity="5.2835774421691895e-01" nType="0">
          <Node pos="l" depth="2" NCoef="0" IVar="-1" Cut="0.0000000000000000e+00" cType="1" res="-7.2208303026854992e-04" rms="3.8861232995986938e-01" purity="2.3302431404590607e-01" nType="-99"/>
          <Node pos="r" depth="2" NCoef="0" IVar="-1" Cut="0.0000000000000000e+00" cType="1" res="8.0232729669660330e-04" rms="4.3774548172950745e-01" purity="6.0772961378097534e-01" nType="-99"/>
        </Node>
        <Node pos="r" depth="1" NCoef="0" IVar="0" Cut="9.5419716835021973e-01" cType="1" res="-1.4925275743007660e-01" rms="3.8679704070091248e-01" purity="2.8577125072479248e-01" nType="0">
          <Node pos="l" depth="2" NCoef="0" IVar="-1" Cut="0.0000000000000000e+00" cType="1" res="-6.4090145751833916e-03" rms="2.9976201057434082e-01" purity="1.1023189127445221e-01" nType="-99"/>
          <Node pos="r" depth="2" NCoef="0" IVar="-1" Cut="0.0000000000000000e+00" cType="1" res="-5.8614875888451934e-04" rms="4.3748623132705688e-01" purity="4.4735980033874512e-01" nType="-99"/>
        </Node>
      </Node>
    </BinaryTree>
    <BinaryTree type="DecisionTree" boostWeight="1.0000000000000000e+00" itree="374">
      <Node pos="s" depth="0" NCoef="0" IVar="1" Cut="4.1073585510253906e+01" cType="1" res="4.5004207640886307e-02" rms="4.4325387477874756e-01" purity="4.7325953841209412e-01" nType="0">
        <Node pos="l" depth="1" NCoef="0" IVar="-1" Cut="0.0000000000000000e+00" cType="1" res="-5.0111911259591579e-03" rms="3.0360671877861023e-01" purity="1.1585153639316559e-01" nType="-99"/>
        <Node pos="r" depth="1" NCoef="0" IVar="3" Cut="1.2400745153427124e+00" cType="1" res="6.8924084305763245e-02" rms="4.4883593916893005e-01" purity="5.1090151071548462e-01" nType="0">
          <Node pos="l" depth="2" NCoef="0" IVar="-1" Cut="0.0000000000000000e+00" cType="1" res="8.2737248158082366e-04" rms="4.3794944882392883e-01" purity="6.9695395231246948e-01" nType="-99"/>
          <Node pos="r" depth="2" NCoef="0" IVar="-1" Cut="0.0000000000000000e+00" cType="1" res="1.5205796808004379e-04" rms="4.4796690344810486e-01" purity="3.8826555013656616e-01" nType="-99"/>
        </Node>
      </Node>
    </BinaryTree>
    <BinaryTree type="DecisionTree" boostWeight="1.0000000000000000e+00" itree="375">
      <Node pos="s" depth="0" NCoef="0" IVar="1" Cut="9.6842643737792969e+01" cType="1" res="6.2608167529106140e-02" rms="4.4288459420204163e-01" purity="4.9293896555900574e-01" nType="0">
        <Node pos="l" depth="1" NCoef="0" IVar="7" Cut="9.8475092649459839e-01" cType="1" res="-4.6215620823204517e-03" rms="4.3823435902595520e-01" purity="3.8225936889648438e-01" nType="0">
          <Node pos="l" depth="2" NCoef="0" IVar="-1" Cut="0.0000000000000000e+00" cType="1" res="6.9602642906829715e-04" rms="4.4935283064842224e-01" purity="4.8516777157783508e-01" nType="-99"/>
          <Node pos="r" depth="2" NCoef="0" IVar="-1" Cut="0.0000000000000000e+00" cType="1" res="-1.0326032061129808e-03" rms="4.1238090395927429e-01" purity="2.9461613297462463e-01" nType="-99"/>
        </Node>
        <Node pos="r" depth="1" NCoef="0" IVar="7" Cut="1.5413838624954224e+00" cType="1" res="1.2915204465389252e-01" rms="4.3737918138504028e-01" purity="6.0248941183090210e-01" nType="0">
          <Node pos="l" depth="2" NCoef="0" IVar="-1" Cut="0.0000000000000000e+00" cType="1" res="1.0808787774294615e-03" rms="3.8745513558387756e-01" purity="7.9648971557617188e-01" nType="-99"/>
          <Node pos="r" depth="2" NCoef="0" IVar="-1" Cut="0.0000000000000000e+00" cType="1" res="6.0032960027456284e-04" rms="4.5538774132728577e-01" purity="4.8527199029922485e-01" nType="-99"/>
        </Node>
      </Node>
    </BinaryTree>
    <BinaryTree type="DecisionTree" boostWeight="1.0000000000000000e+00" itree="376">
      <Node pos="s" depth="0" NCoef="0" IVar="8" Cut="9.5380432128906250e+01" cType="1" res="8.4160894155502319e-02" rms="4.4895654916763306e-01" purity="5.1315444707870483e-01" nType="0">
        <Node pos="l" depth="1" NCoef="0" IVar="6" Cut="3.3130773925781250e+02" cType="1" res="-5.6152671575546265e-02" rms="4.0350437164306641e-01" purity="2.8274667263031006e-01" nType="0">
          <Node pos="l" depth="2" NCoef="0" IVar="-1" Cut="0.0000000000000000e+00" cType="1" res="-3.9166677743196487e-03" rms="3.0994749069213867e-01" purity="1.1035574227571487e-01" nType="-99"/>
          <Node pos="r" depth="2" NCoef="0" IVar="-1" Cut="0.0000000000000000e+00" cType="1" res="2.6492564938962460e-04" rms="4.6787825226783752e-01" purity="4.6812316775321960e-01" nType="-99"/>
        </Node>
        <Node pos="r" depth="1" NCoef="0" IVar="3" Cut="2.7601013183593750e+00" cType="1" res="1.0354213416576385e-01" rms="4.5146301388740540e-01" purity="5.4498016834259033e-01" nType="0">
          <Node pos="l" depth="2" NCoef="0" IVar="-1" Cut="0.0000000000000000e+00" cType="1" res="7.7443482587113976e-04" rms="4.6216645836830139e-01" purity="5.8919751644134521e-01" nType="-99"/>
          <Node pos="r" depth="2" NCoef="0" IVar="-1" Cut="0.0000000000000000e+00" cType="1" res="-2.4996330030262470e-03" rms="2.7760523557662964e-01" purity="9.2759102582931519e-02" nType="-99"/>
        </Node>
      </Node>
    </BinaryTree>
    <BinaryTree type="DecisionTree" boostWeight="1.0000000000000000e+00" itree="377">
      <Node pos="s" depth="0" NCoef="0" IVar="0" Cut="9.8224884271621704e-01" cType="1" res="6.2949329614639282e-02" rms="4.4322323799133301e-01" purity="4.8558887839317322e-01" nType="0">
        <Node pos="l" depth="1" NCoef="0" IVar="1" Cut="4.2687950134277344e+01" cType="1" res="3.4936722368001938e-02" rms="4.4665539264678955e-01" purity="4.3138730525970459e-01" nType="0">
          <Node pos="l" depth="2" NCoef="0" IVar="-1" Cut="0.0000000000000000e+00" cType="1" res="-3.1651891767978668e-03" rms="3.1005421280860901e-01" purity="1.4571860432624817e-01" nType="-99"/>
          <Node pos="r" depth="2" NCoef="0" IVar="-1" Cut="0.0000000000000000e+00" cType="1" res="4.6110659604892135e-04" rms="4.5538407564163208e-01" purity="4.6512594819068909e-01" nType="-99"/>
        </Node>
        <Node pos="r" depth="1" NCoef="0" IVar="4" Cut="6.7744338512420654e-01" cType="1" res="1.9344842433929443e-01" rms="4.0191158652305603e-01" purity="7.3809152841567993e-01" nType="0">
          <Node pos="l" depth="2" NCoef="0" IVar="-1" Cut="0.0000000000000000e+00" cType="1" res="1.2444007443264127e-03" rms="3.7360590696334839e-01" purity="8.0127382278442383e-01" nType="-99"/>
          <Node pos="r" depth="2" NCoef="0" IVar="-1" Cut="0.0000000000000000e+00" cType="1" res="6.1201496282592416e-04" rms="4.2799860239028931e-01" purity="6.3395226001739502e-01" nType="-99"/>
        </Node>
      </Node>
    </BinaryTree>
    <BinaryTree type="DecisionTree" boostWeight="1.0000000000000000e+00" itree="378">
      <Node pos="s" depth="0" NCoef="0" IVar="8" Cut="1.0853923797607422e+02" cType="1" res="6.0771767050027847e-02" rms="4.5160180330276489e-01" purity="4.7973921895027161e-01" nType="0">
        <Node pos="l" depth="1" NCoef="0" IVar="4" Cut="6.4363855123519897e-01" cType="1" res="-4.9445435404777527e-02" rms="4.2601728439331055e-01" purity="3.1494960188865662e-01" nType="0">
          <Node pos="l" depth="2" NCoef="0" IVar="-1" Cut="0.0000000000000000e+00" cType="1" res="-2.5018283631652594e-03" rms="3.5700401663780212e-01" purity="1.9900284707546234e-01" nType="-99"/>
          <Node pos="r" depth="2" NCoef="0" IVar="-1" Cut="0.0000000000000000e+00" cType="1" res="5.1129321946064010e-05" rms="4.4495403766632080e-01" purity="3.7030652165412903e-01" nType="-99"/>
        </Node>
        <Node pos="r" depth="1" NCoef="0" IVar="5" Cut="1.4537137746810913e+00" cType="1" res="9.7087748348712921e-02" rms="4.5389536023139954e-01" purity="5.3403651714324951e-01" nType="0">
          <Node pos="l" depth="2" NCoef="0" IVar="-1" Cut="0.0000000000000000e+00" cType="1" res="4.5092619257047772e-04" rms="4.4107890129089355e-01" purity="4.9581038951873779e-01" nType="-99"/>
          <Node pos="r" depth="2" NCoef="0" IVar="-1" Cut="0.0000000000000000e+00" cType="1" res="1.2315438361838460e-03" rms="4.7134837508201599e-01" purity="6.3445210456848145e-01" nType="-99"/>
        </Node>
      </Node>
    </BinaryTree>
    <BinaryTree type="DecisionTree" boostWeight="1.0000000000000000e+00" itree="379">
      <Node pos="s" depth="0" NCoef="0" IVar="1" Cut="8.1745727539062500e+01" cType="1" res="5.9036910533905029e-02" rms="4.5247295498847961e-01" purity="4.7254958748817444e-01" nType="0">
        <Node pos="l" depth="1" NCoef="0" IVar="8" Cut="1.2419225311279297e+02" cType="1" res="-1.9885053858160973e-02" rms="4.3282297253608704e-01" purity="3.5034891963005066e-01" nType="0">
          <Node pos="l" depth="2" NCoef="0" IVar="-1" Cut="0.0000000000000000e+00" cType="1" res="4.7728136996738613e-04" rms="4.4780823588371277e-01" purity="4.3197548389434814e-01" nType="-99"/>
          <Node pos="r" depth="2" NCoef="0" IVar="-1" Cut="0.0000000000000000e+00" cType="1" res="-3.5465273540467024e-03" rms="3.3832889795303345e-01" purity="1.6475068032741547e-01" nType="-99"/>
        </Node>
        <Node pos="r" depth="1" NCoef="0" IVar="8" Cut="1.3306094360351562e+02" cType="1" res="1.1782591789960861e-01" rms="4.5781460404396057e-01" purity="5.6357693672180176e-01" nType="0">
          <Node pos="l" depth="2" NCoef="0" IVar="-1" Cut="0.0000000000000000e+00" cType="1" res="1.0813454864546657e-03" rms="4.5868596434593201e-01" purity="6.1794167757034302e-01" nType="-99"/>
          <Node pos="r" depth="2" NCoef="0" IVar="-1" Cut="0.0000000000000000e+00" cType="1" res="2.0784650405403227e-04" rms="4.4176498055458069e-01" purity="4.5131358504295349e-01" nType="-99"/>
        </Node>
      </Node>
    </BinaryTree>
    <BinaryTree type="DecisionTree" boostWeight="1.0000000000000000e+00" itree="380">
      <Node pos="s" depth="0" NCoef="0" IVar="8" Cut="1.3463920593261719e+02" cType="1" res="6.9769769906997681e-02" rms="4.4353839755058289e-01" purity="5.0190228223800659e-01" nType="0">
        <Node pos="l" depth="1" NCoef="0" IVar="3" Cut="1.2441390752792358e+00" cType="1" res="1.1056759953498840e-01" rms="4.4682022929191589e-01" purity="5.4566282033920288e-01" nType="0">
          <Node pos="l" depth="2" NCoef="0" IVar="-1" Cut="0.0000000000000000e+00" cType="1" res="1.0243844008073211e-03" rms="4.4053372740745544e-01" purity="6.7276245355606079e-01" nType="-99"/>
          <Node pos="r" depth="2" NCoef="0" IVar="-1" Cut="0.0000000000000000e+00" cType="1" res="5.4305838420987129e-04" rms="4.4560092687606812e-01" purity="4.5035788416862488e-01" nType="-99"/>
        </Node>
        <Node pos="r" depth="1" NCoef="0" IVar="6" Cut="4.3331198120117188e+02" cType="1" res="-3.2887209206819534e-02" rms="4.1790810227394104e-01" purity="3.9179041981697083e-01" nType="0">
          <Node pos="l" depth="2" NCoef="0" IVar="-1" Cut="0.0000000000000000e+00" cType="1" res="-1.5395485097542405e-03" rms="3.8281884789466858e-01" purity="2.5393858551979065e-01" nType="-99"/>
          <Node pos="r" depth="2" NCoef="0" IVar="-1" Cut="0.0000000000000000e+00" cType="1" res="5.0218251999467611e-04" rms="4.4166451692581177e-01" purity="5.9860485792160034e-01" nType="-99"/>
        </Node>
      </Node>
    </BinaryTree>
    <BinaryTree type="DecisionTree" boostWeight="1.0000000000000000e+00" itree="381">
      <Node pos="s" depth="0" NCoef="0" IVar="3" Cut="9.8206144571304321e-01" cType="1" res="9.2695727944374084e-02" rms="4.4994327425956726e-01" purity="5.1916611194610596e-01" nType="0">
        <Node pos="l" depth="1" NCoef="0" IVar="6" Cut="3.0695227050781250e+02" cType="1" res="1.9276332855224609e-01" rms="4.0900090336799622e-01" purity="7.1868127584457397e-01" nType="0">
          <Node pos="l" depth="2" NCoef="0" IVar="-1" Cut="0.0000000000000000e+00" cType="1" res="1.4645543706137687e-04" rms="4.5617493987083435e-01" purity="3.8457199931144714e-01" nType="-99"/>
          <Node pos="r" depth="2" NCoef="0" IVar="-1" Cut="0.0000000000000000e+00" cType="1" res="1.1237896978855133e-03" rms="3.7823832035064697e-01" purity="8.1808799505233765e-01" nType="-99"/>
        </Node>
        <Node pos="r" depth="1" NCoef="0" IVar="8" Cut="1.0023540496826172e+02" cType="1" res="5.3870987147092819e-02" rms="4.5902162790298462e-01" purity="4.4175717234611511e-01" nType="0">
          <Node pos="l" depth="2" NCoef="0" IVar="-1" Cut="0.0000000000000000e+00" cType="1" res="-3.8995842915028334e-03" rms="3.5957163572311401e-01" purity="1.3215544819831848e-01" nType="-99"/>
          <Node pos="r" depth="2" NCoef="0" IVar="-1" Cut="0.0000000000000000e+00" cType="1" res="6.6620385041460395e-04" rms="4.6328055858612061e-01" purity="4.8433241248130798e-01" nType="-99"/>
        </Node>
      </Node>
    </BinaryTree>
    <BinaryTree type="DecisionTree" boostWeight="1.0000000000000000e+00" itree="382">
      <Node pos="s" depth="0" NCoef="0" IVar="6" Cut="4.3843234252929688e+02" cType="1" res="3.7846777588129044e-02" rms="4.4134256243705750e-01" purity="4.6179884672164917e-01" nType="0">
        <Node pos="l" depth="1" NCoef="0" IVar="5" Cut="1.6221926212310791e+00" cType="1" res="-1.3235454389359802e-04" rms="4.4198727607727051e-01" purity="3.8277339935302734e-01" nType="0">
          <Node pos="l" depth="2" NCoef="0" IVar="-1" Cut="0.0000000000000000e+00" cType="1" res="-4.1074835462495685e-04" rms="4.2724865674972534e-01" purity="3.3905604481697083e-01" nType="-99"/>
          <Node pos="r" depth="2" NCoef="0" IVar="-1" Cut="0.0000000000000000e+00" cType="1" res="1.0104106040671468e-03" rms="4.6718567609786987e-01" purity="5.5018395185470581e-01" nType="-99"/>
        </Node>
        <Node pos="r" depth="1" NCoef="0" IVar="4" Cut="6.8940681219100952e-01" cType="1" res="1.3862410187721252e-01" rms="4.2342486977577209e-01" purity="6.7149233818054199e-01" nType="0">
          <Node pos="l" depth="2" NCoef="0" IVar="-1" Cut="0.0000000000000000e+00" cType="1" res="1.1288899695500731e-03" rms="3.8063603639602661e-01" purity="7.6497882604598999e-01" nType="-99"/>
          <Node pos="r" depth="2" NCoef="0" IVar="-1" Cut="0.0000000000000000e+00" cType="1" res="7.7679251262452453e-05" rms="4.5394188165664673e-01" purity="5.2523040771484375e-01" nType="-99"/>
        </Node>
      </Node>
    </BinaryTree>
    <BinaryTree type="DecisionTree" boostWeight="1.0000000000000000e+00" itree="383">
      <Node pos="s" depth="0" NCoef="0" IVar="6" Cut="2.7959759521484375e+02" cType="1" res="7.4046991765499115e-02" rms="4.4364497065544128e-01" purity="5.0143021345138550e-01" nType="0">
        <Node pos="l" depth="1" NCoef="0" IVar="1" Cut="6.4514778137207031e+01" cType="1" res="-5.1251273602247238e-02" rms="4.0258520841598511e-01" purity="2.2281584143638611e-01" nType="0">
          <Node pos="l" depth="2" NCoef="0" IVar="-1" Cut="0.0000000000000000e+00" cType="1" res="-9.1866021975874901e-03" rms="2.6506450772285461e-01" purity="6.0131624341011047e-02" nType="-99"/>
          <Node pos="r" depth="2" NCoef="0" IVar="-1" Cut="0.0000000000000000e+00" cType="1" res="7.2533322963863611e-04" rms="4.6328181028366089e-01" purity="3.6541792750358582e-01" nType="-99"/>
        </Node>
        <Node pos="r" depth="1" NCoef="0" IVar="2" Cut="2.7164056396484375e+02" cType="1" res="1.1251824349164963e-01" rms="4.4854071736335754e-01" purity="5.8697527647018433e-01" nType="0">
          <Node pos="l" depth="2" NCoef="0" IVar="-1" Cut="0.0000000000000000e+00" cType="1" res="8.9525978546589613e-04" rms="4.4624003767967224e-01" purity="6.4943712949752808e-01" nType="-99"/>
          <Node pos="r" depth="2" NCoef="0" IVar="-1" Cut="0.0000000000000000e+00" cType="1" res="-1.9703242287505418e-05" rms="4.3515720963478088e-01" purity="4.0828627347946167e-01" nType="-99"/>
        </Node>
      </Node>
    </BinaryTree>
    <BinaryTree type="DecisionTree" boostWeight="1.0000000000000000e+00" itree="384">
      <Node pos="s" depth="0" NCoef="0" IVar="0" Cut="9.6985882520675659e-01" cType="1" res="6.3065223395824432e-02" rms="4.3368443846702576e-01" purity="4.9734830856323242e-01" nType="0">
        <Node pos="l" depth="1" NCoef="0" IVar="1" Cut="8.8156112670898438e+01" cType="1" res="2.9672742821276188e-03" rms="4.3297478556632996e-01" purity="3.8299670815467834e-01" nType="0">
          <Node pos="l" depth="2" NCoef="0" IVar="-1" Cut="0.0000000000000000e+00" cType="1" res="-9.4066734891384840e-04" rms="4.0681964159011841e-01" purity="2.6281279325485229e-01" nType="-99"/>
          <Node pos="r" depth="2" NCoef="0" IVar="-1" Cut="0.0000000000000000e+00" cType="1" res="5.5012106895446777e-04" rms="4.4405183196067810e-01" purity="4.8740202188491821e-01" nType="-99"/>
        </Node>
        <Node pos="r" depth="1" NCoef="0" IVar="1" Cut="1.0332530212402344e+02" cType="1" res="1.7577351629734039e-01" rms="4.1201815009117126e-01" purity="7.1180450916290283e-01" nType="0">
          <Node pos="l" depth="2" NCoef="0" IVar="-1" Cut="0.0000000000000000e+00" cType="1" res="5.7775428285822272e-04" rms="4.6199166774749756e-01" purity="5.9100806713104248e-01" nType="-99"/>
          <Node pos="r" depth="2" NCoef="0" IVar="-1" Cut="0.0000000000000000e+00" cType="1" res="1.2508955551311374e-03" rms="3.4524959325790405e-01" purity="8.1674832105636597e-01" nType="-99"/>
        </Node>
      </Node>
    </BinaryTree>
    <BinaryTree type="DecisionTree" boostWeight="1.0000000000000000e+00" itree="385">
      <Node pos="s" depth="0" NCoef="0" IVar="0" Cut="9.8451209068298340e-01" cType="1" res="6.5113186836242676e-02" rms="4.4893330335617065e-01" purity="4.8062053322792053e-01" nType="0">
        <Node pos="l" depth="1" NCoef="0" IVar="8" Cut="1.3205198669433594e+02" cType="1" res="3.1415678560733795e-02" rms="4.4999459385871887e-01" purity="4.2405712604522705e-01" nType="0">
          <Node pos="l" depth="2" NCoef="0" IVar="-1" Cut="0.0000000000000000e+00" cType="1" res="6.6601560683920979e-04" rms="4.6381455659866333e-01" purity="4.7649776935577393e-01" nType="-99"/>
          <Node pos="r" depth="2" NCoef="0" IVar="-1" Cut="0.0000000000000000e+00" cType="1" res="-1.0924600064754486e-03" rms="3.9004737138748169e-01" purity="3.0154278874397278e-01" nType="-99"/>
        </Node>
        <Node pos="r" depth="1" NCoef="0" IVar="-1" Cut="0.0000000000000000e+00" cType="1" res="1.2078244471922517e-03" rms="4.0392962098121643e-01" purity="7.6152282953262329e-01" nType="-99"/>
      </Node>
    </BinaryTree>
    <BinaryTree type="DecisionTree" boostWeight="1.0000000000000000e+00" itree="386">
      <Node pos="s" depth="0" NCoef="0" IVar="3" Cut="3.0405390262603760e+00" cType="1" res="9.8070114850997925e-02" rms="4.4767269492149353e-01" purity="5.2396196126937866e-01" nType="0">
        <Node pos="l" depth="1" NCoef="0" IVar="8" Cut="9.0943847656250000e+01" cType="1" res="1.1097503453493118e-01" rms="4.5803344249725342e-01" purity="5.5631041526794434e-01" nType="0">
          <Node pos="l" depth="2" NCoef="0" IVar="-1" Cut="0.0000000000000000e+00" cType="1" res="-2.7699192287400365e-04" rms="4.4313997030258179e-01" purity="3.3509114384651184e-01" nType="-99"/>
          <Node pos="r" depth="2" NCoef="0" IVar="-1" Cut="0.0000000000000000e+00" cType="1" res="8.6368288611993194e-04" rms="4.5690029859542847e-01" purity="5.8447974920272827e-01" nType="-99"/>
        </Node>
        <Node pos="r" depth="1" NCoef="0" IVar="-1" Cut="0.0000000000000000e+00" cType="1" res="-1.5727743506431580e-02" rms="4.5030400156974792e-02" purity="0.0000000000000000e+00" nType="-99"/>
      </Node>
    </BinaryTree>
    <BinaryTree type="DecisionTree" boostWeight="1.0000000000000000e+00" itree="387">
      <Node pos="s" depth="0" NCoef="0" IVar="1" Cut="6.5201271057128906e+01" cType="1" res="9.2964448034763336e-02" rms="4.4162172079086304e-01" purity="5.2355647087097168e-01" nType="0">
        <Node pos="l" depth="1" NCoef="0" IVar="4" Cut="7.9710590839385986e-01" cType="1" res="-8.2618165761232376e-03" rms="4.3890988826751709e-01" purity="3.3074951171875000e-01" nType="0">
          <Node pos="l" depth="2" NCoef="0" IVar="-1" Cut="0.0000000000000000e+00" cType="1" res="-8.5141009185463190e-04" rms="4.1249006986618042e-01" purity="2.8162929415702820e-01" nType="-99"/>
          <Node pos="r" depth="2" NCoef="0" IVar="-1" Cut="0.0000000000000000e+00" cType="1" res="1.7652214737609029e-03" rms="4.6068701148033142e-01" purity="5.2297520637512207e-01" nType="-99"/>
        </Node>
        <Node pos="r" depth="1" NCoef="0" IVar="7" Cut="2.3671140670776367e+00" cType="1" res="1.3014774024486542e-01" rms="4.3676120042800903e-01" purity="5.9438002109527588e-01" nType="0">
          <Node pos="l" depth="2" NCoef="0" IVar="-1" Cut="0.0000000000000000e+00" cType="1" res="9.1388111468404531e-04" rms="4.4249498844146729e-01" purity="6.3593488931655884e-01" nType="-99"/>
          <Node pos="r" depth="2" NCoef="0" IVar="-1" Cut="0.0000000000000000e+00" cType="1" res="-3.3993662800639868e-03" rms="2.5613924860954285e-01" purity="8.1176660954952240e-02" nType="-99"/>
        </Node>
      </Node>
    </BinaryTree>
    <BinaryTree type="DecisionTree" boostWeight="1.0000000000000000e+00" itree="388">
      <Node pos="s" depth="0" NCoef="0" IVar="8" Cut="1.2221474456787109e+02" cType="1" res="1.3823592104017735e-02" rms="4.3615624308586121e-01" purity="4.3348303437232971e-01" nType="0">
        <Node pos="l" depth="1" NCoef="0" IVar="6" Cut="2.5668286132812500e+02" cType="1" res="8.1541277468204498e-02" rms="4.3614441156387329e-01" purity="5.1103401184082031e-01" nType="0">
          <Node pos="l" depth="2" NCoef="0" IVar="-1" Cut="0.0000000000000000e+00" cType="1" res="-3.2185709569603205e-03" rms="3.0915358662605286e-01" purity="1.3177861273288727e-01" nType="-99"/>
          <Node pos="r" depth="2" NCoef="0" IVar="-1" Cut="0.0000000000000000e+00" cType="1" res="8.4465887630358338e-04" rms="4.4648337364196777e-01" purity="5.9730774164199829e-01" nType="-99"/>
        </Node>
        <Node pos="r" depth="1" NCoef="0" IVar="0" Cut="9.4824010133743286e-01" cType="1" res="-8.0194599926471710e-02" rms="4.1837838292121887e-01" purity="3.2581245899200439e-01" nType="0">
          <Node pos="l" depth="2" NCoef="0" IVar="-1" Cut="0.0000000000000000e+00" cType="1" res="-2.6271547540090978e-04" rms="4.1134098172187805e-01" purity="3.0288156867027283e-01" nType="-99"/>
          <Node pos="r" depth="2" NCoef="0" IVar="-1" Cut="0.0000000000000000e+00" cType="1" res="-1.3409300008788705e-03" rms="4.1775864362716675e-01" purity="3.4621316194534302e-01" nType="-99"/>
        </Node>
      </Node>
    </BinaryTree>
    <BinaryTree type="DecisionTree" boostWeight="1.0000000000000000e+00" itree="389">
      <Node pos="s" depth="0" NCoef="0" IVar="0" Cut="9.5521938800811768e-01" cType="1" res="7.1149937808513641e-02" rms="4.3344298005104065e-01" purity="5.1032245159149170e-01" nType="0">
        <Node pos="l" depth="1" NCoef="0" IVar="4" Cut="6.5486246347427368e-01" cType="1" res="-2.9488090425729752e-02" rms="4.2297169566154480e-01" purity="2.9964172840118408e-01" nType="0">
          <Node pos="l" depth="2" NCoef="0" IVar="-1" Cut="0.0000000000000000e+00" cType="1" res="-2.6272216346114874e-03" rms="3.5765364766120911e-01" purity="1.7375668883323669e-01" nType="-99"/>
          <Node pos="r" depth="2" NCoef="0" IVar="-1" Cut="0.0000000000000000e+00" cType="1" res="4.2461950215511024e-04" rms="4.4216829538345337e-01" purity="3.7419900298118591e-01" nType="-99"/>
        </Node>
        <Node pos="r" depth="1" NCoef="0" IVar="6" Cut="2.7664999389648438e+02" cType="1" res="1.4396348595619202e-01" rms="4.2629984021186829e-01" purity="6.6275399923324585e-01" nType="0">
          <Node pos="l" depth="2" NCoef="0" IVar="-1" Cut="0.0000000000000000e+00" cType="1" res="-5.1019032252952456e-04" rms="4.3636479973793030e-01" purity="3.2709810137748718e-01" nType="-99"/>
          <Node pos="r" depth="2" NCoef="0" IVar="-1" Cut="0.0000000000000000e+00" cType="1" res="9.4313046429306269e-04" rms="4.1611033678054810e-01" purity="7.2023785114288330e-01" nType="-99"/>
        </Node>
      </Node>
    </BinaryTree>
    <BinaryTree type="DecisionTree" boostWeight="1.0000000000000000e+00" itree="390">
      <Node pos="s" depth="0" NCoef="0" IVar="8" Cut="1.3432992553710938e+02" cType="1" res="5.9899792075157166e-02" rms="4.5246765017509460e-01" purity="4.8136004805564880e-01" nType="0">
        <Node pos="l" depth="1" NCoef="0" IVar="2" Cut="1.1656326293945312e+02" cType="1" res="9.1511420905590057e-02" rms="4.5215469598770142e-01" purity="5.2030974626541138e-01" nType="0">
          <Node pos="l" depth="2" NCoef="0" IVar="-1" Cut="0.0000000000000000e+00" cType="1" res="-3.1709525501355529e-04" rms="4.2888370156288147e-01" purity="3.4170407056808472e-01" nType="-99"/>
          <Node pos="r" depth="2" NCoef="0" IVar="-1" Cut="0.0000000000000000e+00" cType="1" res="8.5274642333388329e-04" rms="4.5260378718376160e-01" purity="5.6106042861938477e-01" nType="-99"/>
        </Node>
        <Node pos="r" depth="1" NCoef="0" IVar="6" Cut="4.4117831420898438e+02" cType="1" res="-1.7180753871798515e-02" rms="4.4389107823371887e-01" purity="3.8638672232627869e-01" nType="0">
          <Node pos="l" depth="2" NCoef="0" IVar="-1" Cut="0.0000000000000000e+00" cType="1" res="-1.5021107392385602e-03" rms="4.2255684733390808e-01" purity="2.3500953614711761e-01" nType="-99"/>
          <Node pos="r" depth="2" NCoef="0" IVar="-1" Cut="0.0000000000000000e+00" cType="1" res="6.9104204885661602e-04" rms="4.4672706723213196e-01" purity="6.2577122449874878e-01" nType="-99"/>
        </Node>
      </Node>
    </BinaryTree>
    <BinaryTree type="DecisionTree" boostWeight="1.0000000000000000e+00" itree="391">
      <Node pos="s" depth="0" NCoef="0" IVar="1" Cut="9.2898567199707031e+01" cType="1" res="8.7933532893657684e-02" rms="4.4493210315704346e-01" purity="5.1123565435409546e-01" nType="0">
        <Node pos="l" depth="1" NCoef="0" IVar="2" Cut="1.7371720886230469e+02" cType="1" res="3.5390943288803101e-02" rms="4.5350730419158936e-01" purity="4.1271159052848816e-01" nType="0">
          <Node pos="l" depth="2" NCoef="0" IVar="-1" Cut="0.0000000000000000e+00" cType="1" res="8.6409982759505510e-04" rms="4.6650314331054688e-01" purity="4.9974542856216431e-01" nType="-99"/>
          <Node pos="r" depth="2" NCoef="0" IVar="-1" Cut="0.0000000000000000e+00" cType="1" res="-1.4238604344427586e-03" rms="3.9285370707511902e-01" purity="2.5583001971244812e-01" nType="-99"/>
        </Node>
        <Node pos="r" depth="1" NCoef="0" IVar="7" Cut="1.4941812753677368e+00" cType="1" res="1.3774564862251282e-01" rms="4.3076926469802856e-01" purity="6.0463970899581909e-01" nType="0">
          <Node pos="l" depth="2" NCoef="0" IVar="-1" Cut="0.0000000000000000e+00" cType="1" res="1.1578280245885253e-03" rms="3.5686114430427551e-01" purity="8.2332098484039307e-01" nType="-99"/>
          <Node pos="r" depth="2" NCoef="0" IVar="-1" Cut="0.0000000000000000e+00" cType="1" res="6.9327047094702721e-04" rms="4.5593875646591187e-01" purity="4.9429258704185486e-01" nType="-99"/>
        </Node>
      </Node>
    </BinaryTree>
    <BinaryTree type="DecisionTree" boostWeight="1.0000000000000000e+00" itree="392">
      <Node pos="s" depth="0" NCoef="0" IVar="8" Cut="1.0023540496826172e+02" cType="1" res="5.5915564298629761e-02" rms="4.5147091150283813e-01" purity="4.7536781430244446e-01" nType="0">
        <Node pos="l" depth="1" NCoef="0" IVar="6" Cut="2.7355569458007812e+02" cType="1" res="-5.9293113648891449e-02" rms="4.1119176149368286e-01" purity="2.9708167910575867e-01" nType="0">
          <Node pos="l" depth="2" NCoef="0" IVar="-1" Cut="0.0000000000000000e+00" cType="1" res="-9.1901840642094612e-03" rms="2.2249799966812134e-01" purity="4.8798047006130219e-02" nType="-99"/>
          <Node pos="r" depth="2" NCoef="0" IVar="-1" Cut="0.0000000000000000e+00" cType="1" res="5.4700609325664118e-05" rms="4.6686935424804688e-01" purity="4.2522776126861572e-01" nType="-99"/>
        </Node>
        <Node pos="r" depth="1" NCoef="0" IVar="0" Cut="9.7161227464675903e-01" cType="1" res="8.2482047379016876e-02" rms="4.5614916086196899e-01" purity="5.1647961139678955e-01" nType="0">
          <Node pos="l" depth="2" NCoef="0" IVar="-1" Cut="0.0000000000000000e+00" cType="1" res="4.4397692545317113e-04" rms="4.6079334616661072e-01" purity="4.4191080331802368e-01" nType="-99"/>
          <Node pos="r" depth="2" NCoef="0" IVar="-1" Cut="0.0000000000000000e+00" cType="1" res="9.2656794004142284e-04" rms="4.3483120203018188e-01" purity="6.9455415010452271e-01" nType="-99"/>
        </Node>
      </Node>
    </BinaryTree>
    <BinaryTree type="DecisionTree" boostWeight="1.0000000000000000e+00" itree="393">
      <Node pos="s" depth="0" NCoef="0" IVar="1" Cut="4.9475975036621094e+01" cType="1" res="2.3860175162553787e-02" rms="4.3636322021484375e-01" purity="4.5278805494308472e-01" nType="0">
        <Node pos="l" depth="1" NCoef="0" IVar="5" Cut="1.4575161933898926e+00" cType="1" res="-1.3687330484390259e-01" rms="3.5453906655311584e-01" purity="1.6563843190670013e-01" nType="0">
          <Node pos="l" depth="2" NCoef="0" IVar="-1" Cut="0.0000000000000000e+00" cType="1" res="-6.5688644535839558e-03" rms="2.9442697763442993e-01" purity="8.8483713567256927e-02" nType="-99"/>
          <Node pos="r" depth="2" NCoef="0" IVar="-1" Cut="0.0000000000000000e+00" cType="1" res="-5.2865070756524801e-04" rms="4.1598358750343323e-01" purity="2.8647971153259277e-01" nType="-99"/>
        </Node>
        <Node pos="r" depth="1" NCoef="0" IVar="3" Cut="8.9118856191635132e-01" cType="1" res="5.2753143012523651e-02" rms="4.4335871934890747e-01" purity="5.0440520048141479e-01" nType="0">
          <Node pos="l" depth="2" NCoef="0" IVar="-1" Cut="0.0000000000000000e+00" cType="1" res="1.0073538869619370e-03" rms="3.9568632841110229e-01" purity="7.7547943592071533e-01" nType="-99"/>
          <Node pos="r" depth="2" NCoef="0" IVar="-1" Cut="0.0000000000000000e+00" cType="1" res="2.7366711947252043e-05" rms="4.4736236333847046e-01" purity="4.1346335411071777e-01" nType="-99"/>
        </Node>
      </Node>
    </BinaryTree>
    <BinaryTree type="DecisionTree" boostWeight="1.0000000000000000e+00" itree="394">
      <Node pos="s" depth="0" NCoef="0" IVar="3" Cut="6.9816356897354126e-01" cType="1" res="6.1749838292598724e-02" rms="4.4165086746215820e-01" purity="4.8050716519355774e-01" nType="0">
        <Node pos="l" depth="1" NCoef="0" IVar="-1" Cut="0.0000000000000000e+00" cType="1" res="1.0694310767576098e-03" rms="3.9667996764183044e-01" purity="7.4225020408630371e-01" nType="-99"/>
        <Node pos="r" depth="1" NCoef="0" IVar="1" Cut="1.8457484436035156e+02" cType="1" res="3.1915131956338882e-02" rms="4.4440123438835144e-01" purity="4.2711398005485535e-01" nType="0">
          <Node pos="l" depth="2" NCoef="0" IVar="-1" Cut="0.0000000000000000e+00" cType="1" res="4.0833206730894744e-04" rms="4.4543927907943726e-01" purity="4.4672891497612000e-01" nType="-99"/>
          <Node pos="r" depth="2" NCoef="0" IVar="-1" Cut="0.0000000000000000e+00" cType="1" res="-3.7150464486330748e-03" rms="3.7208765745162964e-01" purity="1.5261563658714294e-01" nType="-99"/>
        </Node>
      </Node>
    </BinaryTree>
    <BinaryTree type="DecisionTree" boostWeight="1.0000000000000000e+00" itree="395">
      <Node pos="s" depth="0" NCoef="0" IVar="0" Cut="9.5144343376159668e-01" cType="1" res="6.4824961125850677e-02" rms="4.3772765994071960e-01" purity="4.9253123998641968e-01" nType="0">
        <Node pos="l" depth="1" NCoef="0" IVar="3" Cut="1.4018788337707520e+00" cType="1" res="-3.7889927625656128e-02" rms="4.1188418865203857e-01" purity="3.0228948593139648e-01" nType="0">
          <Node pos="l" depth="2" NCoef="0" IVar="-1" Cut="0.0000000000000000e+00" cType="1" res="4.2726032552309334e-04" rms="4.7078776359558105e-01" purity="4.9327212572097778e-01" nType="-99"/>
          <Node pos="r" depth="2" NCoef="0" IVar="-1" Cut="0.0000000000000000e+00" cType="1" res="-2.8904215432703495e-03" rms="3.3652719855308533e-01" purity="1.4480988681316376e-01" nType="-99"/>
        </Node>
        <Node pos="r" depth="1" NCoef="0" IVar="2" Cut="2.2196734619140625e+02" cType="1" res="1.3686658442020416e-01" rms="4.4092604517936707e-01" purity="6.2596189975738525e-01" nType="0">
          <Node pos="l" depth="2" NCoef="0" IVar="-1" Cut="0.0000000000000000e+00" cType="1" res="1.0775900445878506e-03" rms="4.3678408861160278e-01" purity="6.8847286701202393e-01" nType="-99"/>
          <Node pos="r" depth="2" NCoef="0" IVar="-1" Cut="0.0000000000000000e+00" cType="1" res="2.0420548389665782e-04" rms="4.2848733067512512e-01" purity="5.0006234645843506e-01" nType="-99"/>
        </Node>
      </Node>
    </BinaryTree>
    <BinaryTree type="DecisionTree" boostWeight="1.0000000000000000e+00" itree="396">
      <Node pos="s" depth="0" NCoef="0" IVar="8" Cut="1.2672299957275391e+02" cType="1" res="7.2087191045284271e-02" rms="4.5262402296066284e-01" purity="4.9852249026298523e-01" nType="0">
        <Node pos="l" depth="1" NCoef="0" IVar="5" Cut="1.0295926332473755e+00" cType="1" res="1.1457014828920364e-01" rms="4.5458313822746277e-01" purity="5.3981250524520874e-01" nType="0">
          <Node pos="l" depth="2" NCoef="0" IVar="-1" Cut="0.0000000000000000e+00" cType="1" res="-5.8138358872383833e-04" rms="4.1949930787086487e-01" purity="3.3922711014747620e-01" nType="-99"/>
          <Node pos="r" depth="2" NCoef="0" IVar="-1" Cut="0.0000000000000000e+00" cType="1" res="1.0521227959543467e-03" rms="4.5243164896965027e-01" purity="5.9646755456924438e-01" nType="-99"/>
        </Node>
        <Node pos="r" depth="1" NCoef="0" IVar="6" Cut="4.3389816284179688e+02" cType="1" res="1.2304945848882198e-02" rms="4.4300538301467896e-01" purity="4.4041889905929565e-01" nType="0">
          <Node pos="l" depth="2" NCoef="0" IVar="-1" Cut="0.0000000000000000e+00" cType="1" res="-5.2510743262246251e-04" rms="4.4284644722938538e-01" purity="3.3009183406829834e-01" nType="-99"/>
          <Node pos="r" depth="2" NCoef="0" IVar="-1" Cut="0.0000000000000000e+00" cType="1" res="6.9217401323840022e-04" rms="4.2556396126747131e-01" purity="6.2651306390762329e-01" nType="-99"/>
        </Node>
      </Node>
    </BinaryTree>
    <BinaryTree type="DecisionTree" boostWeight="1.0000000000000000e+00" itree="397">
      <Node pos="s" depth="0" NCoef="0" IVar="6" Cut="2.2765036010742188e+02" cType="1" res="6.8576432764530182e-02" rms="4.3480274081230164e-01" purity="5.0064677000045776e-01" nType="0">
        <Node pos="l" depth="1" NCoef="0" IVar="-1" Cut="0.0000000000000000e+00" cType="1" res="-1.9040549173951149e-02" rms="1.1266895383596420e-01" purity="0.0000000000000000e+00" nType="-99"/>
        <Node pos="r" depth="1" NCoef="0" IVar="7" Cut="1.8073323965072632e+00" cType="1" res="8.7926410138607025e-02" rms="4.4248324632644653e-01" purity="5.3592258691787720e-01" nType="0">
          <Node pos="l" depth="2" NCoef="0" IVar="-1" Cut="0.0000000000000000e+00" cType="1" res="7.9555041156709194e-04" rms="4.5077830553054810e-01" purity="5.9756928682327271e-01" nType="-99"/>
          <Node pos="r" depth="2" NCoef="0" IVar="-1" Cut="0.0000000000000000e+00" cType="1" res="-3.7099825567565858e-04" rms="3.8902601599693298e-01" purity="3.2618564367294312e-01" nType="-99"/>
        </Node>
      </Node>
    </BinaryTree>
    <BinaryTree type="DecisionTree" boostWeight="1.0000000000000000e+00" itree="398">
      <Node pos="s" depth="0" NCoef="0" IVar="6" Cut="3.4856796264648438e+02" cType="1" res="8.2816936075687408e-02" rms="4.3714982271194458e-01" purity="5.2691036462783813e-01" nType="0">
        <Node pos="l" depth="1" NCoef="0" IVar="8" Cut="1.0822778320312500e+02" cType="1" res="1.6890682280063629e-02" rms="4.2998710274696350e-01" purity="3.8968923687934875e-01" nType="0">
          <Node pos="l" depth="2" NCoef="0" IVar="-1" Cut="0.0000000000000000e+00" cType="1" res="-1.5743724070489407e-03" rms="3.6518749594688416e-01" purity="2.1633985638618469e-01" nType="-99"/>
          <Node pos="r" depth="2" NCoef="0" IVar="-1" Cut="0.0000000000000000e+00" cType="1" res="5.6331948144361377e-04" rms="4.4486206769943237e-01" purity="4.6421617269515991e-01" nType="-99"/>
        </Node>
        <Node pos="r" depth="1" NCoef="0" IVar="5" Cut="9.5682090520858765e-01" cType="1" res="1.5036924183368683e-01" rms="4.3410530686378479e-01" purity="6.6751605272293091e-01" nType="0">
          <Node pos="l" depth="2" NCoef="0" IVar="-1" Cut="0.0000000000000000e+00" cType="1" res="-2.2653964697383344e-04" rms="4.6476018428802490e-01" purity="4.3406239151954651e-01" nType="-99"/>
          <Node pos="r" depth="2" NCoef="0" IVar="-1" Cut="0.0000000000000000e+00" cType="1" res="1.0248222388327122e-03" rms="4.2064881324768066e-01" purity="7.1027994155883789e-01" nType="-99"/>
        </Node>
      </Node>
    </BinaryTree>
    <BinaryTree type="DecisionTree" boostWeight="1.0000000000000000e+00" itree="399">
      <Node pos="s" depth="0" NCoef="0" IVar="6" Cut="3.1492218017578125e+02" cType="1" res="6.5004922449588776e-02" rms="4.3887296319007874e-01" purity="4.9581563472747803e-01" nType="0">
        <Node pos="l" depth="1" NCoef="0" IVar="8" Cut="1.3107353210449219e+02" cType="1" res="-5.0507176667451859e-02" rms="4.2097520828247070e-01" purity="2.5508427619934082e-01" nType="0">
          <Node pos="l" depth="2" NCoef="0" IVar="-1" Cut="0.0000000000000000e+00" cType="1" res="1.4132271462585777e-04" rms="4.5526525378227234e-01" purity="3.3270433545112610e-01" nType="-99"/>
          <Node pos="r" depth="2" NCoef="0" IVar="-1" Cut="0.0000000000000000e+00" cType="1" res="-2.0994562655687332e-02" rms="1.5264995396137238e-01" purity="0.0000000000000000e+00" nType="-99"/>
        </Node>
        <Node pos="r" depth="1" NCoef="0" IVar="5" Cut="1.6353952884674072e+00" cType="1" res="1.3034817576408386e-01" rms="4.3531286716461182e-01" purity="6.3199335336685181e-01" nType="0">
          <Node pos="l" depth="2" NCoef="0" IVar="-1" Cut="0.0000000000000000e+00" cType="1" res="6.4307043794542551e-04" rms="4.3332293629646301e-01" purity="6.1203968524932861e-01" nType="-99"/>
          <Node pos="r" depth="2" NCoef="0" IVar="-1" Cut="0.0000000000000000e+00" cType="1" res="1.3376643182709813e-03" rms="4.2505791783332825e-01" purity="7.1844887733459473e-01" nType="-99"/>
        </Node>
      </Node>
    </BinaryTree>
    <BinaryTree type="DecisionTree" boostWeight="1.0000000000000000e+00" itree="400">
      <Node pos="s" depth="0" NCoef="0" IVar="6" Cut="3.2766305541992188e+02" cType="1" res="6.2371950596570969e-02" rms="4.4745826721191406e-01" purity="4.8476728796958923e-01" nType="0">
        <Node pos="l" depth="1" NCoef="0" IVar="3" Cut="6.8403768539428711e-01" cType="1" res="-1.6097927466034889e-02" rms="4.2695337533950806e-01" purity="3.1689450144767761e-01" nType="0">
          <Node pos="l" depth="2" NCoef="0" IVar="-1" Cut="0.0000000000000000e+00" cType="1" res="1.1789746349677444e-03" rms="4.7798031568527222e-01" purity="5.9317916631698608e-01" nType="-99"/>
          <Node pos="r" depth="2" NCoef="0" IVar="-1" Cut="0.0000000000000000e+00" cType="1" res="-8.0143281957134604e-04" rms="4.0279906988143921e-01" purity="2.6089903712272644e-01" nType="-99"/>
        </Node>
        <Node pos="r" depth="1" NCoef="0" IVar="2" Cut="2.5426210021972656e+02" cType="1" res="1.2064178287982941e-01" rms="4.5339304208755493e-01" purity="6.0942554473876953e-01" nType="0">
          <Node pos="l" depth="2" NCoef="0" IVar="-1" Cut="0.0000000000000000e+00" cType="1" res="1.0169254383072257e-03" rms="4.4688320159912109e-01" purity="7.0476013422012329e-01" nType="-99"/>
          <Node pos="r" depth="2" NCoef="0" IVar="-1" Cut="0.0000000000000000e+00" cType="1" res="1.2771319597959518e-04" rms="4.4310048222541809e-01" purity="4.6179428696632385e-01" nType="-99"/>
        </Node>
      </Node>
    </BinaryTree>
    <BinaryTree type="DecisionTree" boostWeight="1.0000000000000000e+00" itree="401">
      <Node pos="s" depth="0" NCoef="0" IVar="3" Cut="3.0417497158050537e+00" cType="1" res="1.1045382916927338e-01" rms="4.5344361662864685e-01" purity="5.3735607862472534e-01" nType="0">
        <Node pos="l" depth="1" NCoef="0" IVar="6" Cut="3.1611782836914062e+02" cType="1" res="1.2067107856273651e-01" rms="4.6209999918937683e-01" purity="5.6754493713378906e-01" nType="0">
          <Node pos="l" depth="2" NCoef="0" IVar="-1" Cut="0.0000000000000000e+00" cType="1" res="6.5470184199512005e-04" rms="4.6369573473930359e-01" purity="4.3146264553070068e-01" nType="-99"/>
          <Node pos="r" depth="2" NCoef="0" IVar="-1" Cut="0.0000000000000000e+00" cType="1" res="9.0860296040773392e-04" rms="4.5824158191680908e-01" purity="6.6177690029144287e-01" nType="-99"/>
        </Node>
        <Node pos="r" depth="1" NCoef="0" IVar="-1" Cut="0.0000000000000000e+00" cType="1" res="-3.1718574464321136e-03" rms="2.2974394261837006e-01" purity="6.0641072690486908e-02" nType="-99"/>
      </Node>
    </BinaryTree>
    <BinaryTree type="DecisionTree" boostWeight="1.0000000000000000e+00" itree="402">
      <Node pos="s" depth="0" NCoef="0" IVar="5" Cut="1.1877732276916504e+00" cType="1" res="8.6671091616153717e-02" rms="4.4680872559547424e-01" purity="5.1492106914520264e-01" nType="0">
        <Node pos="l" depth="1" NCoef="0" IVar="0" Cut="9.5888894796371460e-01" cType="1" res="2.3996012285351753e-02" rms="4.3633848428726196e-01" purity="4.3997588753700256e-01" nType="0">
          <Node pos="l" depth="2" NCoef="0" IVar="-1" Cut="0.0000000000000000e+00" cType="1" res="-1.3396344147622585e-03" rms="4.0191835165023804e-01" purity="2.2649112343788147e-01" nType="-99"/>
          <Node pos="r" depth="2" NCoef="0" IVar="-1" Cut="0.0000000000000000e+00" cType="1" res="7.2755035944283009e-04" rms="4.4401365518569946e-01" purity="6.3353842496871948e-01" nType="-99"/>
        </Node>
        <Node pos="r" depth="1" NCoef="0" IVar="4" Cut="8.0726283788681030e-01" cType="1" res="1.3928063213825226e-01" rms="4.4870337843894958e-01" purity="5.7783013582229614e-01" nType="0">
          <Node pos="l" depth="2" NCoef="0" IVar="-1" Cut="0.0000000000000000e+00" cType="1" res="1.0846571531146765e-03" rms="4.4968250393867493e-01" purity="6.1751335859298706e-01" nType="-99"/>
          <Node pos="r" depth="2" NCoef="0" IVar="-1" Cut="0.0000000000000000e+00" cType="1" res="-1.8476134864613414e-03" rms="3.4174886345863342e-01" purity="2.3167131841182709e-01" nType="-99"/>
        </Node>
      </Node>
    </BinaryTree>
    <BinaryTree type="DecisionTree" boostWeight="1.0000000000000000e+00" itree="403">
      <Node pos="s" depth="0" NCoef="0" IVar="4" Cut="6.5427881479263306e-01" cType="1" res="4.7479797154664993e-02" rms="4.3903377652168274e-01" purity="4.8036581277847290e-01" nType="0">
        <Node pos="l" depth="1" NCoef="0" IVar="6" Cut="3.9521676635742188e+02" cType="1" res="1.2253304570913315e-01" rms="4.4175684452056885e-01" purity="5.7256984710693359e-01" nType="0">
          <Node pos="l" depth="2" NCoef="0" IVar="-1" Cut="0.0000000000000000e+00" cType="1" res="5.5144255748018622e-04" rms="4.5662221312522888e-01" purity="4.6984460949897766e-01" nType="-99"/>
          <Node pos="r" depth="2" NCoef="0" IVar="-1" Cut="0.0000000000000000e+00" cType="1" res="1.1328618275001645e-03" rms="3.9258205890655518e-01" purity="7.6659035682678223e-01" nType="-99"/>
        </Node>
        <Node pos="r" depth="1" NCoef="0" IVar="8" Cut="1.2078614807128906e+02" cType="1" res="-3.2523255795240402e-02" rms="4.2165035009384155e-01" purity="3.8208085298538208e-01" nType="0">
          <Node pos="l" depth="2" NCoef="0" IVar="-1" Cut="0.0000000000000000e+00" cType="1" res="3.4699673415161669e-04" rms="4.2849084734916687e-01" purity="4.6108883619308472e-01" nType="-99"/>
          <Node pos="r" depth="2" NCoef="0" IVar="-1" Cut="0.0000000000000000e+00" cType="1" res="-1.3374985428526998e-03" rms="3.9919441938400269e-01" purity="2.9888671636581421e-01" nType="-99"/>
        </Node>
      </Node>
    </BinaryTree>
    <BinaryTree type="DecisionTree" boostWeight="1.0000000000000000e+00" itree="404">
      <Node pos="s" depth="0" NCoef="0" IVar="1" Cut="9.9220977783203125e+01" cType="1" res="5.6020349264144897e-02" rms="4.5090866088867188e-01" purity="4.7690320014953613e-01" nType="0">
        <Node pos="l" depth="1" NCoef="0" IVar="3" Cut="7.1500480175018311e-01" cType="1" res="-4.0327850729227066e-03" rms="4.5850905776023865e-01" purity="3.7311547994613647e-01" nType="0">
          <Node pos="l" depth="2" NCoef="0" IVar="-1" Cut="0.0000000000000000e+00" cType="1" res="9.9239940755069256e-04" rms="4.7237786650657654e-01" purity="6.2066525220870972e-01" nType="-99"/>
          <Node pos="r" depth="2" NCoef="0" IVar="-1" Cut="0.0000000000000000e+00" cType="1" res="-6.9494749186560512e-04" rms="4.4115972518920898e-01" purity="2.9605215787887573e-01" nType="-99"/>
        </Node>
        <Node pos="r" depth="1" NCoef="0" IVar="3" Cut="2.5142142772674561e+00" cType="1" res="1.2818507850170135e-01" rms="4.3066367506980896e-01" purity="6.0162299871444702e-01" nType="0">
          <Node pos="l" depth="2" NCoef="0" IVar="-1" Cut="0.0000000000000000e+00" cType="1" res="9.3741802265867591e-04" rms="4.4278383255004883e-01" purity="7.0180910825729370e-01" nType="-99"/>
          <Node pos="r" depth="2" NCoef="0" IVar="-1" Cut="0.0000000000000000e+00" cType="1" res="-3.0412240885198116e-03" rms="2.8383710980415344e-01" purity="9.7103171050548553e-02" nType="-99"/>
        </Node>
      </Node>
    </BinaryTree>
    <BinaryTree type="DecisionTree" boostWeight="1.0000000000000000e+00" itree="405">
      <Node pos="s" depth="0" NCoef="0" IVar="6" Cut="4.3422763061523438e+02" cType="1" res="9.4114944338798523e-02" rms="4.4333371520042419e-01" purity="5.1867896318435669e-01" nType="0">
        <Node pos="l" depth="1" NCoef="0" IVar="3" Cut="6.3687229156494141e-01" cType="1" res="6.3566140830516815e-02" rms="4.5287239551544189e-01" purity="4.4653788208961487e-01" nType="0">
          <Node pos="l" depth="2" NCoef="0" IVar="-1" Cut="0.0000000000000000e+00" cType="1" res="1.0390814859420061e-03" rms="4.2230671644210815e-01" purity="6.9537597894668579e-01" nType="-99"/>
          <Node pos="r" depth="2" NCoef="0" IVar="-1" Cut="0.0000000000000000e+00" cType="1" res="4.1182129643857479e-04" rms="4.5355933904647827e-01" purity="4.0987780690193176e-01" nType="-99"/>
        </Node>
        <Node pos="r" depth="1" NCoef="0" IVar="5" Cut="1.0339705944061279e+00" cType="1" res="1.7682284116744995e-01" rms="4.0500977635383606e-01" purity="7.1399390697479248e-01" nType="0">
          <Node pos="l" depth="2" NCoef="0" IVar="-1" Cut="0.0000000000000000e+00" cType="1" res="1.3780725421383977e-03" rms="3.8287198543548584e-01" purity="7.7315151691436768e-01" nType="-99"/>
          <Node pos="r" depth="2" NCoef="0" IVar="-1" Cut="0.0000000000000000e+00" cType="1" res="7.1340717840939760e-04" rms="4.0753811597824097e-01" purity="6.8256288766860962e-01" nType="-99"/>
        </Node>
      </Node>
    </BinaryTree>
    <BinaryTree type="DecisionTree" boostWeight="1.0000000000000000e+00" itree="406">
      <Node pos="s" depth="0" NCoef="0" IVar="3" Cut="2.4894378185272217e+00" cType="1" res="9.4449840486049652e-02" rms="4.3997013568878174e-01" purity="5.3086149692535400e-01" nType="0">
        <Node pos="l" depth="1" NCoef="0" IVar="1" Cut="1.1280030822753906e+02" cType="1" res="1.2177394330501556e-01" rms="4.5678934454917908e-01" purity="6.0004806518554688e-01" nType="0">
          <Node pos="l" depth="2" NCoef="0" IVar="-1" Cut="0.0000000000000000e+00" cType="1" res="5.1703630015254021e-04" rms="4.7120946645736694e-01" purity="5.0713616609573364e-01" nType="-99"/>
          <Node pos="r" depth="2" NCoef="0" IVar="-1" Cut="0.0000000000000000e+00" cType="1" res="1.0932170553132892e-03" rms="4.1736608743667603e-01" purity="7.5578612089157104e-01" nType="-99"/>
        </Node>
        <Node pos="r" depth="1" NCoef="0" IVar="5" Cut="1.0415537357330322e+00" cType="1" res="-9.4926744699478149e-02" rms="2.1909034252166748e-01" purity="5.1346439868211746e-02" nType="0">
          <Node pos="l" depth="2" NCoef="0" IVar="-1" Cut="0.0000000000000000e+00" cType="1" res="-1.6484789550304413e-02" rms="6.8371623754501343e-02" purity="0.0000000000000000e+00" nType="-99"/>
          <Node pos="r" depth="2" NCoef="0" IVar="-1" Cut="0.0000000000000000e+00" cType="1" res="-2.0763000939041376e-03" rms="2.9667165875434875e-01" purity="1.0365180671215057e-01" nType="-99"/>
        </Node>
      </Node>
    </BinaryTree>
    <BinaryTree type="DecisionTree" boostWeight="1.0000000000000000e+00" itree="407">
      <Node pos="s" depth="0" NCoef="0" IVar="1" Cut="5.7439575195312500e+01" cType="1" res="5.2913948893547058e-02" rms="4.4310283660888672e-01" purity="4.8133495450019836e-01" nType="0">
        <Node pos="l" depth="1" NCoef="0" IVar="2" Cut="1.7094937133789062e+02" cType="1" res="-2.6963455602526665e-02" rms="4.2394670844078064e-01" purity="3.0116945505142212e-01" nType="0">
          <Node pos="l" depth="2" NCoef="0" IVar="-1" Cut="0.0000000000000000e+00" cType="1" res="2.1178521274123341e-04" rms="4.4588240981101990e-01" purity="3.5862860083580017e-01" nType="-99"/>
          <Node pos="r" depth="2" NCoef="0" IVar="-1" Cut="0.0000000000000000e+00" cType="1" res="-4.0565342642366886e-03" rms="3.0191296339035034e-01" purity="1.1897001415491104e-01" nType="-99"/>
        </Node>
        <Node pos="r" depth="1" NCoef="0" IVar="3" Cut="2.0270190238952637e+00" cType="1" res="7.7704988420009613e-02" rms="4.4598230719566345e-01" purity="5.3725177049636841e-01" nType="0">
          <Node pos="l" depth="2" NCoef="0" IVar="-1" Cut="0.0000000000000000e+00" cType="1" res="6.7630916601046920e-04" rms="4.5230251550674438e-01" purity="6.6417634487152100e-01" nType="-99"/>
          <Node pos="r" depth="2" NCoef="0" IVar="-1" Cut="0.0000000000000000e+00" cType="1" res="-2.4876973475329578e-04" rms="4.1648304462432861e-01" purity="2.3806631565093994e-01" nType="-99"/>
        </Node>
      </Node>
    </BinaryTree>
    <BinaryTree type="DecisionTree" boostWeight="1.0000000000000000e+00" itree="408">
      <Node pos="s" depth="0" NCoef="0" IVar="3" Cut="2.9037289619445801e+00" cType="1" res="8.7433673441410065e-02" rms="4.3661370873451233e-01" purity="5.2048105001449585e-01" nType="0">
        <Node pos="l" depth="1" NCoef="0" IVar="0" Cut="9.4332915544509888e-01" cType="1" res="1.0342907905578613e-01" rms="4.5024114847183228e-01" purity="5.6321901082992554e-01" nType="0">
          <Node pos="l" depth="2" NCoef="0" IVar="-1" Cut="0.0000000000000000e+00" cType="1" res="1.5663799422327429e-04" rms="4.4890123605728149e-01" purity="3.7220042943954468e-01" nType="-99"/>
          <Node pos="r" depth="2" NCoef="0" IVar="-1" Cut="0.0000000000000000e+00" cType="1" res="8.5032940842211246e-04" rms="4.4578480720520020e-01" purity="6.4224845170974731e-01" nType="-99"/>
        </Node>
        <Node pos="r" depth="1" NCoef="0" IVar="-1" Cut="0.0000000000000000e+00" cType="1" res="-1.6058331355452538e-02" rms="4.8849068582057953e-02" purity="0.0000000000000000e+00" nType="-99"/>
      </Node>
    </BinaryTree>
    <BinaryTree type="DecisionTree" boostWeight="1.0000000000000000e+00" itree="409">
      <Node pos="s" depth="0" NCoef="0" IVar="3" Cut="1.9319519996643066e+00" cType="1" res="6.6358178853988647e-02" rms="4.4024017453193665e-01" purity="4.9192765355110168e-01" nType="0">
        <Node pos="l" depth="1" NCoef="0" IVar="0" Cut="9.5434349775314331e-01" cType="1" res="1.0568542778491974e-01" rms="4.5432224869728088e-01" purity="6.0626423358917236e-01" nType="0">
          <Node pos="l" depth="2" NCoef="0" IVar="-1" Cut="0.0000000000000000e+00" cType="1" res="2.5124198873527348e-04" rms="4.7177895903587341e-01" purity="4.5272004604339600e-01" nType="-99"/>
          <Node pos="r" depth="2" NCoef="0" IVar="-1" Cut="0.0000000000000000e+00" cType="1" res="8.8527257321402431e-04" rms="4.3063473701477051e-01" purity="7.3041409254074097e-01" nType="-99"/>
        </Node>
        <Node pos="r" depth="1" NCoef="0" IVar="8" Cut="1.2544103240966797e+02" cType="1" res="-2.8854863718152046e-02" rms="3.8794687390327454e-01" purity="2.1511361002922058e-01" nType="0">
          <Node pos="l" depth="2" NCoef="0" IVar="-1" Cut="0.0000000000000000e+00" cType="1" res="8.1909471191465855e-04" rms="4.4175726175308228e-01" purity="3.0102795362472534e-01" nType="-99"/>
          <Node pos="r" depth="2" NCoef="0" IVar="-1" Cut="0.0000000000000000e+00" cType="1" res="-3.5314341075718403e-03" rms="2.8702220320701599e-01" purity="1.2033216655254364e-01" nType="-99"/>
        </Node>
      </Node>
    </BinaryTree>
    <BinaryTree type="DecisionTree" boostWeight="1.0000000000000000e+00" itree="410">
      <Node pos="s" depth="0" NCoef="0" IVar="1" Cut="3.9865623474121094e+01" cType="1" res="5.3953666239976883e-02" rms="4.5087787508964539e-01" purity="4.7407460212707520e-01" nType="0">
        <Node pos="l" depth="1" NCoef="0" IVar="-1" Cut="0.0000000000000000e+00" cType="1" res="-2.8146978002041578e-03" rms="3.6717039346694946e-01" purity="1.5246935188770294e-01" nType="-99"/>
        <Node pos="r" depth="1" NCoef="0" IVar="0" Cut="9.4251078367233276e-01" cType="1" res="6.9332882761955261e-02" rms="4.5404377579689026e-01" purity="5.0161319971084595e-01" nType="0">
          <Node pos="l" depth="2" NCoef="0" IVar="-1" Cut="0.0000000000000000e+00" cType="1" res="-2.5362835731357336e-04" rms="4.1131669282913208e-01" purity="3.1635460257530212e-01" nType="-99"/>
          <Node pos="r" depth="2" NCoef="0" IVar="-1" Cut="0.0000000000000000e+00" cType="1" res="7.2304782224819064e-04" rms="4.6542274951934814e-01" purity="5.7705330848693848e-01" nType="-99"/>
        </Node>
      </Node>
    </BinaryTree>
    <BinaryTree type="DecisionTree" boostWeight="1.0000000000000000e+00" itree="411">
      <Node pos="s" depth="0" NCoef="0" IVar="7" Cut="1.8827946186065674e+00" cType="1" res="7.3721960186958313e-02" rms="4.2943906784057617e-01" purity="5.1312601566314697e-01" nType="0">
        <Node pos="l" depth="1" NCoef="0" IVar="6" Cut="3.0928817749023438e+02" cType="1" res="1.0817031562328339e-01" rms="4.3125480413436890e-01" purity="5.7631725072860718e-01" nType="0">
          <Node pos="l" depth="2" NCoef="0" IVar="-1" Cut="0.0000000000000000e+00" cType="1" res="1.2545642675831914e-04" rms="4.3206825852394104e-01" purity="3.4722459316253662e-01" nType="-99"/>
          <Node pos="r" depth="2" NCoef="0" IVar="-1" Cut="0.0000000000000000e+00" cType="1" res="8.6630898294970393e-04" rms="4.2262321710586548e-01" purity="6.9098126888275146e-01" nType="-99"/>
        </Node>
        <Node pos="r" depth="1" NCoef="0" IVar="3" Cut="2.9401071071624756e+00" cType="1" res="-9.4824060797691345e-02" rms="3.7756824493408203e-01" purity="2.0394943654537201e-01" nType="0">
          <Node pos="l" depth="2" NCoef="0" IVar="-1" Cut="0.0000000000000000e+00" cType="1" res="-2.1388519089668989e-03" rms="3.8104158639907837e-01" purity="2.3074048757553101e-01" nType="-99"/>
          <Node pos="r" depth="2" NCoef="0" IVar="-1" Cut="0.0000000000000000e+00" cType="1" res="1.1439884547144175e-03" rms="3.3778521418571472e-01" purity="1.4358626306056976e-01" nType="-99"/>
        </Node>
      </Node>
    </BinaryTree>
    <BinaryTree type="DecisionTree" boostWeight="1.0000000000000000e+00" itree="412">
      <Node pos="s" depth="0" NCoef="0" IVar="0" Cut="9.7262322902679443e-01" cType="1" res="7.0542372763156891e-02" rms="4.3838286399841309e-01" purity="5.0430160760879517e-01" nType="0">
        <Node pos="l" depth="1" NCoef="0" IVar="3" Cut="2.3232841491699219e+00" cType="1" res="2.2611556574702263e-02" rms="4.3107557296752930e-01" purity="4.2405834794044495e-01" nType="0">
          <Node pos="l" depth="2" NCoef="0" IVar="-1" Cut="0.0000000000000000e+00" cType="1" res="4.2660025064833462e-04" rms="4.6549451351165771e-01" purity="5.1485919952392578e-01" nType="-99"/>
          <Node pos="r" depth="2" NCoef="0" IVar="-1" Cut="0.0000000000000000e+00" cType="1" res="-1.6868187114596367e-02" rms="8.4356568753719330e-02" purity="0.0000000000000000e+00" nType="-99"/>
        </Node>
        <Node pos="r" depth="1" NCoef="0" IVar="7" Cut="1.6714226007461548e+00" cType="1" res="1.8897469341754913e-01" rms="4.3379187583923340e-01" purity="7.0257490873336792e-01" nType="0">
          <Node pos="l" depth="2" NCoef="0" IVar="-1" Cut="0.0000000000000000e+00" cType="1" res="6.9745013024657965e-04" rms="4.2550274729728699e-01" purity="6.6762304306030273e-01" nType="-99"/>
          <Node pos="r" depth="2" NCoef="0" IVar="-1" Cut="0.0000000000000000e+00" cType="1" res="1.5224333619698882e-03" rms="4.2677375674247742e-01" purity="7.5171625614166260e-01" nType="-99"/>
        </Node>
      </Node>
    </BinaryTree>
    <BinaryTree type="DecisionTree" boostWeight="1.0000000000000000e+00" itree="413">
      <Node pos="s" depth="0" NCoef="0" IVar="3" Cut="1.1308404207229614e+00" cType="1" res="7.8201785683631897e-02" rms="4.4071826338768005e-01" purity="5.1310956478118896e-01" nType="0">
        <Node pos="l" depth="1" NCoef="0" IVar="0" Cut="9.3892157077789307e-01" cType="1" res="1.5410789847373962e-01" rms="4.2537194490432739e-01" purity="6.8034821748733521e-01" nType="0">
          <Node pos="l" depth="2" NCoef="0" IVar="-1" Cut="0.0000000000000000e+00" cType="1" res="-6.6910299938172102e-04" rms="4.1960990428924561e-01" purity="3.6312568187713623e-01" nType="-99"/>
          <Node pos="r" depth="2" NCoef="0" IVar="-1" Cut="0.0000000000000000e+00" cType="1" res="1.0541044175624847e-03" rms="4.1042664647102356e-01" purity="7.5060945749282837e-01" nType="-99"/>
        </Node>
        <Node pos="r" depth="1" NCoef="0" IVar="6" Cut="4.6912573242187500e+02" cType="1" res="3.4048050642013550e-02" rms="4.4346687197685242e-01" purity="4.1582873463630676e-01" nType="0">
          <Node pos="l" depth="2" NCoef="0" IVar="-1" Cut="0.0000000000000000e+00" cType="1" res="3.4960361517732963e-05" rms="4.4270774722099304e-01" purity="3.5683041810989380e-01" nType="-99"/>
          <Node pos="r" depth="2" NCoef="0" IVar="-1" Cut="0.0000000000000000e+00" cType="1" res="9.8275102209299803e-04" rms="4.2350119352340698e-01" purity="6.5941280126571655e-01" nType="-99"/>
        </Node>
      </Node>
    </BinaryTree>
    <BinaryTree type="DecisionTree" boostWeight="1.0000000000000000e+00" itree="414">
      <Node pos="s" depth="0" NCoef="0" IVar="0" Cut="9.5598524808883667e-01" cType="1" res="3.5735338926315308e-02" rms="4.2865893244743347e-01" purity="4.6304023265838623e-01" nType="0">
        <Node pos="l" depth="1" NCoef="0" IVar="1" Cut="9.6587318420410156e+01" cType="1" res="-6.0094919055700302e-02" rms="4.0139502286911011e-01" purity="2.7353543043136597e-01" nType="0">
          <Node pos="l" depth="2" NCoef="0" IVar="-1" Cut="0.0000000000000000e+00" cType="1" res="-2.4407517630606890e-03" rms="3.4781235456466675e-01" purity="1.7068997025489807e-01" nType="-99"/>
          <Node pos="r" depth="2" NCoef="0" IVar="-1" Cut="0.0000000000000000e+00" cType="1" res="1.8137026927433908e-04" rms="4.4057348370552063e-01" purity="3.8869130611419678e-01" nType="-99"/>
        </Node>
        <Node pos="r" depth="1" NCoef="0" IVar="6" Cut="3.1500765991210938e+02" cType="1" res="1.2025063484907150e-01" rms="4.3412557244300842e-01" purity="6.3016968965530396e-01" nType="0">
          <Node pos="l" depth="2" NCoef="0" IVar="-1" Cut="0.0000000000000000e+00" cType="1" res="2.6887730928137898e-04" rms="4.7664007544517517e-01" purity="4.3071302771568298e-01" nType="-99"/>
          <Node pos="r" depth="2" NCoef="0" IVar="-1" Cut="0.0000000000000000e+00" cType="1" res="8.8225345825776458e-04" rms="4.0194669365882874e-01" purity="7.3570698499679565e-01" nType="-99"/>
        </Node>
      </Node>
    </BinaryTree>
    <BinaryTree type="DecisionTree" boostWeight="1.0000000000000000e+00" itree="415">
      <Node pos="s" depth="0" NCoef="0" IVar="3" Cut="1.9243410825729370e+00" cType="1" res="8.4946155548095703e-02" rms="4.3870878219604492e-01" purity="5.1020306348800659e-01" nType="0">
        <Node pos="l" depth="1" NCoef="0" IVar="8" Cut="9.4665969848632812e+01" cType="1" res="1.2518197298049927e-01" rms="4.4884443283081055e-01" purity="6.3107717037200928e-01" nType="0">
          <Node pos="l" depth="2" NCoef="0" IVar="-1" Cut="0.0000000000000000e+00" cType="1" res="-7.0193556894082576e-05" rms="4.5362338423728943e-01" purity="3.6509051918983459e-01" nType="-99"/>
          <Node pos="r" depth="2" NCoef="0" IVar="-1" Cut="0.0000000000000000e+00" cType="1" res="8.2811980973929167e-04" rms="4.4496893882751465e-01" purity="6.6913318634033203e-01" nType="-99"/>
        </Node>
        <Node pos="r" depth="1" NCoef="0" IVar="3" Cut="2.9252953529357910e+00" cType="1" res="-1.1462063528597355e-02" rms="3.9716097712516785e-01" purity="2.2057899832725525e-01" nType="0">
          <Node pos="l" depth="2" NCoef="0" IVar="-1" Cut="0.0000000000000000e+00" cType="1" res="-1.6803005710244179e-03" rms="3.6608085036277771e-01" purity="1.9785495102405548e-01" nType="-99"/>
          <Node pos="r" depth="2" NCoef="0" IVar="-1" Cut="0.0000000000000000e+00" cType="1" res="2.7530901134014130e-03" rms="4.0691313147544861e-01" purity="2.6002719998359680e-01" nType="-99"/>
        </Node>
      </Node>
    </BinaryTree>
    <BinaryTree type="DecisionTree" boostWeight="1.0000000000000000e+00" itree="416">
      <Node pos="s" depth="0" NCoef="0" IVar="1" Cut="1.0109278106689453e+02" cType="1" res="3.9612259715795517e-02" rms="4.4358989596366882e-01" purity="4.5959782600402832e-01" nType="0">
        <Node pos="l" depth="1" NCoef="0" IVar="7" Cut="9.9328106641769409e-01" cType="1" res="-9.5671955496072769e-03" rms="4.4175839424133301e-01" purity="3.7910491228103638e-01" nType="0">
          <Node pos="l" depth="2" NCoef="0" IVar="-1" Cut="0.0000000000000000e+00" cType="1" res="5.0457322504371405e-04" rms="4.4698932766914368e-01" purity="4.7638568282127380e-01" nType="-99"/>
          <Node pos="r" depth="2" NCoef="0" IVar="-1" Cut="0.0000000000000000e+00" cType="1" res="-9.9435355514287949e-04" rms="4.2569583654403687e-01" purity="2.9064133763313293e-01" nType="-99"/>
        </Node>
        <Node pos="r" depth="1" NCoef="0" IVar="7" Cut="1.7461585998535156e+00" cType="1" res="1.0010117292404175e-01" rms="4.3832942843437195e-01" purity="5.5860126018524170e-01" nType="0">
          <Node pos="l" depth="2" NCoef="0" IVar="-1" Cut="0.0000000000000000e+00" cType="1" res="1.0694460943341255e-03" rms="4.2018586397171021e-01" purity="7.4966084957122803e-01" nType="-99"/>
          <Node pos="r" depth="2" NCoef="0" IVar="-1" Cut="0.0000000000000000e+00" cType="1" res="4.5834680349798873e-05" rms="4.3446058034896851e-01" purity="3.7329116463661194e-01" nType="-99"/>
        </Node>
      </Node>
    </BinaryTree>
    <BinaryTree type="DecisionTree" boostWeight="1.0000000000000000e+00" itree="417">
      <Node pos="s" depth="0" NCoef="0" IVar="4" Cut="8.0263644456863403e-01" cType="1" res="6.6692285239696503e-02" rms="4.4872125983238220e-01" purity="4.8678293824195862e-01" nType="0">
        <Node pos="l" depth="1" NCoef="0" IVar="4" Cut="6.8571174144744873e-01" cType="1" res="9.0233542025089264e-02" rms="4.5181035995483398e-01" purity="5.1904517412185669e-01" nType="0">
          <Node pos="l" depth="2" NCoef="0" IVar="-1" Cut="0.0000000000000000e+00" cType="1" res="2.1229854610282928e-04" rms="4.4057807326316833e-01" purity="4.5972138643264771e-01" nType="-99"/>
          <Node pos="r" depth="2" NCoef="0" IVar="-1" Cut="0.0000000000000000e+00" cType="1" res="1.1492790654301643e-03" rms="4.5238849520683289e-01" purity="5.9431689977645874e-01" nType="-99"/>
        </Node>
        <Node pos="r" depth="1" NCoef="0" IVar="-1" Cut="0.0000000000000000e+00" cType="1" res="-6.5965950489044189e-03" rms="2.8330475091934204e-01" purity="9.7210519015789032e-02" nType="-99"/>
      </Node>
    </BinaryTree>
    <BinaryTree type="DecisionTree" boostWeight="1.0000000000000000e+00" itree="418">
      <Node pos="s" depth="0" NCoef="0" IVar="3" Cut="9.0211814641952515e-01" cType="1" res="4.8282671719789505e-02" rms="4.4168695807456970e-01" purity="4.6583747863769531e-01" nType="0">
        <Node pos="l" depth="1" NCoef="0" IVar="1" Cut="4.6092388153076172e+01" cType="1" res="1.6019919514656067e-01" rms="4.2937695980072021e-01" purity="6.8270057439804077e-01" nType="0">
          <Node pos="l" depth="2" NCoef="0" IVar="-1" Cut="0.0000000000000000e+00" cType="1" res="-6.4935479713312816e-06" rms="4.1011866927146912e-01" purity="4.2427948117256165e-01" nType="-99"/>
          <Node pos="r" depth="2" NCoef="0" IVar="-1" Cut="0.0000000000000000e+00" cType="1" res="1.0639100801199675e-03" rms="4.2317304015159607e-01" purity="7.6055538654327393e-01" nType="-99"/>
        </Node>
        <Node pos="r" depth="1" NCoef="0" IVar="8" Cut="1.5661126708984375e+02" cType="1" res="1.0134834796190262e-02" rms="4.3933781981468201e-01" purity="3.9191758632659912e-01" nType="0">
          <Node pos="l" depth="2" NCoef="0" IVar="-1" Cut="0.0000000000000000e+00" cType="1" res="3.3647136297076941e-04" rms="4.4907107949256897e-01" purity="4.2411527037620544e-01" nType="-99"/>
          <Node pos="r" depth="2" NCoef="0" IVar="-1" Cut="0.0000000000000000e+00" cType="1" res="-3.4529634285718203e-03" rms="3.0335235595703125e-01" purity="1.6733136773109436e-01" nType="-99"/>
        </Node>
      </Node>
    </BinaryTree>
    <BinaryTree type="DecisionTree" boostWeight="1.0000000000000000e+00" itree="419">
      <Node pos="s" depth="0" NCoef="0" IVar="3" Cut="7.3832362890243530e-01" cType="1" res="4.5729581266641617e-02" rms="4.3926164507865906e-01" purity="4.7000414133071899e-01" nType="0">
        <Node pos="l" depth="1" NCoef="0" IVar="8" Cut="1.1169055938720703e+02" cType="1" res="1.9766412675380707e-01" rms="4.3758958578109741e-01" purity="7.0484495162963867e-01" nType="0">
          <Node pos="l" depth="2" NCoef="0" IVar="-1" Cut="0.0000000000000000e+00" cType="1" res="1.5398672549054027e-03" rms="4.1088297963142395e-01" purity="7.5045883655548096e-01" nType="-99"/>
          <Node pos="r" depth="2" NCoef="0" IVar="-1" Cut="0.0000000000000000e+00" cType="1" res="4.9879576545208693e-04" rms="4.3835595250129700e-01" purity="6.5469986200332642e-01" nType="-99"/>
        </Node>
        <Node pos="r" depth="1" NCoef="0" IVar="5" Cut="1.2694340944290161e+00" cType="1" res="1.1539340950548649e-02" rms="4.3233907222747803e-01" purity="4.1715726256370544e-01" nType="0">
          <Node pos="l" depth="2" NCoef="0" IVar="-1" Cut="0.0000000000000000e+00" cType="1" res="-5.3670775378122926e-04" rms="4.0700310468673706e-01" purity="3.2681849598884583e-01" nType="-99"/>
          <Node pos="r" depth="2" NCoef="0" IVar="-1" Cut="0.0000000000000000e+00" cType="1" res="5.5774929933249950e-04" rms="4.4864591956138611e-01" purity="5.0931602716445923e-01" nType="-99"/>
        </Node>
      </Node>
    </BinaryTree>
    <BinaryTree type="DecisionTree" boostWeight="1.0000000000000000e+00" itree="420">
      <Node pos="s" depth="0" NCoef="0" IVar="6" Cut="3.2337899780273438e+02" cType="1" res="7.9755097627639771e-02" rms="4.4710031151771545e-01" purity="5.0819247961044312e-01" nType="0">
        <Node pos="l" depth="1" NCoef="0" IVar="5" Cut="1.0533019304275513e+00" cType="1" res="1.5348359011113644e-02" rms="4.3387636542320251e-01" purity="3.4228286147117615e-01" nType="0">
          <Node pos="l" depth="2" NCoef="0" IVar="-1" Cut="0.0000000000000000e+00" cType="1" res="-2.0201436709612608e-03" rms="3.6831277608871460e-01" purity="1.6580703854560852e-01" nType="-99"/>
          <Node pos="r" depth="2" NCoef="0" IVar="-1" Cut="0.0000000000000000e+00" cType="1" res="5.7004997506737709e-04" rms="4.4968026876449585e-01" purity="4.1318878531455994e-01" nType="-99"/>
        </Node>
        <Node pos="r" depth="1" NCoef="0" IVar="7" Cut="1.1829414367675781e+00" cType="1" res="1.2629154324531555e-01" rms="4.5072537660598755e-01" purity="6.2806886434555054e-01" nType="0">
          <Node pos="l" depth="2" NCoef="0" IVar="-1" Cut="0.0000000000000000e+00" cType="1" res="1.0699883569031954e-03" rms="4.1726636886596680e-01" purity="7.1594637632369995e-01" nType="-99"/>
          <Node pos="r" depth="2" NCoef="0" IVar="-1" Cut="0.0000000000000000e+00" cType="1" res="5.1727873506024480e-04" rms="4.6696019172668457e-01" purity="5.6357508897781372e-01" nType="-99"/>
        </Node>
      </Node>
    </BinaryTree>
    <BinaryTree type="DecisionTree" boostWeight="1.0000000000000000e+00" itree="421">
      <Node pos="s" depth="0" NCoef="0" IVar="3" Cut="1.4357266426086426e+00" cType="1" res="8.3989314734935760e-02" rms="4.4647106528282166e-01" purity="5.0587952136993408e-01" nType="0">
        <Node pos="l" depth="1" NCoef="0" IVar="8" Cut="1.3986915588378906e+02" cType="1" res="1.4029788970947266e-01" rms="4.5663228631019592e-01" purity="6.4458811283111572e-01" nType="0">
          <Node pos="l" depth="2" NCoef="0" IVar="-1" Cut="0.0000000000000000e+00" cType="1" res="9.9297903943806887e-04" rms="4.4704020023345947e-01" purity="6.6692173480987549e-01" nType="-99"/>
          <Node pos="r" depth="2" NCoef="0" IVar="-1" Cut="0.0000000000000000e+00" cType="1" res="-1.8955227278638631e-04" rms="4.7138401865959167e-01" purity="5.2591103315353394e-01" nType="-99"/>
        </Node>
        <Node pos="r" depth="1" NCoef="0" IVar="0" Cut="9.6977138519287109e-01" cType="1" res="2.8099989518523216e-02" rms="4.2890262603759766e-01" purity="3.6820372939109802e-01" nType="0">
          <Node pos="l" depth="2" NCoef="0" IVar="-1" Cut="0.0000000000000000e+00" cType="1" res="-4.8444393905811012e-04" rms="4.0299209952354431e-01" purity="2.5519439578056335e-01" nType="-99"/>
          <Node pos="r" depth="2" NCoef="0" IVar="-1" Cut="0.0000000000000000e+00" cType="1" res="1.0136750061064959e-03" rms="4.5314863324165344e-01" purity="6.2464594841003418e-01" nType="-99"/>
        </Node>
      </Node>
    </BinaryTree>
    <BinaryTree type="DecisionTree" boostWeight="1.0000000000000000e+00" itree="422">
      <Node pos="s" depth="0" NCoef="0" IVar="6" Cut="3.4401223754882812e+02" cType="1" res="7.9264461994171143e-02" rms="4.5462405681610107e-01" purity="5.0301039218902588e-01" nType="0">
        <Node pos="l" depth="1" NCoef="0" IVar="6" Cut="2.4003775024414062e+02" cType="1" res="1.8688689917325974e-02" rms="4.4405314326286316e-01" purity="3.5721510648727417e-01" nType="0">
          <Node pos="l" depth="2" NCoef="0" IVar="-1" Cut="0.0000000000000000e+00" cType="1" res="1.6534893075004220e-03" rms="4.4788369536399841e-01" purity="3.9686012268066406e-01" nType="-99"/>
          <Node pos="r" depth="2" NCoef="0" IVar="-1" Cut="0.0000000000000000e+00" cType="1" res="-3.5623353323899209e-04" rms="4.3213650584220886e-01" purity="3.4187370538711548e-01" nType="-99"/>
        </Node>
        <Node pos="r" depth="1" NCoef="0" IVar="3" Cut="2.6668419837951660e+00" cType="1" res="1.3608345389366150e-01" rms="4.5708149671554565e-01" purity="6.3976377248764038e-01" nType="0">
          <Node pos="l" depth="2" NCoef="0" IVar="-1" Cut="0.0000000000000000e+00" cType="1" res="6.6529662581160665e-04" rms="4.4820684194564819e-01" purity="6.5980386734008789e-01" nType="-99"/>
          <Node pos="r" depth="2" NCoef="0" IVar="-1" Cut="0.0000000000000000e+00" cType="1" res="3.8723482284694910e-03" rms="4.9118643999099731e-01" purity="4.7595036029815674e-01" nType="-99"/>
        </Node>
      </Node>
    </BinaryTree>
    <BinaryTree type="DecisionTree" boostWeight="1.0000000000000000e+00" itree="423">
      <Node pos="s" depth="0" NCoef="0" IVar="4" Cut="7.8576982021331787e-01" cType="1" res="1.0209931433200836e-01" rms="4.4523361325263977e-01" purity="5.3234034776687622e-01" nType="0">
        <Node pos="l" depth="1" NCoef="0" IVar="0" Cut="9.5470076799392700e-01" cType="1" res="1.2037393450737000e-01" rms="4.4722288846969604e-01" purity="5.6156593561172485e-01" nType="0">
          <Node pos="l" depth="2" NCoef="0" IVar="-1" Cut="0.0000000000000000e+00" cType="1" res="5.2128697279840708e-04" rms="4.4337815046310425e-01" purity="4.3132549524307251e-01" nType="-99"/>
          <Node pos="r" depth="2" NCoef="0" IVar="-1" Cut="0.0000000000000000e+00" cType="1" res="1.0008071549236774e-03" rms="4.4434735178947449e-01" purity="6.7480367422103882e-01" nType="-99"/>
        </Node>
        <Node pos="r" depth="1" NCoef="0" IVar="7" Cut="1.2623803615570068e+00" cType="1" res="-5.7427521795034409e-02" rms="3.9290070533752441e-01" purity="2.7721777558326721e-01" nType="0">
          <Node pos="l" depth="2" NCoef="0" IVar="-1" Cut="0.0000000000000000e+00" cType="1" res="6.1135605210438371e-04" rms="4.3897554278373718e-01" purity="4.0685063600540161e-01" nType="-99"/>
          <Node pos="r" depth="2" NCoef="0" IVar="-1" Cut="0.0000000000000000e+00" cType="1" res="-3.8554815109819174e-03" rms="2.9112032055854797e-01" purity="1.3869909942150116e-01" nType="-99"/>
        </Node>
      </Node>
    </BinaryTree>
    <BinaryTree type="DecisionTree" boostWeight="1.0000000000000000e+00" itree="424">
      <Node pos="s" depth="0" NCoef="0" IVar="0" Cut="9.4586271047592163e-01" cType="1" res="4.9379881471395493e-02" rms="4.4307529926300049e-01" purity="4.7077944874763489e-01" nType="0">
        <Node pos="l" depth="1" NCoef="0" IVar="0" Cut="9.3668520450592041e-01" cType="1" res="-3.7906840443611145e-02" rms="3.9920973777770996e-01" purity="2.8311306238174438e-01" nType="0">
          <Node pos="l" depth="2" NCoef="0" IVar="-1" Cut="0.0000000000000000e+00" cType="1" res="1.8905366596300155e-04" rms="4.1009101271629333e-01" purity="3.4485885500907898e-01" nType="-99"/>
          <Node pos="r" depth="2" NCoef="0" IVar="-1" Cut="0.0000000000000000e+00" cType="1" res="-8.5191326215863228e-03" rms="2.9133516550064087e-01" purity="7.7243059873580933e-02" nType="-99"/>
        </Node>
        <Node pos="r" depth="1" NCoef="0" IVar="8" Cut="1.3452723693847656e+02" cType="1" res="9.6977189183235168e-02" rms="4.5830440521240234e-01" purity="5.7311367988586426e-01" nType="0">
          <Node pos="l" depth="2" NCoef="0" IVar="-1" Cut="0.0000000000000000e+00" cType="1" res="9.1888743918389082e-04" rms="4.5462870597839355e-01" purity="6.2458783388137817e-01" nType="-99"/>
          <Node pos="r" depth="2" NCoef="0" IVar="-1" Cut="0.0000000000000000e+00" cType="1" res="-2.1946389460936189e-04" rms="4.4705113768577576e-01" purity="4.2604288458824158e-01" nType="-99"/>
        </Node>
      </Node>
    </BinaryTree>
    <BinaryTree type="DecisionTree" boostWeight="1.0000000000000000e+00" itree="425">
      <Node pos="s" depth="0" NCoef="0" IVar="3" Cut="1.1092101335525513e+00" cType="1" res="8.5165388882160187e-02" rms="4.3716913461685181e-01" purity="5.2100646495819092e-01" nType="0">
        <Node pos="l" depth="1" NCoef="0" IVar="6" Cut="3.2644586181640625e+02" cType="1" res="1.6366299986839294e-01" rms="4.0685120224952698e-01" purity="7.1404767036437988e-01" nType="0">
          <Node pos="l" depth="2" NCoef="0" IVar="-1" Cut="0.0000000000000000e+00" cType="1" res="-7.4927636887878180e-05" rms="4.5249009132385254e-01" purity="4.1478177905082703e-01" nType="-99"/>
          <Node pos="r" depth="2" NCoef="0" IVar="-1" Cut="0.0000000000000000e+00" cType="1" res="1.1192921083420515e-03" rms="3.6763590574264526e-01" purity="8.2765322923660278e-01" nType="-99"/>
        </Node>
        <Node pos="r" depth="1" NCoef="0" IVar="2" Cut="2.4305863952636719e+02" cType="1" res="4.2028944939374924e-02" rms="4.4713729619979858e-01" purity="4.1492539644241333e-01" nType="0">
          <Node pos="l" depth="2" NCoef="0" IVar="-1" Cut="0.0000000000000000e+00" cType="1" res="7.6266104588285089e-04" rms="4.6145829558372498e-01" purity="4.8381310701370239e-01" nType="-99"/>
          <Node pos="r" depth="2" NCoef="0" IVar="-1" Cut="0.0000000000000000e+00" cType="1" res="-1.0694428347051144e-03" rms="3.8973245024681091e-01" purity="2.6380324363708496e-01" nType="-99"/>
        </Node>
      </Node>
    </BinaryTree>
    <BinaryTree type="DecisionTree" boostWeight="1.0000000000000000e+00" itree="426">
      <Node pos="s" depth="0" NCoef="0" IVar="0" Cut="9.6004843711853027e-01" cType="1" res="7.0565171539783478e-02" rms="4.4438084959983826e-01" purity="4.9536252021789551e-01" nType="0">
        <Node pos="l" depth="1" NCoef="0" IVar="5" Cut="8.8913339376449585e-01" cType="1" res="2.6530971750617027e-02" rms="4.4839298725128174e-01" purity="3.7276637554168701e-01" nType="0">
          <Node pos="l" depth="2" NCoef="0" IVar="-1" Cut="0.0000000000000000e+00" cType="1" res="1.5142041957005858e-03" rms="4.7499358654022217e-01" purity="4.4313278794288635e-01" nType="-99"/>
          <Node pos="r" depth="2" NCoef="0" IVar="-1" Cut="0.0000000000000000e+00" cType="1" res="-2.8569431378855370e-05" rms="4.3698650598526001e-01" purity="3.5800108313560486e-01" nType="-99"/>
        </Node>
        <Node pos="r" depth="1" NCoef="0" IVar="5" Cut="1.0399812459945679e+00" cType="1" res="1.2655381858348846e-01" rms="4.3280458450317383e-01" purity="6.5124118328094482e-01" nType="0">
          <Node pos="l" depth="2" NCoef="0" IVar="-1" Cut="0.0000000000000000e+00" cType="1" res="9.8846241598948836e-05" rms="4.6490949392318726e-01" purity="4.8707675933837891e-01" nType="-99"/>
          <Node pos="r" depth="2" NCoef="0" IVar="-1" Cut="0.0000000000000000e+00" cType="1" res="9.3241955619305372e-04" rms="4.1540849208831787e-01" purity="7.0390492677688599e-01" nType="-99"/>
        </Node>
      </Node>
    </BinaryTree>
    <BinaryTree type="DecisionTree" boostWeight="1.0000000000000000e+00" itree="427">
      <Node pos="s" depth="0" NCoef="0" IVar="0" Cut="9.2541271448135376e-01" cType="1" res="6.4260743558406830e-02" rms="4.3554672598838806e-01" purity="5.0491303205490112e-01" nType="0">
        <Node pos="l" depth="1" NCoef="0" IVar="7" Cut="1.6768469810485840e+00" cType="1" res="-1.0508717596530914e-01" rms="3.6028683185577393e-01" purity="1.7718657851219177e-01" nType="0">
          <Node pos="l" depth="2" NCoef="0" IVar="-1" Cut="0.0000000000000000e+00" cType="1" res="-8.5257850587368011e-03" rms="2.2902303934097290e-01" purity="5.6394174695014954e-02" nType="-99"/>
          <Node pos="r" depth="2" NCoef="0" IVar="-1" Cut="0.0000000000000000e+00" cType="1" res="6.5098115010187030e-04" rms="4.1814839839935303e-01" purity="3.2272669672966003e-01" nType="-99"/>
        </Node>
        <Node pos="r" depth="1" NCoef="0" IVar="3" Cut="2.1401152610778809e+00" cType="1" res="8.6263626813888550e-02" rms="4.3962776660919189e-01" purity="5.4749357700347900e-01" nType="0">
          <Node pos="l" depth="2" NCoef="0" IVar="-1" Cut="0.0000000000000000e+00" cType="1" res="6.9447181886062026e-04" rms="4.5150098204612732e-01" purity="6.4065140485763550e-01" nType="-99"/>
          <Node pos="r" depth="2" NCoef="0" IVar="-1" Cut="0.0000000000000000e+00" cType="1" res="-2.6441592490300536e-04" rms="3.7842383980751038e-01" purity="2.2454845905303955e-01" nType="-99"/>
        </Node>
      </Node>
    </BinaryTree>
    <BinaryTree type="DecisionTree" boostWeight="1.0000000000000000e+00" itree="428">
      <Node pos="s" depth="0" NCoef="0" IVar="8" Cut="1.0221424102783203e+02" cType="1" res="4.2889334261417389e-02" rms="4.3631204962730408e-01" purity="4.7833120822906494e-01" nType="0">
        <Node pos="l" depth="1" NCoef="0" IVar="6" Cut="3.6441442871093750e+02" cType="1" res="-9.1159470379352570e-02" rms="4.0357968211174011e-01" purity="2.7026963233947754e-01" nType="0">
          <Node pos="l" depth="2" NCoef="0" IVar="-1" Cut="0.0000000000000000e+00" cType="1" res="-3.3425174187868834e-03" rms="3.3957007527351379e-01" purity="1.3934080302715302e-01" nType="-99"/>
          <Node pos="r" depth="2" NCoef="0" IVar="-1" Cut="0.0000000000000000e+00" cType="1" res="1.2079942825948820e-04" rms="4.7237884998321533e-01" purity="4.8724284768104553e-01" nType="-99"/>
        </Node>
        <Node pos="r" depth="1" NCoef="0" IVar="3" Cut="1.4649758338928223e+00" cType="1" res="7.3874756693840027e-02" rms="4.3773192167282104e-01" purity="5.2642470598220825e-01" nType="0">
          <Node pos="l" depth="2" NCoef="0" IVar="-1" Cut="0.0000000000000000e+00" cType="1" res="7.6963822357356548e-04" rms="4.2044356465339661e-01" purity="7.0914494991302490e-01" nType="-99"/>
          <Node pos="r" depth="2" NCoef="0" IVar="-1" Cut="0.0000000000000000e+00" cType="1" res="1.0794025001814589e-04" rms="4.4448921084403992e-01" purity="3.4922087192535400e-01" nType="-99"/>
        </Node>
      </Node>
    </BinaryTree>
    <BinaryTree type="DecisionTree" boostWeight="1.0000000000000000e+00" itree="429">
      <Node pos="s" depth="0" NCoef="0" IVar="1" Cut="6.0619277954101562e+01" cType="1" res="7.6900422573089600e-02" rms="4.3555644154548645e-01" purity="5.1309585571289062e-01" nType="0">
        <Node pos="l" depth="1" NCoef="0" IVar="0" Cut="9.6935296058654785e-01" cType="1" res="-1.8334338441491127e-02" rms="4.1209962964057922e-01" purity="3.4503173828125000e-01" nType="0">
          <Node pos="l" depth="2" NCoef="0" IVar="-1" Cut="0.0000000000000000e+00" cType="1" res="-1.9605788402259350e-03" rms="3.6447101831436157e-01" purity="1.8674078583717346e-01" nType="-99"/>
          <Node pos="r" depth="2" NCoef="0" IVar="-1" Cut="0.0000000000000000e+00" cType="1" res="8.3387771155685186e-04" rms="4.4326394796371460e-01" purity="6.2943780422210693e-01" nType="-99"/>
        </Node>
        <Node pos="r" depth="1" NCoef="0" IVar="7" Cut="1.6125187873840332e+00" cType="1" res="1.0631248354911804e-01" rms="4.3838796019554138e-01" purity="5.6500035524368286e-01" nType="0">
          <Node pos="l" depth="2" NCoef="0" IVar="-1" Cut="0.0000000000000000e+00" cType="1" res="9.3950715381652117e-04" rms="4.2608445882797241e-01" purity="6.8485134840011597e-01" nType="-99"/>
          <Node pos="r" depth="2" NCoef="0" IVar="-1" Cut="0.0000000000000000e+00" cType="1" res="3.0082391458563507e-04" rms="4.4343292713165283e-01" purity="4.0486431121826172e-01" nType="-99"/>
        </Node>
      </Node>
    </BinaryTree>
    <BinaryTree type="DecisionTree" boostWeight="1.0000000000000000e+00" itree="430">
      <Node pos="s" depth="0" NCoef="0" IVar="3" Cut="1.1738417148590088e+00" cType="1" res="6.2973588705062866e-02" rms="4.3790012598037720e-01" purity="4.9157151579856873e-01" nType="0">
        <Node pos="l" depth="1" NCoef="0" IVar="6" Cut="2.9051971435546875e+02" cType="1" res="1.5420699119567871e-01" rms="4.3331965804100037e-01" purity="6.7266851663589478e-01" nType="0">
          <Node pos="l" depth="2" NCoef="0" IVar="-1" Cut="0.0000000000000000e+00" cType="1" res="4.4482116936706007e-04" rms="4.5357388257980347e-01" purity="4.3730887770652771e-01" nType="-99"/>
          <Node pos="r" depth="2" NCoef="0" IVar="-1" Cut="0.0000000000000000e+00" cType="1" res="9.6246798057109118e-04" rms="4.2116352915763855e-01" purity="7.4855899810791016e-01" nType="-99"/>
        </Node>
        <Node pos="r" depth="1" NCoef="0" IVar="0" Cut="9.8160630464553833e-01" cType="1" res="2.3306450748350471e-04" rms="4.2993068695068359e-01" purity="3.6703252792358398e-01" nType="0">
          <Node pos="l" depth="2" NCoef="0" IVar="-1" Cut="0.0000000000000000e+00" cType="1" res="-3.8517068605870008e-04" rms="4.2111942172050476e-01" purity="3.0872774124145508e-01" nType="-99"/>
          <Node pos="r" depth="2" NCoef="0" IVar="-1" Cut="0.0000000000000000e+00" cType="1" res="9.5003453316166997e-04" rms="4.3721070885658264e-01" purity="6.5874701738357544e-01" nType="-99"/>
        </Node>
      </Node>
    </BinaryTree>
    <BinaryTree type="DecisionTree" boostWeight="1.0000000000000000e+00" itree="431">
      <Node pos="s" depth="0" NCoef="0" IVar="0" Cut="9.4164782762527466e-01" cType="1" res="8.3328001201152802e-02" rms="4.5272293686866760e-01" purity="5.0333881378173828e-01" nType="0">
        <Node pos="l" depth="1" NCoef="0" IVar="0" Cut="9.3169081211090088e-01" cType="1" res="-5.4058390669524670e-03" rms="4.3781673908233643e-01" purity="3.0455359816551208e-01" nType="0">
          <Node pos="l" depth="2" NCoef="0" IVar="-1" Cut="0.0000000000000000e+00" cType="1" res="5.3279468556866050e-04" rms="4.5181253552436829e-01" purity="3.5000190138816833e-01" nType="-99"/>
          <Node pos="r" depth="2" NCoef="0" IVar="-1" Cut="0.0000000000000000e+00" cType="1" res="-2.4680213537067175e-03" rms="3.6431819200515747e-01" purity="1.8601067364215851e-01" nType="-99"/>
        </Node>
        <Node pos="r" depth="1" NCoef="0" IVar="4" Cut="5.6326335668563843e-01" cType="1" res="1.1891449987888336e-01" rms="4.5371541380882263e-01" purity="5.8306115865707397e-01" nType="0">
          <Node pos="l" depth="2" NCoef="0" IVar="-1" Cut="0.0000000000000000e+00" cType="1" res="-4.3936137808486819e-04" rms="4.0259760618209839e-01" purity="4.4013389945030212e-01" nType="-99"/>
          <Node pos="r" depth="2" NCoef="0" IVar="-1" Cut="0.0000000000000000e+00" cType="1" res="8.9511077385395765e-04" rms="4.5499506592750549e-01" purity="5.9605830907821655e-01" nType="-99"/>
        </Node>
      </Node>
    </BinaryTree>
    <BinaryTree type="DecisionTree" boostWeight="1.0000000000000000e+00" itree="432">
      <Node pos="s" depth="0" NCoef="0" IVar="8" Cut="1.2828028869628906e+02" cType="1" res="5.3142659366130829e-02" rms="4.3878376483917236e-01" purity="4.8651328682899475e-01" nType="0">
        <Node pos="l" depth="1" NCoef="0" IVar="2" Cut="1.5560371398925781e+02" cType="1" res="9.8158396780490875e-02" rms="4.3752416968345642e-01" purity="5.3994804620742798e-01" nType="0">
          <Node pos="l" depth="2" NCoef="0" IVar="-1" Cut="0.0000000000000000e+00" cType="1" res="1.0781385935842991e-03" rms="4.5338115096092224e-01" purity="5.8797085285186768e-01" nType="-99"/>
          <Node pos="r" depth="2" NCoef="0" IVar="-1" Cut="0.0000000000000000e+00" cType="1" res="2.7600105386227369e-04" rms="4.1254365444183350e-01" purity="4.9558570981025696e-01" nType="-99"/>
        </Node>
        <Node pos="r" depth="1" NCoef="0" IVar="6" Cut="4.4080828857421875e+02" cType="1" res="-3.0716557055711746e-02" rms="4.2869579792022705e-01" purity="3.8697049021720886e-01" nType="0">
          <Node pos="l" depth="2" NCoef="0" IVar="-1" Cut="0.0000000000000000e+00" cType="1" res="-1.1728524696081877e-03" rms="3.9879223704338074e-01" purity="2.7847200632095337e-01" nType="-99"/>
          <Node pos="r" depth="2" NCoef="0" IVar="-1" Cut="0.0000000000000000e+00" cType="1" res="5.2146450616419315e-04" rms="4.5785787701606750e-01" purity="5.7799619436264038e-01" nType="-99"/>
        </Node>
      </Node>
    </BinaryTree>
    <BinaryTree type="DecisionTree" boostWeight="1.0000000000000000e+00" itree="433">
      <Node pos="s" depth="0" NCoef="0" IVar="5" Cut="8.0824518203735352e-01" cType="1" res="2.2214384749531746e-02" rms="4.4969004392623901e-01" purity="4.2967459559440613e-01" nType="0">
        <Node pos="l" depth="1" NCoef="0" IVar="-1" Cut="0.0000000000000000e+00" cType="1" res="1.4556639362126589e-03" rms="4.8672348260879517e-01" purity="5.0816130638122559e-01" nType="-99"/>
        <Node pos="r" depth="1" NCoef="0" IVar="0" Cut="9.5706349611282349e-01" cType="1" res="5.5938055738806725e-03" rms="4.4231042265892029e-01" purity="4.2117467522621155e-01" nType="0">
          <Node pos="l" depth="2" NCoef="0" IVar="-1" Cut="0.0000000000000000e+00" cType="1" res="-6.3491467153653502e-04" rms="4.1984701156616211e-01" purity="2.7691891789436340e-01" nType="-99"/>
          <Node pos="r" depth="2" NCoef="0" IVar="-1" Cut="0.0000000000000000e+00" cType="1" res="4.0976866148412228e-04" rms="4.5739346742630005e-01" purity="5.6596606969833374e-01" nType="-99"/>
        </Node>
      </Node>
    </BinaryTree>
    <BinaryTree type="DecisionTree" boostWeight="1.0000000000000000e+00" itree="434">
      <Node pos="s" depth="0" NCoef="0" IVar="6" Cut="2.7032995605468750e+02" cType="1" res="9.4896189868450165e-02" rms="4.3944895267486572e-01" purity="5.2631264925003052e-01" nType="0">
        <Node pos="l" depth="1" NCoef="0" IVar="6" Cut="2.4257049560546875e+02" cType="1" res="-1.0574282705783844e-01" rms="3.3143985271453857e-01" purity="1.6023141145706177e-01" nType="0">
          <Node pos="l" depth="2" NCoef="0" IVar="-1" Cut="0.0000000000000000e+00" cType="1" res="-9.4320432981476188e-04" rms="3.4622868895530701e-01" purity="1.8682672083377838e-01" nType="-99"/>
          <Node pos="r" depth="2" NCoef="0" IVar="-1" Cut="0.0000000000000000e+00" cType="1" res="-5.3957062773406506e-03" rms="2.7870804071426392e-01" purity="1.1362190544605255e-01" nType="-99"/>
        </Node>
        <Node pos="r" depth="1" NCoef="0" IVar="7" Cut="2.2197806835174561e+00" cType="1" res="1.3726520538330078e-01" rms="4.4766286015510559e-01" purity="6.0361814498901367e-01" nType="0">
          <Node pos="l" depth="2" NCoef="0" IVar="-1" Cut="0.0000000000000000e+00" cType="1" res="9.4922928838059306e-04" rms="4.5291700959205627e-01" purity="6.3560050725936890e-01" nType="-99"/>
          <Node pos="r" depth="2" NCoef="0" IVar="-1" Cut="0.0000000000000000e+00" cType="1" res="-1.3262000866234303e-03" rms="3.0754637718200684e-01" purity="1.8699195981025696e-01" nType="-99"/>
        </Node>
      </Node>
    </BinaryTree>
    <BinaryTree type="DecisionTree" boostWeight="1.0000000000000000e+00" itree="435">
      <Node pos="s" depth="0" NCoef="0" IVar="1" Cut="3.3572765350341797e+01" cType="1" res="9.7345739603042603e-02" rms="4.4335013628005981e-01" purity="5.2884143590927124e-01" nType="0">
        <Node pos="l" depth="1" NCoef="0" IVar="-1" Cut="0.0000000000000000e+00" cType="1" res="-5.7949735783040524e-03" rms="3.0115973949432373e-01" purity="8.0647893249988556e-02" nType="-99"/>
        <Node pos="r" depth="1" NCoef="0" IVar="3" Cut="1.3015580177307129e+00" cType="1" res="1.1057074368000031e-01" rms="4.4511732459068298e-01" purity="5.5112373828887939e-01" nType="0">
          <Node pos="l" depth="2" NCoef="0" IVar="-1" Cut="0.0000000000000000e+00" cType="1" res="9.5580931520089507e-04" rms="4.3474578857421875e-01" purity="7.1726745367050171e-01" nType="-99"/>
          <Node pos="r" depth="2" NCoef="0" IVar="-1" Cut="0.0000000000000000e+00" cType="1" res="5.6161690736189485e-04" rms="4.4624644517898560e-01" purity="4.3029484152793884e-01" nType="-99"/>
        </Node>
      </Node>
    </BinaryTree>
    <BinaryTree type="DecisionTree" boostWeight="1.0000000000000000e+00" itree="436">
      <Node pos="s" depth="0" NCoef="0" IVar="5" Cut="9.4939321279525757e-01" cType="1" res="8.0107055604457855e-02" rms="4.4639480113983154e-01" purity="5.1151871681213379e-01" nType="0">
        <Node pos="l" depth="1" NCoef="0" IVar="0" Cut="9.6974736452102661e-01" cType="1" res="1.5402252972126007e-01" rms="4.4712290167808533e-01" purity="5.5314564704895020e-01" nType="0">
          <Node pos="l" depth="2" NCoef="0" IVar="-1" Cut="0.0000000000000000e+00" cType="1" res="1.4072563499212265e-03" rms="4.2620736360549927e-01" purity="5.7256543636322021e-01" nType="-99"/>
          <Node pos="r" depth="2" NCoef="0" IVar="-1" Cut="0.0000000000000000e+00" cType="1" res="7.8120880061760545e-05" rms="4.7810333967208862e-01" purity="4.9356064200401306e-01" nType="-99"/>
        </Node>
        <Node pos="r" depth="1" NCoef="0" IVar="3" Cut="1.1012899875640869e+00" cType="1" res="5.4717250168323517e-02" rms="4.4330972433090210e-01" purity="4.9721997976303101e-01" nType="0">
          <Node pos="l" depth="2" NCoef="0" IVar="-1" Cut="0.0000000000000000e+00" cType="1" res="7.0801429683342576e-04" rms="4.4210425019264221e-01" purity="6.3749241828918457e-01" nType="-99"/>
          <Node pos="r" depth="2" NCoef="0" IVar="-1" Cut="0.0000000000000000e+00" cType="1" res="1.7683935584500432e-04" rms="4.3998545408248901e-01" purity="4.1672646999359131e-01" nType="-99"/>
        </Node>
      </Node>
    </BinaryTree>
    <BinaryTree type="DecisionTree" boostWeight="1.0000000000000000e+00" itree="437">
      <Node pos="s" depth="0" NCoef="0" IVar="8" Cut="8.3511047363281250e+01" cType="1" res="7.0308841764926910e-02" rms="4.4237205386161804e-01" purity="5.0322645902633667e-01" nType="0">
        <Node pos="l" depth="1" NCoef="0" IVar="-1" Cut="0.0000000000000000e+00" cType="1" res="-3.7668009754270315e-03" rms="2.8414449095726013e-01" purity="1.4490512013435364e-01" nType="-99"/>
        <Node pos="r" depth="1" NCoef="0" IVar="0" Cut="9.7825717926025391e-01" cType="1" res="8.8594518601894379e-02" rms="4.4659930467605591e-01" purity="5.2995467185974121e-01" nType="0">
          <Node pos="l" depth="2" NCoef="0" IVar="-1" Cut="0.0000000000000000e+00" cType="1" res="4.7314795665442944e-04" rms="4.5642188191413879e-01" purity="4.5795497298240662e-01" nType="-99"/>
          <Node pos="r" depth="2" NCoef="0" IVar="-1" Cut="0.0000000000000000e+00" cType="1" res="1.0117259807884693e-03" rms="3.9676994085311890e-01" purity="7.5747019052505493e-01" nType="-99"/>
        </Node>
      </Node>
    </BinaryTree>
    <BinaryTree type="DecisionTree" boostWeight="1.0000000000000000e+00" itree="438">
      <Node pos="s" depth="0" NCoef="0" IVar="8" Cut="9.1001052856445312e+01" cType="1" res="6.4155668020248413e-02" rms="4.4794037938117981e-01" purity="4.8664954304695129e-01" nType="0">
        <Node pos="l" depth="1" NCoef="0" IVar="-1" Cut="0.0000000000000000e+00" cType="1" res="-3.4046608489006758e-03" rms="3.1158885359764099e-01" purity="1.4626079797744751e-01" nType="-99"/>
        <Node pos="r" depth="1" NCoef="0" IVar="5" Cut="1.1505111455917358e+00" cType="1" res="8.8782317936420441e-02" rms="4.5335957407951355e-01" purity="5.2323991060256958e-01" nType="0">
          <Node pos="l" depth="2" NCoef="0" IVar="-1" Cut="0.0000000000000000e+00" cType="1" res="2.5661024847067893e-04" rms="4.4014409184455872e-01" purity="4.3266665935516357e-01" nType="-99"/>
          <Node pos="r" depth="2" NCoef="0" IVar="-1" Cut="0.0000000000000000e+00" cType="1" res="8.9499138994142413e-04" rms="4.5768645405769348e-01" purity="5.8476465940475464e-01" nType="-99"/>
        </Node>
      </Node>
    </BinaryTree>
    <BinaryTree type="DecisionTree" boostWeight="1.0000000000000000e+00" itree="439">
      <Node pos="s" depth="0" NCoef="0" IVar="0" Cut="9.6587651968002319e-01" cType="1" res="7.6932594180107117e-02" rms="4.4203552603721619e-01" purity="5.0562727451324463e-01" nType="0">
        <Node pos="l" depth="1" NCoef="0" IVar="8" Cut="1.0499419403076172e+02" cType="1" res="3.1770151108503342e-02" rms="4.3989989161491394e-01" purity="3.9342170953750610e-01" nType="0">
          <Node pos="l" depth="2" NCoef="0" IVar="-1" Cut="0.0000000000000000e+00" cType="1" res="-3.3207063097506762e-03" rms="3.2925033569335938e-01" purity="1.4608855545520782e-01" nType="-99"/>
          <Node pos="r" depth="2" NCoef="0" IVar="-1" Cut="0.0000000000000000e+00" cType="1" res="7.2614726377651095e-04" rms="4.5299744606018066e-01" purity="4.6900701522827148e-01" nType="-99"/>
        </Node>
        <Node pos="r" depth="1" NCoef="0" IVar="7" Cut="1.8656005859375000e+00" cType="1" res="1.4605940878391266e-01" rms="4.3632310628890991e-01" purity="6.7737209796905518e-01" nType="0">
          <Node pos="l" depth="2" NCoef="0" IVar="-1" Cut="0.0000000000000000e+00" cType="1" res="9.9723204039037228e-04" rms="4.2924401164054871e-01" purity="7.2453171014785767e-01" nType="-99"/>
          <Node pos="r" depth="2" NCoef="0" IVar="-1" Cut="0.0000000000000000e+00" cType="1" res="-4.6717296936549246e-04" rms="4.2732757329940796e-01" purity="3.9558628201484680e-01" nType="-99"/>
        </Node>
      </Node>
    </BinaryTree>
    <BinaryTree type="DecisionTree" boostWeight="1.0000000000000000e+00" itree="440">
      <Node pos="s" depth="0" NCoef="0" IVar="6" Cut="2.8990560913085938e+02" cType="1" res="7.8155651688575745e-02" rms="4.2689687013626099e-01" purity="5.2346301078796387e-01" nType="0">
        <Node pos="l" depth="1" NCoef="0" IVar="1" Cut="4.6762100219726562e+01" cType="1" res="-3.6175787448883057e-02" rms="4.0207368135452271e-01" purity="2.4914284050464630e-01" nType="0">
          <Node pos="l" depth="2" NCoef="0" IVar="-1" Cut="0.0000000000000000e+00" cType="1" res="-7.1166423149406910e-03" rms="1.8605242669582367e-01" purity="5.2191790193319321e-02" nType="-99"/>
          <Node pos="r" depth="2" NCoef="0" IVar="-1" Cut="0.0000000000000000e+00" cType="1" res="1.9974449241999537e-04" rms="4.4465997815132141e-01" purity="3.2073619961738586e-01" nType="-99"/>
        </Node>
        <Node pos="r" depth="1" NCoef="0" IVar="2" Cut="2.8623159790039062e+02" cType="1" res="1.1891561001539230e-01" rms="4.2808353900909424e-01" purity="6.2126010656356812e-01" nType="0">
          <Node pos="l" depth="2" NCoef="0" IVar="-1" Cut="0.0000000000000000e+00" cType="1" res="9.2571205459535122e-04" rms="4.2438682913780212e-01" purity="6.8621242046356201e-01" nType="-99"/>
          <Node pos="r" depth="2" NCoef="0" IVar="-1" Cut="0.0000000000000000e+00" cType="1" res="-1.8807513697538525e-04" rms="4.0902677178382874e-01" purity="4.1848421096801758e-01" nType="-99"/>
        </Node>
      </Node>
    </BinaryTree>
    <BinaryTree type="DecisionTree" boostWeight="1.0000000000000000e+00" itree="441">
      <Node pos="s" depth="0" NCoef="0" IVar="3" Cut="2.3509979248046875e+00" cType="1" res="8.4967181086540222e-02" rms="4.3784421682357788e-01" purity="5.0872653722763062e-01" nType="0">
        <Node pos="l" depth="1" NCoef="0" IVar="4" Cut="5.9637117385864258e-01" cType="1" res="1.1393930017948151e-01" rms="4.5560702681541443e-01" purity="5.9805518388748169e-01" nType="0">
          <Node pos="l" depth="2" NCoef="0" IVar="-1" Cut="0.0000000000000000e+00" cType="1" res="1.1275599244982004e-03" rms="4.4354152679443359e-01" purity="6.8543827533721924e-01" nType="-99"/>
          <Node pos="r" depth="2" NCoef="0" IVar="-1" Cut="0.0000000000000000e+00" cType="1" res="5.7423469843342900e-04" rms="4.5598581433296204e-01" purity="5.6883853673934937e-01" nType="-99"/>
        </Node>
        <Node pos="r" depth="1" NCoef="0" IVar="4" Cut="6.0869085788726807e-01" cType="1" res="-4.4017910957336426e-02" rms="3.1729879975318909e-01" purity="1.1103174090385437e-01" nType="0">
          <Node pos="l" depth="2" NCoef="0" IVar="-1" Cut="0.0000000000000000e+00" cType="1" res="2.3927146103233099e-03" rms="4.5960137248039246e-01" purity="2.9570236802101135e-01" nType="-99"/>
          <Node pos="r" depth="2" NCoef="0" IVar="-1" Cut="0.0000000000000000e+00" cType="1" res="-9.0474709868431091e-03" rms="1.8436335027217865e-01" purity="2.9353259131312370e-02" nType="-99"/>
        </Node>
      </Node>
    </BinaryTree>
    <BinaryTree type="DecisionTree" boostWeight="1.0000000000000000e+00" itree="442">
      <Node pos="s" depth="0" NCoef="0" IVar="3" Cut="1.7951416969299316e+00" cType="1" res="8.1358015537261963e-02" rms="4.4214960932731628e-01" purity="5.2087980508804321e-01" nType="0">
        <Node pos="l" depth="1" NCoef="0" IVar="7" Cut="6.1004441976547241e-01" cType="1" res="1.1484074592590332e-01" rms="4.4393974542617798e-01" purity="6.3819056749343872e-01" nType="0">
          <Node pos="l" depth="2" NCoef="0" IVar="-1" Cut="0.0000000000000000e+00" cType="1" res="-9.3328539514914155e-04" rms="3.9459872245788574e-01" purity="3.3157643675804138e-01" nType="-99"/>
          <Node pos="r" depth="2" NCoef="0" IVar="-1" Cut="0.0000000000000000e+00" cType="1" res="7.7225436689332128e-04" rms="4.4359979033470154e-01" purity="6.6457730531692505e-01" nType="-99"/>
        </Node>
        <Node pos="r" depth="1" NCoef="0" IVar="7" Cut="1.9760773181915283e+00" cType="1" res="1.5378524549305439e-02" rms="4.3105465173721313e-01" purity="2.8971284627914429e-01" nType="0">
          <Node pos="l" depth="2" NCoef="0" IVar="-1" Cut="0.0000000000000000e+00" cType="1" res="-8.6232949979603291e-04" rms="4.0071630477905273e-01" purity="2.3283192515373230e-01" nType="-99"/>
          <Node pos="r" depth="2" NCoef="0" IVar="-1" Cut="0.0000000000000000e+00" cType="1" res="1.2273162137717009e-03" rms="4.5084050297737122e-01" purity="3.6034035682678223e-01" nType="-99"/>
        </Node>
      </Node>
    </BinaryTree>
    <BinaryTree type="DecisionTree" boostWeight="1.0000000000000000e+00" itree="443">
      <Node pos="s" depth="0" NCoef="0" IVar="0" Cut="9.5451253652572632e-01" cType="1" res="8.6471214890480042e-02" rms="4.3807417154312134e-01" purity="5.2452701330184937e-01" nType="0">
        <Node pos="l" depth="1" NCoef="0" IVar="5" Cut="1.1932632923126221e+00" cType="1" res="2.2444183006882668e-02" rms="4.3650418519973755e-01" purity="3.6760815978050232e-01" nType="0">
          <Node pos="l" depth="2" NCoef="0" IVar="-1" Cut="0.0000000000000000e+00" cType="1" res="-1.1549579212442040e-03" rms="3.8087281584739685e-01" purity="2.2212775051593781e-01" nType="-99"/>
          <Node pos="r" depth="2" NCoef="0" IVar="-1" Cut="0.0000000000000000e+00" cType="1" res="7.0258800406008959e-04" rms="4.5961412787437439e-01" purity="4.6538352966308594e-01" nType="-99"/>
        </Node>
        <Node pos="r" depth="1" NCoef="0" IVar="7" Cut="1.8200665712356567e+00" cType="1" res="1.3834868371486664e-01" rms="4.3244495987892151e-01" purity="6.5166944265365601e-01" nType="0">
          <Node pos="l" depth="2" NCoef="0" IVar="-1" Cut="0.0000000000000000e+00" cType="1" res="9.3890004791319370e-04" rms="4.2697083950042725e-01" purity="7.0278549194335938e-01" nType="-99"/>
          <Node pos="r" depth="2" NCoef="0" IVar="-1" Cut="0.0000000000000000e+00" cType="1" res="2.1303434914443642e-04" rms="4.3681773543357849e-01" purity="4.3884041905403137e-01" nType="-99"/>
        </Node>
      </Node>
    </BinaryTree>
    <BinaryTree type="DecisionTree" boostWeight="1.0000000000000000e+00" itree="444">
      <Node pos="s" depth="0" NCoef="0" IVar="5" Cut="1.0323977470397949e+00" cType="1" res="7.2525463998317719e-02" rms="4.4058951735496521e-01" purity="5.1093548536300659e-01" nType="0">
        <Node pos="l" depth="1" NCoef="0" IVar="6" Cut="3.1229824829101562e+02" cType="1" res="-4.5454137027263641e-02" rms="4.2456501722335815e-01" purity="3.1344160437583923e-01" nType="0">
          <Node pos="l" depth="2" NCoef="0" IVar="-1" Cut="0.0000000000000000e+00" cType="1" res="3.6391729372553527e-04" rms="4.2847964167594910e-01" purity="2.9974290728569031e-01" nType="-99"/>
          <Node pos="r" depth="2" NCoef="0" IVar="-1" Cut="0.0000000000000000e+00" cType="1" res="-1.3343482278287411e-03" rms="4.0640118718147278e-01" purity="3.2836967706680298e-01" nType="-99"/>
        </Node>
        <Node pos="r" depth="1" NCoef="0" IVar="0" Cut="9.4127345085144043e-01" cType="1" res="1.1144333332777023e-01" rms="4.3884643912315369e-01" purity="5.7608270645141602e-01" nType="0">
          <Node pos="l" depth="2" NCoef="0" IVar="-1" Cut="0.0000000000000000e+00" cType="1" res="-3.6856936640106142e-04" rms="4.2334803938865662e-01" purity="3.1806388497352600e-01" nType="-99"/>
          <Node pos="r" depth="2" NCoef="0" IVar="-1" Cut="0.0000000000000000e+00" cType="1" res="9.0945785632357001e-04" rms="4.3412286043167114e-01" purity="6.5887963771820068e-01" nType="-99"/>
        </Node>
      </Node>
    </BinaryTree>
    <BinaryTree type="DecisionTree" boostWeight="1.0000000000000000e+00" itree="445">
      <Node pos="s" depth="0" NCoef="0" IVar="5" Cut="1.1872714757919312e+00" cType="1" res="1.3844775967299938e-02" rms="4.3952628970146179e-01" purity="4.3157881498336792e-01" nType="0">
        <Node pos="l" depth="1" NCoef="0" IVar="3" Cut="1.5881949663162231e+00" cType="1" res="-6.4878679811954498e-02" rms="4.0286689996719360e-01" purity="3.2220906019210815e-01" nType="0">
          <Node pos="l" depth="2" NCoef="0" IVar="-1" Cut="0.0000000000000000e+00" cType="1" res="2.7106548077426851e-04" rms="4.7335901856422424e-01" purity="5.6065213680267334e-01" nType="-99"/>
          <Node pos="r" depth="2" NCoef="0" IVar="-1" Cut="0.0000000000000000e+00" cType="1" res="-3.8469014689326286e-03" rms="3.0855032801628113e-01" purity="1.2524983286857605e-01" nType="-99"/>
        </Node>
        <Node pos="r" depth="1" NCoef="0" IVar="8" Cut="1.0556553649902344e+02" cType="1" res="7.2181209921836853e-02" rms="4.5614910125732422e-01" purity="5.1262503862380981e-01" nType="0">
          <Node pos="l" depth="2" NCoef="0" IVar="-1" Cut="0.0000000000000000e+00" cType="1" res="-2.1839542314410210e-03" rms="3.6713394522666931e-01" purity="2.4259287118911743e-01" nType="-99"/>
          <Node pos="r" depth="2" NCoef="0" IVar="-1" Cut="0.0000000000000000e+00" cType="1" res="9.1023853747174144e-04" rms="4.6029460430145264e-01" purity="5.8870875835418701e-01" nType="-99"/>
        </Node>
      </Node>
    </BinaryTree>
    <BinaryTree type="DecisionTree" boostWeight="1.0000000000000000e+00" itree="446">
      <Node pos="s" depth="0" NCoef="0" IVar="7" Cut="1.7834113836288452e+00" cType="1" res="8.7318658828735352e-02" rms="4.4752630591392517e-01" purity="5.1186954975128174e-01" nType="0">
        <Node pos="l" depth="1" NCoef="0" IVar="1" Cut="1.2296977233886719e+02" cType="1" res="1.2251928448677063e-01" rms="4.5365574955940247e-01" purity="5.7014971971511841e-01" nType="0">
          <Node pos="l" depth="2" NCoef="0" IVar="-1" Cut="0.0000000000000000e+00" cType="1" res="6.8740168353542686e-04" rms="4.6122092008590698e-01" purity="5.0980126857757568e-01" nType="-99"/>
          <Node pos="r" depth="2" NCoef="0" IVar="-1" Cut="0.0000000000000000e+00" cType="1" res="1.3585399137809873e-03" rms="3.8808545470237732e-01" purity="8.2312935590744019e-01" nType="-99"/>
        </Node>
        <Node pos="r" depth="1" NCoef="0" IVar="3" Cut="1.7956663370132446e+00" cType="1" res="-3.0711770057678223e-02" rms="4.0456441044807434e-01" purity="3.1645163893699646e-01" nType="0">
          <Node pos="l" depth="2" NCoef="0" IVar="-1" Cut="0.0000000000000000e+00" cType="1" res="7.6160713797435164e-04" rms="4.4807347655296326e-01" purity="6.8113720417022705e-01" nType="-99"/>
          <Node pos="r" depth="2" NCoef="0" IVar="-1" Cut="0.0000000000000000e+00" cType="1" res="-3.0165950302034616e-03" rms="3.5204407572746277e-01" purity="1.3378252089023590e-01" nType="-99"/>
        </Node>
      </Node>
    </BinaryTree>
    <BinaryTree type="DecisionTree" boostWeight="1.0000000000000000e+00" itree="447">
      <Node pos="s" depth="0" NCoef="0" IVar="3" Cut="2.4476585388183594e+00" cType="1" res="9.5777831971645355e-02" rms="4.2662566900253296e-01" purity="5.5272239446640015e-01" nType="0">
        <Node pos="l" depth="1" NCoef="0" IVar="1" Cut="9.3118713378906250e+01" cType="1" res="1.2059810012578964e-01" rms="4.4088503718376160e-01" purity="6.2237501144409180e-01" nType="0">
          <Node pos="l" depth="2" NCoef="0" IVar="-1" Cut="0.0000000000000000e+00" cType="1" res="3.6646789521910250e-04" rms="4.6524792909622192e-01" purity="4.8320752382278442e-01" nType="-99"/>
          <Node pos="r" depth="2" NCoef="0" IVar="-1" Cut="0.0000000000000000e+00" cType="1" res="9.7724900115281343e-04" rms="4.0751653909683228e-01" purity="7.4559795856475830e-01" nType="-99"/>
        </Node>
        <Node pos="r" depth="1" NCoef="0" IVar="3" Cut="2.9595100879669189e+00" cType="1" res="-7.6852023601531982e-02" rms="2.4877060949802399e-01" purity="6.8275444209575653e-02" nType="0">
          <Node pos="l" depth="2" NCoef="0" IVar="-1" Cut="0.0000000000000000e+00" cType="1" res="-1.1484458111226559e-02" rms="1.9173644483089447e-01" purity="3.2096434384584427e-02" nType="-99"/>
          <Node pos="r" depth="2" NCoef="0" IVar="-1" Cut="0.0000000000000000e+00" cType="1" res="-4.4344010530039668e-04" rms="2.7275067567825317e-01" purity="9.9942691624164581e-02" nType="-99"/>
        </Node>
      </Node>
    </BinaryTree>
    <BinaryTree type="DecisionTree" boostWeight="1.0000000000000000e+00" itree="448">
      <Node pos="s" depth="0" NCoef="0" IVar="1" Cut="4.8802661895751953e+01" cType="1" res="1.0393147170543671e-01" rms="4.4207799434661865e-01" purity="5.4244953393936157e-01" nType="0">
        <Node pos="l" depth="1" NCoef="0" IVar="1" Cut="4.0363212585449219e+01" cType="1" res="-3.3001072704792023e-02" rms="3.8664862513542175e-01" purity="3.0742570757865906e-01" nType="0">
          <Node pos="l" depth="2" NCoef="0" IVar="-1" Cut="0.0000000000000000e+00" cType="1" res="-4.9760234542191029e-03" rms="2.7050489187240601e-01" purity="1.0345771908760071e-01" nType="-99"/>
          <Node pos="r" depth="2" NCoef="0" IVar="-1" Cut="0.0000000000000000e+00" cType="1" res="7.6647050445899367e-04" rms="4.3286842107772827e-01" purity="5.2742505073547363e-01" nType="-99"/>
        </Node>
        <Node pos="r" depth="1" NCoef="0" IVar="7" Cut="8.3091962337493896e-01" cType="1" res="1.2964957952499390e-01" rms="4.4707646965980530e-01" purity="5.8659076690673828e-01" nType="0">
          <Node pos="l" depth="2" NCoef="0" IVar="-1" Cut="0.0000000000000000e+00" cType="1" res="1.3321309816092253e-03" rms="4.2997136712074280e-01" purity="7.4653226137161255e-01" nType="-99"/>
          <Node pos="r" depth="2" NCoef="0" IVar="-1" Cut="0.0000000000000000e+00" cType="1" res="8.0672296462580562e-04" rms="4.4640171527862549e-01" purity="5.6686788797378540e-01" nType="-99"/>
        </Node>
      </Node>
    </BinaryTree>
    <BinaryTree type="DecisionTree" boostWeight="1.0000000000000000e+00" itree="449">
      <Node pos="s" depth="0" NCoef="0" IVar="5" Cut="1.7142893075942993e+00" cType="1" res="2.6121387258172035e-02" rms="4.4510111212730408e-01" purity="4.3764927983283997e-01" nType="0">
        <Node pos="l" depth="1" NCoef="0" IVar="5" Cut="1.5617116689682007e+00" cType="1" res="4.3892532587051392e-02" rms="4.4757899641990662e-01" purity="4.6019554138183594e-01" nType="0">
          <Node pos="l" depth="2" NCoef="0" IVar="-1" Cut="0.0000000000000000e+00" cType="1" res="1.0958360508084297e-04" rms="4.4668731093406677e-01" purity="4.2122709751129150e-01" nType="-99"/>
          <Node pos="r" depth="2" NCoef="0" IVar="-1" Cut="0.0000000000000000e+00" cType="1" res="1.2832065112888813e-03" rms="4.0993416309356689e-01" purity="6.7364221811294556e-01" nType="-99"/>
        </Node>
        <Node pos="r" depth="1" NCoef="0" IVar="-1" Cut="0.0000000000000000e+00" cType="1" res="-3.9590671658515930e-03" rms="3.3614695072174072e-01" purity="1.4689235389232635e-01" nType="-99"/>
      </Node>
    </BinaryTree>
    <BinaryTree type="DecisionTree" boostWeight="1.0000000000000000e+00" itree="450">
      <Node pos="s" depth="0" NCoef="0" IVar="3" Cut="1.5855634212493896e+00" cType="1" res="6.4254038035869598e-02" rms="4.3356195092201233e-01" purity="5.0417512655258179e-01" nType="0">
        <Node pos="l" depth="1" NCoef="0" IVar="1" Cut="4.6224414825439453e+01" cType="1" res="1.1877948045730591e-01" rms="4.3651172518730164e-01" purity="6.4668583869934082e-01" nType="0">
          <Node pos="l" depth="2" NCoef="0" IVar="-1" Cut="0.0000000000000000e+00" cType="1" res="-6.9112266646698117e-04" rms="3.9121156930923462e-01" purity="3.2981696724891663e-01" nType="-99"/>
          <Node pos="r" depth="2" NCoef="0" IVar="-1" Cut="0.0000000000000000e+00" cType="1" res="8.7742198957130313e-04" rms="4.3622285127639771e-01" purity="7.1010410785675049e-01" nType="-99"/>
        </Node>
        <Node pos="r" depth="1" NCoef="0" IVar="8" Cut="1.6665072631835938e+02" cType="1" res="-1.3036729767918587e-02" rms="4.1731241345405579e-01" purity="3.0216374993324280e-01" nType="0">
          <Node pos="l" depth="2" NCoef="0" IVar="-1" Cut="0.0000000000000000e+00" cType="1" res="-6.6071719629690051e-04" rms="4.0373346209526062e-01" purity="2.6901030540466309e-01" nType="-99"/>
          <Node pos="r" depth="2" NCoef="0" IVar="-1" Cut="0.0000000000000000e+00" cType="1" res="1.1232172837480903e-03" rms="4.4253844022750854e-01" purity="4.3654817342758179e-01" nType="-99"/>
        </Node>
      </Node>
    </BinaryTree>
    <BinaryTree type="DecisionTree" boostWeight="1.0000000000000000e+00" itree="451">
      <Node pos="s" depth="0" NCoef="0" IVar="6" Cut="3.3221878051757812e+02" cType="1" res="3.6590445786714554e-02" rms="4.2945739626884460e-01" purity="4.6710133552551270e-01" nType="0">
        <Node pos="l" depth="1" NCoef="0" IVar="1" Cut="8.2002998352050781e+01" cType="1" res="-3.2120436429977417e-02" rms="4.0024960041046143e-01" purity="3.0339503288269043e-01" nType="0">
          <Node pos="l" depth="2" NCoef="0" IVar="-1" Cut="0.0000000000000000e+00" cType="1" res="-1.5482051530852914e-03" rms="3.4770327806472778e-01" purity="2.1319380402565002e-01" nType="-99"/>
          <Node pos="r" depth="2" NCoef="0" IVar="-1" Cut="0.0000000000000000e+00" cType="1" res="5.6154513731598854e-04" rms="4.4749709963798523e-01" purity="4.3192991614341736e-01" nType="-99"/>
        </Node>
        <Node pos="r" depth="1" NCoef="0" IVar="0" Cut="9.7842490673065186e-01" cType="1" res="9.3481354415416718e-02" rms="4.4424444437026978e-01" purity="6.0264611244201660e-01" nType="0">
          <Node pos="l" depth="2" NCoef="0" IVar="-1" Cut="0.0000000000000000e+00" cType="1" res="3.9677906897850335e-04" rms="4.5414885878562927e-01" purity="5.3654450178146362e-01" nType="-99"/>
          <Node pos="r" depth="2" NCoef="0" IVar="-1" Cut="0.0000000000000000e+00" cType="1" res="1.1290991678833961e-03" rms="3.8831204175949097e-01" purity="8.0358439683914185e-01" nType="-99"/>
        </Node>
      </Node>
    </BinaryTree>
    <BinaryTree type="DecisionTree" boostWeight="1.0000000000000000e+00" itree="452">
      <Node pos="s" depth="0" NCoef="0" IVar="3" Cut="1.3630675077438354e+00" cType="1" res="6.4566478133201599e-02" rms="4.3178090453147888e-01" purity="5.0621074438095093e-01" nType="0">
        <Node pos="l" depth="1" NCoef="0" IVar="8" Cut="9.2435630798339844e+01" cType="1" res="1.4532624185085297e-01" rms="4.3087214231491089e-01" purity="6.8245327472686768e-01" nType="0">
          <Node pos="l" depth="2" NCoef="0" IVar="-1" Cut="0.0000000000000000e+00" cType="1" res="-1.7462737741880119e-04" rms="4.0910533070564270e-01" purity="4.1780567169189453e-01" nType="-99"/>
          <Node pos="r" depth="2" NCoef="0" IVar="-1" Cut="0.0000000000000000e+00" cType="1" res="9.5448037609457970e-04" rms="4.2834964394569397e-01" purity="7.2452199459075928e-01" nType="-99"/>
        </Node>
        <Node pos="r" depth="1" NCoef="0" IVar="1" Cut="5.8241710662841797e+01" cType="1" res="-6.6758082248270512e-03" rms="4.1987773776054382e-01" purity="3.5073825716972351e-01" nType="0">
          <Node pos="l" depth="2" NCoef="0" IVar="-1" Cut="0.0000000000000000e+00" cType="1" res="-5.3905416280031204e-03" rms="2.7291145920753479e-01" purity="8.7572358548641205e-02" nType="-99"/>
          <Node pos="r" depth="2" NCoef="0" IVar="-1" Cut="0.0000000000000000e+00" cType="1" res="2.3660906299483031e-04" rms="4.3896549940109253e-01" purity="4.0751734375953674e-01" nType="-99"/>
        </Node>
      </Node>
    </BinaryTree>
    <BinaryTree type="DecisionTree" boostWeight="1.0000000000000000e+00" itree="453">
      <Node pos="s" depth="0" NCoef="0" IVar="0" Cut="9.6725422143936157e-01" cType="1" res="7.6154954731464386e-02" rms="4.3684983253479004e-01" purity="5.0705182552337646e-01" nType="0">
        <Node pos="l" depth="1" NCoef="0" IVar="1" Cut="1.0624428558349609e+02" cType="1" res="3.3776275813579559e-02" rms="4.3620708584785461e-01" purity="4.0555351972579956e-01" nType="0">
          <Node pos="l" depth="2" NCoef="0" IVar="-1" Cut="0.0000000000000000e+00" cType="1" res="-2.2741667635273188e-04" rms="4.3156021833419800e-01" purity="3.3089327812194824e-01" nType="-99"/>
          <Node pos="r" depth="2" NCoef="0" IVar="-1" Cut="0.0000000000000000e+00" cType="1" res="8.4034446626901627e-04" rms="4.3112695217132568e-01" purity="5.1198989152908325e-01" nType="-99"/>
        </Node>
        <Node pos="r" depth="1" NCoef="0" IVar="7" Cut="1.7443935871124268e+00" cType="1" res="1.4970062673091888e-01" rms="4.2811900377273560e-01" purity="6.8319594860076904e-01" nType="0">
          <Node pos="l" depth="2" NCoef="0" IVar="-1" Cut="0.0000000000000000e+00" cType="1" res="1.0375330457463861e-03" rms="4.1332265734672546e-01" purity="7.3909163475036621e-01" nType="-99"/>
          <Node pos="r" depth="2" NCoef="0" IVar="-1" Cut="0.0000000000000000e+00" cType="1" res="1.3862997002433985e-04" rms="4.4857603311538696e-01" purity="5.0217878818511963e-01" nType="-99"/>
        </Node>
      </Node>
    </BinaryTree>
    <BinaryTree type="DecisionTree" boostWeight="1.0000000000000000e+00" itree="454">
      <Node pos="s" depth="0" NCoef="0" IVar="1" Cut="6.5288116455078125e+01" cType="1" res="8.6067505180835724e-02" rms="4.3668350577354431e-01" purity="5.1485687494277954e-01" nType="0">
        <Node pos="l" depth="1" NCoef="0" IVar="8" Cut="1.0504689788818359e+02" cType="1" res="1.6494787996634841e-03" rms="4.3426528573036194e-01" purity="3.5717052221298218e-01" nType="0">
          <Node pos="l" depth="2" NCoef="0" IVar="-1" Cut="0.0000000000000000e+00" cType="1" res="-1.5843454748392105e-03" rms="3.6098110675811768e-01" purity="2.1107152104377747e-01" nType="-99"/>
          <Node pos="r" depth="2" NCoef="0" IVar="-1" Cut="0.0000000000000000e+00" cType="1" res="4.4022480142302811e-04" rms="4.5829644799232483e-01" purity="4.2980441451072693e-01" nType="-99"/>
        </Node>
        <Node pos="r" depth="1" NCoef="0" IVar="7" Cut="1.6321918964385986e+00" cType="1" res="1.2168911099433899e-01" rms="4.3278771638870239e-01" purity="5.8139520883560181e-01" nType="0">
          <Node pos="l" depth="2" NCoef="0" IVar="-1" Cut="0.0000000000000000e+00" cType="1" res="1.0241599520668387e-03" rms="4.1610738635063171e-01" purity="7.1087127923965454e-01" nType="-99"/>
          <Node pos="r" depth="2" NCoef="0" IVar="-1" Cut="0.0000000000000000e+00" cType="1" res="3.9230153197422624e-04" rms="4.4046905636787415e-01" purity="4.1622880101203918e-01" nType="-99"/>
        </Node>
      </Node>
    </BinaryTree>
    <BinaryTree type="DecisionTree" boostWeight="1.0000000000000000e+00" itree="455">
      <Node pos="s" depth="0" NCoef="0" IVar="0" Cut="9.2855024337768555e-01" cType="1" res="3.4256264567375183e-02" rms="4.4194453954696655e-01" purity="4.5955249667167664e-01" nType="0">
        <Node pos="l" depth="1" NCoef="0" IVar="7" Cut="1.5325945615768433e+00" cType="1" res="-1.4242137968540192e-01" rms="3.2455652952194214e-01" purity="1.5324573218822479e-01" nType="0">
          <Node pos="l" depth="2" NCoef="0" IVar="-1" Cut="0.0000000000000000e+00" cType="1" res="-8.5285119712352753e-03" rms="2.5997146964073181e-01" purity="6.4102649688720703e-02" nType="-99"/>
          <Node pos="r" depth="2" NCoef="0" IVar="-1" Cut="0.0000000000000000e+00" cType="1" res="-8.2519534043967724e-04" rms="3.5646769404411316e-01" purity="2.3844203352928162e-01" nType="-99"/>
        </Node>
        <Node pos="r" depth="1" NCoef="0" IVar="6" Cut="3.3140612792968750e+02" cType="1" res="6.5475687384605408e-02" rms="4.5246428251266479e-01" purity="5.1367771625518799e-01" nType="0">
          <Node pos="l" depth="2" NCoef="0" IVar="-1" Cut="0.0000000000000000e+00" cType="1" res="-3.2614907831884921e-04" rms="4.3105706572532654e-01" purity="3.2932585477828979e-01" nType="-99"/>
          <Node pos="r" depth="2" NCoef="0" IVar="-1" Cut="0.0000000000000000e+00" cType="1" res="8.3374744281172752e-04" rms="4.5532920956611633e-01" purity="6.4976924657821655e-01" nType="-99"/>
        </Node>
      </Node>
    </BinaryTree>
    <BinaryTree type="DecisionTree" boostWeight="1.0000000000000000e+00" itree="456">
      <Node pos="s" depth="0" NCoef="0" IVar="4" Cut="8.1082820892333984e-01" cType="1" res="8.6435057222843170e-02" rms="4.4517543911933899e-01" purity="5.1031672954559326e-01" nType="0">
        <Node pos="l" depth="1" NCoef="0" IVar="6" Cut="2.7437887573242188e+02" cType="1" res="1.0496786981821060e-01" rms="4.4731792807579041e-01" purity="5.4012340307235718e-01" nType="0">
          <Node pos="l" depth="2" NCoef="0" IVar="-1" Cut="0.0000000000000000e+00" cType="1" res="1.4930183533579111e-04" rms="4.1360822319984436e-01" purity="2.9763993620872498e-01" nType="-99"/>
          <Node pos="r" depth="2" NCoef="0" IVar="-1" Cut="0.0000000000000000e+00" cType="1" res="8.4098725346848369e-04" rms="4.5330923795700073e-01" purity="6.1477553844451904e-01" nType="-99"/>
        </Node>
        <Node pos="r" depth="1" NCoef="0" IVar="-1" Cut="0.0000000000000000e+00" cType="1" res="-4.9963747151196003e-03" rms="3.2988190650939941e-01" purity="1.1755507439374924e-01" nType="-99"/>
      </Node>
    </BinaryTree>
    <BinaryTree type="DecisionTree" boostWeight="1.0000000000000000e+00" itree="457">
      <Node pos="s" depth="0" NCoef="0" IVar="6" Cut="4.6286502075195312e+02" cType="1" res="7.1121111512184143e-02" rms="4.5077636837959290e-01" purity="4.9427899718284607e-01" nType="0">
        <Node pos="l" depth="1" NCoef="0" IVar="4" Cut="6.6015917062759399e-01" cType="1" res="3.8669180124998093e-02" rms="4.4688633084297180e-01" purity="4.3323713541030884e-01" nType="0">
          <Node pos="l" depth="2" NCoef="0" IVar="-1" Cut="0.0000000000000000e+00" cType="1" res="-3.1001077149994671e-04" rms="4.1990852355957031e-01" purity="3.9006692171096802e-01" nType="-99"/>
          <Node pos="r" depth="2" NCoef="0" IVar="-1" Cut="0.0000000000000000e+00" cType="1" res="8.0451054964214563e-04" rms="4.5887809991836548e-01" purity="4.6619600057601929e-01" nType="-99"/>
        </Node>
        <Node pos="r" depth="1" NCoef="0" IVar="3" Cut="2.0127143859863281e+00" cType="1" res="1.8305088579654694e-01" rms="4.4618695974349976e-01" purity="7.0481801033020020e-01" nType="0">
          <Node pos="l" depth="2" NCoef="0" IVar="-1" Cut="0.0000000000000000e+00" cType="1" res="7.6942308805882931e-04" rms="4.1597357392311096e-01" purity="7.4483484029769897e-01" nType="-99"/>
          <Node pos="r" depth="2" NCoef="0" IVar="-1" Cut="0.0000000000000000e+00" cType="1" res="2.2459696047008038e-03" rms="4.9609136581420898e-01" purity="6.0157853364944458e-01" nType="-99"/>
        </Node>
      </Node>
    </BinaryTree>
    <BinaryTree type="DecisionTree" boostWeight="1.0000000000000000e+00" itree="458">
      <Node pos="s" depth="0" NCoef="0" IVar="1" Cut="7.8890548706054688e+01" cType="1" res="7.6234050095081329e-02" rms="4.5522439479827881e-01" purity="4.9324059486389160e-01" nType="0">
        <Node pos="l" depth="1" NCoef="0" IVar="2" Cut="1.6481611633300781e+02" cType="1" res="-3.2474619802087545e-03" rms="4.5591115951538086e-01" purity="3.5550853610038757e-01" nType="0">
          <Node pos="l" depth="2" NCoef="0" IVar="-1" Cut="0.0000000000000000e+00" cType="1" res="5.6906545069068670e-04" rms="4.9114036560058594e-01" purity="4.2024770379066467e-01" nType="-99"/>
          <Node pos="r" depth="2" NCoef="0" IVar="-1" Cut="0.0000000000000000e+00" cType="1" res="-1.4514690265059471e-03" rms="3.7046903371810913e-01" purity="2.5058901309967041e-01" nType="-99"/>
        </Node>
        <Node pos="r" depth="1" NCoef="0" IVar="7" Cut="1.2620929479598999e+00" cType="1" res="1.2409469485282898e-01" rms="4.4806000590324402e-01" purity="5.7617741823196411e-01" nType="0">
          <Node pos="l" depth="2" NCoef="0" IVar="-1" Cut="0.0000000000000000e+00" cType="1" res="1.1771102435886860e-03" rms="3.8641077280044556e-01" purity="8.0886447429656982e-01" nType="-99"/>
          <Node pos="r" depth="2" NCoef="0" IVar="-1" Cut="0.0000000000000000e+00" cType="1" res="7.1822368772700429e-04" rms="4.5856258273124695e-01" purity="5.1365131139755249e-01" nType="-99"/>
        </Node>
      </Node>
    </BinaryTree>
    <BinaryTree type="DecisionTree" boostWeight="1.0000000000000000e+00" itree="459">
      <Node pos="s" depth="0" NCoef="0" IVar="0" Cut="9.5781123638153076e-01" cType="1" res="8.5315302014350891e-02" rms="4.4329589605331421e-01" purity="5.2247428894042969e-01" nType="0">
        <Node pos="l" depth="1" NCoef="0" IVar="0" Cut="9.3716251850128174e-01" cType="1" res="2.2502809297293425e-03" rms="4.3583610653877258e-01" purity="3.4708875417709351e-01" nType="0">
          <Node pos="l" depth="2" NCoef="0" IVar="-1" Cut="0.0000000000000000e+00" cType="1" res="6.0028937878087163e-04" rms="4.3381443619728088e-01" purity="3.9249041676521301e-01" nType="-99"/>
          <Node pos="r" depth="2" NCoef="0" IVar="-1" Cut="0.0000000000000000e+00" cType="1" res="-9.7065011505037546e-04" rms="4.2556577920913696e-01" purity="2.8781235218048096e-01" nType="-99"/>
        </Node>
        <Node pos="r" depth="1" NCoef="0" IVar="4" Cut="7.6822602748870850e-01" cType="1" res="1.5920364856719971e-01" rms="4.3674692511558533e-01" purity="6.7848396301269531e-01" nType="0">
          <Node pos="l" depth="2" NCoef="0" IVar="-1" Cut="0.0000000000000000e+00" cType="1" res="1.0198974050581455e-03" rms="4.3275934457778931e-01" purity="7.0300388336181641e-01" nType="-99"/>
          <Node pos="r" depth="2" NCoef="0" IVar="-1" Cut="0.0000000000000000e+00" cType="1" res="3.7510608672164381e-04" rms="4.4841837882995605e-01" purity="5.0332516431808472e-01" nType="-99"/>
        </Node>
      </Node>
    </BinaryTree>
    <BinaryTree type="DecisionTree" boostWeight="1.0000000000000000e+00" itree="460">
      <Node pos="s" depth="0" NCoef="0" IVar="7" Cut="1.5114958286285400e+00" cType="1" res="1.0349677503108978e-01" rms="4.3144020438194275e-01" purity="5.4834252595901489e-01" nType="0">
        <Node pos="l" depth="1" NCoef="0" IVar="1" Cut="4.1044307708740234e+01" cType="1" res="1.4749613404273987e-01" rms="4.2957487702369690e-01" purity="6.1469084024429321e-01" nType="0">
          <Node pos="l" depth="2" NCoef="0" IVar="-1" Cut="0.0000000000000000e+00" cType="1" res="1.9737650291062891e-04" rms="4.3720343708992004e-01" purity="2.9082000255584717e-01" nType="-99"/>
          <Node pos="r" depth="2" NCoef="0" IVar="-1" Cut="0.0000000000000000e+00" cType="1" res="1.0047876276075840e-03" rms="4.2319083213806152e-01" purity="6.7706644535064697e-01" nType="-99"/>
        </Node>
        <Node pos="r" depth="1" NCoef="0" IVar="0" Cut="9.5563775300979614e-01" cType="1" res="3.2058786600828171e-02" rms="4.2485487461090088e-01" purity="4.4061848521232605e-01" nType="0">
          <Node pos="l" depth="2" NCoef="0" IVar="-1" Cut="0.0000000000000000e+00" cType="1" res="-7.7684945426881313e-04" rms="3.8933035731315613e-01" purity="2.6483553647994995e-01" nType="-99"/>
          <Node pos="r" depth="2" NCoef="0" IVar="-1" Cut="0.0000000000000000e+00" cType="1" res="7.7702215639874339e-04" rms="4.4107663631439209e-01" purity="6.1151850223541260e-01" nType="-99"/>
        </Node>
      </Node>
    </BinaryTree>
    <BinaryTree type="DecisionTree" boostWeight="1.0000000000000000e+00" itree="461">
      <Node pos="s" depth="0" NCoef="0" IVar="0" Cut="9.6553897857666016e-01" cType="1" res="5.3527761250734329e-02" rms="4.4797897338867188e-01" purity="4.8195168375968933e-01" nType="0">
        <Node pos="l" depth="1" NCoef="0" IVar="8" Cut="1.2136019897460938e+02" cType="1" res="-2.4362127296626568e-03" rms="4.5308637619018555e-01" purity="3.5181418061256409e-01" nType="0">
          <Node pos="l" depth="2" NCoef="0" IVar="-1" Cut="0.0000000000000000e+00" cType="1" res="8.0340367276221514e-04" rms="4.6814647316932678e-01" purity="4.4519364833831787e-01" nType="-99"/>
          <Node pos="r" depth="2" NCoef="0" IVar="-1" Cut="0.0000000000000000e+00" cType="1" res="-1.7515062354505062e-03" rms="4.0348887443542480e-01" purity="2.3200468719005585e-01" nType="-99"/>
        </Node>
        <Node pos="r" depth="1" NCoef="0" IVar="3" Cut="2.2329337596893311e+00" cType="1" res="1.3882869482040405e-01" rms="4.2616960406303406e-01" purity="6.8030881881713867e-01" nType="0">
          <Node pos="l" depth="2" NCoef="0" IVar="-1" Cut="0.0000000000000000e+00" cType="1" res="8.8499364210292697e-04" rms="4.2442697286605835e-01" purity="7.4722707271575928e-01" nType="-99"/>
          <Node pos="r" depth="2" NCoef="0" IVar="-1" Cut="0.0000000000000000e+00" cType="1" res="8.1993857747875154e-05" rms="4.1093733906745911e-01" purity="3.2636144757270813e-01" nType="-99"/>
        </Node>
      </Node>
    </BinaryTree>
    <BinaryTree type="DecisionTree" boostWeight="1.0000000000000000e+00" itree="462">
      <Node pos="s" depth="0" NCoef="0" IVar="0" Cut="9.5397084951400757e-01" cType="1" res="1.0339447855949402e-01" rms="4.4559481739997864e-01" purity="5.3127431869506836e-01" nType="0">
        <Node pos="l" depth="1" NCoef="0" IVar="0" Cut="9.4834798574447632e-01" cType="1" res="2.7457997202873230e-02" rms="4.4338512420654297e-01" purity="3.6507433652877808e-01" nType="0">
          <Node pos="l" depth="2" NCoef="0" IVar="-1" Cut="0.0000000000000000e+00" cType="1" res="5.5723090190440416e-04" rms="4.4759762287139893e-01" purity="4.0260773897171021e-01" nType="-99"/>
          <Node pos="r" depth="2" NCoef="0" IVar="-1" Cut="0.0000000000000000e+00" cType="1" res="-1.4116669073700905e-02" rms="2.6337727904319763e-01" purity="4.3635863810777664e-02" nType="-99"/>
        </Node>
        <Node pos="r" depth="1" NCoef="0" IVar="5" Cut="1.1377525329589844e+00" cType="1" res="1.6502973437309265e-01" rms="4.3780121207237244e-01" purity="6.6617357730865479e-01" nType="0">
          <Node pos="l" depth="2" NCoef="0" IVar="-1" Cut="0.0000000000000000e+00" cType="1" res="1.1881222017109394e-03" rms="4.3030816316604614e-01" purity="6.9308495521545410e-01" nType="-99"/>
          <Node pos="r" depth="2" NCoef="0" IVar="-1" Cut="0.0000000000000000e+00" cType="1" res="7.2382856160402298e-04" rms="4.4057011604309082e-01" purity="6.3770669698715210e-01" nType="-99"/>
        </Node>
      </Node>
    </BinaryTree>
    <BinaryTree type="DecisionTree" boostWeight="1.0000000000000000e+00" itree="463">
      <Node pos="s" depth="0" NCoef="0" IVar="3" Cut="1.6831541061401367e+00" cType="1" res="6.2955886125564575e-02" rms="4.4154515862464905e-01" purity="4.9169638752937317e-01" nType="0">
        <Node pos="l" depth="1" NCoef="0" IVar="1" Cut="4.1304317474365234e+01" cType="1" res="1.1643490940332413e-01" rms="4.5887151360511780e-01" purity="6.2182760238647461e-01" nType="0">
          <Node pos="l" depth="2" NCoef="0" IVar="-1" Cut="0.0000000000000000e+00" cType="1" res="-4.4009496923536062e-04" rms="4.2569389939308167e-01" purity="3.1349796056747437e-01" nType="-99"/>
          <Node pos="r" depth="2" NCoef="0" IVar="-1" Cut="0.0000000000000000e+00" cType="1" res="8.4014335880056024e-04" rms="4.5915603637695312e-01" purity="6.7167210578918457e-01" nType="-99"/>
        </Node>
        <Node pos="r" depth="1" NCoef="0" IVar="6" Cut="2.7732699584960938e+02" cType="1" res="-2.0954811945557594e-02" rms="3.9869177341461182e-01" purity="2.8751552104949951e-01" nType="0">
          <Node pos="l" depth="2" NCoef="0" IVar="-1" Cut="0.0000000000000000e+00" cType="1" res="-1.0056424885988235e-02" rms="2.0859366655349731e-01" purity="3.3220343291759491e-02" nType="-99"/>
          <Node pos="r" depth="2" NCoef="0" IVar="-1" Cut="0.0000000000000000e+00" cType="1" res="3.1871302053332329e-04" rms="4.4019138813018799e-01" purity="3.8687419891357422e-01" nType="-99"/>
        </Node>
      </Node>
    </BinaryTree>
    <BinaryTree type="DecisionTree" boostWeight="1.0000000000000000e+00" itree="464">
      <Node pos="s" depth="0" NCoef="0" IVar="0" Cut="9.5208609104156494e-01" cType="1" res="6.4230367541313171e-02" rms="4.4113558530807495e-01" purity="4.9861142039299011e-01" nType="0">
        <Node pos="l" depth="1" NCoef="0" IVar="5" Cut="8.5350584983825684e-01" cType="1" res="-1.7019379884004593e-02" rms="4.1145613789558411e-01" purity="3.2292032241821289e-01" nType="0">
          <Node pos="l" depth="2" NCoef="0" IVar="-1" Cut="0.0000000000000000e+00" cType="1" res="1.3259127736091614e-03" rms="4.2207637429237366e-01" purity="4.8712813854217529e-01" nType="-99"/>
          <Node pos="r" depth="2" NCoef="0" IVar="-1" Cut="0.0000000000000000e+00" cType="1" res="-6.3766463426873088e-04" rms="3.9962124824523926e-01" purity="2.9007232189178467e-01" nType="-99"/>
        </Node>
        <Node pos="r" depth="1" NCoef="0" IVar="7" Cut="1.8096909523010254e+00" cType="1" res="1.1856174468994141e-01" rms="4.5183548331260681e-01" purity="6.1609530448913574e-01" nType="0">
          <Node pos="l" depth="2" NCoef="0" IVar="-1" Cut="0.0000000000000000e+00" cType="1" res="9.2410767683759332e-04" rms="4.4723394513130188e-01" purity="6.7125099897384644e-01" nType="-99"/>
          <Node pos="r" depth="2" NCoef="0" IVar="-1" Cut="0.0000000000000000e+00" cType="1" res="-3.4954774309881032e-04" rms="4.3963274359703064e-01" purity="3.8126623630523682e-01" nType="-99"/>
        </Node>
      </Node>
    </BinaryTree>
    <BinaryTree type="DecisionTree" boostWeight="1.0000000000000000e+00" itree="465">
      <Node pos="s" depth="0" NCoef="0" IVar="0" Cut="9.4643092155456543e-01" cType="1" res="6.4302057027816772e-02" rms="4.3145373463630676e-01" purity="4.9774828553199768e-01" nType="0">
        <Node pos="l" depth="1" NCoef="0" IVar="6" Cut="4.0940487670898438e+02" cType="1" res="-1.5957698225975037e-02" rms="3.9192530512809753e-01" purity="3.1842881441116333e-01" nType="0">
          <Node pos="l" depth="2" NCoef="0" IVar="-1" Cut="0.0000000000000000e+00" cType="1" res="-1.5736515633761883e-03" rms="3.4316429495811462e-01" purity="1.8659138679504395e-01" nType="-99"/>
          <Node pos="r" depth="2" NCoef="0" IVar="-1" Cut="0.0000000000000000e+00" cType="1" res="8.4767409134656191e-04" rms="4.3948221206665039e-01" purity="5.7857662439346313e-01" nType="-99"/>
        </Node>
        <Node pos="r" depth="1" NCoef="0" IVar="3" Cut="1.9479244947433472e+00" cType="1" res="1.0421855002641678e-01" rms="4.4445720314979553e-01" purity="5.8693128824234009e-01" nType="0">
          <Node pos="l" depth="2" NCoef="0" IVar="-1" Cut="0.0000000000000000e+00" cType="1" res="8.0545688979327679e-04" rms="4.3741509318351746e-01" purity="6.9531482458114624e-01" nType="-99"/>
          <Node pos="r" depth="2" NCoef="0" IVar="-1" Cut="0.0000000000000000e+00" cType="1" res="2.0710855096695013e-05" rms="4.4789221882820129e-01" purity="2.8307875990867615e-01" nType="-99"/>
        </Node>
      </Node>
    </BinaryTree>
    <BinaryTree type="DecisionTree" boostWeight="1.0000000000000000e+00" itree="466">
      <Node pos="s" depth="0" NCoef="0" IVar="3" Cut="1.5047655105590820e+00" cType="1" res="5.9846945106983185e-02" rms="4.3740582466125488e-01" purity="5.0047522783279419e-01" nType="0">
        <Node pos="l" depth="1" NCoef="0" IVar="1" Cut="4.1742973327636719e+01" cType="1" res="1.1325634270906448e-01" rms="4.4370400905609131e-01" purity="6.3906407356262207e-01" nType="0">
          <Node pos="l" depth="2" NCoef="0" IVar="-1" Cut="0.0000000000000000e+00" cType="1" res="-1.0647111339494586e-03" rms="4.0980622172355652e-01" purity="2.7106338739395142e-01" nType="-99"/>
          <Node pos="r" depth="2" NCoef="0" IVar="-1" Cut="0.0000000000000000e+00" cType="1" res="7.8530813334509730e-04" rms="4.4180145859718323e-01" purity="6.8882036209106445e-01" nType="-99"/>
        </Node>
        <Node pos="r" depth="1" NCoef="0" IVar="0" Cut="9.7291433811187744e-01" cType="1" res="-8.5596600547432899e-04" rms="4.2200675606727600e-01" purity="3.4296086430549622e-01" nType="0">
          <Node pos="l" depth="2" NCoef="0" IVar="-1" Cut="0.0000000000000000e+00" cType="1" res="-5.9205968864262104e-04" rms="3.9625561237335205e-01" purity="2.5594431161880493e-01" nType="-99"/>
          <Node pos="r" depth="2" NCoef="0" IVar="-1" Cut="0.0000000000000000e+00" cType="1" res="7.3199172038584948e-04" rms="4.6641498804092407e-01" purity="5.7430207729339600e-01" nType="-99"/>
        </Node>
      </Node>
    </BinaryTree>
    <BinaryTree type="DecisionTree" boostWeight="1.0000000000000000e+00" itree="467">
      <Node pos="s" depth="0" NCoef="0" IVar="0" Cut="9.6439254283905029e-01" cType="1" res="4.1021555662155151e-02" rms="4.3941771984100342e-01" purity="4.6588367223739624e-01" nType="0">
        <Node pos="l" depth="1" NCoef="0" IVar="4" Cut="6.7410367727279663e-01" cType="1" res="-1.4370840042829514e-02" rms="4.4568157196044922e-01" purity="3.2362326979637146e-01" nType="0">
          <Node pos="l" depth="2" NCoef="0" IVar="-1" Cut="0.0000000000000000e+00" cType="1" res="-1.0951387230306864e-03" rms="4.1281446814537048e-01" purity="2.6677989959716797e-01" nType="-99"/>
          <Node pos="r" depth="2" NCoef="0" IVar="-1" Cut="0.0000000000000000e+00" cType="1" res="4.8358496860601008e-04" rms="4.6514281630516052e-01" purity="3.7419885396957397e-01" nType="-99"/>
        </Node>
        <Node pos="r" depth="1" NCoef="0" IVar="5" Cut="1.0155175924301147e+00" cType="1" res="1.1928960680961609e-01" rms="4.1808238625526428e-01" purity="6.6689401865005493e-01" nType="0">
          <Node pos="l" depth="2" NCoef="0" IVar="-1" Cut="0.0000000000000000e+00" cType="1" res="-3.2937078503891826e-04" rms="4.2319211363792419e-01" purity="4.7248145937919617e-01" nType="-99"/>
          <Node pos="r" depth="2" NCoef="0" IVar="-1" Cut="0.0000000000000000e+00" cType="1" res="9.1437104856595397e-04" rms="4.0581655502319336e-01" purity="7.2167009115219116e-01" nType="-99"/>
        </Node>
      </Node>
    </BinaryTree>
    <BinaryTree type="DecisionTree" boostWeight="1.0000000000000000e+00" itree="468">
      <Node pos="s" depth="0" NCoef="0" IVar="4" Cut="7.9102009534835815e-01" cType="1" res="7.8709550201892853e-02" rms="4.3857070803642273e-01" purity="5.1189869642257690e-01" nType="0">
        <Node pos="l" depth="1" NCoef="0" IVar="6" Cut="3.1287329101562500e+02" cType="1" res="1.0147306323051453e-01" rms="4.4349491596221924e-01" purity="5.4961228370666504e-01" nType="0">
          <Node pos="l" depth="2" NCoef="0" IVar="-1" Cut="0.0000000000000000e+00" cType="1" res="2.7374757337383926e-05" rms="4.4150918722152710e-01" purity="3.1725907325744629e-01" nType="-99"/>
          <Node pos="r" depth="2" NCoef="0" IVar="-1" Cut="0.0000000000000000e+00" cType="1" res="8.9596252655610442e-04" rms="4.3618866801261902e-01" purity="6.6469138860702515e-01" nType="-99"/>
        </Node>
        <Node pos="r" depth="1" NCoef="0" IVar="-1" Cut="0.0000000000000000e+00" cType="1" res="-4.0307068265974522e-03" rms="2.9040071368217468e-01" purity="1.1630111187696457e-01" nType="-99"/>
      </Node>
    </BinaryTree>
    <BinaryTree type="DecisionTree" boostWeight="1.0000000000000000e+00" itree="469">
      <Node pos="s" depth="0" NCoef="0" IVar="5" Cut="1.1924167871475220e+00" cType="1" res="7.7311597764492035e-02" rms="4.4606649875640869e-01" purity="5.0985634326934814e-01" nType="0">
        <Node pos="l" depth="1" NCoef="0" IVar="5" Cut="8.0684256553649902e-01" cType="1" res="2.1355035714805126e-03" rms="4.5586964488029480e-01" purity="3.7905597686767578e-01" nType="0">
          <Node pos="l" depth="2" NCoef="0" IVar="-1" Cut="0.0000000000000000e+00" cType="1" res="1.4732581330463290e-03" rms="4.8095408082008362e-01" purity="5.1231926679611206e-01" nType="-99"/>
          <Node pos="r" depth="2" NCoef="0" IVar="-1" Cut="0.0000000000000000e+00" cType="1" res="-4.3596854084171355e-04" rms="4.3917837738990784e-01" purity="3.4686261415481567e-01" nType="-99"/>
        </Node>
        <Node pos="r" depth="1" NCoef="0" IVar="6" Cut="2.5846398925781250e+02" cType="1" res="1.2583363056182861e-01" rms="4.3274277448654175e-01" purity="5.9428089857101440e-01" nType="0">
          <Node pos="l" depth="2" NCoef="0" IVar="-1" Cut="0.0000000000000000e+00" cType="1" res="-6.8763963645324111e-04" rms="3.7134531140327454e-01" purity="2.5122535228729248e-01" nType="-99"/>
          <Node pos="r" depth="2" NCoef="0" IVar="-1" Cut="0.0000000000000000e+00" cType="1" res="9.5823366427794099e-04" rms="4.3513104319572449e-01" purity="6.4935886859893799e-01" nType="-99"/>
        </Node>
      </Node>
    </BinaryTree>
    <BinaryTree type="DecisionTree" boostWeight="1.0000000000000000e+00" itree="470">
      <Node pos="s" depth="0" NCoef="0" IVar="0" Cut="9.1647845506668091e-01" cType="1" res="6.8260684609413147e-02" rms="4.4097566604614258e-01" purity="4.9087101221084595e-01" nType="0">
        <Node pos="l" depth="1" NCoef="0" IVar="-1" Cut="0.0000000000000000e+00" cType="1" res="-2.5923878420144320e-03" rms="3.1247434020042419e-01" purity="1.4427648484706879e-01" nType="-99"/>
        <Node pos="r" depth="1" NCoef="0" IVar="3" Cut="1.1961909532546997e+00" cType="1" res="8.5804238915443420e-02" rms="4.4618967175483704e-01" purity="5.2114546298980713e-01" nType="0">
          <Node pos="l" depth="2" NCoef="0" IVar="-1" Cut="0.0000000000000000e+00" cType="1" res="9.0445968089625239e-04" rms="4.3966713547706604e-01" purity="6.9242894649505615e-01" nType="-99"/>
          <Node pos="r" depth="2" NCoef="0" IVar="-1" Cut="0.0000000000000000e+00" cType="1" res="3.5750359529629350e-04" rms="4.4360977411270142e-01" purity="4.1145578026771545e-01" nType="-99"/>
        </Node>
      </Node>
    </BinaryTree>
    <BinaryTree type="DecisionTree" boostWeight="1.0000000000000000e+00" itree="471">
      <Node pos="s" depth="0" NCoef="0" IVar="7" Cut="2.3113131523132324e+00" cType="1" res="6.7441210150718689e-02" rms="4.4397628307342529e-01" purity="4.9655252695083618e-01" nType="0">
        <Node pos="l" depth="1" NCoef="0" IVar="3" Cut="6.9816356897354126e-01" cType="1" res="8.3517633378505707e-02" rms="4.5326462388038635e-01" purity="5.2997571229934692e-01" nType="0">
          <Node pos="l" depth="2" NCoef="0" IVar="-1" Cut="0.0000000000000000e+00" cType="1" res="1.0566678829491138e-03" rms="4.2475113272666931e-01" purity="7.2329872846603394e-01" nType="-99"/>
          <Node pos="r" depth="2" NCoef="0" IVar="-1" Cut="0.0000000000000000e+00" cType="1" res="4.4617609819397330e-04" rms="4.5571205019950867e-01" purity="4.8307463526725769e-01" nType="-99"/>
        </Node>
        <Node pos="r" depth="1" NCoef="0" IVar="-1" Cut="0.0000000000000000e+00" cType="1" res="-1.7717495560646057e-02" rms="1.1143554002046585e-01" purity="0.0000000000000000e+00" nType="-99"/>
      </Node>
    </BinaryTree>
    <BinaryTree type="DecisionTree" boostWeight="1.0000000000000000e+00" itree="472">
      <Node pos="s" depth="0" NCoef="0" IVar="0" Cut="9.1838431358337402e-01" cType="1" res="3.9827819913625717e-02" rms="4.3044528365135193e-01" purity="4.7395932674407959e-01" nType="0">
        <Node pos="l" depth="1" NCoef="0" IVar="-1" Cut="0.0000000000000000e+00" cType="1" res="-3.4430357627570629e-03" rms="3.3334061503410339e-01" purity="1.3969522714614868e-01" nType="-99"/>
        <Node pos="r" depth="1" NCoef="0" IVar="5" Cut="1.0304553508758545e+00" cType="1" res="5.6744676083326340e-02" rms="4.3468403816223145e-01" purity="5.0546169281005859e-01" nType="0">
          <Node pos="l" depth="2" NCoef="0" IVar="-1" Cut="0.0000000000000000e+00" cType="1" res="-4.5950175262987614e-04" rms="3.8904550671577454e-01" purity="3.5810631513595581e-01" nType="-99"/>
          <Node pos="r" depth="2" NCoef="0" IVar="-1" Cut="0.0000000000000000e+00" cType="1" res="6.3453475013375282e-04" rms="4.4406348466873169e-01" purity="5.5579131841659546e-01" nType="-99"/>
        </Node>
      </Node>
    </BinaryTree>
    <BinaryTree type="DecisionTree" boostWeight="1.0000000000000000e+00" itree="473">
      <Node pos="s" depth="0" NCoef="0" IVar="1" Cut="9.1955520629882812e+01" cType="1" res="7.9693481326103210e-02" rms="4.4459483027458191e-01" purity="5.1243060827255249e-01" nType="0">
        <Node pos="l" depth="1" NCoef="0" IVar="3" Cut="7.2590470314025879e-01" cType="1" res="8.2840090617537498e-03" rms="4.3678739666938782e-01" purity="3.9856907725334167e-01" nType="0">
          <Node pos="l" depth="2" NCoef="0" IVar="-1" Cut="0.0000000000000000e+00" cType="1" res="7.6542550232261419e-04" rms="4.2488893866539001e-01" purity="6.2777578830718994e-01" nType="-99"/>
          <Node pos="r" depth="2" NCoef="0" IVar="-1" Cut="0.0000000000000000e+00" cType="1" res="-2.6830707793124020e-04" rms="4.3422833085060120e-01" purity="3.3844384551048279e-01" nType="-99"/>
        </Node>
        <Node pos="r" depth="1" NCoef="0" IVar="4" Cut="7.5347423553466797e-01" cType="1" res="1.4766730368137360e-01" rms="4.4129398465156555e-01" purity="6.2081402540206909e-01" nType="0">
          <Node pos="l" depth="2" NCoef="0" IVar="-1" Cut="0.0000000000000000e+00" cType="1" res="1.0763286845758557e-03" rms="4.3972292542457581e-01" purity="6.5107733011245728e-01" nType="-99"/>
          <Node pos="r" depth="2" NCoef="0" IVar="-1" Cut="0.0000000000000000e+00" cType="1" res="-1.5237275511026382e-04" rms="4.1334590315818787e-01" purity="4.4548133015632629e-01" nType="-99"/>
        </Node>
      </Node>
    </BinaryTree>
    <BinaryTree type="DecisionTree" boostWeight="1.0000000000000000e+00" itree="474">
      <Node pos="s" depth="0" NCoef="0" IVar="1" Cut="6.8337028503417969e+01" cType="1" res="1.0993600636720657e-01" rms="4.4516524672508240e-01" purity="5.5274808406829834e-01" nType="0">
        <Node pos="l" depth="1" NCoef="0" IVar="2" Cut="2.1376695251464844e+02" cType="1" res="1.7693549394607544e-02" rms="4.3710583448410034e-01" purity="3.8978254795074463e-01" nType="0">
          <Node pos="l" depth="2" NCoef="0" IVar="-1" Cut="0.0000000000000000e+00" cType="1" res="4.1965657146647573e-04" rms="4.4098749756813049e-01" purity="4.2728558182716370e-01" nType="-99"/>
          <Node pos="r" depth="2" NCoef="0" IVar="-1" Cut="0.0000000000000000e+00" cType="1" res="-2.0991696510463953e-03" rms="3.9276069402694702e-01" purity="2.2745236754417419e-01" nType="-99"/>
        </Node>
        <Node pos="r" depth="1" NCoef="0" IVar="5" Cut="9.5702868700027466e-01" cType="1" res="1.4860290288925171e-01" rms="4.4282153248786926e-01" purity="6.2106120586395264e-01" nType="0">
          <Node pos="l" depth="2" NCoef="0" IVar="-1" Cut="0.0000000000000000e+00" cType="1" res="1.5233792364597321e-03" rms="4.4591566920280457e-01" purity="6.4696568250656128e-01" nType="-99"/>
          <Node pos="r" depth="2" NCoef="0" IVar="-1" Cut="0.0000000000000000e+00" cType="1" res="7.0992315886542201e-04" rms="4.3536287546157837e-01" purity="6.1041796207427979e-01" nType="-99"/>
        </Node>
      </Node>
    </BinaryTree>
    <BinaryTree type="DecisionTree" boostWeight="1.0000000000000000e+00" itree="475">
      <Node pos="s" depth="0" NCoef="0" IVar="0" Cut="9.1428476572036743e-01" cType="1" res="6.4738139510154724e-02" rms="4.4039127230644226e-01" purity="4.9689921736717224e-01" nType="0">
        <Node pos="l" depth="1" NCoef="0" IVar="-1" Cut="0.0000000000000000e+00" cType="1" res="-1.5081239864230156e-02" rms="2.0426099002361298e-01" purity="2.5178410112857819e-02" nType="-99"/>
        <Node pos="r" depth="1" NCoef="0" IVar="7" Cut="1.8028018474578857e+00" cType="1" res="8.1753402948379517e-02" rms="4.4472351670265198e-01" purity="5.2483123540878296e-01" nType="0">
          <Node pos="l" depth="2" NCoef="0" IVar="-1" Cut="0.0000000000000000e+00" cType="1" res="7.7793840318918228e-04" rms="4.5314577221870422e-01" purity="5.7672303915023804e-01" nType="-99"/>
          <Node pos="r" depth="2" NCoef="0" IVar="-1" Cut="0.0000000000000000e+00" cType="1" res="-2.3922338732518256e-04" rms="3.9670294523239136e-01" purity="3.4269791841506958e-01" nType="-99"/>
        </Node>
      </Node>
    </BinaryTree>
    <BinaryTree type="DecisionTree" boostWeight="1.0000000000000000e+00" itree="476">
      <Node pos="s" depth="0" NCoef="0" IVar="7" Cut="2.1019291877746582e+00" cType="1" res="8.0700628459453583e-02" rms="4.4204562902450562e-01" purity="5.2206152677536011e-01" nType="0">
        <Node pos="l" depth="1" NCoef="0" IVar="6" Cut="3.9884924316406250e+02" cType="1" res="9.9870212376117706e-02" rms="4.4869926571846008e-01" purity="5.6301742792129517e-01" nType="0">
          <Node pos="l" depth="2" NCoef="0" IVar="-1" Cut="0.0000000000000000e+00" cType="1" res="4.5684151700697839e-04" rms="4.5166185498237610e-01" purity="4.7079426050186157e-01" nType="-99"/>
          <Node pos="r" depth="2" NCoef="0" IVar="-1" Cut="0.0000000000000000e+00" cType="1" res="1.0012981947511435e-03" rms="4.3136212229728699e-01" purity="7.3279523849487305e-01" nType="-99"/>
        </Node>
        <Node pos="r" depth="1" NCoef="0" IVar="3" Cut="2.6148450374603271e+00" cType="1" res="-9.6107751131057739e-02" rms="3.2571393251419067e-01" purity="1.4430890977382660e-01" nType="0">
          <Node pos="l" depth="2" NCoef="0" IVar="-1" Cut="0.0000000000000000e+00" cType="1" res="-2.5639187078922987e-03" rms="3.6259961128234863e-01" purity="2.1690337359905243e-01" nType="-99"/>
          <Node pos="r" depth="2" NCoef="0" IVar="-1" Cut="0.0000000000000000e+00" cType="1" res="-3.1275663059204817e-03" rms="2.7470389008522034e-01" purity="7.4078619480133057e-02" nType="-99"/>
        </Node>
      </Node>
    </BinaryTree>
    <BinaryTree type="DecisionTree" boostWeight="1.0000000000000000e+00" itree="477">
      <Node pos="s" depth="0" NCoef="0" IVar="8" Cut="8.6440818786621094e+01" cType="1" res="6.8432584404945374e-02" rms="4.4089865684509277e-01" purity="4.9828511476516724e-01" nType="0">
        <Node pos="l" depth="1" NCoef="0" IVar="-1" Cut="0.0000000000000000e+00" cType="1" res="-1.6863130731508136e-03" rms="3.3490267395973206e-01" purity="2.1705843508243561e-01" nType="-99"/>
        <Node pos="r" depth="1" NCoef="0" IVar="5" Cut="1.1716208457946777e+00" cType="1" res="8.3882033824920654e-02" rms="4.4593638181686401e-01" purity="5.2348870038986206e-01" nType="0">
          <Node pos="l" depth="2" NCoef="0" IVar="-1" Cut="0.0000000000000000e+00" cType="1" res="2.0083894196432084e-04" rms="4.1975438594818115e-01" purity="4.4410750269889832e-01" nType="-99"/>
          <Node pos="r" depth="2" NCoef="0" IVar="-1" Cut="0.0000000000000000e+00" cType="1" res="9.1524230083450675e-04" rms="4.5944881439208984e-01" purity="5.8374172449111938e-01" nType="-99"/>
        </Node>
      </Node>
    </BinaryTree>
    <BinaryTree type="DecisionTree" boostWeight="1.0000000000000000e+00" itree="478">
      <Node pos="s" depth="0" NCoef="0" IVar="6" Cut="4.0466412353515625e+02" cType="1" res="6.2904268503189087e-02" rms="4.3401184678077698e-01" purity="5.0615763664245605e-01" nType="0">
        <Node pos="l" depth="1" NCoef="0" IVar="0" Cut="9.5348036289215088e-01" cType="1" res="1.3657205738127232e-02" rms="4.3279588222503662e-01" purity="4.0390846133232117e-01" nType="0">
          <Node pos="l" depth="2" NCoef="0" IVar="-1" Cut="0.0000000000000000e+00" cType="1" res="-1.0628063464537263e-03" rms="3.7837922573089600e-01" purity="2.1054783463478088e-01" nType="-99"/>
          <Node pos="r" depth="2" NCoef="0" IVar="-1" Cut="0.0000000000000000e+00" cType="1" res="5.4976798128336668e-04" rms="4.5951014757156372e-01" purity="5.4624062776565552e-01" nType="-99"/>
        </Node>
        <Node pos="r" depth="1" NCoef="0" IVar="7" Cut="1.5435302257537842e+00" cType="1" res="1.4945301413536072e-01" rms="4.2245194315910339e-01" purity="6.8585431575775146e-01" nType="0">
          <Node pos="l" depth="2" NCoef="0" IVar="-1" Cut="0.0000000000000000e+00" cType="1" res="1.0419441387057304e-03" rms="3.9773893356323242e-01" purity="7.7378392219543457e-01" nType="-99"/>
          <Node pos="r" depth="2" NCoef="0" IVar="-1" Cut="0.0000000000000000e+00" cType="1" res="2.3892107128631324e-04" rms="4.4955641031265259e-01" purity="4.9155214428901672e-01" nType="-99"/>
        </Node>
      </Node>
    </BinaryTree>
    <BinaryTree type="DecisionTree" boostWeight="1.0000000000000000e+00" itree="479">
      <Node pos="s" depth="0" NCoef="0" IVar="1" Cut="1.8147018432617188e+02" cType="1" res="8.6441174149513245e-02" rms="4.4338521361351013e-01" purity="5.1852935552597046e-01" nType="0">
        <Node pos="l" depth="1" NCoef="0" IVar="0" Cut="9.7020834684371948e-01" cType="1" res="6.2753848731517792e-02" rms="4.3642675876617432e-01" purity="4.9938839673995972e-01" nType="0">
          <Node pos="l" depth="2" NCoef="0" IVar="-1" Cut="0.0000000000000000e+00" cType="1" res="1.3653477071784437e-04" rms="4.3626207113265991e-01" purity="3.9152377843856812e-01" nType="-99"/>
          <Node pos="r" depth="2" NCoef="0" IVar="-1" Cut="0.0000000000000000e+00" cType="1" res="8.7363051716238260e-04" rms="4.2167350649833679e-01" purity="7.0373070240020752e-01" nType="-99"/>
        </Node>
        <Node pos="r" depth="1" NCoef="0" IVar="-1" Cut="0.0000000000000000e+00" cType="1" res="1.6805729828774929e-03" rms="4.5589968562126160e-01" purity="6.5398931503295898e-01" nType="-99"/>
      </Node>
    </BinaryTree>
    <BinaryTree type="DecisionTree" boostWeight="1.0000000000000000e+00" itree="480">
      <Node pos="s" depth="0" NCoef="0" IVar="3" Cut="1.1166555881500244e+00" cType="1" res="6.2212072312831879e-02" rms="4.3157863616943359e-01" purity="5.0215631723403931e-01" nType="0">
        <Node pos="l" depth="1" NCoef="0" IVar="0" Cut="9.3805027008056641e-01" cType="1" res="1.4328965544700623e-01" rms="4.2751306295394897e-01" purity="6.8524998426437378e-01" nType="0">
          <Node pos="l" depth="2" NCoef="0" IVar="-1" Cut="0.0000000000000000e+00" cType="1" res="-8.4214855451136827e-04" rms="4.2143014073371887e-01" purity="3.5682201385498047e-01" nType="-99"/>
          <Node pos="r" depth="2" NCoef="0" IVar="-1" Cut="0.0000000000000000e+00" cType="1" res="1.0300063295289874e-03" rms="4.1511732339859009e-01" purity="7.5077486038208008e-01" nType="-99"/>
        </Node>
        <Node pos="r" depth="1" NCoef="0" IVar="1" Cut="4.9356960296630859e+01" cType="1" res="1.5202814713120461e-02" rms="4.2692384123802185e-01" purity="3.9599752426147461e-01" nType="0">
          <Node pos="l" depth="2" NCoef="0" IVar="-1" Cut="0.0000000000000000e+00" cType="1" res="-5.1192911341786385e-03" rms="3.1302773952484131e-01" purity="9.1726504266262054e-02" nType="-99"/>
          <Node pos="r" depth="2" NCoef="0" IVar="-1" Cut="0.0000000000000000e+00" cType="1" res="3.0789850279688835e-04" rms="4.3626537919044495e-01" purity="4.3654495477676392e-01" nType="-99"/>
        </Node>
      </Node>
    </BinaryTree>
    <BinaryTree type="DecisionTree" boostWeight="1.0000000000000000e+00" itree="481">
      <Node pos="s" depth="0" NCoef="0" IVar="8" Cut="1.2867556762695312e+02" cType="1" res="6.9487951695919037e-02" rms="4.3742498755455017e-01" purity="5.0199007987976074e-01" nType="0">
        <Node pos="l" depth="1" NCoef="0" IVar="3" Cut="7.3039984703063965e-01" cType="1" res="1.1104252189397812e-01" rms="4.4572576880455017e-01" purity="5.4408973455429077e-01" nType="0">
          <Node pos="l" depth="2" NCoef="0" IVar="-1" Cut="0.0000000000000000e+00" cType="1" res="1.1839771177619696e-03" rms="3.9711701869964600e-01" purity="7.4913859367370605e-01" nType="-99"/>
          <Node pos="r" depth="2" NCoef="0" IVar="-1" Cut="0.0000000000000000e+00" cType="1" res="6.4926303457468748e-04" rms="4.5249140262603760e-01" purity="4.9096083641052246e-01" nType="-99"/>
        </Node>
        <Node pos="r" depth="1" NCoef="0" IVar="3" Cut="1.8847714662551880e+00" cType="1" res="-4.7342418693006039e-03" rms="4.1189017891883850e-01" purity="4.2679429054260254e-01" nType="0">
          <Node pos="l" depth="2" NCoef="0" IVar="-1" Cut="0.0000000000000000e+00" cType="1" res="4.8450884060002863e-04" rms="4.5449209213256836e-01" purity="6.2608689069747925e-01" nType="-99"/>
          <Node pos="r" depth="2" NCoef="0" IVar="-1" Cut="0.0000000000000000e+00" cType="1" res="-6.6426163539290428e-03" rms="2.5344905257225037e-01" purity="6.2400475144386292e-02" nType="-99"/>
        </Node>
      </Node>
    </BinaryTree>
    <BinaryTree type="DecisionTree" boostWeight="1.0000000000000000e+00" itree="482">
      <Node pos="s" depth="0" NCoef="0" IVar="5" Cut="8.2293629646301270e-01" cType="1" res="5.1264900714159012e-02" rms="4.3196192383766174e-01" purity="4.8521661758422852e-01" nType="0">
        <Node pos="l" depth="1" NCoef="0" IVar="-1" Cut="0.0000000000000000e+00" cType="1" res="-1.0143117979168892e-02" rms="2.4138616025447845e-01" purity="6.1958301812410355e-02" nType="-99"/>
        <Node pos="r" depth="1" NCoef="0" IVar="0" Cut="9.7072994709014893e-01" cType="1" res="7.0362776517868042e-02" rms="4.3393254280090332e-01" purity="5.1145428419113159e-01" nType="0">
          <Node pos="l" depth="2" NCoef="0" IVar="-1" Cut="0.0000000000000000e+00" cType="1" res="2.1504217875190079e-04" rms="4.4167402386665344e-01" purity="4.0571287274360657e-01" nType="-99"/>
          <Node pos="r" depth="2" NCoef="0" IVar="-1" Cut="0.0000000000000000e+00" cType="1" res="9.4578030984848738e-04" rms="4.0127819776535034e-01" purity="7.2408014535903931e-01" nType="-99"/>
        </Node>
      </Node>
    </BinaryTree>
    <BinaryTree type="DecisionTree" boostWeight="1.0000000000000000e+00" itree="483">
      <Node pos="s" depth="0" NCoef="0" IVar="5" Cut="1.4493494033813477e+00" cType="1" res="7.4431411921977997e-02" rms="4.4489514827728271e-01" purity="4.9263602495193481e-01" nType="0">
        <Node pos="l" depth="1" NCoef="0" IVar="7" Cut="6.6301220655441284e-01" cType="1" res="3.1305637210607529e-02" rms="4.3495318293571472e-01" purity="4.4035995006561279e-01" nType="0">
          <Node pos="l" depth="2" NCoef="0" IVar="-1" Cut="0.0000000000000000e+00" cType="1" res="1.4190054498612881e-03" rms="4.4684109091758728e-01" purity="5.9947884082794189e-01" nType="-99"/>
          <Node pos="r" depth="2" NCoef="0" IVar="-1" Cut="0.0000000000000000e+00" cType="1" res="3.5564564313972369e-05" rms="4.2661279439926147e-01" purity="4.1514602303504944e-01" nType="-99"/>
        </Node>
        <Node pos="r" depth="1" NCoef="0" IVar="7" Cut="1.7714325189590454e+00" cType="1" res="1.5254008769989014e-01" rms="4.5200157165527344e-01" purity="5.8731758594512939e-01" nType="0">
          <Node pos="l" depth="2" NCoef="0" IVar="-1" Cut="0.0000000000000000e+00" cType="1" res="6.9977995008230209e-04" rms="4.1966485977172852e-01" purity="5.8370572328567505e-01" nType="-99"/>
          <Node pos="r" depth="2" NCoef="0" IVar="-1" Cut="0.0000000000000000e+00" cType="1" res="2.3015013430267572e-03" rms="5.1308250427246094e-01" purity="5.9891229867935181e-01" nType="-99"/>
        </Node>
      </Node>
    </BinaryTree>
    <BinaryTree type="DecisionTree" boostWeight="1.0000000000000000e+00" itree="484">
      <Node pos="s" depth="0" NCoef="0" IVar="1" Cut="4.6489757537841797e+01" cType="1" res="8.1053033471107483e-02" rms="4.4342145323753357e-01" purity="5.1200354099273682e-01" nType="0">
        <Node pos="l" depth="1" NCoef="0" IVar="1" Cut="3.1367019653320312e+01" cType="1" res="-4.4159475713968277e-02" rms="4.0836122632026672e-01" purity="2.6523062586784363e-01" nType="0">
          <Node pos="l" depth="2" NCoef="0" IVar="-1" Cut="0.0000000000000000e+00" cType="1" res="1.5429857885465026e-03" rms="4.8518648743629456e-01" purity="4.1792151331901550e-01" nType="-99"/>
          <Node pos="r" depth="2" NCoef="0" IVar="-1" Cut="0.0000000000000000e+00" cType="1" res="-2.8924774378538132e-03" rms="3.0662766098976135e-01" purity="1.7580349743366241e-01" nType="-99"/>
        </Node>
        <Node pos="r" depth="1" NCoef="0" IVar="7" Cut="1.7950786352157593e+00" cType="1" res="1.0091496258974075e-01" rms="4.4550898671150208e-01" purity="5.5114811658859253e-01" nType="0">
          <Node pos="l" depth="2" NCoef="0" IVar="-1" Cut="0.0000000000000000e+00" cType="1" res="8.7431562133133411e-04" rms="4.4651466608047485e-01" purity="6.3229799270629883e-01" nType="-99"/>
          <Node pos="r" depth="2" NCoef="0" IVar="-1" Cut="0.0000000000000000e+00" cType="1" res="-3.6481516872299835e-05" rms="4.2589172720909119e-01" purity="3.1786608695983887e-01" nType="-99"/>
        </Node>
      </Node>
    </BinaryTree>
    <BinaryTree type="DecisionTree" boostWeight="1.0000000000000000e+00" itree="485">
      <Node pos="s" depth="0" NCoef="0" IVar="8" Cut="9.7129119873046875e+01" cType="1" res="8.2756966352462769e-02" rms="4.4479283690452576e-01" purity="5.1985675096511841e-01" nType="0">
        <Node pos="l" depth="1" NCoef="0" IVar="4" Cut="7.5649833679199219e-01" cType="1" res="-5.6450907140970230e-02" rms="4.1049197316169739e-01" purity="2.8794208168983459e-01" nType="0">
          <Node pos="l" depth="2" NCoef="0" IVar="-1" Cut="0.0000000000000000e+00" cType="1" res="-2.7597818989306688e-03" rms="3.7220546603202820e-01" purity="1.8492957949638367e-01" nType="-99"/>
          <Node pos="r" depth="2" NCoef="0" IVar="-1" Cut="0.0000000000000000e+00" cType="1" res="9.3454640591517091e-04" rms="4.1759374737739563e-01" purity="4.6825662255287170e-01" nType="-99"/>
        </Node>
        <Node pos="r" depth="1" NCoef="0" IVar="8" Cut="1.2932460021972656e+02" cType="1" res="1.0482000559568405e-01" rms="4.4601809978485107e-01" purity="5.5661290884017944e-01" nType="0">
          <Node pos="l" depth="2" NCoef="0" IVar="-1" Cut="0.0000000000000000e+00" cType="1" res="9.3782373005524278e-04" rms="4.3579000234603882e-01" purity="6.2988388538360596e-01" nType="-99"/>
          <Node pos="r" depth="2" NCoef="0" IVar="-1" Cut="0.0000000000000000e+00" cType="1" res="3.6488572368398309e-04" rms="4.5275995135307312e-01" purity="4.5059365034103394e-01" nType="-99"/>
        </Node>
      </Node>
    </BinaryTree>
    <BinaryTree type="DecisionTree" boostWeight="1.0000000000000000e+00" itree="486">
      <Node pos="s" depth="0" NCoef="0" IVar="1" Cut="3.7313098907470703e+01" cType="1" res="7.9840965569019318e-02" rms="4.3872466683387756e-01" purity="5.1288181543350220e-01" nType="0">
        <Node pos="l" depth="1" NCoef="0" IVar="-1" Cut="0.0000000000000000e+00" cType="1" res="-5.3190146572887897e-03" rms="2.6957190036773682e-01" purity="1.0319799929857254e-01" nType="-99"/>
        <Node pos="r" depth="1" NCoef="0" IVar="7" Cut="1.0500991344451904e+00" cType="1" res="9.4590313732624054e-02" rms="4.4242659211158752e-01" purity="5.3727376461029053e-01" nType="0">
          <Node pos="l" depth="2" NCoef="0" IVar="-1" Cut="0.0000000000000000e+00" cType="1" res="1.1344033991917968e-03" rms="4.2048737406730652e-01" purity="6.7965620756149292e-01" nType="-99"/>
          <Node pos="r" depth="2" NCoef="0" IVar="-1" Cut="0.0000000000000000e+00" cType="1" res="3.9648960228078067e-04" rms="4.4450712203979492e-01" purity="4.7269368171691895e-01" nType="-99"/>
        </Node>
      </Node>
    </BinaryTree>
    <BinaryTree type="DecisionTree" boostWeight="1.0000000000000000e+00" itree="487">
      <Node pos="s" depth="0" NCoef="0" IVar="1" Cut="1.0455554199218750e+02" cType="1" res="4.1447967290878296e-02" rms="4.3385940790176392e-01" purity="4.7450760006904602e-01" nType="0">
        <Node pos="l" depth="1" NCoef="0" IVar="6" Cut="3.1595361328125000e+02" cType="1" res="-1.1998094618320465e-02" rms="4.2251721024513245e-01" purity="3.9626756310462952e-01" nType="0">
          <Node pos="l" depth="2" NCoef="0" IVar="-1" Cut="0.0000000000000000e+00" cType="1" res="-1.2538863811641932e-03" rms="3.7223166227340698e-01" purity="2.3522531986236572e-01" nType="-99"/>
          <Node pos="r" depth="2" NCoef="0" IVar="-1" Cut="0.0000000000000000e+00" cType="1" res="4.1556480573490262e-04" rms="4.5759454369544983e-01" purity="5.6127029657363892e-01" nType="-99"/>
        </Node>
        <Node pos="r" depth="1" NCoef="0" IVar="7" Cut="1.8086302280426025e+00" cType="1" res="1.1464788764715195e-01" rms="4.3848231434822083e-01" purity="5.8166539669036865e-01" nType="0">
          <Node pos="l" depth="2" NCoef="0" IVar="-1" Cut="0.0000000000000000e+00" cType="1" res="1.0235949885100126e-03" rms="4.1820237040519714e-01" purity="7.6083266735076904e-01" nType="-99"/>
          <Node pos="r" depth="2" NCoef="0" IVar="-1" Cut="0.0000000000000000e+00" cType="1" res="2.6589856133796275e-04" rms="4.4450896978378296e-01" purity="3.7822562456130981e-01" nType="-99"/>
        </Node>
      </Node>
    </BinaryTree>
    <BinaryTree type="DecisionTree" boostWeight="1.0000000000000000e+00" itree="488">
      <Node pos="s" depth="0" NCoef="0" IVar="6" Cut="2.7219833374023438e+02" cType="1" res="7.6837606728076935e-02" rms="4.3265810608863831e-01" purity="5.0947880744934082e-01" nType="0">
        <Node pos="l" depth="1" NCoef="0" IVar="1" Cut="9.4586090087890625e+01" cType="1" res="-6.6224850714206696e-02" rms="3.5246342420578003e-01" purity="1.9612981379032135e-01" nType="0">
          <Node pos="l" depth="2" NCoef="0" IVar="-1" Cut="0.0000000000000000e+00" cType="1" res="-3.2918308861553669e-03" rms="3.0696710944175720e-01" purity="1.2250930815935135e-01" nType="-99"/>
          <Node pos="r" depth="2" NCoef="0" IVar="-1" Cut="0.0000000000000000e+00" cType="1" res="9.1805978445336223e-04" rms="4.0876030921936035e-01" purity="3.9220130443572998e-01" nType="-99"/>
        </Node>
        <Node pos="r" depth="1" NCoef="0" IVar="3" Cut="2.1136727333068848e+00" cType="1" res="1.1461321264505386e-01" rms="4.4383218884468079e-01" purity="5.9221857786178589e-01" nType="0">
          <Node pos="l" depth="2" NCoef="0" IVar="-1" Cut="0.0000000000000000e+00" cType="1" res="8.4181543206796050e-04" rms="4.5096120238304138e-01" purity="6.8856632709503174e-01" nType="-99"/>
          <Node pos="r" depth="2" NCoef="0" IVar="-1" Cut="0.0000000000000000e+00" cType="1" res="-3.6254563019610941e-04" rms="3.8648450374603271e-01" purity="2.1459975838661194e-01" nType="-99"/>
        </Node>
      </Node>
    </BinaryTree>
    <BinaryTree type="DecisionTree" boostWeight="1.0000000000000000e+00" itree="489">
      <Node pos="s" depth="0" NCoef="0" IVar="1" Cut="4.9405254364013672e+01" cType="1" res="6.4817309379577637e-02" rms="4.3567103147506714e-01" purity="5.0507092475891113e-01" nType="0">
        <Node pos="l" depth="1" NCoef="0" IVar="7" Cut="5.7761132717132568e-01" cType="1" res="-9.3635626137256622e-02" rms="3.5653898119926453e-01" purity="2.3410050570964813e-01" nType="0">
          <Node pos="l" depth="2" NCoef="0" IVar="-1" Cut="0.0000000000000000e+00" cType="1" res="3.4638171200640500e-04" rms="3.9972859621047974e-01" purity="4.3180754780769348e-01" nType="-99"/>
          <Node pos="r" depth="2" NCoef="0" IVar="-1" Cut="0.0000000000000000e+00" cType="1" res="-5.6298593990504742e-03" rms="2.8974273800849915e-01" purity="1.0095752030611038e-01" nType="-99"/>
        </Node>
        <Node pos="r" depth="1" NCoef="0" IVar="4" Cut="7.9838448762893677e-01" cType="1" res="9.1582693159580231e-02" rms="4.4208717346191406e-01" purity="5.5084246397018433e-01" nType="0">
          <Node pos="l" depth="2" NCoef="0" IVar="-1" Cut="0.0000000000000000e+00" cType="1" res="7.5403926894068718e-04" rms="4.4399967789649963e-01" purity="5.7555329799652100e-01" nType="-99"/>
          <Node pos="r" depth="2" NCoef="0" IVar="-1" Cut="0.0000000000000000e+00" cType="1" res="-1.8328791484236717e-03" rms="3.4740605950355530e-01" purity="2.3277397453784943e-01" nType="-99"/>
        </Node>
      </Node>
    </BinaryTree>
    <BinaryTree type="DecisionTree" boostWeight="1.0000000000000000e+00" itree="490">
      <Node pos="s" depth="0" NCoef="0" IVar="8" Cut="1.5309326171875000e+02" cType="1" res="6.3581526279449463e-02" rms="4.4720506668090820e-01" purity="4.9336764216423035e-01" nType="0">
        <Node pos="l" depth="1" NCoef="0" IVar="0" Cut="9.5314586162567139e-01" cType="1" res="3.6531597375869751e-02" rms="4.4588449597358704e-01" purity="4.6645143628120422e-01" nType="0">
          <Node pos="l" depth="2" NCoef="0" IVar="-1" Cut="0.0000000000000000e+00" cType="1" res="-4.2713611037470400e-04" rms="4.2204195261001587e-01" purity="2.9508474469184875e-01" nType="-99"/>
          <Node pos="r" depth="2" NCoef="0" IVar="-1" Cut="0.0000000000000000e+00" cType="1" res="6.0282222693786025e-04" rms="4.5627817511558533e-01" purity="6.0135537385940552e-01" nType="-99"/>
        </Node>
        <Node pos="r" depth="1" NCoef="0" IVar="7" Cut="1.5180956125259399e+00" cType="1" res="1.6812525689601898e-01" rms="4.3679887056350708e-01" purity="5.9739446640014648e-01" nType="0">
          <Node pos="l" depth="2" NCoef="0" IVar="-1" Cut="0.0000000000000000e+00" cType="1" res="1.5346537111327052e-03" rms="4.5401039719581604e-01" purity="7.0495003461837769e-01" nType="-99"/>
          <Node pos="r" depth="2" NCoef="0" IVar="-1" Cut="0.0000000000000000e+00" cType="1" res="3.8191664498299360e-04" rms="3.8209956884384155e-01" purity="4.7216507792472839e-01" nType="-99"/>
        </Node>
      </Node>
    </BinaryTree>
    <BinaryTree type="DecisionTree" boostWeight="1.0000000000000000e+00" itree="491">
      <Node pos="s" depth="0" NCoef="0" IVar="6" Cut="3.0555685424804688e+02" cType="1" res="5.4971698671579361e-02" rms="4.3645536899566650e-01" purity="4.9071818590164185e-01" nType="0">
        <Node pos="l" depth="1" NCoef="0" IVar="8" Cut="1.0696390533447266e+02" cType="1" res="-3.4367311745882034e-02" rms="4.0952566266059875e-01" purity="2.6223537325859070e-01" nType="0">
          <Node pos="l" depth="2" NCoef="0" IVar="-1" Cut="0.0000000000000000e+00" cType="1" res="-5.0575360655784607e-03" rms="2.7815958857536316e-01" purity="9.4557523727416992e-02" nType="-99"/>
          <Node pos="r" depth="2" NCoef="0" IVar="-1" Cut="0.0000000000000000e+00" cType="1" res="2.2479867038782686e-04" rms="4.4499158859252930e-01" purity="3.3615127205848694e-01" nType="-99"/>
        </Node>
        <Node pos="r" depth="1" NCoef="0" IVar="7" Cut="2.0970473289489746e+00" cType="1" res="1.0054342448711395e-01" rms="4.4268074631690979e-01" purity="6.0726702213287354e-01" nType="0">
          <Node pos="l" depth="2" NCoef="0" IVar="-1" Cut="0.0000000000000000e+00" cType="1" res="7.1529485285282135e-04" rms="4.4704633951187134e-01" purity="6.4745330810546875e-01" nType="-99"/>
          <Node pos="r" depth="2" NCoef="0" IVar="-1" Cut="0.0000000000000000e+00" cType="1" res="-1.1262387270107865e-03" rms="3.5381656885147095e-01" purity="2.2747300565242767e-01" nType="-99"/>
        </Node>
      </Node>
    </BinaryTree>
    <BinaryTree type="DecisionTree" boostWeight="1.0000000000000000e+00" itree="492">
      <Node pos="s" depth="0" NCoef="0" IVar="1" Cut="3.7896297454833984e+01" cType="1" res="7.2329699993133545e-02" rms="4.4285422563552856e-01" purity="5.1846688985824585e-01" nType="0">
        <Node pos="l" depth="1" NCoef="0" IVar="-1" Cut="0.0000000000000000e+00" cType="1" res="-2.5090237613767385e-03" rms="3.5210376977920532e-01" purity="1.4755891263484955e-01" nType="-99"/>
        <Node pos="r" depth="1" NCoef="0" IVar="7" Cut="2.3443570137023926e+00" cType="1" res="8.6050920188426971e-02" rms="4.4593396782875061e-01" purity="5.4637324810028076e-01" nType="0">
          <Node pos="l" depth="2" NCoef="0" IVar="-1" Cut="0.0000000000000000e+00" cType="1" res="6.6343712387606502e-04" rms="4.5153680443763733e-01" purity="5.7627719640731812e-01" nType="-99"/>
          <Node pos="r" depth="2" NCoef="0" IVar="-1" Cut="0.0000000000000000e+00" cType="1" res="-6.6537680104374886e-03" rms="2.8185957670211792e-01" purity="6.4847439527511597e-02" nType="-99"/>
        </Node>
      </Node>
    </BinaryTree>
    <BinaryTree type="DecisionTree" boostWeight="1.0000000000000000e+00" itree="493">
      <Node pos="s" depth="0" NCoef="0" IVar="0" Cut="9.5621049404144287e-01" cType="1" res="1.0612292215228081e-02" rms="4.2465251684188843e-01" purity="4.5109948515892029e-01" nType="0">
        <Node pos="l" depth="1" NCoef="0" IVar="3" Cut="2.2613859176635742e+00" cType="1" res="-6.3378565013408661e-02" rms="4.1398876905441284e-01" purity="2.6355779170989990e-01" nType="0">
          <Node pos="l" depth="2" NCoef="0" IVar="-1" Cut="0.0000000000000000e+00" cType="1" res="-1.5051659429445863e-03" rms="4.1947248578071594e-01" purity="2.8810682892799377e-01" nType="-99"/>
          <Node pos="r" depth="2" NCoef="0" IVar="-1" Cut="0.0000000000000000e+00" cType="1" res="1.4579831622540951e-03" rms="3.7040615081787109e-01" purity="2.0870548486709595e-01" nType="-99"/>
        </Node>
        <Node pos="r" depth="1" NCoef="0" IVar="3" Cut="9.2378890514373779e-01" cType="1" res="7.2288930416107178e-02" rms="4.2357632517814636e-01" purity="6.0742878913879395e-01" nType="0">
          <Node pos="l" depth="2" NCoef="0" IVar="-1" Cut="0.0000000000000000e+00" cType="1" res="9.4631902175024152e-04" rms="3.5694295167922974e-01" purity="8.2258462905883789e-01" nType="-99"/>
          <Node pos="r" depth="2" NCoef="0" IVar="-1" Cut="0.0000000000000000e+00" cType="1" res="1.8628110410645604e-04" rms="4.3926131725311279e-01" purity="5.1961278915405273e-01" nType="-99"/>
        </Node>
      </Node>
    </BinaryTree>
    <BinaryTree type="DecisionTree" boostWeight="1.0000000000000000e+00" itree="494">
      <Node pos="s" depth="0" NCoef="0" IVar="1" Cut="6.7236114501953125e+01" cType="1" res="7.1742497384548187e-02" rms="4.3134745955467224e-01" purity="5.2425682544708252e-01" nType="0">
        <Node pos="l" depth="1" NCoef="0" IVar="3" Cut="6.1542946100234985e-01" cType="1" res="-3.5405714064836502e-02" rms="4.2257869243621826e-01" purity="3.2017970085144043e-01" nType="0">
          <Node pos="l" depth="2" NCoef="0" IVar="-1" Cut="0.0000000000000000e+00" cType="1" res="7.9169101081788540e-04" rms="4.2155125737190247e-01" purity="5.8918982744216919e-01" nType="-99"/>
          <Node pos="r" depth="2" NCoef="0" IVar="-1" Cut="0.0000000000000000e+00" cType="1" res="-1.2581560295075178e-03" rms="4.1118595004081726e-01" purity="2.4292458593845367e-01" nType="-99"/>
        </Node>
        <Node pos="r" depth="1" NCoef="0" IVar="3" Cut="1.5842792987823486e+00" cType="1" res="1.1081242561340332e-01" rms="4.2787644267082214e-01" purity="5.9867030382156372e-01" nType="0">
          <Node pos="l" depth="2" NCoef="0" IVar="-1" Cut="0.0000000000000000e+00" cType="1" res="8.8295084424316883e-04" rms="3.9806619286537170e-01" purity="7.7655130624771118e-01" nType="-99"/>
          <Node pos="r" depth="2" NCoef="0" IVar="-1" Cut="0.0000000000000000e+00" cType="1" res="4.6452425885945559e-04" rms="4.4965234398841858e-01" purity="4.0544193983078003e-01" nType="-99"/>
        </Node>
      </Node>
    </BinaryTree>
    <BinaryTree type="DecisionTree" boostWeight="1.0000000000000000e+00" itree="495">
      <Node pos="s" depth="0" NCoef="0" IVar="1" Cut="3.7054157257080078e+01" cType="1" res="7.2457104921340942e-02" rms="4.4112291932106018e-01" purity="5.0688731670379639e-01" nType="0">
        <Node pos="l" depth="1" NCoef="0" IVar="-1" Cut="0.0000000000000000e+00" cType="1" res="-5.1805409602820873e-03" rms="2.3501923680305481e-01" purity="8.6001269519329071e-02" nType="-99"/>
        <Node pos="r" depth="1" NCoef="0" IVar="7" Cut="1.4142171144485474e+00" cType="1" res="8.8938482105731964e-02" rms="4.4634810090065002e-01" purity="5.3430634737014771e-01" nType="0">
          <Node pos="l" depth="2" NCoef="0" IVar="-1" Cut="0.0000000000000000e+00" cType="1" res="8.9839106658473611e-04" rms="4.3047744035720825e-01" purity="6.4558118581771851e-01" nType="-99"/>
          <Node pos="r" depth="2" NCoef="0" IVar="-1" Cut="0.0000000000000000e+00" cType="1" res="2.2067136887926608e-04" rms="4.5591238141059875e-01" purity="3.9942666888237000e-01" nType="-99"/>
        </Node>
      </Node>
    </BinaryTree>
    <BinaryTree type="DecisionTree" boostWeight="1.0000000000000000e+00" itree="496">
      <Node pos="s" depth="0" NCoef="0" IVar="4" Cut="7.9425972700119019e-01" cType="1" res="8.0277547240257263e-02" rms="4.3398863077163696e-01" purity="5.1968193054199219e-01" nType="0">
        <Node pos="l" depth="1" NCoef="0" IVar="8" Cut="1.5533450317382812e+02" cType="1" res="9.8259642720222473e-02" rms="4.3391561508178711e-01" purity="5.5101191997528076e-01" nType="0">
          <Node pos="l" depth="2" NCoef="0" IVar="-1" Cut="0.0000000000000000e+00" cType="1" res="8.1186211900785565e-04" rms="4.3477207422256470e-01" purity="5.7449322938919067e-01" nType="-99"/>
          <Node pos="r" depth="2" NCoef="0" IVar="-1" Cut="0.0000000000000000e+00" cType="1" res="-2.7324692928232253e-04" rms="4.0633279085159302e-01" purity="4.0743392705917358e-01" nType="-99"/>
        </Node>
        <Node pos="r" depth="1" NCoef="0" IVar="-1" Cut="0.0000000000000000e+00" cType="1" res="-1.4819916104897857e-03" rms="3.9423632621765137e-01" purity="2.1588905155658722e-01" nType="-99"/>
      </Node>
    </BinaryTree>
    <BinaryTree type="DecisionTree" boostWeight="1.0000000000000000e+00" itree="497">
      <Node pos="s" depth="0" NCoef="0" IVar="8" Cut="1.3054092407226562e+02" cType="1" res="8.0309137701988220e-02" rms="4.3817421793937683e-01" purity="5.2740329504013062e-01" nType="0">
        <Node pos="l" depth="1" NCoef="0" IVar="0" Cut="9.3097472190856934e-01" cType="1" res="1.2438715249300003e-01" rms="4.3371942639350891e-01" purity="5.8588355779647827e-01" nType="0">
          <Node pos="l" depth="2" NCoef="0" IVar="-1" Cut="0.0000000000000000e+00" cType="1" res="-1.7152327927760780e-04" rms="3.8600307703018188e-01" purity="3.2381099462509155e-01" nType="-99"/>
          <Node pos="r" depth="2" NCoef="0" IVar="-1" Cut="0.0000000000000000e+00" cType="1" res="9.4148510834202170e-04" rms="4.3707755208015442e-01" purity="6.3346034288406372e-01" nType="-99"/>
        </Node>
        <Node pos="r" depth="1" NCoef="0" IVar="7" Cut="2.0847783088684082e+00" cType="1" res="-4.2400881648063660e-03" rms="4.3424847722053528e-01" purity="4.1522800922393799e-01" nType="0">
          <Node pos="l" depth="2" NCoef="0" IVar="-1" Cut="0.0000000000000000e+00" cType="1" res="2.4688630946911871e-04" rms="4.5564919710159302e-01" purity="4.8665556311607361e-01" nType="-99"/>
          <Node pos="r" depth="2" NCoef="0" IVar="-1" Cut="0.0000000000000000e+00" cType="1" res="-7.3864138685166836e-03" rms="2.4316862225532532e-01" purity="6.6954202950000763e-02" nType="-99"/>
        </Node>
      </Node>
    </BinaryTree>
    <BinaryTree type="DecisionTree" boostWeight="1.0000000000000000e+00" itree="498">
      <Node pos="s" depth="0" NCoef="0" IVar="7" Cut="1.9962798357009888e+00" cType="1" res="5.4121255874633789e-02" rms="4.4006812572479248e-01" purity="4.8810830712318420e-01" nType="0">
        <Node pos="l" depth="1" NCoef="0" IVar="1" Cut="1.1086065673828125e+02" cType="1" res="7.6110444962978363e-02" rms="4.4804444909095764e-01" purity="5.3361439704895020e-01" nType="0">
          <Node pos="l" depth="2" NCoef="0" IVar="-1" Cut="0.0000000000000000e+00" cType="1" res="3.7858012365177274e-04" rms="4.5844545960426331e-01" purity="4.5796820521354675e-01" nType="-99"/>
          <Node pos="r" depth="2" NCoef="0" IVar="-1" Cut="0.0000000000000000e+00" cType="1" res="8.4723735926672816e-04" rms="4.1500616073608398e-01" purity="7.0468914508819580e-01" nType="-99"/>
        </Node>
        <Node pos="r" depth="1" NCoef="0" IVar="0" Cut="9.4679725170135498e-01" cType="1" res="-8.7800279259681702e-02" rms="3.5309648513793945e-01" purity="1.9440531730651855e-01" nType="0">
          <Node pos="l" depth="2" NCoef="0" IVar="-1" Cut="0.0000000000000000e+00" cType="1" res="-1.4008001424372196e-02" rms="1.8983078002929688e-01" purity="2.7911897748708725e-02" nType="-99"/>
          <Node pos="r" depth="2" NCoef="0" IVar="-1" Cut="0.0000000000000000e+00" cType="1" res="-3.7197995698079467e-04" rms="4.1696840524673462e-01" purity="3.0347183346748352e-01" nType="-99"/>
        </Node>
      </Node>
    </BinaryTree>
    <BinaryTree type="DecisionTree" boostWeight="1.0000000000000000e+00" itree="499">
      <Node pos="s" depth="0" NCoef="0" IVar="1" Cut="9.4028274536132812e+01" cType="1" res="8.5643775761127472e-02" rms="4.3527239561080933e-01" purity="5.2056789398193359e-01" nType="0">
        <Node pos="l" depth="1" NCoef="0" IVar="3" Cut="7.4621701240539551e-01" cType="1" res="4.2097739875316620e-02" rms="4.4027438759803772e-01" purity="4.3552002310752869e-01" nType="0">
          <Node pos="l" depth="2" NCoef="0" IVar="-1" Cut="0.0000000000000000e+00" cType="1" res="1.1158415582031012e-03" rms="4.5090144872665405e-01" purity="6.5444952249526978e-01" nType="-99"/>
          <Node pos="r" depth="2" NCoef="0" IVar="-1" Cut="0.0000000000000000e+00" cType="1" res="1.9909564343834063e-06" rms="4.2794960737228394e-01" purity="3.7462812662124634e-01" nType="-99"/>
        </Node>
        <Node pos="r" depth="1" NCoef="0" IVar="4" Cut="6.7144489288330078e-01" cType="1" res="1.3171735405921936e-01" rms="4.2508739233016968e-01" purity="6.1055219173431396e-01" nType="0">
          <Node pos="l" depth="2" NCoef="0" IVar="-1" Cut="0.0000000000000000e+00" cType="1" res="1.1529168114066124e-03" rms="4.1746240854263306e-01" purity="6.8896031379699707e-01" nType="-99"/>
          <Node pos="r" depth="2" NCoef="0" IVar="-1" Cut="0.0000000000000000e+00" cType="1" res="1.8311047460883856e-04" rms="4.1498699784278870e-01" purity="4.7792288661003113e-01" nType="-99"/>
        </Node>
      </Node>
    </BinaryTree>
    <BinaryTree type="DecisionTree" boostWeight="1.0000000000000000e+00" itree="500">
      <Node pos="s" depth="0" NCoef="0" IVar="4" Cut="8.1905937194824219e-01" cType="1" res="6.8543791770935059e-02" rms="4.3793112039566040e-01" purity="5.0487679243087769e-01" nType="0">
        <Node pos="l" depth="1" NCoef="0" IVar="4" Cut="7.0736086368560791e-01" cType="1" res="8.3742335438728333e-02" rms="4.4181653857231140e-01" purity="5.3049558401107788e-01" nType="0">
          <Node pos="l" depth="2" NCoef="0" IVar="-1" Cut="0.0000000000000000e+00" cType="1" res="3.1138083431869745e-04" rms="4.3816119432449341e-01" purity="4.8912614583969116e-01" nType="-99"/>
          <Node pos="r" depth="2" NCoef="0" IVar="-1" Cut="0.0000000000000000e+00" cType="1" res="1.0606950381770730e-03" rms="4.3808615207672119e-01" purity="5.9828847646713257e-01" nType="-99"/>
        </Node>
        <Node pos="r" depth="1" NCoef="0" IVar="-1" Cut="0.0000000000000000e+00" cType="1" res="-5.2685099653899670e-03" rms="2.5803995132446289e-01" purity="7.7414430677890778e-02" nType="-99"/>
      </Node>
    </BinaryTree>
    <BinaryTree type="DecisionTree" boostWeight="1.0000000000000000e+00" itree="501">
      <Node pos="s" depth="0" NCoef="0" IVar="1" Cut="3.4658309936523438e+01" cType="1" res="6.5122596919536591e-02" rms="4.3856671452522278e-01" purity="5.0374561548233032e-01" nType="0">
        <Node pos="l" depth="1" NCoef="0" IVar="-1" Cut="0.0000000000000000e+00" cType="1" res="-4.4914623722434044e-03" rms="2.1546205878257751e-01" purity="8.7126068770885468e-02" nType="-99"/>
        <Node pos="r" depth="1" NCoef="0" IVar="7" Cut="1.0728774070739746e+00" cType="1" res="7.7928259968757629e-02" rms="4.4355851411819458e-01" purity="5.2567952871322632e-01" nType="0">
          <Node pos="l" depth="2" NCoef="0" IVar="-1" Cut="0.0000000000000000e+00" cType="1" res="9.4392109895125031e-04" rms="4.3724632263183594e-01" purity="6.2152665853500366e-01" nType="-99"/>
          <Node pos="r" depth="2" NCoef="0" IVar="-1" Cut="0.0000000000000000e+00" cType="1" res="3.6719476338475943e-04" rms="4.4262260198593140e-01" purity="4.8230317234992981e-01" nType="-99"/>
        </Node>
      </Node>
    </BinaryTree>
    <BinaryTree type="DecisionTree" boostWeight="1.0000000000000000e+00" itree="502">
      <Node pos="s" depth="0" NCoef="0" IVar="3" Cut="8.7164050340652466e-01" cType="1" res="7.6114207506179810e-02" rms="4.3514037132263184e-01" purity="5.1144927740097046e-01" nType="0">
        <Node pos="l" depth="1" NCoef="0" IVar="8" Cut="1.3168948364257812e+02" cType="1" res="1.7963624000549316e-01" rms="4.2241516709327698e-01" purity="7.0822286605834961e-01" nType="0">
          <Node pos="l" depth="2" NCoef="0" IVar="-1" Cut="0.0000000000000000e+00" cType="1" res="1.2217899784445763e-03" rms="4.0754982829093933e-01" purity="7.4115228652954102e-01" nType="-99"/>
          <Node pos="r" depth="2" NCoef="0" IVar="-1" Cut="0.0000000000000000e+00" cType="1" res="1.3003425556235015e-04" rms="4.2591112852096558e-01" purity="6.1008960008621216e-01" nType="-99"/>
        </Node>
        <Node pos="r" depth="1" NCoef="0" IVar="1" Cut="5.4485401153564453e+01" cType="1" res="4.2192298918962479e-02" rms="4.3389007449150085e-01" purity="4.4697082042694092e-01" nType="0">
          <Node pos="l" depth="2" NCoef="0" IVar="-1" Cut="0.0000000000000000e+00" cType="1" res="-3.5922457464039326e-03" rms="3.1478416919708252e-01" purity="1.2435035407543182e-01" nType="-99"/>
          <Node pos="r" depth="2" NCoef="0" IVar="-1" Cut="0.0000000000000000e+00" cType="1" res="5.9533171588554978e-04" rms="4.4376748800277710e-01" purity="5.0962978601455688e-01" nType="-99"/>
        </Node>
      </Node>
    </BinaryTree>
    <BinaryTree type="DecisionTree" boostWeight="1.0000000000000000e+00" itree="503">
      <Node pos="s" depth="0" NCoef="0" IVar="8" Cut="7.9898391723632812e+01" cType="1" res="8.0450244247913361e-02" rms="4.3350973725318909e-01" purity="5.2298331260681152e-01" nType="0">
        <Node pos="l" depth="1" NCoef="0" IVar="-1" Cut="0.0000000000000000e+00" cType="1" res="-6.5250466577708721e-03" rms="2.5315728783607483e-01" purity="6.9475971162319183e-02" nType="-99"/>
        <Node pos="r" depth="1" NCoef="0" IVar="0" Cut="9.4122272729873657e-01" cType="1" res="9.4865590333938599e-02" rms="4.3631047010421753e-01" purity="5.4702168703079224e-01" nType="0">
          <Node pos="l" depth="2" NCoef="0" IVar="-1" Cut="0.0000000000000000e+00" cType="1" res="1.1043882113881409e-04" rms="4.3963035941123962e-01" purity="3.3195289969444275e-01" nType="-99"/>
          <Node pos="r" depth="2" NCoef="0" IVar="-1" Cut="0.0000000000000000e+00" cType="1" res="7.9014175571501255e-04" rms="4.3096923828125000e-01" purity="6.2502270936965942e-01" nType="-99"/>
        </Node>
      </Node>
    </BinaryTree>
    <BinaryTree type="DecisionTree" boostWeight="1.0000000000000000e+00" itree="504">
      <Node pos="s" depth="0" NCoef="0" IVar="5" Cut="1.7453678846359253e+00" cType="1" res="7.7937327325344086e-02" rms="4.3435466289520264e-01" purity="5.2982366085052490e-01" nType="0">
        <Node pos="l" depth="1" NCoef="0" IVar="6" Cut="5.0281045532226562e+02" cType="1" res="9.1710276901721954e-02" rms="4.3180981278419495e-01" purity="5.4594069719314575e-01" nType="0">
          <Node pos="l" depth="2" NCoef="0" IVar="-1" Cut="0.0000000000000000e+00" cType="1" res="5.3461571224033833e-04" rms="4.3341922760009766e-01" purity="5.0394219160079956e-01" nType="-99"/>
          <Node pos="r" depth="2" NCoef="0" IVar="-1" Cut="0.0000000000000000e+00" cType="1" res="1.1371431173756719e-03" rms="4.0521731972694397e-01" purity="7.6036524772644043e-01" nType="-99"/>
        </Node>
        <Node pos="r" depth="1" NCoef="0" IVar="-1" Cut="0.0000000000000000e+00" cType="1" res="-1.8552097026258707e-03" rms="4.1647630929946899e-01" purity="2.7644869685173035e-01" nType="-99"/>
      </Node>
    </BinaryTree>
    <BinaryTree type="DecisionTree" boostWeight="1.0000000000000000e+00" itree="505">
      <Node pos="s" depth="0" NCoef="0" IVar="8" Cut="1.4144038391113281e+02" cType="1" res="6.0211315751075745e-02" rms="4.4490781426429749e-01" purity="4.8291319608688354e-01" nType="0">
        <Node pos="l" depth="1" NCoef="0" IVar="0" Cut="9.8467844724655151e-01" cType="1" res="9.5150448381900787e-02" rms="4.4757321476936340e-01" purity="5.2593201398849487e-01" nType="0">
          <Node pos="l" depth="2" NCoef="0" IVar="-1" Cut="0.0000000000000000e+00" cType="1" res="5.5040878942236304e-04" rms="4.4922840595245361e-01" purity="4.7634413838386536e-01" nType="-99"/>
          <Node pos="r" depth="2" NCoef="0" IVar="-1" Cut="0.0000000000000000e+00" cType="1" res="1.3088472187519073e-03" rms="4.0840932726860046e-01" purity="7.8959935903549194e-01" nType="-99"/>
        </Node>
        <Node pos="r" depth="1" NCoef="0" IVar="4" Cut="6.3003450632095337e-01" cType="1" res="-6.7752152681350708e-02" rms="4.1034746170043945e-01" purity="3.2535824179649353e-01" nType="0">
          <Node pos="l" depth="2" NCoef="0" IVar="-1" Cut="0.0000000000000000e+00" cType="1" res="-3.8282366003841162e-03" rms="3.4261423349380493e-01" purity="1.9645740091800690e-01" nType="-99"/>
          <Node pos="r" depth="2" NCoef="0" IVar="-1" Cut="0.0000000000000000e+00" cType="1" res="-1.5928031643852592e-04" rms="4.1887921094894409e-01" purity="3.7091773748397827e-01" nType="-99"/>
        </Node>
      </Node>
    </BinaryTree>
    <BinaryTree type="DecisionTree" boostWeight="1.0000000000000000e+00" itree="506">
      <Node pos="s" depth="0" NCoef="0" IVar="4" Cut="6.3862705230712891e-01" cType="1" res="4.1726380586624146e-02" rms="4.3667420744895935e-01" purity="4.6646663546562195e-01" nType="0">
        <Node pos="l" depth="1" NCoef="0" IVar="8" Cut="1.2210722351074219e+02" cType="1" res="1.1346777528524399e-01" rms="4.4080320000648499e-01" purity="5.6560784578323364e-01" nType="0">
          <Node pos="l" depth="2" NCoef="0" IVar="-1" Cut="0.0000000000000000e+00" cType="1" res="1.2350447941571474e-03" rms="4.3495869636535645e-01" purity="6.3833093643188477e-01" nType="-99"/>
          <Node pos="r" depth="2" NCoef="0" IVar="-1" Cut="0.0000000000000000e+00" cType="1" res="1.7549136828165501e-05" rms="4.2599496245384216e-01" purity="4.5565646886825562e-01" nType="-99"/>
        </Node>
        <Node pos="r" depth="1" NCoef="0" IVar="5" Cut="1.5584660768508911e+00" cType="1" res="-1.5063681639730930e-02" rms="4.2487293481826782e-01" purity="3.8798698782920837e-01" nType="0">
          <Node pos="l" depth="2" NCoef="0" IVar="-1" Cut="0.0000000000000000e+00" cType="1" res="-8.3132984582334757e-04" rms="4.0817251801490784e-01" purity="3.2367521524429321e-01" nType="-99"/>
          <Node pos="r" depth="2" NCoef="0" IVar="-1" Cut="0.0000000000000000e+00" cType="1" res="6.1336229555308819e-04" rms="4.3635815382003784e-01" purity="5.0704944133758545e-01" nType="-99"/>
        </Node>
      </Node>
    </BinaryTree>
    <BinaryTree type="DecisionTree" boostWeight="1.0000000000000000e+00" itree="507">
      <Node pos="s" depth="0" NCoef="0" IVar="7" Cut="1.6465629339218140e+00" cType="1" res="8.9660398662090302e-02" rms="4.5176085829734802e-01" purity="5.0827604532241821e-01" nType="0">
        <Node pos="l" depth="1" NCoef="0" IVar="4" Cut="7.1020573377609253e-01" cType="1" res="1.2845784425735474e-01" rms="4.5080077648162842e-01" purity="5.7395827770233154e-01" nType="0">
          <Node pos="l" depth="2" NCoef="0" IVar="-1" Cut="0.0000000000000000e+00" cType="1" res="9.9788908846676350e-04" rms="4.3869048357009888e-01" purity="6.3203710317611694e-01" nType="-99"/>
          <Node pos="r" depth="2" NCoef="0" IVar="-1" Cut="0.0000000000000000e+00" cType="1" res="4.3686013668775558e-04" rms="4.7207045555114746e-01" purity="4.1968256235122681e-01" nType="-99"/>
        </Node>
        <Node pos="r" depth="1" NCoef="0" IVar="2" Cut="1.8216603088378906e+02" cType="1" res="-1.1658259667456150e-02" rms="4.3835428357124329e-01" purity="3.3674862980842590e-01" nType="0">
          <Node pos="l" depth="2" NCoef="0" IVar="-1" Cut="0.0000000000000000e+00" cType="1" res="8.7899406207725406e-04" rms="4.9260306358337402e-01" purity="4.8418009281158447e-01" nType="-99"/>
          <Node pos="r" depth="2" NCoef="0" IVar="-1" Cut="0.0000000000000000e+00" cType="1" res="-1.5204603550955653e-03" rms="3.7367686629295349e-01" purity="2.3265168070793152e-01" nType="-99"/>
        </Node>
      </Node>
    </BinaryTree>
    <BinaryTree type="DecisionTree" boostWeight="1.0000000000000000e+00" itree="508">
      <Node pos="s" depth="0" NCoef="0" IVar="4" Cut="7.6320731639862061e-01" cType="1" res="7.0199735462665558e-02" rms="4.4114559888839722e-01" purity="5.0829631090164185e-01" nType="0">
        <Node pos="l" depth="1" NCoef="0" IVar="6" Cut="3.3162908935546875e+02" cType="1" res="9.3066222965717316e-02" rms="4.4632557034492493e-01" purity="5.4499638080596924e-01" nType="0">
          <Node pos="l" depth="2" NCoef="0" IVar="-1" Cut="0.0000000000000000e+00" cType="1" res="3.0841623083688319e-04" rms="4.4666093587875366e-01" purity="3.7858083844184875e-01" nType="-99"/>
          <Node pos="r" depth="2" NCoef="0" IVar="-1" Cut="0.0000000000000000e+00" cType="1" res="8.3168834680691361e-04" rms="4.4003868103027344e-01" purity="6.7365473508834839e-01" nType="-99"/>
        </Node>
        <Node pos="r" depth="1" NCoef="0" IVar="7" Cut="1.1969127655029297e+00" cType="1" res="-4.2631961405277252e-02" rms="3.9574584364891052e-01" purity="3.2720470428466797e-01" nType="0">
          <Node pos="l" depth="2" NCoef="0" IVar="-1" Cut="0.0000000000000000e+00" cType="1" res="-5.9623559936881065e-03" rms="2.5397548079490662e-01" purity="1.1878468096256256e-01" nType="-99"/>
          <Node pos="r" depth="2" NCoef="0" IVar="-1" Cut="0.0000000000000000e+00" cType="1" res="2.9294125852175057e-04" rms="4.2469924688339233e-01" purity="4.2104095220565796e-01" nType="-99"/>
        </Node>
      </Node>
    </BinaryTree>
    <BinaryTree type="DecisionTree" boostWeight="1.0000000000000000e+00" itree="509">
      <Node pos="s" depth="0" NCoef="0" IVar="3" Cut="7.8919440507888794e-01" cType="1" res="5.5644411593675613e-02" rms="4.3190047144889832e-01" purity="4.9316757917404175e-01" nType="0">
        <Node pos="l" depth="1" NCoef="0" IVar="4" Cut="6.3947838544845581e-01" cType="1" res="1.7011024057865143e-01" rms="3.9285877346992493e-01" purity="7.1984201669692993e-01" nType="0">
          <Node pos="l" depth="2" NCoef="0" IVar="-1" Cut="0.0000000000000000e+00" cType="1" res="-1.9076886019320227e-05" rms="4.4142222404479980e-01" purity="5.1847892999649048e-01" nType="-99"/>
          <Node pos="r" depth="2" NCoef="0" IVar="-1" Cut="0.0000000000000000e+00" cType="1" res="1.1371026048436761e-03" rms="3.5021772980690002e-01" purity="7.9769867658615112e-01" nType="-99"/>
        </Node>
        <Node pos="r" depth="1" NCoef="0" IVar="5" Cut="1.7495031356811523e+00" cType="1" res="2.5101065635681152e-02" rms="4.3669325113296509e-01" purity="4.3268314003944397e-01" nType="0">
          <Node pos="l" depth="2" NCoef="0" IVar="-1" Cut="0.0000000000000000e+00" cType="1" res="3.5076422500424087e-04" rms="4.4044351577758789e-01" purity="4.4916144013404846e-01" nType="-99"/>
          <Node pos="r" depth="2" NCoef="0" IVar="-1" Cut="0.0000000000000000e+00" cType="1" res="-3.1302275601774454e-03" rms="3.1266540288925171e-01" purity="2.0488086342811584e-01" nType="-99"/>
        </Node>
      </Node>
    </BinaryTree>
    <BinaryTree type="DecisionTree" boostWeight="1.0000000000000000e+00" itree="510">
      <Node pos="s" depth="0" NCoef="0" IVar="0" Cut="9.5171344280242920e-01" cType="1" res="8.1002011895179749e-02" rms="4.4336649775505066e-01" purity="5.1723200082778931e-01" nType="0">
        <Node pos="l" depth="1" NCoef="0" IVar="7" Cut="8.0808162689208984e-01" cType="1" res="1.4158639125525951e-02" rms="4.2708629369735718e-01" purity="3.4243291616439819e-01" nType="0">
          <Node pos="l" depth="2" NCoef="0" IVar="-1" Cut="0.0000000000000000e+00" cType="1" res="1.3371298555284739e-03" rms="4.7334226965904236e-01" purity="4.2926833033561707e-01" nType="-99"/>
          <Node pos="r" depth="2" NCoef="0" IVar="-1" Cut="0.0000000000000000e+00" cType="1" res="-1.9572023302316666e-04" rms="4.0874400734901428e-01" purity="3.2099157571792603e-01" nType="-99"/>
        </Node>
        <Node pos="r" depth="1" NCoef="0" IVar="5" Cut="1.2969989776611328e+00" cType="1" res="1.2620073556900024e-01" rms="4.4843292236328125e-01" purity="6.3542914390563965e-01" nType="0">
          <Node pos="l" depth="2" NCoef="0" IVar="-1" Cut="0.0000000000000000e+00" cType="1" res="1.0132205206900835e-03" rms="4.5161291956901550e-01" purity="6.5398031473159790e-01" nType="-99"/>
          <Node pos="r" depth="2" NCoef="0" IVar="-1" Cut="0.0000000000000000e+00" cType="1" res="4.4827451347373426e-04" rms="4.3619894981384277e-01" purity="6.0424101352691650e-01" nType="-99"/>
        </Node>
      </Node>
    </BinaryTree>
    <BinaryTree type="DecisionTree" boostWeight="1.0000000000000000e+00" itree="511">
      <Node pos="s" depth="0" NCoef="0" IVar="0" Cut="9.6692264080047607e-01" cType="1" res="7.8333273530006409e-02" rms="4.5509991049766541e-01" purity="4.9373215436935425e-01" nType="0">
        <Node pos="l" depth="1" NCoef="0" IVar="7" Cut="8.5399883985519409e-01" cType="1" res="3.7537530064582825e-02" rms="4.4868278503417969e-01" purity="4.0545943379402161e-01" nType="0">
          <Node pos="l" depth="2" NCoef="0" IVar="-1" Cut="0.0000000000000000e+00" cType="1" res="1.2228756677359343e-03" rms="4.5598474144935608e-01" purity="5.1866990327835083e-01" nType="-99"/>
          <Node pos="r" depth="2" NCoef="0" IVar="-1" Cut="0.0000000000000000e+00" cType="1" res="-4.7029614506755024e-05" rms="4.3823021650314331e-01" purity="3.6811703443527222e-01" nType="-99"/>
        </Node>
        <Node pos="r" depth="1" NCoef="0" IVar="6" Cut="3.4892224121093750e+02" cType="1" res="1.5509533882141113e-01" rms="4.5717033743858337e-01" purity="6.5982788801193237e-01" nType="0">
          <Node pos="l" depth="2" NCoef="0" IVar="-1" Cut="0.0000000000000000e+00" cType="1" res="1.3115741312503815e-03" rms="4.5584702491760254e-01" purity="6.7340242862701416e-01" nType="-99"/>
          <Node pos="r" depth="2" NCoef="0" IVar="-1" Cut="0.0000000000000000e+00" cType="1" res="2.4262245278805494e-04" rms="4.3564271926879883e-01" purity="6.3545632362365723e-01" nType="-99"/>
        </Node>
      </Node>
    </BinaryTree>
    <BinaryTree type="DecisionTree" boostWeight="1.0000000000000000e+00" itree="512">
      <Node pos="s" depth="0" NCoef="0" IVar="3" Cut="2.8400321006774902e+00" cType="1" res="9.0953186154365540e-02" rms="4.4307163357734680e-01" purity="5.2875131368637085e-01" nType="0">
        <Node pos="l" depth="1" NCoef="0" IVar="5" Cut="8.1608325242996216e-01" cType="1" res="1.0719156265258789e-01" rms="4.5675840973854065e-01" purity="5.7309478521347046e-01" nType="0">
          <Node pos="l" depth="2" NCoef="0" IVar="-1" Cut="0.0000000000000000e+00" cType="1" res="1.7643185565248132e-03" rms="4.8741835355758667e-01" purity="6.6213876008987427e-01" nType="-99"/>
          <Node pos="r" depth="2" NCoef="0" IVar="-1" Cut="0.0000000000000000e+00" cType="1" res="6.4454803941771388e-04" rms="4.5075502991676331e-01" purity="5.6470000743865967e-01" nType="-99"/>
        </Node>
        <Node pos="r" depth="1" NCoef="0" IVar="-1" Cut="0.0000000000000000e+00" cType="1" res="-1.4492765069007874e-02" rms="1.1294817924499512e-01" purity="9.2714503407478333e-03" nType="-99"/>
      </Node>
    </BinaryTree>
    <BinaryTree type="DecisionTree" boostWeight="1.0000000000000000e+00" itree="513">
      <Node pos="s" depth="0" NCoef="0" IVar="8" Cut="8.8436103820800781e+01" cType="1" res="6.6804848611354828e-02" rms="4.3187862634658813e-01" purity="5.0803279876708984e-01" nType="0">
        <Node pos="l" depth="1" NCoef="0" IVar="-1" Cut="0.0000000000000000e+00" cType="1" res="-2.2003026679158211e-03" rms="3.5759979486465454e-01" purity="1.7488920688629150e-01" nType="-99"/>
        <Node pos="r" depth="1" NCoef="0" IVar="2" Cut="1.3948350524902344e+02" cType="1" res="8.3056926727294922e-02" rms="4.3465843796730042e-01" purity="5.3923755884170532e-01" nType="0">
          <Node pos="l" depth="2" NCoef="0" IVar="-1" Cut="0.0000000000000000e+00" cType="1" res="1.0459205368533731e-03" rms="4.3089646100997925e-01" purity="6.2951278686523438e-01" nType="-99"/>
          <Node pos="r" depth="2" NCoef="0" IVar="-1" Cut="0.0000000000000000e+00" cType="1" res="3.8928652065806091e-04" rms="4.3129500746726990e-01" purity="5.0414621829986572e-01" nType="-99"/>
        </Node>
      </Node>
    </BinaryTree>
    <BinaryTree type="DecisionTree" boostWeight="1.0000000000000000e+00" itree="514">
      <Node pos="s" depth="0" NCoef="0" IVar="0" Cut="9.5756411552429199e-01" cType="1" res="5.6442633271217346e-02" rms="4.2768120765686035e-01" purity="4.9850997328758240e-01" nType="0">
        <Node pos="l" depth="1" NCoef="0" IVar="7" Cut="1.0300594568252563e+00" cType="1" res="-2.1866064518690109e-02" rms="4.2569947242736816e-01" purity="3.1771546602249146e-01" nType="0">
          <Node pos="l" depth="2" NCoef="0" IVar="-1" Cut="0.0000000000000000e+00" cType="1" res="9.6977816428989172e-04" rms="4.6022254228591919e-01" purity="4.3862086534500122e-01" nType="-99"/>
          <Node pos="r" depth="2" NCoef="0" IVar="-1" Cut="0.0000000000000000e+00" cType="1" res="-1.0983818210661411e-03" rms="3.9378240704536438e-01" purity="2.6005563139915466e-01" nType="-99"/>
        </Node>
        <Node pos="r" depth="1" NCoef="0" IVar="3" Cut="2.4440093040466309e+00" cType="1" res="1.2963594496250153e-01" rms="4.1641685366630554e-01" purity="6.6749429702758789e-01" nType="0">
          <Node pos="l" depth="2" NCoef="0" IVar="-1" Cut="0.0000000000000000e+00" cType="1" res="8.5694581503048539e-04" rms="4.2026138305664062e-01" purity="7.2369730472564697e-01" nType="-99"/>
          <Node pos="r" depth="2" NCoef="0" IVar="-1" Cut="0.0000000000000000e+00" cType="1" res="-1.7397868214175105e-03" rms="3.1075194478034973e-01" purity="1.5015256404876709e-01" nType="-99"/>
        </Node>
      </Node>
    </BinaryTree>
    <BinaryTree type="DecisionTree" boostWeight="1.0000000000000000e+00" itree="515">
      <Node pos="s" depth="0" NCoef="0" IVar="2" Cut="2.7081173706054688e+02" cType="1" res="6.7574486136436462e-02" rms="4.4475650787353516e-01" purity="5.0549793243408203e-01" nType="0">
        <Node pos="l" depth="1" NCoef="0" IVar="8" Cut="1.4279995727539062e+02" cType="1" res="1.0054267942905426e-01" rms="4.4900426268577576e-01" purity="5.4687845706939697e-01" nType="0">
          <Node pos="l" depth="2" NCoef="0" IVar="-1" Cut="0.0000000000000000e+00" cType="1" res="8.4284803597256541e-04" rms="4.4789645075798035e-01" purity="5.7444787025451660e-01" nType="-99"/>
          <Node pos="r" depth="2" NCoef="0" IVar="-1" Cut="0.0000000000000000e+00" cType="1" res="-6.0074223438277841e-04" rms="4.2329114675521851e-01" purity="3.7158524990081787e-01" nType="-99"/>
        </Node>
        <Node pos="r" depth="1" NCoef="0" IVar="0" Cut="9.3465054035186768e-01" cType="1" res="-7.2087414562702179e-02" rms="3.9700832962989807e-01" purity="3.3019897341728210e-01" nType="0">
          <Node pos="l" depth="2" NCoef="0" IVar="-1" Cut="0.0000000000000000e+00" cType="1" res="6.5738765988498926e-04" rms="4.1491463780403137e-01" purity="4.1952618956565857e-01" nType="-99"/>
          <Node pos="r" depth="2" NCoef="0" IVar="-1" Cut="0.0000000000000000e+00" cType="1" res="-1.9385754130780697e-03" rms="3.6616933345794678e-01" purity="2.8312993049621582e-01" nType="-99"/>
        </Node>
      </Node>
    </BinaryTree>
    <BinaryTree type="DecisionTree" boostWeight="1.0000000000000000e+00" itree="516">
      <Node pos="s" depth="0" NCoef="0" IVar="3" Cut="1.9362818002700806e+00" cType="1" res="6.6731899976730347e-02" rms="4.3071743845939636e-01" purity="5.0578719377517700e-01" nType="0">
        <Node pos="l" depth="1" NCoef="0" IVar="0" Cut="9.5124483108520508e-01" cType="1" res="1.0208496451377869e-01" rms="4.4991376996040344e-01" purity="6.2432599067687988e-01" nType="0">
          <Node pos="l" depth="2" NCoef="0" IVar="-1" Cut="0.0000000000000000e+00" cType="1" res="2.6056714705191553e-04" rms="4.6966740489006042e-01" purity="4.5958697795867920e-01" nType="-99"/>
          <Node pos="r" depth="2" NCoef="0" IVar="-1" Cut="0.0000000000000000e+00" cType="1" res="7.8383309300988913e-04" rms="4.3319371342658997e-01" purity="7.1850806474685669e-01" nType="-99"/>
        </Node>
        <Node pos="r" depth="1" NCoef="0" IVar="1" Cut="1.0030622863769531e+02" cType="1" res="-1.3132875785231590e-02" rms="3.7165373563766479e-01" purity="2.3800058662891388e-01" nType="0">
          <Node pos="l" depth="2" NCoef="0" IVar="-1" Cut="0.0000000000000000e+00" cType="1" res="-4.1165486909449100e-03" rms="2.7696228027343750e-01" purity="8.3183437585830688e-02" nType="-99"/>
          <Node pos="r" depth="2" NCoef="0" IVar="-1" Cut="0.0000000000000000e+00" cType="1" res="5.3180626127868891e-04" rms="4.1480594873428345e-01" purity="3.4702494740486145e-01" nType="-99"/>
        </Node>
      </Node>
    </BinaryTree>
    <BinaryTree type="DecisionTree" boostWeight="1.0000000000000000e+00" itree="517">
      <Node pos="s" depth="0" NCoef="0" IVar="4" Cut="6.0041671991348267e-01" cType="1" res="7.7048249542713165e-02" rms="4.5328351855278015e-01" purity="5.0074374675750732e-01" nType="0">
        <Node pos="l" depth="1" NCoef="0" IVar="7" Cut="1.5012937784194946e+00" cType="1" res="1.8380574882030487e-01" rms="4.6803301572799683e-01" purity="6.0884541273117065e-01" nType="0">
          <Node pos="l" depth="2" NCoef="0" IVar="-1" Cut="0.0000000000000000e+00" cType="1" res="1.4475083444267511e-03" rms="4.4789153337478638e-01" purity="7.2019171714782715e-01" nType="-99"/>
          <Node pos="r" depth="2" NCoef="0" IVar="-1" Cut="0.0000000000000000e+00" cType="1" res="2.6875064941123128e-04" rms="4.6969613432884216e-01" purity="3.7436097860336304e-01" nType="-99"/>
        </Node>
        <Node pos="r" depth="1" NCoef="0" IVar="1" Cut="9.3763710021972656e+01" cType="1" res="3.4391861408948898e-02" rms="4.4007140398025513e-01" purity="4.5755025744438171e-01" nType="0">
          <Node pos="l" depth="2" NCoef="0" IVar="-1" Cut="0.0000000000000000e+00" cType="1" res="-1.0481682838872075e-03" rms="4.0854051709175110e-01" purity="2.8756070137023926e-01" nType="-99"/>
          <Node pos="r" depth="2" NCoef="0" IVar="-1" Cut="0.0000000000000000e+00" cType="1" res="9.5940713072195649e-04" rms="4.3992933630943298e-01" purity="6.0992354154586792e-01" nType="-99"/>
        </Node>
      </Node>
    </BinaryTree>
    <BinaryTree type="DecisionTree" boostWeight="1.0000000000000000e+00" itree="518">
      <Node pos="s" depth="0" NCoef="0" IVar="0" Cut="9.4325888156890869e-01" cType="1" res="9.1912120580673218e-02" rms="4.3950611352920532e-01" purity="5.3550446033477783e-01" nType="0">
        <Node pos="l" depth="1" NCoef="0" IVar="4" Cut="7.2805947065353394e-01" cType="1" res="1.0528075508773327e-02" rms="4.3605327606201172e-01" purity="3.3304071426391602e-01" nType="0">
          <Node pos="l" depth="2" NCoef="0" IVar="-1" Cut="0.0000000000000000e+00" cType="1" res="-1.4045918360352516e-03" rms="3.9490991830825806e-01" purity="2.3618510365486145e-01" nType="-99"/>
          <Node pos="r" depth="2" NCoef="0" IVar="-1" Cut="0.0000000000000000e+00" cType="1" res="1.3254216173663735e-03" rms="4.4874143600463867e-01" purity="4.7472128272056580e-01" nType="-99"/>
        </Node>
        <Node pos="r" depth="1" NCoef="0" IVar="8" Cut="1.3487408447265625e+02" cType="1" res="1.2475588917732239e-01" rms="4.3661651015281677e-01" purity="6.1721175909042358e-01" nType="0">
          <Node pos="l" depth="2" NCoef="0" IVar="-1" Cut="0.0000000000000000e+00" cType="1" res="9.9742575548589230e-04" rms="4.2643415927886963e-01" purity="6.6970807313919067e-01" nType="-99"/>
          <Node pos="r" depth="2" NCoef="0" IVar="-1" Cut="0.0000000000000000e+00" cType="1" res="-3.7356461689341813e-05" rms="4.4177347421646118e-01" purity="4.5777302980422974e-01" nType="-99"/>
        </Node>
      </Node>
    </BinaryTree>
    <BinaryTree type="DecisionTree" boostWeight="1.0000000000000000e+00" itree="519">
      <Node pos="s" depth="0" NCoef="0" IVar="5" Cut="1.1668425798416138e+00" cType="1" res="3.2731611281633377e-02" rms="4.2970475554466248e-01" purity="4.7201347351074219e-01" nType="0">
        <Node pos="l" depth="1" NCoef="0" IVar="1" Cut="7.1181930541992188e+01" cType="1" res="-4.1673827916383743e-02" rms="3.9905792474746704e-01" purity="3.6399936676025391e-01" nType="0">
          <Node pos="l" depth="2" NCoef="0" IVar="-1" Cut="0.0000000000000000e+00" cType="1" res="-4.1886223480105400e-03" rms="3.4828388690948486e-01" purity="1.3221640884876251e-01" nType="-99"/>
          <Node pos="r" depth="2" NCoef="0" IVar="-1" Cut="0.0000000000000000e+00" cType="1" res="-5.1877823352697305e-06" rms="4.0642857551574707e-01" purity="4.4141918420791626e-01" nType="-99"/>
        </Node>
        <Node pos="r" depth="1" NCoef="0" IVar="8" Cut="1.1290546417236328e+02" cType="1" res="8.1465981900691986e-02" rms="4.4190603494644165e-01" purity="5.4276090860366821e-01" nType="0">
          <Node pos="l" depth="2" NCoef="0" IVar="-1" Cut="0.0000000000000000e+00" cType="1" res="-2.2722569701727480e-04" rms="4.4289273023605347e-01" purity="3.8462331891059875e-01" nType="-99"/>
          <Node pos="r" depth="2" NCoef="0" IVar="-1" Cut="0.0000000000000000e+00" cType="1" res="8.2933524390682578e-04" rms="4.3261787295341492e-01" purity="6.1998879909515381e-01" nType="-99"/>
        </Node>
      </Node>
    </BinaryTree>
    <BinaryTree type="DecisionTree" boostWeight="1.0000000000000000e+00" itree="520">
      <Node pos="s" depth="0" NCoef="0" IVar="1" Cut="6.0185817718505859e+01" cType="1" res="3.2714605331420898e-02" rms="4.3205329775810242e-01" purity="4.6921068429946899e-01" nType="0">
        <Node pos="l" depth="1" NCoef="0" IVar="3" Cut="7.2493827342987061e-01" cType="1" res="-1.2619893252849579e-01" rms="3.5288873314857483e-01" purity="2.0970034599304199e-01" nType="0">
          <Node pos="l" depth="2" NCoef="0" IVar="-1" Cut="0.0000000000000000e+00" cType="1" res="2.8847600333392620e-04" rms="4.4145748019218445e-01" purity="4.7822007536888123e-01" nType="-99"/>
          <Node pos="r" depth="2" NCoef="0" IVar="-1" Cut="0.0000000000000000e+00" cType="1" res="-4.8913890495896339e-03" rms="2.9113769531250000e-01" purity="1.1149100959300995e-01" nType="-99"/>
        </Node>
        <Node pos="r" depth="1" NCoef="0" IVar="4" Cut="8.0500864982604980e-01" cType="1" res="7.8879669308662415e-02" rms="4.4187602400779724e-01" purity="5.4459947347640991e-01" nType="0">
          <Node pos="l" depth="2" NCoef="0" IVar="-1" Cut="0.0000000000000000e+00" cType="1" res="6.6282111220061779e-04" rms="4.4506645202636719e-01" purity="5.7598447799682617e-01" nType="-99"/>
          <Node pos="r" depth="2" NCoef="0" IVar="-1" Cut="0.0000000000000000e+00" cType="1" res="-4.3430626392364502e-03" rms="2.9597148299217224e-01" purity="1.2745609879493713e-01" nType="-99"/>
        </Node>
      </Node>
    </BinaryTree>
    <BinaryTree type="DecisionTree" boostWeight="1.0000000000000000e+00" itree="521">
      <Node pos="s" depth="0" NCoef="0" IVar="1" Cut="6.5630310058593750e+01" cType="1" res="6.2815211713314056e-02" rms="4.2901366949081421e-01" purity="5.0229293107986450e-01" nType="0">
        <Node pos="l" depth="1" NCoef="0" IVar="1" Cut="5.4873874664306641e+01" cType="1" res="-7.0405334234237671e-02" rms="3.8687393069267273e-01" purity="2.7504828572273254e-01" nType="0">
          <Node pos="l" depth="2" NCoef="0" IVar="-1" Cut="0.0000000000000000e+00" cType="1" res="-2.2468077950179577e-03" rms="3.6111706495285034e-01" purity="1.8478737771511078e-01" nType="-99"/>
          <Node pos="r" depth="2" NCoef="0" IVar="-1" Cut="0.0000000000000000e+00" cType="1" res="3.1687953742220998e-04" rms="4.1260498762130737e-01" purity="4.5632433891296387e-01" nType="-99"/>
        </Node>
        <Node pos="r" depth="1" NCoef="0" IVar="3" Cut="2.7716643810272217e+00" cType="1" res="1.1064352095127106e-01" rms="4.3328616023063660e-01" purity="5.8387732505798340e-01" nType="0">
          <Node pos="l" depth="2" NCoef="0" IVar="-1" Cut="0.0000000000000000e+00" cType="1" res="8.0948765389621258e-04" rms="4.4858667254447937e-01" purity="6.5238380432128906e-01" nType="-99"/>
          <Node pos="r" depth="2" NCoef="0" IVar="-1" Cut="0.0000000000000000e+00" cType="1" res="-5.9080971404910088e-03" rms="2.2158557176589966e-01" purity="4.6155113726854324e-02" nType="-99"/>
        </Node>
      </Node>
    </BinaryTree>
    <BinaryTree type="DecisionTree" boostWeight="1.0000000000000000e+00" itree="522">
      <Node pos="s" depth="0" NCoef="0" IVar="6" Cut="4.6532220458984375e+02" cType="1" res="5.5714394897222519e-02" rms="4.3561050295829773e-01" purity="4.8922842741012573e-01" nType="0">
        <Node pos="l" depth="1" NCoef="0" IVar="7" Cut="7.3131579160690308e-01" cType="1" res="1.9243493676185608e-02" rms="4.3854305148124695e-01" purity="4.0945321321487427e-01" nType="0">
          <Node pos="l" depth="2" NCoef="0" IVar="-1" Cut="0.0000000000000000e+00" cType="1" res="1.1082332348451018e-03" rms="4.3733921647071838e-01" purity="5.2707177400588989e-01" nType="-99"/>
          <Node pos="r" depth="2" NCoef="0" IVar="-1" Cut="0.0000000000000000e+00" cType="1" res="-1.3100462092552334e-04" rms="4.3266123533248901e-01" purity="3.8133409619331360e-01" nType="-99"/>
        </Node>
        <Node pos="r" depth="1" NCoef="0" IVar="0" Cut="9.3496692180633545e-01" cType="1" res="1.6030815243721008e-01" rms="4.0945118665695190e-01" purity="7.1801328659057617e-01" nType="0">
          <Node pos="l" depth="2" NCoef="0" IVar="-1" Cut="0.0000000000000000e+00" cType="1" res="1.3486456591635942e-03" rms="3.9211392402648926e-01" purity="7.4132603406906128e-01" nType="-99"/>
          <Node pos="r" depth="2" NCoef="0" IVar="-1" Cut="0.0000000000000000e+00" cType="1" res="6.4776389626786113e-04" rms="4.1003137826919556e-01" purity="7.0531392097473145e-01" nType="-99"/>
        </Node>
      </Node>
    </BinaryTree>
    <BinaryTree type="DecisionTree" boostWeight="1.0000000000000000e+00" itree="523">
      <Node pos="s" depth="0" NCoef="0" IVar="1" Cut="4.5012531280517578e+01" cType="1" res="5.9914242476224899e-02" rms="4.3035587668418884e-01" purity="5.0117331743240356e-01" nType="0">
        <Node pos="l" depth="1" NCoef="0" IVar="4" Cut="7.2302246093750000e-01" cType="1" res="-1.8271434307098389e-01" rms="2.8363022208213806e-01" purity="8.6010053753852844e-02" nType="0">
          <Node pos="l" depth="2" NCoef="0" IVar="-1" Cut="0.0000000000000000e+00" cType="1" res="-1.5684669837355614e-02" rms="1.8214784562587738e-01" purity="2.6897592470049858e-02" nType="-99"/>
          <Node pos="r" depth="2" NCoef="0" IVar="-1" Cut="0.0000000000000000e+00" cType="1" res="-2.1902276203036308e-03" rms="3.5094192624092102e-01" purity="1.5659217536449432e-01" nType="-99"/>
        </Node>
        <Node pos="r" depth="1" NCoef="0" IVar="4" Cut="7.7266979217529297e-01" cType="1" res="9.0273693203926086e-02" rms="4.3592056632041931e-01" purity="5.5312150716781616e-01" nType="0">
          <Node pos="l" depth="2" NCoef="0" IVar="-1" Cut="0.0000000000000000e+00" cType="1" res="7.7228125883266330e-04" rms="4.3466886878013611e-01" purity="5.9224784374237061e-01" nType="-99"/>
          <Node pos="r" depth="2" NCoef="0" IVar="-1" Cut="0.0000000000000000e+00" cType="1" res="-1.7270394600927830e-03" rms="3.9737725257873535e-01" purity="2.3328581452369690e-01" nType="-99"/>
        </Node>
      </Node>
    </BinaryTree>
    <BinaryTree type="DecisionTree" boostWeight="1.0000000000000000e+00" itree="524">
      <Node pos="s" depth="0" NCoef="0" IVar="8" Cut="8.1618087768554688e+01" cType="1" res="5.9810753911733627e-02" rms="4.3567585945129395e-01" purity="4.9061021208763123e-01" nType="0">
        <Node pos="l" depth="1" NCoef="0" IVar="-1" Cut="0.0000000000000000e+00" cType="1" res="-2.1290320437401533e-03" rms="3.1918552517890930e-01" purity="1.9564305245876312e-01" nType="-99"/>
        <Node pos="r" depth="1" NCoef="0" IVar="7" Cut="1.0320122241973877e+00" cType="1" res="7.1213275194168091e-02" rms="4.3982371687889099e-01" purity="5.0989764928817749e-01" nType="0">
          <Node pos="l" depth="2" NCoef="0" IVar="-1" Cut="0.0000000000000000e+00" cType="1" res="1.0516121983528137e-03" rms="4.3917813897132874e-01" purity="5.8855676651000977e-01" nType="-99"/>
          <Node pos="r" depth="2" NCoef="0" IVar="-1" Cut="0.0000000000000000e+00" cType="1" res="3.0254074954427779e-04" rms="4.3567839264869690e-01" purity="4.7673514485359192e-01" nType="-99"/>
        </Node>
      </Node>
    </BinaryTree>
    <BinaryTree type="DecisionTree" boostWeight="1.0000000000000000e+00" itree="525">
      <Node pos="s" depth="0" NCoef="0" IVar="0" Cut="9.7020858526229858e-01" cType="1" res="7.7062629163265228e-02" rms="4.5615541934967041e-01" purity="4.9008834362030029e-01" nType="0">
        <Node pos="l" depth="1" NCoef="0" IVar="3" Cut="6.2580335140228271e-01" cType="1" res="4.5429062098264694e-02" rms="4.4480416178703308e-01" purity="4.2581674456596375e-01" nType="0">
          <Node pos="l" depth="2" NCoef="0" IVar="-1" Cut="0.0000000000000000e+00" cType="1" res="1.0627955198287964e-03" rms="4.2255049943923950e-01" purity="6.8441712856292725e-01" nType="-99"/>
          <Node pos="r" depth="2" NCoef="0" IVar="-1" Cut="0.0000000000000000e+00" cType="1" res="2.1804173593409359e-04" rms="4.4340273737907410e-01" purity="3.8727483153343201e-01" nType="-99"/>
        </Node>
        <Node pos="r" depth="1" NCoef="0" IVar="3" Cut="2.2936975955963135e+00" cType="1" res="1.5743596851825714e-01" rms="4.7440469264984131e-01" purity="6.5338724851608276e-01" nType="0">
          <Node pos="l" depth="2" NCoef="0" IVar="-1" Cut="0.0000000000000000e+00" cType="1" res="5.2801769925281405e-04" rms="4.6444985270500183e-01" purity="6.6412985324859619e-01" nType="-99"/>
          <Node pos="r" depth="2" NCoef="0" IVar="-1" Cut="0.0000000000000000e+00" cType="1" res="2.4513297248631716e-03" rms="4.5445123314857483e-01" purity="6.2473058700561523e-01" nType="-99"/>
        </Node>
      </Node>
    </BinaryTree>
    <BinaryTree type="DecisionTree" boostWeight="1.0000000000000000e+00" itree="526">
      <Node pos="s" depth="0" NCoef="0" IVar="2" Cut="3.4399011230468750e+02" cType="1" res="5.5556848645210266e-02" rms="4.4049465656280518e-01" purity="4.9079874157905579e-01" nType="0">
        <Node pos="l" depth="1" NCoef="0" IVar="6" Cut="2.9572354125976562e+02" cType="1" res="7.2362102568149567e-02" rms="4.4473311305046082e-01" purity="5.1411461830139160e-01" nType="0">
          <Node pos="l" depth="2" NCoef="0" IVar="-1" Cut="0.0000000000000000e+00" cType="1" res="-1.5642981452401727e-04" rms="4.1826105117797852e-01" purity="3.0649095773696899e-01" nType="-99"/>
          <Node pos="r" depth="2" NCoef="0" IVar="-1" Cut="0.0000000000000000e+00" cType="1" res="7.5302901677787304e-04" rms="4.5163908600807190e-01" purity="6.2420761585235596e-01" nType="-99"/>
        </Node>
        <Node pos="r" depth="1" NCoef="0" IVar="5" Cut="1.0766125917434692e+00" cType="1" res="-8.5114158689975739e-02" rms="3.7480208277702332e-01" purity="2.9562991857528687e-01" nType="0">
          <Node pos="l" depth="2" NCoef="0" IVar="-1" Cut="0.0000000000000000e+00" cType="1" res="8.3847728092223406e-05" rms="3.7396568059921265e-01" purity="3.8337650895118713e-01" nType="-99"/>
          <Node pos="r" depth="2" NCoef="0" IVar="-1" Cut="0.0000000000000000e+00" cType="1" res="-3.3358871005475521e-03" rms="3.5442847013473511e-01" purity="2.1486936509609222e-01" nType="-99"/>
        </Node>
      </Node>
    </BinaryTree>
    <BinaryTree type="DecisionTree" boostWeight="1.0000000000000000e+00" itree="527">
      <Node pos="s" depth="0" NCoef="0" IVar="8" Cut="8.4938781738281250e+01" cType="1" res="6.5009616315364838e-02" rms="4.3587520718574524e-01" purity="5.1092934608459473e-01" nType="0">
        <Node pos="l" depth="1" NCoef="0" IVar="-1" Cut="0.0000000000000000e+00" cType="1" res="-3.3235419541597366e-03" rms="3.2427275180816650e-01" purity="1.3771989941596985e-01" nType="-99"/>
        <Node pos="r" depth="1" NCoef="0" IVar="8" Cut="1.2076086425781250e+02" cType="1" res="8.0859847366809845e-02" rms="4.3957296013832092e-01" purity="5.4031342267990112e-01" nType="0">
          <Node pos="l" depth="2" NCoef="0" IVar="-1" Cut="0.0000000000000000e+00" cType="1" res="8.7466527475044131e-04" rms="4.4699075818061829e-01" purity="5.8888727426528931e-01" nType="-99"/>
          <Node pos="r" depth="2" NCoef="0" IVar="-1" Cut="0.0000000000000000e+00" cType="1" res="3.3252514549531043e-04" rms="4.2933833599090576e-01" purity="4.9992063641548157e-01" nType="-99"/>
        </Node>
      </Node>
    </BinaryTree>
    <BinaryTree type="DecisionTree" boostWeight="1.0000000000000000e+00" itree="528">
      <Node pos="s" depth="0" NCoef="0" IVar="0" Cut="9.5961719751358032e-01" cType="1" res="6.1096094548702240e-02" rms="4.3810504674911499e-01" purity="4.8957145214080811e-01" nType="0">
        <Node pos="l" depth="1" NCoef="0" IVar="8" Cut="1.2876124572753906e+02" cType="1" res="9.7223771736025810e-03" rms="4.2446219921112061e-01" purity="3.6877992749214172e-01" nType="0">
          <Node pos="l" depth="2" NCoef="0" IVar="-1" Cut="0.0000000000000000e+00" cType="1" res="5.8097252622246742e-04" rms="4.4213780760765076e-01" purity="4.2603182792663574e-01" nType="-99"/>
          <Node pos="r" depth="2" NCoef="0" IVar="-1" Cut="0.0000000000000000e+00" cType="1" res="-1.5202172799035907e-03" rms="3.5440224409103394e-01" purity="2.4314898252487183e-01" nType="-99"/>
        </Node>
        <Node pos="r" depth="1" NCoef="0" IVar="8" Cut="1.0617683410644531e+02" cType="1" res="1.2401185184717178e-01" rms="4.4627031683921814e-01" purity="6.3750100135803223e-01" nType="0">
          <Node pos="l" depth="2" NCoef="0" IVar="-1" Cut="0.0000000000000000e+00" cType="1" res="-1.7000479856505990e-03" rms="4.3453744053840637e-01" purity="2.9155218601226807e-01" nType="-99"/>
          <Node pos="r" depth="2" NCoef="0" IVar="-1" Cut="0.0000000000000000e+00" cType="1" res="9.9145679268985987e-04" rms="4.3139606714248657e-01" purity="6.9988793134689331e-01" nType="-99"/>
        </Node>
      </Node>
    </BinaryTree>
    <BinaryTree type="DecisionTree" boostWeight="1.0000000000000000e+00" itree="529">
      <Node pos="s" depth="0" NCoef="0" IVar="0" Cut="9.8478811979293823e-01" cType="1" res="6.4538173377513885e-02" rms="4.4550016522407532e-01" purity="4.9113047122955322e-01" nType="0">
        <Node pos="l" depth="1" NCoef="0" IVar="3" Cut="2.6365737915039062e+00" cType="1" res="3.8865391165018082e-02" rms="4.4843721389770508e-01" purity="4.3864673376083374e-01" nType="0">
          <Node pos="l" depth="2" NCoef="0" IVar="-1" Cut="0.0000000000000000e+00" cType="1" res="4.7765948693268001e-04" rms="4.7615355253219604e-01" purity="5.0366646051406860e-01" nType="-99"/>
          <Node pos="r" depth="2" NCoef="0" IVar="-1" Cut="0.0000000000000000e+00" cType="1" res="-1.5968402847647667e-02" rms="5.5252298712730408e-02" purity="0.0000000000000000e+00" nType="-99"/>
        </Node>
        <Node pos="r" depth="1" NCoef="0" IVar="-1" Cut="0.0000000000000000e+00" cType="1" res="1.0366161586716771e-03" rms="4.0873169898986816e-01" purity="7.4554073810577393e-01" nType="-99"/>
      </Node>
    </BinaryTree>
    <BinaryTree type="DecisionTree" boostWeight="1.0000000000000000e+00" itree="530">
      <Node pos="s" depth="0" NCoef="0" IVar="8" Cut="1.0653681182861328e+02" cType="1" res="3.7806615233421326e-02" rms="4.3576368689537048e-01" purity="4.6887490153312683e-01" nType="0">
        <Node pos="l" depth="1" NCoef="0" IVar="3" Cut="8.2903462648391724e-01" cType="1" res="-7.0154376327991486e-02" rms="3.9107972383499146e-01" purity="3.1863278150558472e-01" nType="0">
          <Node pos="l" depth="2" NCoef="0" IVar="-1" Cut="0.0000000000000000e+00" cType="1" res="7.6182314660400152e-04" rms="4.2287445068359375e-01" purity="5.9006249904632568e-01" nType="-99"/>
          <Node pos="r" depth="2" NCoef="0" IVar="-1" Cut="0.0000000000000000e+00" cType="1" res="-2.3127619642764330e-03" rms="3.4915611147880554e-01" purity="2.0829637348651886e-01" nType="-99"/>
        </Node>
        <Node pos="r" depth="1" NCoef="0" IVar="8" Cut="1.3008319091796875e+02" cType="1" res="7.3687031865119934e-02" rms="4.4385579228401184e-01" purity="5.1880729198455811e-01" nType="0">
          <Node pos="l" depth="2" NCoef="0" IVar="-1" Cut="0.0000000000000000e+00" cType="1" res="8.6672126781195402e-04" rms="4.5209711790084839e-01" purity="5.9485512971878052e-01" nType="-99"/>
          <Node pos="r" depth="2" NCoef="0" IVar="-1" Cut="0.0000000000000000e+00" cType="1" res="5.8248842833563685e-05" rms="4.2418605089187622e-01" purity="4.2822831869125366e-01" nType="-99"/>
        </Node>
      </Node>
    </BinaryTree>
    <BinaryTree type="DecisionTree" boostWeight="1.0000000000000000e+00" itree="531">
      <Node pos="s" depth="0" NCoef="0" IVar="0" Cut="9.3307679891586304e-01" cType="1" res="6.6598542034626007e-02" rms="4.3262824416160583e-01" purity="5.0203663110733032e-01" nType="0">
        <Node pos="l" depth="1" NCoef="0" IVar="8" Cut="1.2951519775390625e+02" cType="1" res="-5.1248621195554733e-02" rms="3.5422587394714355e-01" purity="2.5156217813491821e-01" nType="0">
          <Node pos="l" depth="2" NCoef="0" IVar="-1" Cut="0.0000000000000000e+00" cType="1" res="7.3904731834772974e-05" rms="3.7907525897026062e-01" purity="3.3406907320022583e-01" nType="-99"/>
          <Node pos="r" depth="2" NCoef="0" IVar="-1" Cut="0.0000000000000000e+00" cType="1" res="-6.4259553328156471e-03" rms="2.4368952214717865e-01" purity="6.6106781363487244e-02" nType="-99"/>
        </Node>
        <Node pos="r" depth="1" NCoef="0" IVar="7" Cut="1.8625940084457397e+00" cType="1" res="9.3561291694641113e-02" rms="4.4427165389060974e-01" purity="5.5934369564056396e-01" nType="0">
          <Node pos="l" depth="2" NCoef="0" IVar="-1" Cut="0.0000000000000000e+00" cType="1" res="7.5220823055133224e-04" rms="4.3952286243438721e-01" purity="6.1551237106323242e-01" nType="-99"/>
          <Node pos="r" depth="2" NCoef="0" IVar="-1" Cut="0.0000000000000000e+00" cType="1" res="-3.5269599175080657e-04" rms="4.4860765337944031e-01" purity="2.8736501932144165e-01" nType="-99"/>
        </Node>
      </Node>
    </BinaryTree>
    <BinaryTree type="DecisionTree" boostWeight="1.0000000000000000e+00" itree="532">
      <Node pos="s" depth="0" NCoef="0" IVar="1" Cut="9.2891395568847656e+01" cType="1" res="8.2638584077358246e-02" rms="4.3954995274543762e-01" purity="5.1926231384277344e-01" nType="0">
        <Node pos="l" depth="1" NCoef="0" IVar="2" Cut="9.0290573120117188e+01" cType="1" res="7.9666320234537125e-03" rms="4.3741431832313538e-01" purity="3.9750531315803528e-01" nType="0">
          <Node pos="l" depth="2" NCoef="0" IVar="-1" Cut="0.0000000000000000e+00" cType="1" res="1.2284733820706606e-03" rms="4.6633332967758179e-01" purity="4.8827701807022095e-01" nType="-99"/>
          <Node pos="r" depth="2" NCoef="0" IVar="-1" Cut="0.0000000000000000e+00" cType="1" res="-1.6533547022845596e-04" rms="4.2749938368797302e-01" purity="3.8308754563331604e-01" nType="-99"/>
        </Node>
        <Node pos="r" depth="1" NCoef="0" IVar="7" Cut="1.4652893543243408e+00" cType="1" res="1.4879082143306732e-01" rms="4.3075227737426758e-01" purity="6.2712734937667847e-01" nType="0">
          <Node pos="l" depth="2" NCoef="0" IVar="-1" Cut="0.0000000000000000e+00" cType="1" res="1.0982218664139509e-03" rms="3.5898429155349731e-01" purity="8.3272075653076172e-01" nType="-99"/>
          <Node pos="r" depth="2" NCoef="0" IVar="-1" Cut="0.0000000000000000e+00" cType="1" res="8.9637091150507331e-04" rms="4.5614191889762878e-01" purity="5.3208470344543457e-01" nType="-99"/>
        </Node>
      </Node>
    </BinaryTree>
    <BinaryTree type="DecisionTree" boostWeight="1.0000000000000000e+00" itree="533">
      <Node pos="s" depth="0" NCoef="0" IVar="2" Cut="3.7389614868164062e+02" cType="1" res="7.9774782061576843e-02" rms="4.3484473228454590e-01" purity="5.2031075954437256e-01" nType="0">
        <Node pos="l" depth="1" NCoef="0" IVar="1" Cut="3.6397651672363281e+01" cType="1" res="9.3980528414249420e-02" rms="4.3661132454872131e-01" purity="5.4168021678924561e-01" nType="0">
          <Node pos="l" depth="2" NCoef="0" IVar="-1" Cut="0.0000000000000000e+00" cType="1" res="-1.2332225451245904e-03" rms="3.2326295971870422e-01" purity="2.0706151425838470e-01" nType="-99"/>
          <Node pos="r" depth="2" NCoef="0" IVar="-1" Cut="0.0000000000000000e+00" cType="1" res="7.4503698851913214e-04" rms="4.4147825241088867e-01" purity="5.6873923540115356e-01" nType="-99"/>
        </Node>
        <Node pos="r" depth="1" NCoef="0" IVar="-1" Cut="0.0000000000000000e+00" cType="1" res="-1.4043565606698394e-03" rms="3.7458634376525879e-01" purity="2.6772895455360413e-01" nType="-99"/>
      </Node>
    </BinaryTree>
    <BinaryTree type="DecisionTree" boostWeight="1.0000000000000000e+00" itree="534">
      <Node pos="s" depth="0" NCoef="0" IVar="5" Cut="8.1239187717437744e-01" cType="1" res="9.9116727709770203e-02" rms="4.4269925355911255e-01" purity="5.2999788522720337e-01" nType="0">
        <Node pos="l" depth="1" NCoef="0" IVar="-1" Cut="0.0000000000000000e+00" cType="1" res="-2.5764279998838902e-03" rms="3.4273415803909302e-01" purity="1.9253551959991455e-01" nType="-99"/>
        <Node pos="r" depth="1" NCoef="0" IVar="1" Cut="1.1386456298828125e+02" cType="1" res="1.1306563764810562e-01" rms="4.4365981221199036e-01" purity="5.4919457435607910e-01" nType="0">
          <Node pos="l" depth="2" NCoef="0" IVar="-1" Cut="0.0000000000000000e+00" cType="1" res="5.4585601901635528e-04" rms="4.4486749172210693e-01" purity="4.8163890838623047e-01" nType="-99"/>
          <Node pos="r" depth="2" NCoef="0" IVar="-1" Cut="0.0000000000000000e+00" cType="1" res="1.1789384298026562e-03" rms="4.3109321594238281e-01" purity="6.6925072669982910e-01" nType="-99"/>
        </Node>
      </Node>
    </BinaryTree>
    <BinaryTree type="DecisionTree" boostWeight="1.0000000000000000e+00" itree="535">
      <Node pos="s" depth="0" NCoef="0" IVar="0" Cut="9.5623320341110229e-01" cType="1" res="6.2700651586055756e-02" rms="4.4134899973869324e-01" purity="4.9013611674308777e-01" nType="0">
        <Node pos="l" depth="1" NCoef="0" IVar="4" Cut="7.8735941648483276e-01" cType="1" res="5.4162121377885342e-03" rms="4.1953149437904358e-01" purity="3.5164466500282288e-01" nType="0">
          <Node pos="l" depth="2" NCoef="0" IVar="-1" Cut="0.0000000000000000e+00" cType="1" res="-3.3211981644853950e-04" rms="3.9615383744239807e-01" purity="3.3096301555633545e-01" nType="-99"/>
          <Node pos="r" depth="2" NCoef="0" IVar="-1" Cut="0.0000000000000000e+00" cType="1" res="1.8390808254480362e-03" rms="4.8158839344978333e-01" purity="4.4972452521324158e-01" nType="-99"/>
        </Node>
        <Node pos="r" depth="1" NCoef="0" IVar="4" Cut="7.2769975662231445e-01" cType="1" res="1.1776061356067657e-01" rms="4.5459449291229248e-01" purity="6.2324953079223633e-01" nType="0">
          <Node pos="l" depth="2" NCoef="0" IVar="-1" Cut="0.0000000000000000e+00" cType="1" res="9.2646793927997351e-04" rms="4.5509994029998779e-01" purity="6.6233378648757935e-01" nType="-99"/>
          <Node pos="r" depth="2" NCoef="0" IVar="-1" Cut="0.0000000000000000e+00" cType="1" res="1.0486391693120822e-04" rms="4.3701484799385071e-01" purity="4.9131032824516296e-01" nType="-99"/>
        </Node>
      </Node>
    </BinaryTree>
    <BinaryTree type="DecisionTree" boostWeight="1.0000000000000000e+00" itree="536">
      <Node pos="s" depth="0" NCoef="0" IVar="8" Cut="1.2969973754882812e+02" cType="1" res="5.0534844398498535e-02" rms="4.5017901062965393e-01" purity="4.7468641400337219e-01" nType="0">
        <Node pos="l" depth="1" NCoef="0" IVar="1" Cut="1.0750651550292969e+02" cType="1" res="8.8727056980133057e-02" rms="4.5641463994979858e-01" purity="5.1372176408767700e-01" nType="0">
          <Node pos="l" depth="2" NCoef="0" IVar="-1" Cut="0.0000000000000000e+00" cType="1" res="4.1622188291512430e-04" rms="4.5103636384010315e-01" purity="4.5343041419982910e-01" nType="-99"/>
          <Node pos="r" depth="2" NCoef="0" IVar="-1" Cut="0.0000000000000000e+00" cType="1" res="1.1668811785057187e-03" rms="4.5525035262107849e-01" purity="6.5987133979797363e-01" nType="-99"/>
        </Node>
        <Node pos="r" depth="1" NCoef="0" IVar="0" Cut="9.6391457319259644e-01" cType="1" res="-2.0504623651504517e-02" rms="4.2940214276313782e-01" purity="4.0207874774932861e-01" nType="0">
          <Node pos="l" depth="2" NCoef="0" IVar="-1" Cut="0.0000000000000000e+00" cType="1" res="-1.4673501718789339e-03" rms="4.1261854767799377e-01" purity="2.3172812163829803e-01" nType="-99"/>
          <Node pos="r" depth="2" NCoef="0" IVar="-1" Cut="0.0000000000000000e+00" cType="1" res="5.3981202654540539e-04" rms="4.3020862340927124e-01" purity="6.2675207853317261e-01" nType="-99"/>
        </Node>
      </Node>
    </BinaryTree>
    <BinaryTree type="DecisionTree" boostWeight="1.0000000000000000e+00" itree="537">
      <Node pos="s" depth="0" NCoef="0" IVar="6" Cut="3.3881597900390625e+02" cType="1" res="6.0509841889142990e-02" rms="4.4472810626029968e-01" purity="4.9388507008552551e-01" nType="0">
        <Node pos="l" depth="1" NCoef="0" IVar="0" Cut="9.6510475873947144e-01" cType="1" res="8.7482491508126259e-03" rms="4.3330928683280945e-01" purity="3.6424332857131958e-01" nType="0">
          <Node pos="l" depth="2" NCoef="0" IVar="-1" Cut="0.0000000000000000e+00" cType="1" res="-5.7179632131010294e-04" rms="4.0237206220626831e-01" purity="2.5435310602188110e-01" nType="-99"/>
          <Node pos="r" depth="2" NCoef="0" IVar="-1" Cut="0.0000000000000000e+00" cType="1" res="6.3597463304176927e-04" rms="4.6901908516883850e-01" purity="5.4324239492416382e-01" nType="-99"/>
        </Node>
        <Node pos="r" depth="1" NCoef="0" IVar="1" Cut="1.4705032348632812e+02" cType="1" res="1.1438156664371490e-01" rms="4.5003035664558411e-01" purity="6.2881171703338623e-01" nType="0">
          <Node pos="l" depth="2" NCoef="0" IVar="-1" Cut="0.0000000000000000e+00" cType="1" res="8.9189049322158098e-04" rms="4.4981554150581360e-01" purity="6.7670327425003052e-01" nType="-99"/>
          <Node pos="r" depth="2" NCoef="0" IVar="-1" Cut="0.0000000000000000e+00" cType="1" res="-2.1050774375908077e-04" rms="4.2337495088577271e-01" purity="4.4811949133872986e-01" nType="-99"/>
        </Node>
      </Node>
    </BinaryTree>
    <BinaryTree type="DecisionTree" boostWeight="1.0000000000000000e+00" itree="538">
      <Node pos="s" depth="0" NCoef="0" IVar="4" Cut="7.9253160953521729e-01" cType="1" res="8.0215469002723694e-02" rms="4.4630607962608337e-01" purity="5.1258450746536255e-01" nType="0">
        <Node pos="l" depth="1" NCoef="0" IVar="0" Cut="9.1389477252960205e-01" cType="1" res="9.4540841877460480e-02" rms="4.4643333554267883e-01" purity="5.3913766145706177e-01" nType="0">
          <Node pos="l" depth="2" NCoef="0" IVar="-1" Cut="0.0000000000000000e+00" cType="1" res="-9.6779596060514450e-04" rms="3.3992820978164673e-01" purity="2.2513473033905029e-01" nType="-99"/>
          <Node pos="r" depth="2" NCoef="0" IVar="-1" Cut="0.0000000000000000e+00" cType="1" res="7.5339124305173755e-04" rms="4.5104455947875977e-01" purity="5.6251603364944458e-01" nType="-99"/>
        </Node>
        <Node pos="r" depth="1" NCoef="0" IVar="-1" Cut="0.0000000000000000e+00" cType="1" res="-1.1313132708892226e-03" rms="4.1837874054908752e-01" purity="2.4443198740482330e-01" nType="-99"/>
      </Node>
    </BinaryTree>
    <BinaryTree type="DecisionTree" boostWeight="1.0000000000000000e+00" itree="539">
      <Node pos="s" depth="0" NCoef="0" IVar="0" Cut="9.6862262487411499e-01" cType="1" res="5.3862009197473526e-02" rms="4.1347220540046692e-01" purity="5.1564216613769531e-01" nType="0">
        <Node pos="l" depth="1" NCoef="0" IVar="6" Cut="3.4597149658203125e+02" cType="1" res="-6.1839488334953785e-03" rms="4.0866169333457947e-01" purity="3.9255446195602417e-01" nType="0">
          <Node pos="l" depth="2" NCoef="0" IVar="-1" Cut="0.0000000000000000e+00" cType="1" res="-1.3540213694795966e-03" rms="3.6251825094223022e-01" purity="2.1355821192264557e-01" nType="-99"/>
          <Node pos="r" depth="2" NCoef="0" IVar="-1" Cut="0.0000000000000000e+00" cType="1" res="5.0425971858203411e-04" rms="4.3613955378532410e-01" purity="5.7737612724304199e-01" nType="-99"/>
        </Node>
        <Node pos="r" depth="1" NCoef="0" IVar="3" Cut="1.7712999582290649e+00" cType="1" res="1.5001361072063446e-01" rms="4.0283197164535522e-01" purity="7.1274256706237793e-01" nType="0">
          <Node pos="l" depth="2" NCoef="0" IVar="-1" Cut="0.0000000000000000e+00" cType="1" res="9.5727812731638551e-04" rms="3.7619733810424805e-01" purity="8.0867117643356323e-01" nType="-99"/>
          <Node pos="r" depth="2" NCoef="0" IVar="-1" Cut="0.0000000000000000e+00" cType="1" res="3.4538406180217862e-04" rms="4.4852486252784729e-01" purity="4.5539692044258118e-01" nType="-99"/>
        </Node>
      </Node>
    </BinaryTree>
    <BinaryTree type="DecisionTree" boostWeight="1.0000000000000000e+00" itree="540">
      <Node pos="s" depth="0" NCoef="0" IVar="3" Cut="1.0119849443435669e+00" cType="1" res="3.5939335823059082e-02" rms="4.2800945043563843e-01" purity="4.8222365975379944e-01" nType="0">
        <Node pos="l" depth="1" NCoef="0" IVar="1" Cut="4.5394405364990234e+01" cType="1" res="1.3285842537879944e-01" rms="4.1300439834594727e-01" purity="6.8595331907272339e-01" nType="0">
          <Node pos="l" depth="2" NCoef="0" IVar="-1" Cut="0.0000000000000000e+00" cType="1" res="5.9966139815514907e-05" rms="4.0893507003784180e-01" purity="4.0843048691749573e-01" nType="-99"/>
          <Node pos="r" depth="2" NCoef="0" IVar="-1" Cut="0.0000000000000000e+00" cType="1" res="8.6321606067940593e-04" rms="4.0832889080047607e-01" purity="7.5120794773101807e-01" nType="-99"/>
        </Node>
        <Node pos="r" depth="1" NCoef="0" IVar="1" Cut="6.3765258789062500e+01" cType="1" res="-1.1325088329613209e-02" rms="4.2723700404167175e-01" purity="3.8287103176116943e-01" nType="0">
          <Node pos="l" depth="2" NCoef="0" IVar="-1" Cut="0.0000000000000000e+00" cType="1" res="-3.7664747796952724e-03" rms="3.1133025884628296e-01" purity="1.2469645589590073e-01" nType="-99"/>
          <Node pos="r" depth="2" NCoef="0" IVar="-1" Cut="0.0000000000000000e+00" cType="1" res="2.2600154625251889e-04" rms="4.4617751240730286e-01" purity="4.5277178287506104e-01" nType="-99"/>
        </Node>
      </Node>
    </BinaryTree>
    <BinaryTree type="DecisionTree" boostWeight="1.0000000000000000e+00" itree="541">
      <Node pos="s" depth="0" NCoef="0" IVar="1" Cut="9.7231742858886719e+01" cType="1" res="7.3624700307846069e-02" rms="4.3834429979324341e-01" purity="5.0366461277008057e-01" nType="0">
        <Node pos="l" depth="1" NCoef="0" IVar="0" Cut="9.7490745782852173e-01" cType="1" res="-3.9615095593035221e-03" rms="4.2616918683052063e-01" purity="3.8027966022491455e-01" nType="0">
          <Node pos="l" depth="2" NCoef="0" IVar="-1" Cut="0.0000000000000000e+00" cType="1" res="-4.8891617916524410e-04" rms="4.0538275241851807e-01" purity="3.0411949753761292e-01" nType="-99"/>
          <Node pos="r" depth="2" NCoef="0" IVar="-1" Cut="0.0000000000000000e+00" cType="1" res="7.4328301707282662e-04" rms="4.6566960215568542e-01" purity="6.2544798851013184e-01" nType="-99"/>
        </Node>
        <Node pos="r" depth="1" NCoef="0" IVar="7" Cut="1.4609807729721069e+00" cType="1" res="1.4788785576820374e-01" rms="4.3697100877761841e-01" purity="6.2176495790481567e-01" nType="0">
          <Node pos="l" depth="2" NCoef="0" IVar="-1" Cut="0.0000000000000000e+00" cType="1" res="1.1910190805792809e-03" rms="3.3591169118881226e-01" purity="8.5373216867446899e-01" nType="-99"/>
          <Node pos="r" depth="2" NCoef="0" IVar="-1" Cut="0.0000000000000000e+00" cType="1" res="8.0749846529215574e-04" rms="4.7288957238197327e-01" purity="5.0340831279754639e-01" nType="-99"/>
        </Node>
      </Node>
    </BinaryTree>
    <BinaryTree type="DecisionTree" boostWeight="1.0000000000000000e+00" itree="542">
      <Node pos="s" depth="0" NCoef="0" IVar="3" Cut="2.9672780036926270e+00" cType="1" res="6.2778502702713013e-02" rms="4.3941196799278259e-01" purity="4.9351269006729126e-01" nType="0">
        <Node pos="l" depth="1" NCoef="0" IVar="7" Cut="8.3043313026428223e-01" cType="1" res="7.4682205915451050e-02" rms="4.5301464200019836e-01" purity="5.3021091222763062e-01" nType="0">
          <Node pos="l" depth="2" NCoef="0" IVar="-1" Cut="0.0000000000000000e+00" cType="1" res="1.1888436274603009e-03" rms="4.5451411604881287e-01" purity="5.5456036329269409e-01" nType="-99"/>
          <Node pos="r" depth="2" NCoef="0" IVar="-1" Cut="0.0000000000000000e+00" cType="1" res="3.7355907261371613e-04" rms="4.4936200976371765e-01" purity="5.2326518297195435e-01" nType="-99"/>
        </Node>
        <Node pos="r" depth="1" NCoef="0" IVar="-1" Cut="0.0000000000000000e+00" cType="1" res="-1.5916634351015091e-02" rms="4.7990228980779648e-02" purity="0.0000000000000000e+00" nType="-99"/>
      </Node>
    </BinaryTree>
    <BinaryTree type="DecisionTree" boostWeight="1.0000000000000000e+00" itree="543">
      <Node pos="s" depth="0" NCoef="0" IVar="2" Cut="2.7953652954101562e+02" cType="1" res="5.9848595410585403e-02" rms="4.3499326705932617e-01" purity="5.0412529706954956e-01" nType="0">
        <Node pos="l" depth="1" NCoef="0" IVar="6" Cut="3.2750717163085938e+02" cType="1" res="8.6797058582305908e-02" rms="4.3827119469642639e-01" purity="5.4306948184967041e-01" nType="0">
          <Node pos="l" depth="2" NCoef="0" IVar="-1" Cut="0.0000000000000000e+00" cType="1" res="1.7565714369993657e-04" rms="4.4485363364219666e-01" purity="3.6469063162803650e-01" nType="-99"/>
          <Node pos="r" depth="2" NCoef="0" IVar="-1" Cut="0.0000000000000000e+00" cType="1" res="8.6121127242222428e-04" rms="4.2056211829185486e-01" purity="7.1794170141220093e-01" nType="-99"/>
        </Node>
        <Node pos="r" depth="1" NCoef="0" IVar="2" Cut="3.5310192871093750e+02" cType="1" res="-5.9900525957345963e-02" rms="3.9866322278976440e-01" purity="3.3107161521911621e-01" nType="0">
          <Node pos="l" depth="2" NCoef="0" IVar="-1" Cut="0.0000000000000000e+00" cType="1" res="-3.3500213176012039e-03" rms="3.4566187858581543e-01" purity="2.0217369496822357e-01" nType="-99"/>
          <Node pos="r" depth="2" NCoef="0" IVar="-1" Cut="0.0000000000000000e+00" cType="1" res="2.0057812798768282e-04" rms="4.0923747420310974e-01" purity="4.1173514723777771e-01" nType="-99"/>
        </Node>
      </Node>
    </BinaryTree>
    <BinaryTree type="DecisionTree" boostWeight="1.0000000000000000e+00" itree="544">
      <Node pos="s" depth="0" NCoef="0" IVar="7" Cut="1.8760492801666260e+00" cType="1" res="7.7469423413276672e-02" rms="4.3829765915870667e-01" purity="5.0937432050704956e-01" nType="0">
        <Node pos="l" depth="1" NCoef="0" IVar="1" Cut="9.1758041381835938e+01" cType="1" res="1.0228075087070465e-01" rms="4.3980360031127930e-01" purity="5.6529551744461060e-01" nType="0">
          <Node pos="l" depth="2" NCoef="0" IVar="-1" Cut="0.0000000000000000e+00" cType="1" res="3.9195962017402053e-04" rms="4.4685310125350952e-01" purity="4.3160274624824524e-01" nType="-99"/>
          <Node pos="r" depth="2" NCoef="0" IVar="-1" Cut="0.0000000000000000e+00" cType="1" res="9.6735532861202955e-04" rms="4.1750547289848328e-01" purity="7.4731558561325073e-01" nType="-99"/>
        </Node>
        <Node pos="r" depth="1" NCoef="0" IVar="7" Cut="2.4346895217895508e+00" cType="1" res="-4.2361598461866379e-02" rms="4.1034811735153198e-01" purity="2.3929238319396973e-01" nType="0">
          <Node pos="l" depth="2" NCoef="0" IVar="-1" Cut="0.0000000000000000e+00" cType="1" res="-2.4719422217458487e-03" rms="3.6490300297737122e-01" purity="1.9809642434120178e-01" nType="-99"/>
          <Node pos="r" depth="2" NCoef="0" IVar="-1" Cut="0.0000000000000000e+00" cType="1" res="2.6517957448959351e-03" rms="4.2616003751754761e-01" purity="3.2903176546096802e-01" nType="-99"/>
        </Node>
      </Node>
    </BinaryTree>
    <BinaryTree type="DecisionTree" boostWeight="1.0000000000000000e+00" itree="545">
      <Node pos="s" depth="0" NCoef="0" IVar="6" Cut="3.5388824462890625e+02" cType="1" res="7.5106985867023468e-02" rms="4.2994958162307739e-01" purity="5.2376759052276611e-01" nType="0">
        <Node pos="l" depth="1" NCoef="0" IVar="0" Cut="9.6753340959548950e-01" cType="1" res="1.8188757821917534e-02" rms="4.2062747478485107e-01" purity="3.8508868217468262e-01" nType="0">
          <Node pos="l" depth="2" NCoef="0" IVar="-1" Cut="0.0000000000000000e+00" cType="1" res="-4.3562555219978094e-04" rms="3.9493805170059204e-01" purity="2.6585081219673157e-01" nType="-99"/>
          <Node pos="r" depth="2" NCoef="0" IVar="-1" Cut="0.0000000000000000e+00" cType="1" res="7.2204601019620895e-04" rms="4.4860580563545227e-01" purity="5.9846526384353638e-01" nType="-99"/>
        </Node>
        <Node pos="r" depth="1" NCoef="0" IVar="7" Cut="1.1078437566757202e+00" cType="1" res="1.3851115107536316e-01" rms="4.3134725093841553e-01" purity="6.7824923992156982e-01" nType="0">
          <Node pos="l" depth="2" NCoef="0" IVar="-1" Cut="0.0000000000000000e+00" cType="1" res="1.1502052657306194e-03" rms="3.7035185098648071e-01" purity="7.9859775304794312e-01" nType="-99"/>
          <Node pos="r" depth="2" NCoef="0" IVar="-1" Cut="0.0000000000000000e+00" cType="1" res="5.6097749620676041e-04" rms="4.5546886324882507e-01" purity="6.0544383525848389e-01" nType="-99"/>
        </Node>
      </Node>
    </BinaryTree>
    <BinaryTree type="DecisionTree" boostWeight="1.0000000000000000e+00" itree="546">
      <Node pos="s" depth="0" NCoef="0" IVar="0" Cut="9.5316785573959351e-01" cType="1" res="5.9250019490718842e-02" rms="4.4956225156784058e-01" purity="4.9427008628845215e-01" nType="0">
        <Node pos="l" depth="1" NCoef="0" IVar="2" Cut="1.3844436645507812e+02" cType="1" res="2.7468239422887564e-03" rms="4.4943702220916748e-01" purity="3.3401107788085938e-01" nType="0">
          <Node pos="l" depth="2" NCoef="0" IVar="-1" Cut="0.0000000000000000e+00" cType="1" res="8.5182627663016319e-04" rms="4.6183568239212036e-01" purity="4.3214759230613708e-01" nType="-99"/>
          <Node pos="r" depth="2" NCoef="0" IVar="-1" Cut="0.0000000000000000e+00" cType="1" res="-6.2698865076526999e-04" rms="4.3552634119987488e-01" purity="2.8444832563400269e-01" nType="-99"/>
        </Node>
        <Node pos="r" depth="1" NCoef="0" IVar="8" Cut="1.1902573394775391e+02" cType="1" res="1.0503722727298737e-01" rms="4.4442528486251831e-01" purity="6.2413549423217773e-01" nType="0">
          <Node pos="l" depth="2" NCoef="0" IVar="-1" Cut="0.0000000000000000e+00" cType="1" res="9.6586369909346104e-04" rms="4.4849735498428345e-01" purity="6.5867066383361816e-01" nType="-99"/>
          <Node pos="r" depth="2" NCoef="0" IVar="-1" Cut="0.0000000000000000e+00" cType="1" res="3.8409497938118875e-04" rms="4.3493947386741638e-01" purity="5.8885496854782104e-01" nType="-99"/>
        </Node>
      </Node>
    </BinaryTree>
    <BinaryTree type="DecisionTree" boostWeight="1.0000000000000000e+00" itree="547">
      <Node pos="s" depth="0" NCoef="0" IVar="5" Cut="1.7400821447372437e+00" cType="1" res="7.9622447490692139e-02" rms="4.4405651092529297e-01" purity="5.1381593942642212e-01" nType="0">
        <Node pos="l" depth="1" NCoef="0" IVar="4" Cut="8.0991274118423462e-01" cType="1" res="9.5953807234764099e-02" rms="4.4485190510749817e-01" purity="5.2923458814620972e-01" nType="0">
          <Node pos="l" depth="2" NCoef="0" IVar="-1" Cut="0.0000000000000000e+00" cType="1" res="6.1795063083991408e-04" rms="4.3859505653381348e-01" purity="5.2577698230743408e-01" nType="-99"/>
          <Node pos="r" depth="2" NCoef="0" IVar="-1" Cut="0.0000000000000000e+00" cType="1" res="2.4261230137199163e-03" rms="4.8599284887313843e-01" purity="5.7547897100448608e-01" nType="-99"/>
        </Node>
        <Node pos="r" depth="1" NCoef="0" IVar="-1" Cut="0.0000000000000000e+00" cType="1" res="-1.2373522622510791e-03" rms="3.8451719284057617e-01" purity="3.3038550615310669e-01" nType="-99"/>
      </Node>
    </BinaryTree>
    <BinaryTree type="DecisionTree" boostWeight="1.0000000000000000e+00" itree="548">
      <Node pos="s" depth="0" NCoef="0" IVar="2" Cut="1.1753051757812500e+02" cType="1" res="2.0492168143391609e-02" rms="4.3418636918067932e-01" purity="4.5488739013671875e-01" nType="0">
        <Node pos="l" depth="1" NCoef="0" IVar="1" Cut="5.0830883026123047e+01" cType="1" res="-1.4537824690341949e-01" rms="3.6430007219314575e-01" purity="2.1047420799732208e-01" nType="0">
          <Node pos="l" depth="2" NCoef="0" IVar="-1" Cut="0.0000000000000000e+00" cType="1" res="-3.1792389927431941e-04" rms="3.8133499026298523e-01" purity="2.8323307633399963e-01" nType="-99"/>
          <Node pos="r" depth="2" NCoef="0" IVar="-1" Cut="0.0000000000000000e+00" cType="1" res="-5.6995889171957970e-03" rms="2.9592391848564148e-01" purity="1.3409887254238129e-01" nType="-99"/>
        </Node>
        <Node pos="r" depth="1" NCoef="0" IVar="1" Cut="2.1380651855468750e+02" cType="1" res="4.3488461524248123e-02" rms="4.3807661533355713e-01" purity="4.8877283930778503e-01" nType="0">
          <Node pos="l" depth="2" NCoef="0" IVar="-1" Cut="0.0000000000000000e+00" cType="1" res="2.0933045016136020e-04" rms="4.3619111180305481e-01" purity="4.7167649865150452e-01" nType="-99"/>
          <Node pos="r" depth="2" NCoef="0" IVar="-1" Cut="0.0000000000000000e+00" cType="1" res="1.4038266381248832e-03" rms="4.1546028852462769e-01" purity="6.5379345417022705e-01" nType="-99"/>
        </Node>
      </Node>
    </BinaryTree>
    <BinaryTree type="DecisionTree" boostWeight="1.0000000000000000e+00" itree="549">
      <Node pos="s" depth="0" NCoef="0" IVar="2" Cut="1.9348745727539062e+02" cType="1" res="3.4462079405784607e-02" rms="4.3229272961616516e-01" purity="4.6504181623458862e-01" nType="0">
        <Node pos="l" depth="1" NCoef="0" IVar="1" Cut="6.6655311584472656e+01" cType="1" res="8.2646496593952179e-02" rms="4.4768294692039490e-01" purity="5.1631057262420654e-01" nType="0">
          <Node pos="l" depth="2" NCoef="0" IVar="-1" Cut="0.0000000000000000e+00" cType="1" res="-1.8195174925494939e-04" rms="4.3579170107841492e-01" purity="3.2076364755630493e-01" nType="-99"/>
          <Node pos="r" depth="2" NCoef="0" IVar="-1" Cut="0.0000000000000000e+00" cType="1" res="8.8477937970310450e-04" rms="4.4338184595108032e-01" purity="6.4996355772018433e-01" nType="-99"/>
        </Node>
        <Node pos="r" depth="1" NCoef="0" IVar="1" Cut="9.5720436096191406e+01" cType="1" res="-2.1561760455369949e-02" rms="4.0656176209449768e-01" purity="4.0543189644813538e-01" nType="0">
          <Node pos="l" depth="2" NCoef="0" IVar="-1" Cut="0.0000000000000000e+00" cType="1" res="-2.6874791365116835e-03" rms="3.5528510808944702e-01" purity="1.9964680075645447e-01" nType="-99"/>
          <Node pos="r" depth="2" NCoef="0" IVar="-1" Cut="0.0000000000000000e+00" cType="1" res="3.3303041709586978e-04" rms="4.1262593865394592e-01" purity="4.9840700626373291e-01" nType="-99"/>
        </Node>
      </Node>
    </BinaryTree>
    <BinaryTree type="DecisionTree" boostWeight="1.0000000000000000e+00" itree="550">
      <Node pos="s" depth="0" NCoef="0" IVar="0" Cut="9.6087747812271118e-01" cType="1" res="6.0826949775218964e-02" rms="4.2616930603981018e-01" purity="5.0524693727493286e-01" nType="0">
        <Node pos="l" depth="1" NCoef="0" IVar="1" Cut="7.2011863708496094e+01" cType="1" res="-2.7500439900904894e-03" rms="4.1857883334159851e-01" purity="3.6091873049736023e-01" nType="0">
          <Node pos="l" depth="2" NCoef="0" IVar="-1" Cut="0.0000000000000000e+00" cType="1" res="-1.2855668319389224e-03" rms="3.6677986383438110e-01" purity="2.1446175873279572e-01" nType="-99"/>
          <Node pos="r" depth="2" NCoef="0" IVar="-1" Cut="0.0000000000000000e+00" cType="1" res="3.5344061325304210e-04" rms="4.3956574797630310e-01" purity="4.4563865661621094e-01" nType="-99"/>
        </Node>
        <Node pos="r" depth="1" NCoef="0" IVar="1" Cut="9.9406394958496094e+01" cType="1" res="1.3360559940338135e-01" rms="4.2312714457511902e-01" purity="6.7046415805816650e-01" nType="0">
          <Node pos="l" depth="2" NCoef="0" IVar="-1" Cut="0.0000000000000000e+00" cType="1" res="4.5253417920321226e-04" rms="4.4331562519073486e-01" purity="5.7807791233062744e-01" nType="-99"/>
          <Node pos="r" depth="2" NCoef="0" IVar="-1" Cut="0.0000000000000000e+00" cType="1" res="1.1286807712167501e-03" rms="3.9134112000465393e-01" purity="7.6066851615905762e-01" nType="-99"/>
        </Node>
      </Node>
    </BinaryTree>
    <BinaryTree type="DecisionTree" boostWeight="1.0000000000000000e+00" itree="551">
      <Node pos="s" depth="0" NCoef="0" IVar="1" Cut="3.5460948944091797e+01" cType="1" res="8.0782726407051086e-02" rms="4.3373277783393860e-01" purity="5.2775657176971436e-01" nType="0">
        <Node pos="l" depth="1" NCoef="0" IVar="-1" Cut="0.0000000000000000e+00" cType="1" res="-2.6556856464594603e-03" rms="3.0250859260559082e-01" purity="1.3855575025081635e-01" nType="-99"/>
        <Node pos="r" depth="1" NCoef="0" IVar="3" Cut="2.9916293621063232e+00" cType="1" res="9.1545008122920990e-02" rms="4.3719536066055298e-01" purity="5.4894322156906128e-01" nType="0">
          <Node pos="l" depth="2" NCoef="0" IVar="-1" Cut="0.0000000000000000e+00" cType="1" res="7.0963345933705568e-04" rms="4.4818848371505737e-01" purity="5.8376491069793701e-01" nType="-99"/>
          <Node pos="r" depth="2" NCoef="0" IVar="-1" Cut="0.0000000000000000e+00" cType="1" res="-1.5585527755320072e-02" rms="4.6997219324111938e-02" purity="0.0000000000000000e+00" nType="-99"/>
        </Node>
      </Node>
    </BinaryTree>
    <BinaryTree type="DecisionTree" boostWeight="1.0000000000000000e+00" itree="552">
      <Node pos="s" depth="0" NCoef="0" IVar="1" Cut="1.9966554260253906e+02" cType="1" res="3.1937096267938614e-02" rms="4.3601635098457336e-01" purity="4.5625203847885132e-01" nType="0">
        <Node pos="l" depth="1" NCoef="0" IVar="3" Cut="7.4379235506057739e-01" cType="1" res="1.3359922915697098e-02" rms="4.3301868438720703e-01" purity="4.4053539633750916e-01" nType="0">
          <Node pos="l" depth="2" NCoef="0" IVar="-1" Cut="0.0000000000000000e+00" cType="1" res="8.3375733811408281e-04" rms="4.3357983231544495e-01" purity="6.7504811286926270e-01" nType="-99"/>
          <Node pos="r" depth="2" NCoef="0" IVar="-1" Cut="0.0000000000000000e+00" cType="1" res="-1.5987458755262196e-04" rms="4.2734631896018982e-01" purity="3.8807967305183411e-01" nType="-99"/>
        </Node>
        <Node pos="r" depth="1" NCoef="0" IVar="-1" Cut="0.0000000000000000e+00" cType="1" res="1.5200529014691710e-03" rms="4.2087560892105103e-01" purity="6.1695569753646851e-01" nType="-99"/>
      </Node>
    </BinaryTree>
    <BinaryTree type="DecisionTree" boostWeight="1.0000000000000000e+00" itree="553">
      <Node pos="s" depth="0" NCoef="0" IVar="6" Cut="4.1086734008789062e+02" cType="1" res="8.4930680692195892e-02" rms="4.2720460891723633e-01" purity="5.2949118614196777e-01" nType="0">
        <Node pos="l" depth="1" NCoef="0" IVar="8" Cut="1.1737564086914062e+02" cType="1" res="4.6164553612470627e-02" rms="4.3405166268348694e-01" purity="4.4076505303382874e-01" nType="0">
          <Node pos="l" depth="2" NCoef="0" IVar="-1" Cut="0.0000000000000000e+00" cType="1" res="-3.1547388061881065e-04" rms="4.1618350148200989e-01" purity="3.3903273940086365e-01" nType="-99"/>
          <Node pos="r" depth="2" NCoef="0" IVar="-1" Cut="0.0000000000000000e+00" cType="1" res="7.1122666122391820e-04" rms="4.3836927413940430e-01" purity="5.0300687551498413e-01" nType="-99"/>
        </Node>
        <Node pos="r" depth="1" NCoef="0" IVar="1" Cut="1.1233003234863281e+02" cType="1" res="1.7123265564441681e-01" rms="3.9822348952293396e-01" purity="7.2701531648635864e-01" nType="0">
          <Node pos="l" depth="2" NCoef="0" IVar="-1" Cut="0.0000000000000000e+00" cType="1" res="5.9398810844868422e-04" rms="4.5324739813804626e-01" purity="6.2540549039840698e-01" nType="-99"/>
          <Node pos="r" depth="2" NCoef="0" IVar="-1" Cut="0.0000000000000000e+00" cType="1" res="1.1437094071879983e-03" rms="3.6118456721305847e-01" purity="7.7911931276321411e-01" nType="-99"/>
        </Node>
      </Node>
    </BinaryTree>
    <BinaryTree type="DecisionTree" boostWeight="1.0000000000000000e+00" itree="554">
      <Node pos="s" depth="0" NCoef="0" IVar="0" Cut="9.6031546592712402e-01" cType="1" res="5.7680003345012665e-02" rms="4.4464308023452759e-01" purity="4.9054268002510071e-01" nType="0">
        <Node pos="l" depth="1" NCoef="0" IVar="1" Cut="1.0510556793212891e+02" cType="1" res="-8.7652439251542091e-03" rms="4.3790546059608459e-01" purity="3.2790488004684448e-01" nType="0">
          <Node pos="l" depth="2" NCoef="0" IVar="-1" Cut="0.0000000000000000e+00" cType="1" res="-1.2715993216261268e-03" rms="4.1725781559944153e-01" purity="2.1951916813850403e-01" nType="-99"/>
          <Node pos="r" depth="2" NCoef="0" IVar="-1" Cut="0.0000000000000000e+00" cType="1" res="7.0171349216252565e-04" rms="4.4949615001678467e-01" purity="4.8762667179107666e-01" nType="-99"/>
        </Node>
        <Node pos="r" depth="1" NCoef="0" IVar="5" Cut="1.5572276115417480e+00" cType="1" res="1.3021969795227051e-01" rms="4.4058731198310852e-01" purity="6.6809791326522827e-01" nType="0">
          <Node pos="l" depth="2" NCoef="0" IVar="-1" Cut="0.0000000000000000e+00" cType="1" res="9.1850385069847107e-04" rms="4.3148007988929749e-01" purity="6.9054216146469116e-01" nType="-99"/>
          <Node pos="r" depth="2" NCoef="0" IVar="-1" Cut="0.0000000000000000e+00" cType="1" res="-1.8976329010911286e-04" rms="4.6710485219955444e-01" purity="5.2295750379562378e-01" nType="-99"/>
        </Node>
      </Node>
    </BinaryTree>
    <BinaryTree type="DecisionTree" boostWeight="1.0000000000000000e+00" itree="555">
      <Node pos="s" depth="0" NCoef="0" IVar="1" Cut="9.5532989501953125e+01" cType="1" res="5.9593293815851212e-02" rms="4.4283387064933777e-01" purity="4.8749721050262451e-01" nType="0">
        <Node pos="l" depth="1" NCoef="0" IVar="4" Cut="7.2122842073440552e-01" cType="1" res="-1.5383241698145866e-03" rms="4.4824096560478210e-01" purity="3.7478786706924438e-01" nType="0">
          <Node pos="l" depth="2" NCoef="0" IVar="-1" Cut="0.0000000000000000e+00" cType="1" res="-6.3686439534649253e-04" rms="4.2540633678436279e-01" purity="3.4348729252815247e-01" nType="-99"/>
          <Node pos="r" depth="2" NCoef="0" IVar="-1" Cut="0.0000000000000000e+00" cType="1" res="8.2334183389320970e-04" rms="4.6741980314254761e-01" purity="4.2379808425903320e-01" nType="-99"/>
        </Node>
        <Node pos="r" depth="1" NCoef="0" IVar="7" Cut="1.6183097362518311e+00" cType="1" res="1.2406074255704880e-01" rms="4.2769587039947510e-01" purity="6.0635691881179810e-01" nType="0">
          <Node pos="l" depth="2" NCoef="0" IVar="-1" Cut="0.0000000000000000e+00" cType="1" res="1.1074055219069123e-03" rms="3.6039435863494873e-01" purity="8.2057690620422363e-01" nType="-99"/>
          <Node pos="r" depth="2" NCoef="0" IVar="-1" Cut="0.0000000000000000e+00" cType="1" res="3.9277397445403039e-04" rms="4.6356451511383057e-01" purity="4.1779789328575134e-01" nType="-99"/>
        </Node>
      </Node>
    </BinaryTree>
    <BinaryTree type="DecisionTree" boostWeight="1.0000000000000000e+00" itree="556">
      <Node pos="s" depth="0" NCoef="0" IVar="7" Cut="1.6939052343368530e+00" cType="1" res="6.8784549832344055e-02" rms="4.3817755579948425e-01" purity="5.0416380167007446e-01" nType="0">
        <Node pos="l" depth="1" NCoef="0" IVar="7" Cut="5.9404242038726807e-01" cType="1" res="1.0534760355949402e-01" rms="4.4687727093696594e-01" purity="5.6228840351104736e-01" nType="0">
          <Node pos="l" depth="2" NCoef="0" IVar="-1" Cut="0.0000000000000000e+00" cType="1" res="-9.5434929244220257e-04" rms="3.8610753417015076e-01" purity="2.9608961939811707e-01" nType="-99"/>
          <Node pos="r" depth="2" NCoef="0" IVar="-1" Cut="0.0000000000000000e+00" cType="1" res="8.1852410221472383e-04" rms="4.4825276732444763e-01" purity="5.8672726154327393e-01" nType="-99"/>
        </Node>
        <Node pos="r" depth="1" NCoef="0" IVar="0" Cut="9.4885736703872681e-01" cType="1" res="-1.4501606114208698e-02" rms="4.0555977821350098e-01" purity="3.7176311016082764e-01" nType="0">
          <Node pos="l" depth="2" NCoef="0" IVar="-1" Cut="0.0000000000000000e+00" cType="1" res="-2.7306191623210907e-03" rms="3.1043025851249695e-01" purity="1.3560816645622253e-01" nType="-99"/>
          <Node pos="r" depth="2" NCoef="0" IVar="-1" Cut="0.0000000000000000e+00" cType="1" res="4.4644917943514884e-04" rms="4.3927440047264099e-01" purity="5.1884239912033081e-01" nType="-99"/>
        </Node>
      </Node>
    </BinaryTree>
    <BinaryTree type="DecisionTree" boostWeight="1.0000000000000000e+00" itree="557">
      <Node pos="s" depth="0" NCoef="0" IVar="0" Cut="9.6374362707138062e-01" cType="1" res="7.0654571056365967e-02" rms="4.2885375022888184e-01" purity="5.1267826557159424e-01" nType="0">
        <Node pos="l" depth="1" NCoef="0" IVar="2" Cut="2.7931286621093750e+02" cType="1" res="6.5963915549218655e-03" rms="4.3170154094696045e-01" purity="3.6281409859657288e-01" nType="0">
          <Node pos="l" depth="2" NCoef="0" IVar="-1" Cut="0.0000000000000000e+00" cType="1" res="3.6564277252182364e-04" rms="4.4164410233497620e-01" purity="4.0698868036270142e-01" nType="-99"/>
          <Node pos="r" depth="2" NCoef="0" IVar="-1" Cut="0.0000000000000000e+00" cType="1" res="-3.0965150799602270e-03" rms="3.4673166275024414e-01" purity="1.6437333822250366e-01" nType="-99"/>
        </Node>
        <Node pos="r" depth="1" NCoef="0" IVar="7" Cut="1.9430872201919556e+00" cType="1" res="1.5211813151836395e-01" rms="4.1102829575538635e-01" purity="7.0326238870620728e-01" nType="0">
          <Node pos="l" depth="2" NCoef="0" IVar="-1" Cut="0.0000000000000000e+00" cType="1" res="9.8027009516954422e-04" rms="4.0134364366531372e-01" purity="7.4857366085052490e-01" nType="-99"/>
          <Node pos="r" depth="2" NCoef="0" IVar="-1" Cut="0.0000000000000000e+00" cType="1" res="-4.5033701462671161e-04" rms="4.2823666334152222e-01" purity="3.7308350205421448e-01" nType="-99"/>
        </Node>
      </Node>
    </BinaryTree>
    <BinaryTree type="DecisionTree" boostWeight="1.0000000000000000e+00" itree="558">
      <Node pos="s" depth="0" NCoef="0" IVar="5" Cut="7.9796123504638672e-01" cType="1" res="6.8214118480682373e-02" rms="4.5152443647384644e-01" purity="5.0470876693725586e-01" nType="0">
        <Node pos="l" depth="1" NCoef="0" IVar="-1" Cut="0.0000000000000000e+00" cType="1" res="1.8672322621569037e-03" rms="4.8833799362182617e-01" purity="5.7571035623550415e-01" nType="-99"/>
        <Node pos="r" depth="1" NCoef="0" IVar="3" Cut="7.0176708698272705e-01" cType="1" res="5.2453994750976562e-02" rms="4.4470369815826416e-01" purity="4.9882617592811584e-01" nType="0">
          <Node pos="l" depth="2" NCoef="0" IVar="-1" Cut="0.0000000000000000e+00" cType="1" res="8.7126652942970395e-04" rms="4.3564754724502563e-01" purity="6.8224531412124634e-01" nType="-99"/>
          <Node pos="r" depth="2" NCoef="0" IVar="-1" Cut="0.0000000000000000e+00" cType="1" res="2.9301829636096954e-04" rms="4.4427305459976196e-01" purity="4.6207433938980103e-01" nType="-99"/>
        </Node>
      </Node>
    </BinaryTree>
    <BinaryTree type="DecisionTree" boostWeight="1.0000000000000000e+00" itree="559">
      <Node pos="s" depth="0" NCoef="0" IVar="4" Cut="7.5950223207473755e-01" cType="1" res="4.1744150221347809e-02" rms="4.2605161666870117e-01" purity="4.8306807875633240e-01" nType="0">
        <Node pos="l" depth="1" NCoef="0" IVar="0" Cut="9.5743405818939209e-01" cType="1" res="7.1693502366542816e-02" rms="4.3061050772666931e-01" purity="5.3147256374359131e-01" nType="0">
          <Node pos="l" depth="2" NCoef="0" IVar="-1" Cut="0.0000000000000000e+00" cType="1" res="1.1583258310565725e-04" rms="4.3134069442749023e-01" purity="3.6644318699836731e-01" nType="-99"/>
          <Node pos="r" depth="2" NCoef="0" IVar="-1" Cut="0.0000000000000000e+00" cType="1" res="7.5828871922567487e-04" rms="4.2303925752639771e-01" purity="6.7541646957397461e-01" nType="-99"/>
        </Node>
        <Node pos="r" depth="1" NCoef="0" IVar="5" Cut="1.3972287178039551e+00" cType="1" res="-1.1623812466859818e-01" rms="3.6225551366806030e-01" purity="2.2773544490337372e-01" nType="0">
          <Node pos="l" depth="2" NCoef="0" IVar="-1" Cut="0.0000000000000000e+00" cType="1" res="-1.3650792243424803e-04" rms="4.0833130478858948e-01" purity="3.3224833011627197e-01" nType="-99"/>
          <Node pos="r" depth="2" NCoef="0" IVar="-1" Cut="0.0000000000000000e+00" cType="1" res="-5.1774946041405201e-03" rms="2.8313598036766052e-01" purity="1.3285584747791290e-01" nType="-99"/>
        </Node>
      </Node>
    </BinaryTree>
    <BinaryTree type="DecisionTree" boostWeight="1.0000000000000000e+00" itree="560">
      <Node pos="s" depth="0" NCoef="0" IVar="6" Cut="2.5159370422363281e+02" cType="1" res="6.6408485174179077e-02" rms="4.2393857240676880e-01" purity="5.2000534534454346e-01" nType="0">
        <Node pos="l" depth="1" NCoef="0" IVar="8" Cut="1.0826516723632812e+02" cType="1" res="-1.7072167992591858e-01" rms="2.2087097167968750e-01" purity="5.6431233882904053e-02" nType="0">
          <Node pos="l" depth="2" NCoef="0" IVar="-1" Cut="0.0000000000000000e+00" cType="1" res="-3.4269602037966251e-03" rms="2.7060350775718689e-01" purity="1.1416976153850555e-01" nType="-99"/>
          <Node pos="r" depth="2" NCoef="0" IVar="-1" Cut="0.0000000000000000e+00" cType="1" res="-2.0074283704161644e-02" rms="1.4303524792194366e-01" purity="0.0000000000000000e+00" nType="-99"/>
        </Node>
        <Node pos="r" depth="1" NCoef="0" IVar="3" Cut="7.1554410457611084e-01" cType="1" res="9.6741177141666412e-02" rms="4.3400499224662781e-01" purity="5.7930380105972290e-01" nType="0">
          <Node pos="l" depth="2" NCoef="0" IVar="-1" Cut="0.0000000000000000e+00" cType="1" res="1.0977380443364382e-03" rms="4.2885389924049377e-01" purity="7.5694346427917480e-01" nType="-99"/>
          <Node pos="r" depth="2" NCoef="0" IVar="-1" Cut="0.0000000000000000e+00" cType="1" res="5.4459174862131476e-04" rms="4.3132472038269043e-01" purity="5.4726892709732056e-01" nType="-99"/>
        </Node>
      </Node>
    </BinaryTree>
    <BinaryTree type="DecisionTree" boostWeight="1.0000000000000000e+00" itree="561">
      <Node pos="s" depth="0" NCoef="0" IVar="0" Cut="9.2170011997222900e-01" cType="1" res="8.5236765444278717e-02" rms="4.5067793130874634e-01" purity="5.0652611255645752e-01" nType="0">
        <Node pos="l" depth="1" NCoef="0" IVar="4" Cut="7.1545153856277466e-01" cType="1" res="1.8944279849529266e-01" rms="4.5207351446151733e-01" purity="4.9701341986656189e-01" nType="0">
          <Node pos="l" depth="2" NCoef="0" IVar="-1" Cut="0.0000000000000000e+00" cType="1" res="8.5728178964927793e-04" rms="4.0494787693023682e-01" purity="4.7323814034461975e-01" nType="-99"/>
          <Node pos="r" depth="2" NCoef="0" IVar="-1" Cut="0.0000000000000000e+00" cType="1" res="3.0345320701599121e-03" rms="5.0389915704727173e-01" purity="5.4024797677993774e-01" nType="-99"/>
        </Node>
        <Node pos="r" depth="1" NCoef="0" IVar="8" Cut="9.5000190734863281e+01" cType="1" res="6.5770313143730164e-02" rms="4.4773629307746887e-01" purity="5.0830316543579102e-01" nType="0">
          <Node pos="l" depth="2" NCoef="0" IVar="-1" Cut="0.0000000000000000e+00" cType="1" res="-1.0414831340312958e-03" rms="3.8874042034149170e-01" purity="2.6249945163726807e-01" nType="-99"/>
          <Node pos="r" depth="2" NCoef="0" IVar="-1" Cut="0.0000000000000000e+00" cType="1" res="6.5420340979471803e-04" rms="4.5189148187637329e-01" purity="5.4371178150177002e-01" nType="-99"/>
        </Node>
      </Node>
    </BinaryTree>
    <BinaryTree type="DecisionTree" boostWeight="1.0000000000000000e+00" itree="562">
      <Node pos="s" depth="0" NCoef="0" IVar="4" Cut="6.6026318073272705e-01" cType="1" res="5.2252687513828278e-02" rms="4.3559989333152771e-01" purity="4.7992444038391113e-01" nType="0">
        <Node pos="l" depth="1" NCoef="0" IVar="7" Cut="1.5235426425933838e+00" cType="1" res="-6.0071707703173161e-03" rms="4.2598491907119751e-01" purity="4.4017609953880310e-01" nType="0">
          <Node pos="l" depth="2" NCoef="0" IVar="-1" Cut="0.0000000000000000e+00" cType="1" res="2.9252600506879389e-04" rms="4.2718830704689026e-01" purity="5.2847898006439209e-01" nType="-99"/>
          <Node pos="r" depth="2" NCoef="0" IVar="-1" Cut="0.0000000000000000e+00" cType="1" res="-1.3350981753319502e-03" rms="4.0991333127021790e-01" purity="2.7751469612121582e-01" nType="-99"/>
        </Node>
        <Node pos="r" depth="1" NCoef="0" IVar="1" Cut="1.3881074523925781e+02" cType="1" res="9.6673898398876190e-02" rms="4.3760991096496582e-01" purity="5.1023131608963013e-01" nType="0">
          <Node pos="l" depth="2" NCoef="0" IVar="-1" Cut="0.0000000000000000e+00" cType="1" res="8.9107820531353354e-04" rms="4.3797188997268677e-01" purity="5.4028618335723877e-01" nType="-99"/>
          <Node pos="r" depth="2" NCoef="0" IVar="-1" Cut="0.0000000000000000e+00" cType="1" res="-7.6311378506943583e-04" rms="3.9607790112495422e-01" purity="3.2608976960182190e-01" nType="-99"/>
        </Node>
      </Node>
    </BinaryTree>
    <BinaryTree type="DecisionTree" boostWeight="1.0000000000000000e+00" itree="563">
      <Node pos="s" depth="0" NCoef="0" IVar="0" Cut="9.8205542564392090e-01" cType="1" res="6.5908737480640411e-02" rms="4.4626063108444214e-01" purity="4.9017539620399475e-01" nType="0">
        <Node pos="l" depth="1" NCoef="0" IVar="1" Cut="4.7333297729492188e+01" cType="1" res="4.3295092880725861e-02" rms="4.4395887851715088e-01" purity="4.4415023922920227e-01" nType="0">
          <Node pos="l" depth="2" NCoef="0" IVar="-1" Cut="0.0000000000000000e+00" cType="1" res="-1.8729234579950571e-03" rms="3.5331097245216370e-01" purity="1.6696242988109589e-01" nType="-99"/>
          <Node pos="r" depth="2" NCoef="0" IVar="-1" Cut="0.0000000000000000e+00" cType="1" res="5.2159593906253576e-04" rms="4.5264282822608948e-01" purity="4.8629838228225708e-01" nType="-99"/>
        </Node>
        <Node pos="r" depth="1" NCoef="0" IVar="5" Cut="1.1439272165298462e+00" cType="1" res="1.8013724684715271e-01" rms="4.4030416011810303e-01" purity="7.2266274690628052e-01" nType="0">
          <Node pos="l" depth="2" NCoef="0" IVar="-1" Cut="0.0000000000000000e+00" cType="1" res="1.3337188865989447e-03" rms="4.4236877560615540e-01" purity="7.6018440723419189e-01" nType="-99"/>
          <Node pos="r" depth="2" NCoef="0" IVar="-1" Cut="0.0000000000000000e+00" cType="1" res="6.4561038743704557e-04" rms="4.2610922455787659e-01" purity="6.7445218563079834e-01" nType="-99"/>
        </Node>
      </Node>
    </BinaryTree>
    <BinaryTree type="DecisionTree" boostWeight="1.0000000000000000e+00" itree="564">
      <Node pos="s" depth="0" NCoef="0" IVar="8" Cut="9.8924827575683594e+01" cType="1" res="5.6450717151165009e-02" rms="4.4158294796943665e-01" purity="4.8767492175102234e-01" nType="0">
        <Node pos="l" depth="1" NCoef="0" IVar="0" Cut="9.4883984327316284e-01" cType="1" res="-1.0541277378797531e-01" rms="3.5973826050758362e-01" purity="2.4319235980510712e-01" nType="0">
          <Node pos="l" depth="2" NCoef="0" IVar="-1" Cut="0.0000000000000000e+00" cType="1" res="-1.8186666071414948e-02" rms="1.4990118145942688e-01" purity="0.0000000000000000e+00" nType="-99"/>
          <Node pos="r" depth="2" NCoef="0" IVar="-1" Cut="0.0000000000000000e+00" cType="1" res="-3.3705864916555583e-04" rms="4.2715945839881897e-01" purity="3.9343911409378052e-01" nType="-99"/>
        </Node>
        <Node pos="r" depth="1" NCoef="0" IVar="7" Cut="2.2959880828857422e+00" cType="1" res="8.4643378853797913e-02" rms="4.4839763641357422e-01" purity="5.3025788068771362e-01" nType="0">
          <Node pos="l" depth="2" NCoef="0" IVar="-1" Cut="0.0000000000000000e+00" cType="1" res="7.0606690132990479e-04" rms="4.5674180984497070e-01" purity="5.6500881910324097e-01" nType="-99"/>
          <Node pos="r" depth="2" NCoef="0" IVar="-1" Cut="0.0000000000000000e+00" cType="1" res="-4.1088266298174858e-03" rms="2.4972948431968689e-01" purity="8.5442706942558289e-02" nType="-99"/>
        </Node>
      </Node>
    </BinaryTree>
    <BinaryTree type="DecisionTree" boostWeight="1.0000000000000000e+00" itree="565">
      <Node pos="s" depth="0" NCoef="0" IVar="4" Cut="8.1431579589843750e-01" cType="1" res="6.4111135900020599e-02" rms="4.4517129659652710e-01" purity="4.8851096630096436e-01" nType="0">
        <Node pos="l" depth="1" NCoef="0" IVar="5" Cut="1.1565186977386475e+00" cType="1" res="8.3763338625431061e-02" rms="4.4976976513862610e-01" purity="5.1940286159515381e-01" nType="0">
          <Node pos="l" depth="2" NCoef="0" IVar="-1" Cut="0.0000000000000000e+00" cType="1" res="2.1152540284674615e-05" rms="4.2133536934852600e-01" purity="4.0864926576614380e-01" nType="-99"/>
          <Node pos="r" depth="2" NCoef="0" IVar="-1" Cut="0.0000000000000000e+00" cType="1" res="9.1226515360176563e-04" rms="4.5941269397735596e-01" purity="5.8898872137069702e-01" nType="-99"/>
        </Node>
        <Node pos="r" depth="1" NCoef="0" IVar="-1" Cut="0.0000000000000000e+00" cType="1" res="-2.1216215565800667e-02" rms="1.7439422011375427e-01" purity="0.0000000000000000e+00" nType="-99"/>
      </Node>
    </BinaryTree>
    <BinaryTree type="DecisionTree" boostWeight="1.0000000000000000e+00" itree="566">
      <Node pos="s" depth="0" NCoef="0" IVar="5" Cut="1.6274307966232300e+00" cType="1" res="4.3572179973125458e-02" rms="4.3255946040153503e-01" purity="4.7212627530097961e-01" nType="0">
        <Node pos="l" depth="1" NCoef="0" IVar="3" Cut="1.4627324342727661e+00" cType="1" res="7.4504003860056400e-03" rms="4.2439991235733032e-01" purity="4.3664368987083435e-01" nType="0">
          <Node pos="l" depth="2" NCoef="0" IVar="-1" Cut="0.0000000000000000e+00" cType="1" res="4.7259478014893830e-04" rms="4.4781693816184998e-01" purity="6.1344373226165771e-01" nType="-99"/>
          <Node pos="r" depth="2" NCoef="0" IVar="-1" Cut="0.0000000000000000e+00" cType="1" res="-7.1489380206912756e-04" rms="3.9139181375503540e-01" purity="2.6894500851631165e-01" nType="-99"/>
        </Node>
        <Node pos="r" depth="1" NCoef="0" IVar="5" Cut="1.7452521324157715e+00" cType="1" res="1.9380141794681549e-01" rms="4.3381273746490479e-01" purity="6.1969739198684692e-01" nType="0">
          <Node pos="l" depth="2" NCoef="0" IVar="-1" Cut="0.0000000000000000e+00" cType="1" res="1.4299652539193630e-03" rms="3.8228830695152283e-01" purity="7.4045258760452271e-01" nType="-99"/>
          <Node pos="r" depth="2" NCoef="0" IVar="-1" Cut="0.0000000000000000e+00" cType="1" res="6.2579475343227386e-04" rms="4.7457495331764221e-01" purity="4.4267693161964417e-01" nType="-99"/>
        </Node>
      </Node>
    </BinaryTree>
    <BinaryTree type="DecisionTree" boostWeight="1.0000000000000000e+00" itree="567">
      <Node pos="s" depth="0" NCoef="0" IVar="3" Cut="1.9231945276260376e+00" cType="1" res="8.4741577506065369e-02" rms="4.2818987369537354e-01" purity="5.2230584621429443e-01" nType="0">
        <Node pos="l" depth="1" NCoef="0" IVar="5" Cut="9.0351587533950806e-01" cType="1" res="1.2414137274026871e-01" rms="4.3696230649948120e-01" purity="6.4492291212081909e-01" nType="0">
          <Node pos="l" depth="2" NCoef="0" IVar="-1" Cut="0.0000000000000000e+00" cType="1" res="1.1643262114375830e-03" rms="4.0092235803604126e-01" purity="7.7381747961044312e-01" nType="-99"/>
          <Node pos="r" depth="2" NCoef="0" IVar="-1" Cut="0.0000000000000000e+00" cType="1" res="6.4006255706772208e-04" rms="4.4110959768295288e-01" purity="6.1657732725143433e-01" nType="-99"/>
        </Node>
        <Node pos="r" depth="1" NCoef="0" IVar="3" Cut="2.2196898460388184e+00" cType="1" res="-1.4582077972590923e-02" rms="3.8786017894744873e-01" purity="2.1319833397865295e-01" nType="0">
          <Node pos="l" depth="2" NCoef="0" IVar="-1" Cut="0.0000000000000000e+00" cType="1" res="-2.7210472617298365e-03" rms="3.7084349989891052e-01" purity="2.0571742951869965e-01" nType="-99"/>
          <Node pos="r" depth="2" NCoef="0" IVar="-1" Cut="0.0000000000000000e+00" cType="1" res="6.8677583476528525e-04" rms="3.7848588824272156e-01" purity="2.1553587913513184e-01" nType="-99"/>
        </Node>
      </Node>
    </BinaryTree>
    <BinaryTree type="DecisionTree" boostWeight="1.0000000000000000e+00" itree="568">
      <Node pos="s" depth="0" NCoef="0" IVar="5" Cut="1.6810956001281738e+00" cType="1" res="5.4218564182519913e-02" rms="4.4044283032417297e-01" purity="4.8339104652404785e-01" nType="0">
        <Node pos="l" depth="1" NCoef="0" IVar="5" Cut="1.5762137174606323e+00" cType="1" res="7.7438548207283020e-02" rms="4.4229644536972046e-01" purity="5.0870275497436523e-01" nType="0">
          <Node pos="l" depth="2" NCoef="0" IVar="-1" Cut="0.0000000000000000e+00" cType="1" res="4.3970393016934395e-04" rms="4.3959090113639832e-01" purity="4.8253202438354492e-01" nType="-99"/>
          <Node pos="r" depth="2" NCoef="0" IVar="-1" Cut="0.0000000000000000e+00" cType="1" res="1.3504376402124763e-03" rms="4.2169341444969177e-01" purity="7.0262813568115234e-01" nType="-99"/>
        </Node>
        <Node pos="r" depth="1" NCoef="0" IVar="-1" Cut="0.0000000000000000e+00" cType="1" res="-3.0639646574854851e-03" rms="3.3354112505912781e-01" purity="2.1676565706729889e-01" nType="-99"/>
      </Node>
    </BinaryTree>
    <BinaryTree type="DecisionTree" boostWeight="1.0000000000000000e+00" itree="569">
      <Node pos="s" depth="0" NCoef="0" IVar="1" Cut="9.5250755310058594e+01" cType="1" res="6.4044222235679626e-02" rms="4.2758503556251526e-01" purity="5.1575922966003418e-01" nType="0">
        <Node pos="l" depth="1" NCoef="0" IVar="8" Cut="1.3199197387695312e+02" cType="1" res="1.0158305987715721e-02" rms="4.4364202022552490e-01" purity="3.9675170183181763e-01" nType="0">
          <Node pos="l" depth="2" NCoef="0" IVar="-1" Cut="0.0000000000000000e+00" cType="1" res="4.9310782924294472e-04" rms="4.5489329099655151e-01" purity="4.4331490993499756e-01" nType="-99"/>
          <Node pos="r" depth="2" NCoef="0" IVar="-1" Cut="0.0000000000000000e+00" cType="1" res="-1.8044321332126856e-03" rms="3.7050288915634155e-01" purity="2.5240883231163025e-01" nType="-99"/>
        </Node>
        <Node pos="r" depth="1" NCoef="0" IVar="3" Cut="1.5580199956893921e+00" cType="1" res="1.1496585607528687e-01" rms="4.0530514717102051e-01" purity="6.2822008132934570e-01" nType="0">
          <Node pos="l" depth="2" NCoef="0" IVar="-1" Cut="0.0000000000000000e+00" cType="1" res="9.4767782138660550e-04" rms="3.8188436627388000e-01" purity="8.1714838743209839e-01" nType="-99"/>
          <Node pos="r" depth="2" NCoef="0" IVar="-1" Cut="0.0000000000000000e+00" cType="1" res="3.7918661837466061e-04" rms="4.1441398859024048e-01" purity="4.4511398673057556e-01" nType="-99"/>
        </Node>
      </Node>
    </BinaryTree>
    <BinaryTree type="DecisionTree" boostWeight="1.0000000000000000e+00" itree="570">
      <Node pos="s" depth="0" NCoef="0" IVar="3" Cut="2.4225070476531982e+00" cType="1" res="5.8750055730342865e-02" rms="4.3376684188842773e-01" purity="5.0161862373352051e-01" nType="0">
        <Node pos="l" depth="1" NCoef="0" IVar="4" Cut="6.5786325931549072e-01" cType="1" res="8.2520470023155212e-02" rms="4.5597901940345764e-01" purity="5.7680886983871460e-01" nType="0">
          <Node pos="l" depth="2" NCoef="0" IVar="-1" Cut="0.0000000000000000e+00" cType="1" res="4.3552059651119635e-05" rms="4.3454626202583313e-01" purity="5.2472937107086182e-01" nType="-99"/>
          <Node pos="r" depth="2" NCoef="0" IVar="-1" Cut="0.0000000000000000e+00" cType="1" res="9.2769879847764969e-04" rms="4.6330630779266357e-01" purity="6.1753720045089722e-01" nType="-99"/>
        </Node>
        <Node pos="r" depth="1" NCoef="0" IVar="0" Cut="9.4012689590454102e-01" cType="1" res="-9.0009190142154694e-02" rms="1.9699467718601227e-01" purity="3.1065637245774269e-02" nType="0">
          <Node pos="l" depth="2" NCoef="0" IVar="-1" Cut="0.0000000000000000e+00" cType="1" res="-1.0343669418944046e-04" rms="2.7678823471069336e-01" purity="8.1027865409851074e-02" nType="-99"/>
          <Node pos="r" depth="2" NCoef="0" IVar="-1" Cut="0.0000000000000000e+00" cType="1" res="-1.7717672511935234e-02" rms="8.5786417126655579e-02" purity="0.0000000000000000e+00" nType="-99"/>
        </Node>
      </Node>
    </BinaryTree>
    <BinaryTree type="DecisionTree" boostWeight="1.0000000000000000e+00" itree="571">
      <Node pos="s" depth="0" NCoef="0" IVar="1" Cut="9.8447463989257812e+01" cType="1" res="4.8221860080957413e-02" rms="4.4213581085205078e-01" purity="4.7332483530044556e-01" nType="0">
        <Node pos="l" depth="1" NCoef="0" IVar="5" Cut="1.4803392887115479e+00" cType="1" res="2.0189573115203530e-04" rms="4.5196577906608582e-01" purity="3.7068599462509155e-01" nType="0">
          <Node pos="l" depth="2" NCoef="0" IVar="-1" Cut="0.0000000000000000e+00" cType="1" res="-8.7651819922029972e-04" rms="4.4108119606971741e-01" purity="2.8131794929504395e-01" nType="-99"/>
          <Node pos="r" depth="2" NCoef="0" IVar="-1" Cut="0.0000000000000000e+00" cType="1" res="8.1450195284560323e-04" rms="4.4861149787902832e-01" purity="5.2125507593154907e-01" nType="-99"/>
        </Node>
        <Node pos="r" depth="1" NCoef="0" IVar="7" Cut="1.4488921165466309e+00" cType="1" res="1.0091711580753326e-01" rms="4.2489072680473328e-01" purity="5.8595681190490723e-01" nType="0">
          <Node pos="l" depth="2" NCoef="0" IVar="-1" Cut="0.0000000000000000e+00" cType="1" res="1.0202758712694049e-03" rms="3.5695421695709229e-01" purity="8.2158041000366211e-01" nType="-99"/>
          <Node pos="r" depth="2" NCoef="0" IVar="-1" Cut="0.0000000000000000e+00" cType="1" res="4.8342050286009908e-04" rms="4.4296008348464966e-01" purity="4.8967471718788147e-01" nType="-99"/>
        </Node>
      </Node>
    </BinaryTree>
    <BinaryTree type="DecisionTree" boostWeight="1.0000000000000000e+00" itree="572">
      <Node pos="s" depth="0" NCoef="0" IVar="5" Cut="1.5512909889221191e+00" cType="1" res="8.3398103713989258e-02" rms="4.4752851128578186e-01" purity="5.1501506567001343e-01" nType="0">
        <Node pos="l" depth="1" NCoef="0" IVar="0" Cut="9.1861993074417114e-01" cType="1" res="5.9999782592058182e-02" rms="4.4481334090232849e-01" purity="4.8618593811988831e-01" nType="0">
          <Node pos="l" depth="2" NCoef="0" IVar="-1" Cut="0.0000000000000000e+00" cType="1" res="-3.2503474503755569e-03" rms="2.7350705862045288e-01" purity="1.1942296475172043e-01" nType="-99"/>
          <Node pos="r" depth="2" NCoef="0" IVar="-1" Cut="0.0000000000000000e+00" cType="1" res="5.8964476920664310e-04" rms="4.5386666059494019e-01" purity="5.2012449502944946e-01" nType="-99"/>
        </Node>
        <Node pos="r" depth="1" NCoef="0" IVar="6" Cut="3.9574624633789062e+02" cType="1" res="1.5866118669509888e-01" rms="4.4793918728828430e-01" purity="6.0774707794189453e-01" nType="0">
          <Node pos="l" depth="2" NCoef="0" IVar="-1" Cut="0.0000000000000000e+00" cType="1" res="1.3905657688155770e-03" rms="4.4604521989822388e-01" purity="6.3272613286972046e-01" nType="-99"/>
          <Node pos="r" depth="2" NCoef="0" IVar="-1" Cut="0.0000000000000000e+00" cType="1" res="2.1114872652105987e-05" rms="4.1576659679412842e-01" purity="5.3542208671569824e-01" nType="-99"/>
        </Node>
      </Node>
    </BinaryTree>
    <BinaryTree type="DecisionTree" boostWeight="1.0000000000000000e+00" itree="573">
      <Node pos="s" depth="0" NCoef="0" IVar="2" Cut="1.0684983062744141e+02" cType="1" res="3.3304023090749979e-03" rms="4.2748138308525085e-01" purity="4.3581867218017578e-01" nType="0">
        <Node pos="l" depth="1" NCoef="0" IVar="-1" Cut="0.0000000000000000e+00" cType="1" res="-8.7712882086634636e-03" rms="2.0770069956779480e-01" purity="6.1668593436479568e-02" nType="-99"/>
        <Node pos="r" depth="1" NCoef="0" IVar="0" Cut="9.5387613773345947e-01" cType="1" res="2.3037977516651154e-02" rms="4.3389719724655151e-01" purity="4.6501216292381287e-01" nType="0">
          <Node pos="l" depth="2" NCoef="0" IVar="-1" Cut="0.0000000000000000e+00" cType="1" res="-6.2711338978260756e-04" rms="4.0800464153289795e-01" purity="2.9214388132095337e-01" nType="-99"/>
          <Node pos="r" depth="2" NCoef="0" IVar="-1" Cut="0.0000000000000000e+00" cType="1" res="5.3749978542327881e-04" rms="4.4520556926727295e-01" purity="6.0400289297103882e-01" nType="-99"/>
        </Node>
      </Node>
    </BinaryTree>
    <BinaryTree type="DecisionTree" boostWeight="1.0000000000000000e+00" itree="574">
      <Node pos="s" depth="0" NCoef="0" IVar="7" Cut="1.6519365310668945e+00" cType="1" res="6.0889784246683121e-02" rms="4.2635670304298401e-01" purity="5.0518310070037842e-01" nType="0">
        <Node pos="l" depth="1" NCoef="0" IVar="8" Cut="1.0661149597167969e+02" cType="1" res="9.6476420760154724e-02" rms="4.2508310079574585e-01" purity="5.6832593679428101e-01" nType="0">
          <Node pos="l" depth="2" NCoef="0" IVar="-1" Cut="0.0000000000000000e+00" cType="1" res="-9.3882845249027014e-05" rms="4.1209867596626282e-01" purity="3.8929414749145508e-01" nType="-99"/>
          <Node pos="r" depth="2" NCoef="0" IVar="-1" Cut="0.0000000000000000e+00" cType="1" res="8.8220572797581553e-04" rms="4.2275533080101013e-01" purity="6.4026665687561035e-01" nType="-99"/>
        </Node>
        <Node pos="r" depth="1" NCoef="0" IVar="0" Cut="9.5665407180786133e-01" cType="1" res="-1.8218828365206718e-02" rms="4.1847014427185059e-01" purity="3.6481744050979614e-01" nType="0">
          <Node pos="l" depth="2" NCoef="0" IVar="-1" Cut="0.0000000000000000e+00" cType="1" res="-1.8295714398846030e-03" rms="3.5481259226799011e-01" purity="1.8445044755935669e-01" nType="-99"/>
          <Node pos="r" depth="2" NCoef="0" IVar="-1" Cut="0.0000000000000000e+00" cType="1" res="3.8427812978625298e-04" rms="4.5563039183616638e-01" purity="5.2068603038787842e-01" nType="-99"/>
        </Node>
      </Node>
    </BinaryTree>
    <BinaryTree type="DecisionTree" boostWeight="1.0000000000000000e+00" itree="575">
      <Node pos="s" depth="0" NCoef="0" IVar="6" Cut="2.6239297485351562e+02" cType="1" res="8.0706588923931122e-02" rms="4.3368101119995117e-01" purity="5.2816647291183472e-01" nType="0">
        <Node pos="l" depth="1" NCoef="0" IVar="8" Cut="1.1421031951904297e+02" cType="1" res="-1.3486293144524097e-02" rms="3.8952881097793579e-01" purity="2.4875308573246002e-01" nType="0">
          <Node pos="l" depth="2" NCoef="0" IVar="-1" Cut="0.0000000000000000e+00" cType="1" res="-6.5570510923862457e-03" rms="2.2427229583263397e-01" purity="5.4303042590618134e-02" nType="-99"/>
          <Node pos="r" depth="2" NCoef="0" IVar="-1" Cut="0.0000000000000000e+00" cType="1" res="1.2622254434973001e-03" rms="4.3702748417854309e-01" purity="3.9536803960800171e-01" nType="-99"/>
        </Node>
        <Node pos="r" depth="1" NCoef="0" IVar="0" Cut="9.2586553096771240e-01" cType="1" res="1.0030398517847061e-01" rms="4.3978556990623474e-01" purity="5.8630007505416870e-01" nType="0">
          <Node pos="l" depth="2" NCoef="0" IVar="-1" Cut="0.0000000000000000e+00" cType="1" res="-1.9089013221673667e-04" rms="4.2226430773735046e-01" purity="3.2991525530815125e-01" nType="-99"/>
          <Node pos="r" depth="2" NCoef="0" IVar="-1" Cut="0.0000000000000000e+00" cType="1" res="7.5748079689219594e-04" rms="4.3967688083648682e-01" purity="6.2264984846115112e-01" nType="-99"/>
        </Node>
      </Node>
    </BinaryTree>
    <BinaryTree type="DecisionTree" boostWeight="1.0000000000000000e+00" itree="576">
      <Node pos="s" depth="0" NCoef="0" IVar="2" Cut="2.8787286376953125e+02" cType="1" res="1.0027097165584564e-01" rms="4.5111134648323059e-01" purity="5.2134197950363159e-01" nType="0">
        <Node pos="l" depth="1" NCoef="0" IVar="8" Cut="9.2176002502441406e+01" cType="1" res="1.2619657814502716e-01" rms="4.5473179221153259e-01" purity="5.5673629045486450e-01" nType="0">
          <Node pos="l" depth="2" NCoef="0" IVar="-1" Cut="0.0000000000000000e+00" cType="1" res="-1.2622169451788068e-03" rms="3.6275550723075867e-01" purity="2.2970080375671387e-01" nType="-99"/>
          <Node pos="r" depth="2" NCoef="0" IVar="-1" Cut="0.0000000000000000e+00" cType="1" res="1.0182333644479513e-03" rms="4.5755454897880554e-01" purity="5.9005844593048096e-01" nType="-99"/>
        </Node>
        <Node pos="r" depth="1" NCoef="0" IVar="7" Cut="1.3415255546569824e+00" cType="1" res="-2.9381670057773590e-02" rms="4.0856996178627014e-01" purity="3.4433701634407043e-01" nType="0">
          <Node pos="l" depth="2" NCoef="0" IVar="-1" Cut="0.0000000000000000e+00" cType="1" res="8.4515823982656002e-04" rms="4.5381191372871399e-01" purity="5.8458006381988525e-01" nType="-99"/>
          <Node pos="r" depth="2" NCoef="0" IVar="-1" Cut="0.0000000000000000e+00" cType="1" res="-2.2071297280490398e-03" rms="3.4670847654342651e-01" purity="1.9065053761005402e-01" nType="-99"/>
        </Node>
      </Node>
    </BinaryTree>
    <BinaryTree type="DecisionTree" boostWeight="1.0000000000000000e+00" itree="577">
      <Node pos="s" depth="0" NCoef="0" IVar="3" Cut="3.0677626132965088e+00" cType="1" res="9.3460224568843842e-02" rms="4.4259300827980042e-01" purity="5.3546184301376343e-01" nType="0">
        <Node pos="l" depth="1" NCoef="0" IVar="3" Cut="2.0588536262512207e+00" cType="1" res="1.0466507822275162e-01" rms="4.5381426811218262e-01" purity="5.6911301612854004e-01" nType="0">
          <Node pos="l" depth="2" NCoef="0" IVar="-1" Cut="0.0000000000000000e+00" cType="1" res="4.6940290485508740e-04" rms="4.4911473989486694e-01" purity="5.9466308355331421e-01" nType="-99"/>
          <Node pos="r" depth="2" NCoef="0" IVar="-1" Cut="0.0000000000000000e+00" cType="1" res="1.8007386242970824e-03" rms="4.5312571525573730e-01" purity="4.9321773648262024e-01" nType="-99"/>
        </Node>
        <Node pos="r" depth="1" NCoef="0" IVar="-1" Cut="0.0000000000000000e+00" cType="1" res="-1.5496698208153248e-02" rms="4.5225672423839569e-02" purity="0.0000000000000000e+00" nType="-99"/>
      </Node>
    </BinaryTree>
    <BinaryTree type="DecisionTree" boostWeight="1.0000000000000000e+00" itree="578">
      <Node pos="s" depth="0" NCoef="0" IVar="3" Cut="6.1742186546325684e-01" cType="1" res="1.0837838798761368e-01" rms="4.4800949096679688e-01" purity="5.4648607969284058e-01" nType="0">
        <Node pos="l" depth="1" NCoef="0" IVar="-1" Cut="0.0000000000000000e+00" cType="1" res="1.1396352201700211e-03" rms="3.8912191987037659e-01" purity="7.6817721128463745e-01" nType="-99"/>
        <Node pos="r" depth="1" NCoef="0" IVar="4" Cut="7.5339204072952271e-01" cType="1" res="9.2154987156391144e-02" rms="4.5338124036788940e-01" purity="5.1515281200408936e-01" nType="0">
          <Node pos="l" depth="2" NCoef="0" IVar="-1" Cut="0.0000000000000000e+00" cType="1" res="5.0099001964554191e-04" rms="4.4999080896377563e-01" purity="5.0161319971084595e-01" nType="-99"/>
          <Node pos="r" depth="2" NCoef="0" IVar="-1" Cut="0.0000000000000000e+00" cType="1" res="1.2903218157589436e-03" rms="4.5286387205123901e-01" purity="5.5385494232177734e-01" nType="-99"/>
        </Node>
      </Node>
    </BinaryTree>
    <BinaryTree type="DecisionTree" boostWeight="1.0000000000000000e+00" itree="579">
      <Node pos="s" depth="0" NCoef="0" IVar="8" Cut="1.3205198669433594e+02" cType="1" res="9.3149602413177490e-02" rms="4.3622693419456482e-01" purity="5.3330546617507935e-01" nType="0">
        <Node pos="l" depth="1" NCoef="0" IVar="8" Cut="1.0519472503662109e+02" cType="1" res="1.3014985620975494e-01" rms="4.3915989995002747e-01" purity="5.7710957527160645e-01" nType="0">
          <Node pos="l" depth="2" NCoef="0" IVar="-1" Cut="0.0000000000000000e+00" cType="1" res="4.7066668048501015e-04" rms="4.3538165092468262e-01" purity="4.3567535281181335e-01" nType="-99"/>
          <Node pos="r" depth="2" NCoef="0" IVar="-1" Cut="0.0000000000000000e+00" cType="1" res="1.0529813589528203e-03" rms="4.3620100617408752e-01" purity="6.4968836307525635e-01" nType="-99"/>
        </Node>
        <Node pos="r" depth="1" NCoef="0" IVar="6" Cut="3.8041314697265625e+02" cType="1" res="9.6641201525926590e-03" rms="4.1766256093978882e-01" purity="4.3446817994117737e-01" nType="0">
          <Node pos="l" depth="2" NCoef="0" IVar="-1" Cut="0.0000000000000000e+00" cType="1" res="-1.5519098378717899e-03" rms="3.5968732833862305e-01" purity="2.3593960702419281e-01" nType="-99"/>
          <Node pos="r" depth="2" NCoef="0" IVar="-1" Cut="0.0000000000000000e+00" cType="1" res="8.3145091775804758e-04" rms="4.3919900059700012e-01" purity="6.2880378961563110e-01" nType="-99"/>
        </Node>
      </Node>
    </BinaryTree>
    <BinaryTree type="DecisionTree" boostWeight="1.0000000000000000e+00" itree="580">
      <Node pos="s" depth="0" NCoef="0" IVar="7" Cut="1.7830399274826050e+00" cType="1" res="7.5698062777519226e-02" rms="4.3243834376335144e-01" purity="5.1929271221160889e-01" nType="0">
        <Node pos="l" depth="1" NCoef="0" IVar="1" Cut="1.0756466674804688e+02" cType="1" res="1.0668645799160004e-01" rms="4.3415349721908569e-01" purity="5.7876664400100708e-01" nType="0">
          <Node pos="l" depth="2" NCoef="0" IVar="-1" Cut="0.0000000000000000e+00" cType="1" res="4.7106054262258112e-04" rms="4.4436943531036377e-01" purity="4.8566347360610962e-01" nType="-99"/>
          <Node pos="r" depth="2" NCoef="0" IVar="-1" Cut="0.0000000000000000e+00" cType="1" res="1.1644990881904960e-03" rms="3.8378849625587463e-01" purity="8.1170451641082764e-01" nType="-99"/>
        </Node>
        <Node pos="r" depth="1" NCoef="0" IVar="0" Cut="9.5408618450164795e-01" cType="1" res="-3.1028680503368378e-02" rms="4.0888381004333496e-01" purity="3.1445908546447754e-01" nType="0">
          <Node pos="l" depth="2" NCoef="0" IVar="-1" Cut="0.0000000000000000e+00" cType="1" res="-5.9794881381094456e-03" rms="3.0419984459877014e-01" purity="8.1508517265319824e-02" nType="-99"/>
          <Node pos="r" depth="2" NCoef="0" IVar="-1" Cut="0.0000000000000000e+00" cType="1" res="4.2824755655601621e-04" rms="4.5826259255409241e-01" purity="4.9730575084686279e-01" nType="-99"/>
        </Node>
      </Node>
    </BinaryTree>
    <BinaryTree type="DecisionTree" boostWeight="1.0000000000000000e+00" itree="581">
      <Node pos="s" depth="0" NCoef="0" IVar="7" Cut="2.0331668853759766e+00" cType="1" res="7.2110526263713837e-02" rms="4.3836817145347595e-01" purity="5.0877898931503296e-01" nType="0">
        <Node pos="l" depth="1" NCoef="0" IVar="1" Cut="1.1228616333007812e+02" cType="1" res="8.9488744735717773e-02" rms="4.4659516215324402e-01" purity="5.5249953269958496e-01" nType="0">
          <Node pos="l" depth="2" NCoef="0" IVar="-1" Cut="0.0000000000000000e+00" cType="1" res="5.3832057164981961e-04" rms="4.5932990312576294e-01" purity="4.8459070920944214e-01" nType="-99"/>
          <Node pos="r" depth="2" NCoef="0" IVar="-1" Cut="0.0000000000000000e+00" cType="1" res="8.5593207040801644e-04" rms="4.0678089857101440e-01" purity="7.2144430875778198e-01" nType="-99"/>
        </Node>
        <Node pos="r" depth="1" NCoef="0" IVar="2" Cut="3.2058044433593750e+02" cType="1" res="-5.0612874329090118e-02" rms="3.5150846838951111e-01" purity="2.0002849400043488e-01" nType="0">
          <Node pos="l" depth="2" NCoef="0" IVar="-1" Cut="0.0000000000000000e+00" cType="1" res="-3.6709206178784370e-03" rms="3.3327716588973999e-01" purity="1.1018826067447662e-01" nType="-99"/>
          <Node pos="r" depth="2" NCoef="0" IVar="-1" Cut="0.0000000000000000e+00" cType="1" res="7.4657966615632176e-04" rms="3.4593132138252258e-01" purity="3.3101847767829895e-01" nType="-99"/>
        </Node>
      </Node>
    </BinaryTree>
    <BinaryTree type="DecisionTree" boostWeight="1.0000000000000000e+00" itree="582">
      <Node pos="s" depth="0" NCoef="0" IVar="4" Cut="5.8024263381958008e-01" cType="1" res="5.1945127546787262e-02" rms="4.4120505452156067e-01" purity="4.7784233093261719e-01" nType="0">
        <Node pos="l" depth="1" NCoef="0" IVar="5" Cut="1.1073085069656372e+00" cType="1" res="-1.0108595341444016e-01" rms="3.9759108424186707e-01" purity="3.3089661598205566e-01" nType="0">
          <Node pos="l" depth="2" NCoef="0" IVar="-1" Cut="0.0000000000000000e+00" cType="1" res="-6.0156402178108692e-03" rms="3.3323287963867188e-01" purity="1.2023393064737320e-01" nType="-99"/>
          <Node pos="r" depth="2" NCoef="0" IVar="-1" Cut="0.0000000000000000e+00" cType="1" res="1.5830925258342177e-04" rms="4.1901937127113342e-01" purity="5.4441624879837036e-01" nType="-99"/>
        </Node>
        <Node pos="r" depth="1" NCoef="0" IVar="6" Cut="5.0918218994140625e+02" cType="1" res="7.2369694709777832e-02" rms="4.4272089004516602e-01" purity="4.9745467305183411e-01" nType="0">
          <Node pos="l" depth="2" NCoef="0" IVar="-1" Cut="0.0000000000000000e+00" cType="1" res="4.2947079055011272e-04" rms="4.4567951560020447e-01" purity="4.4846770167350769e-01" nType="-99"/>
          <Node pos="r" depth="2" NCoef="0" IVar="-1" Cut="0.0000000000000000e+00" cType="1" res="1.0209545725956559e-03" rms="4.0727651119232178e-01" purity="7.4383074045181274e-01" nType="-99"/>
        </Node>
      </Node>
    </BinaryTree>
    <BinaryTree type="DecisionTree" boostWeight="1.0000000000000000e+00" itree="583">
      <Node pos="s" depth="0" NCoef="0" IVar="6" Cut="3.1367788696289062e+02" cType="1" res="5.6283909827470779e-02" rms="4.4510105252265930e-01" purity="4.8468786478042603e-01" nType="0">
        <Node pos="l" depth="1" NCoef="0" IVar="1" Cut="5.9977886199951172e+01" cType="1" res="-1.6335427761077881e-02" rms="4.1483473777770996e-01" purity="2.9253774881362915e-01" nType="0">
          <Node pos="l" depth="2" NCoef="0" IVar="-1" Cut="0.0000000000000000e+00" cType="1" res="6.4341287361457944e-04" rms="4.2066749930381775e-01" purity="3.5522091388702393e-01" nType="-99"/>
          <Node pos="r" depth="2" NCoef="0" IVar="-1" Cut="0.0000000000000000e+00" cType="1" res="-1.4766018139198422e-03" rms="3.9629200100898743e-01" purity="2.3273573815822601e-01" nType="-99"/>
        </Node>
        <Node pos="r" depth="1" NCoef="0" IVar="2" Cut="1.9045301818847656e+02" cType="1" res="1.0171876847743988e-01" rms="4.5720371603965759e-01" purity="6.0490798950195312e-01" nType="0">
          <Node pos="l" depth="2" NCoef="0" IVar="-1" Cut="0.0000000000000000e+00" cType="1" res="8.7141961557790637e-04" rms="4.3112403154373169e-01" purity="7.3424899578094482e-01" nType="-99"/>
          <Node pos="r" depth="2" NCoef="0" IVar="-1" Cut="0.0000000000000000e+00" cType="1" res="4.9249391304329038e-04" rms="4.6641504764556885e-01" purity="5.3545928001403809e-01" nType="-99"/>
        </Node>
      </Node>
    </BinaryTree>
    <BinaryTree type="DecisionTree" boostWeight="1.0000000000000000e+00" itree="584">
      <Node pos="s" depth="0" NCoef="0" IVar="1" Cut="5.8683570861816406e+01" cType="1" res="7.3680192232131958e-02" rms="4.4138997793197632e-01" purity="5.0615155696868896e-01" nType="0">
        <Node pos="l" depth="1" NCoef="0" IVar="0" Cut="9.6814256906509399e-01" cType="1" res="-1.0496458038687706e-02" rms="4.2986527085304260e-01" purity="3.0434751510620117e-01" nType="0">
          <Node pos="l" depth="2" NCoef="0" IVar="-1" Cut="0.0000000000000000e+00" cType="1" res="-1.2543554184958339e-03" rms="3.8474303483963013e-01" purity="1.9779175519943237e-01" nType="-99"/>
          <Node pos="r" depth="2" NCoef="0" IVar="-1" Cut="0.0000000000000000e+00" cType="1" res="7.9002341954037547e-04" rms="4.9136334657669067e-01" purity="5.2877098321914673e-01" nType="-99"/>
        </Node>
        <Node pos="r" depth="1" NCoef="0" IVar="3" Cut="2.7562053203582764e+00" cType="1" res="9.9374979734420776e-02" rms="4.4166386127471924e-01" purity="5.6775188446044922e-01" nType="0">
          <Node pos="l" depth="2" NCoef="0" IVar="-1" Cut="0.0000000000000000e+00" cType="1" res="7.5229891808703542e-04" rms="4.5779329538345337e-01" purity="6.2866801023483276e-01" nType="-99"/>
          <Node pos="r" depth="2" NCoef="0" IVar="-1" Cut="0.0000000000000000e+00" cType="1" res="-4.5969556085765362e-03" rms="2.1485409140586853e-01" purity="4.9596827477216721e-02" nType="-99"/>
        </Node>
      </Node>
    </BinaryTree>
    <BinaryTree type="DecisionTree" boostWeight="1.0000000000000000e+00" itree="585">
      <Node pos="s" depth="0" NCoef="0" IVar="6" Cut="3.8118572998046875e+02" cType="1" res="4.9231782555580139e-02" rms="4.2193019390106201e-01" purity="4.9309322237968445e-01" nType="0">
        <Node pos="l" depth="1" NCoef="0" IVar="4" Cut="6.9206333160400391e-01" cType="1" res="7.4464664794504642e-04" rms="4.2010459303855896e-01" purity="3.7599712610244751e-01" nType="0">
          <Node pos="l" depth="2" NCoef="0" IVar="-1" Cut="0.0000000000000000e+00" cType="1" res="3.6780809750780463e-04" rms="4.3299224972724915e-01" purity="4.4071656465530396e-01" nType="-99"/>
          <Node pos="r" depth="2" NCoef="0" IVar="-1" Cut="0.0000000000000000e+00" cType="1" res="-1.0044320952147245e-03" rms="3.8722294569015503e-01" purity="2.6583933830261230e-01" nType="-99"/>
        </Node>
        <Node pos="r" depth="1" NCoef="0" IVar="2" Cut="2.0437297058105469e+02" cType="1" res="1.2410268187522888e-01" rms="4.1371831297874451e-01" purity="6.7390596866607666e-01" nType="0">
          <Node pos="l" depth="2" NCoef="0" IVar="-1" Cut="0.0000000000000000e+00" cType="1" res="1.0391236282885075e-03" rms="3.5915946960449219e-01" purity="8.0676954984664917e-01" nType="-99"/>
          <Node pos="r" depth="2" NCoef="0" IVar="-1" Cut="0.0000000000000000e+00" cType="1" res="5.6955084437504411e-04" rms="4.2965596914291382e-01" purity="6.1783796548843384e-01" nType="-99"/>
        </Node>
      </Node>
    </BinaryTree>
    <BinaryTree type="DecisionTree" boostWeight="1.0000000000000000e+00" itree="586">
      <Node pos="s" depth="0" NCoef="0" IVar="7" Cut="1.5164414644241333e+00" cType="1" res="6.8775668740272522e-02" rms="4.3108004331588745e-01" purity="5.1402848958969116e-01" nType="0">
        <Node pos="l" depth="1" NCoef="0" IVar="1" Cut="4.1854629516601562e+01" cType="1" res="1.1256598681211472e-01" rms="4.3479004502296448e-01" purity="5.8372145891189575e-01" nType="0">
          <Node pos="l" depth="2" NCoef="0" IVar="-1" Cut="0.0000000000000000e+00" cType="1" res="-4.8125800094567239e-04" rms="3.8115477561950684e-01" purity="2.4032512307167053e-01" nType="-99"/>
          <Node pos="r" depth="2" NCoef="0" IVar="-1" Cut="0.0000000000000000e+00" cType="1" res="8.8479771511629224e-04" rms="4.3887963891029358e-01" purity="6.4921694993972778e-01" nType="-99"/>
        </Node>
        <Node pos="r" depth="1" NCoef="0" IVar="0" Cut="9.2643982172012329e-01" cType="1" res="-4.3231840245425701e-03" rms="4.1463613510131836e-01" purity="3.9769059419631958e-01" nType="0">
          <Node pos="l" depth="2" NCoef="0" IVar="-1" Cut="0.0000000000000000e+00" cType="1" res="1.1539187980815768e-03" rms="4.3349522352218628e-01" purity="4.5376268029212952e-01" nType="-99"/>
          <Node pos="r" depth="2" NCoef="0" IVar="-1" Cut="0.0000000000000000e+00" cType="1" res="-4.1687928023748100e-04" rms="4.0111398696899414e-01" purity="3.8358688354492188e-01" nType="-99"/>
        </Node>
      </Node>
    </BinaryTree>
    <BinaryTree type="DecisionTree" boostWeight="1.0000000000000000e+00" itree="587">
      <Node pos="s" depth="0" NCoef="0" IVar="0" Cut="9.4323325157165527e-01" cType="1" res="4.9610327929258347e-02" rms="4.2604726552963257e-01" purity="4.9954670667648315e-01" nType="0">
        <Node pos="l" depth="1" NCoef="0" IVar="0" Cut="9.3622195720672607e-01" cType="1" res="-3.7782888859510422e-02" rms="3.9610680937767029e-01" purity="2.9486435651779175e-01" nType="0">
          <Node pos="l" depth="2" NCoef="0" IVar="-1" Cut="0.0000000000000000e+00" cType="1" res="2.0318870156188495e-05" rms="4.0655556321144104e-01" purity="3.3269596099853516e-01" nType="-99"/>
          <Node pos="r" depth="2" NCoef="0" IVar="-1" Cut="0.0000000000000000e+00" cType="1" res="-4.5847496949136257e-03" rms="2.8955423831939697e-01" purity="1.3024610280990601e-01" nType="-99"/>
        </Node>
        <Node pos="r" depth="1" NCoef="0" IVar="8" Cut="1.0010923004150391e+02" cType="1" res="8.7760336697101593e-02" rms="4.3298077583312988e-01" purity="5.8889728784561157e-01" nType="0">
          <Node pos="l" depth="2" NCoef="0" IVar="-1" Cut="0.0000000000000000e+00" cType="1" res="-2.1652448049280792e-04" rms="4.1055941581726074e-01" purity="4.1419446468353271e-01" nType="-99"/>
          <Node pos="r" depth="2" NCoef="0" IVar="-1" Cut="0.0000000000000000e+00" cType="1" res="6.9988158065825701e-04" rms="4.3387404084205627e-01" purity="6.2077873945236206e-01" nType="-99"/>
        </Node>
      </Node>
    </BinaryTree>
    <BinaryTree type="DecisionTree" boostWeight="1.0000000000000000e+00" itree="588">
      <Node pos="s" depth="0" NCoef="0" IVar="4" Cut="6.5323972702026367e-01" cType="1" res="7.8361831605434418e-02" rms="4.4707036018371582e-01" purity="5.0216275453567505e-01" nType="0">
        <Node pos="l" depth="1" NCoef="0" IVar="5" Cut="1.2289634943008423e+00" cType="1" res="1.6155162826180458e-02" rms="4.4929814338684082e-01" purity="4.3551287055015564e-01" nType="0">
          <Node pos="l" depth="2" NCoef="0" IVar="-1" Cut="0.0000000000000000e+00" cType="1" res="-7.7026704093441367e-04" rms="4.3512544035911560e-01" purity="3.1216758489608765e-01" nType="-99"/>
          <Node pos="r" depth="2" NCoef="0" IVar="-1" Cut="0.0000000000000000e+00" cType="1" res="8.1099767703562975e-04" rms="4.4669115543365479e-01" purity="6.1159259080886841e-01" nType="-99"/>
        </Node>
        <Node pos="r" depth="1" NCoef="0" IVar="8" Cut="9.0814208984375000e+01" cType="1" res="1.1607778072357178e-01" rms="4.4146630167961121e-01" purity="5.4257273674011230e-01" nType="0">
          <Node pos="l" depth="2" NCoef="0" IVar="-1" Cut="0.0000000000000000e+00" cType="1" res="-1.3089849380776286e-03" rms="3.5449746251106262e-01" purity="2.4476386606693268e-01" nType="-99"/>
          <Node pos="r" depth="2" NCoef="0" IVar="-1" Cut="0.0000000000000000e+00" cType="1" res="9.3857286265119910e-04" rms="4.4414824247360229e-01" purity="5.7337152957916260e-01" nType="-99"/>
        </Node>
      </Node>
    </BinaryTree>
    <BinaryTree type="DecisionTree" boostWeight="1.0000000000000000e+00" itree="589">
      <Node pos="s" depth="0" NCoef="0" IVar="1" Cut="5.4860702514648438e+01" cType="1" res="3.3958390355110168e-02" rms="4.3886464834213257e-01" purity="4.7150805592536926e-01" nType="0">
        <Node pos="l" depth="1" NCoef="0" IVar="1" Cut="4.6814918518066406e+01" cType="1" res="-9.4184435904026031e-02" rms="3.5809919238090515e-01" purity="2.3109033703804016e-01" nType="0">
          <Node pos="l" depth="2" NCoef="0" IVar="-1" Cut="0.0000000000000000e+00" cType="1" res="-4.6549425460398197e-03" rms="2.6712802052497864e-01" purity="1.0806212574243546e-01" nType="-99"/>
          <Node pos="r" depth="2" NCoef="0" IVar="-1" Cut="0.0000000000000000e+00" cType="1" res="4.5693968422710896e-04" rms="4.3898662924766541e-01" purity="4.4553318619728088e-01" nType="-99"/>
        </Node>
        <Node pos="r" depth="1" NCoef="0" IVar="5" Cut="1.1859796047210693e+00" cType="1" res="6.5595723688602448e-02" rms="4.5104196667671204e-01" purity="5.3086507320404053e-01" nType="0">
          <Node pos="l" depth="2" NCoef="0" IVar="-1" Cut="0.0000000000000000e+00" cType="1" res="1.9282615539850667e-05" rms="4.4011664390563965e-01" purity="4.2127004265785217e-01" nType="-99"/>
          <Node pos="r" depth="2" NCoef="0" IVar="-1" Cut="0.0000000000000000e+00" cType="1" res="7.5778493192046881e-04" rms="4.5323753356933594e-01" purity="6.1629366874694824e-01" nType="-99"/>
        </Node>
      </Node>
    </BinaryTree>
    <BinaryTree type="DecisionTree" boostWeight="1.0000000000000000e+00" itree="590">
      <Node pos="s" depth="0" NCoef="0" IVar="1" Cut="7.6939781188964844e+01" cType="1" res="7.8971624374389648e-02" rms="4.3249705433845520e-01" purity="5.2085912227630615e-01" nType="0">
        <Node pos="l" depth="1" NCoef="0" IVar="3" Cut="1.0934413671493530e+00" cType="1" res="1.3568247668445110e-02" rms="4.2560097575187683e-01" purity="3.9434853196144104e-01" nType="0">
          <Node pos="l" depth="2" NCoef="0" IVar="-1" Cut="0.0000000000000000e+00" cType="1" res="6.7353493068367243e-04" rms="4.3882635235786438e-01" purity="5.8632230758666992e-01" nType="-99"/>
          <Node pos="r" depth="2" NCoef="0" IVar="-1" Cut="0.0000000000000000e+00" cType="1" res="-1.5465277247130871e-03" rms="3.8998186588287354e-01" purity="1.9872134923934937e-01" nType="-99"/>
        </Node>
        <Node pos="r" depth="1" NCoef="0" IVar="7" Cut="1.8818713426589966e+00" cType="1" res="1.1777292191982269e-01" rms="4.3188086152076721e-01" purity="5.9591299295425415e-01" nType="0">
          <Node pos="l" depth="2" NCoef="0" IVar="-1" Cut="0.0000000000000000e+00" cType="1" res="9.1778812929987907e-04" rms="4.3351605534553528e-01" purity="7.0847398042678833e-01" nType="-99"/>
          <Node pos="r" depth="2" NCoef="0" IVar="-1" Cut="0.0000000000000000e+00" cType="1" res="1.5430960047524422e-04" rms="4.0949109196662903e-01" purity="3.3483907580375671e-01" nType="-99"/>
        </Node>
      </Node>
    </BinaryTree>
    <BinaryTree type="DecisionTree" boostWeight="1.0000000000000000e+00" itree="591">
      <Node pos="s" depth="0" NCoef="0" IVar="7" Cut="1.9085048437118530e+00" cType="1" res="6.0788568109273911e-02" rms="4.2779767513275146e-01" purity="5.1074308156967163e-01" nType="0">
        <Node pos="l" depth="1" NCoef="0" IVar="8" Cut="1.3526498413085938e+02" cType="1" res="9.0570025146007538e-02" rms="4.3126967549324036e-01" purity="5.7001775503158569e-01" nType="0">
          <Node pos="l" depth="2" NCoef="0" IVar="-1" Cut="0.0000000000000000e+00" cType="1" res="7.9270027345046401e-04" rms="4.2270725965499878e-01" purity="6.0138350725173950e-01" nType="-99"/>
          <Node pos="r" depth="2" NCoef="0" IVar="-1" Cut="0.0000000000000000e+00" cType="1" res="-3.7671965401386842e-05" rms="4.4596493244171143e-01" purity="4.6450996398925781e-01" nType="-99"/>
        </Node>
        <Node pos="r" depth="1" NCoef="0" IVar="7" Cut="2.1281065940856934e+00" cType="1" res="-1.0406281799077988e-01" rms="3.6662667989730835e-01" purity="1.8263579905033112e-01" nType="0">
          <Node pos="l" depth="2" NCoef="0" IVar="-1" Cut="0.0000000000000000e+00" cType="1" res="-4.9253804609179497e-03" rms="3.7569978833198547e-01" purity="1.5044713020324707e-01" nType="-99"/>
          <Node pos="r" depth="2" NCoef="0" IVar="-1" Cut="0.0000000000000000e+00" cType="1" res="-7.0585031062364578e-04" rms="3.4212946891784668e-01" purity="1.9879062473773956e-01" nType="-99"/>
        </Node>
      </Node>
    </BinaryTree>
    <BinaryTree type="DecisionTree" boostWeight="1.0000000000000000e+00" itree="592">
      <Node pos="s" depth="0" NCoef="0" IVar="1" Cut="9.9041511535644531e+01" cType="1" res="4.4590439647436142e-02" rms="4.3517985939979553e-01" purity="4.7994095087051392e-01" nType="0">
        <Node pos="l" depth="1" NCoef="0" IVar="5" Cut="1.6758493185043335e+00" cType="1" res="-1.1359542608261108e-02" rms="4.3995249271392822e-01" purity="3.6672139167785645e-01" nType="0">
          <Node pos="l" depth="2" NCoef="0" IVar="-1" Cut="0.0000000000000000e+00" cType="1" res="1.4813017332926393e-04" rms="4.4861587882041931e-01" purity="3.9419430494308472e-01" nType="-99"/>
          <Node pos="r" depth="2" NCoef="0" IVar="-1" Cut="0.0000000000000000e+00" cType="1" res="-5.0400625914335251e-03" rms="2.7460798621177673e-01" purity="1.3851214945316315e-01" nType="-99"/>
        </Node>
        <Node pos="r" depth="1" NCoef="0" IVar="4" Cut="7.5819516181945801e-01" cType="1" res="1.0580121725797653e-01" rms="4.2147430777549744e-01" purity="6.0380619764328003e-01" nType="0">
          <Node pos="l" depth="2" NCoef="0" IVar="-1" Cut="0.0000000000000000e+00" cType="1" res="8.5951032815501094e-04" rms="4.1913726925849915e-01" purity="6.4104139804840088e-01" nType="-99"/>
          <Node pos="r" depth="2" NCoef="0" IVar="-1" Cut="0.0000000000000000e+00" cType="1" res="-1.0446757078170776e-03" rms="3.7982502579689026e-01" purity="3.2931745052337646e-01" nType="-99"/>
        </Node>
      </Node>
    </BinaryTree>
    <BinaryTree type="DecisionTree" boostWeight="1.0000000000000000e+00" itree="593">
      <Node pos="s" depth="0" NCoef="0" IVar="6" Cut="4.6032839965820312e+02" cType="1" res="3.7746213376522064e-02" rms="4.3354836106300354e-01" purity="4.6852394938468933e-01" nType="0">
        <Node pos="l" depth="1" NCoef="0" IVar="8" Cut="1.0543220520019531e+02" cType="1" res="-1.4205452753230929e-03" rms="4.4107890129089355e-01" purity="3.8467320799827576e-01" nType="0">
          <Node pos="l" depth="2" NCoef="0" IVar="-1" Cut="0.0000000000000000e+00" cType="1" res="-2.0663845352828503e-03" rms="3.6206078529357910e-01" purity="2.0512984693050385e-01" nType="-99"/>
          <Node pos="r" depth="2" NCoef="0" IVar="-1" Cut="0.0000000000000000e+00" cType="1" res="3.2402074430137873e-04" rms="4.5508638024330139e-01" purity="4.3560910224914551e-01" nType="-99"/>
        </Node>
        <Node pos="r" depth="1" NCoef="0" IVar="2" Cut="3.9936175537109375e+02" cType="1" res="1.6978733241558075e-01" rms="3.7835592031478882e-01" purity="7.5120609998703003e-01" nType="0">
          <Node pos="l" depth="2" NCoef="0" IVar="-1" Cut="0.0000000000000000e+00" cType="1" res="1.0939829517155886e-03" rms="3.5936152935028076e-01" purity="8.2249283790588379e-01" nType="-99"/>
          <Node pos="r" depth="2" NCoef="0" IVar="-1" Cut="0.0000000000000000e+00" cType="1" res="2.4983246112242341e-04" rms="3.9974236488342285e-01" purity="5.3973227739334106e-01" nType="-99"/>
        </Node>
      </Node>
    </BinaryTree>
    <BinaryTree type="DecisionTree" boostWeight="1.0000000000000000e+00" itree="594">
      <Node pos="s" depth="0" NCoef="0" IVar="3" Cut="7.8167629241943359e-01" cType="1" res="3.3372234553098679e-02" rms="4.1671624779701233e-01" purity="4.7793602943420410e-01" nType="0">
        <Node pos="l" depth="1" NCoef="0" IVar="6" Cut="3.1378796386718750e+02" cType="1" res="1.8635010719299316e-01" rms="4.2371162772178650e-01" purity="7.1733927726745605e-01" nType="0">
          <Node pos="l" depth="2" NCoef="0" IVar="-1" Cut="0.0000000000000000e+00" cType="1" res="3.8117330404929817e-04" rms="4.9540013074874878e-01" purity="4.1568416357040405e-01" nType="-99"/>
          <Node pos="r" depth="2" NCoef="0" IVar="-1" Cut="0.0000000000000000e+00" cType="1" res="1.1220691958442330e-03" rms="3.7800538539886475e-01" purity="8.3210587501525879e-01" nType="-99"/>
        </Node>
        <Node pos="r" depth="1" NCoef="0" IVar="5" Cut="1.6900514364242554e+00" cType="1" res="-5.7450453750789165e-03" rms="4.0575221180915833e-01" purity="4.1671931743621826e-01" nType="0">
          <Node pos="l" depth="2" NCoef="0" IVar="-1" Cut="0.0000000000000000e+00" cType="1" res="1.2345507275313139e-04" rms="4.0858009457588196e-01" purity="4.3951016664505005e-01" nType="-99"/>
          <Node pos="r" depth="2" NCoef="0" IVar="-1" Cut="0.0000000000000000e+00" cType="1" res="-4.4552129693329334e-03" rms="2.9721572995185852e-01" purity="1.6883711516857147e-01" nType="-99"/>
        </Node>
      </Node>
    </BinaryTree>
    <BinaryTree type="DecisionTree" boostWeight="1.0000000000000000e+00" itree="595">
      <Node pos="s" depth="0" NCoef="0" IVar="0" Cut="9.5796006917953491e-01" cType="1" res="7.6018922030925751e-02" rms="4.2809432744979858e-01" purity="5.1645135879516602e-01" nType="0">
        <Node pos="l" depth="1" NCoef="0" IVar="4" Cut="6.4695292711257935e-01" cType="1" res="1.1553507298231125e-02" rms="4.2485255002975464e-01" purity="3.5367330908775330e-01" nType="0">
          <Node pos="l" depth="2" NCoef="0" IVar="-1" Cut="0.0000000000000000e+00" cType="1" res="-1.2315309140831232e-03" rms="3.7939655780792236e-01" purity="2.6178160309791565e-01" nType="-99"/>
          <Node pos="r" depth="2" NCoef="0" IVar="-1" Cut="0.0000000000000000e+00" cType="1" res="5.5297627113759518e-04" rms="4.3706732988357544e-01" purity="3.9860469102859497e-01" nType="-99"/>
        </Node>
        <Node pos="r" depth="1" NCoef="0" IVar="8" Cut="1.1251293182373047e+02" cType="1" res="1.3619738817214966e-01" rms="4.2230919003486633e-01" purity="6.6840469837188721e-01" nType="0">
          <Node pos="l" depth="2" NCoef="0" IVar="-1" Cut="0.0000000000000000e+00" cType="1" res="3.4691698965616524e-04" rms="4.3051853775978088e-01" purity="5.6244540214538574e-01" nType="-99"/>
          <Node pos="r" depth="2" NCoef="0" IVar="-1" Cut="0.0000000000000000e+00" cType="1" res="9.8431087099015713e-04" rms="4.1394743323326111e-01" purity="7.1087664365768433e-01" nType="-99"/>
        </Node>
      </Node>
    </BinaryTree>
    <BinaryTree type="DecisionTree" boostWeight="1.0000000000000000e+00" itree="596">
      <Node pos="s" depth="0" NCoef="0" IVar="3" Cut="1.1079877614974976e+00" cType="1" res="3.5640750080347061e-02" rms="4.2549768090248108e-01" purity="4.7517424821853638e-01" nType="0">
        <Node pos="l" depth="1" NCoef="0" IVar="4" Cut="5.9020769596099854e-01" cType="1" res="1.2656033039093018e-01" rms="4.2924618721008301e-01" purity="6.7648386955261230e-01" nType="0">
          <Node pos="l" depth="2" NCoef="0" IVar="-1" Cut="0.0000000000000000e+00" cType="1" res="1.1903838021680713e-03" rms="3.9220938086509705e-01" purity="7.8655171394348145e-01" nType="-99"/>
          <Node pos="r" depth="2" NCoef="0" IVar="-1" Cut="0.0000000000000000e+00" cType="1" res="5.0509109860286117e-04" rms="4.3608224391937256e-01" purity="6.2567269802093506e-01" nType="-99"/>
        </Node>
        <Node pos="r" depth="1" NCoef="0" IVar="4" Cut="7.9106456041336060e-01" cType="1" res="-1.4384350739419460e-02" rms="4.1501158475875854e-01" purity="3.6441120505332947e-01" nType="0">
          <Node pos="l" depth="2" NCoef="0" IVar="-1" Cut="0.0000000000000000e+00" cType="1" res="6.3790306739974767e-05" rms="4.2768093943595886e-01" purity="4.0363425016403198e-01" nType="-99"/>
          <Node pos="r" depth="2" NCoef="0" IVar="-1" Cut="0.0000000000000000e+00" cType="1" res="-7.8833466395735741e-03" rms="2.4256508052349091e-01" purity="5.8760449290275574e-02" nType="-99"/>
        </Node>
      </Node>
    </BinaryTree>
    <BinaryTree type="DecisionTree" boostWeight="1.0000000000000000e+00" itree="597">
      <Node pos="s" depth="0" NCoef="0" IVar="6" Cut="2.8698007202148438e+02" cType="1" res="5.2457109093666077e-02" rms="4.2471417784690857e-01" purity="5.0202941894531250e-01" nType="0">
        <Node pos="l" depth="1" NCoef="0" IVar="7" Cut="1.0880775451660156e+00" cType="1" res="-5.2885711193084717e-02" rms="3.7624609470367432e-01" purity="2.2058369219303131e-01" nType="0">
          <Node pos="l" depth="2" NCoef="0" IVar="-1" Cut="0.0000000000000000e+00" cType="1" res="7.4163783574476838e-04" rms="4.2256423830986023e-01" purity="3.3191752433776855e-01" nType="-99"/>
          <Node pos="r" depth="2" NCoef="0" IVar="-1" Cut="0.0000000000000000e+00" cType="1" res="-3.1836603302508593e-03" rms="3.0392375588417053e-01" purity="1.3239909708499908e-01" nType="-99"/>
        </Node>
        <Node pos="r" depth="1" NCoef="0" IVar="7" Cut="1.6120172739028931e+00" cType="1" res="8.8973820209503174e-02" rms="4.3434900045394897e-01" purity="5.9959161281585693e-01" nType="0">
          <Node pos="l" depth="2" NCoef="0" IVar="-1" Cut="0.0000000000000000e+00" cType="1" res="7.6189718674868345e-04" rms="4.3030813336372375e-01" purity="6.7090165615081787e-01" nType="-99"/>
          <Node pos="r" depth="2" NCoef="0" IVar="-1" Cut="0.0000000000000000e+00" cType="1" res="7.8579869295936078e-05" rms="4.3202427029609680e-01" purity="4.4786661863327026e-01" nType="-99"/>
        </Node>
      </Node>
    </BinaryTree>
    <BinaryTree type="DecisionTree" boostWeight="1.0000000000000000e+00" itree="598">
      <Node pos="s" depth="0" NCoef="0" IVar="0" Cut="9.4281798601150513e-01" cType="1" res="4.4243551790714264e-02" rms="4.2669457197189331e-01" purity="4.8261502385139465e-01" nType="0">
        <Node pos="l" depth="1" NCoef="0" IVar="8" Cut="1.4678340148925781e+02" cType="1" res="-7.5796946883201599e-02" rms="3.5605803132057190e-01" purity="2.2668232023715973e-01" nType="0">
          <Node pos="l" depth="2" NCoef="0" IVar="-1" Cut="0.0000000000000000e+00" cType="1" res="-2.1958928555250168e-03" rms="3.3780384063720703e-01" purity="1.7853179574012756e-01" nType="-99"/>
          <Node pos="r" depth="2" NCoef="0" IVar="-1" Cut="0.0000000000000000e+00" cType="1" res="4.9280584789812565e-04" rms="3.8236308097839355e-01" purity="3.7951907515525818e-01" nType="-99"/>
        </Node>
        <Node pos="r" depth="1" NCoef="0" IVar="7" Cut="1.6272906064987183e+00" cType="1" res="8.9725188910961151e-02" rms="4.4214138388633728e-01" purity="5.7958430051803589e-01" nType="0">
          <Node pos="l" depth="2" NCoef="0" IVar="-1" Cut="0.0000000000000000e+00" cType="1" res="8.5030967602506280e-04" rms="4.3432134389877319e-01" purity="6.5190100669860840e-01" nType="-99"/>
          <Node pos="r" depth="2" NCoef="0" IVar="-1" Cut="0.0000000000000000e+00" cType="1" res="-2.3984401195775717e-04" rms="4.4240221381187439e-01" purity="3.8948464393615723e-01" nType="-99"/>
        </Node>
      </Node>
    </BinaryTree>
    <BinaryTree type="DecisionTree" boostWeight="1.0000000000000000e+00" itree="599">
      <Node pos="s" depth="0" NCoef="0" IVar="0" Cut="9.8458510637283325e-01" cType="1" res="8.0741353332996368e-02" rms="4.3673980236053467e-01" purity="5.1626467704772949e-01" nType="0">
        <Node pos="l" depth="1" NCoef="0" IVar="5" Cut="1.4800901412963867e+00" cType="1" res="4.9027271568775177e-02" rms="4.3861895799636841e-01" purity="4.6053388714790344e-01" nType="0">
          <Node pos="l" depth="2" NCoef="0" IVar="-1" Cut="0.0000000000000000e+00" cType="1" res="5.8050150983035564e-05" rms="4.2353862524032593e-01" purity="4.0934821963310242e-01" nType="-99"/>
          <Node pos="r" depth="2" NCoef="0" IVar="-1" Cut="0.0000000000000000e+00" cType="1" res="1.0305569740012288e-03" rms="4.5601877570152283e-01" purity="5.7399064302444458e-01" nType="-99"/>
        </Node>
        <Node pos="r" depth="1" NCoef="0" IVar="-1" Cut="0.0000000000000000e+00" cType="1" res="1.2495018308982253e-03" rms="3.9084330201148987e-01" purity="7.9309415817260742e-01" nType="-99"/>
      </Node>
    </BinaryTree>
    <BinaryTree type="DecisionTree" boostWeight="1.0000000000000000e+00" itree="600">
      <Node pos="s" depth="0" NCoef="0" IVar="7" Cut="1.0809931755065918e+00" cType="1" res="3.7545822560787201e-02" rms="4.2781832814216614e-01" purity="4.8556530475616455e-01" nType="0">
        <Node pos="l" depth="1" NCoef="0" IVar="1" Cut="6.5126060485839844e+01" cType="1" res="1.2931545078754425e-01" rms="4.1996708512306213e-01" purity="5.9514933824539185e-01" nType="0">
          <Node pos="l" depth="2" NCoef="0" IVar="-1" Cut="0.0000000000000000e+00" cType="1" res="3.5861457581631839e-04" rms="4.3257710337638855e-01" purity="4.2774742841720581e-01" nType="-99"/>
          <Node pos="r" depth="2" NCoef="0" IVar="-1" Cut="0.0000000000000000e+00" cType="1" res="1.1996990069746971e-03" rms="3.6496669054031372e-01" purity="8.3648526668548584e-01" nType="-99"/>
        </Node>
        <Node pos="r" depth="1" NCoef="0" IVar="5" Cut="1.6057652235031128e+00" cType="1" res="-1.3693398796021938e-02" rms="4.2357677221298218e-01" purity="4.2437949776649475e-01" nType="0">
          <Node pos="l" depth="2" NCoef="0" IVar="-1" Cut="0.0000000000000000e+00" cType="1" res="1.1495430953800678e-04" rms="4.2376580834388733e-01" purity="4.5572802424430847e-01" nType="-99"/>
          <Node pos="r" depth="2" NCoef="0" IVar="-1" Cut="0.0000000000000000e+00" cType="1" res="-3.8787762168794870e-03" rms="3.6011543869972229e-01" purity="1.8323832750320435e-01" nType="-99"/>
        </Node>
      </Node>
    </BinaryTree>
    <BinaryTree type="DecisionTree" boostWeight="1.0000000000000000e+00" itree="601">
      <Node pos="s" depth="0" NCoef="0" IVar="3" Cut="1.2218060493469238e+00" cType="1" res="5.4641127586364746e-02" rms="4.3522346019744873e-01" purity="4.9616405367851257e-01" nType="0">
        <Node pos="l" depth="1" NCoef="0" IVar="7" Cut="8.4140914678573608e-01" cType="1" res="1.2039461731910706e-01" rms="4.4166567921638489e-01" purity="6.5802556276321411e-01" nType="0">
          <Node pos="l" depth="2" NCoef="0" IVar="-1" Cut="0.0000000000000000e+00" cType="1" res="1.1296811280772090e-03" rms="4.0102717280387878e-01" purity="6.9727194309234619e-01" nType="-99"/>
          <Node pos="r" depth="2" NCoef="0" IVar="-1" Cut="0.0000000000000000e+00" cType="1" res="4.6830403152853251e-04" rms="4.5667129755020142e-01" purity="6.3484638929367065e-01" nType="-99"/>
        </Node>
        <Node pos="r" depth="1" NCoef="0" IVar="1" Cut="8.3840568542480469e+01" cType="1" res="7.2742360644042492e-03" rms="4.2425444722175598e-01" purity="3.7956377863883972e-01" nType="0">
          <Node pos="l" depth="2" NCoef="0" IVar="-1" Cut="0.0000000000000000e+00" cType="1" res="-1.9230273319408298e-03" rms="3.5448631644248962e-01" purity="1.7782448232173920e-01" nType="-99"/>
          <Node pos="r" depth="2" NCoef="0" IVar="-1" Cut="0.0000000000000000e+00" cType="1" res="5.2866037003695965e-04" rms="4.4682672619819641e-01" purity="4.8731726408004761e-01" nType="-99"/>
        </Node>
      </Node>
    </BinaryTree>
    <BinaryTree type="DecisionTree" boostWeight="1.0000000000000000e+00" itree="602">
      <Node pos="s" depth="0" NCoef="0" IVar="6" Cut="2.6343786621093750e+02" cType="1" res="3.2959811389446259e-02" rms="4.5040830969810486e-01" purity="4.5813745260238647e-01" nType="0">
        <Node pos="l" depth="1" NCoef="0" IVar="6" Cut="2.4322126770019531e+02" cType="1" res="-6.6129647195339203e-02" rms="3.5945212841033936e-01" purity="1.8052460253238678e-01" nType="0">
          <Node pos="l" depth="2" NCoef="0" IVar="-1" Cut="0.0000000000000000e+00" cType="1" res="4.8440540467709070e-07" rms="3.8463991880416870e-01" purity="2.2128954529762268e-01" nType="-99"/>
          <Node pos="r" depth="2" NCoef="0" IVar="-1" Cut="0.0000000000000000e+00" cType="1" res="-5.8214114978909492e-03" rms="2.6310959458351135e-01" purity="1.0281135141849518e-01" nType="-99"/>
        </Node>
        <Node pos="r" depth="1" NCoef="0" IVar="3" Cut="1.9953905344009399e+00" cType="1" res="5.5362980812788010e-02" rms="4.6561792492866516e-01" purity="5.2090305089950562e-01" nType="0">
          <Node pos="l" depth="2" NCoef="0" IVar="-1" Cut="0.0000000000000000e+00" cType="1" res="1.8562098557595164e-04" rms="4.7139298915863037e-01" purity="5.7993161678314209e-01" nType="-99"/>
          <Node pos="r" depth="2" NCoef="0" IVar="-1" Cut="0.0000000000000000e+00" cType="1" res="1.3214569771662354e-03" rms="4.4618582725524902e-01" purity="3.9068055152893066e-01" nType="-99"/>
        </Node>
      </Node>
    </BinaryTree>
    <BinaryTree type="DecisionTree" boostWeight="1.0000000000000000e+00" itree="603">
      <Node pos="s" depth="0" NCoef="0" IVar="7" Cut="1.3888471126556396e+00" cType="1" res="6.5074808895587921e-02" rms="4.5043525099754333e-01" purity="5.0176960229873657e-01" nType="0">
        <Node pos="l" depth="1" NCoef="0" IVar="0" Cut="9.6225750446319580e-01" cType="1" res="-3.1656483770348132e-04" rms="4.3530637025833130e-01" purity="4.4444394111633301e-01" nType="0">
          <Node pos="l" depth="2" NCoef="0" IVar="-1" Cut="0.0000000000000000e+00" cType="1" res="-1.4024625997990370e-03" rms="4.2446041107177734e-01" purity="2.4064651131629944e-01" nType="-99"/>
          <Node pos="r" depth="2" NCoef="0" IVar="-1" Cut="0.0000000000000000e+00" cType="1" res="5.7615089463070035e-04" rms="4.2691659927368164e-01" purity="6.5118992328643799e-01" nType="-99"/>
        </Node>
        <Node pos="r" depth="1" NCoef="0" IVar="7" Cut="1.5531058311462402e+00" cType="1" res="1.1068103462457657e-01" rms="4.5516541600227356e-01" purity="5.4175055027008057e-01" nType="0">
          <Node pos="l" depth="2" NCoef="0" IVar="-1" Cut="0.0000000000000000e+00" cType="1" res="1.3908406253904104e-03" rms="4.4421869516372681e-01" purity="7.1018570661544800e-01" nType="-99"/>
          <Node pos="r" depth="2" NCoef="0" IVar="-1" Cut="0.0000000000000000e+00" cType="1" res="5.6611205218359828e-04" rms="4.5071098208427429e-01" purity="4.8707175254821777e-01" nType="-99"/>
        </Node>
      </Node>
    </BinaryTree>
    <BinaryTree type="DecisionTree" boostWeight="1.0000000000000000e+00" itree="604">
      <Node pos="s" depth="0" NCoef="0" IVar="1" Cut="9.9234687805175781e+01" cType="1" res="8.0098450183868408e-02" rms="4.4706603884696960e-01" purity="5.1934719085693359e-01" nType="0">
        <Node pos="l" depth="1" NCoef="0" IVar="5" Cut="9.7207528352737427e-01" cType="1" res="5.8856820687651634e-03" rms="4.5174768567085266e-01" purity="3.9044487476348877e-01" nType="0">
          <Node pos="l" depth="2" NCoef="0" IVar="-1" Cut="0.0000000000000000e+00" cType="1" res="1.3220467371866107e-03" rms="4.9169927835464478e-01" purity="5.0286614894866943e-01" nType="-99"/>
          <Node pos="r" depth="2" NCoef="0" IVar="-1" Cut="0.0000000000000000e+00" cType="1" res="-4.5188053627498448e-04" rms="4.2732778191566467e-01" purity="3.5553482174873352e-01" nType="-99"/>
        </Node>
        <Node pos="r" depth="1" NCoef="0" IVar="4" Cut="7.0229595899581909e-01" cType="1" res="1.5368896722793579e-01" rms="4.2990517616271973e-01" purity="6.4716869592666626e-01" nType="0">
          <Node pos="l" depth="2" NCoef="0" IVar="-1" Cut="0.0000000000000000e+00" cType="1" res="1.0706684552133083e-03" rms="4.1977822780609131e-01" purity="6.9102883338928223e-01" nType="-99"/>
          <Node pos="r" depth="2" NCoef="0" IVar="-1" Cut="0.0000000000000000e+00" cType="1" res="6.3873897306621075e-04" rms="4.4470369815826416e-01" purity="5.4688197374343872e-01" nType="-99"/>
        </Node>
      </Node>
    </BinaryTree>
    <BinaryTree type="DecisionTree" boostWeight="1.0000000000000000e+00" itree="605">
      <Node pos="s" depth="0" NCoef="0" IVar="3" Cut="2.8645465373992920e+00" cType="1" res="1.0187009721994400e-01" rms="4.3875539302825928e-01" purity="5.3867381811141968e-01" nType="0">
        <Node pos="l" depth="1" NCoef="0" IVar="5" Cut="1.7817232608795166e+00" cType="1" res="1.1648724228143692e-01" rms="4.5248484611511230e-01" purity="5.8156341314315796e-01" nType="0">
          <Node pos="l" depth="2" NCoef="0" IVar="-1" Cut="0.0000000000000000e+00" cType="1" res="8.7813317077234387e-04" rms="4.5358514785766602e-01" purity="5.9244191646575928e-01" nType="-99"/>
          <Node pos="r" depth="2" NCoef="0" IVar="-1" Cut="0.0000000000000000e+00" cType="1" res="-7.0826639421284199e-04" rms="3.8738825917243958e-01" purity="3.9782553911209106e-01" nType="-99"/>
        </Node>
        <Node pos="r" depth="1" NCoef="0" IVar="-1" Cut="0.0000000000000000e+00" cType="1" res="-1.5739442780613899e-02" rms="4.9378473311662674e-02" purity="0.0000000000000000e+00" nType="-99"/>
      </Node>
    </BinaryTree>
    <BinaryTree type="DecisionTree" boostWeight="1.0000000000000000e+00" itree="606">
      <Node pos="s" depth="0" NCoef="0" IVar="0" Cut="9.5713937282562256e-01" cType="1" res="4.2934253811836243e-02" rms="4.3876984715461731e-01" purity="4.7679817676544189e-01" nType="0">
        <Node pos="l" depth="1" NCoef="0" IVar="0" Cut="9.2061442136764526e-01" cType="1" res="-5.7228300720453262e-03" rms="4.2658001184463501e-01" purity="3.2789871096611023e-01" nType="0">
          <Node pos="l" depth="2" NCoef="0" IVar="-1" Cut="0.0000000000000000e+00" cType="1" res="1.0945455869659781e-03" rms="4.6021950244903564e-01" purity="3.7147408723831177e-01" nType="-99"/>
          <Node pos="r" depth="2" NCoef="0" IVar="-1" Cut="0.0000000000000000e+00" cType="1" res="-5.0924788229167461e-04" rms="4.0767946839332581e-01" purity="3.1317076086997986e-01" nType="-99"/>
        </Node>
        <Node pos="r" depth="1" NCoef="0" IVar="6" Cut="2.5749664306640625e+02" cType="1" res="9.0873725712299347e-02" rms="4.4528764486312866e-01" purity="6.2350165843963623e-01" nType="0">
          <Node pos="l" depth="2" NCoef="0" IVar="-1" Cut="0.0000000000000000e+00" cType="1" res="-9.4968575285747647e-04" rms="3.9593762159347534e-01" purity="2.9277026653289795e-01" nType="-99"/>
          <Node pos="r" depth="2" NCoef="0" IVar="-1" Cut="0.0000000000000000e+00" cType="1" res="6.7911477526649833e-04" rms="4.4669395685195923e-01" purity="6.6619312763214111e-01" nType="-99"/>
        </Node>
      </Node>
    </BinaryTree>
    <BinaryTree type="DecisionTree" boostWeight="1.0000000000000000e+00" itree="607">
      <Node pos="s" depth="0" NCoef="0" IVar="6" Cut="3.2920822143554688e+02" cType="1" res="3.3386439085006714e-02" rms="4.2908573150634766e-01" purity="4.6981689333915710e-01" nType="0">
        <Node pos="l" depth="1" NCoef="0" IVar="7" Cut="7.7505069971084595e-01" cType="1" res="-5.1011372357606888e-02" rms="4.0694156289100647e-01" purity="2.5646269321441650e-01" nType="0">
          <Node pos="l" depth="2" NCoef="0" IVar="-1" Cut="0.0000000000000000e+00" cType="1" res="1.0857252636924386e-03" rms="4.3799117207527161e-01" purity="3.7789624929428101e-01" nType="-99"/>
          <Node pos="r" depth="2" NCoef="0" IVar="-1" Cut="0.0000000000000000e+00" cType="1" res="-1.4650829834863544e-03" rms="3.8893744349479675e-01" purity="2.2522439062595367e-01" nType="-99"/>
        </Node>
        <Node pos="r" depth="1" NCoef="0" IVar="3" Cut="9.4220715761184692e-01" cType="1" res="9.2505395412445068e-02" rms="4.3427875638008118e-01" purity="6.1926722526550293e-01" nType="0">
          <Node pos="l" depth="2" NCoef="0" IVar="-1" Cut="0.0000000000000000e+00" cType="1" res="9.3473942251875997e-04" rms="3.6713010072708130e-01" purity="8.2405418157577515e-01" nType="-99"/>
          <Node pos="r" depth="2" NCoef="0" IVar="-1" Cut="0.0000000000000000e+00" cType="1" res="3.0241761123761535e-04" rms="4.5803099870681763e-01" purity="5.0842452049255371e-01" nType="-99"/>
        </Node>
      </Node>
    </BinaryTree>
    <BinaryTree type="DecisionTree" boostWeight="1.0000000000000000e+00" itree="608">
      <Node pos="s" depth="0" NCoef="0" IVar="7" Cut="7.0739859342575073e-01" cType="1" res="6.0581035912036896e-02" rms="4.3856990337371826e-01" purity="4.9607005715370178e-01" nType="0">
        <Node pos="l" depth="1" NCoef="0" IVar="1" Cut="3.5672660827636719e+01" cType="1" res="1.9954523444175720e-01" rms="4.3426668643951416e-01" purity="5.8637034893035889e-01" nType="0">
          <Node pos="l" depth="2" NCoef="0" IVar="-1" Cut="0.0000000000000000e+00" cType="1" res="1.3218555832281709e-03" rms="4.5329651236534119e-01" purity="4.1353109478950500e-01" nType="-99"/>
          <Node pos="r" depth="2" NCoef="0" IVar="-1" Cut="0.0000000000000000e+00" cType="1" res="1.4359200140461326e-03" rms="4.1390946507453918e-01" purity="7.0351397991180420e-01" nType="-99"/>
        </Node>
        <Node pos="r" depth="1" NCoef="0" IVar="0" Cut="9.6055519580841064e-01" cType="1" res="3.3805388957262039e-02" rms="4.3431496620178223e-01" purity="4.7867101430892944e-01" nType="0">
          <Node pos="l" depth="2" NCoef="0" IVar="-1" Cut="0.0000000000000000e+00" cType="1" res="-2.3191182117443532e-04" rms="4.2681166529655457e-01" purity="3.2713645696640015e-01" nType="-99"/>
          <Node pos="r" depth="2" NCoef="0" IVar="-1" Cut="0.0000000000000000e+00" cType="1" res="6.1336485669016838e-04" rms="4.3473973870277405e-01" purity="6.4905661344528198e-01" nType="-99"/>
        </Node>
      </Node>
    </BinaryTree>
    <BinaryTree type="DecisionTree" boostWeight="1.0000000000000000e+00" itree="609">
      <Node pos="s" depth="0" NCoef="0" IVar="0" Cut="9.4621211290359497e-01" cType="1" res="7.0662789046764374e-02" rms="4.4218632578849792e-01" purity="5.0665324926376343e-01" nType="0">
        <Node pos="l" depth="1" NCoef="0" IVar="7" Cut="1.2805035114288330e+00" cType="1" res="-9.9706575274467468e-03" rms="4.1944715380668640e-01" purity="3.0406036972999573e-01" nType="0">
          <Node pos="l" depth="2" NCoef="0" IVar="-1" Cut="0.0000000000000000e+00" cType="1" res="8.1789051182568073e-04" rms="4.5210295915603638e-01" purity="4.1094592213630676e-01" nType="-99"/>
          <Node pos="r" depth="2" NCoef="0" IVar="-1" Cut="0.0000000000000000e+00" cType="1" res="-2.0210575312376022e-03" rms="3.5662671923637390e-01" purity="1.9522666931152344e-01" nType="-99"/>
        </Node>
        <Node pos="r" depth="1" NCoef="0" IVar="7" Cut="2.1715235710144043e+00" cType="1" res="1.1152130365371704e-01" rms="4.4776424765586853e-01" purity="6.0931092500686646e-01" nType="0">
          <Node pos="l" depth="2" NCoef="0" IVar="-1" Cut="0.0000000000000000e+00" cType="1" res="5.6894967565312982e-04" rms="4.4628900289535522e-01" purity="6.1797124147415161e-01" nType="-99"/>
          <Node pos="r" depth="2" NCoef="0" IVar="-1" Cut="0.0000000000000000e+00" cType="1" res="1.8043229356408119e-03" rms="4.3192622065544128e-01" purity="5.5803966522216797e-01" nType="-99"/>
        </Node>
      </Node>
    </BinaryTree>
    <BinaryTree type="DecisionTree" boostWeight="1.0000000000000000e+00" itree="610">
      <Node pos="s" depth="0" NCoef="0" IVar="5" Cut="1.5250846147537231e+00" cType="1" res="6.2000468373298645e-02" rms="4.4279080629348755e-01" purity="4.9996054172515869e-01" nType="0">
        <Node pos="l" depth="1" NCoef="0" IVar="1" Cut="7.2773101806640625e+01" cType="1" res="2.6462174952030182e-02" rms="4.3572917580604553e-01" purity="4.6384555101394653e-01" nType="0">
          <Node pos="l" depth="2" NCoef="0" IVar="-1" Cut="0.0000000000000000e+00" cType="1" res="-9.6057954942807555e-04" rms="3.8841116428375244e-01" purity="2.8720045089721680e-01" nType="-99"/>
          <Node pos="r" depth="2" NCoef="0" IVar="-1" Cut="0.0000000000000000e+00" cType="1" res="5.5710523156449199e-04" rms="4.4840028882026672e-01" purity="5.4611361026763916e-01" nType="-99"/>
        </Node>
        <Node pos="r" depth="1" NCoef="0" IVar="4" Cut="8.1207275390625000e-01" cType="1" res="1.5714102983474731e-01" rms="4.4748094677925110e-01" purity="5.9664499759674072e-01" nType="0">
          <Node pos="l" depth="2" NCoef="0" IVar="-1" Cut="0.0000000000000000e+00" cType="1" res="1.2489022919908166e-03" rms="4.5238250494003296e-01" purity="6.6627031564712524e-01" nType="-99"/>
          <Node pos="r" depth="2" NCoef="0" IVar="-1" Cut="0.0000000000000000e+00" cType="1" res="-3.1741120619699359e-04" rms="3.7579053640365601e-01" purity="3.4660404920578003e-01" nType="-99"/>
        </Node>
      </Node>
    </BinaryTree>
    <BinaryTree type="DecisionTree" boostWeight="1.0000000000000000e+00" itree="611">
      <Node pos="s" depth="0" NCoef="0" IVar="2" Cut="1.4093304443359375e+02" cType="1" res="9.3347020447254181e-02" rms="4.5020014047622681e-01" purity="5.2177345752716064e-01" nType="0">
        <Node pos="l" depth="1" NCoef="0" IVar="8" Cut="1.1053129577636719e+02" cType="1" res="1.7124249041080475e-01" rms="4.7075954079627991e-01" purity="5.6757402420043945e-01" nType="0">
          <Node pos="l" depth="2" NCoef="0" IVar="-1" Cut="0.0000000000000000e+00" cType="1" res="3.6872038617730141e-04" rms="4.5850428938865662e-01" purity="3.6466896533966064e-01" nType="-99"/>
          <Node pos="r" depth="2" NCoef="0" IVar="-1" Cut="0.0000000000000000e+00" cType="1" res="1.4052829938009381e-03" rms="4.5960822701454163e-01" purity="6.8591791391372681e-01" nType="-99"/>
        </Node>
        <Node pos="r" depth="1" NCoef="0" IVar="1" Cut="5.5609172821044922e+01" cType="1" res="5.8696009218692780e-02" rms="4.3629983067512512e-01" purity="5.0139951705932617e-01" nType="0">
          <Node pos="l" depth="2" NCoef="0" IVar="-1" Cut="0.0000000000000000e+00" cType="1" res="-1.5088031068444252e-03" rms="3.5102817416191101e-01" purity="2.3569361865520477e-01" nType="-99"/>
          <Node pos="r" depth="2" NCoef="0" IVar="-1" Cut="0.0000000000000000e+00" cType="1" res="6.3843122916296124e-04" rms="4.4229269027709961e-01" purity="5.4040354490280151e-01" nType="-99"/>
        </Node>
      </Node>
    </BinaryTree>
    <BinaryTree type="DecisionTree" boostWeight="1.0000000000000000e+00" itree="612">
      <Node pos="s" depth="0" NCoef="0" IVar="3" Cut="1.2687418460845947e+00" cType="1" res="5.7795599102973938e-02" rms="4.3089824914932251e-01" purity="4.9789896607398987e-01" nType="0">
        <Node pos="l" depth="1" NCoef="0" IVar="1" Cut="4.1304317474365234e+01" cType="1" res="1.2046091258525848e-01" rms="4.3255332112312317e-01" purity="6.6724419593811035e-01" nType="0">
          <Node pos="l" depth="2" NCoef="0" IVar="-1" Cut="0.0000000000000000e+00" cType="1" res="-1.0329009965062141e-03" rms="3.9523324370384216e-01" purity="2.6965612173080444e-01" nType="-99"/>
          <Node pos="r" depth="2" NCoef="0" IVar="-1" Cut="0.0000000000000000e+00" cType="1" res="8.2596158608794212e-04" rms="4.3045109510421753e-01" purity="7.2592341899871826e-01" nType="-99"/>
        </Node>
        <Node pos="r" depth="1" NCoef="0" IVar="2" Cut="1.6027906799316406e+02" cType="1" res="1.3629822991788387e-02" rms="4.2420259118080139e-01" purity="3.7854644656181335e-01" nType="0">
          <Node pos="l" depth="2" NCoef="0" IVar="-1" Cut="0.0000000000000000e+00" cType="1" res="7.5245532207190990e-04" rms="4.5497485995292664e-01" purity="4.8441740870475769e-01" nType="-99"/>
          <Node pos="r" depth="2" NCoef="0" IVar="-1" Cut="0.0000000000000000e+00" cType="1" res="-3.1013719853945076e-04" rms="4.0167453885078430e-01" purity="3.2425659894943237e-01" nType="-99"/>
        </Node>
      </Node>
    </BinaryTree>
    <BinaryTree type="DecisionTree" boostWeight="1.0000000000000000e+00" itree="613">
      <Node pos="s" depth="0" NCoef="0" IVar="4" Cut="5.6166964769363403e-01" cType="1" res="5.3160954266786575e-02" rms="4.3819782137870789e-01" purity="4.8183578252792358e-01" nType="0">
        <Node pos="l" depth="1" NCoef="0" IVar="-1" Cut="0.0000000000000000e+00" cType="1" res="-9.6412439597770572e-04" rms="3.9766305685043335e-01" purity="3.3219006657600403e-01" nType="-99"/>
        <Node pos="r" depth="1" NCoef="0" IVar="7" Cut="9.2052215337753296e-01" cType="1" res="6.6687874495983124e-02" rms="4.3941882252693176e-01" purity="4.9594712257385254e-01" nType="0">
          <Node pos="l" depth="2" NCoef="0" IVar="-1" Cut="0.0000000000000000e+00" cType="1" res="1.0172674665227532e-03" rms="4.4689556956291199e-01" purity="5.4485768079757690e-01" nType="-99"/>
          <Node pos="r" depth="2" NCoef="0" IVar="-1" Cut="0.0000000000000000e+00" cType="1" res="3.0697422334924340e-04" rms="4.3290308117866516e-01" purity="4.7700533270835876e-01" nType="-99"/>
        </Node>
      </Node>
    </BinaryTree>
    <BinaryTree type="DecisionTree" boostWeight="1.0000000000000000e+00" itree="614">
      <Node pos="s" depth="0" NCoef="0" IVar="3" Cut="6.9710594415664673e-01" cType="1" res="5.9365678578615189e-02" rms="4.3358296155929565e-01" purity="4.9954038858413696e-01" nType="0">
        <Node pos="l" depth="1" NCoef="0" IVar="-1" Cut="0.0000000000000000e+00" cType="1" res="1.0275070089846849e-03" rms="4.1335499286651611e-01" purity="7.2884815931320190e-01" nType="-99"/>
        <Node pos="r" depth="1" NCoef="0" IVar="5" Cut="7.9100406169891357e-01" cType="1" res="3.6467663943767548e-02" rms="4.3338298797607422e-01" purity="4.5700731873512268e-01" nType="0">
          <Node pos="l" depth="2" NCoef="0" IVar="-1" Cut="0.0000000000000000e+00" cType="1" res="1.3878747122362256e-03" rms="4.1268336772918701e-01" purity="5.7029366493225098e-01" nType="-99"/>
          <Node pos="r" depth="2" NCoef="0" IVar="-1" Cut="0.0000000000000000e+00" cType="1" res="1.8346757860854268e-04" rms="4.3196821212768555e-01" purity="4.4637450575828552e-01" nType="-99"/>
        </Node>
      </Node>
    </BinaryTree>
    <BinaryTree type="DecisionTree" boostWeight="1.0000000000000000e+00" itree="615">
      <Node pos="s" depth="0" NCoef="0" IVar="0" Cut="9.0641391277313232e-01" cType="1" res="7.5043283402919769e-02" rms="4.4428449869155884e-01" purity="5.0753873586654663e-01" nType="0">
        <Node pos="l" depth="1" NCoef="0" IVar="-1" Cut="0.0000000000000000e+00" cType="1" res="2.0430854056030512e-03" rms="4.4454422593116760e-01" purity="6.0791021585464478e-01" nType="-99"/>
        <Node pos="r" depth="1" NCoef="0" IVar="8" Cut="1.5013610839843750e+02" cType="1" res="5.6933574378490448e-02" rms="4.3911448121070862e-01" purity="4.9974071979522705e-01" nType="0">
          <Node pos="l" depth="2" NCoef="0" IVar="-1" Cut="0.0000000000000000e+00" cType="1" res="6.2303699087351561e-04" rms="4.4122704863548279e-01" purity="5.3147715330123901e-01" nType="-99"/>
          <Node pos="r" depth="2" NCoef="0" IVar="-1" Cut="0.0000000000000000e+00" cType="1" res="-1.1152860242873430e-03" rms="3.9222282171249390e-01" purity="3.0957856774330139e-01" nType="-99"/>
        </Node>
      </Node>
    </BinaryTree>
    <BinaryTree type="DecisionTree" boostWeight="1.0000000000000000e+00" itree="616">
      <Node pos="s" depth="0" NCoef="0" IVar="8" Cut="1.3099836730957031e+02" cType="1" res="7.2256967425346375e-02" rms="4.3528404831886292e-01" purity="5.2229350805282593e-01" nType="0">
        <Node pos="l" depth="1" NCoef="0" IVar="5" Cut="8.4049111604690552e-01" cType="1" res="1.1778611689805984e-01" rms="4.3115073442459106e-01" purity="5.8266854286193848e-01" nType="0">
          <Node pos="l" depth="2" NCoef="0" IVar="-1" Cut="0.0000000000000000e+00" cType="1" res="1.8416942330077291e-03" rms="4.7541463375091553e-01" purity="6.4370387792587280e-01" nType="-99"/>
          <Node pos="r" depth="2" NCoef="0" IVar="-1" Cut="0.0000000000000000e+00" cType="1" res="7.0284499088302255e-04" rms="4.2219024896621704e-01" purity="5.7627016305923462e-01" nType="-99"/>
        </Node>
        <Node pos="r" depth="1" NCoef="0" IVar="6" Cut="4.6733917236328125e+02" cType="1" res="-3.7142883986234665e-02" rms="4.2559158802032471e-01" purity="3.7722113728523254e-01" nType="0">
          <Node pos="l" depth="2" NCoef="0" IVar="-1" Cut="0.0000000000000000e+00" cType="1" res="-1.8060748698189855e-03" rms="3.8948172330856323e-01" purity="2.3150102794170380e-01" nType="-99"/>
          <Node pos="r" depth="2" NCoef="0" IVar="-1" Cut="0.0000000000000000e+00" cType="1" res="8.3543360233306885e-04" rms="4.4346234202384949e-01" purity="6.6978734731674194e-01" nType="-99"/>
        </Node>
      </Node>
    </BinaryTree>
    <BinaryTree type="DecisionTree" boostWeight="1.0000000000000000e+00" itree="617">
      <Node pos="s" depth="0" NCoef="0" IVar="8" Cut="8.5946441650390625e+01" cType="1" res="5.1977548748254776e-02" rms="4.3815243244171143e-01" purity="4.7733134031295776e-01" nType="0">
        <Node pos="l" depth="1" NCoef="0" IVar="-1" Cut="0.0000000000000000e+00" cType="1" res="-3.0508977361023426e-03" rms="2.8816661238670349e-01" purity="1.5120019018650055e-01" nType="-99"/>
        <Node pos="r" depth="1" NCoef="0" IVar="1" Cut="5.6150047302246094e+01" cType="1" res="6.9707736372947693e-02" rms="4.4413417577743530e-01" purity="5.0511801242828369e-01" nType="0">
          <Node pos="l" depth="2" NCoef="0" IVar="-1" Cut="0.0000000000000000e+00" cType="1" res="-1.0579832451185212e-04" rms="4.2876070737838745e-01" purity="3.3464145660400391e-01" nType="-99"/>
          <Node pos="r" depth="2" NCoef="0" IVar="-1" Cut="0.0000000000000000e+00" cType="1" res="6.6224311012774706e-04" rms="4.4570091366767883e-01" purity="5.4784011840820312e-01" nType="-99"/>
        </Node>
      </Node>
    </BinaryTree>
    <BinaryTree type="DecisionTree" boostWeight="1.0000000000000000e+00" itree="618">
      <Node pos="s" depth="0" NCoef="0" IVar="8" Cut="1.0304704284667969e+02" cType="1" res="1.0445690155029297e-01" rms="4.3570795655250549e-01" purity="5.6114369630813599e-01" nType="0">
        <Node pos="l" depth="1" NCoef="0" IVar="0" Cut="9.5656031370162964e-01" cType="1" res="2.5340581312775612e-02" rms="4.0749832987785339e-01" purity="4.2969864606857300e-01" nType="0">
          <Node pos="l" depth="2" NCoef="0" IVar="-1" Cut="0.0000000000000000e+00" cType="1" res="-1.1140671558678150e-03" rms="3.5031995177268982e-01" purity="2.1668685972690582e-01" nType="-99"/>
          <Node pos="r" depth="2" NCoef="0" IVar="-1" Cut="0.0000000000000000e+00" cType="1" res="7.2444137185811996e-04" rms="4.3360117077827454e-01" purity="6.1461287736892700e-01" nType="-99"/>
        </Node>
        <Node pos="r" depth="1" NCoef="0" IVar="8" Cut="1.3016133117675781e+02" cType="1" res="1.2525181472301483e-01" rms="4.4047227501869202e-01" purity="5.9569269418716431e-01" nType="0">
          <Node pos="l" depth="2" NCoef="0" IVar="-1" Cut="0.0000000000000000e+00" cType="1" res="1.0519566712900996e-03" rms="4.2337822914123535e-01" purity="6.7701596021652222e-01" nType="-99"/>
          <Node pos="r" depth="2" NCoef="0" IVar="-1" Cut="0.0000000000000000e+00" cType="1" res="5.1775010069832206e-04" rms="4.5461225509643555e-01" purity="4.8672223091125488e-01" nType="-99"/>
        </Node>
      </Node>
    </BinaryTree>
    <BinaryTree type="DecisionTree" boostWeight="1.0000000000000000e+00" itree="619">
      <Node pos="s" depth="0" NCoef="0" IVar="6" Cut="2.8026885986328125e+02" cType="1" res="7.6733782887458801e-02" rms="4.4021406769752502e-01" purity="5.1730418205261230e-01" nType="0">
        <Node pos="l" depth="1" NCoef="0" IVar="6" Cut="2.3000672912597656e+02" cType="1" res="-5.8983553200960159e-02" rms="3.7138247489929199e-01" purity="1.9375757873058319e-01" nType="0">
          <Node pos="l" depth="2" NCoef="0" IVar="-1" Cut="0.0000000000000000e+00" cType="1" res="1.1008208384737372e-03" rms="4.1711261868476868e-01" purity="2.6854816079139709e-01" nType="-99"/>
          <Node pos="r" depth="2" NCoef="0" IVar="-1" Cut="0.0000000000000000e+00" cType="1" res="-3.2684451434761286e-03" rms="3.1197673082351685e-01" purity="1.4472682774066925e-01" nType="-99"/>
        </Node>
        <Node pos="r" depth="1" NCoef="0" IVar="0" Cut="9.3640899658203125e-01" cType="1" res="1.1418727040290833e-01" rms="4.5024332404136658e-01" purity="6.0659235715866089e-01" nType="0">
          <Node pos="l" depth="2" NCoef="0" IVar="-1" Cut="0.0000000000000000e+00" cType="1" res="1.6939292254392058e-04" rms="4.7785118222236633e-01" purity="3.7573587894439697e-01" nType="-99"/>
          <Node pos="r" depth="2" NCoef="0" IVar="-1" Cut="0.0000000000000000e+00" cType="1" res="8.4844516823068261e-04" rms="4.3997251987457275e-01" purity="6.6262358427047729e-01" nType="-99"/>
        </Node>
      </Node>
    </BinaryTree>
    <BinaryTree type="DecisionTree" boostWeight="1.0000000000000000e+00" itree="620">
      <Node pos="s" depth="0" NCoef="0" IVar="7" Cut="5.9443515539169312e-01" cType="1" res="8.8046722114086151e-02" rms="4.4195654988288879e-01" purity="5.2879250049591064e-01" nType="0">
        <Node pos="l" depth="1" NCoef="0" IVar="-1" Cut="0.0000000000000000e+00" cType="1" res="-1.3905804371461272e-03" rms="3.6348792910575867e-01" purity="2.5155514478683472e-01" nType="-99"/>
        <Node pos="r" depth="1" NCoef="0" IVar="8" Cut="1.0756264495849609e+02" cType="1" res="9.7796492278575897e-02" rms="4.4352871179580688e-01" purity="5.4328984022140503e-01" nType="0">
          <Node pos="l" depth="2" NCoef="0" IVar="-1" Cut="0.0000000000000000e+00" cType="1" res="1.2082622852176428e-03" rms="4.5379373431205750e-01" purity="5.4598391056060791e-01" nType="-99"/>
          <Node pos="r" depth="2" NCoef="0" IVar="-1" Cut="0.0000000000000000e+00" cType="1" res="5.1668612286448479e-04" rms="4.3595558404922485e-01" purity="5.4212486743927002e-01" nType="-99"/>
        </Node>
      </Node>
    </BinaryTree>
    <BinaryTree type="DecisionTree" boostWeight="1.0000000000000000e+00" itree="621">
      <Node pos="s" depth="0" NCoef="0" IVar="0" Cut="9.6638423204421997e-01" cType="1" res="3.7093859165906906e-02" rms="4.2518591880798340e-01" purity="4.8077252507209778e-01" nType="0">
        <Node pos="l" depth="1" NCoef="0" IVar="5" Cut="8.0684518814086914e-01" cType="1" res="-2.4813102558255196e-02" rms="4.1830241680145264e-01" purity="3.4552359580993652e-01" nType="0">
          <Node pos="l" depth="2" NCoef="0" IVar="-1" Cut="0.0000000000000000e+00" cType="1" res="1.7194459214806557e-03" rms="4.1123417019844055e-01" purity="5.8986121416091919e-01" nType="-99"/>
          <Node pos="r" depth="2" NCoef="0" IVar="-1" Cut="0.0000000000000000e+00" cType="1" res="-6.2426720978692174e-04" rms="4.0854948759078979e-01" purity="3.1847906112670898e-01" nType="-99"/>
        </Node>
        <Node pos="r" depth="1" NCoef="0" IVar="7" Cut="1.5039004087448120e+00" cType="1" res="1.3072389364242554e-01" rms="4.1833189129829407e-01" purity="6.8532729148864746e-01" nType="0">
          <Node pos="l" depth="2" NCoef="0" IVar="-1" Cut="0.0000000000000000e+00" cType="1" res="9.9200359545648098e-04" rms="3.9865243434906006e-01" purity="7.4899709224700928e-01" nType="-99"/>
          <Node pos="r" depth="2" NCoef="0" IVar="-1" Cut="0.0000000000000000e+00" cType="1" res="3.5051739541813731e-04" rms="4.3731305003166199e-01" purity="5.7974922657012939e-01" nType="-99"/>
        </Node>
      </Node>
    </BinaryTree>
    <BinaryTree type="DecisionTree" boostWeight="1.0000000000000000e+00" itree="622">
      <Node pos="s" depth="0" NCoef="0" IVar="7" Cut="9.5768868923187256e-01" cType="1" res="5.7078287005424500e-02" rms="4.3947932124137878e-01" purity="5.0057035684585571e-01" nType="0">
        <Node pos="l" depth="1" NCoef="0" IVar="1" Cut="4.0100658416748047e+01" cType="1" res="1.5899093449115753e-01" rms="4.3543940782546997e-01" purity="5.9518450498580933e-01" nType="0">
          <Node pos="l" depth="2" NCoef="0" IVar="-1" Cut="0.0000000000000000e+00" cType="1" res="1.5757856317577534e-06" rms="4.1473695635795593e-01" purity="2.7669924497604370e-01" nType="-99"/>
          <Node pos="r" depth="2" NCoef="0" IVar="-1" Cut="0.0000000000000000e+00" cType="1" res="1.2377647217363119e-03" rms="4.2817947268486023e-01" purity="7.1286386251449585e-01" nType="-99"/>
        </Node>
        <Node pos="r" depth="1" NCoef="0" IVar="3" Cut="1.2153384685516357e+00" cType="1" res="1.3130391947925091e-02" rms="4.3388482928276062e-01" purity="4.5976978540420532e-01" nType="0">
          <Node pos="l" depth="2" NCoef="0" IVar="-1" Cut="0.0000000000000000e+00" cType="1" res="6.1820854898542166e-04" rms="4.2613747715950012e-01" purity="7.0018452405929565e-01" nType="-99"/>
          <Node pos="r" depth="2" NCoef="0" IVar="-1" Cut="0.0000000000000000e+00" cType="1" res="-3.9093694067560136e-04" rms="4.2998450994491577e-01" purity="3.4160211682319641e-01" nType="-99"/>
        </Node>
      </Node>
    </BinaryTree>
    <BinaryTree type="DecisionTree" boostWeight="1.0000000000000000e+00" itree="623">
      <Node pos="s" depth="0" NCoef="0" IVar="0" Cut="9.5473253726959229e-01" cType="1" res="3.4035023301839828e-02" rms="4.3037718534469604e-01" purity="4.7210875153541565e-01" nType="0">
        <Node pos="l" depth="1" NCoef="0" IVar="3" Cut="1.7573882341384888e+00" cType="1" res="-5.3496833890676498e-02" rms="4.1738337278366089e-01" purity="2.6340043544769287e-01" nType="0">
          <Node pos="l" depth="2" NCoef="0" IVar="-1" Cut="0.0000000000000000e+00" cType="1" res="-2.3463964462280273e-03" rms="4.1472348570823669e-01" purity="2.5751751661300659e-01" nType="-99"/>
          <Node pos="r" depth="2" NCoef="0" IVar="-1" Cut="0.0000000000000000e+00" cType="1" res="6.2185106799006462e-04" rms="3.9529252052307129e-01" purity="2.6854804158210754e-01" nType="-99"/>
        </Node>
        <Node pos="r" depth="1" NCoef="0" IVar="2" Cut="2.2855096435546875e+02" cType="1" res="1.0033208131790161e-01" rms="4.2821651697158813e-01" purity="6.3018542528152466e-01" nType="0">
          <Node pos="l" depth="2" NCoef="0" IVar="-1" Cut="0.0000000000000000e+00" cType="1" res="8.7430636631324887e-04" rms="4.2283228039741516e-01" purity="6.8889605998992920e-01" nType="-99"/>
          <Node pos="r" depth="2" NCoef="0" IVar="-1" Cut="0.0000000000000000e+00" cType="1" res="7.3385986070206854e-06" rms="4.2325857281684875e-01" purity="5.0027531385421753e-01" nType="-99"/>
        </Node>
      </Node>
    </BinaryTree>
    <BinaryTree type="DecisionTree" boostWeight="1.0000000000000000e+00" itree="624">
      <Node pos="s" depth="0" NCoef="0" IVar="5" Cut="1.6434496641159058e+00" cType="1" res="6.5248660743236542e-02" rms="4.3534138798713684e-01" purity="4.9423027038574219e-01" nType="0">
        <Node pos="l" depth="1" NCoef="0" IVar="5" Cut="1.5027785301208496e+00" cType="1" res="8.6339563131332397e-02" rms="4.3680390715599060e-01" purity="5.1629889011383057e-01" nType="0">
          <Node pos="l" depth="2" NCoef="0" IVar="-1" Cut="0.0000000000000000e+00" cType="1" res="5.4065824951976538e-04" rms="4.2736977338790894e-01" purity="4.9729338288307190e-01" nType="-99"/>
          <Node pos="r" depth="2" NCoef="0" IVar="-1" Cut="0.0000000000000000e+00" cType="1" res="1.3230419717729092e-03" rms="4.7607862949371338e-01" purity="6.3622725009918213e-01" nType="-99"/>
        </Node>
        <Node pos="r" depth="1" NCoef="0" IVar="5" Cut="1.8659558296203613e+00" cType="1" res="-1.0027576237916946e-01" rms="3.8551557064056396e-01" purity="3.2103320956230164e-01" nType="0">
          <Node pos="l" depth="2" NCoef="0" IVar="-1" Cut="0.0000000000000000e+00" cType="1" res="-2.5275032967329025e-03" rms="3.4812533855438232e-01" purity="2.3291431367397308e-01" nType="-99"/>
          <Node pos="r" depth="2" NCoef="0" IVar="-1" Cut="0.0000000000000000e+00" cType="1" res="-5.4412710596807301e-05" rms="4.0641108155250549e-01" purity="4.2661073803901672e-01" nType="-99"/>
        </Node>
      </Node>
    </BinaryTree>
    <BinaryTree type="DecisionTree" boostWeight="1.0000000000000000e+00" itree="625">
      <Node pos="s" depth="0" NCoef="0" IVar="7" Cut="1.4548094272613525e+00" cType="1" res="3.5439994186162949e-02" rms="4.3058070540428162e-01" purity="4.7503182291984558e-01" nType="0">
        <Node pos="l" depth="1" NCoef="0" IVar="1" Cut="7.9292358398437500e+01" cType="1" res="7.2882249951362610e-02" rms="4.3551635742187500e-01" purity="5.3499084711074829e-01" nType="0">
          <Node pos="l" depth="2" NCoef="0" IVar="-1" Cut="0.0000000000000000e+00" cType="1" res="2.5971073773689568e-04" rms="4.4836673140525818e-01" purity="3.9700809121131897e-01" nType="-99"/>
          <Node pos="r" depth="2" NCoef="0" IVar="-1" Cut="0.0000000000000000e+00" cType="1" res="8.3474465645849705e-04" rms="4.0244808793067932e-01" purity="7.6275449991226196e-01" nType="-99"/>
        </Node>
        <Node pos="r" depth="1" NCoef="0" IVar="5" Cut="1.0117721557617188e+00" cType="1" res="-1.5818705782294273e-02" rms="4.1833105683326721e-01" purity="3.9294749498367310e-01" nType="0">
          <Node pos="l" depth="2" NCoef="0" IVar="-1" Cut="0.0000000000000000e+00" cType="1" res="6.0692185070365667e-04" rms="4.3347397446632385e-01" purity="4.4527876377105713e-01" nType="-99"/>
          <Node pos="r" depth="2" NCoef="0" IVar="-1" Cut="0.0000000000000000e+00" cType="1" res="-8.2026171730831265e-04" rms="3.9565426111221313e-01" purity="3.5398274660110474e-01" nType="-99"/>
        </Node>
      </Node>
    </BinaryTree>
    <BinaryTree type="DecisionTree" boostWeight="1.0000000000000000e+00" itree="626">
      <Node pos="s" depth="0" NCoef="0" IVar="6" Cut="3.1707901000976562e+02" cType="1" res="8.4290169179439545e-02" rms="4.3477481603622437e-01" purity="5.2928924560546875e-01" nType="0">
        <Node pos="l" depth="1" NCoef="0" IVar="8" Cut="1.1743566894531250e+02" cType="1" res="1.9971087574958801e-02" rms="4.2139440774917603e-01" purity="3.3984944224357605e-01" nType="0">
          <Node pos="l" depth="2" NCoef="0" IVar="-1" Cut="0.0000000000000000e+00" cType="1" res="-6.8907521199434996e-04" rms="3.8983288407325745e-01" purity="2.6261702179908752e-01" nType="-99"/>
          <Node pos="r" depth="2" NCoef="0" IVar="-1" Cut="0.0000000000000000e+00" cType="1" res="7.8368588583543897e-04" rms="4.3789613246917725e-01" purity="4.0530660748481750e-01" nType="-99"/>
        </Node>
        <Node pos="r" depth="1" NCoef="0" IVar="3" Cut="7.7738636732101440e-01" cType="1" res="1.2388247251510620e-01" rms="4.3814021348953247e-01" purity="6.4590096473693848e-01" nType="0">
          <Node pos="l" depth="2" NCoef="0" IVar="-1" Cut="0.0000000000000000e+00" cType="1" res="1.0843778727576137e-03" rms="3.7506434321403503e-01" purity="8.2944411039352417e-01" nType="-99"/>
          <Node pos="r" depth="2" NCoef="0" IVar="-1" Cut="0.0000000000000000e+00" cType="1" res="6.2691728817299008e-04" rms="4.5327156782150269e-01" purity="5.8028745651245117e-01" nType="-99"/>
        </Node>
      </Node>
    </BinaryTree>
    <BinaryTree type="DecisionTree" boostWeight="1.0000000000000000e+00" itree="627">
      <Node pos="s" depth="0" NCoef="0" IVar="4" Cut="6.1638915538787842e-01" cType="1" res="5.2563555538654327e-02" rms="4.2862924933433533e-01" purity="4.9475473165512085e-01" nType="0">
        <Node pos="l" depth="1" NCoef="0" IVar="5" Cut="1.1476379632949829e+00" cType="1" res="-3.5562422126531601e-02" rms="4.1069915890693665e-01" purity="4.2465198040008545e-01" nType="0">
          <Node pos="l" depth="2" NCoef="0" IVar="-1" Cut="0.0000000000000000e+00" cType="1" res="-2.5064367800951004e-03" rms="3.5707074403762817e-01" purity="2.4134995043277740e-01" nType="-99"/>
          <Node pos="r" depth="2" NCoef="0" IVar="-1" Cut="0.0000000000000000e+00" cType="1" res="6.2369456281885505e-04" rms="4.2141485214233398e-01" purity="6.2231999635696411e-01" nType="-99"/>
        </Node>
        <Node pos="r" depth="1" NCoef="0" IVar="1" Cut="7.8640724182128906e+01" cType="1" res="8.3176605403423309e-02" rms="4.3048328161239624e-01" purity="5.1910686492919922e-01" nType="0">
          <Node pos="l" depth="2" NCoef="0" IVar="-1" Cut="0.0000000000000000e+00" cType="1" res="2.1015873062424362e-04" rms="4.3104729056358337e-01" purity="3.9358812570571899e-01" nType="-99"/>
          <Node pos="r" depth="2" NCoef="0" IVar="-1" Cut="0.0000000000000000e+00" cType="1" res="8.4558862727135420e-04" rms="4.2507609724998474e-01" purity="6.0327881574630737e-01" nType="-99"/>
        </Node>
      </Node>
    </BinaryTree>
    <BinaryTree type="DecisionTree" boostWeight="1.0000000000000000e+00" itree="628">
      <Node pos="s" depth="0" NCoef="0" IVar="0" Cut="9.3752878904342651e-01" cType="1" res="5.2913263440132141e-02" rms="4.3075037002563477e-01" purity="5.0142294168472290e-01" nType="0">
        <Node pos="l" depth="1" NCoef="0" IVar="5" Cut="9.5369732379913330e-01" cType="1" res="-1.0023614764213562e-01" rms="3.7269163131713867e-01" purity="1.7500497400760651e-01" nType="0">
          <Node pos="l" depth="2" NCoef="0" IVar="-1" Cut="0.0000000000000000e+00" cType="1" res="1.6595115885138512e-03" rms="4.6482536196708679e-01" purity="3.8298174738883972e-01" nType="-99"/>
          <Node pos="r" depth="2" NCoef="0" IVar="-1" Cut="0.0000000000000000e+00" cType="1" res="-5.6262770667672157e-03" rms="2.7839893102645874e-01" purity="9.2266559600830078e-02" nType="-99"/>
        </Node>
        <Node pos="r" depth="1" NCoef="0" IVar="5" Cut="8.9984333515167236e-01" cType="1" res="9.3728639185428619e-02" rms="4.3595966696739197e-01" purity="5.8841556310653687e-01" nType="0">
          <Node pos="l" depth="2" NCoef="0" IVar="-1" Cut="0.0000000000000000e+00" cType="1" res="-1.8702530360314995e-04" rms="4.1212669014930725e-01" purity="4.0700277686119080e-01" nType="-99"/>
          <Node pos="r" depth="2" NCoef="0" IVar="-1" Cut="0.0000000000000000e+00" cType="1" res="7.2528788587078452e-04" rms="4.3682301044464111e-01" purity="6.1399197578430176e-01" nType="-99"/>
        </Node>
      </Node>
    </BinaryTree>
    <BinaryTree type="DecisionTree" boostWeight="1.0000000000000000e+00" itree="629">
      <Node pos="s" depth="0" NCoef="0" IVar="6" Cut="3.2218890380859375e+02" cType="1" res="3.4794244915246964e-02" rms="4.2265224456787109e-01" purity="4.8429790139198303e-01" nType="0">
        <Node pos="l" depth="1" NCoef="0" IVar="6" Cut="2.3233004760742188e+02" cType="1" res="-3.5783272236585617e-02" rms="4.0171691775321960e-01" purity="2.8339251875877380e-01" nType="0">
          <Node pos="l" depth="2" NCoef="0" IVar="-1" Cut="0.0000000000000000e+00" cType="1" res="1.2478295248001814e-03" rms="4.2917230725288391e-01" purity="3.0431127548217773e-01" nType="-99"/>
          <Node pos="r" depth="2" NCoef="0" IVar="-1" Cut="0.0000000000000000e+00" cType="1" res="-1.0255738161504269e-03" rms="3.8253474235534668e-01" purity="2.7589187026023865e-01" nType="-99"/>
        </Node>
        <Node pos="r" depth="1" NCoef="0" IVar="2" Cut="2.5663436889648438e+02" cType="1" res="8.3274692296981812e-02" rms="4.2978823184967041e-01" purity="6.2230199575424194e-01" nType="0">
          <Node pos="l" depth="2" NCoef="0" IVar="-1" Cut="0.0000000000000000e+00" cType="1" res="7.5731449760496616e-04" rms="4.1551351547241211e-01" purity="7.1352291107177734e-01" nType="-99"/>
          <Node pos="r" depth="2" NCoef="0" IVar="-1" Cut="0.0000000000000000e+00" cType="1" res="-7.7078811955288984e-06" rms="4.3878290057182312e-01" purity="4.7627696394920349e-01" nType="-99"/>
        </Node>
      </Node>
    </BinaryTree>
    <BinaryTree type="DecisionTree" boostWeight="1.0000000000000000e+00" itree="630">
      <Node pos="s" depth="0" NCoef="0" IVar="4" Cut="8.2171839475631714e-01" cType="1" res="7.7755510807037354e-02" rms="4.4889175891876221e-01" purity="5.0880008935928345e-01" nType="0">
        <Node pos="l" depth="1" NCoef="0" IVar="8" Cut="9.4477821350097656e+01" cType="1" res="9.3864917755126953e-02" rms="4.5449265837669373e-01" purity="5.3619760274887085e-01" nType="0">
          <Node pos="l" depth="2" NCoef="0" IVar="-1" Cut="0.0000000000000000e+00" cType="1" res="-1.1334072332829237e-03" rms="3.8944697380065918e-01" purity="2.5213116407394409e-01" nType="-99"/>
          <Node pos="r" depth="2" NCoef="0" IVar="-1" Cut="0.0000000000000000e+00" cType="1" res="8.1004959065467119e-04" rms="4.5713543891906738e-01" purity="5.6904584169387817e-01" nType="-99"/>
        </Node>
        <Node pos="r" depth="1" NCoef="0" IVar="-1" Cut="0.0000000000000000e+00" cType="1" res="-9.5139024779200554e-03" rms="2.0166230201721191e-01" purity="5.1989331841468811e-02" nType="-99"/>
      </Node>
    </BinaryTree>
    <BinaryTree type="DecisionTree" boostWeight="1.0000000000000000e+00" itree="631">
      <Node pos="s" depth="0" NCoef="0" IVar="2" Cut="1.8421011352539062e+02" cType="1" res="4.5603778213262558e-02" rms="4.3803510069847107e-01" purity="4.8420053720474243e-01" nType="0">
        <Node pos="l" depth="1" NCoef="0" IVar="5" Cut="1.5918250083923340e+00" cType="1" res="1.0628981143236160e-01" rms="4.4392052292823792e-01" purity="5.4564374685287476e-01" nType="0">
          <Node pos="l" depth="2" NCoef="0" IVar="-1" Cut="0.0000000000000000e+00" cType="1" res="5.2768894238397479e-04" rms="4.4373676180839539e-01" purity="4.9876382946968079e-01" nType="-99"/>
          <Node pos="r" depth="2" NCoef="0" IVar="-1" Cut="0.0000000000000000e+00" cType="1" res="1.3075189199298620e-03" rms="4.1864350438117981e-01" purity="6.9885236024856567e-01" nType="-99"/>
        </Node>
        <Node pos="r" depth="1" NCoef="0" IVar="5" Cut="8.9016753435134888e-01" cType="1" res="-2.3664208129048347e-02" rms="4.2065232992172241e-01" purity="4.1406822204589844e-01" nType="0">
          <Node pos="l" depth="2" NCoef="0" IVar="-1" Cut="0.0000000000000000e+00" cType="1" res="-9.7850337624549866e-03" rms="2.6695320010185242e-01" purity="7.5199067592620850e-02" nType="-99"/>
          <Node pos="r" depth="2" NCoef="0" IVar="-1" Cut="0.0000000000000000e+00" cType="1" res="1.1797127081081271e-04" rms="4.3029129505157471e-01" purity="4.7145316004753113e-01" nType="-99"/>
        </Node>
      </Node>
    </BinaryTree>
    <BinaryTree type="DecisionTree" boostWeight="1.0000000000000000e+00" itree="632">
      <Node pos="s" depth="0" NCoef="0" IVar="0" Cut="9.3901586532592773e-01" cType="1" res="3.3259101212024689e-02" rms="4.3398991227149963e-01" purity="4.6933585405349731e-01" nType="0">
        <Node pos="l" depth="1" NCoef="0" IVar="2" Cut="1.1840502929687500e+02" cType="1" res="-4.3192051351070404e-02" rms="3.8249567151069641e-01" purity="2.6584708690643311e-01" nType="0">
          <Node pos="l" depth="2" NCoef="0" IVar="-1" Cut="0.0000000000000000e+00" cType="1" res="9.7603007452562451e-04" rms="4.3397769331932068e-01" purity="4.1067394614219666e-01" nType="-99"/>
          <Node pos="r" depth="2" NCoef="0" IVar="-1" Cut="0.0000000000000000e+00" cType="1" res="-1.4569149352610111e-03" rms="3.5051822662353516e-01" purity="2.1895100176334381e-01" nType="-99"/>
        </Node>
        <Node pos="r" depth="1" NCoef="0" IVar="7" Cut="1.7302262783050537e+00" cType="1" res="6.0641180723905563e-02" rms="4.4784241914749146e-01" purity="5.4221826791763306e-01" nType="0">
          <Node pos="l" depth="2" NCoef="0" IVar="-1" Cut="0.0000000000000000e+00" cType="1" res="6.1255175387486815e-04" rms="4.4997000694274902e-01" purity="5.9759372472763062e-01" nType="-99"/>
          <Node pos="r" depth="2" NCoef="0" IVar="-1" Cut="0.0000000000000000e+00" cType="1" res="-1.4918565284460783e-04" rms="4.3308228254318237e-01" purity="3.9133226871490479e-01" nType="-99"/>
        </Node>
      </Node>
    </BinaryTree>
    <BinaryTree type="DecisionTree" boostWeight="1.0000000000000000e+00" itree="633">
      <Node pos="s" depth="0" NCoef="0" IVar="2" Cut="2.3265620422363281e+02" cType="1" res="6.8386107683181763e-02" rms="4.4535133242607117e-01" purity="4.9714800715446472e-01" nType="0">
        <Node pos="l" depth="1" NCoef="0" IVar="0" Cut="9.1928374767303467e-01" cType="1" res="1.0090336203575134e-01" rms="4.5749989151954651e-01" purity="5.3621619939804077e-01" nType="0">
          <Node pos="l" depth="2" NCoef="0" IVar="-1" Cut="0.0000000000000000e+00" cType="1" res="-1.8187061650678515e-03" rms="3.0902794003486633e-01" purity="1.7710901796817780e-01" nType="-99"/>
          <Node pos="r" depth="2" NCoef="0" IVar="-1" Cut="0.0000000000000000e+00" cType="1" res="8.5844035493209958e-04" rms="4.6409067511558533e-01" purity="5.6778556108474731e-01" nType="-99"/>
        </Node>
        <Node pos="r" depth="1" NCoef="0" IVar="7" Cut="1.7872047424316406e+00" cType="1" res="-5.7853139005601406e-03" rms="4.0670132637023926e-01" purity="4.0803396701812744e-01" nType="0">
          <Node pos="l" depth="2" NCoef="0" IVar="-1" Cut="0.0000000000000000e+00" cType="1" res="4.1848159162327647e-04" rms="4.4498008489608765e-01" purity="5.3854262828826904e-01" nType="-99"/>
          <Node pos="r" depth="2" NCoef="0" IVar="-1" Cut="0.0000000000000000e+00" cType="1" res="-3.2410065177828074e-03" rms="2.7925381064414978e-01" purity="1.4823026955127716e-01" nType="-99"/>
        </Node>
      </Node>
    </BinaryTree>
    <BinaryTree type="DecisionTree" boostWeight="1.0000000000000000e+00" itree="634">
      <Node pos="s" depth="0" NCoef="0" IVar="8" Cut="1.0094418334960938e+02" cType="1" res="3.6034781485795975e-02" rms="4.2840662598609924e-01" purity="4.8022833466529846e-01" nType="0">
        <Node pos="l" depth="1" NCoef="0" IVar="8" Cut="8.2024047851562500e+01" cType="1" res="-1.4785364270210266e-01" rms="3.4515661001205444e-01" purity="1.9782969355583191e-01" nType="0">
          <Node pos="l" depth="2" NCoef="0" IVar="-1" Cut="0.0000000000000000e+00" cType="1" res="-9.6610368927940726e-05" rms="3.6299812793731689e-01" purity="3.3759668469429016e-01" nType="-99"/>
          <Node pos="r" depth="2" NCoef="0" IVar="-1" Cut="0.0000000000000000e+00" cType="1" res="-6.7851226776838303e-03" rms="2.8805649280548096e-01" purity="9.0465821325778961e-02" nType="-99"/>
        </Node>
        <Node pos="r" depth="1" NCoef="0" IVar="7" Cut="1.5155513286590576e+00" cType="1" res="6.8925693631172180e-02" rms="4.3349835276603699e-01" purity="5.3073906898498535e-01" nType="0">
          <Node pos="l" depth="2" NCoef="0" IVar="-1" Cut="0.0000000000000000e+00" cType="1" res="8.3639670629054308e-04" rms="4.3238866329193115e-01" purity="6.2893384695053101e-01" nType="-99"/>
          <Node pos="r" depth="2" NCoef="0" IVar="-1" Cut="0.0000000000000000e+00" cType="1" res="-1.4648865908384323e-04" rms="4.2133629322052002e-01" purity="3.9072677493095398e-01" nType="-99"/>
        </Node>
      </Node>
    </BinaryTree>
    <BinaryTree type="DecisionTree" boostWeight="1.0000000000000000e+00" itree="635">
      <Node pos="s" depth="0" NCoef="0" IVar="8" Cut="9.8346885681152344e+01" cType="1" res="7.9358063638210297e-02" rms="4.2585527896881104e-01" purity="5.3187870979309082e-01" nType="0">
        <Node pos="l" depth="1" NCoef="0" IVar="7" Cut="7.8710019588470459e-01" cType="1" res="-9.6539005637168884e-02" rms="3.6926621198654175e-01" purity="2.0414884388446808e-01" nType="0">
          <Node pos="l" depth="2" NCoef="0" IVar="-1" Cut="0.0000000000000000e+00" cType="1" res="1.1953419307246804e-03" rms="4.5113405585289001e-01" purity="4.3477004766464233e-01" nType="-99"/>
          <Node pos="r" depth="2" NCoef="0" IVar="-1" Cut="0.0000000000000000e+00" cType="1" res="-7.9522440209984779e-03" rms="2.3428025841712952e-01" purity="7.3995277285575867e-02" nType="-99"/>
        </Node>
        <Node pos="r" depth="1" NCoef="0" IVar="7" Cut="1.7814321517944336e+00" cType="1" res="1.0642836242914200e-01" rms="4.2753130197525024e-01" purity="5.8231586217880249e-01" nType="0">
          <Node pos="l" depth="2" NCoef="0" IVar="-1" Cut="0.0000000000000000e+00" cType="1" res="8.8879518443718553e-04" rms="4.2535850405693054e-01" purity="6.5984958410263062e-01" nType="-99"/>
          <Node pos="r" depth="2" NCoef="0" IVar="-1" Cut="0.0000000000000000e+00" cType="1" res="-1.5444107702933252e-04" rms="4.1060775518417358e-01" purity="3.5400438308715820e-01" nType="-99"/>
        </Node>
      </Node>
    </BinaryTree>
    <BinaryTree type="DecisionTree" boostWeight="1.0000000000000000e+00" itree="636">
      <Node pos="s" depth="0" NCoef="0" IVar="0" Cut="9.5348036289215088e-01" cType="1" res="4.6139068901538849e-02" rms="4.2677167057991028e-01" purity="4.9195274710655212e-01" nType="0">
        <Node pos="l" depth="1" NCoef="0" IVar="5" Cut="1.3000737428665161e+00" cType="1" res="-3.3222239464521408e-02" rms="4.0550056099891663e-01" purity="2.9535409808158875e-01" nType="0">
          <Node pos="l" depth="2" NCoef="0" IVar="-1" Cut="0.0000000000000000e+00" cType="1" res="-2.2225864231586456e-03" rms="3.3757767081260681e-01" purity="1.7641915380954742e-01" nType="-99"/>
          <Node pos="r" depth="2" NCoef="0" IVar="-1" Cut="0.0000000000000000e+00" cType="1" res="3.9848277810961008e-04" rms="4.4713553786277771e-01" purity="4.0899568796157837e-01" nType="-99"/>
        </Node>
        <Node pos="r" depth="1" NCoef="0" IVar="6" Cut="2.8194018554687500e+02" cType="1" res="1.0484694689512253e-01" rms="4.3257886171340942e-01" purity="6.3738751411437988e-01" nType="0">
          <Node pos="l" depth="2" NCoef="0" IVar="-1" Cut="0.0000000000000000e+00" cType="1" res="3.0014733056304976e-05" rms="4.3852448463439941e-01" purity="3.9233431220054626e-01" nType="-99"/>
          <Node pos="r" depth="2" NCoef="0" IVar="-1" Cut="0.0000000000000000e+00" cType="1" res="7.8114011557772756e-04" rms="4.2683213949203491e-01" purity="7.0344763994216919e-01" nType="-99"/>
        </Node>
      </Node>
    </BinaryTree>
    <BinaryTree type="DecisionTree" boostWeight="1.0000000000000000e+00" itree="637">
      <Node pos="s" depth="0" NCoef="0" IVar="7" Cut="7.2116947174072266e-01" cType="1" res="6.5575286746025085e-02" rms="4.3513235449790955e-01" purity="5.0352740287780762e-01" nType="0">
        <Node pos="l" depth="1" NCoef="0" IVar="4" Cut="6.6440635919570923e-01" cType="1" res="1.7762082815170288e-01" rms="4.3532726168632507e-01" purity="5.7452452182769775e-01" nType="0">
          <Node pos="l" depth="2" NCoef="0" IVar="-1" Cut="0.0000000000000000e+00" cType="1" res="1.6310941427946091e-03" rms="4.1463130712509155e-01" purity="6.9454985857009888e-01" nType="-99"/>
          <Node pos="r" depth="2" NCoef="0" IVar="-1" Cut="0.0000000000000000e+00" cType="1" res="5.9431139379739761e-04" rms="4.3312329053878784e-01" purity="4.4926777482032776e-01" nType="-99"/>
        </Node>
        <Node pos="r" depth="1" NCoef="0" IVar="0" Cut="9.4683825969696045e-01" cType="1" res="4.4000666588544846e-02" rms="4.3176925182342529e-01" purity="4.8985680937767029e-01" nType="0">
          <Node pos="l" depth="2" NCoef="0" IVar="-1" Cut="0.0000000000000000e+00" cType="1" res="-4.7625013394281268e-04" rms="4.0391585230827332e-01" purity="2.9198920726776123e-01" nType="-99"/>
          <Node pos="r" depth="2" NCoef="0" IVar="-1" Cut="0.0000000000000000e+00" cType="1" res="6.2389083905145526e-04" rms="4.3945336341857910e-01" purity="5.9922146797180176e-01" nType="-99"/>
        </Node>
      </Node>
    </BinaryTree>
    <BinaryTree type="DecisionTree" boostWeight="1.0000000000000000e+00" itree="638">
      <Node pos="s" depth="0" NCoef="0" IVar="1" Cut="1.1230899047851562e+02" cType="1" res="5.5406220257282257e-02" rms="4.3447840213775635e-01" purity="4.9933180212974548e-01" nType="0">
        <Node pos="l" depth="1" NCoef="0" IVar="2" Cut="1.3959771728515625e+02" cType="1" res="8.0535458400845528e-03" rms="4.3487113714218140e-01" purity="4.1779279708862305e-01" nType="0">
          <Node pos="l" depth="2" NCoef="0" IVar="-1" Cut="0.0000000000000000e+00" cType="1" res="6.6093925852328539e-04" rms="4.4662886857986450e-01" purity="4.9843198060989380e-01" nType="-99"/>
          <Node pos="r" depth="2" NCoef="0" IVar="-1" Cut="0.0000000000000000e+00" cType="1" res="-5.0439656479284167e-04" rms="4.1702458262443542e-01" purity="3.5887870192527771e-01" nType="-99"/>
        </Node>
        <Node pos="r" depth="1" NCoef="0" IVar="0" Cut="9.4274711608886719e-01" cType="1" res="1.2617056071758270e-01" rms="4.2414948344230652e-01" purity="6.2118446826934814e-01" nType="0">
          <Node pos="l" depth="2" NCoef="0" IVar="-1" Cut="0.0000000000000000e+00" cType="1" res="-2.3121669073589146e-04" rms="4.3631398677825928e-01" purity="2.9495361447334290e-01" nType="-99"/>
          <Node pos="r" depth="2" NCoef="0" IVar="-1" Cut="0.0000000000000000e+00" cType="1" res="1.0025417432188988e-03" rms="4.1325256228446960e-01" purity="7.0435595512390137e-01" nType="-99"/>
        </Node>
      </Node>
    </BinaryTree>
    <BinaryTree type="DecisionTree" boostWeight="1.0000000000000000e+00" itree="639">
      <Node pos="s" depth="0" NCoef="0" IVar="0" Cut="9.2823827266693115e-01" cType="1" res="5.0183422863483429e-02" rms="4.3539378046989441e-01" purity="4.8686468601226807e-01" nType="0">
        <Node pos="l" depth="1" NCoef="0" IVar="2" Cut="1.6592494201660156e+02" cType="1" res="-1.0706203430891037e-01" rms="3.2651829719543457e-01" purity="1.7976890504360199e-01" nType="0">
          <Node pos="l" depth="2" NCoef="0" IVar="-1" Cut="0.0000000000000000e+00" cType="1" res="-7.6031938078813255e-05" rms="3.7479367852210999e-01" purity="3.0387949943542480e-01" nType="-99"/>
          <Node pos="r" depth="2" NCoef="0" IVar="-1" Cut="0.0000000000000000e+00" cType="1" res="-8.6072562262415886e-03" rms="2.2545371949672699e-01" purity="5.1890052855014801e-02" nType="-99"/>
        </Node>
        <Node pos="r" depth="1" NCoef="0" IVar="0" Cut="9.3571758270263672e-01" cType="1" res="7.9128235578536987e-02" rms="4.4659614562988281e-01" purity="5.4339307546615601e-01" nType="0">
          <Node pos="l" depth="2" NCoef="0" IVar="-1" Cut="0.0000000000000000e+00" cType="1" res="1.7898048972710967e-03" rms="4.4880560040473938e-01" purity="6.2021070718765259e-01" nType="-99"/>
          <Node pos="r" depth="2" NCoef="0" IVar="-1" Cut="0.0000000000000000e+00" cType="1" res="4.1034261812455952e-04" rms="4.4024676084518433e-01" purity="5.3317147493362427e-01" nType="-99"/>
        </Node>
      </Node>
    </BinaryTree>
    <BinaryTree type="DecisionTree" boostWeight="1.0000000000000000e+00" itree="640">
      <Node pos="s" depth="0" NCoef="0" IVar="5" Cut="9.4859987497329712e-01" cType="1" res="9.2380963265895844e-02" rms="4.4247460365295410e-01" purity="5.3821676969528198e-01" nType="0">
        <Node pos="l" depth="1" NCoef="0" IVar="2" Cut="2.2456857299804688e+02" cType="1" res="1.7621605098247528e-01" rms="4.5638126134872437e-01" purity="5.6708943843841553e-01" nType="0">
          <Node pos="l" depth="2" NCoef="0" IVar="-1" Cut="0.0000000000000000e+00" cType="1" res="1.7237053252756596e-03" rms="4.8724570870399475e-01" purity="6.1729645729064941e-01" nType="-99"/>
          <Node pos="r" depth="2" NCoef="0" IVar="-1" Cut="0.0000000000000000e+00" cType="1" res="7.4714096263051033e-04" rms="3.9825975894927979e-01" purity="5.0429558753967285e-01" nType="-99"/>
        </Node>
        <Node pos="r" depth="1" NCoef="0" IVar="5" Cut="1.4762469530105591e+00" cType="1" res="6.5705649554729462e-02" rms="4.3457853794097900e-01" purity="5.2902984619140625e-01" nType="0">
          <Node pos="l" depth="2" NCoef="0" IVar="-1" Cut="0.0000000000000000e+00" cType="1" res="2.2203767730388790e-04" rms="4.2456534504890442e-01" purity="4.9850484728813171e-01" nType="-99"/>
          <Node pos="r" depth="2" NCoef="0" IVar="-1" Cut="0.0000000000000000e+00" cType="1" res="9.2384376330301166e-04" rms="4.4416004419326782e-01" purity="5.8378922939300537e-01" nType="-99"/>
        </Node>
      </Node>
    </BinaryTree>
    <BinaryTree type="DecisionTree" boostWeight="1.0000000000000000e+00" itree="641">
      <Node pos="s" depth="0" NCoef="0" IVar="6" Cut="3.2770889282226562e+02" cType="1" res="4.4082559645175934e-02" rms="4.3336075544357300e-01" purity="4.8359608650207520e-01" nType="0">
        <Node pos="l" depth="1" NCoef="0" IVar="7" Cut="1.6331986188888550e+00" cType="1" res="-4.6036373823881149e-02" rms="4.0022543072700500e-01" purity="2.8904813528060913e-01" nType="0">
          <Node pos="l" depth="2" NCoef="0" IVar="-1" Cut="0.0000000000000000e+00" cType="1" res="1.0580039088381454e-04" rms="4.2268216609954834e-01" purity="3.6819192767143250e-01" nType="-99"/>
          <Node pos="r" depth="2" NCoef="0" IVar="-1" Cut="0.0000000000000000e+00" cType="1" res="-4.1483067907392979e-03" rms="3.1179261207580566e-01" purity="1.1466576904058456e-01" nType="-99"/>
        </Node>
        <Node pos="r" depth="1" NCoef="0" IVar="0" Cut="9.3060147762298584e-01" cType="1" res="1.1008632928133011e-01" rms="4.4466483592987061e-01" purity="6.2608444690704346e-01" nType="0">
          <Node pos="l" depth="2" NCoef="0" IVar="-1" Cut="0.0000000000000000e+00" cType="1" res="1.5912277158349752e-03" rms="4.4688248634338379e-01" purity="6.4683806896209717e-01" nType="-99"/>
          <Node pos="r" depth="2" NCoef="0" IVar="-1" Cut="0.0000000000000000e+00" cType="1" res="4.4305974734015763e-04" rms="4.3413227796554565e-01" purity="6.1997056007385254e-01" nType="-99"/>
        </Node>
      </Node>
    </BinaryTree>
    <BinaryTree type="DecisionTree" boostWeight="1.0000000000000000e+00" itree="642">
      <Node pos="s" depth="0" NCoef="0" IVar="0" Cut="9.4599026441574097e-01" cType="1" res="5.6914050132036209e-02" rms="4.2400762438774109e-01" purity="5.0127178430557251e-01" nType="0">
        <Node pos="l" depth="1" NCoef="0" IVar="6" Cut="4.3755145263671875e+02" cType="1" res="-5.6246422231197357e-02" rms="3.9133194088935852e-01" purity="2.4075840413570404e-01" nType="0">
          <Node pos="l" depth="2" NCoef="0" IVar="-1" Cut="0.0000000000000000e+00" cType="1" res="-2.2223410196602345e-03" rms="3.4824240207672119e-01" purity="1.5503503382205963e-01" nType="-99"/>
          <Node pos="r" depth="2" NCoef="0" IVar="-1" Cut="0.0000000000000000e+00" cType="1" res="7.7841692836955190e-04" rms="4.7463554143905640e-01" purity="5.3223842382431030e-01" nType="-99"/>
        </Node>
        <Node pos="r" depth="1" NCoef="0" IVar="1" Cut="9.1702812194824219e+01" cType="1" res="1.0923857241868973e-01" rms="4.2830187082290649e-01" purity="6.2173116207122803e-01" nType="0">
          <Node pos="l" depth="2" NCoef="0" IVar="-1" Cut="0.0000000000000000e+00" cType="1" res="3.0716351466253400e-04" rms="4.4828912615776062e-01" purity="4.9993115663528442e-01" nType="-99"/>
          <Node pos="r" depth="2" NCoef="0" IVar="-1" Cut="0.0000000000000000e+00" cType="1" res="9.4851630274206400e-04" rms="4.0484279394149780e-01" purity="7.1342378854751587e-01" nType="-99"/>
        </Node>
      </Node>
    </BinaryTree>
    <BinaryTree type="DecisionTree" boostWeight="1.0000000000000000e+00" itree="643">
      <Node pos="s" depth="0" NCoef="0" IVar="0" Cut="9.5867848396301270e-01" cType="1" res="5.9701509773731232e-02" rms="4.3018946051597595e-01" purity="5.0981539487838745e-01" nType="0">
        <Node pos="l" depth="1" NCoef="0" IVar="0" Cut="9.3050974607467651e-01" cType="1" res="3.7212122697383165e-03" rms="4.3491092324256897e-01" purity="3.3989685773849487e-01" nType="0">
          <Node pos="l" depth="2" NCoef="0" IVar="-1" Cut="0.0000000000000000e+00" cType="1" res="8.8757451158016920e-04" rms="4.3609839677810669e-01" purity="3.9077490568161011e-01" nType="-99"/>
          <Node pos="r" depth="2" NCoef="0" IVar="-1" Cut="0.0000000000000000e+00" cType="1" res="-5.6987442076206207e-04" rms="4.2592293024063110e-01" purity="3.1057950854301453e-01" nType="-99"/>
        </Node>
        <Node pos="r" depth="1" NCoef="0" IVar="8" Cut="1.3048362731933594e+02" cType="1" res="1.1365126818418503e-01" rms="4.1856405138969421e-01" purity="6.7357063293457031e-01" nType="0">
          <Node pos="l" depth="2" NCoef="0" IVar="-1" Cut="0.0000000000000000e+00" cType="1" res="8.9690851746127009e-04" rms="4.0323469042778015e-01" purity="7.1716099977493286e-01" nType="-99"/>
          <Node pos="r" depth="2" NCoef="0" IVar="-1" Cut="0.0000000000000000e+00" cType="1" res="1.4373283192981035e-04" rms="4.3751853704452515e-01" purity="5.7388490438461304e-01" nType="-99"/>
        </Node>
      </Node>
    </BinaryTree>
    <BinaryTree type="DecisionTree" boostWeight="1.0000000000000000e+00" itree="644">
      <Node pos="s" depth="0" NCoef="0" IVar="6" Cut="2.8131024169921875e+02" cType="1" res="4.7767579555511475e-02" rms="4.1987645626068115e-01" purity="5.0174683332443237e-01" nType="0">
        <Node pos="l" depth="1" NCoef="0" IVar="1" Cut="9.6305892944335938e+01" cType="1" res="-5.4706063121557236e-02" rms="3.7600970268249512e-01" purity="2.1592170000076294e-01" nType="0">
          <Node pos="l" depth="2" NCoef="0" IVar="-1" Cut="0.0000000000000000e+00" cType="1" res="-2.5386519264429808e-03" rms="3.2468041777610779e-01" purity="1.4291612803936005e-01" nType="-99"/>
          <Node pos="r" depth="2" NCoef="0" IVar="-1" Cut="0.0000000000000000e+00" cType="1" res="1.0421824408695102e-03" rms="4.4684040546417236e-01" purity="4.0345931053161621e-01" nType="-99"/>
        </Node>
        <Node pos="r" depth="1" NCoef="0" IVar="5" Cut="1.1550408601760864e+00" cType="1" res="7.8090339899063110e-02" rms="4.2731779813766479e-01" purity="5.8632481098175049e-01" nType="0">
          <Node pos="l" depth="2" NCoef="0" IVar="-1" Cut="0.0000000000000000e+00" cType="1" res="-4.8497622628929093e-06" rms="4.2446291446685791e-01" purity="4.6787297725677490e-01" nType="-99"/>
          <Node pos="r" depth="2" NCoef="0" IVar="-1" Cut="0.0000000000000000e+00" cType="1" res="7.5599446427077055e-04" rms="4.2256489396095276e-01" purity="6.5266412496566772e-01" nType="-99"/>
        </Node>
      </Node>
    </BinaryTree>
    <BinaryTree type="DecisionTree" boostWeight="1.0000000000000000e+00" itree="645">
      <Node pos="s" depth="0" NCoef="0" IVar="6" Cut="5.8950689697265625e+02" cType="1" res="2.7947079390287399e-02" rms="4.2661839723587036e-01" purity="4.7102180123329163e-01" nType="0">
        <Node pos="l" depth="1" NCoef="0" IVar="7" Cut="2.0404627323150635e+00" cType="1" res="1.4824479585513473e-03" rms="4.2616835236549377e-01" purity="4.2491492629051208e-01" nType="0">
          <Node pos="l" depth="2" NCoef="0" IVar="-1" Cut="0.0000000000000000e+00" cType="1" res="1.9556650659069419e-04" rms="4.4072937965393066e-01" purity="4.7448265552520752e-01" nType="-99"/>
          <Node pos="r" depth="2" NCoef="0" IVar="-1" Cut="0.0000000000000000e+00" cType="1" res="-5.0298338755965233e-03" rms="2.7128016948699951e-01" purity="8.9937016367912292e-02" nType="-99"/>
        </Node>
        <Node pos="r" depth="1" NCoef="0" IVar="-1" Cut="0.0000000000000000e+00" cType="1" res="1.2089360971003771e-03" rms="3.8062563538551331e-01" purity="7.9645985364913940e-01" nType="-99"/>
      </Node>
    </BinaryTree>
    <BinaryTree type="DecisionTree" boostWeight="1.0000000000000000e+00" itree="646">
      <Node pos="s" depth="0" NCoef="0" IVar="1" Cut="4.3129917144775391e+01" cType="1" res="5.3192377090454102e-02" rms="4.3745011091232300e-01" purity="4.9466860294342041e-01" nType="0">
        <Node pos="l" depth="1" NCoef="0" IVar="0" Cut="9.4850224256515503e-01" cType="1" res="-1.0265520215034485e-01" rms="3.5125109553337097e-01" purity="1.8357768654823303e-01" nType="0">
          <Node pos="l" depth="2" NCoef="0" IVar="-1" Cut="0.0000000000000000e+00" cType="1" res="-1.3539216015487909e-03" rms="3.2616743445396423e-01" purity="1.4301638305187225e-01" nType="-99"/>
          <Node pos="r" depth="2" NCoef="0" IVar="-1" Cut="0.0000000000000000e+00" cType="1" res="-2.0886720158159733e-03" rms="3.6834546923637390e-01" purity="2.2278510034084320e-01" nType="-99"/>
        </Node>
        <Node pos="r" depth="1" NCoef="0" IVar="7" Cut="7.5221908092498779e-01" cType="1" res="7.2009772062301636e-02" rms="4.4304013252258301e-01" purity="5.3223049640655518e-01" nType="0">
          <Node pos="l" depth="2" NCoef="0" IVar="-1" Cut="0.0000000000000000e+00" cType="1" res="1.1383019154891372e-03" rms="3.9900103211402893e-01" purity="7.5240224599838257e-01" nType="-99"/>
          <Node pos="r" depth="2" NCoef="0" IVar="-1" Cut="0.0000000000000000e+00" cType="1" res="4.3251609895378351e-04" rms="4.4493690133094788e-01" purity="5.0428706407546997e-01" nType="-99"/>
        </Node>
      </Node>
    </BinaryTree>
    <BinaryTree type="DecisionTree" boostWeight="1.0000000000000000e+00" itree="647">
      <Node pos="s" depth="0" NCoef="0" IVar="1" Cut="9.4460052490234375e+01" cType="1" res="6.7844681441783905e-02" rms="4.4061627984046936e-01" purity="5.0923305749893188e-01" nType="0">
        <Node pos="l" depth="1" NCoef="0" IVar="8" Cut="1.0407514953613281e+02" cType="1" res="2.2015706053934991e-04" rms="4.3115782737731934e-01" purity="3.9162209630012512e-01" nType="0">
          <Node pos="l" depth="2" NCoef="0" IVar="-1" Cut="0.0000000000000000e+00" cType="1" res="-1.5107160434126854e-03" rms="3.7264445424079895e-01" purity="2.3699858784675598e-01" nType="-99"/>
          <Node pos="r" depth="2" NCoef="0" IVar="-1" Cut="0.0000000000000000e+00" cType="1" res="4.4516965863294899e-04" rms="4.5001572370529175e-01" purity="4.7184309363365173e-01" nType="-99"/>
        </Node>
        <Node pos="r" depth="1" NCoef="0" IVar="2" Cut="2.9403463745117188e+02" cType="1" res="1.3309846818447113e-01" rms="4.3980503082275391e-01" purity="6.2272095680236816e-01" nType="0">
          <Node pos="l" depth="2" NCoef="0" IVar="-1" Cut="0.0000000000000000e+00" cType="1" res="1.0813806438818574e-03" rms="4.3770524859428406e-01" purity="6.8376630544662476e-01" nType="-99"/>
          <Node pos="r" depth="2" NCoef="0" IVar="-1" Cut="0.0000000000000000e+00" cType="1" res="2.0394749299157411e-04" rms="4.2606389522552490e-01" purity="4.5997577905654907e-01" nType="-99"/>
        </Node>
      </Node>
    </BinaryTree>
    <BinaryTree type="DecisionTree" boostWeight="1.0000000000000000e+00" itree="648">
      <Node pos="s" depth="0" NCoef="0" IVar="0" Cut="9.7105234861373901e-01" cType="1" res="5.3505130112171173e-02" rms="4.4089263677597046e-01" purity="4.8807460069656372e-01" nType="0">
        <Node pos="l" depth="1" NCoef="0" IVar="4" Cut="7.7083450555801392e-01" cType="1" res="1.2174258008599281e-02" rms="4.3812283873558044e-01" purity="3.9302226901054382e-01" nType="0">
          <Node pos="l" depth="2" NCoef="0" IVar="-1" Cut="0.0000000000000000e+00" cType="1" res="3.2855573226697743e-04" rms="4.4975182414054871e-01" purity="4.3665024638175964e-01" nType="-99"/>
          <Node pos="r" depth="2" NCoef="0" IVar="-1" Cut="0.0000000000000000e+00" cType="1" res="-4.5425971038639545e-03" rms="3.0243754386901855e-01" purity="1.0939831286668777e-01" nType="-99"/>
        </Node>
        <Node pos="r" depth="1" NCoef="0" IVar="5" Cut="9.5812517404556274e-01" cType="1" res="1.3894380629062653e-01" rms="4.3426755070686340e-01" purity="6.8456536531448364e-01" nType="0">
          <Node pos="l" depth="2" NCoef="0" IVar="-1" Cut="0.0000000000000000e+00" cType="1" res="-5.5962736951187253e-04" rms="4.0329125523567200e-01" purity="4.7736459970474243e-01" nType="-99"/>
          <Node pos="r" depth="2" NCoef="0" IVar="-1" Cut="0.0000000000000000e+00" cType="1" res="1.0958276689052582e-03" rms="4.2808830738067627e-01" purity="7.2780805826187134e-01" nType="-99"/>
        </Node>
      </Node>
    </BinaryTree>
    <BinaryTree type="DecisionTree" boostWeight="1.0000000000000000e+00" itree="649">
      <Node pos="s" depth="0" NCoef="0" IVar="4" Cut="6.6282445192337036e-01" cType="1" res="4.3533716350793839e-02" rms="4.2754483222961426e-01" purity="4.9982425570487976e-01" nType="0">
        <Node pos="l" depth="1" NCoef="0" IVar="1" Cut="5.8944831848144531e+01" cType="1" res="9.3879096210002899e-02" rms="4.1895416378974915e-01" purity="5.8091205358505249e-01" nType="0">
          <Node pos="l" depth="2" NCoef="0" IVar="-1" Cut="0.0000000000000000e+00" cType="1" res="-5.1076692761853337e-04" rms="3.9687970280647278e-01" purity="3.2630288600921631e-01" nType="-99"/>
          <Node pos="r" depth="2" NCoef="0" IVar="-1" Cut="0.0000000000000000e+00" cType="1" res="7.8276573913171887e-04" rms="4.1805362701416016e-01" purity="6.3110297918319702e-01" nType="-99"/>
        </Node>
        <Node pos="r" depth="1" NCoef="0" IVar="0" Cut="9.4600176811218262e-01" cType="1" res="-1.4605402015149593e-02" rms="4.2998269200325012e-01" purity="4.0618354082107544e-01" nType="0">
          <Node pos="l" depth="2" NCoef="0" IVar="-1" Cut="0.0000000000000000e+00" cType="1" res="-2.8046020306646824e-03" rms="3.4063196182250977e-01" purity="1.6321872174739838e-01" nType="-99"/>
          <Node pos="r" depth="2" NCoef="0" IVar="-1" Cut="0.0000000000000000e+00" cType="1" res="2.9365313821472228e-04" rms="4.5605692267417908e-01" purity="5.1611465215682983e-01" nType="-99"/>
        </Node>
      </Node>
    </BinaryTree>
    <BinaryTree type="DecisionTree" boostWeight="1.0000000000000000e+00" itree="650">
      <Node pos="s" depth="0" NCoef="0" IVar="3" Cut="2.4982151985168457e+00" cType="1" res="4.4810768216848373e-02" rms="4.3502506613731384e-01" purity="4.8201772570610046e-01" nType="0">
        <Node pos="l" depth="1" NCoef="0" IVar="5" Cut="1.7174735069274902e+00" cType="1" res="6.4033977687358856e-02" rms="4.5900970697402954e-01" purity="5.5448698997497559e-01" nType="0">
          <Node pos="l" depth="2" NCoef="0" IVar="-1" Cut="0.0000000000000000e+00" cType="1" res="5.3449108963832259e-04" rms="4.6003431081771851e-01" purity="5.7240921258926392e-01" nType="-99"/>
          <Node pos="r" depth="2" NCoef="0" IVar="-1" Cut="0.0000000000000000e+00" cType="1" res="-9.0716598788276315e-04" rms="4.1838327050209045e-01" purity="3.5117223858833313e-01" nType="-99"/>
        </Node>
        <Node pos="r" depth="1" NCoef="0" IVar="3" Cut="2.9247815608978271e+00" cType="1" res="-7.2800442576408386e-02" rms="2.0484292507171631e-01" purity="3.8636866956949234e-02" nType="0">
          <Node pos="l" depth="2" NCoef="0" IVar="-1" Cut="0.0000000000000000e+00" cType="1" res="-1.6559535637497902e-02" rms="7.9908467829227448e-02" purity="0.0000000000000000e+00" nType="-99"/>
          <Node pos="r" depth="2" NCoef="0" IVar="-1" Cut="0.0000000000000000e+00" cType="1" res="-1.4383821981027722e-03" rms="2.4012374877929688e-01" purity="6.3742108643054962e-02" nType="-99"/>
        </Node>
      </Node>
    </BinaryTree>
    <BinaryTree type="DecisionTree" boostWeight="1.0000000000000000e+00" itree="651">
      <Node pos="s" depth="0" NCoef="0" IVar="6" Cut="4.6101473999023438e+02" cType="1" res="7.3295906186103821e-02" rms="4.2918908596038818e-01" purity="5.2767342329025269e-01" nType="0">
        <Node pos="l" depth="1" NCoef="0" IVar="5" Cut="1.6695005893707275e+00" cType="1" res="4.3914195150136948e-02" rms="4.3368682265281677e-01" purity="4.5885911583900452e-01" nType="0">
          <Node pos="l" depth="2" NCoef="0" IVar="-1" Cut="0.0000000000000000e+00" cType="1" res="5.2164128283038735e-04" rms="4.3666800856590271e-01" purity="4.7954019904136658e-01" nType="-99"/>
          <Node pos="r" depth="2" NCoef="0" IVar="-1" Cut="0.0000000000000000e+00" cType="1" res="-2.0870130974799395e-03" rms="3.4939539432525635e-01" purity="2.4967867136001587e-01" nType="-99"/>
        </Node>
        <Node pos="r" depth="1" NCoef="0" IVar="2" Cut="3.5481842041015625e+02" cType="1" res="1.6861605644226074e-01" rms="3.9965739846229553e-01" purity="7.5092101097106934e-01" nType="0">
          <Node pos="l" depth="2" NCoef="0" IVar="-1" Cut="0.0000000000000000e+00" cType="1" res="1.1880205711349845e-03" rms="3.6148536205291748e-01" purity="8.4557539224624634e-01" nType="-99"/>
          <Node pos="r" depth="2" NCoef="0" IVar="-1" Cut="0.0000000000000000e+00" cType="1" res="4.4160686229588464e-05" rms="4.4545587897300720e-01" purity="5.0424849987030029e-01" nType="-99"/>
        </Node>
      </Node>
    </BinaryTree>
    <BinaryTree type="DecisionTree" boostWeight="1.0000000000000000e+00" itree="652">
      <Node pos="s" depth="0" NCoef="0" IVar="1" Cut="1.0551970672607422e+02" cType="1" res="4.8420544713735580e-02" rms="4.2947265505790710e-01" purity="4.8532101511955261e-01" nType="0">
        <Node pos="l" depth="1" NCoef="0" IVar="3" Cut="1.5789545774459839e+00" cType="1" res="-7.7833537943661213e-03" rms="4.1120931506156921e-01" purity="4.1212832927703857e-01" nType="0">
          <Node pos="l" depth="2" NCoef="0" IVar="-1" Cut="0.0000000000000000e+00" cType="1" res="3.4578287159092724e-04" rms="4.4450819492340088e-01" purity="5.5164450407028198e-01" nType="-99"/>
          <Node pos="r" depth="2" NCoef="0" IVar="-1" Cut="0.0000000000000000e+00" cType="1" res="-2.9810117557644844e-03" rms="3.0331146717071533e-01" purity="1.3164612650871277e-01" nType="-99"/>
        </Node>
        <Node pos="r" depth="1" NCoef="0" IVar="4" Cut="6.9276583194732666e-01" cType="1" res="1.2734881043434143e-01" rms="4.4197565317153931e-01" purity="5.8810687065124512e-01" nType="0">
          <Node pos="l" depth="2" NCoef="0" IVar="-1" Cut="0.0000000000000000e+00" cType="1" res="1.1506446171551943e-03" rms="4.3584042787551880e-01" purity="6.5655559301376343e-01" nType="-99"/>
          <Node pos="r" depth="2" NCoef="0" IVar="-1" Cut="0.0000000000000000e+00" cType="1" res="2.8401438612490892e-04" rms="4.3795904517173767e-01" purity="4.5359161496162415e-01" nType="-99"/>
        </Node>
      </Node>
    </BinaryTree>
    <BinaryTree type="DecisionTree" boostWeight="1.0000000000000000e+00" itree="653">
      <Node pos="s" depth="0" NCoef="0" IVar="5" Cut="8.7550330162048340e-01" cType="1" res="4.0770143270492554e-02" rms="4.4650101661682129e-01" purity="4.6741083264350891e-01" nType="0">
        <Node pos="l" depth="1" NCoef="0" IVar="6" Cut="2.7524261474609375e+02" cType="1" res="1.7379440367221832e-01" rms="4.8285749554634094e-01" purity="5.1085710525512695e-01" nType="0">
          <Node pos="l" depth="2" NCoef="0" IVar="-1" Cut="0.0000000000000000e+00" cType="1" res="2.6321553159505129e-03" rms="4.6960744261741638e-01" purity="5.3214538097381592e-01" nType="-99"/>
          <Node pos="r" depth="2" NCoef="0" IVar="-1" Cut="0.0000000000000000e+00" cType="1" res="9.0045650722458959e-04" rms="4.7493463754653931e-01" purity="5.0031334161758423e-01" nType="-99"/>
        </Node>
        <Node pos="r" depth="1" NCoef="0" IVar="3" Cut="1.1242473125457764e+00" cType="1" res="1.3140741735696793e-02" rms="4.3348187208175659e-01" purity="4.5838692784309387e-01" nType="0">
          <Node pos="l" depth="2" NCoef="0" IVar="-1" Cut="0.0000000000000000e+00" cType="1" res="5.9737730771303177e-04" rms="4.3562859296798706e-01" purity="6.5690380334854126e-01" nType="-99"/>
          <Node pos="r" depth="2" NCoef="0" IVar="-1" Cut="0.0000000000000000e+00" cType="1" res="-5.1160046132281423e-04" rms="4.2258316278457642e-01" purity="3.2762524485588074e-01" nType="-99"/>
        </Node>
      </Node>
    </BinaryTree>
    <BinaryTree type="DecisionTree" boostWeight="1.0000000000000000e+00" itree="654">
      <Node pos="s" depth="0" NCoef="0" IVar="7" Cut="2.3083662986755371e+00" cType="1" res="7.6812557876110077e-02" rms="4.3821275234222412e-01" purity="5.1403182744979858e-01" nType="0">
        <Node pos="l" depth="1" NCoef="0" IVar="8" Cut="7.9671585083007812e+01" cType="1" res="8.9174427092075348e-02" rms="4.4689851999282837e-01" purity="5.4402256011962891e-01" nType="0">
          <Node pos="l" depth="2" NCoef="0" IVar="-1" Cut="0.0000000000000000e+00" cType="1" res="-2.8406644705682993e-03" rms="3.5264673829078674e-01" purity="1.4106065034866333e-01" nType="-99"/>
          <Node pos="r" depth="2" NCoef="0" IVar="-1" Cut="0.0000000000000000e+00" cType="1" res="7.2637281846255064e-04" rms="4.4866219162940979e-01" purity="5.6666284799575806e-01" nType="-99"/>
        </Node>
        <Node pos="r" depth="1" NCoef="0" IVar="-1" Cut="0.0000000000000000e+00" cType="1" res="-4.6927677467465401e-03" rms="1.9461062550544739e-01" purity="5.8960512280464172e-02" nType="-99"/>
      </Node>
    </BinaryTree>
    <BinaryTree type="DecisionTree" boostWeight="1.0000000000000000e+00" itree="655">
      <Node pos="s" depth="0" NCoef="0" IVar="8" Cut="1.4052983093261719e+02" cType="1" res="8.1953428685665131e-02" rms="4.4411849975585938e-01" purity="5.2174800634384155e-01" nType="0">
        <Node pos="l" depth="1" NCoef="0" IVar="8" Cut="8.6133766174316406e+01" cType="1" res="1.0903937369585037e-01" rms="4.4270023703575134e-01" purity="5.5827891826629639e-01" nType="0">
          <Node pos="l" depth="2" NCoef="0" IVar="-1" Cut="0.0000000000000000e+00" cType="1" res="-7.2485668351873755e-04" rms="3.7877908349037170e-01" purity="2.6785665750503540e-01" nType="-99"/>
          <Node pos="r" depth="2" NCoef="0" IVar="-1" Cut="0.0000000000000000e+00" cType="1" res="8.7812711717560887e-04" rms="4.4568100571632385e-01" purity="5.9108453989028931e-01" nType="-99"/>
        </Node>
        <Node pos="r" depth="1" NCoef="0" IVar="8" Cut="1.8131114196777344e+02" cType="1" res="-1.1185933835804462e-02" rms="4.3631231784820557e-01" purity="3.9613071084022522e-01" nType="0">
          <Node pos="l" depth="2" NCoef="0" IVar="-1" Cut="0.0000000000000000e+00" cType="1" res="-1.9878405146300793e-03" rms="3.8253471255302429e-01" purity="2.6940944790840149e-01" nType="-99"/>
          <Node pos="r" depth="2" NCoef="0" IVar="-1" Cut="0.0000000000000000e+00" cType="1" res="1.2867355253547430e-03" rms="4.3918266892433167e-01" purity="5.9093379974365234e-01" nType="-99"/>
        </Node>
      </Node>
    </BinaryTree>
    <BinaryTree type="DecisionTree" boostWeight="1.0000000000000000e+00" itree="656">
      <Node pos="s" depth="0" NCoef="0" IVar="6" Cut="2.9461032104492188e+02" cType="1" res="5.4129902273416519e-02" rms="4.2715144157409668e-01" purity="5.0936895608901978e-01" nType="0">
        <Node pos="l" depth="1" NCoef="0" IVar="3" Cut="7.9925405979156494e-01" cType="1" res="-6.1423018574714661e-02" rms="3.7961342930793762e-01" purity="2.2662314772605896e-01" nType="0">
          <Node pos="l" depth="2" NCoef="0" IVar="-1" Cut="0.0000000000000000e+00" cType="1" res="1.1626343475654721e-03" rms="4.4560763239860535e-01" purity="5.6784707307815552e-01" nType="-99"/>
          <Node pos="r" depth="2" NCoef="0" IVar="-1" Cut="0.0000000000000000e+00" cType="1" res="-2.7994362171739340e-03" rms="3.3412539958953857e-01" purity="1.4042989909648895e-01" nType="-99"/>
        </Node>
        <Node pos="r" depth="1" NCoef="0" IVar="1" Cut="6.5630310058593750e+01" cType="1" res="9.7140826284885406e-02" rms="4.3579089641571045e-01" purity="6.1461216211318970e-01" nType="0">
          <Node pos="l" depth="2" NCoef="0" IVar="-1" Cut="0.0000000000000000e+00" cType="1" res="-2.3309982498176396e-04" rms="4.5072275400161743e-01" purity="4.2050984501838684e-01" nType="-99"/>
          <Node pos="r" depth="2" NCoef="0" IVar="-1" Cut="0.0000000000000000e+00" cType="1" res="8.1588391913101077e-04" rms="4.2651230096817017e-01" purity="6.6296869516372681e-01" nType="-99"/>
        </Node>
      </Node>
    </BinaryTree>
    <BinaryTree type="DecisionTree" boostWeight="1.0000000000000000e+00" itree="657">
      <Node pos="s" depth="0" NCoef="0" IVar="5" Cut="1.1895059347152710e+00" cType="1" res="6.2414787709712982e-02" rms="4.3709605932235718e-01" purity="4.9959427118301392e-01" nType="0">
        <Node pos="l" depth="1" NCoef="0" IVar="3" Cut="1.0344944000244141e+00" cType="1" res="1.2400118634104729e-02" rms="4.2347308993339539e-01" purity="4.2137876152992249e-01" nType="0">
          <Node pos="l" depth="2" NCoef="0" IVar="-1" Cut="0.0000000000000000e+00" cType="1" res="-1.1459140805527568e-03" rms="4.2303815484046936e-01" purity="4.5047184824943542e-01" nType="-99"/>
          <Node pos="r" depth="2" NCoef="0" IVar="-1" Cut="0.0000000000000000e+00" cType="1" res="3.4317400422878563e-04" rms="4.1886666417121887e-01" purity="4.1602373123168945e-01" nType="-99"/>
        </Node>
        <Node pos="r" depth="1" NCoef="0" IVar="1" Cut="4.6449954986572266e+01" cType="1" res="1.0138029605150223e-01" rms="4.4353058934211731e-01" purity="5.6053060293197632e-01" nType="0">
          <Node pos="l" depth="2" NCoef="0" IVar="-1" Cut="0.0000000000000000e+00" cType="1" res="-7.1145332185551524e-04" rms="3.5058391094207764e-01" purity="2.7405694127082825e-01" nType="-99"/>
          <Node pos="r" depth="2" NCoef="0" IVar="-1" Cut="0.0000000000000000e+00" cType="1" res="8.8553561363369226e-04" rms="4.5255669951438904e-01" purity="6.1178731918334961e-01" nType="-99"/>
        </Node>
      </Node>
    </BinaryTree>
    <BinaryTree type="DecisionTree" boostWeight="1.0000000000000000e+00" itree="658">
      <Node pos="s" depth="0" NCoef="0" IVar="0" Cut="9.6968680620193481e-01" cType="1" res="7.1732461452484131e-02" rms="4.3708452582359314e-01" purity="5.1888912916183472e-01" nType="0">
        <Node pos="l" depth="1" NCoef="0" IVar="8" Cut="1.5826330566406250e+02" cType="1" res="2.0155293866991997e-02" rms="4.3743920326232910e-01" purity="4.0466448664665222e-01" nType="0">
          <Node pos="l" depth="2" NCoef="0" IVar="-1" Cut="0.0000000000000000e+00" cType="1" res="3.5037749330513179e-04" rms="4.3657338619232178e-01" purity="4.3431457877159119e-01" nType="-99"/>
          <Node pos="r" depth="2" NCoef="0" IVar="-1" Cut="0.0000000000000000e+00" cType="1" res="-3.2325785141438246e-03" rms="4.1726732254028320e-01" purity="1.6622248291969299e-01" nType="-99"/>
        </Node>
        <Node pos="r" depth="1" NCoef="0" IVar="7" Cut="1.1444067955017090e+00" cType="1" res="1.6262137889862061e-01" rms="4.2136409878730774e-01" purity="7.2017508745193481e-01" nType="0">
          <Node pos="l" depth="2" NCoef="0" IVar="-1" Cut="0.0000000000000000e+00" cType="1" res="1.2226002290844917e-03" rms="4.0493401885032654e-01" purity="7.7003288269042969e-01" nType="-99"/>
          <Node pos="r" depth="2" NCoef="0" IVar="-1" Cut="0.0000000000000000e+00" cType="1" res="7.1637256769463420e-04" rms="4.2643591761589050e-01" purity="6.8781208992004395e-01" nType="-99"/>
        </Node>
      </Node>
    </BinaryTree>
    <BinaryTree type="DecisionTree" boostWeight="1.0000000000000000e+00" itree="659">
      <Node pos="s" depth="0" NCoef="0" IVar="0" Cut="9.7067636251449585e-01" cType="1" res="6.3903570175170898e-02" rms="4.3260166049003601e-01" purity="5.1206773519515991e-01" nType="0">
        <Node pos="l" depth="1" NCoef="0" IVar="5" Cut="1.1859796047210693e+00" cType="1" res="2.5825092568993568e-02" rms="4.3891111016273499e-01" purity="4.0571388602256775e-01" nType="0">
          <Node pos="l" depth="2" NCoef="0" IVar="-1" Cut="0.0000000000000000e+00" cType="1" res="-5.9361825697124004e-04" rms="4.2129987478256226e-01" purity="2.8275099396705627e-01" nType="-99"/>
          <Node pos="r" depth="2" NCoef="0" IVar="-1" Cut="0.0000000000000000e+00" cType="1" res="5.8050418738275766e-04" rms="4.4387713074684143e-01" purity="4.8570790886878967e-01" nType="-99"/>
        </Node>
        <Node pos="r" depth="1" NCoef="0" IVar="1" Cut="9.5158386230468750e+01" cType="1" res="1.3799539208412170e-01" rms="4.1004145145416260e-01" purity="7.1900737285614014e-01" nType="0">
          <Node pos="l" depth="2" NCoef="0" IVar="-1" Cut="0.0000000000000000e+00" cType="1" res="5.0432019634172320e-04" rms="4.3046793341636658e-01" purity="6.3303267955780029e-01" nType="-99"/>
          <Node pos="r" depth="2" NCoef="0" IVar="-1" Cut="0.0000000000000000e+00" cType="1" res="1.0547960409894586e-03" rms="3.8323357701301575e-01" purity="7.9523652791976929e-01" nType="-99"/>
        </Node>
      </Node>
    </BinaryTree>
    <BinaryTree type="DecisionTree" boostWeight="1.0000000000000000e+00" itree="660">
      <Node pos="s" depth="0" NCoef="0" IVar="6" Cut="3.1751293945312500e+02" cType="1" res="5.0776418298482895e-02" rms="4.2481034994125366e-01" purity="5.0277328491210938e-01" nType="0">
        <Node pos="l" depth="1" NCoef="0" IVar="5" Cut="1.3044942617416382e+00" cType="1" res="-4.0611713193356991e-03" rms="4.1154170036315918e-01" purity="3.3295392990112305e-01" nType="0">
          <Node pos="l" depth="2" NCoef="0" IVar="-1" Cut="0.0000000000000000e+00" cType="1" res="-1.5233779558911920e-03" rms="3.6949130892753601e-01" purity="1.9813604652881622e-01" nType="-99"/>
          <Node pos="r" depth="2" NCoef="0" IVar="-1" Cut="0.0000000000000000e+00" cType="1" res="7.4568012496456504e-04" rms="4.3403664231300354e-01" purity="4.7673738002777100e-01" nType="-99"/>
        </Node>
        <Node pos="r" depth="1" NCoef="0" IVar="3" Cut="2.4548027515411377e+00" cType="1" res="8.5954755544662476e-02" rms="4.2943698167800903e-01" purity="6.1171245574951172e-01" nType="0">
          <Node pos="l" depth="2" NCoef="0" IVar="-1" Cut="0.0000000000000000e+00" cType="1" res="6.5891473786905408e-04" rms="4.4245681166648865e-01" purity="6.8123650550842285e-01" nType="-99"/>
          <Node pos="r" depth="2" NCoef="0" IVar="-1" Cut="0.0000000000000000e+00" cType="1" res="-5.5986843071877956e-03" rms="2.3999805748462677e-01" purity="5.5592101067304611e-02" nType="-99"/>
        </Node>
      </Node>
    </BinaryTree>
    <BinaryTree type="DecisionTree" boostWeight="1.0000000000000000e+00" itree="661">
      <Node pos="s" depth="0" NCoef="0" IVar="0" Cut="9.0503299236297607e-01" cType="1" res="7.0494167506694794e-02" rms="4.4704127311706543e-01" purity="4.9244999885559082e-01" nType="0">
        <Node pos="l" depth="1" NCoef="0" IVar="-1" Cut="0.0000000000000000e+00" cType="1" res="2.6024628896266222e-03" rms="4.6978488564491272e-01" purity="5.9545320272445679e-01" nType="-99"/>
        <Node pos="r" depth="1" NCoef="0" IVar="7" Cut="6.6436827182769775e-01" cType="1" res="5.0482433289289474e-02" rms="4.3885111808776855e-01" purity="4.8462396860122681e-01" nType="0">
          <Node pos="l" depth="2" NCoef="0" IVar="-1" Cut="0.0000000000000000e+00" cType="1" res="1.4312232378870249e-03" rms="4.3542131781578064e-01" purity="6.0746538639068604e-01" nType="-99"/>
          <Node pos="r" depth="2" NCoef="0" IVar="-1" Cut="0.0000000000000000e+00" cType="1" res="2.2851246467325836e-04" rms="4.3386548757553101e-01" purity="4.6697437763214111e-01" nType="-99"/>
        </Node>
      </Node>
    </BinaryTree>
    <BinaryTree type="DecisionTree" boostWeight="1.0000000000000000e+00" itree="662">
      <Node pos="s" depth="0" NCoef="0" IVar="3" Cut="7.3552596569061279e-01" cType="1" res="4.7314431518316269e-02" rms="4.3376034498214722e-01" purity="4.7958531975746155e-01" nType="0">
        <Node pos="l" depth="1" NCoef="0" IVar="4" Cut="6.8473124504089355e-01" cType="1" res="1.3987544178962708e-01" rms="4.2368194460868835e-01" purity="6.8575233221054077e-01" nType="0">
          <Node pos="l" depth="2" NCoef="0" IVar="-1" Cut="0.0000000000000000e+00" cType="1" res="4.3483418994583189e-04" rms="4.0469279885292053e-01" purity="6.3767361640930176e-01" nType="-99"/>
          <Node pos="r" depth="2" NCoef="0" IVar="-1" Cut="0.0000000000000000e+00" cType="1" res="1.1532942298799753e-03" rms="4.2894273996353149e-01" purity="7.3533177375793457e-01" nType="-99"/>
        </Node>
        <Node pos="r" depth="1" NCoef="0" IVar="5" Cut="1.5291790962219238e+00" cType="1" res="2.7079762890934944e-02" rms="4.3330681324005127e-01" purity="4.3451535701751709e-01" nType="0">
          <Node pos="l" depth="2" NCoef="0" IVar="-1" Cut="0.0000000000000000e+00" cType="1" res="3.4218595828860998e-05" rms="4.2094087600708008e-01" purity="4.0780982375144958e-01" nType="-99"/>
          <Node pos="r" depth="2" NCoef="0" IVar="-1" Cut="0.0000000000000000e+00" cType="1" res="7.9943228047341108e-04" rms="4.6307426691055298e-01" purity="5.2101910114288330e-01" nType="-99"/>
        </Node>
      </Node>
    </BinaryTree>
    <BinaryTree type="DecisionTree" boostWeight="1.0000000000000000e+00" itree="663">
      <Node pos="s" depth="0" NCoef="0" IVar="0" Cut="9.7023195028305054e-01" cType="1" res="5.8975372463464737e-02" rms="4.2930874228477478e-01" purity="5.1016885042190552e-01" nType="0">
        <Node pos="l" depth="1" NCoef="0" IVar="7" Cut="1.0000736713409424e+00" cType="1" res="2.1215002983808517e-02" rms="4.3553286790847778e-01" purity="4.1005280613899231e-01" nType="0">
          <Node pos="l" depth="2" NCoef="0" IVar="-1" Cut="0.0000000000000000e+00" cType="1" res="8.6949061369523406e-04" rms="4.1882088780403137e-01" purity="5.3478074073791504e-01" nType="-99"/>
          <Node pos="r" depth="2" NCoef="0" IVar="-1" Cut="0.0000000000000000e+00" cType="1" res="-3.2576426747255027e-04" rms="4.3531483411788940e-01" purity="3.4719616174697876e-01" nType="-99"/>
        </Node>
        <Node pos="r" depth="1" NCoef="0" IVar="5" Cut="1.0358251333236694e+00" cType="1" res="1.3673122227191925e-01" rms="4.0526482462882996e-01" purity="7.1632707118988037e-01" nType="0">
          <Node pos="l" depth="2" NCoef="0" IVar="-1" Cut="0.0000000000000000e+00" cType="1" res="-5.3925695829093456e-04" rms="4.6156758069992065e-01" purity="4.6898758411407471e-01" nType="-99"/>
          <Node pos="r" depth="2" NCoef="0" IVar="-1" Cut="0.0000000000000000e+00" cType="1" res="1.0080500505864620e-03" rms="3.6969795823097229e-01" purity="7.8524237871170044e-01" nType="-99"/>
        </Node>
      </Node>
    </BinaryTree>
    <BinaryTree type="DecisionTree" boostWeight="1.0000000000000000e+00" itree="664">
      <Node pos="s" depth="0" NCoef="0" IVar="6" Cut="3.4978118896484375e+02" cType="1" res="5.2178166806697845e-02" rms="4.2623123526573181e-01" purity="5.0358492136001587e-01" nType="0">
        <Node pos="l" depth="1" NCoef="0" IVar="2" Cut="1.8029452514648438e+02" cType="1" res="5.2387877367436886e-03" rms="4.3134453892707825e-01" purity="3.5967034101486206e-01" nType="0">
          <Node pos="l" depth="2" NCoef="0" IVar="-1" Cut="0.0000000000000000e+00" cType="1" res="4.1503598913550377e-04" rms="4.5510464906692505e-01" purity="4.3808475136756897e-01" nType="-99"/>
          <Node pos="r" depth="2" NCoef="0" IVar="-1" Cut="0.0000000000000000e+00" cType="1" res="-1.8843861762434244e-03" rms="3.5563081502914429e-01" purity="1.8597967922687531e-01" nType="-99"/>
        </Node>
        <Node pos="r" depth="1" NCoef="0" IVar="0" Cut="9.6731120347976685e-01" cType="1" res="1.0026691108942032e-01" rms="4.1546466946601868e-01" purity="6.5102332830429077e-01" nType="0">
          <Node pos="l" depth="2" NCoef="0" IVar="-1" Cut="0.0000000000000000e+00" cType="1" res="3.8780481554567814e-04" rms="4.4969689846038818e-01" purity="5.3464066982269287e-01" nType="-99"/>
          <Node pos="r" depth="2" NCoef="0" IVar="-1" Cut="0.0000000000000000e+00" cType="1" res="8.9316425146535039e-04" rms="3.5730814933776855e-01" purity="8.0116200447082520e-01" nType="-99"/>
        </Node>
      </Node>
    </BinaryTree>
    <BinaryTree type="DecisionTree" boostWeight="1.0000000000000000e+00" itree="665">
      <Node pos="s" depth="0" NCoef="0" IVar="1" Cut="4.1777145385742188e+01" cType="1" res="6.1063993722200394e-02" rms="4.4784608483314514e-01" purity="4.9307492375373840e-01" nType="0">
        <Node pos="l" depth="1" NCoef="0" IVar="-1" Cut="0.0000000000000000e+00" cType="1" res="-2.6194362435489893e-03" rms="3.3535051345825195e-01" purity="1.6181403398513794e-01" nType="-99"/>
        <Node pos="r" depth="1" NCoef="0" IVar="8" Cut="8.7742630004882812e+01" cType="1" res="7.8487835824489594e-02" rms="4.5366740226745605e-01" purity="5.2558004856109619e-01" nType="0">
          <Node pos="l" depth="2" NCoef="0" IVar="-1" Cut="0.0000000000000000e+00" cType="1" res="-3.2691815868020058e-03" rms="3.3236005902290344e-01" purity="1.3748049736022949e-01" nType="-99"/>
          <Node pos="r" depth="2" NCoef="0" IVar="-1" Cut="0.0000000000000000e+00" cType="1" res="6.9535191869363189e-04" rms="4.5641314983367920e-01" purity="5.5049675703048706e-01" nType="-99"/>
        </Node>
      </Node>
    </BinaryTree>
    <BinaryTree type="DecisionTree" boostWeight="1.0000000000000000e+00" itree="666">
      <Node pos="s" depth="0" NCoef="0" IVar="4" Cut="8.0340582132339478e-01" cType="1" res="5.7791117578744888e-02" rms="4.2823889851570129e-01" purity="5.1102370023727417e-01" nType="0">
        <Node pos="l" depth="1" NCoef="0" IVar="8" Cut="1.3686831665039062e+02" cType="1" res="7.3592051863670349e-02" rms="4.3343928456306458e-01" purity="5.3820973634719849e-01" nType="0">
          <Node pos="l" depth="2" NCoef="0" IVar="-1" Cut="0.0000000000000000e+00" cType="1" res="7.3378824163228273e-04" rms="4.3386089801788330e-01" purity="5.8385139703750610e-01" nType="-99"/>
          <Node pos="r" depth="2" NCoef="0" IVar="-1" Cut="0.0000000000000000e+00" cType="1" res="-2.2539828205481172e-04" rms="4.1781985759735107e-01" purity="3.9292401075363159e-01" nType="-99"/>
        </Node>
        <Node pos="r" depth="1" NCoef="0" IVar="-1" Cut="0.0000000000000000e+00" cType="1" res="-2.5989788118749857e-03" rms="2.9404935240745544e-01" purity="1.7423258721828461e-01" nType="-99"/>
      </Node>
    </BinaryTree>
    <BinaryTree type="DecisionTree" boostWeight="1.0000000000000000e+00" itree="667">
      <Node pos="s" depth="0" NCoef="0" IVar="3" Cut="2.1591563224792480e+00" cType="1" res="9.4552889466285706e-02" rms="4.6285983920097351e-01" purity="5.1768100261688232e-01" nType="0">
        <Node pos="l" depth="1" NCoef="0" IVar="7" Cut="1.2873408794403076e+00" cType="1" res="6.4689077436923981e-02" rms="4.6314835548400879e-01" purity="5.7188510894775391e-01" nType="0">
          <Node pos="l" depth="2" NCoef="0" IVar="-1" Cut="0.0000000000000000e+00" cType="1" res="8.6937792366370559e-04" rms="4.5314124226570129e-01" purity="6.0644406080245972e-01" nType="-99"/>
          <Node pos="r" depth="2" NCoef="0" IVar="-1" Cut="0.0000000000000000e+00" cType="1" res="-1.3004992797505111e-04" rms="4.6277007460594177e-01" purity="5.2796542644500732e-01" nType="-99"/>
        </Node>
        <Node pos="r" depth="1" NCoef="0" IVar="5" Cut="1.4416692256927490e+00" cType="1" res="1.7386722564697266e-01" rms="4.5262598991394043e-01" purity="3.7372225522994995e-01" nType="0">
          <Node pos="l" depth="2" NCoef="0" IVar="-1" Cut="0.0000000000000000e+00" cType="1" res="1.6564128454774618e-03" rms="4.2883944511413574e-01" purity="2.9756152629852295e-01" nType="-99"/>
          <Node pos="r" depth="2" NCoef="0" IVar="-1" Cut="0.0000000000000000e+00" cType="1" res="3.2098642550408840e-03" rms="4.6734216809272766e-01" purity="5.7057416439056396e-01" nType="-99"/>
        </Node>
      </Node>
    </BinaryTree>
    <BinaryTree type="DecisionTree" boostWeight="1.0000000000000000e+00" itree="668">
      <Node pos="s" depth="0" NCoef="0" IVar="1" Cut="3.9634468078613281e+01" cType="1" res="6.5029621124267578e-02" rms="4.2096787691116333e-01" purity="5.2498155832290649e-01" nType="0">
        <Node pos="l" depth="1" NCoef="0" IVar="-1" Cut="0.0000000000000000e+00" cType="1" res="-3.2862699590623379e-03" rms="3.3965662121772766e-01" purity="1.4309643208980560e-01" nType="-99"/>
        <Node pos="r" depth="1" NCoef="0" IVar="4" Cut="7.4830132722854614e-01" cType="1" res="8.0770693719387054e-02" rms="4.2347022891044617e-01" purity="5.5751699209213257e-01" nType="0">
          <Node pos="l" depth="2" NCoef="0" IVar="-1" Cut="0.0000000000000000e+00" cType="1" res="7.1047322126105428e-04" rms="4.1405755281448364e-01" purity="6.1215037107467651e-01" nType="-99"/>
          <Node pos="r" depth="2" NCoef="0" IVar="-1" Cut="0.0000000000000000e+00" cType="1" res="-6.9326511584222317e-04" rms="4.4379571080207825e-01" purity="2.9624977707862854e-01" nType="-99"/>
        </Node>
      </Node>
    </BinaryTree>
    <BinaryTree type="DecisionTree" boostWeight="1.0000000000000000e+00" itree="669">
      <Node pos="s" depth="0" NCoef="0" IVar="5" Cut="1.7753411531448364e+00" cType="1" res="8.5078783333301544e-02" rms="4.3231445550918579e-01" purity="5.3157693147659302e-01" nType="0">
        <Node pos="l" depth="1" NCoef="0" IVar="2" Cut="1.0555147552490234e+02" cType="1" res="9.8322808742523193e-02" rms="4.3140137195587158e-01" purity="5.4731726646423340e-01" nType="0">
          <Node pos="l" depth="2" NCoef="0" IVar="-1" Cut="0.0000000000000000e+00" cType="1" res="-1.3516906183212996e-03" rms="3.8473844528198242e-01" purity="2.2537724673748016e-01" nType="-99"/>
          <Node pos="r" depth="2" NCoef="0" IVar="-1" Cut="0.0000000000000000e+00" cType="1" res="8.0931070260703564e-04" rms="4.3187561631202698e-01" purity="5.7405066490173340e-01" nType="-99"/>
        </Node>
        <Node pos="r" depth="1" NCoef="0" IVar="-1" Cut="0.0000000000000000e+00" cType="1" res="-2.3826139513403177e-03" rms="3.7764084339141846e-01" purity="2.5245341658592224e-01" nType="-99"/>
      </Node>
    </BinaryTree>
    <BinaryTree type="DecisionTree" boostWeight="1.0000000000000000e+00" itree="670">
      <Node pos="s" depth="0" NCoef="0" IVar="5" Cut="1.4789792299270630e+00" cType="1" res="4.7279939055442810e-02" rms="4.3425977230072021e-01" purity="4.8264983296394348e-01" nType="0">
        <Node pos="l" depth="1" NCoef="0" IVar="8" Cut="1.0240885925292969e+02" cType="1" res="1.2538511306047440e-02" rms="4.2036795616149902e-01" purity="4.4225543737411499e-01" nType="0">
          <Node pos="l" depth="2" NCoef="0" IVar="-1" Cut="0.0000000000000000e+00" cType="1" res="-3.1819930300116539e-03" rms="3.4223610162734985e-01" purity="1.5705168247222900e-01" nType="-99"/>
          <Node pos="r" depth="2" NCoef="0" IVar="-1" Cut="0.0000000000000000e+00" cType="1" res="3.2660755096003413e-04" rms="4.2703711986541748e-01" purity="4.9372950196266174e-01" nType="-99"/>
        </Node>
        <Node pos="r" depth="1" NCoef="0" IVar="2" Cut="2.3055191040039062e+02" cType="1" res="1.2646816670894623e-01" rms="4.5455583930015564e-01" purity="5.7472318410873413e-01" nType="0">
          <Node pos="l" depth="2" NCoef="0" IVar="-1" Cut="0.0000000000000000e+00" cType="1" res="1.1341039789840579e-03" rms="4.5797348022460938e-01" purity="6.0581529140472412e-01" nType="-99"/>
          <Node pos="r" depth="2" NCoef="0" IVar="-1" Cut="0.0000000000000000e+00" cType="1" res="-1.7319498510914855e-05" rms="4.1853103041648865e-01" purity="4.7913560271263123e-01" nType="-99"/>
        </Node>
      </Node>
    </BinaryTree>
    <BinaryTree type="DecisionTree" boostWeight="1.0000000000000000e+00" itree="671">
      <Node pos="s" depth="0" NCoef="0" IVar="6" Cut="3.3406448364257812e+02" cType="1" res="5.8733090758323669e-02" rms="4.3157589435577393e-01" purity="5.0016009807586670e-01" nType="0">
        <Node pos="l" depth="1" NCoef="0" IVar="4" Cut="7.0916354656219482e-01" cType="1" res="-2.4452192708849907e-02" rms="4.0525841712951660e-01" purity="3.0989024043083191e-01" nType="0">
          <Node pos="l" depth="2" NCoef="0" IVar="-1" Cut="0.0000000000000000e+00" cType="1" res="2.4163226771634072e-04" rms="4.3371880054473877e-01" purity="3.8269522786140442e-01" nType="-99"/>
          <Node pos="r" depth="2" NCoef="0" IVar="-1" Cut="0.0000000000000000e+00" cType="1" res="-3.4370946232229471e-03" rms="2.8543683886528015e-01" purity="1.2477886676788330e-01" nType="-99"/>
        </Node>
        <Node pos="r" depth="1" NCoef="0" IVar="3" Cut="2.2765231132507324e+00" cType="1" res="1.2671999633312225e-01" rms="4.4043117761611938e-01" purity="6.5566664934158325e-01" nType="0">
          <Node pos="l" depth="2" NCoef="0" IVar="-1" Cut="0.0000000000000000e+00" cType="1" res="5.0533103058114648e-04" rms="4.2498132586479187e-01" purity="6.9400632381439209e-01" nType="-99"/>
          <Node pos="r" depth="2" NCoef="0" IVar="-1" Cut="0.0000000000000000e+00" cType="1" res="2.4400989059358835e-03" rms="4.6451029181480408e-01" purity="5.0452065467834473e-01" nType="-99"/>
        </Node>
      </Node>
    </BinaryTree>
    <BinaryTree type="DecisionTree" boostWeight="1.0000000000000000e+00" itree="672">
      <Node pos="s" depth="0" NCoef="0" IVar="5" Cut="1.3421468734741211e+00" cType="1" res="4.8983439803123474e-02" rms="4.3027165532112122e-01" purity="4.9774053692817688e-01" nType="0">
        <Node pos="l" depth="1" NCoef="0" IVar="6" Cut="3.9678463745117188e+02" cType="1" res="-2.8490377590060234e-03" rms="4.0968924760818481e-01" purity="4.3183138966560364e-01" nType="0">
          <Node pos="l" depth="2" NCoef="0" IVar="-1" Cut="0.0000000000000000e+00" cType="1" res="-8.6791731882840395e-04" rms="3.9472943544387817e-01" purity="2.9410436749458313e-01" nType="-99"/>
          <Node pos="r" depth="2" NCoef="0" IVar="-1" Cut="0.0000000000000000e+00" cType="1" res="6.5675820223987103e-04" rms="4.1201928257942200e-01" purity="6.6305422782897949e-01" nType="-99"/>
        </Node>
        <Node pos="r" depth="1" NCoef="0" IVar="1" Cut="5.2260349273681641e+01" cType="1" res="1.1165486276149750e-01" rms="4.4593861699104309e-01" purity="5.7743233442306519e-01" nType="0">
          <Node pos="l" depth="2" NCoef="0" IVar="-1" Cut="0.0000000000000000e+00" cType="1" res="-4.7264885506592691e-04" rms="4.3671509623527527e-01" purity="2.9042232036590576e-01" nType="-99"/>
          <Node pos="r" depth="2" NCoef="0" IVar="-1" Cut="0.0000000000000000e+00" cType="1" res="9.4436202198266983e-04" rms="4.4057348370552063e-01" purity="6.5275490283966064e-01" nType="-99"/>
        </Node>
      </Node>
    </BinaryTree>
    <BinaryTree type="DecisionTree" boostWeight="1.0000000000000000e+00" itree="673">
      <Node pos="s" depth="0" NCoef="0" IVar="8" Cut="8.8437149047851562e+01" cType="1" res="8.2559876143932343e-02" rms="4.3753445148468018e-01" purity="5.1436513662338257e-01" nType="0">
        <Node pos="l" depth="1" NCoef="0" IVar="-1" Cut="0.0000000000000000e+00" cType="1" res="-1.3929626438766718e-03" rms="3.2587531208992004e-01" purity="2.1795976161956787e-01" nType="-99"/>
        <Node pos="r" depth="1" NCoef="0" IVar="6" Cut="2.4513618469238281e+02" cType="1" res="9.9291227757930756e-02" rms="4.4312891364097595e-01" purity="5.4266542196273804e-01" nType="0">
          <Node pos="l" depth="2" NCoef="0" IVar="-1" Cut="0.0000000000000000e+00" cType="1" res="1.9576433114707470e-03" rms="4.5200589299201965e-01" purity="4.8088020086288452e-01" nType="-99"/>
          <Node pos="r" depth="2" NCoef="0" IVar="-1" Cut="0.0000000000000000e+00" cType="1" res="5.5168248945847154e-04" rms="4.3735757470130920e-01" purity="5.5520367622375488e-01" nType="-99"/>
        </Node>
      </Node>
    </BinaryTree>
    <BinaryTree type="DecisionTree" boostWeight="1.0000000000000000e+00" itree="674">
      <Node pos="s" depth="0" NCoef="0" IVar="3" Cut="2.3275110721588135e+00" cType="1" res="9.4452165067195892e-02" rms="4.1597789525985718e-01" purity="5.5422532558441162e-01" nType="0">
        <Node pos="l" depth="1" NCoef="0" IVar="1" Cut="8.9743515014648438e+01" cType="1" res="1.2135352194309235e-01" rms="4.3126514554023743e-01" purity="6.3822323083877563e-01" nType="0">
          <Node pos="l" depth="2" NCoef="0" IVar="-1" Cut="0.0000000000000000e+00" cType="1" res="5.2954989951103926e-04" rms="4.4716483354568481e-01" purity="5.1899933815002441e-01" nType="-99"/>
          <Node pos="r" depth="2" NCoef="0" IVar="-1" Cut="0.0000000000000000e+00" cType="1" res="9.2188961571082473e-04" rms="4.0831574797630310e-01" purity="7.5862985849380493e-01" nType="-99"/>
        </Node>
        <Node pos="r" depth="1" NCoef="0" IVar="0" Cut="9.4765651226043701e-01" cType="1" res="-5.3678456693887711e-02" rms="2.7530068159103394e-01" purity="9.1696731746196747e-02" nType="0">
          <Node pos="l" depth="2" NCoef="0" IVar="-1" Cut="0.0000000000000000e+00" cType="1" res="4.8148992937058210e-04" rms="3.0831232666969299e-01" purity="1.3070948421955109e-01" nType="-99"/>
          <Node pos="r" depth="2" NCoef="0" IVar="-1" Cut="0.0000000000000000e+00" cType="1" res="-7.8658955171704292e-03" rms="1.9573737680912018e-01" purity="4.2671553790569305e-02" nType="-99"/>
        </Node>
      </Node>
    </BinaryTree>
    <BinaryTree type="DecisionTree" boostWeight="1.0000000000000000e+00" itree="675">
      <Node pos="s" depth="0" NCoef="0" IVar="1" Cut="9.2457504272460938e+01" cType="1" res="4.2802311480045319e-02" rms="4.3340700864791870e-01" purity="4.8238772153854370e-01" nType="0">
        <Node pos="l" depth="1" NCoef="0" IVar="8" Cut="1.3528434753417969e+02" cType="1" res="-1.6957767307758331e-02" rms="4.2397570610046387e-01" purity="3.7646183371543884e-01" nType="0">
          <Node pos="l" depth="2" NCoef="0" IVar="-1" Cut="0.0000000000000000e+00" cType="1" res="1.7468446458224207e-04" rms="4.2311304807662964e-01" purity="4.2330309748649597e-01" nType="-99"/>
          <Node pos="r" depth="2" NCoef="0" IVar="-1" Cut="0.0000000000000000e+00" cType="1" res="-2.9848341364413500e-03" rms="3.9769980311393738e-01" purity="1.9672025740146637e-01" nType="-99"/>
        </Node>
        <Node pos="r" depth="1" NCoef="0" IVar="2" Cut="2.7248208618164062e+02" cType="1" res="9.8739959299564362e-02" rms="4.3467092514038086e-01" purity="5.8153820037841797e-01" nType="0">
          <Node pos="l" depth="2" NCoef="0" IVar="-1" Cut="0.0000000000000000e+00" cType="1" res="9.6754275728017092e-04" rms="4.3780192732810974e-01" purity="6.7346167564392090e-01" nType="-99"/>
          <Node pos="r" depth="2" NCoef="0" IVar="-1" Cut="0.0000000000000000e+00" cType="1" res="-4.1396918823011220e-04" rms="3.9564186334609985e-01" purity="3.7715739011764526e-01" nType="-99"/>
        </Node>
      </Node>
    </BinaryTree>
    <BinaryTree type="DecisionTree" boostWeight="1.0000000000000000e+00" itree="676">
      <Node pos="s" depth="0" NCoef="0" IVar="2" Cut="1.1054964447021484e+02" cType="1" res="7.7897302806377411e-02" rms="4.5245495438575745e-01" purity="5.0200080871582031e-01" nType="0">
        <Node pos="l" depth="1" NCoef="0" IVar="5" Cut="1.4178485870361328e+00" cType="1" res="2.0234598219394684e-01" rms="4.4898259639739990e-01" purity="5.6789761781692505e-01" nType="0">
          <Node pos="l" depth="2" NCoef="0" IVar="-1" Cut="0.0000000000000000e+00" cType="1" res="1.7672007670626044e-03" rms="4.4891539216041565e-01" purity="6.4217561483383179e-01" nType="-99"/>
          <Node pos="r" depth="2" NCoef="0" IVar="-1" Cut="0.0000000000000000e+00" cType="1" res="7.6352874748408794e-04" rms="4.2445814609527588e-01" purity="4.4575625658035278e-01" nType="-99"/>
        </Node>
        <Node pos="r" depth="1" NCoef="0" IVar="7" Cut="7.1926510334014893e-01" cType="1" res="5.7421285659074783e-02" rms="4.4973659515380859e-01" purity="4.9115854501724243e-01" nType="0">
          <Node pos="l" depth="2" NCoef="0" IVar="-1" Cut="0.0000000000000000e+00" cType="1" res="1.1156296823173761e-03" rms="4.2604020237922668e-01" purity="5.8989906311035156e-01" nType="-99"/>
          <Node pos="r" depth="2" NCoef="0" IVar="-1" Cut="0.0000000000000000e+00" cType="1" res="3.3020364935509861e-04" rms="4.5090749859809875e-01" purity="4.7416451573371887e-01" nType="-99"/>
        </Node>
      </Node>
    </BinaryTree>
    <BinaryTree type="DecisionTree" boostWeight="1.0000000000000000e+00" itree="677">
      <Node pos="s" depth="0" NCoef="0" IVar="0" Cut="9.5673692226409912e-01" cType="1" res="4.2645938694477081e-02" rms="4.4447082281112671e-01" purity="4.8214870691299438e-01" nType="0">
        <Node pos="l" depth="1" NCoef="0" IVar="5" Cut="8.2518684864044189e-01" cType="1" res="-2.2637948393821716e-02" rms="4.2818194627761841e-01" purity="3.0127283930778503e-01" nType="0">
          <Node pos="l" depth="2" NCoef="0" IVar="-1" Cut="0.0000000000000000e+00" cType="1" res="1.7063413979485631e-03" rms="4.4398170709609985e-01" purity="4.6867543458938599e-01" nType="-99"/>
          <Node pos="r" depth="2" NCoef="0" IVar="-1" Cut="0.0000000000000000e+00" cType="1" res="-6.8194250343367457e-04" rms="4.1728138923645020e-01" purity="2.7899622917175293e-01" nType="-99"/>
        </Node>
        <Node pos="r" depth="1" NCoef="0" IVar="3" Cut="2.2576897144317627e+00" cType="1" res="9.8710328340530396e-02" rms="4.5050877332687378e-01" purity="6.3748103380203247e-01" nType="0">
          <Node pos="l" depth="2" NCoef="0" IVar="-1" Cut="0.0000000000000000e+00" cType="1" res="4.1600651456974447e-04" rms="4.4160473346710205e-01" purity="6.7630237340927124e-01" nType="-99"/>
          <Node pos="r" depth="2" NCoef="0" IVar="-1" Cut="0.0000000000000000e+00" cType="1" res="1.8494907999411225e-03" rms="4.6553424000740051e-01" purity="4.9426800012588501e-01" nType="-99"/>
        </Node>
      </Node>
    </BinaryTree>
    <BinaryTree type="DecisionTree" boostWeight="1.0000000000000000e+00" itree="678">
      <Node pos="s" depth="0" NCoef="0" IVar="7" Cut="7.2268718481063843e-01" cType="1" res="6.3125759363174438e-02" rms="4.4739630818367004e-01" purity="4.8787021636962891e-01" nType="0">
        <Node pos="l" depth="1" NCoef="0" IVar="7" Cut="5.9876793622970581e-01" cType="1" res="1.5241576731204987e-01" rms="4.5300471782684326e-01" purity="5.4856234788894653e-01" nType="0">
          <Node pos="l" depth="2" NCoef="0" IVar="-1" Cut="0.0000000000000000e+00" cType="1" res="-1.2207806867081672e-04" rms="4.1025438904762268e-01" purity="3.6749947071075439e-01" nType="-99"/>
          <Node pos="r" depth="2" NCoef="0" IVar="-1" Cut="0.0000000000000000e+00" cType="1" res="1.5714064938947558e-03" rms="4.4695472717285156e-01" purity="6.7102718353271484e-01" nType="-99"/>
        </Node>
        <Node pos="r" depth="1" NCoef="0" IVar="7" Cut="1.3159896135330200e+00" cType="1" res="4.6349413692951202e-02" rms="4.4433689117431641e-01" purity="4.7646698355674744e-01" nType="0">
          <Node pos="l" depth="2" NCoef="0" IVar="-1" Cut="0.0000000000000000e+00" cType="1" res="-2.1642378123942763e-04" rms="4.2747077345848083e-01" purity="4.3064123392105103e-01" nType="-99"/>
          <Node pos="r" depth="2" NCoef="0" IVar="-1" Cut="0.0000000000000000e+00" cType="1" res="6.3404359389096498e-04" rms="4.4825187325477600e-01" purity="4.9798741936683655e-01" nType="-99"/>
        </Node>
      </Node>
    </BinaryTree>
    <BinaryTree type="DecisionTree" boostWeight="1.0000000000000000e+00" itree="679">
      <Node pos="s" depth="0" NCoef="0" IVar="1" Cut="1.4418096923828125e+02" cType="1" res="4.0068257600069046e-02" rms="4.4906681776046753e-01" purity="4.6776062250137329e-01" nType="0">
        <Node pos="l" depth="1" NCoef="0" IVar="4" Cut="7.0483225584030151e-01" cType="1" res="6.2272135168313980e-02" rms="4.5360383391380310e-01" purity="4.9381026625633240e-01" nType="0">
          <Node pos="l" depth="2" NCoef="0" IVar="-1" Cut="0.0000000000000000e+00" cType="1" res="1.5248166164383292e-04" rms="4.4616100192070007e-01" purity="4.6457442641258240e-01" nType="-99"/>
          <Node pos="r" depth="2" NCoef="0" IVar="-1" Cut="0.0000000000000000e+00" cType="1" res="1.0045585222542286e-03" rms="4.5626336336135864e-01" purity="5.3807997703552246e-01" nType="-99"/>
        </Node>
        <Node pos="r" depth="1" NCoef="0" IVar="6" Cut="4.1238629150390625e+02" cType="1" res="-9.6676602959632874e-02" rms="3.9332357048988342e-01" purity="3.0733123421669006e-01" nType="0">
          <Node pos="l" depth="2" NCoef="0" IVar="-1" Cut="0.0000000000000000e+00" cType="1" res="-8.6278971284627914e-03" rms="2.3317140340805054e-01" purity="6.7307382822036743e-02" nType="-99"/>
          <Node pos="r" depth="2" NCoef="0" IVar="-1" Cut="0.0000000000000000e+00" cType="1" res="-1.8685439135879278e-04" rms="4.5281913876533508e-01" purity="4.6309909224510193e-01" nType="-99"/>
        </Node>
      </Node>
    </BinaryTree>
    <BinaryTree type="DecisionTree" boostWeight="1.0000000000000000e+00" itree="680">
      <Node pos="s" depth="0" NCoef="0" IVar="0" Cut="9.8511177301406860e-01" cType="1" res="6.8558782339096069e-02" rms="4.3771719932556152e-01" purity="5.1267814636230469e-01" nType="0">
        <Node pos="l" depth="1" NCoef="0" IVar="7" Cut="8.0926454067230225e-01" cType="1" res="5.0209276378154755e-02" rms="4.4009789824485779e-01" purity="4.7046935558319092e-01" nType="0">
          <Node pos="l" depth="2" NCoef="0" IVar="-1" Cut="0.0000000000000000e+00" cType="1" res="1.0519155766814947e-03" rms="4.1736042499542236e-01" purity="5.5563145875930786e-01" nType="-99"/>
          <Node pos="r" depth="2" NCoef="0" IVar="-1" Cut="0.0000000000000000e+00" cType="1" res="2.4187796225305647e-04" rms="4.4322520494461060e-01" purity="4.4734555482864380e-01" nType="-99"/>
        </Node>
        <Node pos="r" depth="1" NCoef="0" IVar="-1" Cut="0.0000000000000000e+00" cType="1" res="9.1681053163483739e-04" rms="4.0751945972442627e-01" purity="7.5831240415573120e-01" nType="-99"/>
      </Node>
    </BinaryTree>
    <BinaryTree type="DecisionTree" boostWeight="1.0000000000000000e+00" itree="681">
      <Node pos="s" depth="0" NCoef="0" IVar="1" Cut="6.4982337951660156e+01" cType="1" res="5.3706906735897064e-02" rms="4.3412664532661438e-01" purity="5.0047993659973145e-01" nType="0">
        <Node pos="l" depth="1" NCoef="0" IVar="1" Cut="4.4959987640380859e+01" cType="1" res="-3.5763826221227646e-02" rms="4.1945904493331909e-01" purity="2.9140588641166687e-01" nType="0">
          <Node pos="l" depth="2" NCoef="0" IVar="-1" Cut="0.0000000000000000e+00" cType="1" res="6.1420409474521875e-04" rms="4.3569609522819519e-01" purity="3.4440699219703674e-01" nType="-99"/>
          <Node pos="r" depth="2" NCoef="0" IVar="-1" Cut="0.0000000000000000e+00" cType="1" res="-1.9757717382162809e-03" rms="3.7438511848449707e-01" purity="2.2992417216300964e-01" nType="-99"/>
        </Node>
        <Node pos="r" depth="1" NCoef="0" IVar="2" Cut="1.8369854736328125e+02" cType="1" res="8.7322652339935303e-02" rms="4.3477845191955566e-01" purity="5.7903277873992920e-01" nType="0">
          <Node pos="l" depth="2" NCoef="0" IVar="-1" Cut="0.0000000000000000e+00" cType="1" res="9.4183336477726698e-04" rms="4.2822590470314026e-01" purity="6.8900054693222046e-01" nType="-99"/>
          <Node pos="r" depth="2" NCoef="0" IVar="-1" Cut="0.0000000000000000e+00" cType="1" res="1.7758939065970480e-04" rms="4.2966473102569580e-01" purity="4.7982922196388245e-01" nType="-99"/>
        </Node>
      </Node>
    </BinaryTree>
    <BinaryTree type="DecisionTree" boostWeight="1.0000000000000000e+00" itree="682">
      <Node pos="s" depth="0" NCoef="0" IVar="0" Cut="9.4719970226287842e-01" cType="1" res="5.2582658827304840e-02" rms="4.2079755663871765e-01" purity="5.1040774583816528e-01" nType="0">
        <Node pos="l" depth="1" NCoef="0" IVar="0" Cut="9.3467032909393311e-01" cType="1" res="-2.4128563702106476e-02" rms="3.9151060581207275e-01" purity="3.0151042342185974e-01" nType="0">
          <Node pos="l" depth="2" NCoef="0" IVar="-1" Cut="0.0000000000000000e+00" cType="1" res="3.1063659116625786e-04" rms="4.0226870775222778e-01" purity="3.4157940745353699e-01" nType="-99"/>
          <Node pos="r" depth="2" NCoef="0" IVar="-1" Cut="0.0000000000000000e+00" cType="1" res="-2.1092945244163275e-03" rms="3.4716945886611938e-01" purity="2.2346766293048859e-01" nType="-99"/>
        </Node>
        <Node pos="r" depth="1" NCoef="0" IVar="0" Cut="9.8683542013168335e-01" cType="1" res="9.0094558894634247e-02" rms="4.2944061756134033e-01" purity="6.1255884170532227e-01" nType="0">
          <Node pos="l" depth="2" NCoef="0" IVar="-1" Cut="0.0000000000000000e+00" cType="1" res="4.5593659160658717e-04" rms="4.3869757652282715e-01" purity="5.7122099399566650e-01" nType="-99"/>
          <Node pos="r" depth="2" NCoef="0" IVar="-1" Cut="0.0000000000000000e+00" cType="1" res="1.0799813317134976e-03" rms="3.6809542775154114e-01" purity="7.8556513786315918e-01" nType="-99"/>
        </Node>
      </Node>
    </BinaryTree>
    <BinaryTree type="DecisionTree" boostWeight="1.0000000000000000e+00" itree="683">
      <Node pos="s" depth="0" NCoef="0" IVar="4" Cut="8.1673258543014526e-01" cType="1" res="7.1393810212612152e-02" rms="4.3365463614463806e-01" purity="5.2647835016250610e-01" nType="0">
        <Node pos="l" depth="1" NCoef="0" IVar="6" Cut="2.9293249511718750e+02" cType="1" res="8.1354230642318726e-02" rms="4.3664118647575378e-01" purity="5.4547822475433350e-01" nType="0">
          <Node pos="l" depth="2" NCoef="0" IVar="-1" Cut="0.0000000000000000e+00" cType="1" res="1.8394191283732653e-04" rms="4.3726900219917297e-01" purity="3.1503200531005859e-01" nType="-99"/>
          <Node pos="r" depth="2" NCoef="0" IVar="-1" Cut="0.0000000000000000e+00" cType="1" res="7.0457806577906013e-04" rms="4.3351256847381592e-01" purity="6.3818448781967163e-01" nType="-99"/>
        </Node>
        <Node pos="r" depth="1" NCoef="0" IVar="-1" Cut="0.0000000000000000e+00" cType="1" res="-1.9285228336229920e-03" rms="3.2941859960556030e-01" purity="1.8805545568466187e-01" nType="-99"/>
      </Node>
    </BinaryTree>
    <BinaryTree type="DecisionTree" boostWeight="1.0000000000000000e+00" itree="684">
      <Node pos="s" depth="0" NCoef="0" IVar="7" Cut="2.1824831962585449e+00" cType="1" res="6.0018762946128845e-02" rms="4.3881961703300476e-01" purity="4.9836105108261108e-01" nType="0">
        <Node pos="l" depth="1" NCoef="0" IVar="3" Cut="9.1415321826934814e-01" cType="1" res="4.1088856756687164e-02" rms="4.3174511194229126e-01" purity="5.1050537824630737e-01" nType="0">
          <Node pos="l" depth="2" NCoef="0" IVar="-1" Cut="0.0000000000000000e+00" cType="1" res="7.8584329457953572e-04" rms="4.1220253705978394e-01" purity="7.0223301649093628e-01" nType="-99"/>
          <Node pos="r" depth="2" NCoef="0" IVar="-1" Cut="0.0000000000000000e+00" cType="1" res="8.8373542439512676e-07" rms="4.3378457427024841e-01" purity="4.2608436942100525e-01" nType="-99"/>
        </Node>
        <Node pos="r" depth="1" NCoef="0" IVar="2" Cut="2.5351748657226562e+02" cType="1" res="1.9455017149448395e-01" rms="4.6442094445228577e-01" purity="4.1205304861068726e-01" nType="0">
          <Node pos="l" depth="2" NCoef="0" IVar="-1" Cut="0.0000000000000000e+00" cType="1" res="3.1326073221862316e-03" rms="4.8784005641937256e-01" purity="6.0767012834548950e-01" nType="-99"/>
          <Node pos="r" depth="2" NCoef="0" IVar="-1" Cut="0.0000000000000000e+00" cType="1" res="-3.8981650141067803e-04" rms="3.2849684357643127e-01" purity="1.5936870872974396e-01" nType="-99"/>
        </Node>
      </Node>
    </BinaryTree>
    <BinaryTree type="DecisionTree" boostWeight="1.0000000000000000e+00" itree="685">
      <Node pos="s" depth="0" NCoef="0" IVar="3" Cut="1.2853841781616211e+00" cType="1" res="8.8683828711509705e-02" rms="4.3030518293380737e-01" purity="5.3623664379119873e-01" nType="0">
        <Node pos="l" depth="1" NCoef="0" IVar="3" Cut="8.1721031665802002e-01" cType="1" res="1.4869342744350433e-01" rms="4.1920626163482666e-01" purity="7.0223718881607056e-01" nType="0">
          <Node pos="l" depth="2" NCoef="0" IVar="-1" Cut="0.0000000000000000e+00" cType="1" res="4.9999536713585258e-04" rms="4.1275337338447571e-01" purity="6.4384490251541138e-01" nType="-99"/>
          <Node pos="r" depth="2" NCoef="0" IVar="-1" Cut="0.0000000000000000e+00" cType="1" res="1.0825676145032048e-03" rms="4.1711109876632690e-01" purity="7.4112457036972046e-01" nType="-99"/>
        </Node>
        <Node pos="r" depth="1" NCoef="0" IVar="0" Cut="9.2596751451492310e-01" cType="1" res="4.5220226049423218e-02" rms="4.3300601840019226e-01" purity="4.1600623726844788e-01" nType="0">
          <Node pos="l" depth="2" NCoef="0" IVar="-1" Cut="0.0000000000000000e+00" cType="1" res="-1.5675182221457362e-03" rms="3.1344568729400635e-01" purity="1.5240842103958130e-01" nType="-99"/>
          <Node pos="r" depth="2" NCoef="0" IVar="-1" Cut="0.0000000000000000e+00" cType="1" res="6.0017843497917056e-04" rms="4.4818940758705139e-01" purity="4.6457341313362122e-01" nType="-99"/>
        </Node>
      </Node>
    </BinaryTree>
    <BinaryTree type="DecisionTree" boostWeight="1.0000000000000000e+00" itree="686">
      <Node pos="s" depth="0" NCoef="0" IVar="8" Cut="1.3205198669433594e+02" cType="1" res="4.9867890775203705e-02" rms="4.4002607464790344e-01" purity="4.8234644532203674e-01" nType="0">
        <Node pos="l" depth="1" NCoef="0" IVar="8" Cut="1.0072969055175781e+02" cType="1" res="8.7530799210071564e-02" rms="4.4543203711509705e-01" purity="5.2550339698791504e-01" nType="0">
          <Node pos="l" depth="2" NCoef="0" IVar="-1" Cut="0.0000000000000000e+00" cType="1" res="-1.7190229846164584e-04" rms="4.2158421874046326e-01" purity="3.0222421884536743e-01" nType="-99"/>
          <Node pos="r" depth="2" NCoef="0" IVar="-1" Cut="0.0000000000000000e+00" cType="1" res="8.0548966070637107e-04" rms="4.4799602031707764e-01" purity="6.0085129737854004e-01" nType="-99"/>
        </Node>
        <Node pos="r" depth="1" NCoef="0" IVar="6" Cut="5.1720013427734375e+02" cType="1" res="-2.9916068539023399e-02" rms="4.1726785898208618e-01" purity="3.9092400670051575e-01" nType="0">
          <Node pos="l" depth="2" NCoef="0" IVar="-1" Cut="0.0000000000000000e+00" cType="1" res="-1.1989474296569824e-03" rms="4.0102890133857727e-01" purity="2.8416532278060913e-01" nType="-99"/>
          <Node pos="r" depth="2" NCoef="0" IVar="-1" Cut="0.0000000000000000e+00" cType="1" res="8.4754556883126497e-04" rms="4.1217902302742004e-01" purity="6.8667358160018921e-01" nType="-99"/>
        </Node>
      </Node>
    </BinaryTree>
    <BinaryTree type="DecisionTree" boostWeight="1.0000000000000000e+00" itree="687">
      <Node pos="s" depth="0" NCoef="0" IVar="0" Cut="9.1509270668029785e-01" cType="1" res="7.6008364558219910e-02" rms="4.4032379984855652e-01" purity="5.1907408237457275e-01" nType="0">
        <Node pos="l" depth="1" NCoef="0" IVar="8" Cut="1.2399736785888672e+02" cType="1" res="2.1227593719959259e-01" rms="4.5011705160140991e-01" purity="5.2891105413436890e-01" nType="0">
          <Node pos="l" depth="2" NCoef="0" IVar="-1" Cut="0.0000000000000000e+00" cType="1" res="1.9556414335966110e-03" rms="4.5581880211830139e-01" purity="6.1288958787918091e-01" nType="-99"/>
          <Node pos="r" depth="2" NCoef="0" IVar="-1" Cut="0.0000000000000000e+00" cType="1" res="1.1170931393280625e-03" rms="4.2629349231719971e-01" purity="4.2287677526473999e-01" nType="-99"/>
        </Node>
        <Node pos="r" depth="1" NCoef="0" IVar="8" Cut="1.3378115844726562e+02" cType="1" res="5.8463878929615021e-02" rms="4.3596303462982178e-01" purity="5.1780754327774048e-01" nType="0">
          <Node pos="l" depth="2" NCoef="0" IVar="-1" Cut="0.0000000000000000e+00" cType="1" res="6.3356064492836595e-04" rms="4.4575145840644836e-01" purity="5.4893749952316284e-01" nType="-99"/>
          <Node pos="r" depth="2" NCoef="0" IVar="-1" Cut="0.0000000000000000e+00" cType="1" res="-6.2971310399007052e-05" rms="4.0466624498367310e-01" purity="4.4482463598251343e-01" nType="-99"/>
        </Node>
      </Node>
    </BinaryTree>
    <BinaryTree type="DecisionTree" boostWeight="1.0000000000000000e+00" itree="688">
      <Node pos="s" depth="0" NCoef="0" IVar="0" Cut="9.7141009569168091e-01" cType="1" res="4.3536443263292313e-02" rms="4.1594588756561279e-01" purity="5.0313335657119751e-01" nType="0">
        <Node pos="l" depth="1" NCoef="0" IVar="8" Cut="1.3522418212890625e+02" cType="1" res="4.6627274714410305e-03" rms="4.1669201850891113e-01" purity="4.0113931894302368e-01" nType="0">
          <Node pos="l" depth="2" NCoef="0" IVar="-1" Cut="0.0000000000000000e+00" cType="1" res="4.2251186096109450e-04" rms="4.2714047431945801e-01" purity="4.6016603708267212e-01" nType="-99"/>
          <Node pos="r" depth="2" NCoef="0" IVar="-1" Cut="0.0000000000000000e+00" cType="1" res="-1.7567562172189355e-03" rms="3.5891383886337280e-01" purity="2.4068517982959747e-01" nType="-99"/>
        </Node>
        <Node pos="r" depth="1" NCoef="0" IVar="6" Cut="3.0474029541015625e+02" cType="1" res="1.2480773776769638e-01" rms="4.0242743492126465e-01" purity="7.1636700630187988e-01" nType="0">
          <Node pos="l" depth="2" NCoef="0" IVar="-1" Cut="0.0000000000000000e+00" cType="1" res="6.2514060118701309e-05" rms="4.4195660948753357e-01" purity="4.6692657470703125e-01" nType="-99"/>
          <Node pos="r" depth="2" NCoef="0" IVar="-1" Cut="0.0000000000000000e+00" cType="1" res="8.6039502639323473e-04" rms="3.8178741931915283e-01" purity="7.9495096206665039e-01" nType="-99"/>
        </Node>
      </Node>
    </BinaryTree>
    <BinaryTree type="DecisionTree" boostWeight="1.0000000000000000e+00" itree="689">
      <Node pos="s" depth="0" NCoef="0" IVar="4" Cut="5.3981643915176392e-01" cType="1" res="6.8654939532279968e-02" rms="4.3691894412040710e-01" purity="5.0468420982360840e-01" nType="0">
        <Node pos="l" depth="1" NCoef="0" IVar="-1" Cut="0.0000000000000000e+00" cType="1" res="1.4409362338483334e-03" rms="3.7815818190574646e-01" purity="7.5867867469787598e-01" nType="-99"/>
        <Node pos="r" depth="1" NCoef="0" IVar="3" Cut="5.5911207199096680e-01" cType="1" res="4.9485400319099426e-02" rms="4.3789806962013245e-01" purity="4.7895494103431702e-01" nType="0">
          <Node pos="l" depth="2" NCoef="0" IVar="-1" Cut="0.0000000000000000e+00" cType="1" res="-2.0213902462273836e-03" rms="3.7691628932952881e-01" purity="3.6160212755203247e-01" nType="-99"/>
          <Node pos="r" depth="2" NCoef="0" IVar="-1" Cut="0.0000000000000000e+00" cType="1" res="5.3036556346341968e-04" rms="4.3732535839080811e-01" purity="4.8593455553054810e-01" nType="-99"/>
        </Node>
      </Node>
    </BinaryTree>
    <BinaryTree type="DecisionTree" boostWeight="1.0000000000000000e+00" itree="690">
      <Node pos="s" depth="0" NCoef="0" IVar="8" Cut="1.3708027648925781e+02" cType="1" res="5.3686019033193588e-02" rms="4.2436912655830383e-01" purity="5.1438885927200317e-01" nType="0">
        <Node pos="l" depth="1" NCoef="0" IVar="6" Cut="3.3114562988281250e+02" cType="1" res="8.3625286817550659e-02" rms="4.2582044005393982e-01" purity="5.5584198236465454e-01" nType="0">
          <Node pos="l" depth="2" NCoef="0" IVar="-1" Cut="0.0000000000000000e+00" cType="1" res="2.2658740635961294e-04" rms="4.2426314949989319e-01" purity="3.9451786875724792e-01" nType="-99"/>
          <Node pos="r" depth="2" NCoef="0" IVar="-1" Cut="0.0000000000000000e+00" cType="1" res="8.4253412205725908e-04" rms="4.1882017254829407e-01" purity="7.1386963129043579e-01" nType="-99"/>
        </Node>
        <Node pos="r" depth="1" NCoef="0" IVar="0" Cut="9.7197985649108887e-01" cType="1" res="-4.0839113295078278e-02" rms="4.0549781918525696e-01" purity="3.8351190090179443e-01" nType="0">
          <Node pos="l" depth="2" NCoef="0" IVar="-1" Cut="0.0000000000000000e+00" cType="1" res="-2.3438441567122936e-03" rms="3.5216170549392700e-01" purity="2.1498543024063110e-01" nType="-99"/>
          <Node pos="r" depth="2" NCoef="0" IVar="-1" Cut="0.0000000000000000e+00" cType="1" res="8.8368868455290794e-04" rms="4.3406388163566589e-01" purity="6.9514852762222290e-01" nType="-99"/>
        </Node>
      </Node>
    </BinaryTree>
    <BinaryTree type="DecisionTree" boostWeight="1.0000000000000000e+00" itree="691">
      <Node pos="s" depth="0" NCoef="0" IVar="3" Cut="3.1408097743988037e+00" cType="1" res="9.5076709985733032e-02" rms="4.5582023262977600e-01" purity="5.2579653263092041e-01" nType="0">
        <Node pos="l" depth="1" NCoef="0" IVar="3" Cut="2.1681485176086426e+00" cType="1" res="1.0372786968946457e-01" rms="4.6589505672454834e-01" purity="5.5334323644638062e-01" nType="0">
          <Node pos="l" depth="2" NCoef="0" IVar="-1" Cut="0.0000000000000000e+00" cType="1" res="5.3253845544531941e-04" rms="4.5677021145820618e-01" purity="5.9348225593566895e-01" nType="-99"/>
          <Node pos="r" depth="2" NCoef="0" IVar="-1" Cut="0.0000000000000000e+00" cType="1" res="2.5118933990597725e-03" rms="4.8762962222099304e-01" purity="4.0098965167999268e-01" nType="-99"/>
        </Node>
        <Node pos="r" depth="1" NCoef="0" IVar="-1" Cut="0.0000000000000000e+00" cType="1" res="-1.5387549065053463e-02" rms="4.2754024267196655e-02" purity="0.0000000000000000e+00" nType="-99"/>
      </Node>
    </BinaryTree>
    <BinaryTree type="DecisionTree" boostWeight="1.0000000000000000e+00" itree="692">
      <Node pos="s" depth="0" NCoef="0" IVar="3" Cut="9.9775004386901855e-01" cType="1" res="7.7150575816631317e-02" rms="4.1909095644950867e-01" purity="5.4531598091125488e-01" nType="0">
        <Node pos="l" depth="1" NCoef="0" IVar="2" Cut="1.6453559875488281e+02" cType="1" res="1.4568343758583069e-01" rms="4.0348890423774719e-01" purity="7.2235685586929321e-01" nType="0">
          <Node pos="l" depth="2" NCoef="0" IVar="-1" Cut="0.0000000000000000e+00" cType="1" res="4.4153034104965627e-04" rms="4.3697190284729004e-01" purity="5.4769408702850342e-01" nType="-99"/>
          <Node pos="r" depth="2" NCoef="0" IVar="-1" Cut="0.0000000000000000e+00" cType="1" res="1.0147789726033807e-03" rms="3.7386584281921387e-01" purity="8.2295817136764526e-01" nType="-99"/>
        </Node>
        <Node pos="r" depth="1" NCoef="0" IVar="4" Cut="6.9485026597976685e-01" cType="1" res="4.4284217059612274e-02" rms="4.2244452238082886e-01" purity="4.6041232347488403e-01" nType="0">
          <Node pos="l" depth="2" NCoef="0" IVar="-1" Cut="0.0000000000000000e+00" cType="1" res="6.6079641692340374e-04" rms="4.1662719845771790e-01" purity="5.4053229093551636e-01" nType="-99"/>
          <Node pos="r" depth="2" NCoef="0" IVar="-1" Cut="0.0000000000000000e+00" cType="1" res="-4.6476427814923227e-04" rms="4.1985204815864563e-01" purity="3.1719267368316650e-01" nType="-99"/>
        </Node>
      </Node>
    </BinaryTree>
    <BinaryTree type="DecisionTree" boostWeight="1.0000000000000000e+00" itree="693">
      <Node pos="s" depth="0" NCoef="0" IVar="8" Cut="1.2732222747802734e+02" cType="1" res="8.5741601884365082e-02" rms="4.5092117786407471e-01" purity="5.0801730155944824e-01" nType="0">
        <Node pos="l" depth="1" NCoef="0" IVar="3" Cut="2.6000773906707764e+00" cType="1" res="1.4121194183826447e-01" rms="4.4575437903404236e-01" purity="5.7287365198135376e-01" nType="0">
          <Node pos="l" depth="2" NCoef="0" IVar="-1" Cut="0.0000000000000000e+00" cType="1" res="1.0286621982231736e-03" rms="4.5814570784568787e-01" purity="6.2182116508483887e-01" nType="-99"/>
          <Node pos="r" depth="2" NCoef="0" IVar="-1" Cut="0.0000000000000000e+00" cType="1" res="-1.5679584816098213e-02" rms="6.8129025399684906e-02" purity="0.0000000000000000e+00" nType="-99"/>
        </Node>
        <Node pos="r" depth="1" NCoef="0" IVar="5" Cut="8.8428878784179688e-01" cType="1" res="-8.8462717831134796e-03" rms="4.4388774037361145e-01" purity="3.9742425084114075e-01" nType="0">
          <Node pos="l" depth="2" NCoef="0" IVar="-1" Cut="0.0000000000000000e+00" cType="1" res="9.1819348745048046e-04" rms="4.2170980572700500e-01" purity="5.2548110485076904e-01" nType="-99"/>
          <Node pos="r" depth="2" NCoef="0" IVar="-1" Cut="0.0000000000000000e+00" cType="1" res="-5.8551639085635543e-04" rms="4.4212549924850464e-01" purity="3.5469487309455872e-01" nType="-99"/>
        </Node>
      </Node>
    </BinaryTree>
    <BinaryTree type="DecisionTree" boostWeight="1.0000000000000000e+00" itree="694">
      <Node pos="s" depth="0" NCoef="0" IVar="6" Cut="4.2394140625000000e+02" cType="1" res="1.2009305879473686e-02" rms="4.3999415636062622e-01" purity="4.3911096453666687e-01" nType="0">
        <Node pos="l" depth="1" NCoef="0" IVar="4" Cut="7.6435405015945435e-01" cType="1" res="-2.7248438447713852e-02" rms="4.2701920866966248e-01" purity="3.5581174492835999e-01" nType="0">
          <Node pos="l" depth="2" NCoef="0" IVar="-1" Cut="0.0000000000000000e+00" cType="1" res="-6.7808214225806296e-05" rms="4.4355991482734680e-01" purity="3.9546096324920654e-01" nType="-99"/>
          <Node pos="r" depth="2" NCoef="0" IVar="-1" Cut="0.0000000000000000e+00" cType="1" res="-3.6485742311924696e-03" rms="2.9319471120834351e-01" purity="1.3338018953800201e-01" nType="-99"/>
        </Node>
        <Node pos="r" depth="1" NCoef="0" IVar="6" Cut="4.9954922485351562e+02" cType="1" res="1.1537645012140274e-01" rms="4.5658782124519348e-01" purity="6.5844094753265381e-01" nType="0">
          <Node pos="l" depth="2" NCoef="0" IVar="-1" Cut="0.0000000000000000e+00" cType="1" res="1.0549224680289626e-03" rms="4.1262575984001160e-01" purity="7.3213118314743042e-01" nType="-99"/>
          <Node pos="r" depth="2" NCoef="0" IVar="-1" Cut="0.0000000000000000e+00" cType="1" res="1.6145582776516676e-04" rms="4.9113944172859192e-01" purity="5.6402450799942017e-01" nType="-99"/>
        </Node>
      </Node>
    </BinaryTree>
    <BinaryTree type="DecisionTree" boostWeight="1.0000000000000000e+00" itree="695">
      <Node pos="s" depth="0" NCoef="0" IVar="0" Cut="9.8446398973464966e-01" cType="1" res="6.6730894148349762e-02" rms="4.4394040107727051e-01" purity="4.9938589334487915e-01" nType="0">
        <Node pos="l" depth="1" NCoef="0" IVar="3" Cut="2.3083906173706055e+00" cType="1" res="4.0340404957532883e-02" rms="4.5034575462341309e-01" purity="4.3969947099685669e-01" nType="0">
          <Node pos="l" depth="2" NCoef="0" IVar="-1" Cut="0.0000000000000000e+00" cType="1" res="1.7748307072906755e-05" rms="4.5195326209068298e-01" purity="4.8789137601852417e-01" nType="-99"/>
          <Node pos="r" depth="2" NCoef="0" IVar="-1" Cut="0.0000000000000000e+00" cType="1" res="2.4313207250088453e-03" rms="4.2852407693862915e-01" purity="3.0654770135879517e-01" nType="-99"/>
        </Node>
        <Node pos="r" depth="1" NCoef="0" IVar="-1" Cut="0.0000000000000000e+00" cType="1" res="9.9093560129404068e-04" rms="3.9339151978492737e-01" purity="7.6472926139831543e-01" nType="-99"/>
      </Node>
    </BinaryTree>
    <BinaryTree type="DecisionTree" boostWeight="1.0000000000000000e+00" itree="696">
      <Node pos="s" depth="0" NCoef="0" IVar="0" Cut="9.4993346929550171e-01" cType="1" res="3.9725132286548615e-02" rms="4.4102430343627930e-01" purity="4.8448294401168823e-01" nType="0">
        <Node pos="l" depth="1" NCoef="0" IVar="4" Cut="6.4137494564056396e-01" cType="1" res="-3.3999599516391754e-02" rms="4.2367488145828247e-01" purity="2.8291592001914978e-01" nType="0">
          <Node pos="l" depth="2" NCoef="0" IVar="-1" Cut="0.0000000000000000e+00" cType="1" res="-3.7312691565603018e-03" rms="3.2363811135292053e-01" purity="1.5485084056854248e-01" nType="-99"/>
          <Node pos="r" depth="2" NCoef="0" IVar="-1" Cut="0.0000000000000000e+00" cType="1" res="3.7307801540009677e-04" rms="4.4868266582489014e-01" purity="3.4413182735443115e-01" nType="-99"/>
        </Node>
        <Node pos="r" depth="1" NCoef="0" IVar="5" Cut="1.5656268596649170e+00" cType="1" res="8.2899138331413269e-02" rms="4.4524237513542175e-01" purity="6.0252273082733154e-01" nType="0">
          <Node pos="l" depth="2" NCoef="0" IVar="-1" Cut="0.0000000000000000e+00" cType="1" res="3.6350139998830855e-04" rms="4.4407293200492859e-01" purity="5.6629770994186401e-01" nType="-99"/>
          <Node pos="r" depth="2" NCoef="0" IVar="-1" Cut="0.0000000000000000e+00" cType="1" res="1.0713780065998435e-03" rms="4.3135744333267212e-01" purity="7.1708559989929199e-01" nType="-99"/>
        </Node>
      </Node>
    </BinaryTree>
    <BinaryTree type="DecisionTree" boostWeight="1.0000000000000000e+00" itree="697">
      <Node pos="s" depth="0" NCoef="0" IVar="5" Cut="1.2578278779983521e+00" cType="1" res="3.0418671667575836e-02" rms="4.2771577835083008e-01" purity="4.7440737485885620e-01" nType="0">
        <Node pos="l" depth="1" NCoef="0" IVar="6" Cut="3.1939752197265625e+02" cType="1" res="-4.0453720837831497e-02" rms="4.1776609420776367e-01" purity="3.6907154321670532e-01" nType="0">
          <Node pos="l" depth="2" NCoef="0" IVar="-1" Cut="0.0000000000000000e+00" cType="1" res="-3.0908386688679457e-03" rms="3.4103846549987793e-01" purity="1.4568026363849640e-01" nType="-99"/>
          <Node pos="r" depth="2" NCoef="0" IVar="-1" Cut="0.0000000000000000e+00" cType="1" res="1.7204931646119803e-04" rms="4.5301070809364319e-01" purity="5.2395516633987427e-01" nType="-99"/>
        </Node>
        <Node pos="r" depth="1" NCoef="0" IVar="8" Cut="1.0482385253906250e+02" cType="1" res="9.3306005001068115e-02" rms="4.2660692334175110e-01" purity="5.6787526607513428e-01" nType="0">
          <Node pos="l" depth="2" NCoef="0" IVar="-1" Cut="0.0000000000000000e+00" cType="1" res="-4.1617543320171535e-04" rms="3.9654156565666199e-01" purity="3.5488030314445496e-01" nType="-99"/>
          <Node pos="r" depth="2" NCoef="0" IVar="-1" Cut="0.0000000000000000e+00" cType="1" res="8.3353975787758827e-04" rms="4.2709341645240784e-01" purity="6.2828755378723145e-01" nType="-99"/>
        </Node>
      </Node>
    </BinaryTree>
    <BinaryTree type="DecisionTree" boostWeight="1.0000000000000000e+00" itree="698">
      <Node pos="s" depth="0" NCoef="0" IVar="7" Cut="2.1713235378265381e+00" cType="1" res="5.4675213992595673e-02" rms="4.2778596282005310e-01" purity="5.0445467233657837e-01" nType="0">
        <Node pos="l" depth="1" NCoef="0" IVar="8" Cut="1.3315165710449219e+02" cType="1" res="7.1200422942638397e-02" rms="4.3681183457374573e-01" purity="5.4250681400299072e-01" nType="0">
          <Node pos="l" depth="2" NCoef="0" IVar="-1" Cut="0.0000000000000000e+00" cType="1" res="7.1454350836575031e-04" rms="4.3767964839935303e-01" purity="5.6707328557968140e-01" nType="-99"/>
          <Node pos="r" depth="2" NCoef="0" IVar="-1" Cut="0.0000000000000000e+00" cType="1" res="-2.6798552426043898e-05" rms="4.2563635110855103e-01" purity="4.7501185536384583e-01" nType="-99"/>
        </Node>
        <Node pos="r" depth="1" NCoef="0" IVar="-1" Cut="0.0000000000000000e+00" cType="1" res="-6.6958577372133732e-03" rms="2.2914561629295349e-01" purity="6.2903217971324921e-02" nType="-99"/>
      </Node>
    </BinaryTree>
    <BinaryTree type="DecisionTree" boostWeight="1.0000000000000000e+00" itree="699">
      <Node pos="s" depth="0" NCoef="0" IVar="1" Cut="5.5624893188476562e+01" cType="1" res="4.7420293092727661e-02" rms="4.3716269731521606e-01" purity="4.9374622106552124e-01" nType="0">
        <Node pos="l" depth="1" NCoef="0" IVar="7" Cut="5.9641581773757935e-01" cType="1" res="-4.2668491601943970e-02" rms="4.0211981534957886e-01" purity="2.9601377248764038e-01" nType="0">
          <Node pos="l" depth="2" NCoef="0" IVar="-1" Cut="0.0000000000000000e+00" cType="1" res="7.8125891741365194e-04" rms="4.2229962348937988e-01" purity="4.9861347675323486e-01" nType="-99"/>
          <Node pos="r" depth="2" NCoef="0" IVar="-1" Cut="0.0000000000000000e+00" cType="1" res="-2.1330588497221470e-03" rms="3.7245422601699829e-01" purity="1.9891662895679474e-01" nType="-99"/>
        </Node>
        <Node pos="r" depth="1" NCoef="0" IVar="5" Cut="1.5025726556777954e+00" cType="1" res="7.2123348712921143e-02" rms="4.4310292601585388e-01" purity="5.4796600341796875e-01" nType="0">
          <Node pos="l" depth="2" NCoef="0" IVar="-1" Cut="0.0000000000000000e+00" cType="1" res="3.0861876439303160e-04" rms="4.3063187599182129e-01" purity="5.1490378379821777e-01" nType="-99"/>
          <Node pos="r" depth="2" NCoef="0" IVar="-1" Cut="0.0000000000000000e+00" cType="1" res="1.0979942744597793e-03" rms="4.6418792009353638e-01" purity="6.4548826217651367e-01" nType="-99"/>
        </Node>
      </Node>
    </BinaryTree>
    <BinaryTree type="DecisionTree" boostWeight="1.0000000000000000e+00" itree="700">
      <Node pos="s" depth="0" NCoef="0" IVar="3" Cut="1.4839830398559570e+00" cType="1" res="8.3646044135093689e-02" rms="4.2221730947494507e-01" purity="5.4573470354080200e-01" nType="0">
        <Node pos="l" depth="1" NCoef="0" IVar="0" Cut="9.3471652269363403e-01" cType="1" res="1.3601246476173401e-01" rms="4.2342144250869751e-01" purity="6.9339627027511597e-01" nType="0">
          <Node pos="l" depth="2" NCoef="0" IVar="-1" Cut="0.0000000000000000e+00" cType="1" res="1.4980308478698134e-03" rms="4.6457338333129883e-01" purity="6.2376356124877930e-01" nType="-99"/>
          <Node pos="r" depth="2" NCoef="0" IVar="-1" Cut="0.0000000000000000e+00" cType="1" res="6.0095393564552069e-04" rms="4.0497046709060669e-01" purity="7.1445232629776001e-01" nType="-99"/>
        </Node>
        <Node pos="r" depth="1" NCoef="0" IVar="7" Cut="2.2519853115081787e+00" cType="1" res="2.0669259130954742e-02" rms="4.1204240918159485e-01" purity="3.6815422773361206e-01" nType="0">
          <Node pos="l" depth="2" NCoef="0" IVar="-1" Cut="0.0000000000000000e+00" cType="1" res="-1.8951347738038749e-04" rms="4.0727454423904419e-01" purity="3.5864162445068359e-01" nType="-99"/>
          <Node pos="r" depth="2" NCoef="0" IVar="-1" Cut="0.0000000000000000e+00" cType="1" res="1.5838245162740350e-03" rms="4.0033757686614990e-01" purity="4.0235206484794617e-01" nType="-99"/>
        </Node>
      </Node>
    </BinaryTree>
    <BinaryTree type="DecisionTree" boostWeight="1.0000000000000000e+00" itree="701">
      <Node pos="s" depth="0" NCoef="0" IVar="1" Cut="8.5945617675781250e+01" cType="1" res="4.0277004241943359e-02" rms="4.4777876138687134e-01" purity="4.7310808300971985e-01" nType="0">
        <Node pos="l" depth="1" NCoef="0" IVar="7" Cut="6.3953381776809692e-01" cType="1" res="-3.1006272882223129e-02" rms="4.4189879298210144e-01" purity="3.4207484126091003e-01" nType="0">
          <Node pos="l" depth="2" NCoef="0" IVar="-1" Cut="0.0000000000000000e+00" cType="1" res="1.0967908892780542e-03" rms="4.6486586332321167e-01" purity="4.8974424600601196e-01" nType="-99"/>
          <Node pos="r" depth="2" NCoef="0" IVar="-1" Cut="0.0000000000000000e+00" cType="1" res="-9.9536462221294641e-04" rms="4.2345979809761047e-01" purity="2.9772558808326721e-01" nType="-99"/>
        </Node>
        <Node pos="r" depth="1" NCoef="0" IVar="6" Cut="3.1073855590820312e+02" cType="1" res="9.5520481467247009e-02" rms="4.4448870420455933e-01" purity="5.7465690374374390e-01" nType="0">
          <Node pos="l" depth="2" NCoef="0" IVar="-1" Cut="0.0000000000000000e+00" cType="1" res="-2.3994229559320956e-04" rms="4.0664234757423401e-01" purity="3.1328138709068298e-01" nType="-99"/>
          <Node pos="r" depth="2" NCoef="0" IVar="-1" Cut="0.0000000000000000e+00" cType="1" res="8.5915299132466316e-04" rms="4.4928634166717529e-01" purity="6.5014994144439697e-01" nType="-99"/>
        </Node>
      </Node>
    </BinaryTree>
    <BinaryTree type="DecisionTree" boostWeight="1.0000000000000000e+00" itree="702">
      <Node pos="s" depth="0" NCoef="0" IVar="3" Cut="7.3033666610717773e-01" cType="1" res="6.2439277768135071e-02" rms="4.3953326344490051e-01" purity="5.0363045930862427e-01" nType="0">
        <Node pos="l" depth="1" NCoef="0" IVar="7" Cut="7.5486683845520020e-01" cType="1" res="1.9267235696315765e-01" rms="4.0693098306655884e-01" purity="7.4239873886108398e-01" nType="0">
          <Node pos="l" depth="2" NCoef="0" IVar="-1" Cut="0.0000000000000000e+00" cType="1" res="1.1924094287678599e-03" rms="4.0400916337966919e-01" purity="7.3744803667068481e-01" nType="-99"/>
          <Node pos="r" depth="2" NCoef="0" IVar="-1" Cut="0.0000000000000000e+00" cType="1" res="8.5245550144463778e-04" rms="4.0593621134757996e-01" purity="7.4633198976516724e-01" nType="-99"/>
        </Node>
        <Node pos="r" depth="1" NCoef="0" IVar="0" Cut="9.7226411104202271e-01" cType="1" res="3.0435718595981598e-02" rms="4.4133770465850830e-01" purity="4.4495540857315063e-01" nType="0">
          <Node pos="l" depth="2" NCoef="0" IVar="-1" Cut="0.0000000000000000e+00" cType="1" res="-1.1619594442890957e-04" rms="4.3860572576522827e-01" purity="3.4895950555801392e-01" nType="-99"/>
          <Node pos="r" depth="2" NCoef="0" IVar="-1" Cut="0.0000000000000000e+00" cType="1" res="8.4015447646379471e-04" rms="4.3173918128013611e-01" purity="6.8068665266036987e-01" nType="-99"/>
        </Node>
      </Node>
    </BinaryTree>
    <BinaryTree type="DecisionTree" boostWeight="1.0000000000000000e+00" itree="703">
      <Node pos="s" depth="0" NCoef="0" IVar="4" Cut="8.0049288272857666e-01" cType="1" res="6.9306313991546631e-02" rms="4.4836670160293579e-01" purity="5.0185269117355347e-01" nType="0">
        <Node pos="l" depth="1" NCoef="0" IVar="0" Cut="9.5633023977279663e-01" cType="1" res="5.0006359815597534e-02" rms="4.3913832306861877e-01" purity="5.0183486938476562e-01" nType="0">
          <Node pos="l" depth="2" NCoef="0" IVar="-1" Cut="0.0000000000000000e+00" cType="1" res="-2.5585599360056221e-04" rms="4.2597478628158569e-01" purity="3.3213815093040466e-01" nType="-99"/>
          <Node pos="r" depth="2" NCoef="0" IVar="-1" Cut="0.0000000000000000e+00" cType="1" res="7.3258549673482776e-04" rms="4.4058305025100708e-01" purity="6.5258717536926270e-01" nType="-99"/>
        </Node>
        <Node pos="r" depth="1" NCoef="0" IVar="3" Cut="2.1633191108703613e+00" cType="1" res="2.1662808954715729e-01" rms="4.8888045549392700e-01" purity="5.0198888778686523e-01" nType="0">
          <Node pos="l" depth="2" NCoef="0" IVar="-1" Cut="0.0000000000000000e+00" cType="1" res="6.2299281125888228e-04" rms="4.6284854412078857e-01" purity="4.7488749027252197e-01" nType="-99"/>
          <Node pos="r" depth="2" NCoef="0" IVar="-1" Cut="0.0000000000000000e+00" cType="1" res="4.1707460768520832e-03" rms="4.7186741232872009e-01" purity="5.3018313646316528e-01" nType="-99"/>
        </Node>
      </Node>
    </BinaryTree>
    <BinaryTree type="DecisionTree" boostWeight="1.0000000000000000e+00" itree="704">
      <Node pos="s" depth="0" NCoef="0" IVar="4" Cut="6.7848008871078491e-01" cType="1" res="5.3081080317497253e-02" rms="4.2985147237777710e-01" purity="5.0712984800338745e-01" nType="0">
        <Node pos="l" depth="1" NCoef="0" IVar="4" Cut="5.6443887948989868e-01" cType="1" res="-7.4577936902642250e-03" rms="4.1576743125915527e-01" purity="4.6735334396362305e-01" nType="0">
          <Node pos="l" depth="2" NCoef="0" IVar="-1" Cut="0.0000000000000000e+00" cType="1" res="9.1482658172026277e-04" rms="4.2879393696784973e-01" purity="6.0663568973541260e-01" nType="-99"/>
          <Node pos="r" depth="2" NCoef="0" IVar="-1" Cut="0.0000000000000000e+00" cType="1" res="-5.2478391444310546e-04" rms="3.9981618523597717e-01" purity="4.2003542184829712e-01" nType="-99"/>
        </Node>
        <Node pos="r" depth="1" NCoef="0" IVar="1" Cut="1.4702673339843750e+02" cType="1" res="1.0999654978513718e-01" rms="4.3506804108619690e-01" purity="5.4452562332153320e-01" nType="0">
          <Node pos="l" depth="2" NCoef="0" IVar="-1" Cut="0.0000000000000000e+00" cType="1" res="6.5152643946930766e-04" rms="4.2609387636184692e-01" purity="5.2200841903686523e-01" nType="-99"/>
          <Node pos="r" depth="2" NCoef="0" IVar="-1" Cut="0.0000000000000000e+00" cType="1" res="1.4837814960628748e-03" rms="4.5377615094184875e-01" purity="6.3490045070648193e-01" nType="-99"/>
        </Node>
      </Node>
    </BinaryTree>
    <BinaryTree type="DecisionTree" boostWeight="1.0000000000000000e+00" itree="705">
      <Node pos="s" depth="0" NCoef="0" IVar="7" Cut="1.1551899909973145e+00" cType="1" res="5.9914581477642059e-02" rms="4.4477528333663940e-01" purity="4.9686884880065918e-01" nType="0">
        <Node pos="l" depth="1" NCoef="0" IVar="5" Cut="1.6288583278656006e+00" cType="1" res="1.2846608459949493e-01" rms="4.3145188689231873e-01" purity="5.8668422698974609e-01" nType="0">
          <Node pos="l" depth="2" NCoef="0" IVar="-1" Cut="0.0000000000000000e+00" cType="1" res="1.0514635359868407e-03" rms="4.3155005574226379e-01" purity="6.1066913604736328e-01" nType="-99"/>
          <Node pos="r" depth="2" NCoef="0" IVar="-1" Cut="0.0000000000000000e+00" cType="1" res="-1.8494014511816204e-04" rms="3.9967763423919678e-01" purity="4.3296262621879578e-01" nType="-99"/>
        </Node>
        <Node pos="r" depth="1" NCoef="0" IVar="3" Cut="1.1376528739929199e+00" cType="1" res="8.8707907125353813e-03" rms="4.4767534732818604e-01" purity="4.2999190092086792e-01" nType="0">
          <Node pos="l" depth="2" NCoef="0" IVar="-1" Cut="0.0000000000000000e+00" cType="1" res="6.8296032259240746e-04" rms="4.3433034420013428e-01" purity="7.2263276576995850e-01" nType="-99"/>
          <Node pos="r" depth="2" NCoef="0" IVar="-1" Cut="0.0000000000000000e+00" cType="1" res="-2.8836648561991751e-04" rms="4.4647583365440369e-01" purity="3.3981633186340332e-01" nType="-99"/>
        </Node>
      </Node>
    </BinaryTree>
    <BinaryTree type="DecisionTree" boostWeight="1.0000000000000000e+00" itree="706">
      <Node pos="s" depth="0" NCoef="0" IVar="7" Cut="1.5088667869567871e+00" cType="1" res="4.3973390012979507e-02" rms="4.2934688925743103e-01" purity="4.8649913072586060e-01" nType="0">
        <Node pos="l" depth="1" NCoef="0" IVar="6" Cut="3.8153677368164062e+02" cType="1" res="9.6639588475227356e-02" rms="4.2636293172836304e-01" purity="5.7851600646972656e-01" nType="0">
          <Node pos="l" depth="2" NCoef="0" IVar="-1" Cut="0.0000000000000000e+00" cType="1" res="2.1270172146614641e-04" rms="4.3463429808616638e-01" purity="4.1765588521957397e-01" nType="-99"/>
          <Node pos="r" depth="2" NCoef="0" IVar="-1" Cut="0.0000000000000000e+00" cType="1" res="1.0243810247629881e-03" rms="3.9523261785507202e-01" purity="7.8865402936935425e-01" nType="-99"/>
        </Node>
        <Node pos="r" depth="1" NCoef="0" IVar="8" Cut="1.2188460540771484e+02" cType="1" res="-4.6198811382055283e-02" rms="4.1932150721549988e-01" purity="3.2895272970199585e-01" nType="0">
          <Node pos="l" depth="2" NCoef="0" IVar="-1" Cut="0.0000000000000000e+00" cType="1" res="-2.9584907460957766e-03" rms="3.9216130971908569e-01" purity="2.0142005383968353e-01" nType="-99"/>
          <Node pos="r" depth="2" NCoef="0" IVar="-1" Cut="0.0000000000000000e+00" cType="1" res="1.2256678019184619e-04" rms="4.2163187265396118e-01" purity="3.9578869938850403e-01" nType="-99"/>
        </Node>
      </Node>
    </BinaryTree>
    <BinaryTree type="DecisionTree" boostWeight="1.0000000000000000e+00" itree="707">
      <Node pos="s" depth="0" NCoef="0" IVar="1" Cut="6.5238380432128906e+01" cType="1" res="1.6475070267915726e-02" rms="4.2898300290107727e-01" purity="4.5791965723037720e-01" nType="0">
        <Node pos="l" depth="1" NCoef="0" IVar="1" Cut="5.1736316680908203e+01" cType="1" res="-9.2548951506614685e-02" rms="3.8850808143615723e-01" purity="2.4754889309406281e-01" nType="0">
          <Node pos="l" depth="2" NCoef="0" IVar="-1" Cut="0.0000000000000000e+00" cType="1" res="-4.8208428779616952e-04" rms="3.9261767268180847e-01" purity="2.9441499710083008e-01" nType="-99"/>
          <Node pos="r" depth="2" NCoef="0" IVar="-1" Cut="0.0000000000000000e+00" cType="1" res="-4.9116108566522598e-03" rms="3.4306529164314270e-01" purity="1.2817047536373138e-01" nType="-99"/>
        </Node>
        <Node pos="r" depth="1" NCoef="0" IVar="7" Cut="1.8331209421157837e+00" cType="1" res="5.4284851998090744e-02" rms="4.3583211302757263e-01" purity="5.3087675571441650e-01" nType="0">
          <Node pos="l" depth="2" NCoef="0" IVar="-1" Cut="0.0000000000000000e+00" cType="1" res="6.4092269167304039e-04" rms="4.5119592547416687e-01" purity="6.3481450080871582e-01" nType="-99"/>
          <Node pos="r" depth="2" NCoef="0" IVar="-1" Cut="0.0000000000000000e+00" cType="1" res="-7.3066761251538992e-04" rms="3.7576714158058167e-01" purity="2.8412935137748718e-01" nType="-99"/>
        </Node>
      </Node>
    </BinaryTree>
    <BinaryTree type="DecisionTree" boostWeight="1.0000000000000000e+00" itree="708">
      <Node pos="s" depth="0" NCoef="0" IVar="1" Cut="3.9865623474121094e+01" cType="1" res="3.3579647541046143e-02" rms="4.2044666409492493e-01" purity="4.8280569911003113e-01" nType="0">
        <Node pos="l" depth="1" NCoef="0" IVar="-1" Cut="0.0000000000000000e+00" cType="1" res="-8.5124680772423744e-03" rms="2.4512270092964172e-01" purity="5.9445120394229889e-02" nType="-99"/>
        <Node pos="r" depth="1" NCoef="0" IVar="5" Cut="1.2576781511306763e+00" cType="1" res="4.9637813121080399e-02" rms="4.2629534006118774e-01" purity="5.1428902149200439e-01" nType="0">
          <Node pos="l" depth="2" NCoef="0" IVar="-1" Cut="0.0000000000000000e+00" cType="1" res="-8.1639598647598177e-05" rms="4.0115112066268921e-01" purity="4.2402943968772888e-01" nType="-99"/>
          <Node pos="r" depth="2" NCoef="0" IVar="-1" Cut="0.0000000000000000e+00" cType="1" res="7.4429920641705394e-04" rms="4.4236746430397034e-01" purity="6.0480761528015137e-01" nType="-99"/>
        </Node>
      </Node>
    </BinaryTree>
    <BinaryTree type="DecisionTree" boostWeight="1.0000000000000000e+00" itree="709">
      <Node pos="s" depth="0" NCoef="0" IVar="3" Cut="1.0294351577758789e+00" cType="1" res="6.4967066049575806e-02" rms="4.3203473091125488e-01" purity="5.2214366197586060e-01" nType="0">
        <Node pos="l" depth="1" NCoef="0" IVar="2" Cut="1.0935330200195312e+02" cType="1" res="1.6145239770412445e-01" rms="4.1580483317375183e-01" purity="7.1941781044006348e-01" nType="0">
          <Node pos="l" depth="2" NCoef="0" IVar="-1" Cut="0.0000000000000000e+00" cType="1" res="1.6083274967968464e-03" rms="4.5899367332458496e-01" purity="6.4562612771987915e-01" nType="-99"/>
          <Node pos="r" depth="2" NCoef="0" IVar="-1" Cut="0.0000000000000000e+00" cType="1" res="7.1347999619320035e-04" rms="3.9431214332580566e-01" purity="7.4361681938171387e-01" nType="-99"/>
        </Node>
        <Node pos="r" depth="1" NCoef="0" IVar="2" Cut="2.7978747558593750e+02" cType="1" res="1.4385845512151718e-02" rms="4.3177413940429688e-01" purity="4.1872513294219971e-01" nType="0">
          <Node pos="l" depth="2" NCoef="0" IVar="-1" Cut="0.0000000000000000e+00" cType="1" res="4.5623586629517376e-04" rms="4.3902280926704407e-01" purity="4.7892996668815613e-01" nType="-99"/>
          <Node pos="r" depth="2" NCoef="0" IVar="-1" Cut="0.0000000000000000e+00" cType="1" res="-2.7049700729548931e-03" rms="3.6334091424942017e-01" purity="1.8964031338691711e-01" nType="-99"/>
        </Node>
      </Node>
    </BinaryTree>
    <BinaryTree type="DecisionTree" boostWeight="1.0000000000000000e+00" itree="710">
      <Node pos="s" depth="0" NCoef="0" IVar="6" Cut="4.3966912841796875e+02" cType="1" res="4.8923116177320480e-02" rms="4.2562174797058105e-01" purity="5.0166875123977661e-01" nType="0">
        <Node pos="l" depth="1" NCoef="0" IVar="0" Cut="9.4208854436874390e-01" cType="1" res="9.5458906143903732e-03" rms="4.2479652166366577e-01" purity="4.2657172679901123e-01" nType="0">
          <Node pos="l" depth="2" NCoef="0" IVar="-1" Cut="0.0000000000000000e+00" cType="1" res="-2.8501581400632858e-03" rms="3.2048061490058899e-01" purity="1.4532302320003510e-01" nType="-99"/>
          <Node pos="r" depth="2" NCoef="0" IVar="-1" Cut="0.0000000000000000e+00" cType="1" res="4.7368710511364043e-04" rms="4.4661283493041992e-01" purity="5.3149294853210449e-01" nType="-99"/>
        </Node>
        <Node pos="r" depth="1" NCoef="0" IVar="7" Cut="1.8142863512039185e+00" cType="1" res="1.5449358522891998e-01" rms="4.0955242514610291e-01" purity="7.0300424098968506e-01" nType="0">
          <Node pos="l" depth="2" NCoef="0" IVar="-1" Cut="0.0000000000000000e+00" cType="1" res="1.0312352096661925e-03" rms="3.9310151338577271e-01" purity="7.7924102544784546e-01" nType="-99"/>
          <Node pos="r" depth="2" NCoef="0" IVar="-1" Cut="0.0000000000000000e+00" cType="1" res="1.9903732754755765e-04" rms="4.4299939274787903e-01" purity="4.0914511680603027e-01" nType="-99"/>
        </Node>
      </Node>
    </BinaryTree>
    <BinaryTree type="DecisionTree" boostWeight="1.0000000000000000e+00" itree="711">
      <Node pos="s" depth="0" NCoef="0" IVar="6" Cut="2.2999822998046875e+02" cType="1" res="2.3252243176102638e-02" rms="4.2544519901275635e-01" purity="4.7307798266410828e-01" nType="0">
        <Node pos="l" depth="1" NCoef="0" IVar="-1" Cut="0.0000000000000000e+00" cType="1" res="-7.4309580959379673e-03" rms="2.2075766324996948e-01" purity="4.6498410403728485e-02" nType="-99"/>
        <Node pos="r" depth="1" NCoef="0" IVar="5" Cut="8.0544513463973999e-01" cType="1" res="3.6179181188344955e-02" rms="4.3547743558883667e-01" purity="5.0804620981216431e-01" nType="0">
          <Node pos="l" depth="2" NCoef="0" IVar="-1" Cut="0.0000000000000000e+00" cType="1" res="1.4403839595615864e-03" rms="4.8015689849853516e-01" purity="5.5485302209854126e-01" nType="-99"/>
          <Node pos="r" depth="2" NCoef="0" IVar="-1" Cut="0.0000000000000000e+00" cType="1" res="1.8642841314431280e-04" rms="4.2892274260520935e-01" purity="5.0399821996688843e-01" nType="-99"/>
        </Node>
      </Node>
    </BinaryTree>
    <BinaryTree type="DecisionTree" boostWeight="1.0000000000000000e+00" itree="712">
      <Node pos="s" depth="0" NCoef="0" IVar="0" Cut="9.6701246500015259e-01" cType="1" res="3.3620879054069519e-02" rms="4.4661292433738708e-01" purity="4.6406042575836182e-01" nType="0">
        <Node pos="l" depth="1" NCoef="0" IVar="1" Cut="1.3219262695312500e+02" cType="1" res="-6.0157082043588161e-03" rms="4.4042915105819702e-01" purity="3.6020487546920776e-01" nType="0">
          <Node pos="l" depth="2" NCoef="0" IVar="-1" Cut="0.0000000000000000e+00" cType="1" res="2.4605990620329976e-04" rms="4.4406643509864807e-01" purity="3.9389774203300476e-01" nType="-99"/>
          <Node pos="r" depth="2" NCoef="0" IVar="-1" Cut="0.0000000000000000e+00" cType="1" res="-2.3074790369719267e-03" rms="4.0139514207839966e-01" purity="2.2556117177009583e-01" nType="-99"/>
        </Node>
        <Node pos="r" depth="1" NCoef="0" IVar="8" Cut="1.5074986267089844e+02" cType="1" res="1.0196767002344131e-01" rms="4.4893342256546021e-01" purity="6.4314222335815430e-01" nType="0">
          <Node pos="l" depth="2" NCoef="0" IVar="-1" Cut="0.0000000000000000e+00" cType="1" res="3.8772367406636477e-04" rms="4.4364830851554871e-01" purity="6.1196792125701904e-01" nType="-99"/>
          <Node pos="r" depth="2" NCoef="0" IVar="-1" Cut="0.0000000000000000e+00" cType="1" res="1.5382252167910337e-03" rms="4.3503758311271667e-01" purity="7.3846513032913208e-01" nType="-99"/>
        </Node>
      </Node>
    </BinaryTree>
    <BinaryTree type="DecisionTree" boostWeight="1.0000000000000000e+00" itree="713">
      <Node pos="s" depth="0" NCoef="0" IVar="8" Cut="1.7482633972167969e+02" cType="1" res="9.3362241983413696e-02" rms="4.3315821886062622e-01" purity="5.4333764314651489e-01" nType="0">
        <Node pos="l" depth="1" NCoef="0" IVar="6" Cut="3.7949710083007812e+02" cType="1" res="7.3052011430263519e-02" rms="4.2913928627967834e-01" purity="5.3029131889343262e-01" nType="0">
          <Node pos="l" depth="2" NCoef="0" IVar="-1" Cut="0.0000000000000000e+00" cType="1" res="2.0647823112085462e-04" rms="4.2570608854293823e-01" purity="4.0693604946136475e-01" nType="-99"/>
          <Node pos="r" depth="2" NCoef="0" IVar="-1" Cut="0.0000000000000000e+00" cType="1" res="8.9395971735939384e-04" rms="4.2155697941780090e-01" purity="7.2603541612625122e-01" nType="-99"/>
        </Node>
        <Node pos="r" depth="1" NCoef="0" IVar="-1" Cut="0.0000000000000000e+00" cType="1" res="1.6174251213669777e-03" rms="4.3305078148841858e-01" purity="6.4029181003570557e-01" nType="-99"/>
      </Node>
    </BinaryTree>
    <BinaryTree type="DecisionTree" boostWeight="1.0000000000000000e+00" itree="714">
      <Node pos="s" depth="0" NCoef="0" IVar="5" Cut="1.6407579183578491e+00" cType="1" res="4.0864553302526474e-02" rms="4.3004488945007324e-01" purity="4.9141269922256470e-01" nType="0">
        <Node pos="l" depth="1" NCoef="0" IVar="3" Cut="1.3095958232879639e+00" cType="1" res="7.3782517574727535e-04" rms="4.2142349481582642e-01" purity="4.4939532876014709e-01" nType="0">
          <Node pos="l" depth="2" NCoef="0" IVar="-1" Cut="0.0000000000000000e+00" cType="1" res="4.7821862972341478e-04" rms="4.3288949131965637e-01" purity="6.2381672859191895e-01" nType="-99"/>
          <Node pos="r" depth="2" NCoef="0" IVar="-1" Cut="0.0000000000000000e+00" cType="1" res="-6.4628809923306108e-04" rms="4.0475749969482422e-01" purity="3.1630095839500427e-01" nType="-99"/>
        </Node>
        <Node pos="r" depth="1" NCoef="0" IVar="2" Cut="1.7492410278320312e+02" cType="1" res="1.9459673762321472e-01" rms="4.2808908224105835e-01" purity="6.5238839387893677e-01" nType="0">
          <Node pos="l" depth="2" NCoef="0" IVar="-1" Cut="0.0000000000000000e+00" cType="1" res="1.6700309934094548e-03" rms="3.9667987823486328e-01" purity="7.5389927625656128e-01" nType="-99"/>
          <Node pos="r" depth="2" NCoef="0" IVar="-1" Cut="0.0000000000000000e+00" cType="1" res="1.4595899847336113e-04" rms="4.1029152274131775e-01" purity="5.0601524114608765e-01" nType="-99"/>
        </Node>
      </Node>
    </BinaryTree>
    <BinaryTree type="DecisionTree" boostWeight="1.0000000000000000e+00" itree="715">
      <Node pos="s" depth="0" NCoef="0" IVar="3" Cut="9.0246093273162842e-01" cType="1" res="5.2598942071199417e-02" rms="4.3000575900077820e-01" purity="4.9749398231506348e-01" nType="0">
        <Node pos="l" depth="1" NCoef="0" IVar="5" Cut="1.2493635416030884e+00" cType="1" res="1.4011076092720032e-01" rms="4.3153494596481323e-01" purity="6.8634760379791260e-01" nType="0">
          <Node pos="l" depth="2" NCoef="0" IVar="-1" Cut="0.0000000000000000e+00" cType="1" res="9.7701523918658495e-04" rms="3.7864783406257629e-01" purity="7.8621166944503784e-01" nType="-99"/>
          <Node pos="r" depth="2" NCoef="0" IVar="-1" Cut="0.0000000000000000e+00" cType="1" res="5.2014831453561783e-04" rms="4.7845387458801270e-01" purity="5.7059812545776367e-01" nType="-99"/>
        </Node>
        <Node pos="r" depth="1" NCoef="0" IVar="2" Cut="3.1509640502929688e+02" cType="1" res="2.2033909335732460e-02" rms="4.2524793744087219e-01" purity="4.3153351545333862e-01" nType="0">
          <Node pos="l" depth="2" NCoef="0" IVar="-1" Cut="0.0000000000000000e+00" cType="1" res="3.5377542371861637e-04" rms="4.2857018113136292e-01" purity="4.6224433183670044e-01" nType="-99"/>
          <Node pos="r" depth="2" NCoef="0" IVar="-1" Cut="0.0000000000000000e+00" cType="1" res="-1.1045756982639432e-03" rms="3.9377775788307190e-01" purity="2.7745711803436279e-01" nType="-99"/>
        </Node>
      </Node>
    </BinaryTree>
    <BinaryTree type="DecisionTree" boostWeight="1.0000000000000000e+00" itree="716">
      <Node pos="s" depth="0" NCoef="0" IVar="8" Cut="1.1783262634277344e+02" cType="1" res="7.0790581405162811e-02" rms="4.4519400596618652e-01" purity="5.0916945934295654e-01" nType="0">
        <Node pos="l" depth="1" NCoef="0" IVar="8" Cut="9.4335472106933594e+01" cType="1" res="1.2892875075340271e-01" rms="4.5765912532806396e-01" purity="5.3434401750564575e-01" nType="0">
          <Node pos="l" depth="2" NCoef="0" IVar="-1" Cut="0.0000000000000000e+00" cType="1" res="3.3350047306157649e-04" rms="4.1725799441337585e-01" purity="3.4268820285797119e-01" nType="-99"/>
          <Node pos="r" depth="2" NCoef="0" IVar="-1" Cut="0.0000000000000000e+00" cType="1" res="1.1798416962847114e-03" rms="4.6741542220115662e-01" purity="6.1615943908691406e-01" nType="-99"/>
        </Node>
        <Node pos="r" depth="1" NCoef="0" IVar="1" Cut="6.8149726867675781e+01" cType="1" res="1.9397458061575890e-02" rms="4.2734065651893616e-01" purity="4.8691561818122864e-01" nType="0">
          <Node pos="l" depth="2" NCoef="0" IVar="-1" Cut="0.0000000000000000e+00" cType="1" res="-1.9539706408977509e-03" rms="4.0606248378753662e-01" purity="2.3155198991298676e-01" nType="-99"/>
          <Node pos="r" depth="2" NCoef="0" IVar="-1" Cut="0.0000000000000000e+00" cType="1" res="4.4838082976639271e-04" rms="4.2561429738998413e-01" purity="5.6475138664245605e-01" nType="-99"/>
        </Node>
      </Node>
    </BinaryTree>
    <BinaryTree type="DecisionTree" boostWeight="1.0000000000000000e+00" itree="717">
      <Node pos="s" depth="0" NCoef="0" IVar="0" Cut="9.7143852710723877e-01" cType="1" res="3.4643724560737610e-02" rms="4.4144529104232788e-01" purity="4.6210426092147827e-01" nType="0">
        <Node pos="l" depth="1" NCoef="0" IVar="2" Cut="1.7086215209960938e+02" cType="1" res="-3.3469642512500286e-03" rms="4.3420055508613586e-01" purity="3.7350884079933167e-01" nType="0">
          <Node pos="l" depth="2" NCoef="0" IVar="-1" Cut="0.0000000000000000e+00" cType="1" res="7.0791650796309114e-04" rms="4.4403940439224243e-01" purity="4.9385741353034973e-01" nType="-99"/>
          <Node pos="r" depth="2" NCoef="0" IVar="-1" Cut="0.0000000000000000e+00" cType="1" res="-1.5496355481445789e-03" rms="4.0005558729171753e-01" purity="2.4834121763706207e-01" nType="-99"/>
        </Node>
        <Node pos="r" depth="1" NCoef="0" IVar="8" Cut="1.3505636596679688e+02" cType="1" res="1.2144571542739868e-01" rms="4.4557398557662964e-01" purity="6.6452896595001221e-01" nType="0">
          <Node pos="l" depth="2" NCoef="0" IVar="-1" Cut="0.0000000000000000e+00" cType="1" res="3.7360817077569664e-04" rms="4.4539323449134827e-01" purity="6.1339223384857178e-01" nType="-99"/>
          <Node pos="r" depth="2" NCoef="0" IVar="-1" Cut="0.0000000000000000e+00" cType="1" res="1.2741055106744170e-03" rms="4.2745921015739441e-01" purity="7.4070519208908081e-01" nType="-99"/>
        </Node>
      </Node>
    </BinaryTree>
    <BinaryTree type="DecisionTree" boostWeight="1.0000000000000000e+00" itree="718">
      <Node pos="s" depth="0" NCoef="0" IVar="4" Cut="5.7244890928268433e-01" cType="1" res="4.1025612503290176e-02" rms="4.4142213463783264e-01" purity="4.8402974009513855e-01" nType="0">
        <Node pos="l" depth="1" NCoef="0" IVar="-1" Cut="0.0000000000000000e+00" cType="1" res="-1.1683873599395156e-03" rms="4.1050371527671814e-01" purity="3.5457083582878113e-01" nType="-99"/>
        <Node pos="r" depth="1" NCoef="0" IVar="7" Cut="9.2052215337753296e-01" cType="1" res="5.5438160896301270e-02" rms="4.4201633334159851e-01" purity="4.9746677279472351e-01" nType="0">
          <Node pos="l" depth="2" NCoef="0" IVar="-1" Cut="0.0000000000000000e+00" cType="1" res="9.0619007823988795e-04" rms="4.1696467995643616e-01" purity="5.6812101602554321e-01" nType="-99"/>
          <Node pos="r" depth="2" NCoef="0" IVar="-1" Cut="0.0000000000000000e+00" cType="1" res="2.3810466518625617e-04" rms="4.4813132286071777e-01" purity="4.6999692916870117e-01" nType="-99"/>
        </Node>
      </Node>
    </BinaryTree>
    <BinaryTree type="DecisionTree" boostWeight="1.0000000000000000e+00" itree="719">
      <Node pos="s" depth="0" NCoef="0" IVar="3" Cut="2.7109410762786865e+00" cType="1" res="7.5811468064785004e-02" rms="4.4488278031349182e-01" purity="5.1273632049560547e-01" nType="0">
        <Node pos="l" depth="1" NCoef="0" IVar="7" Cut="2.1603338718414307e+00" cType="1" res="9.3299984931945801e-02" rms="4.6470302343368530e-01" purity="5.6839877367019653e-01" nType="0">
          <Node pos="l" depth="2" NCoef="0" IVar="-1" Cut="0.0000000000000000e+00" cType="1" res="4.8481996054761112e-04" rms="4.5453655719757080e-01" purity="5.6028795242309570e-01" nType="-99"/>
          <Node pos="r" depth="2" NCoef="0" IVar="-1" Cut="0.0000000000000000e+00" cType="1" res="2.3313916753977537e-03" rms="4.8605442047119141e-01" purity="6.4166575670242310e-01" nType="-99"/>
        </Node>
        <Node pos="r" depth="1" NCoef="0" IVar="-1" Cut="0.0000000000000000e+00" cType="1" res="-1.5768883749842644e-02" rms="5.5537652224302292e-02" purity="0.0000000000000000e+00" nType="-99"/>
      </Node>
    </BinaryTree>
    <BinaryTree type="DecisionTree" boostWeight="1.0000000000000000e+00" itree="720">
      <Node pos="s" depth="0" NCoef="0" IVar="6" Cut="2.6948953247070312e+02" cType="1" res="6.9620855152606964e-02" rms="4.3444976210594177e-01" purity="5.1818561553955078e-01" nType="0">
        <Node pos="l" depth="1" NCoef="0" IVar="0" Cut="9.5924651622772217e-01" cType="1" res="-8.3605088293552399e-02" rms="3.2255700230598450e-01" purity="1.9132496416568756e-01" nType="0">
          <Node pos="l" depth="2" NCoef="0" IVar="-1" Cut="0.0000000000000000e+00" cType="1" res="-1.7033701762557030e-02" rms="1.1694074422121048e-01" purity="0.0000000000000000e+00" nType="-99"/>
          <Node pos="r" depth="2" NCoef="0" IVar="-1" Cut="0.0000000000000000e+00" cType="1" res="3.6144605837762356e-04" rms="4.3881097435951233e-01" purity="4.3877905607223511e-01" nType="-99"/>
        </Node>
        <Node pos="r" depth="1" NCoef="0" IVar="0" Cut="9.1412729024887085e-01" cType="1" res="1.0294175893068314e-01" rms="4.4827508926391602e-01" purity="5.8926558494567871e-01" nType="0">
          <Node pos="l" depth="2" NCoef="0" IVar="-1" Cut="0.0000000000000000e+00" cType="1" res="1.5908450586721301e-03" rms="4.3856388330459595e-01" purity="6.4351809024810791e-01" nType="-99"/>
          <Node pos="r" depth="2" NCoef="0" IVar="-1" Cut="0.0000000000000000e+00" cType="1" res="5.8028672356158495e-04" rms="4.4507688283920288e-01" purity="5.8300411701202393e-01" nType="-99"/>
        </Node>
      </Node>
    </BinaryTree>
    <BinaryTree type="DecisionTree" boostWeight="1.0000000000000000e+00" itree="721">
      <Node pos="s" depth="0" NCoef="0" IVar="8" Cut="1.2325567626953125e+02" cType="1" res="5.9106443077325821e-02" rms="4.4264936447143555e-01" purity="4.9955743551254272e-01" nType="0">
        <Node pos="l" depth="1" NCoef="0" IVar="7" Cut="1.2055701017379761e+00" cType="1" res="9.5769792795181274e-02" rms="4.5028400421142578e-01" purity="5.2945989370346069e-01" nType="0">
          <Node pos="l" depth="2" NCoef="0" IVar="-1" Cut="0.0000000000000000e+00" cType="1" res="1.0356481652706861e-03" rms="4.5001006126403809e-01" purity="5.9940326213836670e-01" nType="-99"/>
          <Node pos="r" depth="2" NCoef="0" IVar="-1" Cut="0.0000000000000000e+00" cType="1" res="2.9024601099081337e-04" rms="4.4165727496147156e-01" purity="4.5404103398323059e-01" nType="-99"/>
        </Node>
        <Node pos="r" depth="1" NCoef="0" IVar="1" Cut="8.1148811340332031e+01" cType="1" res="1.7154842615127563e-02" rms="4.2993009090423584e-01" purity="4.6534183621406555e-01" nType="0">
          <Node pos="l" depth="2" NCoef="0" IVar="-1" Cut="0.0000000000000000e+00" cType="1" res="-8.2008686149492860e-04" rms="4.1907235980033875e-01" purity="3.0986574292182922e-01" nType="-99"/>
          <Node pos="r" depth="2" NCoef="0" IVar="-1" Cut="0.0000000000000000e+00" cType="1" res="4.9018638674169779e-04" rms="4.2850366234779358e-01" purity="5.4119062423706055e-01" nType="-99"/>
        </Node>
      </Node>
    </BinaryTree>
    <BinaryTree type="DecisionTree" boostWeight="1.0000000000000000e+00" itree="722">
      <Node pos="s" depth="0" NCoef="0" IVar="3" Cut="7.3813229799270630e-01" cType="1" res="7.1619018912315369e-02" rms="4.3403545022010803e-01" purity="5.1755446195602417e-01" nType="0">
        <Node pos="l" depth="1" NCoef="0" IVar="2" Cut="1.4643479919433594e+02" cType="1" res="1.8194951117038727e-01" rms="4.2376175522804260e-01" purity="7.2019881010055542e-01" nType="0">
          <Node pos="l" depth="2" NCoef="0" IVar="-1" Cut="0.0000000000000000e+00" cType="1" res="1.3621108373627067e-03" rms="4.5678073167800903e-01" purity="6.6721862554550171e-01" nType="-99"/>
          <Node pos="r" depth="2" NCoef="0" IVar="-1" Cut="0.0000000000000000e+00" cType="1" res="7.8964966814965010e-04" rms="3.8761007785797119e-01" purity="7.6663005352020264e-01" nType="-99"/>
        </Node>
        <Node pos="r" depth="1" NCoef="0" IVar="0" Cut="9.6918696165084839e-01" cType="1" res="4.7068849205970764e-02" rms="4.3247705698013306e-01" purity="4.7246310114860535e-01" nType="0">
          <Node pos="l" depth="2" NCoef="0" IVar="-1" Cut="0.0000000000000000e+00" cType="1" res="1.6689352924004197e-04" rms="4.3745717406272888e-01" purity="3.7095811963081360e-01" nType="-99"/>
          <Node pos="r" depth="2" NCoef="0" IVar="-1" Cut="0.0000000000000000e+00" cType="1" res="7.0300139486789703e-04" rms="4.1506803035736084e-01" purity="6.7728215456008911e-01" nType="-99"/>
        </Node>
      </Node>
    </BinaryTree>
    <BinaryTree type="DecisionTree" boostWeight="1.0000000000000000e+00" itree="723">
      <Node pos="s" depth="0" NCoef="0" IVar="3" Cut="6.9816356897354126e-01" cType="1" res="5.5407267063856125e-02" rms="4.3143695592880249e-01" purity="5.0855505466461182e-01" nType="0">
        <Node pos="l" depth="1" NCoef="0" IVar="7" Cut="8.8585877418518066e-01" cType="1" res="1.7615725100040436e-01" rms="3.9595681428909302e-01" purity="7.5315397977828979e-01" nType="0">
          <Node pos="l" depth="2" NCoef="0" IVar="-1" Cut="0.0000000000000000e+00" cType="1" res="8.0243544653058052e-04" rms="3.8075065612792969e-01" purity="7.0289623737335205e-01" nType="-99"/>
          <Node pos="r" depth="2" NCoef="0" IVar="-1" Cut="0.0000000000000000e+00" cType="1" res="1.1001206003129482e-03" rms="4.0540608763694763e-01" purity="7.9299139976501465e-01" nType="-99"/>
        </Node>
        <Node pos="r" depth="1" NCoef="0" IVar="8" Cut="9.0943847656250000e+01" cType="1" res="2.8368601575493813e-02" rms="4.3441376090049744e-01" purity="4.5378383994102478e-01" nType="0">
          <Node pos="l" depth="2" NCoef="0" IVar="-1" Cut="0.0000000000000000e+00" cType="1" res="-4.2355270124971867e-03" rms="3.1501653790473938e-01" purity="1.2231858819723129e-01" nType="-99"/>
          <Node pos="r" depth="2" NCoef="0" IVar="-1" Cut="0.0000000000000000e+00" cType="1" res="3.6930403439328074e-04" rms="4.4161972403526306e-01" purity="4.8873826861381531e-01" nType="-99"/>
        </Node>
      </Node>
    </BinaryTree>
    <BinaryTree type="DecisionTree" boostWeight="1.0000000000000000e+00" itree="724">
      <Node pos="s" depth="0" NCoef="0" IVar="2" Cut="1.6216882324218750e+02" cType="1" res="6.8347789347171783e-02" rms="4.4868466258049011e-01" purity="5.0371539592742920e-01" nType="0">
        <Node pos="l" depth="1" NCoef="0" IVar="8" Cut="1.0212242889404297e+02" cType="1" res="1.1161841452121735e-01" rms="4.5336771011352539e-01" purity="5.4197943210601807e-01" nType="0">
          <Node pos="l" depth="2" NCoef="0" IVar="-1" Cut="0.0000000000000000e+00" cType="1" res="-8.9294364443048835e-04" rms="3.6821180582046509e-01" purity="2.3713403940200806e-01" nType="-99"/>
          <Node pos="r" depth="2" NCoef="0" IVar="-1" Cut="0.0000000000000000e+00" cType="1" res="1.0033121798187494e-03" rms="4.6217384934425354e-01" purity="6.1188304424285889e-01" nType="-99"/>
        </Node>
        <Node pos="r" depth="1" NCoef="0" IVar="4" Cut="6.8083375692367554e-01" cType="1" res="4.1475664824247360e-02" rms="4.4363230466842651e-01" purity="4.7995248436927795e-01" nType="0">
          <Node pos="l" depth="2" NCoef="0" IVar="-1" Cut="0.0000000000000000e+00" cType="1" res="6.3879019580781460e-04" rms="4.4711107015609741e-01" purity="5.4950654506683350e-01" nType="-99"/>
          <Node pos="r" depth="2" NCoef="0" IVar="-1" Cut="0.0000000000000000e+00" cType="1" res="-1.3372808462008834e-04" rms="4.3303218483924866e-01" purity="3.9092105627059937e-01" nType="-99"/>
        </Node>
      </Node>
    </BinaryTree>
    <BinaryTree type="DecisionTree" boostWeight="1.0000000000000000e+00" itree="725">
      <Node pos="s" depth="0" NCoef="0" IVar="1" Cut="1.1531837463378906e+02" cType="1" res="4.6288672834634781e-02" rms="4.3108844757080078e-01" purity="4.9195355176925659e-01" nType="0">
        <Node pos="l" depth="1" NCoef="0" IVar="8" Cut="7.5098770141601562e+01" cType="1" res="9.3119619414210320e-03" rms="4.3324899673461914e-01" purity="4.2438909411430359e-01" nType="0">
          <Node pos="l" depth="2" NCoef="0" IVar="-1" Cut="0.0000000000000000e+00" cType="1" res="1.3556291814893484e-03" rms="4.0704849362373352e-01" purity="4.7663366794586182e-01" nType="-99"/>
          <Node pos="r" depth="2" NCoef="0" IVar="-1" Cut="0.0000000000000000e+00" cType="1" res="-7.3034803790505975e-05" rms="4.3234813213348389e-01" purity="4.1884526610374451e-01" nType="-99"/>
        </Node>
        <Node pos="r" depth="1" NCoef="0" IVar="8" Cut="1.4087597656250000e+02" cType="1" res="1.0780581086874008e-01" rms="4.2032292485237122e-01" purity="6.0435861349105835e-01" nType="0">
          <Node pos="l" depth="2" NCoef="0" IVar="-1" Cut="0.0000000000000000e+00" cType="1" res="1.0787472128868103e-03" rms="3.9209315180778503e-01" purity="7.1897500753402710e-01" nType="-99"/>
          <Node pos="r" depth="2" NCoef="0" IVar="-1" Cut="0.0000000000000000e+00" cType="1" res="-5.0109205767512321e-04" rms="4.3557539582252502e-01" purity="3.6771586537361145e-01" nType="-99"/>
        </Node>
      </Node>
    </BinaryTree>
    <BinaryTree type="DecisionTree" boostWeight="1.0000000000000000e+00" itree="726">
      <Node pos="s" depth="0" NCoef="0" IVar="0" Cut="9.5656198263168335e-01" cType="1" res="3.5123180598020554e-02" rms="4.3534183502197266e-01" purity="4.7473496198654175e-01" nType="0">
        <Node pos="l" depth="1" NCoef="0" IVar="7" Cut="1.7526940107345581e+00" cType="1" res="-4.5563086867332458e-02" rms="3.9448785781860352e-01" purity="2.8049838542938232e-01" nType="0">
          <Node pos="l" depth="2" NCoef="0" IVar="-1" Cut="0.0000000000000000e+00" cType="1" res="-9.4024857389740646e-05" rms="4.2280951142311096e-01" purity="3.4991204738616943e-01" nType="-99"/>
          <Node pos="r" depth="2" NCoef="0" IVar="-1" Cut="0.0000000000000000e+00" cType="1" res="-4.9553508870303631e-03" rms="2.7437576651573181e-01" purity="8.3711065351963043e-02" nType="-99"/>
        </Node>
        <Node pos="r" depth="1" NCoef="0" IVar="8" Cut="1.1184575653076172e+02" cType="1" res="9.9715873599052429e-02" rms="4.5527836680412292e-01" purity="6.3022935390472412e-01" nType="0">
          <Node pos="l" depth="2" NCoef="0" IVar="-1" Cut="0.0000000000000000e+00" cType="1" res="-2.1233530424069613e-04" rms="4.5792886614799500e-01" purity="4.4543918967247009e-01" nType="-99"/>
          <Node pos="r" depth="2" NCoef="0" IVar="-1" Cut="0.0000000000000000e+00" cType="1" res="8.7961315875872970e-04" rms="4.4714733958244324e-01" purity="6.8974608182907104e-01" nType="-99"/>
        </Node>
      </Node>
    </BinaryTree>
    <BinaryTree type="DecisionTree" boostWeight="1.0000000000000000e+00" itree="727">
      <Node pos="s" depth="0" NCoef="0" IVar="8" Cut="9.4800605773925781e+01" cType="1" res="5.2615381777286530e-02" rms="4.2239379882812500e-01" purity="5.0650972127914429e-01" nType="0">
        <Node pos="l" depth="1" NCoef="0" IVar="3" Cut="1.1597641706466675e+00" cType="1" res="-7.6998986303806305e-02" rms="3.5831815004348755e-01" purity="2.3115058243274689e-01" nType="0">
          <Node pos="l" depth="2" NCoef="0" IVar="-1" Cut="0.0000000000000000e+00" cType="1" res="2.9034842737019062e-04" rms="4.3903830647468567e-01" purity="4.3472057580947876e-01" nType="-99"/>
          <Node pos="r" depth="2" NCoef="0" IVar="-1" Cut="0.0000000000000000e+00" cType="1" res="-8.7948860600590706e-03" rms="2.2126244008541107e-01" purity="4.7298841178417206e-02" nType="-99"/>
        </Node>
        <Node pos="r" depth="1" NCoef="0" IVar="8" Cut="1.3357199096679688e+02" cType="1" res="7.0572309195995331e-02" rms="4.2743077874183655e-01" purity="5.4465824365615845e-01" nType="0">
          <Node pos="l" depth="2" NCoef="0" IVar="-1" Cut="0.0000000000000000e+00" cType="1" res="7.3260103818029165e-04" rms="4.2908170819282532e-01" purity="6.0380303859710693e-01" nType="-99"/>
          <Node pos="r" depth="2" NCoef="0" IVar="-1" Cut="0.0000000000000000e+00" cType="1" res="-9.7253454441670328e-05" rms="4.1248932480812073e-01" purity="4.1849616169929504e-01" nType="-99"/>
        </Node>
      </Node>
    </BinaryTree>
    <BinaryTree type="DecisionTree" boostWeight="1.0000000000000000e+00" itree="728">
      <Node pos="s" depth="0" NCoef="0" IVar="4" Cut="5.5567753314971924e-01" cType="1" res="3.2024174928665161e-02" rms="4.3813785910606384e-01" purity="4.5746558904647827e-01" nType="0">
        <Node pos="l" depth="1" NCoef="0" IVar="-1" Cut="0.0000000000000000e+00" cType="1" res="-1.2110287789255381e-03" rms="4.2318359017372131e-01" purity="3.2087782025337219e-01" nType="-99"/>
        <Node pos="r" depth="1" NCoef="0" IVar="1" Cut="3.4052734375000000e+01" cType="1" res="4.2393628507852554e-02" rms="4.3762743473052979e-01" purity="4.6827432513237000e-01" nType="0">
          <Node pos="l" depth="2" NCoef="0" IVar="-1" Cut="0.0000000000000000e+00" cType="1" res="-3.1486034858971834e-03" rms="3.0323496460914612e-01" purity="1.2497399747371674e-01" nType="-99"/>
          <Node pos="r" depth="2" NCoef="0" IVar="-1" Cut="0.0000000000000000e+00" cType="1" res="4.3025918421335518e-04" rms="4.4276604056358337e-01" purity="4.8975202441215515e-01" nType="-99"/>
        </Node>
      </Node>
    </BinaryTree>
    <BinaryTree type="DecisionTree" boostWeight="1.0000000000000000e+00" itree="729">
      <Node pos="s" depth="0" NCoef="0" IVar="8" Cut="9.5419662475585938e+01" cType="1" res="3.6082193255424500e-02" rms="4.3249490857124329e-01" purity="4.7004297375679016e-01" nType="0">
        <Node pos="l" depth="1" NCoef="0" IVar="1" Cut="7.4399642944335938e+01" cType="1" res="-7.5603514909744263e-02" rms="3.6246722936630249e-01" purity="2.2888879477977753e-01" nType="0">
          <Node pos="l" depth="2" NCoef="0" IVar="-1" Cut="0.0000000000000000e+00" cType="1" res="-4.8846625722944736e-03" rms="3.0563002824783325e-01" purity="1.0664084553718567e-01" nType="-99"/>
          <Node pos="r" depth="2" NCoef="0" IVar="-1" Cut="0.0000000000000000e+00" cType="1" res="3.4585609682835639e-04" rms="4.0602657198905945e-01" purity="4.0024840831756592e-01" nType="-99"/>
        </Node>
        <Node pos="r" depth="1" NCoef="0" IVar="7" Cut="1.7294864654541016e+00" cType="1" res="5.3146004676818848e-02" rms="4.3972751498222351e-01" purity="5.0688749551773071e-01" nType="0">
          <Node pos="l" depth="2" NCoef="0" IVar="-1" Cut="0.0000000000000000e+00" cType="1" res="5.8504007756710052e-04" rms="4.4341751933097839e-01" purity="5.8483576774597168e-01" nType="-99"/>
          <Node pos="r" depth="2" NCoef="0" IVar="-1" Cut="0.0000000000000000e+00" cType="1" res="-2.2749978234060109e-04" rms="4.2227396368980408e-01" purity="3.2529667019844055e-01" nType="-99"/>
        </Node>
      </Node>
    </BinaryTree>
    <BinaryTree type="DecisionTree" boostWeight="1.0000000000000000e+00" itree="730">
      <Node pos="s" depth="0" NCoef="0" IVar="0" Cut="9.3555647134780884e-01" cType="1" res="7.5677633285522461e-02" rms="4.2930024862289429e-01" purity="5.2431875467300415e-01" nType="0">
        <Node pos="l" depth="1" NCoef="0" IVar="4" Cut="7.4274921417236328e-01" cType="1" res="1.6844505071640015e-01" rms="4.3555977940559387e-01" purity="5.0301986932754517e-01" nType="0">
          <Node pos="l" depth="2" NCoef="0" IVar="-1" Cut="0.0000000000000000e+00" cType="1" res="7.3174934368580580e-04" rms="3.8543301820755005e-01" purity="4.6086841821670532e-01" nType="-99"/>
          <Node pos="r" depth="2" NCoef="0" IVar="-1" Cut="0.0000000000000000e+00" cType="1" res="2.6566823944449425e-03" rms="4.8074644804000854e-01" purity="5.8479923009872437e-01" nType="-99"/>
        </Node>
        <Node pos="r" depth="1" NCoef="0" IVar="4" Cut="7.9714030027389526e-01" cType="1" res="3.5416211932897568e-02" rms="4.2023000121116638e-01" purity="5.3356260061264038e-01" nType="0">
          <Node pos="l" depth="2" NCoef="0" IVar="-1" Cut="0.0000000000000000e+00" cType="1" res="3.7804705789312720e-04" rms="4.2150914669036865e-01" purity="5.6463122367858887e-01" nType="-99"/>
          <Node pos="r" depth="2" NCoef="0" IVar="-1" Cut="0.0000000000000000e+00" cType="1" res="-3.8421433418989182e-03" rms="3.2718718051910400e-01" purity="1.4025725424289703e-01" nType="-99"/>
        </Node>
      </Node>
    </BinaryTree>
    <BinaryTree type="DecisionTree" boostWeight="1.0000000000000000e+00" itree="731">
      <Node pos="s" depth="0" NCoef="0" IVar="2" Cut="1.6216882324218750e+02" cType="1" res="7.0901431143283844e-02" rms="4.4321972131729126e-01" purity="5.1036792993545532e-01" nType="0">
        <Node pos="l" depth="1" NCoef="0" IVar="8" Cut="9.9615005493164062e+01" cType="1" res="1.5083211660385132e-01" rms="4.5194506645202637e-01" purity="5.7930243015289307e-01" nType="0">
          <Node pos="l" depth="2" NCoef="0" IVar="-1" Cut="0.0000000000000000e+00" cType="1" res="-7.9013558570295572e-04" rms="4.1628423333168030e-01" purity="2.2742892801761627e-01" nType="-99"/>
          <Node pos="r" depth="2" NCoef="0" IVar="-1" Cut="0.0000000000000000e+00" cType="1" res="1.1839510407298803e-03" rms="4.4933009147644043e-01" purity="6.3830083608627319e-01" nType="-99"/>
        </Node>
        <Node pos="r" depth="1" NCoef="0" IVar="3" Cut="1.2182892560958862e+00" cType="1" res="8.9602926746010780e-03" rms="4.2614939808845520e-01" purity="4.5694804191589355e-01" nType="0">
          <Node pos="l" depth="2" NCoef="0" IVar="-1" Cut="0.0000000000000000e+00" cType="1" res="5.8122095651924610e-04" rms="4.3941804766654968e-01" purity="7.0854783058166504e-01" nType="-99"/>
          <Node pos="r" depth="2" NCoef="0" IVar="-1" Cut="0.0000000000000000e+00" cType="1" res="-4.2303337249904871e-04" rms="4.1237783432006836e-01" purity="3.2692438364028931e-01" nType="-99"/>
        </Node>
      </Node>
    </BinaryTree>
    <BinaryTree type="DecisionTree" boostWeight="1.0000000000000000e+00" itree="732">
      <Node pos="s" depth="0" NCoef="0" IVar="4" Cut="7.4846285581588745e-01" cType="1" res="6.2547184526920319e-02" rms="4.3405044078826904e-01" purity="5.0343966484069824e-01" nType="0">
        <Node pos="l" depth="1" NCoef="0" IVar="7" Cut="8.5332238674163818e-01" cType="1" res="8.4503337740898132e-02" rms="4.3444451689720154e-01" purity="5.4518473148345947e-01" nType="0">
          <Node pos="l" depth="2" NCoef="0" IVar="-1" Cut="0.0000000000000000e+00" cType="1" res="1.1708464007824659e-03" rms="4.3240603804588318e-01" purity="6.2422853708267212e-01" nType="-99"/>
          <Node pos="r" depth="2" NCoef="0" IVar="-1" Cut="0.0000000000000000e+00" cType="1" res="4.5821489766240120e-04" rms="4.3118900060653687e-01" purity="5.2466475963592529e-01" nType="-99"/>
        </Node>
        <Node pos="r" depth="1" NCoef="0" IVar="0" Cut="9.4291388988494873e-01" cType="1" res="-1.7788304015994072e-02" rms="4.2300114035606384e-01" purity="3.5069799423217773e-01" nType="0">
          <Node pos="l" depth="2" NCoef="0" IVar="-1" Cut="0.0000000000000000e+00" cType="1" res="7.5228023342788219e-04" rms="4.2370706796646118e-01" purity="3.6103674769401550e-01" nType="-99"/>
          <Node pos="r" depth="2" NCoef="0" IVar="-1" Cut="0.0000000000000000e+00" cType="1" res="-1.0885779047384858e-03" rms="4.0801876783370972e-01" purity="3.4156054258346558e-01" nType="-99"/>
        </Node>
      </Node>
    </BinaryTree>
    <BinaryTree type="DecisionTree" boostWeight="1.0000000000000000e+00" itree="733">
      <Node pos="s" depth="0" NCoef="0" IVar="3" Cut="3.0661227703094482e+00" cType="1" res="1.0220275819301605e-01" rms="4.3183028697967529e-01" purity="5.4671972990036011e-01" nType="0">
        <Node pos="l" depth="1" NCoef="0" IVar="5" Cut="1.1446571350097656e+00" cType="1" res="1.1302541941404343e-01" rms="4.4302988052368164e-01" purity="5.8151346445083618e-01" nType="0">
          <Node pos="l" depth="2" NCoef="0" IVar="-1" Cut="0.0000000000000000e+00" cType="1" res="5.1638955483213067e-04" rms="4.5360782742500305e-01" purity="5.0325721502304077e-01" nType="-99"/>
          <Node pos="r" depth="2" NCoef="0" IVar="-1" Cut="0.0000000000000000e+00" cType="1" res="9.0561195975169539e-04" rms="4.3484637141227722e-01" purity="6.2347429990768433e-01" nType="-99"/>
        </Node>
        <Node pos="r" depth="1" NCoef="0" IVar="-1" Cut="0.0000000000000000e+00" cType="1" res="-1.5368011780083179e-02" rms="4.1929244995117188e-02" purity="0.0000000000000000e+00" nType="-99"/>
      </Node>
    </BinaryTree>
    <BinaryTree type="DecisionTree" boostWeight="1.0000000000000000e+00" itree="734">
      <Node pos="s" depth="0" NCoef="0" IVar="1" Cut="1.6423823547363281e+02" cType="1" res="2.0703047513961792e-02" rms="4.3779543042182922e-01" purity="4.5369827747344971e-01" nType="0">
        <Node pos="l" depth="1" NCoef="0" IVar="8" Cut="1.3102543640136719e+02" cType="1" res="-2.6792660355567932e-04" rms="4.3792968988418579e-01" purity="4.3192833662033081e-01" nType="0">
          <Node pos="l" depth="2" NCoef="0" IVar="-1" Cut="0.0000000000000000e+00" cType="1" res="2.6754889404401183e-04" rms="4.4808372855186462e-01" purity="4.6736547350883484e-01" nType="-99"/>
          <Node pos="r" depth="2" NCoef="0" IVar="-1" Cut="0.0000000000000000e+00" cType="1" res="-9.8687782883644104e-04" rms="3.9646759629249573e-01" purity="3.3602595329284668e-01" nType="-99"/>
        </Node>
        <Node pos="r" depth="1" NCoef="0" IVar="7" Cut="2.2297263145446777e+00" cType="1" res="1.4251634478569031e-01" rms="4.1664004325866699e-01" purity="5.8015239238739014e-01" nType="0">
          <Node pos="l" depth="2" NCoef="0" IVar="-1" Cut="0.0000000000000000e+00" cType="1" res="1.0056369937956333e-03" rms="4.3344697356224060e-01" purity="7.0566475391387939e-01" nType="-99"/>
          <Node pos="r" depth="2" NCoef="0" IVar="-1" Cut="0.0000000000000000e+00" cType="1" res="9.3506951816380024e-04" rms="3.7984326481819153e-01" purity="3.7281498312950134e-01" nType="-99"/>
        </Node>
      </Node>
    </BinaryTree>
    <BinaryTree type="DecisionTree" boostWeight="1.0000000000000000e+00" itree="735">
      <Node pos="s" depth="0" NCoef="0" IVar="8" Cut="9.0981422424316406e+01" cType="1" res="9.0259045362472534e-02" rms="4.4828313589096069e-01" purity="5.3260022401809692e-01" nType="0">
        <Node pos="l" depth="1" NCoef="0" IVar="0" Cut="9.5693331956863403e-01" cType="1" res="-4.7574516385793686e-02" rms="3.6585280299186707e-01" purity="2.6966583728790283e-01" nType="0">
          <Node pos="l" depth="2" NCoef="0" IVar="-1" Cut="0.0000000000000000e+00" cType="1" res="-1.8699260428547859e-02" rms="1.4643920958042145e-01" purity="0.0000000000000000e+00" nType="-99"/>
          <Node pos="r" depth="2" NCoef="0" IVar="-1" Cut="0.0000000000000000e+00" cType="1" res="8.7642192374914885e-04" rms="4.3516978621482849e-01" purity="5.2279603481292725e-01" nType="-99"/>
        </Node>
        <Node pos="r" depth="1" NCoef="0" IVar="0" Cut="9.4847357273101807e-01" cType="1" res="1.0556404292583466e-01" rms="4.5394471287727356e-01" purity="5.6179648637771606e-01" nType="0">
          <Node pos="l" depth="2" NCoef="0" IVar="-1" Cut="0.0000000000000000e+00" cType="1" res="1.2231731088832021e-03" rms="4.4717529416084290e-01" purity="5.2411746978759766e-01" nType="-99"/>
          <Node pos="r" depth="2" NCoef="0" IVar="-1" Cut="0.0000000000000000e+00" cType="1" res="4.2606703937053680e-04" rms="4.5449343323707581e-01" purity="5.9232538938522339e-01" nType="-99"/>
        </Node>
      </Node>
    </BinaryTree>
    <BinaryTree type="DecisionTree" boostWeight="1.0000000000000000e+00" itree="736">
      <Node pos="s" depth="0" NCoef="0" IVar="0" Cut="9.4079899787902832e-01" cType="1" res="1.0095014423131943e-01" rms="4.3717393279075623e-01" purity="5.4544210433959961e-01" nType="0">
        <Node pos="l" depth="1" NCoef="0" IVar="3" Cut="2.1135289669036865e+00" cType="1" res="2.3875812068581581e-02" rms="4.2694669961929321e-01" purity="3.3931711316108704e-01" nType="0">
          <Node pos="l" depth="2" NCoef="0" IVar="-1" Cut="0.0000000000000000e+00" cType="1" res="-5.8544107014313340e-04" rms="4.1989520192146301e-01" purity="3.6161863803863525e-01" nType="-99"/>
          <Node pos="r" depth="2" NCoef="0" IVar="-1" Cut="0.0000000000000000e+00" cType="1" res="2.3279003798961639e-03" rms="4.0421524643898010e-01" purity="3.0364063382148743e-01" nType="-99"/>
        </Node>
        <Node pos="r" depth="1" NCoef="0" IVar="2" Cut="1.4918199157714844e+02" cType="1" res="1.3063748180866241e-01" rms="4.3744212388992310e-01" purity="6.2483692169189453e-01" nType="0">
          <Node pos="l" depth="2" NCoef="0" IVar="-1" Cut="0.0000000000000000e+00" cType="1" res="1.2041589943692088e-03" rms="4.4152393937110901e-01" purity="6.8744230270385742e-01" nType="-99"/>
          <Node pos="r" depth="2" NCoef="0" IVar="-1" Cut="0.0000000000000000e+00" cType="1" res="6.4011797076091170e-04" rms="4.2957657575607300e-01" purity="5.9328371286392212e-01" nType="-99"/>
        </Node>
      </Node>
    </BinaryTree>
    <BinaryTree type="DecisionTree" boostWeight="1.0000000000000000e+00" itree="737">
      <Node pos="s" depth="0" NCoef="0" IVar="3" Cut="1.3656634092330933e+00" cType="1" res="3.9348412305116653e-02" rms="4.3738690018653870e-01" purity="4.8322713375091553e-01" nType="0">
        <Node pos="l" depth="1" NCoef="0" IVar="8" Cut="9.0981483459472656e+01" cType="1" res="8.6724132299423218e-02" rms="4.3274450302124023e-01" purity="6.3717246055603027e-01" nType="0">
          <Node pos="l" depth="2" NCoef="0" IVar="-1" Cut="0.0000000000000000e+00" cType="1" res="-8.2482676953077316e-04" rms="3.8971716165542603e-01" purity="3.0095365643501282e-01" nType="-99"/>
          <Node pos="r" depth="2" NCoef="0" IVar="-1" Cut="0.0000000000000000e+00" cType="1" res="6.5755948890000582e-04" rms="4.3381947278976440e-01" purity="6.8706601858139038e-01" nType="-99"/>
        </Node>
        <Node pos="r" depth="1" NCoef="0" IVar="0" Cut="9.2565315961837769e-01" cType="1" res="-3.9459941908717155e-03" rms="4.3711930513381958e-01" purity="3.4254384040832520e-01" nType="0">
          <Node pos="l" depth="2" NCoef="0" IVar="-1" Cut="0.0000000000000000e+00" cType="1" res="1.4316209126263857e-03" rms="4.2650279402732849e-01" purity="4.1300702095031738e-01" nType="-99"/>
          <Node pos="r" depth="2" NCoef="0" IVar="-1" Cut="0.0000000000000000e+00" cType="1" res="-5.3940032375976443e-04" rms="4.3120756745338440e-01" purity="3.2379558682441711e-01" nType="-99"/>
        </Node>
      </Node>
    </BinaryTree>
    <BinaryTree type="DecisionTree" boostWeight="1.0000000000000000e+00" itree="738">
      <Node pos="s" depth="0" NCoef="0" IVar="6" Cut="4.6294058227539062e+02" cType="1" res="4.7864649444818497e-02" rms="4.3898144364356995e-01" purity="4.8393306136131287e-01" nType="0">
        <Node pos="l" depth="1" NCoef="0" IVar="4" Cut="6.0850071907043457e-01" cType="1" res="1.0562978684902191e-02" rms="4.3786716461181641e-01" purity="4.0759807825088501e-01" nType="0">
          <Node pos="l" depth="2" NCoef="0" IVar="-1" Cut="0.0000000000000000e+00" cType="1" res="6.9313141284510493e-04" rms="4.6232926845550537e-01" purity="5.1533168554306030e-01" nType="-99"/>
          <Node pos="r" depth="2" NCoef="0" IVar="-1" Cut="0.0000000000000000e+00" cType="1" res="-2.8109119739383459e-04" rms="4.2132031917572021e-01" purity="3.5762736201286316e-01" nType="-99"/>
        </Node>
        <Node pos="r" depth="1" NCoef="0" IVar="4" Cut="7.1156555414199829e-01" cType="1" res="1.7004664242267609e-01" rms="4.2002272605895996e-01" purity="7.3396909236907959e-01" nType="0">
          <Node pos="l" depth="2" NCoef="0" IVar="-1" Cut="0.0000000000000000e+00" cType="1" res="4.5318625052459538e-04" rms="3.7985208630561829e-01" purity="7.0561790466308594e-01" nType="-99"/>
          <Node pos="r" depth="2" NCoef="0" IVar="-1" Cut="0.0000000000000000e+00" cType="1" res="1.6966995317488909e-03" rms="4.3661054968833923e-01" purity="7.6600700616836548e-01" nType="-99"/>
        </Node>
      </Node>
    </BinaryTree>
    <BinaryTree type="DecisionTree" boostWeight="1.0000000000000000e+00" itree="739">
      <Node pos="s" depth="0" NCoef="0" IVar="4" Cut="5.6884402036666870e-01" cType="1" res="8.2319632172584534e-02" rms="4.4442316889762878e-01" purity="5.1394450664520264e-01" nType="0">
        <Node pos="l" depth="1" NCoef="0" IVar="4" Cut="5.3939908742904663e-01" cType="1" res="1.8680118024349213e-01" rms="4.3449857831001282e-01" purity="6.4005142450332642e-01" nType="0">
          <Node pos="l" depth="2" NCoef="0" IVar="-1" Cut="0.0000000000000000e+00" cType="1" res="4.4499072828330100e-05" rms="3.5820060968399048e-01" purity="5.0972706079483032e-01" nType="-99"/>
          <Node pos="r" depth="2" NCoef="0" IVar="-1" Cut="0.0000000000000000e+00" cType="1" res="1.5545755159109831e-03" rms="4.4109562039375305e-01" purity="7.0045143365859985e-01" nType="-99"/>
        </Node>
        <Node pos="r" depth="1" NCoef="0" IVar="4" Cut="6.8448030948638916e-01" cType="1" res="6.3084922730922699e-02" rms="4.4355177879333496e-01" purity="4.9072861671447754e-01" nType="0">
          <Node pos="l" depth="2" NCoef="0" IVar="-1" Cut="0.0000000000000000e+00" cType="1" res="1.0939453204628080e-04" rms="4.4422659277915955e-01" purity="4.5082199573516846e-01" nType="-99"/>
          <Node pos="r" depth="2" NCoef="0" IVar="-1" Cut="0.0000000000000000e+00" cType="1" res="8.0183328827843070e-04" rms="4.3863853812217712e-01" purity="5.2335137128829956e-01" nType="-99"/>
        </Node>
      </Node>
    </BinaryTree>
    <BinaryTree type="DecisionTree" boostWeight="1.0000000000000000e+00" itree="740">
      <Node pos="s" depth="0" NCoef="0" IVar="4" Cut="7.1403723955154419e-01" cType="1" res="4.5601028949022293e-02" rms="4.3145400285720825e-01" purity="4.9908632040023804e-01" nType="0">
        <Node pos="l" depth="1" NCoef="0" IVar="1" Cut="8.1689033508300781e+01" cType="1" res="7.0550233125686646e-02" rms="4.3597617745399475e-01" purity="5.4385405778884888e-01" nType="0">
          <Node pos="l" depth="2" NCoef="0" IVar="-1" Cut="0.0000000000000000e+00" cType="1" res="2.0232403767295182e-04" rms="4.3361365795135498e-01" purity="4.4094073772430420e-01" nType="-99"/>
          <Node pos="r" depth="2" NCoef="0" IVar="-1" Cut="0.0000000000000000e+00" cType="1" res="7.0482864975929260e-04" rms="4.3464875221252441e-01" purity="6.0958534479141235e-01" nType="-99"/>
        </Node>
        <Node pos="r" depth="1" NCoef="0" IVar="2" Cut="1.3887280273437500e+02" cType="1" res="-1.4116614125669003e-02" rms="4.1437575221061707e-01" purity="3.9193180203437805e-01" nType="0">
          <Node pos="l" depth="2" NCoef="0" IVar="-1" Cut="0.0000000000000000e+00" cType="1" res="7.4816768756136298e-04" rms="4.0169984102249146e-01" purity="5.5998522043228149e-01" nType="-99"/>
          <Node pos="r" depth="2" NCoef="0" IVar="-1" Cut="0.0000000000000000e+00" cType="1" res="-6.6918134689331055e-04" rms="4.1029363870620728e-01" purity="3.3573690056800842e-01" nType="-99"/>
        </Node>
      </Node>
    </BinaryTree>
    <BinaryTree type="DecisionTree" boostWeight="1.0000000000000000e+00" itree="741">
      <Node pos="s" depth="0" NCoef="0" IVar="7" Cut="2.4076571464538574e+00" cType="1" res="6.6882826387882233e-02" rms="4.4075876474380493e-01" purity="5.0878906250000000e-01" nType="0">
        <Node pos="l" depth="1" NCoef="0" IVar="4" Cut="5.5467820167541504e-01" cType="1" res="5.3359046578407288e-02" rms="4.3647187948226929e-01" purity="5.1501661539077759e-01" nType="0">
          <Node pos="l" depth="2" NCoef="0" IVar="-1" Cut="0.0000000000000000e+00" cType="1" res="1.2048990465700626e-03" rms="4.3622848391532898e-01" purity="6.5463185310363770e-01" nType="-99"/>
          <Node pos="r" depth="2" NCoef="0" IVar="-1" Cut="0.0000000000000000e+00" cType="1" res="2.9467738931998610e-04" rms="4.3356615304946899e-01" purity="4.9778077006340027e-01" nType="-99"/>
        </Node>
        <Node pos="r" depth="1" NCoef="0" IVar="-1" Cut="0.0000000000000000e+00" cType="1" res="2.8947752434760332e-03" rms="4.5829159021377563e-01" purity="4.2870676517486572e-01" nType="-99"/>
      </Node>
    </BinaryTree>
    <BinaryTree type="DecisionTree" boostWeight="1.0000000000000000e+00" itree="742">
      <Node pos="s" depth="0" NCoef="0" IVar="7" Cut="1.2818259000778198e+00" cType="1" res="7.9690597951412201e-02" rms="4.4106915593147278e-01" purity="5.2172011137008667e-01" nType="0">
        <Node pos="l" depth="1" NCoef="0" IVar="8" Cut="1.3037208557128906e+02" cType="1" res="1.4039285480976105e-02" rms="4.4062709808349609e-01" purity="4.5242786407470703e-01" nType="0">
          <Node pos="l" depth="2" NCoef="0" IVar="-1" Cut="0.0000000000000000e+00" cType="1" res="6.2333780806511641e-04" rms="4.3144392967224121e-01" purity="5.2168184518814087e-01" nType="-99"/>
          <Node pos="r" depth="2" NCoef="0" IVar="-1" Cut="0.0000000000000000e+00" cType="1" res="-3.6745341494679451e-03" rms="3.9796394109725952e-01" purity="2.0530851185321808e-01" nType="-99"/>
        </Node>
        <Node pos="r" depth="1" NCoef="0" IVar="0" Cut="9.7269266843795776e-01" cType="1" res="1.1911129206418991e-01" rms="4.3661656975746155e-01" purity="5.6332701444625854e-01" nType="0">
          <Node pos="l" depth="2" NCoef="0" IVar="-1" Cut="0.0000000000000000e+00" cType="1" res="7.1910815313458443e-04" rms="4.4659855961799622e-01" purity="4.7233781218528748e-01" nType="-99"/>
          <Node pos="r" depth="2" NCoef="0" IVar="-1" Cut="0.0000000000000000e+00" cType="1" res="1.1113784275949001e-03" rms="4.0451446175575256e-01" purity="7.6257085800170898e-01" nType="-99"/>
        </Node>
      </Node>
    </BinaryTree>
    <BinaryTree type="DecisionTree" boostWeight="1.0000000000000000e+00" itree="743">
      <Node pos="s" depth="0" NCoef="0" IVar="8" Cut="8.3511047363281250e+01" cType="1" res="2.6841120794415474e-02" rms="4.2955142259597778e-01" purity="4.7360479831695557e-01" nType="0">
        <Node pos="l" depth="1" NCoef="0" IVar="-1" Cut="0.0000000000000000e+00" cType="1" res="-3.0269268900156021e-03" rms="2.9734557867050171e-01" purity="1.3069924712181091e-01" nType="-99"/>
        <Node pos="r" depth="1" NCoef="0" IVar="0" Cut="9.1408616304397583e-01" cType="1" res="3.8449354469776154e-02" rms="4.3515953421592712e-01" purity="4.9811580777168274e-01" nType="0">
          <Node pos="l" depth="2" NCoef="0" IVar="-1" Cut="0.0000000000000000e+00" cType="1" res="-5.1659224554896355e-03" rms="2.9345491528511047e-01" purity="8.0481499433517456e-02" nType="-99"/>
          <Node pos="r" depth="2" NCoef="0" IVar="-1" Cut="0.0000000000000000e+00" cType="1" res="4.0120820631273091e-04" rms="4.3914616107940674e-01" purity="5.2451121807098389e-01" nType="-99"/>
        </Node>
      </Node>
    </BinaryTree>
    <BinaryTree type="DecisionTree" boostWeight="1.0000000000000000e+00" itree="744">
      <Node pos="s" depth="0" NCoef="0" IVar="0" Cut="9.8440873622894287e-01" cType="1" res="2.9966706410050392e-02" rms="4.3156623840332031e-01" purity="4.6590867638587952e-01" nType="0">
        <Node pos="l" depth="1" NCoef="0" IVar="8" Cut="9.1317199707031250e+01" cType="1" res="6.2131658196449280e-03" rms="4.3135040998458862e-01" purity="4.1537988185882568e-01" nType="0">
          <Node pos="l" depth="2" NCoef="0" IVar="-1" Cut="0.0000000000000000e+00" cType="1" res="-3.5131901968270540e-03" rms="3.0278503894805908e-01" purity="1.1869959533214569e-01" nType="-99"/>
          <Node pos="r" depth="2" NCoef="0" IVar="-1" Cut="0.0000000000000000e+00" cType="1" res="2.0233985560480505e-04" rms="4.4151154160499573e-01" purity="4.5115849375724792e-01" nType="-99"/>
        </Node>
        <Node pos="r" depth="1" NCoef="0" IVar="-1" Cut="0.0000000000000000e+00" cType="1" res="8.8092527585104108e-04" rms="4.1007351875305176e-01" purity="7.3558479547500610e-01" nType="-99"/>
      </Node>
    </BinaryTree>
    <BinaryTree type="DecisionTree" boostWeight="1.0000000000000000e+00" itree="745">
      <Node pos="s" depth="0" NCoef="0" IVar="5" Cut="1.7297967672348022e+00" cType="1" res="4.0222339332103729e-02" rms="4.4435319304466248e-01" purity="4.8056676983833313e-01" nType="0">
        <Node pos="l" depth="1" NCoef="0" IVar="3" Cut="2.4041903018951416e+00" cType="1" res="5.3666245192289352e-02" rms="4.4694507122039795e-01" purity="4.9653413891792297e-01" nType="0">
          <Node pos="l" depth="2" NCoef="0" IVar="-1" Cut="0.0000000000000000e+00" cType="1" res="2.1401385311037302e-04" rms="4.4913873076438904e-01" purity="5.4286324977874756e-01" nType="-99"/>
          <Node pos="r" depth="2" NCoef="0" IVar="-1" Cut="0.0000000000000000e+00" cType="1" res="2.3677842691540718e-03" rms="4.2440265417098999e-01" purity="3.1308647990226746e-01" nType="-99"/>
        </Node>
        <Node pos="r" depth="1" NCoef="0" IVar="-1" Cut="0.0000000000000000e+00" cType="1" res="-1.9716948736459017e-03" rms="3.6609691381454468e-01" purity="2.7189031243324280e-01" nType="-99"/>
      </Node>
    </BinaryTree>
    <BinaryTree type="DecisionTree" boostWeight="1.0000000000000000e+00" itree="746">
      <Node pos="s" depth="0" NCoef="0" IVar="1" Cut="4.8812038421630859e+01" cType="1" res="6.5278671681880951e-02" rms="4.2934793233871460e-01" purity="5.1528078317642212e-01" nType="0">
        <Node pos="l" depth="1" NCoef="0" IVar="0" Cut="9.5604336261749268e-01" cType="1" res="-7.3217198252677917e-02" rms="3.4402865171432495e-01" purity="2.3582963645458221e-01" nType="0">
          <Node pos="l" depth="2" NCoef="0" IVar="-1" Cut="0.0000000000000000e+00" cType="1" res="-1.7886549234390259e-02" rms="1.1824285238981247e-01" purity="0.0000000000000000e+00" nType="-99"/>
          <Node pos="r" depth="2" NCoef="0" IVar="-1" Cut="0.0000000000000000e+00" cType="1" res="3.6811814061366022e-04" rms="4.3895336985588074e-01" purity="4.7024011611938477e-01" nType="-99"/>
        </Node>
        <Node pos="r" depth="1" NCoef="0" IVar="2" Cut="1.3405250549316406e+02" cType="1" res="8.7379187345504761e-02" rms="4.3740117549896240e-01" purity="5.5987423658370972e-01" nType="0">
          <Node pos="l" depth="2" NCoef="0" IVar="-1" Cut="0.0000000000000000e+00" cType="1" res="1.2299935333430767e-03" rms="4.4458195567131042e-01" purity="6.6296130418777466e-01" nType="-99"/>
          <Node pos="r" depth="2" NCoef="0" IVar="-1" Cut="0.0000000000000000e+00" cType="1" res="4.3041145545430481e-04" rms="4.3000909686088562e-01" purity="5.3346949815750122e-01" nType="-99"/>
        </Node>
      </Node>
    </BinaryTree>
    <BinaryTree type="DecisionTree" boostWeight="1.0000000000000000e+00" itree="747">
      <Node pos="s" depth="0" NCoef="0" IVar="1" Cut="1.0486112976074219e+02" cType="1" res="5.2568461745977402e-02" rms="4.2155802249908447e-01" purity="5.0366616249084473e-01" nType="0">
        <Node pos="l" depth="1" NCoef="0" IVar="0" Cut="9.3728923797607422e-01" cType="1" res="-5.5681499652564526e-03" rms="4.2914348840713501e-01" purity="3.8736242055892944e-01" nType="0">
          <Node pos="l" depth="2" NCoef="0" IVar="-1" Cut="0.0000000000000000e+00" cType="1" res="-3.7310470361262560e-03" rms="2.8234678506851196e-01" purity="1.0661258548498154e-01" nType="-99"/>
          <Node pos="r" depth="2" NCoef="0" IVar="-1" Cut="0.0000000000000000e+00" cType="1" res="2.9856825130991638e-04" rms="4.5736283063888550e-01" purity="4.7403097152709961e-01" nType="-99"/>
        </Node>
        <Node pos="r" depth="1" NCoef="0" IVar="3" Cut="2.3119673728942871e+00" cType="1" res="1.2048862129449844e-01" rms="4.0200805664062500e-01" purity="6.3954216241836548e-01" nType="0">
          <Node pos="l" depth="2" NCoef="0" IVar="-1" Cut="0.0000000000000000e+00" cType="1" res="8.2560005830600858e-04" rms="4.0194782614707947e-01" purity="7.6116096973419189e-01" nType="-99"/>
          <Node pos="r" depth="2" NCoef="0" IVar="-1" Cut="0.0000000000000000e+00" cType="1" res="5.0404149806126952e-04" rms="3.8598746061325073e-01" purity="1.9150042533874512e-01" nType="-99"/>
        </Node>
      </Node>
    </BinaryTree>
    <BinaryTree type="DecisionTree" boostWeight="1.0000000000000000e+00" itree="748">
      <Node pos="s" depth="0" NCoef="0" IVar="0" Cut="9.7285944223403931e-01" cType="1" res="6.0029655694961548e-02" rms="4.2464390397071838e-01" purity="5.1531916856765747e-01" nType="0">
        <Node pos="l" depth="1" NCoef="0" IVar="6" Cut="2.3403286743164062e+02" cType="1" res="2.6411175727844238e-02" rms="4.2441493272781372e-01" purity="4.3061968684196472e-01" nType="0">
          <Node pos="l" depth="2" NCoef="0" IVar="-1" Cut="0.0000000000000000e+00" cType="1" res="-1.0706420987844467e-02" rms="1.4822803437709808e-01" purity="2.8963577002286911e-02" nType="-99"/>
          <Node pos="r" depth="2" NCoef="0" IVar="-1" Cut="0.0000000000000000e+00" cType="1" res="3.6825222196057439e-04" rms="4.4028618931770325e-01" purity="4.7378960251808167e-01" nType="-99"/>
        </Node>
        <Node pos="r" depth="1" NCoef="0" IVar="6" Cut="2.7415170288085938e+02" cType="1" res="1.4267964661121368e-01" rms="4.1375204920768738e-01" purity="7.2355037927627563e-01" nType="0">
          <Node pos="l" depth="2" NCoef="0" IVar="-1" Cut="0.0000000000000000e+00" cType="1" res="1.5785938594490290e-03" rms="4.1257300972938538e-01" purity="6.9278836250305176e-01" nType="-99"/>
          <Node pos="r" depth="2" NCoef="0" IVar="-1" Cut="0.0000000000000000e+00" cType="1" res="6.0913822380825877e-04" rms="4.0443977713584900e-01" purity="7.3429799079895020e-01" nType="-99"/>
        </Node>
      </Node>
    </BinaryTree>
    <BinaryTree type="DecisionTree" boostWeight="1.0000000000000000e+00" itree="749">
      <Node pos="s" depth="0" NCoef="0" IVar="8" Cut="1.2789149475097656e+02" cType="1" res="4.7457579523324966e-02" rms="4.3689489364624023e-01" purity="4.8607364296913147e-01" nType="0">
        <Node pos="l" depth="1" NCoef="0" IVar="8" Cut="1.1739046478271484e+02" cType="1" res="8.9832507073879242e-02" rms="4.3791174888610840e-01" purity="5.3755670785903931e-01" nType="0">
          <Node pos="l" depth="2" NCoef="0" IVar="-1" Cut="0.0000000000000000e+00" cType="1" res="3.5514924093149602e-04" rms="4.3189120292663574e-01" purity="4.5497611165046692e-01" nType="-99"/>
          <Node pos="r" depth="2" NCoef="0" IVar="-1" Cut="0.0000000000000000e+00" cType="1" res="1.0719201527535915e-03" rms="4.3500128388404846e-01" purity="6.8654030561447144e-01" nType="-99"/>
        </Node>
        <Node pos="r" depth="1" NCoef="0" IVar="0" Cut="9.2480754852294922e-01" cType="1" res="-3.0279252678155899e-02" rms="4.2415580153465271e-01" purity="3.9162790775299072e-01" nType="0">
          <Node pos="l" depth="2" NCoef="0" IVar="-1" Cut="0.0000000000000000e+00" cType="1" res="6.7356793442741036e-04" rms="3.8981074094772339e-01" purity="4.1765627264976501e-01" nType="-99"/>
          <Node pos="r" depth="2" NCoef="0" IVar="-1" Cut="0.0000000000000000e+00" cType="1" res="-6.1531068058684468e-04" rms="4.2824211716651917e-01" purity="3.8530272245407104e-01" nType="-99"/>
        </Node>
      </Node>
    </BinaryTree>
    <BinaryTree type="DecisionTree" boostWeight="1.0000000000000000e+00" itree="750">
      <Node pos="s" depth="0" NCoef="0" IVar="0" Cut="9.4482368230819702e-01" cType="1" res="7.4574023485183716e-02" rms="4.2443341016769409e-01" purity="5.2682906389236450e-01" nType="0">
        <Node pos="l" depth="1" NCoef="0" IVar="6" Cut="2.6938839721679688e+02" cType="1" res="-2.4495858699083328e-02" rms="4.0602803230285645e-01" purity="2.6550632715225220e-01" nType="0">
          <Node pos="l" depth="2" NCoef="0" IVar="-1" Cut="0.0000000000000000e+00" cType="1" res="1.2137376470491290e-03" rms="3.9653041958808899e-01" purity="2.4707640707492828e-01" nType="-99"/>
          <Node pos="r" depth="2" NCoef="0" IVar="-1" Cut="0.0000000000000000e+00" cType="1" res="-9.9160312674939632e-04" rms="4.0181145071983337e-01" purity="2.7553513646125793e-01" nType="-99"/>
        </Node>
        <Node pos="r" depth="1" NCoef="0" IVar="3" Cut="1.5320708751678467e+00" cType="1" res="1.1650633811950684e-01" rms="4.2508900165557861e-01" purity="6.3743662834167480e-01" nType="0">
          <Node pos="l" depth="2" NCoef="0" IVar="-1" Cut="0.0000000000000000e+00" cType="1" res="8.7161391275003552e-04" rms="3.8836076855659485e-01" purity="7.7631175518035889e-01" nType="-99"/>
          <Node pos="r" depth="2" NCoef="0" IVar="-1" Cut="0.0000000000000000e+00" cType="1" res="4.6276094508357346e-04" rms="4.6517038345336914e-01" purity="4.3829190731048584e-01" nType="-99"/>
        </Node>
      </Node>
    </BinaryTree>
    <BinaryTree type="DecisionTree" boostWeight="1.0000000000000000e+00" itree="751">
      <Node pos="s" depth="0" NCoef="0" IVar="5" Cut="9.7005212306976318e-01" cType="1" res="4.7031126916408539e-02" rms="4.3455663323402405e-01" purity="4.8494669795036316e-01" nType="0">
        <Node pos="l" depth="1" NCoef="0" IVar="3" Cut="2.4846560955047607e+00" cType="1" res="-8.2359179854393005e-02" rms="4.2427483201026917e-01" purity="2.4674607813358307e-01" nType="0">
          <Node pos="l" depth="2" NCoef="0" IVar="-1" Cut="0.0000000000000000e+00" cType="1" res="-2.1106863860040903e-03" rms="4.4546082615852356e-01" purity="2.8550997376441956e-01" nType="-99"/>
          <Node pos="r" depth="2" NCoef="0" IVar="-1" Cut="0.0000000000000000e+00" cType="1" res="1.5773735940456390e-03" rms="3.3983990550041199e-01" purity="1.7620344460010529e-01" nType="-99"/>
        </Node>
        <Node pos="r" depth="1" NCoef="0" IVar="0" Cut="9.6880000829696655e-01" cType="1" res="7.6895706355571747e-02" rms="4.3141803145408630e-01" purity="5.3992575407028198e-01" nType="0">
          <Node pos="l" depth="2" NCoef="0" IVar="-1" Cut="0.0000000000000000e+00" cType="1" res="3.4151034196838737e-04" rms="4.3843483924865723e-01" purity="4.3967014551162720e-01" nType="-99"/>
          <Node pos="r" depth="2" NCoef="0" IVar="-1" Cut="0.0000000000000000e+00" cType="1" res="8.7309762602671981e-04" rms="4.0836223959922791e-01" purity="7.2904020547866821e-01" nType="-99"/>
        </Node>
      </Node>
    </BinaryTree>
  </Weights>
</MethodSetup>
