<?xml version="1.0"?>
<MethodSetup Method="BDT::BDTG">
  <GeneralInfo>
    <Info name="TMVA Release" value="4.2.1 [262657]"/>
    <Info name="ROOT Release" value="6.06/01 [394753]"/>
    <Info name="Creator" value="kelmorab"/>
    <Info name="Date" value="Sun Oct  8 21:04:00 2017"/>
    <Info name="Host" value="Linux vocms0301.cern.ch 2.6.32-642.11.1.el6.x86_64 #1 SMP Wed Nov 16 09:40:09 CET 2016 x86_64 x86_64 x86_64 GNU/Linux"/>
    <Info name="Dir" value="/nfs/dust/cms/user/kelmorab/Spring17Training/3makeHistosAndCards"/>
    <Info name="Training events" value="224900"/>
    <Info name="TrainingTime" value="6.71928829e+02"/>
    <Info name="AnalysisType" value="Classification"/>
  </GeneralInfo>
  <Options>
    <Option name="V" modified="Yes">False</Option>
    <Option name="VerbosityLevel" modified="No">Default</Option>
    <Option name="VarTransform" modified="No">None</Option>
    <Option name="H" modified="Yes">False</Option>
    <Option name="CreateMVAPdfs" modified="No">False</Option>
    <Option name="IgnoreNegWeightsInTraining" modified="No">False</Option>
    <Option name="NTrees" modified="Yes">1032</Option>
    <Option name="MaxDepth" modified="Yes">2</Option>
    <Option name="MinNodeSize" modified="No">5%</Option>
    <Option name="nCuts" modified="Yes">48</Option>
    <Option name="BoostType" modified="Yes">Grad</Option>
    <Option name="AdaBoostR2Loss" modified="No">quadratic</Option>
    <Option name="UseBaggedBoost" modified="Yes">True</Option>
    <Option name="Shrinkage" modified="Yes">3.300000e-02</Option>
    <Option name="AdaBoostBeta" modified="No">5.000000e-01</Option>
    <Option name="UseRandomisedTrees" modified="No">False</Option>
    <Option name="UseNvars" modified="No">3</Option>
    <Option name="UsePoissonNvars" modified="No">True</Option>
    <Option name="BaggedSampleFraction" modified="No">5.200000e-01</Option>
    <Option name="UseYesNoLeaf" modified="No">True</Option>
    <Option name="NegWeightTreatment" modified="Yes">ignorenegweightsintraining</Option>
    <Option name="Css" modified="No">1.000000e+00</Option>
    <Option name="Cts_sb" modified="No">1.000000e+00</Option>
    <Option name="Ctb_ss" modified="No">1.000000e+00</Option>
    <Option name="Cbb" modified="No">1.000000e+00</Option>
    <Option name="NodePurityLimit" modified="No">5.000000e-01</Option>
    <Option name="SeparationType" modified="No">giniindex</Option>
    <Option name="DoBoostMonitor" modified="No">False</Option>
    <Option name="UseFisherCuts" modified="No">False</Option>
    <Option name="MinLinCorrForFisher" modified="No">8.000000e-01</Option>
    <Option name="UseExclusiveVars" modified="No">False</Option>
    <Option name="DoPreselection" modified="No">False</Option>
    <Option name="SigToBkgFraction" modified="No">1.000000e+00</Option>
    <Option name="PruneMethod" modified="No">nopruning</Option>
    <Option name="PruneStrength" modified="No">0.000000e+00</Option>
    <Option name="PruningValFraction" modified="No">5.000000e-01</Option>
    <Option name="nEventsMin" modified="No">0</Option>
    <Option name="UseBaggedGrad" modified="No">False</Option>
    <Option name="GradBaggingFraction" modified="Yes">5.200000e-01</Option>
    <Option name="UseNTrainEvents" modified="No">0</Option>
    <Option name="NNodesMax" modified="No">0</Option>
  </Options>
  <Variables NVar="7">
    <Variable VarIndex="0" Expression="aplanarity" Label="aplanarity" Title="aplanarity" Unit="" Internal="aplanarity" Type="F" Min="1.23914841e-04" Max="4.56465423e-01"/>
    <Variable VarIndex="1" Expression="avg_btag_disc_btags" Label="avg_btag_disc_btags" Title="avg_btag_disc_btags" Unit="" Internal="avg_btag_disc_btags" Type="F" Min="8.52573216e-01" Max="9.99343514e-01"/>
    <Variable VarIndex="2" Expression="all_sum_pt_with_met" Label="all_sum_pt_with_met" Title="all_sum_pt_with_met" Unit="" Internal="all_sum_pt_with_met" Type="F" Min="1.73119217e+02" Max="3.96523120e+03"/>
    <Variable VarIndex="3" Expression="h1" Label="h1" Title="h1" Unit="" Internal="h1" Type="F" Min="-2.18704492e-01" Max="3.55865598e-01"/>
    <Variable VarIndex="4" Expression="h2" Label="h2" Title="h2" Unit="" Internal="h2" Type="F" Min="-1.42952368e-01" Max="3.43738735e-01"/>
    <Variable VarIndex="5" Expression="HT" Label="HT" Title="HT" Unit="" Internal="HT" Type="F" Min="1.26768723e+02" Max="3.53521094e+03"/>
    <Variable VarIndex="6" Expression="avg_dr_tagged_jets" Label="avg_dr_tagged_jets" Title="avg_dr_tagged_jets" Unit="" Internal="avg_dr_tagged_jets" Type="F" Min="4.56352323e-01" Max="4.21608877e+00"/>
  </Variables>
  <Spectators NSpec="0"/>
  <Classes NClass="2">
    <Class Name="Signal" Index="0"/>
    <Class Name="Background" Index="1"/>
  </Classes>
  <Transformations NTransformations="0"/>
  <MVAPdfs/>
  <Weights NTrees="1032" AnalysisType="1">
    <BinaryTree type="DecisionTree" boostWeight="1.0000000000000000e+00" itree="0">
      <Node pos="s" depth="0" NCoef="0" IVar="2" Cut="3.9766213989257812e+02" cType="1" res="9.7869220189750195e-04" rms="4.9999904632568359e-01" purity="5.0097870826721191e-01" nType="0">
        <Node pos="l" depth="1" NCoef="0" IVar="1" Cut="9.6947723627090454e-01" cType="1" res="-1.5446731448173523e-01" rms="4.7554165124893188e-01" purity="3.4553271532058716e-01" nType="0">
          <Node pos="l" depth="2" NCoef="0" IVar="-1" Cut="0.0000000000000000e+00" cType="1" res="-5.6499852798879147e-03" rms="4.4957187771797180e-01" purity="2.8117331862449646e-01" nType="-99"/>
          <Node pos="r" depth="2" NCoef="0" IVar="-1" Cut="0.0000000000000000e+00" cType="1" res="1.0663571301847696e-03" rms="4.9494799971580505e-01" purity="5.7089763879776001e-01" nType="-99"/>
        </Node>
        <Node pos="r" depth="1" NCoef="0" IVar="1" Cut="9.6055465936660767e-01" cType="1" res="8.6917787790298462e-02" rms="4.9238735437393188e-01" purity="5.8691781759262085e-01" nType="0">
          <Node pos="l" depth="2" NCoef="0" IVar="-1" Cut="0.0000000000000000e+00" cType="1" res="8.4007253462914377e-05" rms="4.9997496604919434e-01" purity="5.0500482320785522e-01" nType="-99"/>
          <Node pos="r" depth="2" NCoef="0" IVar="-1" Cut="0.0000000000000000e+00" cType="1" res="2.7044462040066719e-03" rms="4.4954302906990051e-01" purity="7.1888595819473267e-01" nType="-99"/>
        </Node>
      </Node>
    </BinaryTree>
    <BinaryTree type="DecisionTree" boostWeight="1.0000000000000000e+00" itree="1">
      <Node pos="s" depth="0" NCoef="0" IVar="2" Cut="4.0528933715820312e+02" cType="1" res="-1.6207257285714149e-03" rms="4.9950852990150452e-01" purity="4.9798867106437683e-01" nType="0">
        <Node pos="l" depth="1" NCoef="0" IVar="1" Cut="9.6379089355468750e-01" cType="1" res="-1.4908376336097717e-01" rms="4.7628951072692871e-01" purity="3.4899935126304626e-01" nType="0">
          <Node pos="l" depth="2" NCoef="0" IVar="-1" Cut="0.0000000000000000e+00" cType="1" res="-6.0885888524353504e-03" rms="4.4367650151252747e-01" purity="2.6951870322227478e-01" nType="-99"/>
          <Node pos="r" depth="2" NCoef="0" IVar="-1" Cut="0.0000000000000000e+00" cType="1" res="6.2033173162490129e-04" rms="4.9829351902008057e-01" purity="5.3910255432128906e-01" nType="-99"/>
        </Node>
        <Node pos="r" depth="1" NCoef="0" IVar="1" Cut="9.6360027790069580e-01" cType="1" res="8.8655151426792145e-02" rms="4.9185076355934143e-01" purity="5.8919894695281982e-01" nType="0">
          <Node pos="l" depth="2" NCoef="0" IVar="-1" Cut="0.0000000000000000e+00" cType="1" res="2.6839179918169975e-04" rms="4.9971842765808105e-01" purity="5.1636797189712524e-01" nType="-99"/>
          <Node pos="r" depth="2" NCoef="0" IVar="-1" Cut="0.0000000000000000e+00" cType="1" res="2.7668289840221405e-03" rms="4.4434741139411926e-01" purity="7.2924959659576416e-01" nType="-99"/>
        </Node>
      </Node>
    </BinaryTree>
    <BinaryTree type="DecisionTree" boostWeight="1.0000000000000000e+00" itree="2">
      <Node pos="s" depth="0" NCoef="0" IVar="2" Cut="3.9766213989257812e+02" cType="1" res="-6.3306628726422787e-03" rms="4.9896174669265747e-01" purity="4.9282357096672058e-01" nType="0">
        <Node pos="l" depth="1" NCoef="0" IVar="1" Cut="9.7206467390060425e-01" cType="1" res="-1.6016507148742676e-01" rms="4.7152748703956604e-01" purity="3.3565488457679749e-01" nType="0">
          <Node pos="l" depth="2" NCoef="0" IVar="-1" Cut="0.0000000000000000e+00" cType="1" res="-5.7282564230263233e-03" rms="4.4776189327239990e-01" purity="2.7770608663558960e-01" nType="-99"/>
          <Node pos="r" depth="2" NCoef="0" IVar="-1" Cut="0.0000000000000000e+00" cType="1" res="1.1369653511792421e-03" rms="4.9405089020729065e-01" purity="5.7690072059631348e-01" nType="-99"/>
        </Node>
        <Node pos="r" depth="1" NCoef="0" IVar="1" Cut="9.6652221679687500e-01" cType="1" res="7.8908570110797882e-02" rms="4.9329200387001038e-01" purity="5.7991033792495728e-01" nType="0">
          <Node pos="l" depth="2" NCoef="0" IVar="-1" Cut="0.0000000000000000e+00" cType="1" res="1.9958309712819755e-04" rms="4.9978154897689819e-01" purity="5.1225709915161133e-01" nType="-99"/>
          <Node pos="r" depth="2" NCoef="0" IVar="-1" Cut="0.0000000000000000e+00" cType="1" res="2.7828773017972708e-03" rms="4.4122052192687988e-01" purity="7.3519736528396606e-01" nType="-99"/>
        </Node>
      </Node>
    </BinaryTree>
    <BinaryTree type="DecisionTree" boostWeight="1.0000000000000000e+00" itree="3">
      <Node pos="s" depth="0" NCoef="0" IVar="2" Cut="3.9069430541992188e+02" cType="1" res="6.3234992558136582e-04" rms="4.9855861067771912e-01" purity="4.9934136867523193e-01" nType="0">
        <Node pos="l" depth="1" NCoef="0" IVar="1" Cut="9.6950042247772217e-01" cType="1" res="-1.5459874272346497e-01" rms="4.7235423326492310e-01" purity="3.3901938796043396e-01" nType="0">
          <Node pos="l" depth="2" NCoef="0" IVar="-1" Cut="0.0000000000000000e+00" cType="1" res="-5.6504542008042336e-03" rms="4.4725456833839417e-01" purity="2.7658876776695251e-01" nType="-99"/>
          <Node pos="r" depth="2" NCoef="0" IVar="-1" Cut="0.0000000000000000e+00" cType="1" res="9.2208769638091326e-04" rms="4.9608516693115234e-01" purity="5.6159555912017822e-01" nType="-99"/>
        </Node>
        <Node pos="r" depth="1" NCoef="0" IVar="1" Cut="9.6626019477844238e-01" cType="1" res="7.7642381191253662e-02" rms="4.9325209856033325e-01" purity="5.7887697219848633e-01" nType="0">
          <Node pos="l" depth="2" NCoef="0" IVar="-1" Cut="0.0000000000000000e+00" cType="1" res="2.0117625535931438e-04" rms="4.9969428777694702e-01" purity="5.1216518878936768e-01" nType="-99"/>
          <Node pos="r" depth="2" NCoef="0" IVar="-1" Cut="0.0000000000000000e+00" cType="1" res="2.7328280266374350e-03" rms="4.4389340281486511e-01" purity="7.3003321886062622e-01" nType="-99"/>
        </Node>
      </Node>
    </BinaryTree>
    <BinaryTree type="DecisionTree" boostWeight="1.0000000000000000e+00" itree="4">
      <Node pos="s" depth="0" NCoef="0" IVar="1" Cut="9.5765572786331177e-01" cType="1" res="1.4302674680948257e-03" rms="4.9802619218826294e-01" purity="4.9975979328155518e-01" nType="0">
        <Node pos="l" depth="1" NCoef="0" IVar="2" Cut="4.1546505737304688e+02" cType="1" res="-9.5076657831668854e-02" rms="4.8864054679870605e-01" purity="4.0078833699226379e-01" nType="0">
          <Node pos="l" depth="2" NCoef="0" IVar="-1" Cut="0.0000000000000000e+00" cType="1" res="-6.3089174218475819e-03" rms="4.3843132257461548e-01" purity="2.6033210754394531e-01" nType="-99"/>
          <Node pos="r" depth="2" NCoef="0" IVar="-1" Cut="0.0000000000000000e+00" cType="1" res="1.3991982268635184e-04" rms="4.9992313981056213e-01" purity="5.0876617431640625e-01" nType="-99"/>
        </Node>
        <Node pos="r" depth="1" NCoef="0" IVar="2" Cut="3.6817962646484375e+02" cType="1" res="1.4085085690021515e-01" rms="4.7803276777267456e-01" purity="6.4274072647094727e-01" nType="0">
          <Node pos="l" depth="2" NCoef="0" IVar="-1" Cut="0.0000000000000000e+00" cType="1" res="-6.0816586483269930e-04" rms="4.9758750200271606e-01" purity="4.6265017986297607e-01" nType="-99"/>
          <Node pos="r" depth="2" NCoef="0" IVar="-1" Cut="0.0000000000000000e+00" cType="1" res="2.4366122670471668e-03" rms="4.5940044522285461e-01" purity="6.9628268480300903e-01" nType="-99"/>
        </Node>
      </Node>
    </BinaryTree>
    <BinaryTree type="DecisionTree" boostWeight="1.0000000000000000e+00" itree="5">
      <Node pos="s" depth="0" NCoef="0" IVar="1" Cut="9.6030831336975098e-01" cType="1" res="-7.1615132037550211e-04" rms="4.9751502275466919e-01" purity="4.9717846512794495e-01" nType="0">
        <Node pos="l" depth="1" NCoef="0" IVar="2" Cut="4.0528933715820312e+02" cType="1" res="-8.8367350399494171e-02" rms="4.8943307995796204e-01" purity="4.0621697902679443e-01" nType="0">
          <Node pos="l" depth="2" NCoef="0" IVar="-1" Cut="0.0000000000000000e+00" cType="1" res="-6.0058305971324444e-03" rms="4.4159951806068420e-01" purity="2.6586571335792542e-01" nType="-99"/>
          <Node pos="r" depth="2" NCoef="0" IVar="-1" Cut="0.0000000000000000e+00" cType="1" res="3.0741724913241342e-05" rms="4.9995458126068115e-01" purity="5.0215780735015869e-01" nType="-99"/>
        </Node>
        <Node pos="r" depth="1" NCoef="0" IVar="2" Cut="4.3016207885742188e+02" cType="1" res="1.4691863954067230e-01" rms="4.7562581300735474e-01" purity="6.5038901567459106e-01" nType="0">
          <Node pos="l" depth="2" NCoef="0" IVar="-1" Cut="0.0000000000000000e+00" cType="1" res="5.8024603640660644e-04" rms="4.9743515253067017e-01" purity="5.3649753332138062e-01" nType="-99"/>
          <Node pos="r" depth="2" NCoef="0" IVar="-1" Cut="0.0000000000000000e+00" cType="1" res="2.7355921920388937e-03" rms="4.4190707802772522e-01" purity="7.3365336656570435e-01" nType="-99"/>
        </Node>
      </Node>
    </BinaryTree>
    <BinaryTree type="DecisionTree" boostWeight="1.0000000000000000e+00" itree="6">
      <Node pos="s" depth="0" NCoef="0" IVar="2" Cut="4.3299749755859375e+02" cType="1" res="2.2920588962733746e-03" rms="4.9707403779029846e-01" purity="4.9974787235260010e-01" nType="0">
        <Node pos="l" depth="1" NCoef="0" IVar="1" Cut="9.7541552782058716e-01" cType="1" res="-1.1355955153703690e-01" rms="4.8219108581542969e-01" purity="3.7746348977088928e-01" nType="0">
          <Node pos="l" depth="2" NCoef="0" IVar="-1" Cut="0.0000000000000000e+00" cType="1" res="-3.8924561813473701e-03" rms="4.6618139743804932e-01" purity="3.2298716902732849e-01" nType="-99"/>
          <Node pos="r" depth="2" NCoef="0" IVar="-1" Cut="0.0000000000000000e+00" cType="1" res="1.9223764538764954e-03" rms="4.7810858488082886e-01" purity="6.4578139781951904e-01" nType="-99"/>
        </Node>
        <Node pos="r" depth="1" NCoef="0" IVar="1" Cut="9.5757091045379639e-01" cType="1" res="1.0611868649721146e-01" rms="4.8717114329338074e-01" purity="6.0933959484100342e-01" nType="0">
          <Node pos="l" depth="2" NCoef="0" IVar="-1" Cut="0.0000000000000000e+00" cType="1" res="3.7347452598623931e-04" rms="4.9946284294128418e-01" purity="5.2317059040069580e-01" nType="-99"/>
          <Node pos="r" depth="2" NCoef="0" IVar="-1" Cut="0.0000000000000000e+00" cType="1" res="2.6352170389145613e-03" rms="4.4675871729850769e-01" purity="7.2406625747680664e-01" nType="-99"/>
        </Node>
      </Node>
    </BinaryTree>
    <BinaryTree type="DecisionTree" boostWeight="1.0000000000000000e+00" itree="7">
      <Node pos="s" depth="0" NCoef="0" IVar="1" Cut="9.7218054533004761e-01" cType="1" res="3.1177897471934557e-03" rms="4.9674555659294128e-01" purity="5.0026315450668335e-01" nType="0">
        <Node pos="l" depth="1" NCoef="0" IVar="2" Cut="3.8561947631835938e+02" cType="1" res="-5.8297019451856613e-02" rms="4.9344703555107117e-01" purity="4.3588042259216309e-01" nType="0">
          <Node pos="l" depth="2" NCoef="0" IVar="-1" Cut="0.0000000000000000e+00" cType="1" res="-5.3258342668414116e-03" rms="4.4813776016235352e-01" purity="2.7901372313499451e-01" nType="-99"/>
          <Node pos="r" depth="2" NCoef="0" IVar="-1" Cut="0.0000000000000000e+00" cType="1" res="2.3185962345451117e-04" rms="4.9908071756362915e-01" purity="5.1413184404373169e-01" nType="-99"/>
        </Node>
        <Node pos="r" depth="1" NCoef="0" IVar="2" Cut="4.0962042236328125e+02" cType="1" res="2.1098916232585907e-01" rms="4.4925978779792786e-01" purity="7.1818023920059204e-01" nType="0">
          <Node pos="l" depth="2" NCoef="0" IVar="-1" Cut="0.0000000000000000e+00" cType="1" res="1.4705784851685166e-03" rms="4.8814600706100464e-01" purity="6.0687589645385742e-01" nType="-99"/>
          <Node pos="r" depth="2" NCoef="0" IVar="-1" Cut="0.0000000000000000e+00" cType="1" res="3.0267785768955946e-03" rms="4.1669452190399170e-01" purity="7.7627533674240112e-01" nType="-99"/>
        </Node>
      </Node>
    </BinaryTree>
    <BinaryTree type="DecisionTree" boostWeight="1.0000000000000000e+00" itree="8">
      <Node pos="s" depth="0" NCoef="0" IVar="1" Cut="9.6092140674591064e-01" cType="1" res="3.6399500095285475e-04" rms="4.9631139636039734e-01" purity="4.9711030721664429e-01" nType="0">
        <Node pos="l" depth="1" NCoef="0" IVar="2" Cut="4.4508807373046875e+02" cType="1" res="-8.1986546516418457e-02" rms="4.8924449086189270e-01" purity="4.0988945960998535e-01" nType="0">
          <Node pos="l" depth="2" NCoef="0" IVar="-1" Cut="0.0000000000000000e+00" cType="1" res="-4.4776862487196922e-03" rms="4.5800974965095520e-01" purity="3.0242362618446350e-01" nType="-99"/>
          <Node pos="r" depth="2" NCoef="0" IVar="-1" Cut="0.0000000000000000e+00" cType="1" res="4.6362003195099533e-04" rms="4.9909353256225586e-01" purity="5.2954471111297607e-01" nType="-99"/>
        </Node>
        <Node pos="r" depth="1" NCoef="0" IVar="2" Cut="4.3016207885742188e+02" cType="1" res="1.4578059315681458e-01" rms="4.7487109899520874e-01" purity="6.5112704038619995e-01" nType="0">
          <Node pos="l" depth="2" NCoef="0" IVar="-1" Cut="0.0000000000000000e+00" cType="1" res="7.4183620745316148e-04" rms="4.9628177285194397e-01" purity="5.4707109928131104e-01" nType="-99"/>
          <Node pos="r" depth="2" NCoef="0" IVar="-1" Cut="0.0000000000000000e+00" cType="1" res="2.6694128755480051e-03" rms="4.4349727034568787e-01" purity="7.3043543100357056e-01" nType="-99"/>
        </Node>
      </Node>
    </BinaryTree>
    <BinaryTree type="DecisionTree" boostWeight="1.0000000000000000e+00" itree="9">
      <Node pos="s" depth="0" NCoef="0" IVar="1" Cut="9.7208917140960693e-01" cType="1" res="4.9526244401931763e-03" rms="4.9597343802452087e-01" purity="5.0133013725280762e-01" nType="0">
        <Node pos="l" depth="1" NCoef="0" IVar="2" Cut="4.0868432617187500e+02" cType="1" res="-5.0889756530523300e-02" rms="4.9352404475212097e-01" purity="4.4186604022979736e-01" nType="0">
          <Node pos="l" depth="2" NCoef="0" IVar="-1" Cut="0.0000000000000000e+00" cType="1" res="-4.3848976492881775e-03" rms="4.5812749862670898e-01" purity="3.0186921358108521e-01" nType="-99"/>
          <Node pos="r" depth="2" NCoef="0" IVar="-1" Cut="0.0000000000000000e+00" cType="1" res="5.7624076725915074e-04" rms="4.9808090925216675e-01" purity="5.3787213563919067e-01" nType="-99"/>
        </Node>
        <Node pos="r" depth="1" NCoef="0" IVar="1" Cut="9.8251664638519287e-01" cType="1" res="2.0346046984195709e-01" rms="4.5179054141044617e-01" purity="7.1271258592605591e-01" nType="0">
          <Node pos="l" depth="2" NCoef="0" IVar="-1" Cut="0.0000000000000000e+00" cType="1" res="1.7281617037951946e-03" rms="4.8088014125823975e-01" purity="6.3417881727218628e-01" nType="-99"/>
          <Node pos="r" depth="2" NCoef="0" IVar="-1" Cut="0.0000000000000000e+00" cType="1" res="3.0212805140763521e-03" rms="4.1667947173118591e-01" purity="7.7555805444717407e-01" nType="-99"/>
        </Node>
      </Node>
    </BinaryTree>
    <BinaryTree type="DecisionTree" boostWeight="1.0000000000000000e+00" itree="10">
      <Node pos="s" depth="0" NCoef="0" IVar="2" Cut="3.9417453002929688e+02" cType="1" res="3.9492482319474220e-03" rms="4.9556058645248413e-01" purity="5.0014436244964600e-01" nType="0">
        <Node pos="l" depth="1" NCoef="0" IVar="1" Cut="9.7253996133804321e-01" cType="1" res="-1.4290025830268860e-01" rms="4.6995040774345398e-01" purity="3.3866959810256958e-01" nType="0">
          <Node pos="l" depth="2" NCoef="0" IVar="-1" Cut="0.0000000000000000e+00" cType="1" res="-5.0262338481843472e-03" rms="4.4922748208045959e-01" purity="2.8194308280944824e-01" nType="-99"/>
          <Node pos="r" depth="2" NCoef="0" IVar="-1" Cut="0.0000000000000000e+00" cType="1" res="1.1586055625230074e-03" rms="4.9265938997268677e-01" purity="5.8380746841430664e-01" nType="-99"/>
        </Node>
        <Node pos="r" depth="1" NCoef="0" IVar="1" Cut="9.5479798316955566e-01" cType="1" res="8.0513328313827515e-02" rms="4.9129104614257812e-01" purity="5.8433371782302856e-01" nType="0">
          <Node pos="l" depth="2" NCoef="0" IVar="-1" Cut="0.0000000000000000e+00" cType="1" res="-1.1051998444600031e-04" rms="4.9955275654792786e-01" purity="4.9274596571922302e-01" nType="-99"/>
          <Node pos="r" depth="2" NCoef="0" IVar="-1" Cut="0.0000000000000000e+00" cType="1" res="2.2956258617341518e-03" rms="4.6197444200515747e-01" purity="6.8918347358703613e-01" nType="-99"/>
        </Node>
      </Node>
    </BinaryTree>
    <BinaryTree type="DecisionTree" boostWeight="1.0000000000000000e+00" itree="11">
      <Node pos="s" depth="0" NCoef="0" IVar="1" Cut="9.6652221679687500e-01" cType="1" res="2.7802227996289730e-03" rms="4.9514752626419067e-01" purity="4.9855923652648926e-01" nType="0">
        <Node pos="l" depth="1" NCoef="0" IVar="2" Cut="4.1546505737304688e+02" cType="1" res="-6.6105507314205170e-02" rms="4.9071201682090759e-01" purity="4.2415538430213928e-01" nType="0">
          <Node pos="l" depth="2" NCoef="0" IVar="-1" Cut="0.0000000000000000e+00" cType="1" res="-4.6142679639160633e-03" rms="4.5398157835006714e-01" purity="2.9307371377944946e-01" nType="-99"/>
          <Node pos="r" depth="2" NCoef="0" IVar="-1" Cut="0.0000000000000000e+00" cType="1" res="3.6949221976101398e-04" rms="4.9915063381195068e-01" purity="5.2438402175903320e-01" nType="-99"/>
        </Node>
        <Node pos="r" depth="1" NCoef="0" IVar="2" Cut="4.0962042236328125e+02" cType="1" res="1.7256520688533783e-01" rms="4.6414023637771606e-01" purity="6.8194484710693359e-01" nType="0">
          <Node pos="l" depth="2" NCoef="0" IVar="-1" Cut="0.0000000000000000e+00" cType="1" res="1.0034288279712200e-03" rms="4.9403649568557739e-01" purity="5.6890964508056641e-01" nType="-99"/>
          <Node pos="r" depth="2" NCoef="0" IVar="-1" Cut="0.0000000000000000e+00" cType="1" res="2.7445757295936346e-03" rms="4.3535909056663513e-01" purity="7.4555444717407227e-01" nType="-99"/>
        </Node>
      </Node>
    </BinaryTree>
    <BinaryTree type="DecisionTree" boostWeight="1.0000000000000000e+00" itree="12">
      <Node pos="s" depth="0" NCoef="0" IVar="1" Cut="9.6626019477844238e-01" cType="1" res="7.2439494542777538e-03" rms="4.9473419785499573e-01" purity="5.0276958942413330e-01" nType="0">
        <Node pos="l" depth="1" NCoef="0" IVar="2" Cut="3.7166723632812500e+02" cType="1" res="-6.2709897756576538e-02" rms="4.9086502194404602e-01" purity="4.2662861943244934e-01" nType="0">
          <Node pos="l" depth="2" NCoef="0" IVar="-1" Cut="0.0000000000000000e+00" cType="1" res="-6.2203304842114449e-03" rms="4.3245324492454529e-01" purity="2.4944016337394714e-01" nType="-99"/>
          <Node pos="r" depth="2" NCoef="0" IVar="-1" Cut="0.0000000000000000e+00" cType="1" res="-3.8812459024484269e-06" rms="4.9861764907836914e-01" purity="4.9696657061576843e-01" nType="-99"/>
        </Node>
        <Node pos="r" depth="1" NCoef="0" IVar="6" Cut="2.4437727928161621e+00" cType="1" res="1.7520099878311157e-01" rms="4.6255713701248169e-01" purity="6.8558180332183838e-01" nType="0">
          <Node pos="l" depth="2" NCoef="0" IVar="-1" Cut="0.0000000000000000e+00" cType="1" res="2.5964819360524416e-03" rms="4.4524869322776794e-01" purity="7.2430789470672607e-01" nType="-99"/>
          <Node pos="r" depth="2" NCoef="0" IVar="-1" Cut="0.0000000000000000e+00" cType="1" res="4.2170032975263894e-04" rms="4.9679583311080933e-01" purity="5.3577017784118652e-01" nType="-99"/>
        </Node>
      </Node>
    </BinaryTree>
    <BinaryTree type="DecisionTree" boostWeight="1.0000000000000000e+00" itree="13">
      <Node pos="s" depth="0" NCoef="0" IVar="1" Cut="9.6015626192092896e-01" cType="1" res="3.4789824858307838e-03" rms="4.9436074495315552e-01" purity="4.9860128760337830e-01" nType="0">
        <Node pos="l" depth="1" NCoef="0" IVar="2" Cut="3.9766213989257812e+02" cType="1" res="-7.4317127466201782e-02" rms="4.8847573995590210e-01" purity="4.1304835677146912e-01" nType="0">
          <Node pos="l" depth="2" NCoef="0" IVar="-1" Cut="0.0000000000000000e+00" cType="1" res="-5.5247866548597813e-03" rms="4.4067922234535217e-01" purity="2.6423746347427368e-01" nType="-99"/>
          <Node pos="r" depth="2" NCoef="0" IVar="-1" Cut="0.0000000000000000e+00" cType="1" res="5.7773173466557637e-05" rms="4.9951145052909851e-01" purity="5.0325602293014526e-01" nType="-99"/>
        </Node>
        <Node pos="r" depth="1" NCoef="0" IVar="2" Cut="4.1563171386718750e+02" cType="1" res="1.3625793159008026e-01" rms="4.7571468353271484e-01" purity="6.4461922645568848e-01" nType="0">
          <Node pos="l" depth="2" NCoef="0" IVar="-1" Cut="0.0000000000000000e+00" cType="1" res="3.3503369195386767e-04" rms="4.9701142311096191e-01" purity="5.1871883869171143e-01" nType="-99"/>
          <Node pos="r" depth="2" NCoef="0" IVar="-1" Cut="0.0000000000000000e+00" cType="1" res="2.5421567261219025e-03" rms="4.4747388362884521e-01" purity="7.2205477952957153e-01" nType="-99"/>
        </Node>
      </Node>
    </BinaryTree>
    <BinaryTree type="DecisionTree" boostWeight="1.0000000000000000e+00" itree="14">
      <Node pos="s" depth="0" NCoef="0" IVar="1" Cut="9.6622848510742188e-01" cType="1" res="6.7181033082306385e-03" rms="4.9366608262062073e-01" purity="5.0176709890365601e-01" nType="0">
        <Node pos="l" depth="1" NCoef="0" IVar="2" Cut="4.6823376464843750e+02" cType="1" res="-6.6367194056510925e-02" rms="4.8927593231201172e-01" purity="4.2125490307807922e-01" nType="0">
          <Node pos="l" depth="2" NCoef="0" IVar="-1" Cut="0.0000000000000000e+00" cType="1" res="-3.6737578921020031e-03" rms="4.6455264091491699e-01" purity="3.2228976488113403e-01" nType="-99"/>
          <Node pos="r" depth="2" NCoef="0" IVar="-1" Cut="0.0000000000000000e+00" cType="1" res="8.7925978004932404e-04" rms="4.9633762240409851e-01" purity="5.5893778800964355e-01" nType="-99"/>
        </Node>
        <Node pos="r" depth="1" NCoef="0" IVar="2" Cut="4.3603860473632812e+02" cType="1" res="1.7684867978096008e-01" rms="4.6083942055702209e-01" purity="6.8918615579605103e-01" nType="0">
          <Node pos="l" depth="2" NCoef="0" IVar="-1" Cut="0.0000000000000000e+00" cType="1" res="1.2922891182824969e-03" rms="4.8913782835006714e-01" purity="5.9494334459304810e-01" nType="-99"/>
          <Node pos="r" depth="2" NCoef="0" IVar="-1" Cut="0.0000000000000000e+00" cType="1" res="2.8720814734697342e-03" rms="4.2381876707077026e-01" purity="7.6501792669296265e-01" nType="-99"/>
        </Node>
      </Node>
    </BinaryTree>
    <BinaryTree type="DecisionTree" boostWeight="1.0000000000000000e+00" itree="15">
      <Node pos="s" depth="0" NCoef="0" IVar="1" Cut="9.6040445566177368e-01" cType="1" res="5.5495547130703926e-03" rms="4.9345371127128601e-01" purity="5.0021970272064209e-01" nType="0">
        <Node pos="l" depth="1" NCoef="0" IVar="2" Cut="4.2102307128906250e+02" cType="1" res="-7.6900392770767212e-02" rms="4.8716279864311218e-01" purity="4.0854090452194214e-01" nType="0">
          <Node pos="l" depth="2" NCoef="0" IVar="-1" Cut="0.0000000000000000e+00" cType="1" res="-4.9259061925113201e-03" rms="4.4787603616714478e-01" purity="2.8003677725791931e-01" nType="-99"/>
          <Node pos="r" depth="2" NCoef="0" IVar="-1" Cut="0.0000000000000000e+00" cType="1" res="2.2813092800788581e-04" rms="4.9957442283630371e-01" purity="5.1491737365722656e-01" nType="-99"/>
        </Node>
        <Node pos="r" depth="1" NCoef="0" IVar="2" Cut="3.6817962646484375e+02" cType="1" res="1.4386577904224396e-01" rms="4.7255685925483704e-01" purity="6.5401792526245117e-01" nType="0">
          <Node pos="l" depth="2" NCoef="0" IVar="-1" Cut="0.0000000000000000e+00" cType="1" res="-4.1942752432078123e-04" rms="4.9682518839836121e-01" purity="4.7194308042526245e-01" nType="-99"/>
          <Node pos="r" depth="2" NCoef="0" IVar="-1" Cut="0.0000000000000000e+00" cType="1" res="2.4011079221963882e-03" rms="4.5406582951545715e-01" purity="7.0625442266464233e-01" nType="-99"/>
        </Node>
      </Node>
    </BinaryTree>
    <BinaryTree type="DecisionTree" boostWeight="1.0000000000000000e+00" itree="16">
      <Node pos="s" depth="0" NCoef="0" IVar="1" Cut="9.7557532787322998e-01" cType="1" res="3.0293175950646400e-03" rms="4.9338665604591370e-01" purity="4.9698749184608459e-01" nType="0">
        <Node pos="l" depth="1" NCoef="0" IVar="2" Cut="4.0528933715820312e+02" cType="1" res="-4.3372262269258499e-02" rms="4.9187156558036804e-01" purity="4.4549497961997986e-01" nType="0">
          <Node pos="l" depth="2" NCoef="0" IVar="-1" Cut="0.0000000000000000e+00" cType="1" res="-4.0421844460070133e-03" rms="4.5815172791481018e-01" purity="3.0376398563385010e-01" nType="-99"/>
          <Node pos="r" depth="2" NCoef="0" IVar="-1" Cut="0.0000000000000000e+00" cType="1" res="5.5921060265973210e-04" rms="4.9746382236480713e-01" purity="5.3850018978118896e-01" nType="-99"/>
        </Node>
        <Node pos="r" depth="1" NCoef="0" IVar="5" Cut="2.8416702270507812e+02" cType="1" res="2.1102589368820190e-01" rms="4.4408071041107178e-01" purity="7.2780442237854004e-01" nType="0">
          <Node pos="l" depth="2" NCoef="0" IVar="-1" Cut="0.0000000000000000e+00" cType="1" res="1.7659721197560430e-03" rms="4.7837796807289124e-01" purity="6.4311379194259644e-01" nType="-99"/>
          <Node pos="r" depth="2" NCoef="0" IVar="-1" Cut="0.0000000000000000e+00" cType="1" res="2.9221409931778908e-03" rms="4.1602593660354614e-01" purity="7.7696359157562256e-01" nType="-99"/>
        </Node>
      </Node>
    </BinaryTree>
    <BinaryTree type="DecisionTree" boostWeight="1.0000000000000000e+00" itree="17">
      <Node pos="s" depth="0" NCoef="0" IVar="1" Cut="9.6062409877777100e-01" cType="1" res="7.3389820754528046e-03" rms="4.9285492300987244e-01" purity="5.0133031606674194e-01" nType="0">
        <Node pos="l" depth="1" NCoef="0" IVar="2" Cut="4.2052227783203125e+02" cType="1" res="-6.9597788155078888e-02" rms="4.8768201470375061e-01" purity="4.1429609060287476e-01" nType="0">
          <Node pos="l" depth="2" NCoef="0" IVar="-1" Cut="0.0000000000000000e+00" cType="1" res="-4.6241208910942078e-03" rms="4.4965752959251404e-01" purity="2.8383365273475647e-01" nType="-99"/>
          <Node pos="r" depth="2" NCoef="0" IVar="-1" Cut="0.0000000000000000e+00" cType="1" res="3.1573534943163395e-04" rms="4.9935460090637207e-01" purity="5.2086472511291504e-01" nType="-99"/>
        </Node>
        <Node pos="r" depth="1" NCoef="0" IVar="2" Cut="3.6895181274414062e+02" cType="1" res="1.4022538065910339e-01" rms="4.7305825352668762e-01" purity="6.5165722370147705e-01" nType="0">
          <Node pos="l" depth="2" NCoef="0" IVar="-1" Cut="0.0000000000000000e+00" cType="1" res="-3.4042599145323038e-04" rms="4.9693492054939270e-01" purity="4.7571995854377747e-01" nType="-99"/>
          <Node pos="r" depth="2" NCoef="0" IVar="-1" Cut="0.0000000000000000e+00" cType="1" res="2.3325856309384108e-03" rms="4.5546069741249084e-01" purity="7.0292091369628906e-01" nType="-99"/>
        </Node>
      </Node>
    </BinaryTree>
    <BinaryTree type="DecisionTree" boostWeight="1.0000000000000000e+00" itree="18">
      <Node pos="s" depth="0" NCoef="0" IVar="1" Cut="9.6939039230346680e-01" cType="1" res="2.8084672521799803e-03" rms="4.9253955483436584e-01" purity="4.9634045362472534e-01" nType="0">
        <Node pos="l" depth="1" NCoef="0" IVar="2" Cut="3.7092230224609375e+02" cType="1" res="-5.6765746325254440e-02" rms="4.8950123786926270e-01" purity="4.2869725823402405e-01" nType="0">
          <Node pos="l" depth="2" NCoef="0" IVar="-1" Cut="0.0000000000000000e+00" cType="1" res="-5.6358417496085167e-03" rms="4.3568438291549683e-01" purity="2.5568425655364990e-01" nType="-99"/>
          <Node pos="r" depth="2" NCoef="0" IVar="-1" Cut="0.0000000000000000e+00" cType="1" res="4.5406400204228703e-06" rms="4.9775767326354980e-01" purity="4.9696731567382812e-01" nType="-99"/>
        </Node>
        <Node pos="r" depth="1" NCoef="0" IVar="2" Cut="3.7784799194335938e+02" cType="1" res="1.7714527249336243e-01" rms="4.5885458588600159e-01" purity="6.9429022073745728e-01" nType="0">
          <Node pos="l" depth="2" NCoef="0" IVar="-1" Cut="0.0000000000000000e+00" cType="1" res="6.9993152283132076e-04" rms="4.9625694751739502e-01" purity="5.5169606208801270e-01" nType="-99"/>
          <Node pos="r" depth="2" NCoef="0" IVar="-1" Cut="0.0000000000000000e+00" cType="1" res="2.6469151489436626e-03" rms="4.3671295046806335e-01" purity="7.4244070053100586e-01" nType="-99"/>
        </Node>
      </Node>
    </BinaryTree>
    <BinaryTree type="DecisionTree" boostWeight="1.0000000000000000e+00" itree="19">
      <Node pos="s" depth="0" NCoef="0" IVar="1" Cut="9.6639508008956909e-01" cType="1" res="6.6372812725603580e-03" rms="4.9215713143348694e-01" purity="4.9999570846557617e-01" nType="0">
        <Node pos="l" depth="1" NCoef="0" IVar="2" Cut="4.8267938232421875e+02" cType="1" res="-5.9680029749870300e-02" rms="4.8872771859169006e-01" purity="4.2399325966835022e-01" nType="0">
          <Node pos="l" depth="2" NCoef="0" IVar="-1" Cut="0.0000000000000000e+00" cType="1" res="-3.0811044853180647e-03" rms="4.6917134523391724e-01" purity="3.3652752637863159e-01" nType="-99"/>
          <Node pos="r" depth="2" NCoef="0" IVar="-1" Cut="0.0000000000000000e+00" cType="1" res="9.3924300745129585e-04" rms="4.9541735649108887e-01" purity="5.6524413824081421e-01" nType="-99"/>
        </Node>
        <Node pos="r" depth="1" NCoef="0" IVar="2" Cut="3.8056179809570312e+02" cType="1" res="1.6615292429924011e-01" rms="4.6291038393974304e-01" purity="6.8280732631683350e-01" nType="0">
          <Node pos="l" depth="2" NCoef="0" IVar="-1" Cut="0.0000000000000000e+00" cType="1" res="6.0958275571465492e-04" rms="4.9665933847427368e-01" purity="5.4129874706268311e-01" nType="-99"/>
          <Node pos="r" depth="2" NCoef="0" IVar="-1" Cut="0.0000000000000000e+00" cType="1" res="2.5583982933312654e-03" rms="4.4145640730857849e-01" purity="7.3332101106643677e-01" nType="-99"/>
        </Node>
      </Node>
    </BinaryTree>
    <BinaryTree type="DecisionTree" boostWeight="1.0000000000000000e+00" itree="20">
      <Node pos="s" depth="0" NCoef="0" IVar="1" Cut="9.6916955709457397e-01" cType="1" res="5.9223668649792671e-03" rms="4.9170669913291931e-01" purity="4.9916297197341919e-01" nType="0">
        <Node pos="l" depth="1" NCoef="0" IVar="2" Cut="3.7855746459960938e+02" cType="1" res="-5.5062867701053619e-02" rms="4.8890283703804016e-01" purity="4.2908310890197754e-01" nType="0">
          <Node pos="l" depth="2" NCoef="0" IVar="-1" Cut="0.0000000000000000e+00" cType="1" res="-5.7506407611072063e-03" rms="4.3316081166267395e-01" purity="2.5133138895034790e-01" nType="-99"/>
          <Node pos="r" depth="2" NCoef="0" IVar="-1" Cut="0.0000000000000000e+00" cType="1" res="1.4871463645249605e-04" rms="4.9793112277984619e-01" purity="5.0650101900100708e-01" nType="-99"/>
        </Node>
        <Node pos="r" depth="1" NCoef="0" IVar="1" Cut="9.8442304134368896e-01" cType="1" res="1.7814333736896515e-01" rms="4.5757722854614258e-01" purity="6.9706696271896362e-01" nType="0">
          <Node pos="l" depth="2" NCoef="0" IVar="-1" Cut="0.0000000000000000e+00" cType="1" res="1.5605640364810824e-03" rms="4.8084074258804321e-01" purity="6.2962687015533447e-01" nType="-99"/>
          <Node pos="r" depth="2" NCoef="0" IVar="-1" Cut="0.0000000000000000e+00" cType="1" res="3.0299816280603409e-03" rms="4.0275800228118896e-01" purity="7.9503661394119263e-01" nType="-99"/>
        </Node>
      </Node>
    </BinaryTree>
    <BinaryTree type="DecisionTree" boostWeight="1.0000000000000000e+00" itree="21">
      <Node pos="s" depth="0" NCoef="0" IVar="1" Cut="9.6939039230346680e-01" cType="1" res="7.5657707639038563e-03" rms="4.9141874909400940e-01" purity="5.0041717290878296e-01" nType="0">
        <Node pos="l" depth="1" NCoef="0" IVar="2" Cut="4.1996679687500000e+02" cType="1" res="-5.0827581435441971e-02" rms="4.8924475908279419e-01" purity="4.3249297142028809e-01" nType="0">
          <Node pos="l" depth="2" NCoef="0" IVar="-1" Cut="0.0000000000000000e+00" cType="1" res="-3.9013435598462820e-03" rms="4.5701375603675842e-01" purity="3.0203518271446228e-01" nType="-99"/>
          <Node pos="r" depth="2" NCoef="0" IVar="-1" Cut="0.0000000000000000e+00" cType="1" res="5.3440948249772191e-04" rms="4.9788340926170349e-01" purity="5.3724050521850586e-01" nType="-99"/>
        </Node>
        <Node pos="r" depth="1" NCoef="0" IVar="1" Cut="9.8467367887496948e-01" cType="1" res="1.7705795168876648e-01" rms="4.5722618699073792e-01" purity="6.9757354259490967e-01" nType="0">
          <Node pos="l" depth="2" NCoef="0" IVar="-1" Cut="0.0000000000000000e+00" cType="1" res="1.5565491048619151e-03" rms="4.8046338558197021e-01" purity="6.3056075572967529e-01" nType="-99"/>
          <Node pos="r" depth="2" NCoef="0" IVar="-1" Cut="0.0000000000000000e+00" cType="1" res="2.9691311065107584e-03" rms="4.0423950552940369e-01" purity="7.9283750057220459e-01" nType="-99"/>
        </Node>
      </Node>
    </BinaryTree>
    <BinaryTree type="DecisionTree" boostWeight="1.0000000000000000e+00" itree="22">
      <Node pos="s" depth="0" NCoef="0" IVar="1" Cut="9.6939039230346680e-01" cType="1" res="7.4125491082668304e-03" rms="4.9112290143966675e-01" purity="5.0007683038711548e-01" nType="0">
        <Node pos="l" depth="1" NCoef="0" IVar="2" Cut="3.7209335327148438e+02" cType="1" res="-4.9929104745388031e-02" rms="4.8905402421951294e-01" purity="4.3284907937049866e-01" nType="0">
          <Node pos="l" depth="2" NCoef="0" IVar="-1" Cut="0.0000000000000000e+00" cType="1" res="-5.8355117216706276e-03" rms="4.3065384030342102e-01" purity="2.4713355302810669e-01" nType="-99"/>
          <Node pos="r" depth="2" NCoef="0" IVar="-1" Cut="0.0000000000000000e+00" cType="1" res="1.4560355339199305e-04" rms="4.9770754575729370e-01" purity="5.0487166643142700e-01" nType="-99"/>
        </Node>
        <Node pos="r" depth="1" NCoef="0" IVar="2" Cut="4.0962042236328125e+02" cType="1" res="1.7389574646949768e-01" rms="4.5806795358657837e-01" purity="6.9526296854019165e-01" nType="0">
          <Node pos="l" depth="2" NCoef="0" IVar="-1" Cut="0.0000000000000000e+00" cType="1" res="8.9102378115057945e-04" rms="4.9392673373222351e-01" purity="5.6927454471588135e-01" nType="-99"/>
          <Node pos="r" depth="2" NCoef="0" IVar="-1" Cut="0.0000000000000000e+00" cType="1" res="2.7259825728833675e-03" rms="4.2560300230979919e-01" purity="7.6180344820022583e-01" nType="-99"/>
        </Node>
      </Node>
    </BinaryTree>
    <BinaryTree type="DecisionTree" boostWeight="1.0000000000000000e+00" itree="23">
      <Node pos="s" depth="0" NCoef="0" IVar="1" Cut="9.5801800489425659e-01" cType="1" res="7.8029939904808998e-03" rms="4.9095854163169861e-01" purity="4.9988174438476562e-01" nType="0">
        <Node pos="l" depth="1" NCoef="0" IVar="2" Cut="4.6823376464843750e+02" cType="1" res="-7.1526847779750824e-02" rms="4.8533961176872253e-01" purity="4.0698838233947754e-01" nType="0">
          <Node pos="l" depth="2" NCoef="0" IVar="-1" Cut="0.0000000000000000e+00" cType="1" res="-3.3887845929712057e-03" rms="4.6288168430328369e-01" purity="3.1944343447685242e-01" nType="-99"/>
          <Node pos="r" depth="2" NCoef="0" IVar="-1" Cut="0.0000000000000000e+00" cType="1" res="5.0299952272325754e-04" rms="4.9875655770301819e-01" purity="5.3455638885498047e-01" nType="-99"/>
        </Node>
        <Node pos="r" depth="1" NCoef="0" IVar="2" Cut="4.2836035156250000e+02" cType="1" res="1.2610907852649689e-01" rms="4.7522604465484619e-01" purity="6.3841539621353149e-01" nType="0">
          <Node pos="l" depth="2" NCoef="0" IVar="-1" Cut="0.0000000000000000e+00" cType="1" res="5.0794886192306876e-04" rms="4.9411875009536743e-01" purity="5.2919006347656250e-01" nType="-99"/>
          <Node pos="r" depth="2" NCoef="0" IVar="-1" Cut="0.0000000000000000e+00" cType="1" res="2.4286084808409214e-03" rms="4.4717454910278320e-01" purity="7.2142201662063599e-01" nType="-99"/>
        </Node>
      </Node>
    </BinaryTree>
    <BinaryTree type="DecisionTree" boostWeight="1.0000000000000000e+00" itree="24">
      <Node pos="s" depth="0" NCoef="0" IVar="1" Cut="9.5797669887542725e-01" cType="1" res="5.1007145084440708e-03" rms="4.9057283997535706e-01" purity="4.9672362208366394e-01" nType="0">
        <Node pos="l" depth="1" NCoef="0" IVar="2" Cut="4.3515814208984375e+02" cType="1" res="-6.9638863205909729e-02" rms="4.8487874865531921e-01" purity="4.0815520286560059e-01" nType="0">
          <Node pos="l" depth="2" NCoef="0" IVar="-1" Cut="0.0000000000000000e+00" cType="1" res="-4.3701729737222195e-03" rms="4.4940587878227234e-01" purity="2.8525939583778381e-01" nType="-99"/>
          <Node pos="r" depth="2" NCoef="0" IVar="-1" Cut="0.0000000000000000e+00" cType="1" res="4.2687592213042080e-04" rms="4.9898141622543335e-01" purity="5.2849453687667847e-01" nType="-99"/>
        </Node>
        <Node pos="r" depth="1" NCoef="0" IVar="2" Cut="3.7926348876953125e+02" cType="1" res="1.1868517100811005e-01" rms="4.7719189524650574e-01" purity="6.3132423162460327e-01" nType="0">
          <Node pos="l" depth="2" NCoef="0" IVar="-1" Cut="0.0000000000000000e+00" cType="1" res="-4.5689928811043501e-04" rms="4.9378690123558044e-01" purity="4.6464544534683228e-01" nType="-99"/>
          <Node pos="r" depth="2" NCoef="0" IVar="-1" Cut="0.0000000000000000e+00" cType="1" res="2.1516750566661358e-03" rms="4.6028688549995422e-01" purity="6.9096505641937256e-01" nType="-99"/>
        </Node>
      </Node>
    </BinaryTree>
    <BinaryTree type="DecisionTree" boostWeight="1.0000000000000000e+00" itree="25">
      <Node pos="s" depth="0" NCoef="0" IVar="1" Cut="9.6642071008682251e-01" cType="1" res="9.4841672107577324e-03" rms="4.9053049087524414e-01" purity="5.0086456537246704e-01" nType="0">
        <Node pos="l" depth="1" NCoef="0" IVar="2" Cut="4.8267938232421875e+02" cType="1" res="-5.0542138516902924e-02" rms="4.8837527632713318e-01" purity="4.2837092280387878e-01" nType="0">
          <Node pos="l" depth="2" NCoef="0" IVar="-1" Cut="0.0000000000000000e+00" cType="1" res="-2.6629380881786346e-03" rms="4.7155499458312988e-01" purity="3.4474629163742065e-01" nType="-99"/>
          <Node pos="r" depth="2" NCoef="0" IVar="-1" Cut="0.0000000000000000e+00" cType="1" res="9.4049196923151612e-04" rms="4.9520790576934814e-01" purity="5.6664592027664185e-01" nType="-99"/>
        </Node>
        <Node pos="r" depth="1" NCoef="0" IVar="5" Cut="2.5419395446777344e+02" cType="1" res="1.5622638165950775e-01" rms="4.6415093541145325e-01" purity="6.7808467149734497e-01" nType="0">
          <Node pos="l" depth="2" NCoef="0" IVar="-1" Cut="0.0000000000000000e+00" cType="1" res="3.9175135316327214e-04" rms="4.9581500887870789e-01" purity="5.3185081481933594e-01" nType="-99"/>
          <Node pos="r" depth="2" NCoef="0" IVar="-1" Cut="0.0000000000000000e+00" cType="1" res="2.4091629311442375e-03" rms="4.4607996940612793e-01" purity="7.2330164909362793e-01" nType="-99"/>
        </Node>
      </Node>
    </BinaryTree>
    <BinaryTree type="DecisionTree" boostWeight="1.0000000000000000e+00" itree="26">
      <Node pos="s" depth="0" NCoef="0" IVar="1" Cut="9.6035081148147583e-01" cType="1" res="1.1558063328266144e-02" rms="4.8988074064254761e-01" purity="5.0314414501190186e-01" nType="0">
        <Node pos="l" depth="1" NCoef="0" IVar="2" Cut="4.3258062744140625e+02" cType="1" res="-6.2040064483880997e-02" rms="4.8578917980194092e-01" purity="4.1462090611457825e-01" nType="0">
          <Node pos="l" depth="2" NCoef="0" IVar="-1" Cut="0.0000000000000000e+00" cType="1" res="-3.9154533296823502e-03" rms="4.5358368754386902e-01" purity="2.9467934370040894e-01" nType="-99"/>
          <Node pos="r" depth="2" NCoef="0" IVar="-1" Cut="0.0000000000000000e+00" cType="1" res="4.2607571231201291e-04" rms="4.9882563948631287e-01" purity="5.2877146005630493e-01" nType="-99"/>
        </Node>
        <Node pos="r" depth="1" NCoef="0" IVar="1" Cut="9.7931402921676636e-01" cType="1" res="1.3641914725303650e-01" rms="4.7114309668540955e-01" purity="6.5332603454589844e-01" nType="0">
          <Node pos="l" depth="2" NCoef="0" IVar="-1" Cut="0.0000000000000000e+00" cType="1" res="1.0698339901864529e-03" rms="4.8877874016761780e-01" purity="5.8158957958221436e-01" nType="-99"/>
          <Node pos="r" depth="2" NCoef="0" IVar="-1" Cut="0.0000000000000000e+00" cType="1" res="2.6776532176882029e-03" rms="4.2809233069419861e-01" purity="7.5602948665618896e-01" nType="-99"/>
        </Node>
      </Node>
    </BinaryTree>
    <BinaryTree type="DecisionTree" boostWeight="1.0000000000000000e+00" itree="27">
      <Node pos="s" depth="0" NCoef="0" IVar="1" Cut="9.6617990732192993e-01" cType="1" res="1.2318738736212254e-02" rms="4.8976930975914001e-01" purity="5.0362396240234375e-01" nType="0">
        <Node pos="l" depth="1" NCoef="0" IVar="2" Cut="3.7822079467773438e+02" cType="1" res="-4.6969417482614517e-02" rms="4.8806595802307129e-01" purity="4.3095058202743530e-01" nType="0">
          <Node pos="l" depth="2" NCoef="0" IVar="-1" Cut="0.0000000000000000e+00" cType="1" res="-5.0491793081164360e-03" rms="4.3724262714385986e-01" purity="2.5824961066246033e-01" nType="-99"/>
          <Node pos="r" depth="2" NCoef="0" IVar="-1" Cut="0.0000000000000000e+00" cType="1" res="1.9504704687278718e-04" rms="4.9770772457122803e-01" purity="5.0711178779602051e-01" nType="-99"/>
        </Node>
        <Node pos="r" depth="1" NCoef="0" IVar="2" Cut="3.8510339355468750e+02" cType="1" res="1.5459547936916351e-01" rms="4.6388906240463257e-01" purity="6.7802196741104126e-01" nType="0">
          <Node pos="l" depth="2" NCoef="0" IVar="-1" Cut="0.0000000000000000e+00" cType="1" res="4.9294217023998499e-04" rms="4.9607980251312256e-01" purity="5.3694432973861694e-01" nType="-99"/>
          <Node pos="r" depth="2" NCoef="0" IVar="-1" Cut="0.0000000000000000e+00" cType="1" res="2.4430181365460157e-03" rms="4.4154515862464905e-01" purity="7.3283535242080688e-01" nType="-99"/>
        </Node>
      </Node>
    </BinaryTree>
    <BinaryTree type="DecisionTree" boostWeight="1.0000000000000000e+00" itree="28">
      <Node pos="s" depth="0" NCoef="0" IVar="1" Cut="9.7509831190109253e-01" cType="1" res="8.9148981496691704e-03" rms="4.8932066559791565e-01" purity="5.0003206729888916e-01" nType="0">
        <Node pos="l" depth="1" NCoef="0" IVar="2" Cut="4.1546505737304688e+02" cType="1" res="-3.5384628921747208e-02" rms="4.8893934488296509e-01" purity="4.4684243202209473e-01" nType="0">
          <Node pos="l" depth="2" NCoef="0" IVar="-1" Cut="0.0000000000000000e+00" cType="1" res="-3.5027987323701382e-03" rms="4.5817115902900696e-01" purity="3.0788165330886841e-01" nType="-99"/>
          <Node pos="r" depth="2" NCoef="0" IVar="-1" Cut="0.0000000000000000e+00" cType="1" res="6.7449640482664108e-04" rms="4.9606704711914062e-01" purity="5.4933351278305054e-01" nType="-99"/>
        </Node>
        <Node pos="r" depth="1" NCoef="0" IVar="2" Cut="4.4128500366210938e+02" cType="1" res="1.9746096432209015e-01" rms="4.4398227334022522e-01" purity="7.2641581296920776e-01" nType="0">
          <Node pos="l" depth="2" NCoef="0" IVar="-1" Cut="0.0000000000000000e+00" cType="1" res="1.7030257731676102e-03" rms="4.7731006145477295e-01" purity="6.4533317089080811e-01" nType="-99"/>
          <Node pos="r" depth="2" NCoef="0" IVar="-1" Cut="0.0000000000000000e+00" cType="1" res="2.8802913147956133e-03" rms="4.0575742721557617e-01" purity="7.9185575246810913e-01" nType="-99"/>
        </Node>
      </Node>
    </BinaryTree>
    <BinaryTree type="DecisionTree" boostWeight="1.0000000000000000e+00" itree="29">
      <Node pos="s" depth="0" NCoef="0" IVar="1" Cut="9.6928620338439941e-01" cType="1" res="7.6648010872304440e-03" rms="4.8921218514442444e-01" purity="4.9851363897323608e-01" nType="0">
        <Node pos="l" depth="1" NCoef="0" IVar="2" Cut="3.7134844970703125e+02" cType="1" res="-4.4935166835784912e-02" rms="4.8779067397117615e-01" purity="4.3350979685783386e-01" nType="0">
          <Node pos="l" depth="2" NCoef="0" IVar="-1" Cut="0.0000000000000000e+00" cType="1" res="-5.3064445964992046e-03" rms="4.3193548917770386e-01" purity="2.4932011961936951e-01" nType="-99"/>
          <Node pos="r" depth="2" NCoef="0" IVar="-1" Cut="0.0000000000000000e+00" cType="1" res="1.5468170749954879e-04" rms="4.9712294340133667e-01" purity="5.0433433055877686e-01" nType="-99"/>
        </Node>
        <Node pos="r" depth="1" NCoef="0" IVar="2" Cut="4.2497186279296875e+02" cType="1" res="1.6350083053112030e-01" rms="4.5930525660514832e-01" purity="6.9109821319580078e-01" nType="0">
          <Node pos="l" depth="2" NCoef="0" IVar="-1" Cut="0.0000000000000000e+00" cType="1" res="1.0397142032161355e-03" rms="4.9070426821708679e-01" purity="5.8618557453155518e-01" nType="-99"/>
          <Node pos="r" depth="2" NCoef="0" IVar="-1" Cut="0.0000000000000000e+00" cType="1" res="2.6350531261414289e-03" rms="4.2602908611297607e-01" purity="7.6106041669845581e-01" nType="-99"/>
        </Node>
      </Node>
    </BinaryTree>
    <BinaryTree type="DecisionTree" boostWeight="1.0000000000000000e+00" itree="30">
      <Node pos="s" depth="0" NCoef="0" IVar="1" Cut="9.6055465936660767e-01" cType="1" res="9.3957148492336273e-03" rms="4.8876681923866272e-01" purity="5.0001513957977295e-01" nType="0">
        <Node pos="l" depth="1" NCoef="0" IVar="2" Cut="4.3258062744140625e+02" cType="1" res="-6.1781417578458786e-02" rms="4.8476338386535645e-01" purity="4.1217240691184998e-01" nType="0">
          <Node pos="l" depth="2" NCoef="0" IVar="-1" Cut="0.0000000000000000e+00" cType="1" res="-3.7882367614656687e-03" rms="4.5318305492401123e-01" purity="2.9402628540992737e-01" nType="-99"/>
          <Node pos="r" depth="2" NCoef="0" IVar="-1" Cut="0.0000000000000000e+00" cType="1" res="3.4301751293241978e-04" rms="4.9906009435653687e-01" purity="5.2449113130569458e-01" nType="-99"/>
        </Node>
        <Node pos="r" depth="1" NCoef="0" IVar="2" Cut="3.7209335327148438e+02" cType="1" res="1.3259966671466827e-01" rms="4.7084054350852966e-01" purity="6.5206640958786011e-01" nType="0">
          <Node pos="l" depth="2" NCoef="0" IVar="-1" Cut="0.0000000000000000e+00" cType="1" res="-1.8939793517347425e-04" rms="4.9490475654602051e-01" purity="4.8248875141143799e-01" nType="-99"/>
          <Node pos="r" depth="2" NCoef="0" IVar="-1" Cut="0.0000000000000000e+00" cType="1" res="2.2249589674174786e-03" rms="4.5402520895004272e-01" purity="7.0457816123962402e-01" nType="-99"/>
        </Node>
      </Node>
    </BinaryTree>
    <BinaryTree type="DecisionTree" boostWeight="1.0000000000000000e+00" itree="31">
      <Node pos="s" depth="0" NCoef="0" IVar="1" Cut="9.6339976787567139e-01" cType="1" res="9.4868922606110573e-03" rms="4.8858293890953064e-01" purity="4.9990367889404297e-01" nType="0">
        <Node pos="l" depth="1" NCoef="0" IVar="2" Cut="4.8267938232421875e+02" cType="1" res="-5.3521201014518738e-02" rms="4.8599028587341309e-01" purity="4.2076426744461060e-01" nType="0">
          <Node pos="l" depth="2" NCoef="0" IVar="-1" Cut="0.0000000000000000e+00" cType="1" res="-2.7721468359231949e-03" rms="4.6758404374122620e-01" purity="3.3503296971321106e-01" nType="-99"/>
          <Node pos="r" depth="2" NCoef="0" IVar="-1" Cut="0.0000000000000000e+00" cType="1" res="8.3911046385765076e-04" rms="4.9608156085014343e-01" purity="5.6057399511337280e-01" nType="-99"/>
        </Node>
        <Node pos="r" depth="1" NCoef="0" IVar="2" Cut="3.8799383544921875e+02" cType="1" res="1.3873939216136932e-01" rms="4.6802392601966858e-01" purity="6.6224735975265503e-01" nType="0">
          <Node pos="l" depth="2" NCoef="0" IVar="-1" Cut="0.0000000000000000e+00" cType="1" res="2.4605359067209065e-04" rms="4.9542117118835449e-01" purity="5.1610171794891357e-01" nType="-99"/>
          <Node pos="r" depth="2" NCoef="0" IVar="-1" Cut="0.0000000000000000e+00" cType="1" res="2.3275811690837145e-03" rms="4.4676887989044189e-01" purity="7.2154617309570312e-01" nType="-99"/>
        </Node>
      </Node>
    </BinaryTree>
    <BinaryTree type="DecisionTree" boostWeight="1.0000000000000000e+00" itree="32">
      <Node pos="s" depth="0" NCoef="0" IVar="1" Cut="9.5740914344787598e-01" cType="1" res="3.3474399242550135e-03" rms="4.8808413743972778e-01" purity="4.9321824312210083e-01" nType="0">
        <Node pos="l" depth="1" NCoef="0" IVar="2" Cut="4.9185260009765625e+02" cType="1" res="-7.4747756123542786e-02" rms="4.8149064183235168e-01" purity="3.9650467038154602e-01" nType="0">
          <Node pos="l" depth="2" NCoef="0" IVar="-1" Cut="0.0000000000000000e+00" cType="1" res="-3.2474412582814693e-03" rms="4.6125742793083191e-01" purity="3.1813323497772217e-01" nType="-99"/>
          <Node pos="r" depth="2" NCoef="0" IVar="-1" Cut="0.0000000000000000e+00" cType="1" res="5.7276507141068578e-04" rms="4.9827051162719727e-01" purity="5.4153108596801758e-01" nType="-99"/>
        </Node>
        <Node pos="r" depth="1" NCoef="0" IVar="5" Cut="2.5091348266601562e+02" cType="1" res="1.1506047099828720e-01" rms="4.7557011246681213e-01" purity="6.3156431913375854e-01" nType="0">
          <Node pos="l" depth="2" NCoef="0" IVar="-1" Cut="0.0000000000000000e+00" cType="1" res="-4.7602262930013239e-04" rms="4.9202516674995422e-01" purity="4.6448040008544922e-01" nType="-99"/>
          <Node pos="r" depth="2" NCoef="0" IVar="-1" Cut="0.0000000000000000e+00" cType="1" res="2.0328771788626909e-03" rms="4.6207636594772339e-01" purity="6.8189132213592529e-01" nType="-99"/>
        </Node>
      </Node>
    </BinaryTree>
    <BinaryTree type="DecisionTree" boostWeight="1.0000000000000000e+00" itree="33">
      <Node pos="s" depth="0" NCoef="0" IVar="1" Cut="9.5740914344787598e-01" cType="1" res="1.0816193185746670e-02" rms="4.8801746964454651e-01" purity="5.0066518783569336e-01" nType="0">
        <Node pos="l" depth="1" NCoef="0" IVar="2" Cut="3.8561947631835938e+02" cType="1" res="-6.3132829964160919e-02" rms="4.8336946964263916e-01" purity="4.0770384669303894e-01" nType="0">
          <Node pos="l" depth="2" NCoef="0" IVar="-1" Cut="0.0000000000000000e+00" cType="1" res="-5.1835794001817703e-03" rms="4.3044066429138184e-01" purity="2.4633347988128662e-01" nType="-99"/>
          <Node pos="r" depth="2" NCoef="0" IVar="-1" Cut="0.0000000000000000e+00" cType="1" res="-6.9439774961210787e-05" rms="4.9792340397834778e-01" purity="4.8990267515182495e-01" nType="-99"/>
        </Node>
        <Node pos="r" depth="1" NCoef="0" IVar="1" Cut="9.7966152429580688e-01" cType="1" res="1.1681464314460754e-01" rms="4.7493022680282593e-01" purity="6.3391584157943726e-01" nType="0">
          <Node pos="l" depth="2" NCoef="0" IVar="-1" Cut="0.0000000000000000e+00" cType="1" res="8.6186826229095459e-04" rms="4.9015092849731445e-01" purity="5.6357514858245850e-01" nType="-99"/>
          <Node pos="r" depth="2" NCoef="0" IVar="-1" Cut="0.0000000000000000e+00" cType="1" res="2.6089854072779417e-03" rms="4.2651045322418213e-01" purity="7.5779783725738525e-01" nType="-99"/>
        </Node>
      </Node>
    </BinaryTree>
    <BinaryTree type="DecisionTree" boostWeight="1.0000000000000000e+00" itree="34">
      <Node pos="s" depth="0" NCoef="0" IVar="1" Cut="9.7540217638015747e-01" cType="1" res="1.2204950675368309e-02" rms="4.8800018429756165e-01" purity="5.0187855958938599e-01" nType="0">
        <Node pos="l" depth="1" NCoef="0" IVar="2" Cut="4.1447372436523438e+02" cType="1" res="-2.9306039214134216e-02" rms="4.8842766880989075e-01" purity="4.5000448822975159e-01" nType="0">
          <Node pos="l" depth="2" NCoef="0" IVar="-1" Cut="0.0000000000000000e+00" cType="1" res="-3.1189902219921350e-03" rms="4.6048840880393982e-01" purity="3.1398794054985046e-01" nType="-99"/>
          <Node pos="r" depth="2" NCoef="0" IVar="-1" Cut="0.0000000000000000e+00" cType="1" res="6.5982859814539552e-04" rms="4.9573212862014771e-01" purity="5.4936289787292480e-01" nType="-99"/>
        </Node>
        <Node pos="r" depth="1" NCoef="0" IVar="1" Cut="9.8409640789031982e-01" cType="1" res="1.9342839717864990e-01" rms="4.4267049431800842e-01" purity="7.2834378480911255e-01" nType="0">
          <Node pos="l" depth="2" NCoef="0" IVar="-1" Cut="0.0000000000000000e+00" cType="1" res="1.5092168468981981e-03" rms="4.7637572884559631e-01" purity="6.4346319437026978e-01" nType="-99"/>
          <Node pos="r" depth="2" NCoef="0" IVar="-1" Cut="0.0000000000000000e+00" cType="1" res="2.8308914043009281e-03" rms="4.0619689226150513e-01" purity="7.8961575031280518e-01" nType="-99"/>
        </Node>
      </Node>
    </BinaryTree>
    <BinaryTree type="DecisionTree" boostWeight="1.0000000000000000e+00" itree="35">
      <Node pos="s" depth="0" NCoef="0" IVar="1" Cut="9.7226321697235107e-01" cType="1" res="1.4401977881789207e-02" rms="4.8741468787193298e-01" purity="5.0404649972915649e-01" nType="0">
        <Node pos="l" depth="1" NCoef="0" IVar="2" Cut="3.9766213989257812e+02" cType="1" res="-3.5174988210201263e-02" rms="4.8747077584266663e-01" purity="4.4146081805229187e-01" nType="0">
          <Node pos="l" depth="2" NCoef="0" IVar="-1" Cut="0.0000000000000000e+00" cType="1" res="-3.6282103974372149e-03" rms="4.5225208997726440e-01" purity="2.9183754324913025e-01" nType="-99"/>
          <Node pos="r" depth="2" NCoef="0" IVar="-1" Cut="0.0000000000000000e+00" cType="1" res="4.4071636511944234e-04" rms="4.9672943353652954e-01" purity="5.3011924028396606e-01" nType="-99"/>
        </Node>
        <Node pos="r" depth="1" NCoef="0" IVar="1" Cut="9.8429733514785767e-01" cType="1" res="1.8435786664485931e-01" rms="4.4729709625244141e-01" purity="7.1859800815582275e-01" nType="0">
          <Node pos="l" depth="2" NCoef="0" IVar="-1" Cut="0.0000000000000000e+00" cType="1" res="1.6190310707315803e-03" rms="4.7452574968338013e-01" purity="6.5026420354843140e-01" nType="-99"/>
          <Node pos="r" depth="2" NCoef="0" IVar="-1" Cut="0.0000000000000000e+00" cType="1" res="2.8374069370329380e-03" rms="4.0401241183280945e-01" purity="7.9263800382614136e-01" nType="-99"/>
        </Node>
      </Node>
    </BinaryTree>
    <BinaryTree type="DecisionTree" boostWeight="1.0000000000000000e+00" itree="36">
      <Node pos="s" depth="0" NCoef="0" IVar="1" Cut="9.6368092298507690e-01" cType="1" res="9.6158934757113457e-03" rms="4.8636403679847717e-01" purity="4.9953982234001160e-01" nType="0">
        <Node pos="l" depth="1" NCoef="0" IVar="2" Cut="3.9579519653320312e+02" cType="1" res="-5.8413930237293243e-02" rms="4.8313209414482117e-01" purity="4.1295751929283142e-01" nType="0">
          <Node pos="l" depth="2" NCoef="0" IVar="-1" Cut="0.0000000000000000e+00" cType="1" res="-4.9218465574085712e-03" rms="4.3289783596992493e-01" purity="2.5247436761856079e-01" nType="-99"/>
          <Node pos="r" depth="2" NCoef="0" IVar="-1" Cut="0.0000000000000000e+00" cType="1" res="1.2395370868034661e-04" rms="4.9831473827362061e-01" purity="5.0601714849472046e-01" nType="-99"/>
        </Node>
        <Node pos="r" depth="1" NCoef="0" IVar="2" Cut="3.6414279174804688e+02" cType="1" res="1.4688260853290558e-01" rms="4.6334853768348694e-01" purity="6.7424070835113525e-01" nType="0">
          <Node pos="l" depth="2" NCoef="0" IVar="-1" Cut="0.0000000000000000e+00" cType="1" res="1.9790877558989450e-06" rms="4.9552607536315918e-01" purity="5.0054281949996948e-01" nType="-99"/>
          <Node pos="r" depth="2" NCoef="0" IVar="-1" Cut="0.0000000000000000e+00" cType="1" res="2.2851517423987389e-03" rms="4.4652816653251648e-01" purity="7.2001844644546509e-01" nType="-99"/>
        </Node>
      </Node>
    </BinaryTree>
    <BinaryTree type="DecisionTree" boostWeight="1.0000000000000000e+00" itree="37">
      <Node pos="s" depth="0" NCoef="0" IVar="1" Cut="9.7524130344390869e-01" cType="1" res="1.2428394518792629e-02" rms="4.8701635003089905e-01" purity="5.0141912698745728e-01" nType="0">
        <Node pos="l" depth="1" NCoef="0" IVar="2" Cut="4.0528933715820312e+02" cType="1" res="-2.9273161664605141e-02" rms="4.8760542273521423e-01" purity="4.4845655560493469e-01" nType="0">
          <Node pos="l" depth="2" NCoef="0" IVar="-1" Cut="0.0000000000000000e+00" cType="1" res="-3.1396481208503246e-03" rms="4.5761248469352722e-01" purity="3.0739089846611023e-01" nType="-99"/>
          <Node pos="r" depth="2" NCoef="0" IVar="-1" Cut="0.0000000000000000e+00" cType="1" res="5.4368330165743828e-04" rms="4.9603536725044250e-01" purity="5.4053574800491333e-01" nType="-99"/>
        </Node>
        <Node pos="r" depth="1" NCoef="0" IVar="2" Cut="4.2022238159179688e+02" cType="1" res="1.9391232728958130e-01" rms="4.4066059589385986e-01" purity="7.3191094398498535e-01" nType="0">
          <Node pos="l" depth="2" NCoef="0" IVar="-1" Cut="0.0000000000000000e+00" cType="1" res="1.4450444141402841e-03" rms="4.8180142045021057e-01" purity="6.3028270006179810e-01" nType="-99"/>
          <Node pos="r" depth="2" NCoef="0" IVar="-1" Cut="0.0000000000000000e+00" cType="1" res="2.7734644245356321e-03" rms="4.0554863214492798e-01" purity="7.9189491271972656e-01" nType="-99"/>
        </Node>
      </Node>
    </BinaryTree>
    <BinaryTree type="DecisionTree" boostWeight="1.0000000000000000e+00" itree="38">
      <Node pos="s" depth="0" NCoef="0" IVar="1" Cut="9.7837632894515991e-01" cType="1" res="7.0215971209108829e-03" rms="4.8707807064056396e-01" purity="4.9535942077636719e-01" nType="0">
        <Node pos="l" depth="1" NCoef="0" IVar="2" Cut="4.5645288085937500e+02" cType="1" res="-2.8683589771389961e-02" rms="4.8759019374847412e-01" purity="4.5011395215988159e-01" nType="0">
          <Node pos="l" depth="2" NCoef="0" IVar="-1" Cut="0.0000000000000000e+00" cType="1" res="-2.3237569257616997e-03" rms="4.7026374936103821e-01" purity="3.4792080521583557e-01" nType="-99"/>
          <Node pos="r" depth="2" NCoef="0" IVar="-1" Cut="0.0000000000000000e+00" cType="1" res="9.3072454910725355e-04" rms="4.9301111698150635e-01" purity="5.7387554645538330e-01" nType="-99"/>
        </Node>
        <Node pos="r" depth="1" NCoef="0" IVar="-1" Cut="0.0000000000000000e+00" cType="1" res="2.3918647784739733e-03" rms="4.3624523282051086e-01" purity="7.4021029472351074e-01" nType="-99"/>
      </Node>
    </BinaryTree>
    <BinaryTree type="DecisionTree" boostWeight="1.0000000000000000e+00" itree="39">
      <Node pos="s" depth="0" NCoef="0" IVar="1" Cut="9.7837632894515991e-01" cType="1" res="1.0054592974483967e-02" rms="4.8686903715133667e-01" purity="4.9826422333717346e-01" nType="0">
        <Node pos="l" depth="1" NCoef="0" IVar="2" Cut="4.6274462890625000e+02" cType="1" res="-2.4890031665563583e-02" rms="4.8765358328819275e-01" purity="4.5361557602882385e-01" nType="0">
          <Node pos="l" depth="2" NCoef="0" IVar="-1" Cut="0.0000000000000000e+00" cType="1" res="-2.0886966958642006e-03" rms="4.7244203090667725e-01" purity="3.5716614127159119e-01" nType="-99"/>
          <Node pos="r" depth="2" NCoef="0" IVar="-1" Cut="0.0000000000000000e+00" cType="1" res="9.9866499658674002e-04" rms="4.9212244153022766e-01" purity="5.7977092266082764e-01" nType="-99"/>
        </Node>
        <Node pos="r" depth="1" NCoef="0" IVar="-1" Cut="0.0000000000000000e+00" cType="1" res="2.3932207841426134e-03" rms="4.3618166446685791e-01" purity="7.4070632457733154e-01" nType="-99"/>
      </Node>
    </BinaryTree>
    <BinaryTree type="DecisionTree" boostWeight="1.0000000000000000e+00" itree="40">
      <Node pos="s" depth="0" NCoef="0" IVar="1" Cut="9.5774924755096436e-01" cType="1" res="9.7767114639282227e-03" rms="4.8639747500419617e-01" purity="4.9804297089576721e-01" nType="0">
        <Node pos="l" depth="1" NCoef="0" IVar="2" Cut="4.0029693603515625e+02" cType="1" res="-6.2674008309841156e-02" rms="4.8213464021682739e-01" purity="4.0347141027450562e-01" nType="0">
          <Node pos="l" depth="2" NCoef="0" IVar="-1" Cut="0.0000000000000000e+00" cType="1" res="-4.1624880395829678e-03" rms="4.4147065281867981e-01" purity="2.6741322875022888e-01" nType="-99"/>
          <Node pos="r" depth="2" NCoef="0" IVar="-1" Cut="0.0000000000000000e+00" cType="1" res="-1.0875409498112276e-04" rms="4.9874630570411682e-01" purity="4.9173054099082947e-01" nType="-99"/>
        </Node>
        <Node pos="r" depth="1" NCoef="0" IVar="2" Cut="3.7926348876953125e+02" cType="1" res="1.1537805199623108e-01" rms="4.7307270765304565e-01" purity="6.3588678836822510e-01" nType="0">
          <Node pos="l" depth="2" NCoef="0" IVar="-1" Cut="0.0000000000000000e+00" cType="1" res="-4.1667046025395393e-04" rms="4.9208649992942810e-01" purity="4.6259447932243347e-01" nType="-99"/>
          <Node pos="r" depth="2" NCoef="0" IVar="-1" Cut="0.0000000000000000e+00" cType="1" res="2.0923262927681208e-03" rms="4.5626696944236755e-01" purity="6.9703632593154907e-01" nType="-99"/>
        </Node>
      </Node>
    </BinaryTree>
    <BinaryTree type="DecisionTree" boostWeight="1.0000000000000000e+00" itree="41">
      <Node pos="s" depth="0" NCoef="0" IVar="1" Cut="9.6652221679687500e-01" cType="1" res="1.2774096801877022e-02" rms="4.8565825819969177e-01" purity="5.0142669677734375e-01" nType="0">
        <Node pos="l" depth="1" NCoef="0" IVar="2" Cut="4.1546505737304688e+02" cType="1" res="-4.1743632405996323e-02" rms="4.8490202426910400e-01" purity="4.2852607369422913e-01" nType="0">
          <Node pos="l" depth="2" NCoef="0" IVar="-1" Cut="0.0000000000000000e+00" cType="1" res="-3.5576010122895241e-03" rms="4.5015701651573181e-01" purity="2.8819799423217773e-01" nType="-99"/>
          <Node pos="r" depth="2" NCoef="0" IVar="-1" Cut="0.0000000000000000e+00" cType="1" res="4.6556454617530107e-04" rms="4.9769115447998047e-01" purity="5.3343844413757324e-01" nType="-99"/>
        </Node>
        <Node pos="r" depth="1" NCoef="0" IVar="2" Cut="4.1336401367187500e+02" cType="1" res="1.4744523167610168e-01" rms="4.6065032482147217e-01" purity="6.8150770664215088e-01" nType="0">
          <Node pos="l" depth="2" NCoef="0" IVar="-1" Cut="0.0000000000000000e+00" cType="1" res="6.3001172384247184e-04" rms="4.9291741847991943e-01" purity="5.5401331186294556e-01" nType="-99"/>
          <Node pos="r" depth="2" NCoef="0" IVar="-1" Cut="0.0000000000000000e+00" cType="1" res="2.4813502095639706e-03" rms="4.2915800213813782e-01" purity="7.5480771064758301e-01" nType="-99"/>
        </Node>
      </Node>
    </BinaryTree>
    <BinaryTree type="DecisionTree" boostWeight="1.0000000000000000e+00" itree="42">
      <Node pos="s" depth="0" NCoef="0" IVar="1" Cut="9.6934419870376587e-01" cType="1" res="8.8343629613518715e-03" rms="4.8600035905838013e-01" purity="4.9683967232704163e-01" nType="0">
        <Node pos="l" depth="1" NCoef="0" IVar="2" Cut="4.8267938232421875e+02" cType="1" res="-4.1895661503076553e-02" rms="4.8552420735359192e-01" purity="4.2890331149101257e-01" nType="0">
          <Node pos="l" depth="2" NCoef="0" IVar="-1" Cut="0.0000000000000000e+00" cType="1" res="-2.1311177406460047e-03" rms="4.7125938534736633e-01" purity="3.5106152296066284e-01" nType="-99"/>
          <Node pos="r" depth="2" NCoef="0" IVar="-1" Cut="0.0000000000000000e+00" cType="1" res="7.3589844396337867e-04" rms="4.9582776427268982e-01" purity="5.5864971876144409e-01" nType="-99"/>
        </Node>
        <Node pos="r" depth="1" NCoef="0" IVar="2" Cut="4.4081701660156250e+02" cType="1" res="1.5711262822151184e-01" rms="4.5611384510993958e-01" purity="6.9541025161743164e-01" nType="0">
          <Node pos="l" depth="2" NCoef="0" IVar="-1" Cut="0.0000000000000000e+00" cType="1" res="1.0665248846635222e-03" rms="4.8706650733947754e-01" purity="5.9825426340103149e-01" nType="-99"/>
          <Node pos="r" depth="2" NCoef="0" IVar="-1" Cut="0.0000000000000000e+00" cType="1" res="2.5936430320143700e-03" rms="4.1744539141654968e-01" purity="7.7408546209335327e-01" nType="-99"/>
        </Node>
      </Node>
    </BinaryTree>
    <BinaryTree type="DecisionTree" boostWeight="1.0000000000000000e+00" itree="43">
      <Node pos="s" depth="0" NCoef="0" IVar="1" Cut="9.5773541927337646e-01" cType="1" res="1.2702819891273975e-02" rms="4.8555228114128113e-01" purity="5.0075316429138184e-01" nType="0">
        <Node pos="l" depth="1" NCoef="0" IVar="2" Cut="4.5645288085937500e+02" cType="1" res="-5.7503856718540192e-02" rms="4.8201474547386169e-01" purity="4.0715140104293823e-01" nType="0">
          <Node pos="l" depth="2" NCoef="0" IVar="-1" Cut="0.0000000000000000e+00" cType="1" res="-3.0026410240679979e-03" rms="4.5843324065208435e-01" purity="3.1051865220069885e-01" nType="-99"/>
          <Node pos="r" depth="2" NCoef="0" IVar="-1" Cut="0.0000000000000000e+00" cType="1" res="4.0636159246787429e-04" rms="4.9878591299057007e-01" purity="5.3157550096511841e-01" nType="-99"/>
        </Node>
        <Node pos="r" depth="1" NCoef="0" IVar="1" Cut="9.8047626018524170e-01" cType="1" res="1.1489414423704147e-01" rms="4.7236168384552002e-01" purity="6.3699787855148315e-01" nType="0">
          <Node pos="l" depth="2" NCoef="0" IVar="-1" Cut="0.0000000000000000e+00" cType="1" res="9.0844754595309496e-04" rms="4.8789289593696594e-01" purity="5.6947606801986694e-01" nType="-99"/>
          <Node pos="r" depth="2" NCoef="0" IVar="-1" Cut="0.0000000000000000e+00" cType="1" res="2.5567386765033007e-03" rms="4.2206028103828430e-01" purity="7.6477128267288208e-01" nType="-99"/>
        </Node>
      </Node>
    </BinaryTree>
    <BinaryTree type="DecisionTree" boostWeight="1.0000000000000000e+00" itree="44">
      <Node pos="s" depth="0" NCoef="0" IVar="1" Cut="9.6639508008956909e-01" cType="1" res="8.1502068787813187e-03" rms="4.8594021797180176e-01" purity="4.9562066793441772e-01" nType="0">
        <Node pos="l" depth="1" NCoef="0" IVar="2" Cut="4.8267938232421875e+02" cType="1" res="-4.2812958359718323e-02" rms="4.8496586084365845e-01" purity="4.2509502172470093e-01" nType="0">
          <Node pos="l" depth="2" NCoef="0" IVar="-1" Cut="0.0000000000000000e+00" cType="1" res="-2.2686379961669445e-03" rms="4.6933227777481079e-01" purity="3.4240588545799255e-01" nType="-99"/>
          <Node pos="r" depth="2" NCoef="0" IVar="-1" Cut="0.0000000000000000e+00" cType="1" res="7.8914454206824303e-04" rms="4.9574792385101318e-01" purity="5.6165230274200439e-01" nType="-99"/>
        </Node>
        <Node pos="r" depth="1" NCoef="0" IVar="1" Cut="9.8387902975082397e-01" cType="1" res="1.3449232280254364e-01" rms="4.6484628319740295e-01" purity="6.7045980691909790e-01" nType="0">
          <Node pos="l" depth="2" NCoef="0" IVar="-1" Cut="0.0000000000000000e+00" cType="1" res="1.1165733449161053e-03" rms="4.8338100314140320e-01" purity="6.0703212022781372e-01" nType="-99"/>
          <Node pos="r" depth="2" NCoef="0" IVar="-1" Cut="0.0000000000000000e+00" cType="1" res="2.6363851502537727e-03" rms="4.1461375355720520e-01" purity="7.7716261148452759e-01" nType="-99"/>
        </Node>
      </Node>
    </BinaryTree>
    <BinaryTree type="DecisionTree" boostWeight="1.0000000000000000e+00" itree="45">
      <Node pos="s" depth="0" NCoef="0" IVar="1" Cut="9.7805172204971313e-01" cType="1" res="1.2556211091578007e-02" rms="4.8522663116455078e-01" purity="5.0052702426910400e-01" nType="0">
        <Node pos="l" depth="1" NCoef="0" IVar="2" Cut="4.1546505737304688e+02" cType="1" res="-2.4018701165914536e-02" rms="4.8646563291549683e-01" purity="4.5240494608879089e-01" nType="0">
          <Node pos="l" depth="2" NCoef="0" IVar="-1" Cut="0.0000000000000000e+00" cType="1" res="-2.7667011599987745e-03" rms="4.6002963185310364e-01" purity="3.1708979606628418e-01" nType="-99"/>
          <Node pos="r" depth="2" NCoef="0" IVar="-1" Cut="0.0000000000000000e+00" cType="1" res="6.5701932180672884e-04" rms="4.9482983350753784e-01" purity="5.5238342285156250e-01" nType="-99"/>
        </Node>
        <Node pos="r" depth="1" NCoef="0" IVar="-1" Cut="0.0000000000000000e+00" cType="1" res="2.3700001183897257e-03" rms="4.3333122134208679e-01" purity="7.4568885564804077e-01" nType="-99"/>
      </Node>
    </BinaryTree>
    <BinaryTree type="DecisionTree" boostWeight="1.0000000000000000e+00" itree="46">
      <Node pos="s" depth="0" NCoef="0" IVar="1" Cut="9.7570532560348511e-01" cType="1" res="1.5033963136374950e-02" rms="4.8517090082168579e-01" purity="5.0256031751632690e-01" nType="0">
        <Node pos="l" depth="1" NCoef="0" IVar="2" Cut="4.5645288085937500e+02" cType="1" res="-2.4191677570343018e-02" rms="4.8663663864135742e-01" purity="4.4979056715965271e-01" nType="0">
          <Node pos="l" depth="2" NCoef="0" IVar="-1" Cut="0.0000000000000000e+00" cType="1" res="-2.0799085032194853e-03" rms="4.7062620520591736e-01" purity="3.4894862771034241e-01" nType="-99"/>
          <Node pos="r" depth="2" NCoef="0" IVar="-1" Cut="0.0000000000000000e+00" cType="1" res="8.8859489187598228e-04" rms="4.9301806092262268e-01" purity="5.7283818721771240e-01" nType="-99"/>
        </Node>
        <Node pos="r" depth="1" NCoef="0" IVar="2" Cut="4.1360101318359375e+02" cType="1" res="1.8695199489593506e-01" rms="4.3914505839347839e-01" purity="7.3383915424346924e-01" nType="0">
          <Node pos="l" depth="2" NCoef="0" IVar="-1" Cut="0.0000000000000000e+00" cType="1" res="1.4479843666777015e-03" rms="4.7972592711448669e-01" purity="6.3550293445587158e-01" nType="-99"/>
          <Node pos="r" depth="2" NCoef="0" IVar="-1" Cut="0.0000000000000000e+00" cType="1" res="2.6545017026364803e-03" rms="4.0780386328697205e-01" purity="7.8846150636672974e-01" nType="-99"/>
        </Node>
      </Node>
    </BinaryTree>
    <BinaryTree type="DecisionTree" boostWeight="1.0000000000000000e+00" itree="47">
      <Node pos="s" depth="0" NCoef="0" IVar="1" Cut="9.6040445566177368e-01" cType="1" res="1.2284022755920887e-02" rms="4.8465687036514282e-01" purity="4.9989280104637146e-01" nType="0">
        <Node pos="l" depth="1" NCoef="0" IVar="2" Cut="4.2851300048828125e+02" cType="1" res="-5.1652416586875916e-02" rms="4.8236748576164246e-01" purity="4.1160976886749268e-01" nType="0">
          <Node pos="l" depth="2" NCoef="0" IVar="-1" Cut="0.0000000000000000e+00" cType="1" res="-3.2339084427803755e-03" rms="4.5281550288200378e-01" purity="2.9353836178779602e-01" nType="-99"/>
          <Node pos="r" depth="2" NCoef="0" IVar="-1" Cut="0.0000000000000000e+00" cType="1" res="2.6857346529141068e-04" rms="4.9871459603309631e-01" purity="5.2111208438873291e-01" nType="-99"/>
        </Node>
        <Node pos="r" depth="1" NCoef="0" IVar="2" Cut="3.6895181274414062e+02" cType="1" res="1.2117979675531387e-01" rms="4.6887338161468506e-01" purity="6.5025532245635986e-01" nType="0">
          <Node pos="l" depth="2" NCoef="0" IVar="-1" Cut="0.0000000000000000e+00" cType="1" res="-3.4927725209854543e-04" rms="4.9217733740806580e-01" purity="4.7283130884170532e-01" nType="-99"/>
          <Node pos="r" depth="2" NCoef="0" IVar="-1" Cut="0.0000000000000000e+00" cType="1" res="2.0431678276509047e-03" rms="4.5398348569869995e-01" purity="7.0106369256973267e-01" nType="-99"/>
        </Node>
      </Node>
    </BinaryTree>
    <BinaryTree type="DecisionTree" boostWeight="1.0000000000000000e+00" itree="48">
      <Node pos="s" depth="0" NCoef="0" IVar="1" Cut="9.5731562376022339e-01" cType="1" res="7.2172628715634346e-03" rms="4.8430541157722473e-01" purity="4.9477598071098328e-01" nType="0">
        <Node pos="l" depth="1" NCoef="0" IVar="2" Cut="4.0421572875976562e+02" cType="1" res="-6.5281927585601807e-02" rms="4.7905954718589783e-01" purity="3.9694461226463318e-01" nType="0">
          <Node pos="l" depth="2" NCoef="0" IVar="-1" Cut="0.0000000000000000e+00" cType="1" res="-4.4941762462258339e-03" rms="4.3304210901260376e-01" purity="2.5252878665924072e-01" nType="-99"/>
          <Node pos="r" depth="2" NCoef="0" IVar="-1" Cut="0.0000000000000000e+00" cType="1" res="-1.0360107989981771e-04" rms="4.9855715036392212e-01" purity="4.9281960725784302e-01" nType="-99"/>
        </Node>
        <Node pos="r" depth="1" NCoef="0" IVar="1" Cut="9.7954696416854858e-01" cType="1" res="1.0958569496870041e-01" rms="4.7306090593338013e-01" purity="6.3291329145431519e-01" nType="0">
          <Node pos="l" depth="2" NCoef="0" IVar="-1" Cut="0.0000000000000000e+00" cType="1" res="8.5397547809407115e-04" rms="4.8862802982330322e-01" purity="5.6379091739654541e-01" nType="-99"/>
          <Node pos="r" depth="2" NCoef="0" IVar="-1" Cut="0.0000000000000000e+00" cType="1" res="2.4184379726648331e-03" rms="4.2817249894142151e-01" purity="7.5460869073867798e-01" nType="-99"/>
        </Node>
      </Node>
    </BinaryTree>
    <BinaryTree type="DecisionTree" boostWeight="1.0000000000000000e+00" itree="49">
      <Node pos="s" depth="0" NCoef="0" IVar="1" Cut="9.6072024106979370e-01" cType="1" res="6.4318608492612839e-03" rms="4.8344293236732483e-01" purity="4.9389806389808655e-01" nType="0">
        <Node pos="l" depth="1" NCoef="0" IVar="2" Cut="4.5645288085937500e+02" cType="1" res="-5.8789830654859543e-02" rms="4.7978305816650391e-01" purity="4.0381190180778503e-01" nType="0">
          <Node pos="l" depth="2" NCoef="0" IVar="-1" Cut="0.0000000000000000e+00" cType="1" res="-3.1609483994543552e-03" rms="4.5346367359161377e-01" purity="3.0087089538574219e-01" nType="-99"/>
          <Node pos="r" depth="2" NCoef="0" IVar="-1" Cut="0.0000000000000000e+00" cType="1" res="3.9232076960615814e-04" rms="4.9852448701858521e-01" purity="5.3257709741592407e-01" nType="-99"/>
        </Node>
        <Node pos="r" depth="1" NCoef="0" IVar="2" Cut="3.6414279174804688e+02" cType="1" res="1.1937262862920761e-01" rms="4.6872147917747498e-01" purity="6.4989537000656128e-01" nType="0">
          <Node pos="l" depth="2" NCoef="0" IVar="-1" Cut="0.0000000000000000e+00" cType="1" res="-7.1054743602871895e-04" rms="4.9055945873260498e-01" purity="4.5421725511550903e-01" nType="-99"/>
          <Node pos="r" depth="2" NCoef="0" IVar="-1" Cut="0.0000000000000000e+00" cType="1" res="2.0290557295084000e-03" rms="4.5395311713218689e-01" purity="7.0080691576004028e-01" nType="-99"/>
        </Node>
      </Node>
    </BinaryTree>
    <BinaryTree type="DecisionTree" boostWeight="1.0000000000000000e+00" itree="50">
      <Node pos="s" depth="0" NCoef="0" IVar="1" Cut="9.7547346353530884e-01" cType="1" res="9.2248022556304932e-03" rms="4.8387068510055542e-01" purity="4.9624103307723999e-01" nType="0">
        <Node pos="l" depth="1" NCoef="0" IVar="2" Cut="4.8267938232421875e+02" cType="1" res="-2.9384572058916092e-02" rms="4.8479443788528442e-01" purity="4.4294619560241699e-01" nType="0">
          <Node pos="l" depth="2" NCoef="0" IVar="-1" Cut="0.0000000000000000e+00" cType="1" res="-2.0363498479127884e-03" rms="4.7024953365325928e-01" purity="3.5310968756675720e-01" nType="-99"/>
          <Node pos="r" depth="2" NCoef="0" IVar="-1" Cut="0.0000000000000000e+00" cType="1" res="1.0146715212613344e-03" rms="4.9149510264396667e-01" purity="5.8434283733367920e-01" nType="-99"/>
        </Node>
        <Node pos="r" depth="1" NCoef="0" IVar="2" Cut="4.4128500366210938e+02" cType="1" res="1.7599903047084808e-01" rms="4.4273364543914795e-01" purity="7.2644942998886108e-01" nType="0">
          <Node pos="l" depth="2" NCoef="0" IVar="-1" Cut="0.0000000000000000e+00" cType="1" res="1.4204930048435926e-03" rms="4.7728171944618225e-01" purity="6.4220523834228516e-01" nType="-99"/>
          <Node pos="r" depth="2" NCoef="0" IVar="-1" Cut="0.0000000000000000e+00" cType="1" res="2.6170182973146439e-03" rms="4.0457937121391296e-01" purity="7.9313552379608154e-01" nType="-99"/>
        </Node>
      </Node>
    </BinaryTree>
    <BinaryTree type="DecisionTree" boostWeight="1.0000000000000000e+00" itree="51">
      <Node pos="s" depth="0" NCoef="0" IVar="1" Cut="9.7826415300369263e-01" cType="1" res="1.5197598375380039e-02" rms="4.8371779918670654e-01" purity="5.0232964754104614e-01" nType="0">
        <Node pos="l" depth="1" NCoef="0" IVar="2" Cut="4.9890063476562500e+02" cType="1" res="-2.2653700783848763e-02" rms="4.8566284775733948e-01" purity="4.5118555426597595e-01" nType="0">
          <Node pos="l" depth="2" NCoef="0" IVar="-1" Cut="0.0000000000000000e+00" cType="1" res="-1.6389290103688836e-03" rms="4.7542509436607361e-01" purity="3.7316933274269104e-01" nType="-99"/>
          <Node pos="r" depth="2" NCoef="0" IVar="-1" Cut="0.0000000000000000e+00" cType="1" res="1.1592515511438251e-03" rms="4.8857218027114868e-01" purity="5.9741485118865967e-01" nType="-99"/>
        </Node>
        <Node pos="r" depth="1" NCoef="0" IVar="-1" Cut="0.0000000000000000e+00" cType="1" res="2.3900573141872883e-03" rms="4.2718672752380371e-01" purity="7.5538808107376099e-01" nType="-99"/>
      </Node>
    </BinaryTree>
    <BinaryTree type="DecisionTree" boostWeight="1.0000000000000000e+00" itree="52">
      <Node pos="s" depth="0" NCoef="0" IVar="1" Cut="9.6343958377838135e-01" cType="1" res="1.6665015369653702e-02" rms="4.8399734497070312e-01" purity="5.0350081920623779e-01" nType="0">
        <Node pos="l" depth="1" NCoef="0" IVar="6" Cut="2.5837762355804443e+00" cType="1" res="-4.0892861783504486e-02" rms="4.8392421007156372e-01" purity="4.2128434777259827e-01" nType="0">
          <Node pos="l" depth="2" NCoef="0" IVar="-1" Cut="0.0000000000000000e+00" cType="1" res="-2.4593321722932160e-04" rms="4.8811435699462891e-01" purity="4.5013079047203064e-01" nType="-99"/>
          <Node pos="r" depth="2" NCoef="0" IVar="-1" Cut="0.0000000000000000e+00" cType="1" res="-5.8740903623402119e-03" rms="4.2651993036270142e-01" purity="2.5682210922241211e-01" nType="-99"/>
        </Node>
        <Node pos="r" depth="1" NCoef="0" IVar="2" Cut="4.0747583007812500e+02" cType="1" res="1.3350002467632294e-01" rms="4.6262505650520325e-01" purity="6.7038947343826294e-01" nType="0">
          <Node pos="l" depth="2" NCoef="0" IVar="-1" Cut="0.0000000000000000e+00" cType="1" res="5.6254677474498749e-04" rms="4.9134063720703125e-01" purity="5.4414188861846924e-01" nType="-99"/>
          <Node pos="r" depth="2" NCoef="0" IVar="-1" Cut="0.0000000000000000e+00" cType="1" res="2.2512353025376797e-03" rms="4.3763789534568787e-01" purity="7.3788803815841675e-01" nType="-99"/>
        </Node>
      </Node>
    </BinaryTree>
    <BinaryTree type="DecisionTree" boostWeight="1.0000000000000000e+00" itree="53">
      <Node pos="s" depth="0" NCoef="0" IVar="1" Cut="9.5141851902008057e-01" cType="1" res="1.2850579805672169e-02" rms="4.8334655165672302e-01" purity="4.9949246644973755e-01" nType="0">
        <Node pos="l" depth="1" NCoef="0" IVar="2" Cut="4.0528933715820312e+02" cType="1" res="-6.6952034831047058e-02" rms="4.7741580009460449e-01" purity="3.9189311861991882e-01" nType="0">
          <Node pos="l" depth="2" NCoef="0" IVar="-1" Cut="0.0000000000000000e+00" cType="1" res="-4.5980615541338921e-03" rms="4.2995628714561462e-01" purity="2.4652865529060364e-01" nType="-99"/>
          <Node pos="r" depth="2" NCoef="0" IVar="-1" Cut="0.0000000000000000e+00" cType="1" res="-1.3303509331308305e-04" rms="4.9841374158859253e-01" purity="4.9039417505264282e-01" nType="-99"/>
        </Node>
        <Node pos="r" depth="1" NCoef="0" IVar="2" Cut="4.0748171997070312e+02" cType="1" res="9.2073127627372742e-02" rms="4.7611147165298462e-01" purity="6.0630977153778076e-01" nType="0">
          <Node pos="l" depth="2" NCoef="0" IVar="-1" Cut="0.0000000000000000e+00" cType="1" res="-1.0857874440262094e-04" rms="4.8790320754051208e-01" purity="4.6817269921302795e-01" nType="-99"/>
          <Node pos="r" depth="2" NCoef="0" IVar="-1" Cut="0.0000000000000000e+00" cType="1" res="1.9197068177163601e-03" rms="4.5961356163024902e-01" purity="6.8651276826858521e-01" nType="-99"/>
        </Node>
      </Node>
    </BinaryTree>
    <BinaryTree type="DecisionTree" boostWeight="1.0000000000000000e+00" itree="54">
      <Node pos="s" depth="0" NCoef="0" IVar="1" Cut="9.7826415300369263e-01" cType="1" res="1.1523343622684479e-02" rms="4.8290070891380310e-01" purity="4.9849319458007812e-01" nType="0">
        <Node pos="l" depth="1" NCoef="0" IVar="2" Cut="4.8267938232421875e+02" cType="1" res="-2.6778806000947952e-02" rms="4.8456230759620667e-01" purity="4.4653746485710144e-01" nType="0">
          <Node pos="l" depth="2" NCoef="0" IVar="-1" Cut="0.0000000000000000e+00" cType="1" res="-1.8217593897134066e-03" rms="4.7170418500900269e-01" purity="3.6133340001106262e-01" nType="-99"/>
          <Node pos="r" depth="2" NCoef="0" IVar="-1" Cut="0.0000000000000000e+00" cType="1" res="9.4811199232935905e-04" rms="4.9130839109420776e-01" purity="5.8234876394271851e-01" nType="-99"/>
        </Node>
        <Node pos="r" depth="1" NCoef="0" IVar="-1" Cut="0.0000000000000000e+00" cType="1" res="2.3823196534067392e-03" rms="4.2558306455612183e-01" purity="7.5833874940872192e-01" nType="-99"/>
      </Node>
    </BinaryTree>
    <BinaryTree type="DecisionTree" boostWeight="1.0000000000000000e+00" itree="55">
      <Node pos="s" depth="0" NCoef="0" IVar="1" Cut="9.6105664968490601e-01" cType="1" res="1.2879546731710434e-02" rms="4.8293519020080566e-01" purity="4.9918788671493530e-01" nType="0">
        <Node pos="l" depth="1" NCoef="0" IVar="2" Cut="3.9579519653320312e+02" cType="1" res="-5.0558604300022125e-02" rms="4.8119482398033142e-01" purity="4.0837076306343079e-01" nType="0">
          <Node pos="l" depth="2" NCoef="0" IVar="-1" Cut="0.0000000000000000e+00" cType="1" res="-3.7645734846591949e-03" rms="4.3967962265014648e-01" purity="2.6403304934501648e-01" nType="-99"/>
          <Node pos="r" depth="2" NCoef="0" IVar="-1" Cut="0.0000000000000000e+00" cType="1" res="-2.1876632672501728e-05" rms="4.9782431125640869e-01" purity="4.9439126253128052e-01" nType="-99"/>
        </Node>
        <Node pos="r" depth="1" NCoef="0" IVar="5" Cut="3.2115325927734375e+02" cType="1" res="1.2409844249486923e-01" rms="4.6555665135383606e-01" purity="6.5840721130371094e-01" nType="0">
          <Node pos="l" depth="2" NCoef="0" IVar="-1" Cut="0.0000000000000000e+00" cType="1" res="8.2786160055547953e-04" rms="4.8618486523628235e-01" purity="5.7105714082717896e-01" nType="-99"/>
          <Node pos="r" depth="2" NCoef="0" IVar="-1" Cut="0.0000000000000000e+00" cType="1" res="2.3372368887066841e-03" rms="4.3193736672401428e-01" purity="7.4805700778961182e-01" nType="-99"/>
        </Node>
      </Node>
    </BinaryTree>
    <BinaryTree type="DecisionTree" boostWeight="1.0000000000000000e+00" itree="56">
      <Node pos="s" depth="0" NCoef="0" IVar="1" Cut="9.6040445566177368e-01" cType="1" res="1.5572543255984783e-02" rms="4.8270380496978760e-01" purity="5.0211918354034424e-01" nType="0">
        <Node pos="l" depth="1" NCoef="0" IVar="2" Cut="4.9834085083007812e+02" cType="1" res="-4.3034527450799942e-02" rms="4.8140281438827515e-01" purity="4.1598373651504517e-01" nType="0">
          <Node pos="l" depth="2" NCoef="0" IVar="-1" Cut="0.0000000000000000e+00" cType="1" res="-2.2321343421936035e-03" rms="4.6551999449729919e-01" purity="3.3598285913467407e-01" nType="-99"/>
          <Node pos="r" depth="2" NCoef="0" IVar="-1" Cut="0.0000000000000000e+00" cType="1" res="8.4461551159620285e-04" rms="4.9534788727760315e-01" purity="5.6652724742889404e-01" nType="-99"/>
        </Node>
        <Node pos="r" depth="1" NCoef="0" IVar="2" Cut="3.6797146606445312e+02" cType="1" res="1.1621236056089401e-01" rms="4.6811348199844360e-01" purity="6.5003055334091187e-01" nType="0">
          <Node pos="l" depth="2" NCoef="0" IVar="-1" Cut="0.0000000000000000e+00" cType="1" res="-3.7335080560296774e-04" rms="4.9201041460037231e-01" purity="4.7099635004997253e-01" nType="-99"/>
          <Node pos="r" depth="2" NCoef="0" IVar="-1" Cut="0.0000000000000000e+00" cType="1" res="1.9689679611474276e-03" rms="4.5343908667564392e-01" purity="7.0133459568023682e-01" nType="-99"/>
        </Node>
      </Node>
    </BinaryTree>
    <BinaryTree type="DecisionTree" boostWeight="1.0000000000000000e+00" itree="57">
      <Node pos="s" depth="0" NCoef="0" IVar="1" Cut="9.6970701217651367e-01" cType="1" res="1.9057387486100197e-02" rms="4.8331594467163086e-01" purity="5.0479924678802490e-01" nType="0">
        <Node pos="l" depth="1" NCoef="0" IVar="2" Cut="5.6980273437500000e+02" cType="1" res="-2.3693395778536797e-02" rms="4.8500591516494751e-01" purity="4.4075581431388855e-01" nType="0">
          <Node pos="l" depth="2" NCoef="0" IVar="-1" Cut="0.0000000000000000e+00" cType="1" res="-1.1996591929346323e-03" rms="4.7931876778602600e-01" purity="3.9158660173416138e-01" nType="-99"/>
          <Node pos="r" depth="2" NCoef="0" IVar="-1" Cut="0.0000000000000000e+00" cType="1" res="1.4006707351654768e-03" rms="4.8571482300758362e-01" purity="6.1359500885009766e-01" nType="-99"/>
        </Node>
        <Node pos="r" depth="1" NCoef="0" IVar="6" Cut="2.4044795036315918e+00" cType="1" res="1.4689490199089050e-01" rms="4.5485523343086243e-01" purity="6.9630813598632812e-01" nType="0">
          <Node pos="l" depth="2" NCoef="0" IVar="-1" Cut="0.0000000000000000e+00" cType="1" res="2.2361511364579201e-03" rms="4.3652829527854919e-01" purity="7.3513114452362061e-01" nType="-99"/>
          <Node pos="r" depth="2" NCoef="0" IVar="-1" Cut="0.0000000000000000e+00" cType="1" res="3.8555296487174928e-04" rms="4.9015998840332031e-01" purity="5.7135397195816040e-01" nType="-99"/>
        </Node>
      </Node>
    </BinaryTree>
    <BinaryTree type="DecisionTree" boostWeight="1.0000000000000000e+00" itree="58">
      <Node pos="s" depth="0" NCoef="0" IVar="1" Cut="9.7559583187103271e-01" cType="1" res="1.5156386420130730e-02" rms="4.8257774114608765e-01" purity="5.0120788812637329e-01" nType="0">
        <Node pos="l" depth="1" NCoef="0" IVar="2" Cut="3.9069430541992188e+02" cType="1" res="-2.0659361034631729e-02" rms="4.8443397879600525e-01" purity="4.4931972026824951e-01" nType="0">
          <Node pos="l" depth="2" NCoef="0" IVar="-1" Cut="0.0000000000000000e+00" cType="1" res="-3.2479846850037575e-03" rms="4.4708320498466492e-01" purity="2.8509804606437683e-01" nType="-99"/>
          <Node pos="r" depth="2" NCoef="0" IVar="-1" Cut="0.0000000000000000e+00" cType="1" res="5.2174297161400318e-04" rms="4.9463874101638794e-01" purity="5.3530371189117432e-01" nType="-99"/>
        </Node>
        <Node pos="r" depth="1" NCoef="0" IVar="6" Cut="2.2811555862426758e+00" cType="1" res="1.7312143743038177e-01" rms="4.4085586071014404e-01" purity="7.3006039857864380e-01" nType="0">
          <Node pos="l" depth="2" NCoef="0" IVar="-1" Cut="0.0000000000000000e+00" cType="1" res="2.4974525440484285e-03" rms="4.1555777192115784e-01" purity="7.7363556623458862e-01" nType="-99"/>
          <Node pos="r" depth="2" NCoef="0" IVar="-1" Cut="0.0000000000000000e+00" cType="1" res="1.3477836037054658e-03" rms="4.7239723801612854e-01" purity="6.5532237291336060e-01" nType="-99"/>
        </Node>
      </Node>
    </BinaryTree>
    <BinaryTree type="DecisionTree" boostWeight="1.0000000000000000e+00" itree="59">
      <Node pos="s" depth="0" NCoef="0" IVar="1" Cut="9.7563433647155762e-01" cType="1" res="1.7213253304362297e-02" rms="4.8240289092063904e-01" purity="5.0333058834075928e-01" nType="0">
        <Node pos="l" depth="1" NCoef="0" IVar="2" Cut="4.7135467529296875e+02" cType="1" res="-1.9498798996210098e-02" rms="4.8474141955375671e-01" purity="4.4991338253021240e-01" nType="0">
          <Node pos="l" depth="2" NCoef="0" IVar="-1" Cut="0.0000000000000000e+00" cType="1" res="-1.7751915147528052e-03" rms="4.7124433517456055e-01" purity="3.5453367233276367e-01" nType="-99"/>
          <Node pos="r" depth="2" NCoef="0" IVar="-1" Cut="0.0000000000000000e+00" cType="1" res="9.8074215929955244e-04" rms="4.9077811837196350e-01" purity="5.8453536033630371e-01" nType="-99"/>
        </Node>
        <Node pos="r" depth="1" NCoef="0" IVar="5" Cut="2.8551928710937500e+02" cType="1" res="1.7638045549392700e-01" rms="4.3786895275115967e-01" purity="7.3492354154586792e-01" nType="0">
          <Node pos="l" depth="2" NCoef="0" IVar="-1" Cut="0.0000000000000000e+00" cType="1" res="1.2033185921609402e-03" rms="4.8083305358886719e-01" purity="6.2845903635025024e-01" nType="-99"/>
          <Node pos="r" depth="2" NCoef="0" IVar="-1" Cut="0.0000000000000000e+00" cType="1" res="2.5420510210096836e-03" rms="4.0437325835227966e-01" purity="7.9285615682601929e-01" nType="-99"/>
        </Node>
      </Node>
    </BinaryTree>
    <BinaryTree type="DecisionTree" boostWeight="1.0000000000000000e+00" itree="60">
      <Node pos="s" depth="0" NCoef="0" IVar="1" Cut="9.7834503650665283e-01" cType="1" res="1.3021650724112988e-02" rms="4.8199090361595154e-01" purity="4.9916836619377136e-01" nType="0">
        <Node pos="l" depth="1" NCoef="0" IVar="2" Cut="3.9579519653320312e+02" cType="1" res="-1.9762722775340080e-02" rms="4.8402068018913269e-01" purity="4.5225951075553894e-01" nType="0">
          <Node pos="l" depth="2" NCoef="0" IVar="-1" Cut="0.0000000000000000e+00" cType="1" res="-3.1409824732691050e-03" rms="4.4938853383064270e-01" purity="2.9056030511856079e-01" nType="-99"/>
          <Node pos="r" depth="2" NCoef="0" IVar="-1" Cut="0.0000000000000000e+00" cType="1" res="5.5565033107995987e-04" rms="4.9372297525405884e-01" purity="5.4171335697174072e-01" nType="-99"/>
        </Node>
        <Node pos="r" depth="1" NCoef="0" IVar="-1" Cut="0.0000000000000000e+00" cType="1" res="2.2402722388505936e-03" rms="4.3095812201499939e-01" purity="7.4879169464111328e-01" nType="-99"/>
      </Node>
    </BinaryTree>
    <BinaryTree type="DecisionTree" boostWeight="1.0000000000000000e+00" itree="61">
      <Node pos="s" depth="0" NCoef="0" IVar="1" Cut="9.6630704402923584e-01" cType="1" res="1.3210401870310307e-02" rms="4.8205196857452393e-01" purity="4.9892821907997131e-01" nType="0">
        <Node pos="l" depth="1" NCoef="0" IVar="5" Cut="2.6806390380859375e+02" cType="1" res="-3.4936629235744476e-02" rms="4.8258730769157410e-01" purity="4.2570632696151733e-01" nType="0">
          <Node pos="l" depth="2" NCoef="0" IVar="-1" Cut="0.0000000000000000e+00" cType="1" res="-3.3392696641385555e-03" rms="4.4532069563865662e-01" purity="2.8087025880813599e-01" nType="-99"/>
          <Node pos="r" depth="2" NCoef="0" IVar="-1" Cut="0.0000000000000000e+00" cType="1" res="2.2433875710703433e-04" rms="4.9520012736320496e-01" purity="5.0495183467864990e-01" nType="-99"/>
        </Node>
        <Node pos="r" depth="1" NCoef="0" IVar="6" Cut="2.3779420852661133e+00" cType="1" res="1.3127574324607849e-01" rms="4.5987373590469360e-01" purity="6.7848169803619385e-01" nType="0">
          <Node pos="l" depth="2" NCoef="0" IVar="-1" Cut="0.0000000000000000e+00" cType="1" res="2.1499933209270239e-03" rms="4.4077333807945251e-01" purity="7.2278559207916260e-01" nType="-99"/>
          <Node pos="r" depth="2" NCoef="0" IVar="-1" Cut="0.0000000000000000e+00" cType="1" res="1.4533413923345506e-04" rms="4.9039655923843384e-01" purity="5.5192780494689941e-01" nType="-99"/>
        </Node>
      </Node>
    </BinaryTree>
    <BinaryTree type="DecisionTree" boostWeight="1.0000000000000000e+00" itree="62">
      <Node pos="s" depth="0" NCoef="0" IVar="1" Cut="9.7514885663986206e-01" cType="1" res="1.5079552307724953e-02" rms="4.8141267895698547e-01" purity="5.0128030776977539e-01" nType="0">
        <Node pos="l" depth="1" NCoef="0" IVar="2" Cut="4.6823376464843750e+02" cType="1" res="-2.3167217150330544e-02" rms="4.8359784483909607e-01" purity="4.4513887166976929e-01" nType="0">
          <Node pos="l" depth="2" NCoef="0" IVar="-1" Cut="0.0000000000000000e+00" cType="1" res="-1.8835053779184818e-03" rms="4.6830624341964722e-01" purity="3.4842374920845032e-01" nType="-99"/>
          <Node pos="r" depth="2" NCoef="0" IVar="-1" Cut="0.0000000000000000e+00" cType="1" res="8.7011768482625484e-04" rms="4.9230527877807617e-01" purity="5.7675039768218994e-01" nType="-99"/>
        </Node>
        <Node pos="r" depth="1" NCoef="0" IVar="2" Cut="4.2302108764648438e+02" cType="1" res="1.7412443459033966e-01" rms="4.3773397803306580e-01" purity="7.3473811149597168e-01" nType="0">
          <Node pos="l" depth="2" NCoef="0" IVar="-1" Cut="0.0000000000000000e+00" cType="1" res="1.2850471539422870e-03" rms="4.8005715012550354e-01" purity="6.3325119018554688e-01" nType="-99"/>
          <Node pos="r" depth="2" NCoef="0" IVar="-1" Cut="0.0000000000000000e+00" cType="1" res="2.5417453143745661e-03" rms="4.0232738852500916e-01" purity="7.9569852352142334e-01" nType="-99"/>
        </Node>
      </Node>
    </BinaryTree>
    <BinaryTree type="DecisionTree" boostWeight="1.0000000000000000e+00" itree="63">
      <Node pos="s" depth="0" NCoef="0" IVar="1" Cut="9.5133036375045776e-01" cType="1" res="1.5518319793045521e-02" rms="4.8173737525939941e-01" purity="5.0101292133331299e-01" nType="0">
        <Node pos="l" depth="1" NCoef="0" IVar="2" Cut="3.7615731811523438e+02" cType="1" res="-6.0533996671438217e-02" rms="4.7745671868324280e-01" purity="3.9284253120422363e-01" nType="0">
          <Node pos="l" depth="2" NCoef="0" IVar="-1" Cut="0.0000000000000000e+00" cType="1" res="-4.5741987414658070e-03" rms="4.2370319366455078e-01" purity="2.3503923416137695e-01" nType="-99"/>
          <Node pos="r" depth="2" NCoef="0" IVar="-1" Cut="0.0000000000000000e+00" cType="1" res="-3.8871035212650895e-04" rms="4.9484658241271973e-01" purity="4.6393397450447083e-01" nType="-99"/>
        </Node>
        <Node pos="r" depth="1" NCoef="0" IVar="2" Cut="3.9766213989257812e+02" cType="1" res="9.0348817408084869e-02" rms="4.7415211796760559e-01" purity="6.0744553804397583e-01" nType="0">
          <Node pos="l" depth="2" NCoef="0" IVar="-1" Cut="0.0000000000000000e+00" cType="1" res="-1.4952151104807854e-04" rms="4.8534730076789856e-01" purity="4.6046990156173706e-01" nType="-99"/>
          <Node pos="r" depth="2" NCoef="0" IVar="-1" Cut="0.0000000000000000e+00" cType="1" res="1.8184934742748737e-03" rms="4.6058261394500732e-01" purity="6.8105798959732056e-01" nType="-99"/>
        </Node>
      </Node>
    </BinaryTree>
    <BinaryTree type="DecisionTree" boostWeight="1.0000000000000000e+00" itree="64">
      <Node pos="s" depth="0" NCoef="0" IVar="1" Cut="9.7859799861907959e-01" cType="1" res="2.1502062678337097e-02" rms="4.8175209760665894e-01" purity="5.0691705942153931e-01" nType="0">
        <Node pos="l" depth="1" NCoef="0" IVar="2" Cut="4.9263388061523438e+02" cType="1" res="-1.2695092707872391e-02" rms="4.8503267765045166e-01" purity="4.5728281140327454e-01" nType="0">
          <Node pos="l" depth="2" NCoef="0" IVar="-1" Cut="0.0000000000000000e+00" cType="1" res="-1.2430995702743530e-03" rms="4.7646549344062805e-01" purity="3.8149875402450562e-01" nType="-99"/>
          <Node pos="r" depth="2" NCoef="0" IVar="-1" Cut="0.0000000000000000e+00" cType="1" res="1.0316957486793399e-03" rms="4.8938119411468506e-01" purity="5.9254604578018188e-01" nType="-99"/>
        </Node>
        <Node pos="r" depth="1" NCoef="0" IVar="-1" Cut="0.0000000000000000e+00" cType="1" res="2.3339365143328905e-03" rms="4.2285177111625671e-01" purity="7.6225572824478149e-01" nType="-99"/>
      </Node>
    </BinaryTree>
    <BinaryTree type="DecisionTree" boostWeight="1.0000000000000000e+00" itree="65">
      <Node pos="s" depth="0" NCoef="0" IVar="1" Cut="9.6636855602264404e-01" cType="1" res="1.3466719537973404e-02" rms="4.8101872205734253e-01" purity="4.9907162785530090e-01" nType="0">
        <Node pos="l" depth="1" NCoef="0" IVar="2" Cut="3.8561947631835938e+02" cType="1" res="-3.5637583583593369e-02" rms="4.8171684145927429e-01" purity="4.2340165376663208e-01" nType="0">
          <Node pos="l" depth="2" NCoef="0" IVar="-1" Cut="0.0000000000000000e+00" cType="1" res="-3.7391823716461658e-03" rms="4.3612685799598694e-01" purity="2.5825986266136169e-01" nType="-99"/>
          <Node pos="r" depth="2" NCoef="0" IVar="-1" Cut="0.0000000000000000e+00" cType="1" res="1.8204859225079417e-04" rms="4.9623936414718628e-01" purity="5.0513571500778198e-01" nType="-99"/>
        </Node>
        <Node pos="r" depth="1" NCoef="0" IVar="2" Cut="4.6900189208984375e+02" cType="1" res="1.3187973201274872e-01" rms="4.5817247033119202e-01" purity="6.8154668807983398e-01" nType="0">
          <Node pos="l" depth="2" NCoef="0" IVar="-1" Cut="0.0000000000000000e+00" cType="1" res="8.9630432194098830e-04" rms="4.8436391353607178e-01" purity="5.9408539533615112e-01" nType="-99"/>
          <Node pos="r" depth="2" NCoef="0" IVar="-1" Cut="0.0000000000000000e+00" cType="1" res="2.4543572217226028e-03" rms="4.1248047351837158e-01" purity="7.8036493062973022e-01" nType="-99"/>
        </Node>
      </Node>
    </BinaryTree>
    <BinaryTree type="DecisionTree" boostWeight="1.0000000000000000e+00" itree="66">
      <Node pos="s" depth="0" NCoef="0" IVar="1" Cut="9.5416182279586792e-01" cType="1" res="7.9669188708066940e-03" rms="4.8148247599601746e-01" purity="4.9298846721649170e-01" nType="0">
        <Node pos="l" depth="1" NCoef="0" IVar="2" Cut="4.1546505737304688e+02" cType="1" res="-6.2280617654323578e-02" rms="4.7622606158256531e-01" purity="3.9046278595924377e-01" nType="0">
          <Node pos="l" depth="2" NCoef="0" IVar="-1" Cut="0.0000000000000000e+00" cType="1" res="-3.6393671762198210e-03" rms="4.3803223967552185e-01" purity="2.6357737183570862e-01" nType="-99"/>
          <Node pos="r" depth="2" NCoef="0" IVar="-1" Cut="0.0000000000000000e+00" cType="1" res="-2.0678344299085438e-04" rms="4.9833711981773376e-01" purity="4.8978590965270996e-01" nType="-99"/>
        </Node>
        <Node pos="r" depth="1" NCoef="0" IVar="6" Cut="2.3733460903167725e+00" cType="1" res="9.0606801211833954e-02" rms="4.7446069121360779e-01" purity="6.1360061168670654e-01" nType="0">
          <Node pos="l" depth="2" NCoef="0" IVar="-1" Cut="0.0000000000000000e+00" cType="1" res="1.7651267116889358e-03" rms="4.6217399835586548e-01" purity="6.5760987997055054e-01" nType="-99"/>
          <Node pos="r" depth="2" NCoef="0" IVar="-1" Cut="0.0000000000000000e+00" cType="1" res="-2.5228963932022452e-04" rms="4.8908302187919617e-01" purity="5.0068420171737671e-01" nType="-99"/>
        </Node>
      </Node>
    </BinaryTree>
    <BinaryTree type="DecisionTree" boostWeight="1.0000000000000000e+00" itree="67">
      <Node pos="s" depth="0" NCoef="0" IVar="1" Cut="9.7826415300369263e-01" cType="1" res="1.8849194049835205e-02" rms="4.8113337159156799e-01" purity="5.0376266241073608e-01" nType="0">
        <Node pos="l" depth="1" NCoef="0" IVar="6" Cut="2.5292279720306396e+00" cType="1" res="-1.3717550784349442e-02" rms="4.8408460617065430e-01" purity="4.5523837208747864e-01" nType="0">
          <Node pos="l" depth="2" NCoef="0" IVar="-1" Cut="0.0000000000000000e+00" cType="1" res="2.8724185540340841e-04" rms="4.8623085021972656e-01" purity="4.8819419741630554e-01" nType="-99"/>
          <Node pos="r" depth="2" NCoef="0" IVar="-1" Cut="0.0000000000000000e+00" cType="1" res="-4.1416101157665253e-03" rms="4.4682061672210693e-01" purity="2.9941201210021973e-01" nType="-99"/>
        </Node>
        <Node pos="r" depth="1" NCoef="0" IVar="-1" Cut="0.0000000000000000e+00" cType="1" res="2.2120992653071880e-03" rms="4.2826497554779053e-01" purity="7.5306200981140137e-01" nType="-99"/>
      </Node>
    </BinaryTree>
    <BinaryTree type="DecisionTree" boostWeight="1.0000000000000000e+00" itree="68">
      <Node pos="s" depth="0" NCoef="0" IVar="1" Cut="9.5785242319107056e-01" cType="1" res="1.2534801848232746e-02" rms="4.8071292042732239e-01" purity="4.9768444895744324e-01" nType="0">
        <Node pos="l" depth="1" NCoef="0" IVar="6" Cut="2.4696474075317383e+00" cType="1" res="-4.7718122601509094e-02" rms="4.7870966792106628e-01" purity="4.0447998046875000e-01" nType="0">
          <Node pos="l" depth="2" NCoef="0" IVar="-1" Cut="0.0000000000000000e+00" cType="1" res="-2.8297284734435380e-04" rms="4.8470059037208557e-01" purity="4.4054868817329407e-01" nType="-99"/>
          <Node pos="r" depth="2" NCoef="0" IVar="-1" Cut="0.0000000000000000e+00" cType="1" res="-4.6442975290119648e-03" rms="4.3689385056495667e-01" purity="2.7531057596206665e-01" nType="-99"/>
        </Node>
        <Node pos="r" depth="1" NCoef="0" IVar="2" Cut="4.2903237915039062e+02" cType="1" res="1.0117043554782867e-01" rms="4.6980354189872742e-01" purity="6.3479375839233398e-01" nType="0">
          <Node pos="l" depth="2" NCoef="0" IVar="-1" Cut="0.0000000000000000e+00" cType="1" res="2.8270416078157723e-04" rms="4.8973733186721802e-01" purity="5.1761436462402344e-01" nType="-99"/>
          <Node pos="r" depth="2" NCoef="0" IVar="-1" Cut="0.0000000000000000e+00" cType="1" res="2.0434199832379818e-03" rms="4.4412997364997864e-01" purity="7.2226971387863159e-01" nType="-99"/>
        </Node>
      </Node>
    </BinaryTree>
    <BinaryTree type="DecisionTree" boostWeight="1.0000000000000000e+00" itree="69">
      <Node pos="s" depth="0" NCoef="0" IVar="1" Cut="9.7525846958160400e-01" cType="1" res="1.2120202183723450e-02" rms="4.8076283931732178e-01" purity="4.9730634689331055e-01" nType="0">
        <Node pos="l" depth="1" NCoef="0" IVar="2" Cut="3.7134844970703125e+02" cType="1" res="-2.3567790165543556e-02" rms="4.8307958245277405e-01" purity="4.4231450557708740e-01" nType="0">
          <Node pos="l" depth="2" NCoef="0" IVar="-1" Cut="0.0000000000000000e+00" cType="1" res="-3.4738909453153610e-03" rms="4.3987125158309937e-01" purity="2.6871001720428467e-01" nType="-99"/>
          <Node pos="r" depth="2" NCoef="0" IVar="-1" Cut="0.0000000000000000e+00" cType="1" res="2.5454879505559802e-04" rms="4.9348038434982300e-01" purity="5.0987410545349121e-01" nType="-99"/>
        </Node>
        <Node pos="r" depth="1" NCoef="0" IVar="2" Cut="4.2511190795898438e+02" cType="1" res="1.6211923956871033e-01" rms="4.4033470749855042e-01" purity="7.2844070196151733e-01" nType="0">
          <Node pos="l" depth="2" NCoef="0" IVar="-1" Cut="0.0000000000000000e+00" cType="1" res="1.1298321187496185e-03" rms="4.8110175132751465e-01" purity="6.2621235847473145e-01" nType="-99"/>
          <Node pos="r" depth="2" NCoef="0" IVar="-1" Cut="0.0000000000000000e+00" cType="1" res="2.4395734071731567e-03" rms="4.0439713001251221e-01" purity="7.9255539178848267e-01" nType="-99"/>
        </Node>
      </Node>
    </BinaryTree>
    <BinaryTree type="DecisionTree" boostWeight="1.0000000000000000e+00" itree="70">
      <Node pos="s" depth="0" NCoef="0" IVar="1" Cut="9.7826415300369263e-01" cType="1" res="1.7953440546989441e-02" rms="4.8134633898735046e-01" purity="5.0210976600646973e-01" nType="0">
        <Node pos="l" depth="1" NCoef="0" IVar="2" Cut="3.6058273315429688e+02" cType="1" res="-1.0644831694662571e-02" rms="4.8423466086387634e-01" purity="4.5763233304023743e-01" nType="0">
          <Node pos="l" depth="2" NCoef="0" IVar="-1" Cut="0.0000000000000000e+00" cType="1" res="-3.4845117479562759e-03" rms="4.4040381908416748e-01" purity="2.6856765151023865e-01" nType="-99"/>
          <Node pos="r" depth="2" NCoef="0" IVar="-1" Cut="0.0000000000000000e+00" cType="1" res="4.1826686356216669e-04" rms="4.9188247323036194e-01" purity="5.1751208305358887e-01" nType="-99"/>
        </Node>
        <Node pos="r" depth="1" NCoef="0" IVar="-1" Cut="0.0000000000000000e+00" cType="1" res="2.0781480707228184e-03" rms="4.3398135900497437e-01" purity="7.4239152669906616e-01" nType="-99"/>
      </Node>
    </BinaryTree>
    <BinaryTree type="DecisionTree" boostWeight="1.0000000000000000e+00" itree="71">
      <Node pos="s" depth="0" NCoef="0" IVar="1" Cut="9.5192515850067139e-01" cType="1" res="1.4413617551326752e-02" rms="4.8052182793617249e-01" purity="4.9885970354080200e-01" nType="0">
        <Node pos="l" depth="1" NCoef="0" IVar="2" Cut="6.0182629394531250e+02" cType="1" res="-5.6021478027105331e-02" rms="4.7631177306175232e-01" purity="3.9376565814018250e-01" nType="0">
          <Node pos="l" depth="2" NCoef="0" IVar="-1" Cut="0.0000000000000000e+00" cType="1" res="-1.9403094192966819e-03" rms="4.6784895658493042e-01" purity="3.5055670142173767e-01" nType="-99"/>
          <Node pos="r" depth="2" NCoef="0" IVar="-1" Cut="0.0000000000000000e+00" cType="1" res="1.1297715827822685e-03" rms="4.9182716012001038e-01" purity="5.8866554498672485e-01" nType="-99"/>
        </Node>
        <Node pos="r" depth="1" NCoef="0" IVar="6" Cut="2.4516458511352539e+00" cType="1" res="8.6040966212749481e-02" rms="4.7415417432785034e-01" purity="6.0573267936706543e-01" nType="0">
          <Node pos="l" depth="2" NCoef="0" IVar="-1" Cut="0.0000000000000000e+00" cType="1" res="1.6554817557334900e-03" rms="4.6520107984542847e-01" purity="6.4351010322570801e-01" nType="-99"/>
          <Node pos="r" depth="2" NCoef="0" IVar="-1" Cut="0.0000000000000000e+00" cType="1" res="-7.9888920299708843e-04" rms="4.8451155424118042e-01" purity="4.6497324109077454e-01" nType="-99"/>
        </Node>
      </Node>
    </BinaryTree>
    <BinaryTree type="DecisionTree" boostWeight="1.0000000000000000e+00" itree="72">
      <Node pos="s" depth="0" NCoef="0" IVar="1" Cut="9.5740914344787598e-01" cType="1" res="2.0949251949787140e-02" rms="4.7980943322181702e-01" purity="5.0648313760757446e-01" nType="0">
        <Node pos="l" depth="1" NCoef="0" IVar="2" Cut="4.7081127929687500e+02" cType="1" res="-3.7897117435932159e-02" rms="4.7934073209762573e-01" purity="4.1338944435119629e-01" nType="0">
          <Node pos="l" depth="2" NCoef="0" IVar="-1" Cut="0.0000000000000000e+00" cType="1" res="-2.2565214894711971e-03" rms="4.5922595262527466e-01" purity="3.1769344210624695e-01" nType="-99"/>
          <Node pos="r" depth="2" NCoef="0" IVar="-1" Cut="0.0000000000000000e+00" cType="1" res="6.2844331841915846e-04" rms="4.9671024084091187e-01" purity="5.5136108398437500e-01" nType="-99"/>
        </Node>
        <Node pos="r" depth="1" NCoef="0" IVar="2" Cut="3.6414279174804688e+02" cType="1" res="1.0517622530460358e-01" rms="4.6777120232582092e-01" purity="6.3972830772399902e-01" nType="0">
          <Node pos="l" depth="2" NCoef="0" IVar="-1" Cut="0.0000000000000000e+00" cType="1" res="-6.2141183298081160e-04" rms="4.8470619320869446e-01" purity="4.5018130540847778e-01" nType="-99"/>
          <Node pos="r" depth="2" NCoef="0" IVar="-1" Cut="0.0000000000000000e+00" cType="1" res="1.8427667673677206e-03" rms="4.5591372251510620e-01" purity="6.9099384546279907e-01" nType="-99"/>
        </Node>
      </Node>
    </BinaryTree>
    <BinaryTree type="DecisionTree" boostWeight="1.0000000000000000e+00" itree="73">
      <Node pos="s" depth="0" NCoef="0" IVar="1" Cut="9.6939039230346680e-01" cType="1" res="1.6686363145709038e-02" rms="4.7920900583267212e-01" purity="5.0198906660079956e-01" nType="0">
        <Node pos="l" depth="1" NCoef="0" IVar="2" Cut="5.1101550292968750e+02" cType="1" res="-2.9038781300187111e-02" rms="4.8121100664138794e-01" purity="4.3006724119186401e-01" nType="0">
          <Node pos="l" depth="2" NCoef="0" IVar="-1" Cut="0.0000000000000000e+00" cType="1" res="-1.6897515160962939e-03" rms="4.6965941786766052e-01" purity="3.5530894994735718e-01" nType="-99"/>
          <Node pos="r" depth="2" NCoef="0" IVar="-1" Cut="0.0000000000000000e+00" cType="1" res="1.0193549096584320e-03" rms="4.9075758457183838e-01" purity="5.8801078796386719e-01" nType="-99"/>
        </Node>
        <Node pos="r" depth="1" NCoef="0" IVar="1" Cut="9.8528558015823364e-01" cType="1" res="1.4711217582225800e-01" rms="4.4853341579437256e-01" purity="7.0713794231414795e-01" nType="0">
          <Node pos="l" depth="2" NCoef="0" IVar="-1" Cut="0.0000000000000000e+00" cType="1" res="1.3234522193670273e-03" rms="4.7231948375701904e-01" purity="6.4628386497497559e-01" nType="-99"/>
          <Node pos="r" depth="2" NCoef="0" IVar="-1" Cut="0.0000000000000000e+00" cType="1" res="2.5392668321728706e-03" rms="3.9464166760444641e-01" purity="8.0337560176849365e-01" nType="-99"/>
        </Node>
      </Node>
    </BinaryTree>
    <BinaryTree type="DecisionTree" boostWeight="1.0000000000000000e+00" itree="74">
      <Node pos="s" depth="0" NCoef="0" IVar="1" Cut="9.5721095800399780e-01" cType="1" res="1.1359744705259800e-02" rms="4.7923177480697632e-01" purity="4.9649921059608459e-01" nType="0">
        <Node pos="l" depth="1" NCoef="0" IVar="2" Cut="5.4132562255859375e+02" cType="1" res="-5.1381554454565048e-02" rms="4.7694978117942810e-01" purity="3.9822956919670105e-01" nType="0">
          <Node pos="l" depth="2" NCoef="0" IVar="-1" Cut="0.0000000000000000e+00" cType="1" res="-2.0858175121247768e-03" rms="4.6466350555419922e-01" purity="3.3763357996940613e-01" nType="-99"/>
          <Node pos="r" depth="2" NCoef="0" IVar="-1" Cut="0.0000000000000000e+00" cType="1" res="8.3523569628596306e-04" rms="4.9494519829750061e-01" purity="5.6853038072586060e-01" nType="-99"/>
        </Node>
        <Node pos="r" depth="1" NCoef="0" IVar="2" Cut="4.1937530517578125e+02" cType="1" res="9.9203743040561676e-02" rms="4.6849775314331055e-01" purity="6.3408643007278442e-01" nType="0">
          <Node pos="l" depth="2" NCoef="0" IVar="-1" Cut="0.0000000000000000e+00" cType="1" res="1.8716241174843162e-04" rms="4.8845833539962769e-01" purity="5.0551116466522217e-01" nType="-99"/>
          <Node pos="r" depth="2" NCoef="0" IVar="-1" Cut="0.0000000000000000e+00" cType="1" res="1.9553892780095339e-03" rms="4.4611814618110657e-01" purity="7.1673423051834106e-01" nType="-99"/>
        </Node>
      </Node>
    </BinaryTree>
    <BinaryTree type="DecisionTree" boostWeight="1.0000000000000000e+00" itree="75">
      <Node pos="s" depth="0" NCoef="0" IVar="1" Cut="9.6970701217651367e-01" cType="1" res="1.7478173598647118e-02" rms="4.8006153106689453e-01" purity="5.0172150135040283e-01" nType="0">
        <Node pos="l" depth="1" NCoef="0" IVar="5" Cut="2.6588882446289062e+02" cType="1" res="-2.2511230781674385e-02" rms="4.8261839151382446e-01" purity="4.3586874008178711e-01" nType="0">
          <Node pos="l" depth="2" NCoef="0" IVar="-1" Cut="0.0000000000000000e+00" cType="1" res="-2.8243307024240494e-03" rms="4.4768899679183960e-01" purity="2.8876507282257080e-01" nType="-99"/>
          <Node pos="r" depth="2" NCoef="0" IVar="-1" Cut="0.0000000000000000e+00" cType="1" res="3.5047178971581161e-04" rms="4.9433133006095886e-01" purity="5.1264804601669312e-01" nType="-99"/>
        </Node>
        <Node pos="r" depth="1" NCoef="0" IVar="2" Cut="4.1151016235351562e+02" cType="1" res="1.3834966719150543e-01" rms="4.5119366049766541e-01" purity="7.0076715946197510e-01" nType="0">
          <Node pos="l" depth="2" NCoef="0" IVar="-1" Cut="0.0000000000000000e+00" cType="1" res="6.9032976171001792e-04" rms="4.8915663361549377e-01" purity="5.7894706726074219e-01" nType="-99"/>
          <Node pos="r" depth="2" NCoef="0" IVar="-1" Cut="0.0000000000000000e+00" cType="1" res="2.2310705389827490e-03" rms="4.2158108949661255e-01" purity="7.6541525125503540e-01" nType="-99"/>
        </Node>
      </Node>
    </BinaryTree>
    <BinaryTree type="DecisionTree" boostWeight="1.0000000000000000e+00" itree="76">
      <Node pos="s" depth="0" NCoef="0" IVar="1" Cut="9.6321952342987061e-01" cType="1" res="1.4036260545253754e-02" rms="4.7923043370246887e-01" purity="4.9876919388771057e-01" nType="0">
        <Node pos="l" depth="1" NCoef="0" IVar="2" Cut="4.5645288085937500e+02" cType="1" res="-3.4746430814266205e-02" rms="4.7971233725547791e-01" purity="4.1752538084983826e-01" nType="0">
          <Node pos="l" depth="2" NCoef="0" IVar="-1" Cut="0.0000000000000000e+00" cType="1" res="-2.2161458618938923e-03" rms="4.5877686142921448e-01" purity="3.1562501192092896e-01" nType="-99"/>
          <Node pos="r" depth="2" NCoef="0" IVar="-1" Cut="0.0000000000000000e+00" cType="1" res="5.3244817536324263e-04" rms="4.9646311998367310e-01" purity="5.4585736989974976e-01" nType="-99"/>
        </Node>
        <Node pos="r" depth="1" NCoef="0" IVar="2" Cut="3.8345028686523438e+02" cType="1" res="1.1195631325244904e-01" rms="4.6300011873245239e-01" purity="6.6184741258621216e-01" nType="0">
          <Node pos="l" depth="2" NCoef="0" IVar="-1" Cut="0.0000000000000000e+00" cType="1" res="7.3639389484014828e-06" rms="4.9205252528190613e-01" purity="5.0486856698989868e-01" nType="-99"/>
          <Node pos="r" depth="2" NCoef="0" IVar="-1" Cut="0.0000000000000000e+00" cType="1" res="1.9196891225874424e-03" rms="4.4462025165557861e-01" purity="7.2028332948684692e-01" nType="-99"/>
        </Node>
      </Node>
    </BinaryTree>
    <BinaryTree type="DecisionTree" boostWeight="1.0000000000000000e+00" itree="77">
      <Node pos="s" depth="0" NCoef="0" IVar="1" Cut="9.7510457038879395e-01" cType="1" res="1.5455535613000393e-02" rms="4.7896590828895569e-01" purity="5.0009423494338989e-01" nType="0">
        <Node pos="l" depth="1" NCoef="0" IVar="2" Cut="3.5887960815429688e+02" cType="1" res="-1.8548352643847466e-02" rms="4.8156753182411194e-01" purity="4.4555920362472534e-01" nType="0">
          <Node pos="l" depth="2" NCoef="0" IVar="-1" Cut="0.0000000000000000e+00" cType="1" res="-4.1912570595741272e-03" rms="4.2726138234138489e-01" purity="2.4490408599376678e-01" nType="-99"/>
          <Node pos="r" depth="2" NCoef="0" IVar="-1" Cut="0.0000000000000000e+00" cType="1" res="2.9500268283300102e-04" rms="4.9112358689308167e-01" purity="5.0609529018402100e-01" nType="-99"/>
        </Node>
        <Node pos="r" depth="1" NCoef="0" IVar="1" Cut="9.8481822013854980e-01" cType="1" res="1.5906363725662231e-01" rms="4.3971350789070129e-01" purity="7.3041105270385742e-01" nType="0">
          <Node pos="l" depth="2" NCoef="0" IVar="-1" Cut="0.0000000000000000e+00" cType="1" res="1.3619919773191214e-03" rms="4.6732854843139648e-01" purity="6.6592949628829956e-01" nType="-99"/>
          <Node pos="r" depth="2" NCoef="0" IVar="-1" Cut="0.0000000000000000e+00" cType="1" res="2.4265127722173929e-03" rms="4.0555498003959656e-01" purity="7.8939592838287354e-01" nType="-99"/>
        </Node>
      </Node>
    </BinaryTree>
    <BinaryTree type="DecisionTree" boostWeight="1.0000000000000000e+00" itree="78">
      <Node pos="s" depth="0" NCoef="0" IVar="1" Cut="9.6013760566711426e-01" cType="1" res="1.7030393704771996e-02" rms="4.7836601734161377e-01" purity="5.0203979015350342e-01" nType="0">
        <Node pos="l" depth="1" NCoef="0" IVar="2" Cut="4.5645288085937500e+02" cType="1" res="-3.9671823382377625e-02" rms="4.7808670997619629e-01" purity="4.0956482291221619e-01" nType="0">
          <Node pos="l" depth="2" NCoef="0" IVar="-1" Cut="0.0000000000000000e+00" cType="1" res="-2.4326858110725880e-03" rms="4.5462530851364136e-01" purity="3.0516073107719421e-01" nType="-99"/>
          <Node pos="r" depth="2" NCoef="0" IVar="-1" Cut="0.0000000000000000e+00" cType="1" res="4.7828856622800231e-04" rms="4.9735993146896362e-01" purity="5.4071587324142456e-01" nType="-99"/>
        </Node>
        <Node pos="r" depth="1" NCoef="0" IVar="6" Cut="2.5316112041473389e+00" cType="1" res="1.1039744317531586e-01" rms="4.6396383643150330e-01" purity="6.5431106090545654e-01" nType="0">
          <Node pos="l" depth="2" NCoef="0" IVar="-1" Cut="0.0000000000000000e+00" cType="1" res="1.8074350664392114e-03" rms="4.5337456464767456e-01" purity="6.8521511554718018e-01" nType="-99"/>
          <Node pos="r" depth="2" NCoef="0" IVar="-1" Cut="0.0000000000000000e+00" cType="1" res="-7.6586200157180429e-04" rms="4.8925763368606567e-01" purity="4.8838782310485840e-01" nType="-99"/>
        </Node>
      </Node>
    </BinaryTree>
    <BinaryTree type="DecisionTree" boostWeight="1.0000000000000000e+00" itree="79">
      <Node pos="s" depth="0" NCoef="0" IVar="1" Cut="9.5196616649627686e-01" cType="1" res="1.4507804997265339e-02" rms="4.7891491651535034e-01" purity="4.9872091412544250e-01" nType="0">
        <Node pos="l" depth="1" NCoef="0" IVar="2" Cut="3.6905532836914062e+02" cType="1" res="-5.1386345177888870e-02" rms="4.7506976127624512e-01" purity="3.9513263106346130e-01" nType="0">
          <Node pos="l" depth="2" NCoef="0" IVar="-1" Cut="0.0000000000000000e+00" cType="1" res="-5.1622395403683186e-03" rms="4.0726605057716370e-01" purity="2.1045619249343872e-01" nType="-99"/>
          <Node pos="r" depth="2" NCoef="0" IVar="-1" Cut="0.0000000000000000e+00" cType="1" res="-2.1895975805819035e-04" rms="4.9342134594917297e-01" purity="4.6696540713310242e-01" nType="-99"/>
        </Node>
        <Node pos="r" depth="1" NCoef="0" IVar="6" Cut="2.4581923484802246e+00" cType="1" res="8.2338266074657440e-02" rms="4.7335496544837952e-01" purity="6.0535317659378052e-01" nType="0">
          <Node pos="l" depth="2" NCoef="0" IVar="-1" Cut="0.0000000000000000e+00" cType="1" res="1.6117544146254659e-03" rms="4.6365845203399658e-01" purity="6.4430063962936401e-01" nType="-99"/>
          <Node pos="r" depth="2" NCoef="0" IVar="-1" Cut="0.0000000000000000e+00" cType="1" res="-1.0399298043921590e-03" rms="4.8562559485435486e-01" purity="4.5249471068382263e-01" nType="-99"/>
        </Node>
      </Node>
    </BinaryTree>
    <BinaryTree type="DecisionTree" boostWeight="1.0000000000000000e+00" itree="80">
      <Node pos="s" depth="0" NCoef="0" IVar="1" Cut="9.7540217638015747e-01" cType="1" res="1.0075553320348263e-02" rms="4.7865062952041626e-01" purity="4.9405810236930847e-01" nType="0">
        <Node pos="l" depth="1" NCoef="0" IVar="2" Cut="4.7081127929687500e+02" cType="1" res="-2.3499265313148499e-02" rms="4.8095878958702087e-01" purity="4.3962031602859497e-01" nType="0">
          <Node pos="l" depth="2" NCoef="0" IVar="-1" Cut="0.0000000000000000e+00" cType="1" res="-1.6965668182820082e-03" rms="4.6643969416618347e-01" purity="3.4731867909431458e-01" nType="-99"/>
          <Node pos="r" depth="2" NCoef="0" IVar="-1" Cut="0.0000000000000000e+00" cType="1" res="7.3019776027649641e-04" rms="4.9218583106994629e-01" purity="5.7101368904113770e-01" nType="-99"/>
        </Node>
        <Node pos="r" depth="1" NCoef="0" IVar="1" Cut="9.8409640789031982e-01" cType="1" res="1.5481619536876678e-01" rms="4.4016858935356140e-01" purity="7.2873878479003906e-01" nType="0">
          <Node pos="l" depth="2" NCoef="0" IVar="-1" Cut="0.0000000000000000e+00" cType="1" res="1.2109780218452215e-03" rms="4.7058975696563721e-01" purity="6.5532141923904419e-01" nType="-99"/>
          <Node pos="r" depth="2" NCoef="0" IVar="-1" Cut="0.0000000000000000e+00" cType="1" res="2.3847015108913183e-03" rms="4.0810459852218628e-01" purity="7.8504210710525513e-01" nType="-99"/>
        </Node>
      </Node>
    </BinaryTree>
    <BinaryTree type="DecisionTree" boostWeight="1.0000000000000000e+00" itree="81">
      <Node pos="s" depth="0" NCoef="0" IVar="1" Cut="9.7806501388549805e-01" cType="1" res="2.0418487489223480e-02" rms="4.7885462641716003e-01" purity="5.0434452295303345e-01" nType="0">
        <Node pos="l" depth="1" NCoef="0" IVar="6" Cut="2.5280437469482422e+00" cType="1" res="-1.0304344817996025e-02" rms="4.8262232542037964e-01" purity="4.5503845810890198e-01" nType="0">
          <Node pos="l" depth="2" NCoef="0" IVar="-1" Cut="0.0000000000000000e+00" cType="1" res="3.0732766026630998e-04" rms="4.8471799492835999e-01" purity="4.8665469884872437e-01" nType="-99"/>
          <Node pos="r" depth="2" NCoef="0" IVar="-1" Cut="0.0000000000000000e+00" cType="1" res="-3.6125325132161379e-03" rms="4.5056912302970886e-01" purity="3.0819311738014221e-01" nType="-99"/>
        </Node>
        <Node pos="r" depth="1" NCoef="0" IVar="-1" Cut="0.0000000000000000e+00" cType="1" res="2.0975391380488873e-03" rms="4.2625075578689575e-01" purity="7.5501418113708496e-01" nType="-99"/>
      </Node>
    </BinaryTree>
    <BinaryTree type="DecisionTree" boostWeight="1.0000000000000000e+00" itree="82">
      <Node pos="s" depth="0" NCoef="0" IVar="1" Cut="9.6040445566177368e-01" cType="1" res="1.9644564017653465e-02" rms="4.7889083623886108e-01" purity="5.0376909971237183e-01" nType="0">
        <Node pos="l" depth="1" NCoef="0" IVar="2" Cut="3.5887960815429688e+02" cType="1" res="-3.1718924641609192e-02" rms="4.7970527410507202e-01" purity="4.1603791713714600e-01" nType="0">
          <Node pos="l" depth="2" NCoef="0" IVar="-1" Cut="0.0000000000000000e+00" cType="1" res="-3.9548240602016449e-03" rms="4.2316320538520813e-01" purity="2.3500436544418335e-01" nType="-99"/>
          <Node pos="r" depth="2" NCoef="0" IVar="-1" Cut="0.0000000000000000e+00" cType="1" res="-2.1488678612513468e-05" rms="4.9263790249824524e-01" purity="4.7420981526374817e-01" nType="-99"/>
        </Node>
        <Node pos="r" depth="1" NCoef="0" IVar="1" Cut="9.7947901487350464e-01" cType="1" res="1.0712269693613052e-01" rms="4.6460863947868347e-01" purity="6.5318572521209717e-01" nType="0">
          <Node pos="l" depth="2" NCoef="0" IVar="-1" Cut="0.0000000000000000e+00" cType="1" res="8.5178756853565574e-04" rms="4.8459166288375854e-01" purity="5.7899403572082520e-01" nType="-99"/>
          <Node pos="r" depth="2" NCoef="0" IVar="-1" Cut="0.0000000000000000e+00" cType="1" res="2.1484564058482647e-03" rms="4.2313209176063538e-01" purity="7.6111274957656860e-01" nType="-99"/>
        </Node>
      </Node>
    </BinaryTree>
    <BinaryTree type="DecisionTree" boostWeight="1.0000000000000000e+00" itree="83">
      <Node pos="s" depth="0" NCoef="0" IVar="2" Cut="4.8267938232421875e+02" cType="1" res="1.8673308193683624e-02" rms="4.7869139909744263e-01" purity="5.0224554538726807e-01" nType="0">
        <Node pos="l" depth="1" NCoef="0" IVar="1" Cut="9.7806501388549805e-01" cType="1" res="-3.2867521047592163e-02" rms="4.7418782114982605e-01" purity="4.1482678055763245e-01" nType="0">
          <Node pos="l" depth="2" NCoef="0" IVar="-1" Cut="0.0000000000000000e+00" cType="1" res="-1.2823197757825255e-03" rms="4.7152239084243774e-01" purity="3.6848479509353638e-01" nType="-99"/>
          <Node pos="r" depth="2" NCoef="0" IVar="-1" Cut="0.0000000000000000e+00" cType="1" res="1.5160614857450128e-03" rms="4.6232196688652039e-01" purity="6.8373292684555054e-01" nType="-99"/>
        </Node>
        <Node pos="r" depth="1" NCoef="0" IVar="1" Cut="9.5253759622573853e-01" cType="1" res="9.7888156771659851e-02" rms="4.7474548220634460e-01" purity="6.3660246133804321e-01" nType="0">
          <Node pos="l" depth="2" NCoef="0" IVar="-1" Cut="0.0000000000000000e+00" cType="1" res="4.9201253568753600e-04" rms="4.9753996729850769e-01" purity="5.4453396797180176e-01" nType="-99"/>
          <Node pos="r" depth="2" NCoef="0" IVar="-1" Cut="0.0000000000000000e+00" cType="1" res="2.0285856444388628e-03" rms="4.4208076596260071e-01" purity="7.2560799121856689e-01" nType="-99"/>
        </Node>
      </Node>
    </BinaryTree>
    <BinaryTree type="DecisionTree" boostWeight="1.0000000000000000e+00" itree="84">
      <Node pos="s" depth="0" NCoef="0" IVar="1" Cut="9.7837632894515991e-01" cType="1" res="1.8281104043126106e-02" rms="4.7838106751441956e-01" purity="5.0272452831268311e-01" nType="0">
        <Node pos="l" depth="1" NCoef="0" IVar="2" Cut="3.9766213989257812e+02" cType="1" res="-1.2597410008311272e-02" rms="4.8211565613746643e-01" purity="4.5273926854133606e-01" nType="0">
          <Node pos="l" depth="2" NCoef="0" IVar="-1" Cut="0.0000000000000000e+00" cType="1" res="-2.3696247953921556e-03" rms="4.5301097631454468e-01" purity="2.9943615198135376e-01" nType="-99"/>
          <Node pos="r" depth="2" NCoef="0" IVar="-1" Cut="0.0000000000000000e+00" cType="1" res="5.1496014930307865e-04" rms="4.9261447787284851e-01" purity="5.4145497083663940e-01" nType="-99"/>
        </Node>
        <Node pos="r" depth="1" NCoef="0" IVar="-1" Cut="0.0000000000000000e+00" cType="1" res="2.1020933054387569e-03" rms="4.2566335201263428e-01" purity="7.5660467147827148e-01" nType="-99"/>
      </Node>
    </BinaryTree>
    <BinaryTree type="DecisionTree" boostWeight="1.0000000000000000e+00" itree="85">
      <Node pos="s" depth="0" NCoef="0" IVar="1" Cut="9.4842320680618286e-01" cType="1" res="1.8321998417377472e-02" rms="4.7783878445625305e-01" purity="5.0306367874145508e-01" nType="0">
        <Node pos="l" depth="1" NCoef="0" IVar="2" Cut="5.6006939697265625e+02" cType="1" res="-5.8958608657121658e-02" rms="4.7278654575347900e-01" purity="3.8497632741928101e-01" nType="0">
          <Node pos="l" depth="2" NCoef="0" IVar="-1" Cut="0.0000000000000000e+00" cType="1" res="-2.1533200051635504e-03" rms="4.6115511655807495e-01" purity="3.3230507373809814e-01" nType="-99"/>
          <Node pos="r" depth="2" NCoef="0" IVar="-1" Cut="0.0000000000000000e+00" cType="1" res="7.1522401412948966e-04" rms="4.9580040574073792e-01" purity="5.6198960542678833e-01" nType="-99"/>
        </Node>
        <Node pos="r" depth="1" NCoef="0" IVar="5" Cut="2.7123968505859375e+02" cType="1" res="7.9448297619819641e-02" rms="4.7293600440025330e-01" purity="5.9646677970886230e-01" nType="0">
          <Node pos="l" depth="2" NCoef="0" IVar="-1" Cut="0.0000000000000000e+00" cType="1" res="-2.0730640972033143e-04" rms="4.8103177547454834e-01" purity="4.5357760787010193e-01" nType="-99"/>
          <Node pos="r" depth="2" NCoef="0" IVar="-1" Cut="0.0000000000000000e+00" cType="1" res="1.6428258968517184e-03" rms="4.6259978413581848e-01" purity="6.6584235429763794e-01" nType="-99"/>
        </Node>
      </Node>
    </BinaryTree>
    <BinaryTree type="DecisionTree" boostWeight="1.0000000000000000e+00" itree="86">
      <Node pos="s" depth="0" NCoef="0" IVar="1" Cut="9.7813850641250610e-01" cType="1" res="1.5524526126682758e-02" rms="4.7815173864364624e-01" purity="4.9869072437286377e-01" nType="0">
        <Node pos="l" depth="1" NCoef="0" IVar="2" Cut="4.5645288085937500e+02" cType="1" res="-1.3823535293340683e-02" rms="4.8147219419479370e-01" purity="4.5039916038513184e-01" nType="0">
          <Node pos="l" depth="2" NCoef="0" IVar="-1" Cut="0.0000000000000000e+00" cType="1" res="-1.5110685490071774e-03" rms="4.6735468506813049e-01" purity="3.4964013099670410e-01" nType="-99"/>
          <Node pos="r" depth="2" NCoef="0" IVar="-1" Cut="0.0000000000000000e+00" cType="1" res="7.6222879579290748e-04" rms="4.9085021018981934e-01" purity="5.7465827465057373e-01" nType="-99"/>
        </Node>
        <Node pos="r" depth="1" NCoef="0" IVar="-1" Cut="0.0000000000000000e+00" cType="1" res="2.0271670073270798e-03" rms="4.2910212278366089e-01" purity="7.5041043758392334e-01" nType="-99"/>
      </Node>
    </BinaryTree>
    <BinaryTree type="DecisionTree" boostWeight="1.0000000000000000e+00" itree="87">
      <Node pos="s" depth="0" NCoef="0" IVar="1" Cut="9.5757091045379639e-01" cType="1" res="1.7990494146943092e-02" rms="4.7804462909698486e-01" purity="5.0166749954223633e-01" nType="0">
        <Node pos="l" depth="1" NCoef="0" IVar="2" Cut="5.9811975097656250e+02" cType="1" res="-3.7885051220655441e-02" rms="4.7794744372367859e-01" purity="4.0600425004959106e-01" nType="0">
          <Node pos="l" depth="2" NCoef="0" IVar="-1" Cut="0.0000000000000000e+00" cType="1" res="-1.3652363559231162e-03" rms="4.7154226899147034e-01" purity="3.6578315496444702e-01" nType="-99"/>
          <Node pos="r" depth="2" NCoef="0" IVar="-1" Cut="0.0000000000000000e+00" cType="1" res="1.0375047568231821e-03" rms="4.9191054701805115e-01" purity="5.8660298585891724e-01" nType="-99"/>
        </Node>
        <Node pos="r" depth="1" NCoef="0" IVar="5" Cut="2.4873899841308594e+02" cType="1" res="9.8095580935478210e-02" rms="4.6665525436401367e-01" purity="6.3881367444992065e-01" nType="0">
          <Node pos="l" depth="2" NCoef="0" IVar="-1" Cut="0.0000000000000000e+00" cType="1" res="-4.6492810361087322e-04" rms="4.8561203479766846e-01" purity="4.6358284354209900e-01" nType="-99"/>
          <Node pos="r" depth="2" NCoef="0" IVar="-1" Cut="0.0000000000000000e+00" cType="1" res="1.7275604186579585e-03" rms="4.5512372255325317e-01" purity="6.8825459480285645e-01" nType="-99"/>
        </Node>
      </Node>
    </BinaryTree>
    <BinaryTree type="DecisionTree" boostWeight="1.0000000000000000e+00" itree="88">
      <Node pos="s" depth="0" NCoef="0" IVar="1" Cut="9.6626019477844238e-01" cType="1" res="1.5434292145073414e-02" rms="4.7856765985488892e-01" purity="4.9865293502807617e-01" nType="0">
        <Node pos="l" depth="1" NCoef="0" IVar="2" Cut="3.2789929199218750e+02" cType="1" res="-2.6904901489615440e-02" rms="4.8082619905471802e-01" purity="4.2361876368522644e-01" nType="0">
          <Node pos="l" depth="2" NCoef="0" IVar="-1" Cut="0.0000000000000000e+00" cType="1" res="-5.9198052622377872e-03" rms="3.9586237072944641e-01" purity="1.9510328769683838e-01" nType="-99"/>
          <Node pos="r" depth="2" NCoef="0" IVar="-1" Cut="0.0000000000000000e+00" cType="1" res="-8.6476386059075594e-05" rms="4.8944312334060669e-01" purity="4.6020728349685669e-01" nType="-99"/>
        </Node>
        <Node pos="r" depth="1" NCoef="0" IVar="6" Cut="2.4550340175628662e+00" cType="1" res="1.1813677847385406e-01" rms="4.5702818036079407e-01" purity="6.8066382408142090e-01" nType="0">
          <Node pos="l" depth="2" NCoef="0" IVar="-1" Cut="0.0000000000000000e+00" cType="1" res="1.9063197541981936e-03" rms="4.4217497110366821e-01" purity="7.1717369556427002e-01" nType="-99"/>
          <Node pos="r" depth="2" NCoef="0" IVar="-1" Cut="0.0000000000000000e+00" cType="1" res="-2.9339728644117713e-04" rms="4.8961964249610901e-01" purity="5.3315478563308716e-01" nType="-99"/>
        </Node>
      </Node>
    </BinaryTree>
    <BinaryTree type="DecisionTree" boostWeight="1.0000000000000000e+00" itree="89">
      <Node pos="s" depth="0" NCoef="0" IVar="1" Cut="9.5160341262817383e-01" cType="1" res="1.5318449586629868e-02" rms="4.7760233283042908e-01" purity="4.9887579679489136e-01" nType="0">
        <Node pos="l" depth="1" NCoef="0" IVar="2" Cut="5.7500860595703125e+02" cType="1" res="-4.8949941992759705e-02" rms="4.7449299693107605e-01" purity="3.9376288652420044e-01" nType="0">
          <Node pos="l" depth="2" NCoef="0" IVar="-1" Cut="0.0000000000000000e+00" cType="1" res="-1.8503193277865648e-03" rms="4.6461960673332214e-01" purity="3.4258091449737549e-01" nType="-99"/>
          <Node pos="r" depth="2" NCoef="0" IVar="-1" Cut="0.0000000000000000e+00" cType="1" res="9.5308019081130624e-04" rms="4.9305158853530884e-01" purity="5.8033049106597900e-01" nType="-99"/>
        </Node>
        <Node pos="r" depth="1" NCoef="0" IVar="2" Cut="4.7895254516601562e+02" cType="1" res="8.0816276371479034e-02" rms="4.7182789444923401e-01" purity="6.0599952936172485e-01" nType="0">
          <Node pos="l" depth="2" NCoef="0" IVar="-1" Cut="0.0000000000000000e+00" cType="1" res="4.4389441609382629e-04" rms="4.8406401276588440e-01" purity="5.2254229784011841e-01" nType="-99"/>
          <Node pos="r" depth="2" NCoef="0" IVar="-1" Cut="0.0000000000000000e+00" cType="1" res="1.9541676156222820e-03" rms="4.4398212432861328e-01" purity="7.2048616409301758e-01" nType="-99"/>
        </Node>
      </Node>
    </BinaryTree>
    <BinaryTree type="DecisionTree" boostWeight="1.0000000000000000e+00" itree="90">
      <Node pos="s" depth="0" NCoef="0" IVar="1" Cut="9.6652221679687500e-01" cType="1" res="1.5549913048744202e-02" rms="4.7779250144958496e-01" purity="4.9926355481147766e-01" nType="0">
        <Node pos="l" depth="1" NCoef="0" IVar="5" Cut="2.5509506225585938e+02" cType="1" res="-2.6690322905778885e-02" rms="4.7971674799919128e-01" purity="4.2393457889556885e-01" nType="0">
          <Node pos="l" depth="2" NCoef="0" IVar="-1" Cut="0.0000000000000000e+00" cType="1" res="-3.2607691828161478e-03" rms="4.3488904833793640e-01" purity="2.6195096969604492e-01" nType="-99"/>
          <Node pos="r" depth="2" NCoef="0" IVar="-1" Cut="0.0000000000000000e+00" cType="1" res="1.6151786257978529e-04" rms="4.9296900629997253e-01" purity="4.9215593934059143e-01" nType="-99"/>
        </Node>
        <Node pos="r" depth="1" NCoef="0" IVar="2" Cut="3.7850036621093750e+02" cType="1" res="1.1756613850593567e-01" rms="4.5729565620422363e-01" purity="6.8119376897811890e-01" nType="0">
          <Node pos="l" depth="2" NCoef="0" IVar="-1" Cut="0.0000000000000000e+00" cType="1" res="3.3217421150766313e-04" rms="4.9060475826263428e-01" purity="5.4097008705139160e-01" nType="-99"/>
          <Node pos="r" depth="2" NCoef="0" IVar="-1" Cut="0.0000000000000000e+00" cType="1" res="1.8854214577004313e-03" rms="4.3991106748580933e-01" purity="7.3066198825836182e-01" nType="-99"/>
        </Node>
      </Node>
    </BinaryTree>
    <BinaryTree type="DecisionTree" boostWeight="1.0000000000000000e+00" itree="91">
      <Node pos="s" depth="0" NCoef="0" IVar="1" Cut="9.6940177679061890e-01" cType="1" res="1.8226532265543938e-02" rms="4.7762975096702576e-01" purity="5.0159978866577148e-01" nType="0">
        <Node pos="l" depth="1" NCoef="0" IVar="6" Cut="2.4513144493103027e+00" cType="1" res="-2.0261345431208611e-02" rms="4.8065221309661865e-01" purity="4.3289411067962646e-01" nType="0">
          <Node pos="l" depth="2" NCoef="0" IVar="-1" Cut="0.0000000000000000e+00" cType="1" res="2.0520336693152785e-04" rms="4.8463180661201477e-01" purity="4.6935167908668518e-01" nType="-99"/>
          <Node pos="r" depth="2" NCoef="0" IVar="-1" Cut="0.0000000000000000e+00" cType="1" res="-3.1564645469188690e-03" rms="4.5238953828811646e-01" purity="3.1419777870178223e-01" nType="-99"/>
        </Node>
        <Node pos="r" depth="1" NCoef="0" IVar="1" Cut="9.8522013425827026e-01" cType="1" res="1.2997297942638397e-01" rms="4.5048046112060547e-01" purity="7.0108127593994141e-01" nType="0">
          <Node pos="l" depth="2" NCoef="0" IVar="-1" Cut="0.0000000000000000e+00" cType="1" res="1.1827469570562243e-03" rms="4.7196489572525024e-01" purity="6.4516806602478027e-01" nType="-99"/>
          <Node pos="r" depth="2" NCoef="0" IVar="-1" Cut="0.0000000000000000e+00" cType="1" res="2.3145754821598530e-03" rms="4.0286505222320557e-01" purity="7.9185962677001953e-01" nType="-99"/>
        </Node>
      </Node>
    </BinaryTree>
    <BinaryTree type="DecisionTree" boostWeight="1.0000000000000000e+00" itree="92">
      <Node pos="s" depth="0" NCoef="0" IVar="1" Cut="9.7566807270050049e-01" cType="1" res="1.9977958872914314e-02" rms="4.7709399461746216e-01" purity="5.0401043891906738e-01" nType="0">
        <Node pos="l" depth="1" NCoef="0" IVar="2" Cut="4.9446026611328125e+02" cType="1" res="-1.0409926064312458e-02" rms="4.8087266087532043e-01" purity="4.5086848735809326e-01" nType="0">
          <Node pos="l" depth="2" NCoef="0" IVar="-1" Cut="0.0000000000000000e+00" cType="1" res="-1.2355700600892305e-03" rms="4.7119063138961792e-01" purity="3.6740618944168091e-01" nType="-99"/>
          <Node pos="r" depth="2" NCoef="0" IVar="-1" Cut="0.0000000000000000e+00" cType="1" res="1.0226586600765586e-03" rms="4.8727700114250183e-01" purity="5.9801650047302246e-01" nType="-99"/>
        </Node>
        <Node pos="r" depth="1" NCoef="0" IVar="1" Cut="9.8474162817001343e-01" cType="1" res="1.5269598364830017e-01" rms="4.3607565760612488e-01" purity="7.3610615730285645e-01" nType="0">
          <Node pos="l" depth="2" NCoef="0" IVar="-1" Cut="0.0000000000000000e+00" cType="1" res="1.2476517586037517e-03" rms="4.6675130724906921e-01" purity="6.6715383529663086e-01" nType="-99"/>
          <Node pos="r" depth="2" NCoef="0" IVar="-1" Cut="0.0000000000000000e+00" cType="1" res="2.3117344826459885e-03" rms="4.0291354060173035e-01" purity="7.9201614856719971e-01" nType="-99"/>
        </Node>
      </Node>
    </BinaryTree>
    <BinaryTree type="DecisionTree" boostWeight="1.0000000000000000e+00" itree="93">
      <Node pos="s" depth="0" NCoef="0" IVar="1" Cut="9.8137164115905762e-01" cType="1" res="1.5970285981893539e-02" rms="4.7710701823234558e-01" purity="4.9942910671234131e-01" nType="0">
        <Node pos="l" depth="1" NCoef="0" IVar="2" Cut="4.5912738037109375e+02" cType="1" res="-8.4644034504890442e-03" rms="4.8052543401718140e-01" purity="4.5912662148475647e-01" nType="0">
          <Node pos="l" depth="2" NCoef="0" IVar="-1" Cut="0.0000000000000000e+00" cType="1" res="-1.4490846078842878e-03" rms="4.6676865220069885e-01" purity="3.5497164726257324e-01" nType="-99"/>
          <Node pos="r" depth="2" NCoef="0" IVar="-1" Cut="0.0000000000000000e+00" cType="1" res="8.9218106586486101e-04" rms="4.8845651745796204e-01" purity="5.8740961551666260e-01" nType="-99"/>
        </Node>
        <Node pos="r" depth="1" NCoef="0" IVar="-1" Cut="0.0000000000000000e+00" cType="1" res="2.1262827794998884e-03" rms="4.1846266388893127e-01" purity="7.6872539520263672e-01" nType="-99"/>
      </Node>
    </BinaryTree>
    <BinaryTree type="DecisionTree" boostWeight="1.0000000000000000e+00" itree="94">
      <Node pos="s" depth="0" NCoef="0" IVar="1" Cut="9.5141851902008057e-01" cType="1" res="1.7418472096323967e-02" rms="4.7669252753257751e-01" purity="5.0105839967727661e-01" nType="0">
        <Node pos="l" depth="1" NCoef="0" IVar="2" Cut="5.6316650390625000e+02" cType="1" res="-4.6631298959255219e-02" rms="4.7370508313179016e-01" purity="3.9391469955444336e-01" nType="0">
          <Node pos="l" depth="2" NCoef="0" IVar="-1" Cut="0.0000000000000000e+00" cType="1" res="-1.7860454972833395e-03" rms="4.6331819891929626e-01" purity="3.4121543169021606e-01" nType="-99"/>
          <Node pos="r" depth="2" NCoef="0" IVar="-1" Cut="0.0000000000000000e+00" cType="1" res="8.5479952394962311e-04" rms="4.9409300088882446e-01" purity="5.7427012920379639e-01" nType="-99"/>
        </Node>
        <Node pos="r" depth="1" NCoef="0" IVar="2" Cut="4.9214456176757812e+02" cType="1" res="8.0262161791324615e-02" rms="4.7121879458427429e-01" purity="6.0618454217910767e-01" nType="0">
          <Node pos="l" depth="2" NCoef="0" IVar="-1" Cut="0.0000000000000000e+00" cType="1" res="4.7736527631059289e-04" rms="4.8323130607604980e-01" purity="5.2728056907653809e-01" nType="-99"/>
          <Node pos="r" depth="2" NCoef="0" IVar="-1" Cut="0.0000000000000000e+00" cType="1" res="1.9786441698670387e-03" rms="4.4063889980316162e-01" purity="7.2751861810684204e-01" nType="-99"/>
        </Node>
      </Node>
    </BinaryTree>
    <BinaryTree type="DecisionTree" boostWeight="1.0000000000000000e+00" itree="95">
      <Node pos="s" depth="0" NCoef="0" IVar="2" Cut="3.9417453002929688e+02" cType="1" res="1.6907932236790657e-02" rms="4.7686362266540527e-01" purity="5.0048863887786865e-01" nType="0">
        <Node pos="l" depth="1" NCoef="0" IVar="1" Cut="9.7198051214218140e-01" cType="1" res="-7.1772314608097076e-02" rms="4.5562994480133057e-01" purity="3.3312806487083435e-01" nType="0">
          <Node pos="l" depth="2" NCoef="0" IVar="-1" Cut="0.0000000000000000e+00" cType="1" res="-2.6266600470989943e-03" rms="4.4403725862503052e-01" purity="2.7816644310951233e-01" nType="-99"/>
          <Node pos="r" depth="2" NCoef="0" IVar="-1" Cut="0.0000000000000000e+00" cType="1" res="3.7680889363400638e-04" rms="4.9055650830268860e-01" purity="5.6776010990142822e-01" nType="-99"/>
        </Node>
        <Node pos="r" depth="1" NCoef="0" IVar="1" Cut="9.6664190292358398e-01" cType="1" res="6.2939584255218506e-02" rms="4.8111921548843384e-01" purity="5.8736121654510498e-01" nType="0">
          <Node pos="l" depth="2" NCoef="0" IVar="-1" Cut="0.0000000000000000e+00" cType="1" res="3.5631877835839987e-04" rms="4.9510017037391663e-01" purity="5.1870453357696533e-01" nType="-99"/>
          <Node pos="r" depth="2" NCoef="0" IVar="-1" Cut="0.0000000000000000e+00" cType="1" res="1.9257554085925221e-03" rms="4.3343758583068848e-01" purity="7.4282270669937134e-01" nType="-99"/>
        </Node>
      </Node>
    </BinaryTree>
    <BinaryTree type="DecisionTree" boostWeight="1.0000000000000000e+00" itree="96">
      <Node pos="s" depth="0" NCoef="0" IVar="1" Cut="9.7509831190109253e-01" cType="1" res="1.4129482209682465e-02" rms="4.7697940468788147e-01" purity="4.9816918373107910e-01" nType="0">
        <Node pos="l" depth="1" NCoef="0" IVar="6" Cut="2.5280437469482422e+00" cType="1" res="-1.9356092438101768e-02" rms="4.8075434565544128e-01" purity="4.3952906131744385e-01" nType="0">
          <Node pos="l" depth="2" NCoef="0" IVar="-1" Cut="0.0000000000000000e+00" cType="1" res="1.3560675142798573e-04" rms="4.8415777087211609e-01" purity="4.7109588980674744e-01" nType="-99"/>
          <Node pos="r" depth="2" NCoef="0" IVar="-1" Cut="0.0000000000000000e+00" cType="1" res="-3.7274309433996677e-03" rms="4.4553229212760925e-01" purity="2.9767569899559021e-01" nType="-99"/>
        </Node>
        <Node pos="r" depth="1" NCoef="0" IVar="1" Cut="9.8534440994262695e-01" cType="1" res="1.4970241487026215e-01" rms="4.3583482503890991e-01" purity="7.3558515310287476e-01" nType="0">
          <Node pos="l" depth="2" NCoef="0" IVar="-1" Cut="0.0000000000000000e+00" cType="1" res="1.2748386943712831e-03" rms="4.6421796083450317e-01" purity="6.7183363437652588e-01" nType="-99"/>
          <Node pos="r" depth="2" NCoef="0" IVar="-1" Cut="0.0000000000000000e+00" cType="1" res="2.3330587428063154e-03" rms="3.9834213256835938e-01" purity="7.9839926958084106e-01" nType="-99"/>
        </Node>
      </Node>
    </BinaryTree>
    <BinaryTree type="DecisionTree" boostWeight="1.0000000000000000e+00" itree="97">
      <Node pos="s" depth="0" NCoef="0" IVar="1" Cut="9.5747745037078857e-01" cType="1" res="1.7554448917508125e-02" rms="4.7599324584007263e-01" purity="5.0188761949539185e-01" nType="0">
        <Node pos="l" depth="1" NCoef="0" IVar="2" Cut="4.8267938232421875e+02" cType="1" res="-3.6527324467897415e-02" rms="4.7559219598770142e-01" purity="4.0545374155044556e-01" nType="0">
          <Node pos="l" depth="2" NCoef="0" IVar="-1" Cut="0.0000000000000000e+00" cType="1" res="-2.0457808859646320e-03" rms="4.5649716258049011e-01" purity="3.1443810462951660e-01" nType="-99"/>
          <Node pos="r" depth="2" NCoef="0" IVar="-1" Cut="0.0000000000000000e+00" cType="1" res="5.6940515059977770e-04" rms="4.9628496170043945e-01" purity="5.5222421884536743e-01" nType="-99"/>
        </Node>
        <Node pos="r" depth="1" NCoef="0" IVar="6" Cut="2.4763691425323486e+00" cType="1" res="9.4551779329776764e-02" rms="4.6585425734519958e-01" purity="6.3918238878250122e-01" nType="0">
          <Node pos="l" depth="2" NCoef="0" IVar="-1" Cut="0.0000000000000000e+00" cType="1" res="1.6540301730856299e-03" rms="4.5603212714195251e-01" purity="6.7271870374679565e-01" nType="-99"/>
          <Node pos="r" depth="2" NCoef="0" IVar="-1" Cut="0.0000000000000000e+00" cType="1" res="-5.4858345538377762e-04" rms="4.8554253578186035e-01" purity="4.9728983640670776e-01" nType="-99"/>
        </Node>
      </Node>
    </BinaryTree>
    <BinaryTree type="DecisionTree" boostWeight="1.0000000000000000e+00" itree="98">
      <Node pos="s" depth="0" NCoef="0" IVar="1" Cut="9.5774924755096436e-01" cType="1" res="2.1786283701658249e-02" rms="4.7583016753196716e-01" purity="5.0607323646545410e-01" nType="0">
        <Node pos="l" depth="1" NCoef="0" IVar="2" Cut="4.8271987915039062e+02" cType="1" res="-3.2316226512193680e-02" rms="4.7724851965904236e-01" purity="4.0832751989364624e-01" nType="0">
          <Node pos="l" depth="2" NCoef="0" IVar="-1" Cut="0.0000000000000000e+00" cType="1" res="-1.7020875820890069e-03" rms="4.6095800399780273e-01" purity="3.2539722323417664e-01" nType="-99"/>
          <Node pos="r" depth="2" NCoef="0" IVar="-1" Cut="0.0000000000000000e+00" cType="1" res="4.6719890087842941e-04" rms="4.9694424867630005e-01" purity="5.4567784070968628e-01" nType="-99"/>
        </Node>
        <Node pos="r" depth="1" NCoef="0" IVar="5" Cut="2.4720204162597656e+02" cType="1" res="9.9532939493656158e-02" rms="4.6284011006355286e-01" purity="6.4653617143630981e-01" nType="0">
          <Node pos="l" depth="2" NCoef="0" IVar="-1" Cut="0.0000000000000000e+00" cType="1" res="-4.6230730367824435e-04" rms="4.8442289233207703e-01" purity="4.6469748020172119e-01" nType="-99"/>
          <Node pos="r" depth="2" NCoef="0" IVar="-1" Cut="0.0000000000000000e+00" cType="1" res="1.7320617334917188e-03" rms="4.5100712776184082e-01" purity="6.9533544778823853e-01" nType="-99"/>
        </Node>
      </Node>
    </BinaryTree>
    <BinaryTree type="DecisionTree" boostWeight="1.0000000000000000e+00" itree="99">
      <Node pos="s" depth="0" NCoef="0" IVar="1" Cut="9.5171904563903809e-01" cType="1" res="1.7378369346261024e-02" rms="4.7713050246238708e-01" purity="5.0040608644485474e-01" nType="0">
        <Node pos="l" depth="1" NCoef="0" IVar="6" Cut="2.6159727573394775e+00" cType="1" res="-4.2471196502447128e-02" rms="4.7525161504745483e-01" purity="3.9564186334609985e-01" nType="0">
          <Node pos="l" depth="2" NCoef="0" IVar="-1" Cut="0.0000000000000000e+00" cType="1" res="-4.6968535752967000e-04" rms="4.8005288839340210e-01" purity="4.1805931925773621e-01" nType="-99"/>
          <Node pos="r" depth="2" NCoef="0" IVar="-1" Cut="0.0000000000000000e+00" cType="1" res="-4.8598088324069977e-03" rms="4.2511263489723206e-01" purity="2.5455397367477417e-01" nType="-99"/>
        </Node>
        <Node pos="r" depth="1" NCoef="0" IVar="2" Cut="3.8218939208984375e+02" cType="1" res="7.7845454216003418e-02" rms="4.7136634588241577e-01" purity="6.0625123977661133e-01" nType="0">
          <Node pos="l" depth="2" NCoef="0" IVar="-1" Cut="0.0000000000000000e+00" cType="1" res="-3.9563502650707960e-04" rms="4.8192423582077026e-01" purity="4.4017735123634338e-01" nType="-99"/>
          <Node pos="r" depth="2" NCoef="0" IVar="-1" Cut="0.0000000000000000e+00" cType="1" res="1.5551139367744327e-03" rms="4.6153089404106140e-01" purity="6.7095363140106201e-01" nType="-99"/>
        </Node>
      </Node>
    </BinaryTree>
    <BinaryTree type="DecisionTree" boostWeight="1.0000000000000000e+00" itree="100">
      <Node pos="s" depth="0" NCoef="0" IVar="1" Cut="9.7854638099670410e-01" cType="1" res="1.6470788046717644e-02" rms="4.7543543577194214e-01" purity="5.0038999319076538e-01" nType="0">
        <Node pos="l" depth="1" NCoef="0" IVar="2" Cut="3.5962454223632812e+02" cType="1" res="-1.0943550616502762e-02" rms="4.7926986217498779e-01" purity="4.5260596275329590e-01" nType="0">
          <Node pos="l" depth="2" NCoef="0" IVar="-1" Cut="0.0000000000000000e+00" cType="1" res="-3.7287841551005840e-03" rms="4.2690962553024292e-01" purity="2.4822434782981873e-01" nType="-99"/>
          <Node pos="r" depth="2" NCoef="0" IVar="-1" Cut="0.0000000000000000e+00" cType="1" res="3.8610066985711455e-04" rms="4.8915204405784607e-01" purity="5.1510059833526611e-01" nType="-99"/>
        </Node>
        <Node pos="r" depth="1" NCoef="0" IVar="-1" Cut="0.0000000000000000e+00" cType="1" res="1.9749873317778111e-03" rms="4.2541316151618958e-01" purity="7.5582563877105713e-01" nType="-99"/>
      </Node>
    </BinaryTree>
    <BinaryTree type="DecisionTree" boostWeight="1.0000000000000000e+00" itree="101">
      <Node pos="s" depth="0" NCoef="0" IVar="1" Cut="9.7813850641250610e-01" cType="1" res="1.4944848604500294e-02" rms="4.7554776072502136e-01" purity="4.9880903959274292e-01" nType="0">
        <Node pos="l" depth="1" NCoef="0" IVar="6" Cut="2.5292279720306396e+00" cType="1" res="-1.4016560278832912e-02" rms="4.7947081923484802e-01" purity="4.4813865423202515e-01" nType="0">
          <Node pos="l" depth="2" NCoef="0" IVar="-1" Cut="0.0000000000000000e+00" cType="1" res="2.1008585463277996e-04" rms="4.8243129253387451e-01" purity="4.7911110520362854e-01" nType="-99"/>
          <Node pos="r" depth="2" NCoef="0" IVar="-1" Cut="0.0000000000000000e+00" cType="1" res="-3.4831501543521881e-03" rms="4.4658794999122620e-01" purity="3.0520045757293701e-01" nType="-99"/>
        </Node>
        <Node pos="r" depth="1" NCoef="0" IVar="-1" Cut="0.0000000000000000e+00" cType="1" res="1.9615390338003635e-03" rms="4.2621883749961853e-01" purity="7.5444799661636353e-01" nType="-99"/>
      </Node>
    </BinaryTree>
    <BinaryTree type="DecisionTree" boostWeight="1.0000000000000000e+00" itree="102">
      <Node pos="s" depth="0" NCoef="0" IVar="1" Cut="9.6989208459854126e-01" cType="1" res="1.8904224038124084e-02" rms="4.7561857104301453e-01" purity="5.0286948680877686e-01" nType="0">
        <Node pos="l" depth="1" NCoef="0" IVar="2" Cut="4.3357388305664062e+02" cType="1" res="-1.8181616440415382e-02" rms="4.7918140888214111e-01" purity="4.3362149596214294e-01" nType="0">
          <Node pos="l" depth="2" NCoef="0" IVar="-1" Cut="0.0000000000000000e+00" cType="1" res="-1.8760655075311661e-03" rms="4.5669665932655334e-01" purity="3.1235438585281372e-01" nType="-99"/>
          <Node pos="r" depth="2" NCoef="0" IVar="-1" Cut="0.0000000000000000e+00" cType="1" res="5.2952807163819671e-04" rms="4.9387046694755554e-01" purity="5.4776245355606079e-01" nType="-99"/>
        </Node>
        <Node pos="r" depth="1" NCoef="0" IVar="1" Cut="9.8491841554641724e-01" cType="1" res="1.2749107182025909e-01" rms="4.4769915938377380e-01" purity="7.0562672615051270e-01" nType="0">
          <Node pos="l" depth="2" NCoef="0" IVar="-1" Cut="0.0000000000000000e+00" cType="1" res="1.1005981359630823e-03" rms="4.7147962450981140e-01" purity="6.4456069469451904e-01" nType="-99"/>
          <Node pos="r" depth="2" NCoef="0" IVar="-1" Cut="0.0000000000000000e+00" cType="1" res="2.2731036879122257e-03" rms="3.9932930469512939e-01" purity="7.9652285575866699e-01" nType="-99"/>
        </Node>
      </Node>
    </BinaryTree>
    <BinaryTree type="DecisionTree" boostWeight="1.0000000000000000e+00" itree="103">
      <Node pos="s" depth="0" NCoef="0" IVar="1" Cut="9.7238570451736450e-01" cType="1" res="1.5323367901146412e-02" rms="4.7646236419677734e-01" purity="4.9790295958518982e-01" nType="0">
        <Node pos="l" depth="1" NCoef="0" IVar="2" Cut="3.4020376586914062e+02" cType="1" res="-1.5793396160006523e-02" rms="4.7990441322326660e-01" purity="4.3840309977531433e-01" nType="0">
          <Node pos="l" depth="2" NCoef="0" IVar="-1" Cut="0.0000000000000000e+00" cType="1" res="-4.2684199288487434e-03" rms="4.1562601923942566e-01" purity="2.2627685964107513e-01" nType="-99"/>
          <Node pos="r" depth="2" NCoef="0" IVar="-1" Cut="0.0000000000000000e+00" cType="1" res="1.4841662778053433e-04" rms="4.8897814750671387e-01" purity="4.8314905166625977e-01" nType="-99"/>
        </Node>
        <Node pos="r" depth="1" NCoef="0" IVar="6" Cut="2.3736071586608887e+00" cType="1" res="1.2646758556365967e-01" rms="4.4659471511840820e-01" purity="7.1042716503143311e-01" nType="0">
          <Node pos="l" depth="2" NCoef="0" IVar="-1" Cut="0.0000000000000000e+00" cType="1" res="1.9715018570423126e-03" rms="4.2798951268196106e-01" purity="7.4851906299591064e-01" nType="-99"/>
          <Node pos="r" depth="2" NCoef="0" IVar="-1" Cut="0.0000000000000000e+00" cType="1" res="4.9921858590096235e-04" rms="4.8080369830131531e-01" purity="6.0845828056335449e-01" nType="-99"/>
        </Node>
      </Node>
    </BinaryTree>
    <BinaryTree type="DecisionTree" boostWeight="1.0000000000000000e+00" itree="104">
      <Node pos="s" depth="0" NCoef="0" IVar="2" Cut="4.0528933715820312e+02" cType="1" res="1.6702972352504730e-02" rms="4.7549682855606079e-01" purity="4.9999722838401794e-01" nType="0">
        <Node pos="l" depth="1" NCoef="0" IVar="1" Cut="9.7246992588043213e-01" cType="1" res="-6.1276428401470184e-02" rms="4.5727318525314331e-01" purity="3.4535723924636841e-01" nType="0">
          <Node pos="l" depth="2" NCoef="0" IVar="-1" Cut="0.0000000000000000e+00" cType="1" res="-2.3349614348262548e-03" rms="4.4696575403213501e-01" purity="2.8681293129920959e-01" nType="-99"/>
          <Node pos="r" depth="2" NCoef="0" IVar="-1" Cut="0.0000000000000000e+00" cType="1" res="5.9733196394518018e-04" rms="4.8549792170524597e-01" purity="5.9276133775711060e-01" nType="-99"/>
        </Node>
        <Node pos="r" depth="1" NCoef="0" IVar="1" Cut="9.5536410808563232e-01" cType="1" res="6.4303845167160034e-02" rms="4.8009985685348511e-01" purity="5.9439390897750854e-01" nType="0">
          <Node pos="l" depth="2" NCoef="0" IVar="-1" Cut="0.0000000000000000e+00" cType="1" res="1.5531973622273654e-04" rms="4.9656683206558228e-01" purity="5.0442141294479370e-01" nType="-99"/>
          <Node pos="r" depth="2" NCoef="0" IVar="-1" Cut="0.0000000000000000e+00" cType="1" res="1.6746320761740208e-03" rms="4.5135200023651123e-01" purity="7.0056968927383423e-01" nType="-99"/>
        </Node>
      </Node>
    </BinaryTree>
    <BinaryTree type="DecisionTree" boostWeight="1.0000000000000000e+00" itree="105">
      <Node pos="s" depth="0" NCoef="0" IVar="1" Cut="9.4842320680618286e-01" cType="1" res="1.8790079280734062e-02" rms="4.7590434551239014e-01" purity="5.0192725658416748e-01" nType="0">
        <Node pos="l" depth="1" NCoef="0" IVar="2" Cut="3.6905532836914062e+02" cType="1" res="-5.1263678818941116e-02" rms="4.7282487154006958e-01" purity="3.8367292284965515e-01" nType="0">
          <Node pos="l" depth="2" NCoef="0" IVar="-1" Cut="0.0000000000000000e+00" cType="1" res="-4.2911265045404434e-03" rms="4.1022792458534241e-01" purity="2.1485292911529541e-01" nType="-99"/>
          <Node pos="r" depth="2" NCoef="0" IVar="-1" Cut="0.0000000000000000e+00" cType="1" res="-4.1396540473215282e-04" rms="4.9265813827514648e-01" purity="4.5121425390243530e-01" nType="-99"/>
        </Node>
        <Node pos="r" depth="1" NCoef="0" IVar="6" Cut="2.5074157714843750e+00" cType="1" res="7.4793934822082520e-02" rms="4.7091493010520935e-01" purity="5.9646463394165039e-01" nType="0">
          <Node pos="l" depth="2" NCoef="0" IVar="-1" Cut="0.0000000000000000e+00" cType="1" res="1.4603578019887209e-03" rms="4.6421945095062256e-01" purity="6.2957030534744263e-01" nType="-99"/>
          <Node pos="r" depth="2" NCoef="0" IVar="-1" Cut="0.0000000000000000e+00" cType="1" res="-1.1453470215201378e-03" rms="4.7920742630958557e-01" purity="4.4036379456520081e-01" nType="-99"/>
        </Node>
      </Node>
    </BinaryTree>
    <BinaryTree type="DecisionTree" boostWeight="1.0000000000000000e+00" itree="106">
      <Node pos="s" depth="0" NCoef="0" IVar="1" Cut="9.3644195795059204e-01" cType="1" res="1.3957019895315170e-02" rms="4.7548216581344604e-01" purity="4.9670904874801636e-01" nType="0">
        <Node pos="l" depth="1" NCoef="0" IVar="2" Cut="4.9948184204101562e+02" cType="1" res="-8.0427482724189758e-02" rms="4.6346706151962280e-01" purity="3.5348162055015564e-01" nType="0">
          <Node pos="l" depth="2" NCoef="0" IVar="-1" Cut="0.0000000000000000e+00" cType="1" res="-3.0716834589838982e-03" rms="4.4115191698074341e-01" purity="2.8039139509201050e-01" nType="-99"/>
          <Node pos="r" depth="2" NCoef="0" IVar="-1" Cut="0.0000000000000000e+00" cType="1" res="-2.7221502386964858e-04" rms="4.9909517168998718e-01" purity="5.0043231248855591e-01" nType="-99"/>
        </Node>
        <Node pos="r" depth="1" NCoef="0" IVar="5" Cut="2.4402626037597656e+02" cType="1" res="5.1319718360900879e-02" rms="4.7500184178352356e-01" purity="5.5340659618377686e-01" nType="0">
          <Node pos="l" depth="2" NCoef="0" IVar="-1" Cut="0.0000000000000000e+00" cType="1" res="-1.3605898711830378e-03" rms="4.6277120709419250e-01" purity="3.6212095618247986e-01" nType="-99"/>
          <Node pos="r" depth="2" NCoef="0" IVar="-1" Cut="0.0000000000000000e+00" cType="1" res="1.2077717110514641e-03" rms="4.7370675206184387e-01" purity="6.0704386234283447e-01" nType="-99"/>
        </Node>
      </Node>
    </BinaryTree>
    <BinaryTree type="DecisionTree" boostWeight="1.0000000000000000e+00" itree="107">
      <Node pos="s" depth="0" NCoef="0" IVar="6" Cut="2.6162910461425781e+00" cType="1" res="1.5645934268832207e-02" rms="4.7524538636207581e-01" purity="4.9925339221954346e-01" nType="0">
        <Node pos="l" depth="1" NCoef="0" IVar="1" Cut="9.6040445566177368e-01" cType="1" res="3.8296997547149658e-02" rms="4.7557815909385681e-01" purity="5.2632629871368408e-01" nType="0">
          <Node pos="l" depth="2" NCoef="0" IVar="-1" Cut="0.0000000000000000e+00" cType="1" res="-1.4977922546677291e-04" rms="4.8178598284721375e-01" purity="4.3618300557136536e-01" nType="-99"/>
          <Node pos="r" depth="2" NCoef="0" IVar="-1" Cut="0.0000000000000000e+00" cType="1" res="1.5316550852730870e-03" rms="4.5513731241226196e-01" purity="6.7473876476287842e-01" nType="-99"/>
        </Node>
        <Node pos="r" depth="1" NCoef="0" IVar="2" Cut="4.3671334838867188e+02" cType="1" res="-1.3920794427394867e-01" rms="4.4295343756675720e-01" purity="3.1416982412338257e-01" nType="0">
          <Node pos="l" depth="2" NCoef="0" IVar="-1" Cut="0.0000000000000000e+00" cType="1" res="-6.1730076558887959e-03" rms="3.9711621403694153e-01" purity="2.1689292788505554e-01" nType="-99"/>
          <Node pos="r" depth="2" NCoef="0" IVar="-1" Cut="0.0000000000000000e+00" cType="1" res="-1.7298335442319512e-03" rms="4.8805126547813416e-01" purity="4.3246129155158997e-01" nType="-99"/>
        </Node>
      </Node>
    </BinaryTree>
    <BinaryTree type="DecisionTree" boostWeight="1.0000000000000000e+00" itree="108">
      <Node pos="s" depth="0" NCoef="0" IVar="1" Cut="9.5737272500991821e-01" cType="1" res="1.4696204103529453e-02" rms="4.7583913803100586e-01" purity="4.9732640385627747e-01" nType="0">
        <Node pos="l" depth="1" NCoef="0" IVar="6" Cut="2.4042940139770508e+00" cType="1" res="-3.4187376499176025e-02" rms="4.7583034634590149e-01" purity="4.0310418605804443e-01" nType="0">
          <Node pos="l" depth="2" NCoef="0" IVar="-1" Cut="0.0000000000000000e+00" cType="1" res="-5.7939607359003276e-05" rms="4.8311617970466614e-01" purity="4.4078251719474792e-01" nType="-99"/>
          <Node pos="r" depth="2" NCoef="0" IVar="-1" Cut="0.0000000000000000e+00" cType="1" res="-2.9406489338725805e-03" rms="4.4677811861038208e-01" purity="3.0642169713973999e-01" nType="-99"/>
        </Node>
        <Node pos="r" depth="1" NCoef="0" IVar="2" Cut="3.5911688232421875e+02" cType="1" res="8.4772177040576935e-02" rms="4.6701034903526306e-01" purity="6.3239663839340210e-01" nType="0">
          <Node pos="l" depth="2" NCoef="0" IVar="-1" Cut="0.0000000000000000e+00" cType="1" res="-5.2962295012548566e-04" rms="4.8490980267524719e-01" purity="4.4846650958061218e-01" nType="-99"/>
          <Node pos="r" depth="2" NCoef="0" IVar="-1" Cut="0.0000000000000000e+00" cType="1" res="1.5088315121829510e-03" rms="4.5790523290634155e-01" purity="6.7910200357437134e-01" nType="-99"/>
        </Node>
      </Node>
    </BinaryTree>
    <BinaryTree type="DecisionTree" boostWeight="1.0000000000000000e+00" itree="109">
      <Node pos="s" depth="0" NCoef="0" IVar="1" Cut="9.3644195795059204e-01" cType="1" res="1.7329376190900803e-02" rms="4.7536498308181763e-01" purity="5.0018131732940674e-01" nType="0">
        <Node pos="l" depth="1" NCoef="0" IVar="2" Cut="5.5387561035156250e+02" cType="1" res="-7.7437959611415863e-02" rms="4.6333283185958862e-01" purity="3.5506853461265564e-01" nType="0">
          <Node pos="l" depth="2" NCoef="0" IVar="-1" Cut="0.0000000000000000e+00" cType="1" res="-2.7355756610631943e-03" rms="4.4847738742828369e-01" purity="3.0117467045783997e-01" nType="-99"/>
          <Node pos="r" depth="2" NCoef="0" IVar="-1" Cut="0.0000000000000000e+00" cType="1" res="2.3849535500630736e-04" rms="4.9821454286575317e-01" purity="5.3233253955841064e-01" nType="-99"/>
        </Node>
        <Node pos="r" depth="1" NCoef="0" IVar="6" Cut="2.4539015293121338e+00" cType="1" res="5.4592847824096680e-02" rms="4.7486108541488647e-01" purity="5.5724114179611206e-01" nType="0">
          <Node pos="l" depth="2" NCoef="0" IVar="-1" Cut="0.0000000000000000e+00" cType="1" res="1.2727556750178337e-03" rms="4.6974736452102661e-01" purity="5.9529602527618408e-01" nType="-99"/>
          <Node pos="r" depth="2" NCoef="0" IVar="-1" Cut="0.0000000000000000e+00" cType="1" res="-1.1354063171893358e-03" rms="4.7642338275909424e-01" purity="4.2143163084983826e-01" nType="-99"/>
        </Node>
      </Node>
    </BinaryTree>
    <BinaryTree type="DecisionTree" boostWeight="1.0000000000000000e+00" itree="110">
      <Node pos="s" depth="0" NCoef="0" IVar="1" Cut="9.7843420505523682e-01" cType="1" res="2.0143482834100723e-02" rms="4.7461208701133728e-01" purity="5.0383561849594116e-01" nType="0">
        <Node pos="l" depth="1" NCoef="0" IVar="2" Cut="5.6006939697265625e+02" cType="1" res="-5.7614208199083805e-03" rms="4.7919493913650513e-01" purity="4.5543110370635986e-01" nType="0">
          <Node pos="l" depth="2" NCoef="0" IVar="-1" Cut="0.0000000000000000e+00" cType="1" res="-7.4721459532156587e-04" rms="4.7478693723678589e-01" purity="4.0149608254432678e-01" nType="-99"/>
          <Node pos="r" depth="2" NCoef="0" IVar="-1" Cut="0.0000000000000000e+00" cType="1" res="1.3120040530338883e-03" rms="4.8026078939437866e-01" purity="6.2702345848083496e-01" nType="-99"/>
        </Node>
        <Node pos="r" depth="1" NCoef="0" IVar="-1" Cut="0.0000000000000000e+00" cType="1" res="1.8809603061527014e-03" rms="4.2575752735137939e-01" purity="7.5401502847671509e-01" nType="-99"/>
      </Node>
    </BinaryTree>
    <BinaryTree type="DecisionTree" boostWeight="1.0000000000000000e+00" itree="111">
      <Node pos="s" depth="0" NCoef="0" IVar="2" Cut="3.9069430541992188e+02" cType="1" res="1.4665843918919563e-02" rms="4.7500380873680115e-01" purity="4.9714902043342590e-01" nType="0">
        <Node pos="l" depth="1" NCoef="0" IVar="1" Cut="9.7017204761505127e-01" cType="1" res="-6.7039236426353455e-02" rms="4.5153367519378662e-01" purity="3.3027985692024231e-01" nType="0">
          <Node pos="l" depth="2" NCoef="0" IVar="-1" Cut="0.0000000000000000e+00" cType="1" res="-2.6920412201434374e-03" rms="4.3773484230041504e-01" purity="2.6629602909088135e-01" nType="-99"/>
          <Node pos="r" depth="2" NCoef="0" IVar="-1" Cut="0.0000000000000000e+00" cType="1" res="3.8493337342515588e-04" rms="4.8841029405593872e-01" purity="5.6698477268218994e-01" nType="-99"/>
        </Node>
        <Node pos="r" depth="1" NCoef="0" IVar="1" Cut="9.4329077005386353e-01" cType="1" res="5.5496022105216980e-02" rms="4.8113667964935303e-01" purity="5.8053785562515259e-01" nType="0">
          <Node pos="l" depth="2" NCoef="0" IVar="-1" Cut="0.0000000000000000e+00" cType="1" res="-4.3783508590422571e-04" rms="4.9407425522804260e-01" purity="4.6080771088600159e-01" nType="-99"/>
          <Node pos="r" depth="2" NCoef="0" IVar="-1" Cut="0.0000000000000000e+00" cType="1" res="1.3602910330519080e-03" rms="4.6828141808509827e-01" purity="6.4592140913009644e-01" nType="-99"/>
        </Node>
      </Node>
    </BinaryTree>
    <BinaryTree type="DecisionTree" boostWeight="1.0000000000000000e+00" itree="112">
      <Node pos="s" depth="0" NCoef="0" IVar="1" Cut="9.6939039230346680e-01" cType="1" res="1.9230721518397331e-02" rms="4.7448492050170898e-01" purity="5.0286126136779785e-01" nType="0">
        <Node pos="l" depth="1" NCoef="0" IVar="2" Cut="5.3701959228515625e+02" cType="1" res="-1.6743551939725876e-02" rms="4.7859436273574829e-01" purity="4.3195611238479614e-01" nType="0">
          <Node pos="l" depth="2" NCoef="0" IVar="-1" Cut="0.0000000000000000e+00" cType="1" res="-1.0392137337476015e-03" rms="4.7109219431877136e-01" purity="3.7172752618789673e-01" nType="-99"/>
          <Node pos="r" depth="2" NCoef="0" IVar="-1" Cut="0.0000000000000000e+00" cType="1" res="9.7745691891759634e-04" rms="4.8887425661087036e-01" purity="5.9353220462799072e-01" nType="-99"/>
        </Node>
        <Node pos="r" depth="1" NCoef="0" IVar="2" Cut="3.7498568725585938e+02" cType="1" res="1.2168348580598831e-01" rms="4.4698917865753174e-01" purity="7.0479518175125122e-01" nType="0">
          <Node pos="l" depth="2" NCoef="0" IVar="-1" Cut="0.0000000000000000e+00" cType="1" res="2.9418320627883077e-04" rms="4.9076917767524719e-01" purity="5.5286610126495361e-01" nType="-99"/>
          <Node pos="r" depth="2" NCoef="0" IVar="-1" Cut="0.0000000000000000e+00" cType="1" res="1.8741531530395150e-03" rms="4.2795187234878540e-01" purity="7.5096529722213745e-01" nType="-99"/>
        </Node>
      </Node>
    </BinaryTree>
    <BinaryTree type="DecisionTree" boostWeight="1.0000000000000000e+00" itree="113">
      <Node pos="s" depth="0" NCoef="0" IVar="6" Cut="2.5077967643737793e+00" cType="1" res="1.2008353136479855e-02" rms="4.7581997513771057e-01" purity="4.9431976675987244e-01" nType="0">
        <Node pos="l" depth="1" NCoef="0" IVar="1" Cut="9.3694835901260376e-01" cType="1" res="3.8732301443815231e-02" rms="4.7654429078102112e-01" purity="5.2717614173889160e-01" nType="0">
          <Node pos="l" depth="2" NCoef="0" IVar="-1" Cut="0.0000000000000000e+00" cType="1" res="-9.6504500834271312e-04" rms="4.7483754158020020e-01" purity="3.9114338159561157e-01" nType="-99"/>
          <Node pos="r" depth="2" NCoef="0" IVar="-1" Cut="0.0000000000000000e+00" cType="1" res="1.1023613624274731e-03" rms="4.7302812337875366e-01" purity="5.8147782087326050e-01" nType="-99"/>
        </Node>
        <Node pos="r" depth="1" NCoef="0" IVar="2" Cut="4.8108322143554688e+02" cType="1" res="-1.0352164506912231e-01" rms="4.5495930314064026e-01" purity="3.5227888822555542e-01" nType="0">
          <Node pos="l" depth="2" NCoef="0" IVar="-1" Cut="0.0000000000000000e+00" cType="1" res="-4.3296804651618004e-03" rms="4.2642831802368164e-01" purity="2.6729869842529297e-01" nType="-99"/>
          <Node pos="r" depth="2" NCoef="0" IVar="-1" Cut="0.0000000000000000e+00" cType="1" res="-4.0883556357584894e-04" rms="4.9288663268089294e-01" purity="5.0711709260940552e-01" nType="-99"/>
        </Node>
      </Node>
    </BinaryTree>
    <BinaryTree type="DecisionTree" boostWeight="1.0000000000000000e+00" itree="114">
      <Node pos="s" depth="0" NCoef="0" IVar="1" Cut="9.7552478313446045e-01" cType="1" res="1.8344527110457420e-02" rms="4.7448098659515381e-01" purity="5.0123298168182373e-01" nType="0">
        <Node pos="l" depth="1" NCoef="0" IVar="2" Cut="5.2728631591796875e+02" cType="1" res="-9.4497138634324074e-03" rms="4.7895583510398865e-01" purity="4.4686385989189148e-01" nType="0">
          <Node pos="l" depth="2" NCoef="0" IVar="-1" Cut="0.0000000000000000e+00" cType="1" res="-9.0595701476559043e-04" rms="4.7250658273696899e-01" purity="3.8236981630325317e-01" nType="-99"/>
          <Node pos="r" depth="2" NCoef="0" IVar="-1" Cut="0.0000000000000000e+00" cType="1" res="1.0400720639154315e-03" rms="4.8514938354492188e-01" purity="6.0497683286666870e-01" nType="-99"/>
        </Node>
        <Node pos="r" depth="1" NCoef="0" IVar="2" Cut="4.2022238159179688e+02" cType="1" res="1.3818262517452240e-01" rms="4.3479269742965698e-01" purity="7.3565155267715454e-01" nType="0">
          <Node pos="l" depth="2" NCoef="0" IVar="-1" Cut="0.0000000000000000e+00" cType="1" res="9.3373545678332448e-04" rms="4.7766551375389099e-01" purity="6.3426321744918823e-01" nType="-99"/>
          <Node pos="r" depth="2" NCoef="0" IVar="-1" Cut="0.0000000000000000e+00" cType="1" res="2.1188170649111271e-03" rms="4.0170496702194214e-01" purity="7.9492491483688354e-01" nType="-99"/>
        </Node>
      </Node>
    </BinaryTree>
    <BinaryTree type="DecisionTree" boostWeight="1.0000000000000000e+00" itree="115">
      <Node pos="s" depth="0" NCoef="0" IVar="1" Cut="9.5141851902008057e-01" cType="1" res="2.1838761866092682e-02" rms="4.7456759214401245e-01" purity="5.0506633520126343e-01" nType="0">
        <Node pos="l" depth="1" NCoef="0" IVar="6" Cut="2.4652817249298096e+00" cType="1" res="-3.5902954638004303e-02" rms="4.7356104850769043e-01" purity="3.9705038070678711e-01" nType="0">
          <Node pos="l" depth="2" NCoef="0" IVar="-1" Cut="0.0000000000000000e+00" cType="1" res="-2.0089863392058760e-04" rms="4.8031064867973328e-01" purity="4.3011608719825745e-01" nType="-99"/>
          <Node pos="r" depth="2" NCoef="0" IVar="-1" Cut="0.0000000000000000e+00" cType="1" res="-3.4307665191590786e-03" rms="4.3913859128952026e-01" purity="2.8551775217056274e-01" nType="-99"/>
        </Node>
        <Node pos="r" depth="1" NCoef="0" IVar="2" Cut="5.3880541992187500e+02" cType="1" res="7.8840203583240509e-02" rms="4.6863201260566711e-01" purity="6.1169743537902832e-01" nType="0">
          <Node pos="l" depth="2" NCoef="0" IVar="-1" Cut="0.0000000000000000e+00" cType="1" res="6.8422016920521855e-04" rms="4.7887861728668213e-01" purity="5.5623012781143188e-01" nType="-99"/>
          <Node pos="r" depth="2" NCoef="0" IVar="-1" Cut="0.0000000000000000e+00" cType="1" res="2.0357544999569654e-03" rms="4.3164253234863281e-01" purity="7.4386376142501831e-01" nType="-99"/>
        </Node>
      </Node>
    </BinaryTree>
    <BinaryTree type="DecisionTree" boostWeight="1.0000000000000000e+00" itree="116">
      <Node pos="s" depth="0" NCoef="0" IVar="1" Cut="9.7830855846405029e-01" cType="1" res="1.5159562230110168e-02" rms="4.7376257181167603e-01" purity="4.9839359521865845e-01" nType="0">
        <Node pos="l" depth="1" NCoef="0" IVar="2" Cut="4.0528933715820312e+02" cType="1" res="-1.0580618865787983e-02" rms="4.7804129123687744e-01" purity="4.4915539026260376e-01" nType="0">
          <Node pos="l" depth="2" NCoef="0" IVar="-1" Cut="0.0000000000000000e+00" cType="1" res="-2.1033179946243763e-03" rms="4.4888147711753845e-01" purity="2.9777011275291443e-01" nType="-99"/>
          <Node pos="r" depth="2" NCoef="0" IVar="-1" Cut="0.0000000000000000e+00" cType="1" res="5.2856403635814786e-04" rms="4.9108335375785828e-01" purity="5.4731553792953491e-01" nType="-99"/>
        </Node>
        <Node pos="r" depth="1" NCoef="0" IVar="-1" Cut="0.0000000000000000e+00" cType="1" res="1.8003636505454779e-03" rms="4.2758113145828247e-01" purity="7.5054967403411865e-01" nType="-99"/>
      </Node>
    </BinaryTree>
    <BinaryTree type="DecisionTree" boostWeight="1.0000000000000000e+00" itree="117">
      <Node pos="s" depth="0" NCoef="0" IVar="1" Cut="9.7795951366424561e-01" cType="1" res="1.8586639314889908e-02" rms="4.7458317875862122e-01" purity="5.0117319822311401e-01" nType="0">
        <Node pos="l" depth="1" NCoef="0" IVar="2" Cut="3.5962454223632812e+02" cType="1" res="-5.9950891882181168e-03" rms="4.7921487689018250e-01" purity="4.5278504490852356e-01" nType="0">
          <Node pos="l" depth="2" NCoef="0" IVar="-1" Cut="0.0000000000000000e+00" cType="1" res="-3.1136800535023212e-03" rms="4.3165457248687744e-01" purity="2.5458225607872009e-01" nType="-99"/>
          <Node pos="r" depth="2" NCoef="0" IVar="-1" Cut="0.0000000000000000e+00" cType="1" res="4.0104184881784022e-04" rms="4.8916581273078918e-01" purity="5.1419669389724731e-01" nType="-99"/>
        </Node>
        <Node pos="r" depth="1" NCoef="0" IVar="-1" Cut="0.0000000000000000e+00" cType="1" res="1.7693191766738892e-03" rms="4.2880219221115112e-01" purity="7.4807775020599365e-01" nType="-99"/>
      </Node>
    </BinaryTree>
    <BinaryTree type="DecisionTree" boostWeight="1.0000000000000000e+00" itree="118">
      <Node pos="s" depth="0" NCoef="0" IVar="1" Cut="9.7837632894515991e-01" cType="1" res="1.7470696941018105e-02" rms="4.7420999407768250e-01" purity="5.0015509128570557e-01" nType="0">
        <Node pos="l" depth="1" NCoef="0" IVar="6" Cut="2.5234251022338867e+00" cType="1" res="-8.7008746340870857e-03" rms="4.7900837659835815e-01" purity="4.5044285058975220e-01" nType="0">
          <Node pos="l" depth="2" NCoef="0" IVar="-1" Cut="0.0000000000000000e+00" cType="1" res="2.3744923237245530e-04" rms="4.8225155472755432e-01" purity="4.7922831773757935e-01" nType="-99"/>
          <Node pos="r" depth="2" NCoef="0" IVar="-1" Cut="0.0000000000000000e+00" cType="1" res="-2.6511517353355885e-03" rms="4.5206615328788757e-01" purity="3.2440280914306641e-01" nType="-99"/>
        </Node>
        <Node pos="r" depth="1" NCoef="0" IVar="-1" Cut="0.0000000000000000e+00" cType="1" res="1.8792010378092527e-03" rms="4.2320522665977478e-01" purity="7.5827819108963013e-01" nType="-99"/>
      </Node>
    </BinaryTree>
    <BinaryTree type="DecisionTree" boostWeight="1.0000000000000000e+00" itree="119">
      <Node pos="s" depth="0" NCoef="0" IVar="1" Cut="9.4320285320281982e-01" cType="1" res="1.5427946113049984e-02" rms="4.7458443045616150e-01" purity="4.9840685725212097e-01" nType="0">
        <Node pos="l" depth="1" NCoef="0" IVar="2" Cut="6.0656018066406250e+02" cType="1" res="-5.5329840630292892e-02" rms="4.6871232986450195e-01" purity="3.7536549568176270e-01" nType="0">
          <Node pos="l" depth="2" NCoef="0" IVar="-1" Cut="0.0000000000000000e+00" cType="1" res="-1.8070397200062871e-03" rms="4.6031352877616882e-01" purity="3.3585929870605469e-01" nType="-99"/>
          <Node pos="r" depth="2" NCoef="0" IVar="-1" Cut="0.0000000000000000e+00" cType="1" res="6.8418425507843494e-04" rms="4.9511817097663879e-01" purity="5.6393092870712280e-01" nType="-99"/>
        </Node>
        <Node pos="r" depth="1" NCoef="0" IVar="6" Cut="2.5316112041473389e+00" cType="1" res="5.6872058659791946e-02" rms="4.7310107946395874e-01" purity="5.7047444581985474e-01" nType="0">
          <Node pos="l" depth="2" NCoef="0" IVar="-1" Cut="0.0000000000000000e+00" cType="1" res="1.1942778946831822e-03" rms="4.6912956237792969e-01" purity="6.0051673650741577e-01" nType="-99"/>
          <Node pos="r" depth="2" NCoef="0" IVar="-1" Cut="0.0000000000000000e+00" cType="1" res="-1.3599001104012132e-03" rms="4.7426599264144897e-01" purity="4.1547581553459167e-01" nType="-99"/>
        </Node>
      </Node>
    </BinaryTree>
    <BinaryTree type="DecisionTree" boostWeight="1.0000000000000000e+00" itree="120">
      <Node pos="s" depth="0" NCoef="0" IVar="1" Cut="9.8162543773651123e-01" cType="1" res="1.8999429419636726e-02" rms="4.7468373179435730e-01" purity="5.0183987617492676e-01" nType="0">
        <Node pos="l" depth="1" NCoef="0" IVar="6" Cut="2.5280437469482422e+00" cType="1" res="-1.8497174605727196e-03" rms="4.7898834943771362e-01" purity="4.6239283680915833e-01" nType="0">
          <Node pos="l" depth="2" NCoef="0" IVar="-1" Cut="0.0000000000000000e+00" cType="1" res="3.7973991129547358e-04" rms="4.8168686032295227e-01" purity="4.9308410286903381e-01" nType="-99"/>
          <Node pos="r" depth="2" NCoef="0" IVar="-1" Cut="0.0000000000000000e+00" cType="1" res="-2.6939602103084326e-03" rms="4.5185887813568115e-01" purity="3.2504898309707642e-01" nType="-99"/>
        </Node>
        <Node pos="r" depth="1" NCoef="0" IVar="-1" Cut="0.0000000000000000e+00" cType="1" res="1.9335193792358041e-03" rms="4.1863411664962769e-01" purity="7.6666659116744995e-01" nType="-99"/>
      </Node>
    </BinaryTree>
    <BinaryTree type="DecisionTree" boostWeight="1.0000000000000000e+00" itree="121">
      <Node pos="s" depth="0" NCoef="0" IVar="1" Cut="9.8417556285858154e-01" cType="1" res="1.2945099733769894e-02" rms="4.7392892837524414e-01" purity="4.9580782651901245e-01" nType="0">
        <Node pos="l" depth="1" NCoef="0" IVar="2" Cut="3.4647622680664062e+02" cType="1" res="-6.2136915512382984e-03" rms="4.7758886218070984e-01" purity="4.6149426698684692e-01" nType="0">
          <Node pos="l" depth="2" NCoef="0" IVar="-1" Cut="0.0000000000000000e+00" cType="1" res="-3.7547587417066097e-03" rms="4.2356383800506592e-01" purity="2.4459381401538849e-01" nType="-99"/>
          <Node pos="r" depth="2" NCoef="0" IVar="-1" Cut="0.0000000000000000e+00" cType="1" res="3.4048233646899462e-04" rms="4.8554816842079163e-01" purity="5.1198625564575195e-01" nType="-99"/>
        </Node>
        <Node pos="r" depth="1" NCoef="0" IVar="-1" Cut="0.0000000000000000e+00" cType="1" res="2.0460458472371101e-03" rms="4.0814465284347534e-01" purity="7.8332388401031494e-01" nType="-99"/>
      </Node>
    </BinaryTree>
    <BinaryTree type="DecisionTree" boostWeight="1.0000000000000000e+00" itree="122">
      <Node pos="s" depth="0" NCoef="0" IVar="1" Cut="9.7837632894515991e-01" cType="1" res="1.6028033569455147e-02" rms="4.7403189539909363e-01" purity="4.9876776337623596e-01" nType="0">
        <Node pos="l" depth="1" NCoef="0" IVar="2" Cut="3.3829620361328125e+02" cType="1" res="-7.8559406101703644e-03" rms="4.7842639684677124e-01" purity="4.5114067196846008e-01" nType="0">
          <Node pos="l" depth="2" NCoef="0" IVar="-1" Cut="0.0000000000000000e+00" cType="1" res="-3.9187213405966759e-03" rms="4.1730254888534546e-01" purity="2.3227049410343170e-01" nType="-99"/>
          <Node pos="r" depth="2" NCoef="0" IVar="-1" Cut="0.0000000000000000e+00" cType="1" res="2.5367911439388990e-04" rms="4.8662960529327393e-01" purity="4.9490571022033691e-01" nType="-99"/>
        </Node>
        <Node pos="r" depth="1" NCoef="0" IVar="-1" Cut="0.0000000000000000e+00" cType="1" res="1.7551498021930456e-03" rms="4.2910593748092651e-01" purity="7.4828839302062988e-01" nType="-99"/>
      </Node>
    </BinaryTree>
    <BinaryTree type="DecisionTree" boostWeight="1.0000000000000000e+00" itree="123">
      <Node pos="s" depth="0" NCoef="0" IVar="1" Cut="9.6332895755767822e-01" cType="1" res="1.5798103064298630e-02" rms="4.7333359718322754e-01" purity="4.9910271167755127e-01" nType="0">
        <Node pos="l" depth="1" NCoef="0" IVar="6" Cut="2.6203904151916504e+00" cType="1" res="-2.6279797777533531e-02" rms="4.7606346011161804e-01" purity="4.1277998685836792e-01" nType="0">
          <Node pos="l" depth="2" NCoef="0" IVar="-1" Cut="0.0000000000000000e+00" cType="1" res="-1.4105641457717866e-04" rms="4.8054882884025574e-01" purity="4.3724128603935242e-01" nType="-99"/>
          <Node pos="r" depth="2" NCoef="0" IVar="-1" Cut="0.0000000000000000e+00" cType="1" res="-4.5522847212851048e-03" rms="4.2629471421241760e-01" purity="2.5514492392539978e-01" nType="-99"/>
        </Node>
        <Node pos="r" depth="1" NCoef="0" IVar="1" Cut="9.8520916700363159e-01" cType="1" res="9.8881781101226807e-02" rms="4.5664909482002258e-01" purity="6.6954874992370605e-01" nType="0">
          <Node pos="l" depth="2" NCoef="0" IVar="-1" Cut="0.0000000000000000e+00" cType="1" res="9.0006570098921657e-04" rms="4.7497653961181641e-01" purity="6.1400175094604492e-01" nType="-99"/>
          <Node pos="r" depth="2" NCoef="0" IVar="-1" Cut="0.0000000000000000e+00" cType="1" res="2.1475171670317650e-03" rms="3.9789900183677673e-01" purity="7.9778707027435303e-01" nType="-99"/>
        </Node>
      </Node>
    </BinaryTree>
    <BinaryTree type="DecisionTree" boostWeight="1.0000000000000000e+00" itree="124">
      <Node pos="s" depth="0" NCoef="0" IVar="1" Cut="9.7866010665893555e-01" cType="1" res="1.9913738593459129e-02" rms="4.7388926148414612e-01" purity="5.0266271829605103e-01" nType="0">
        <Node pos="l" depth="1" NCoef="0" IVar="2" Cut="3.8561947631835938e+02" cType="1" res="-2.3081058170646429e-03" rms="4.7845262289047241e-01" purity="4.5733228325843811e-01" nType="0">
          <Node pos="l" depth="2" NCoef="0" IVar="-1" Cut="0.0000000000000000e+00" cType="1" res="-2.0512670744210482e-03" rms="4.4538086652755737e-01" purity="2.8931650519371033e-01" nType="-99"/>
          <Node pos="r" depth="2" NCoef="0" IVar="-1" Cut="0.0000000000000000e+00" cType="1" res="5.1653262926265597e-04" rms="4.8984384536743164e-01" purity="5.3811347484588623e-01" nType="-99"/>
        </Node>
        <Node pos="r" depth="1" NCoef="0" IVar="-1" Cut="0.0000000000000000e+00" cType="1" res="1.7534423386678100e-03" rms="4.2833018302917480e-01" purity="7.4998182058334351e-01" nType="-99"/>
      </Node>
    </BinaryTree>
    <BinaryTree type="DecisionTree" boostWeight="1.0000000000000000e+00" itree="125">
      <Node pos="s" depth="0" NCoef="0" IVar="1" Cut="9.7836017608642578e-01" cType="1" res="1.7862794920802116e-02" rms="4.7389289736747742e-01" purity="5.0050544738769531e-01" nType="0">
        <Node pos="l" depth="1" NCoef="0" IVar="5" Cut="2.6806390380859375e+02" cType="1" res="-6.6805547103285789e-03" rms="4.7892677783966064e-01" purity="4.5104363560676575e-01" nType="0">
          <Node pos="l" depth="2" NCoef="0" IVar="-1" Cut="0.0000000000000000e+00" cType="1" res="-1.7852318705990911e-03" rms="4.5059469342231750e-01" purity="3.0953335762023926e-01" nType="-99"/>
          <Node pos="r" depth="2" NCoef="0" IVar="-1" Cut="0.0000000000000000e+00" cType="1" res="4.4359327876009047e-04" rms="4.9044814705848694e-01" purity="5.2825808525085449e-01" nType="-99"/>
        </Node>
        <Node pos="r" depth="1" NCoef="0" IVar="-1" Cut="0.0000000000000000e+00" cType="1" res="1.7619179561734200e-03" rms="4.2562100291252136e-01" purity="7.5370162725448608e-01" nType="-99"/>
      </Node>
    </BinaryTree>
    <BinaryTree type="DecisionTree" boostWeight="1.0000000000000000e+00" itree="126">
      <Node pos="s" depth="0" NCoef="0" IVar="1" Cut="9.7834503650665283e-01" cType="1" res="1.6586039215326309e-02" rms="4.7275575995445251e-01" purity="5.0018477439880371e-01" nType="0">
        <Node pos="l" depth="1" NCoef="0" IVar="2" Cut="4.3615136718750000e+02" cType="1" res="-8.5500665009021759e-03" rms="4.7770345211029053e-01" purity="4.4984501600265503e-01" nType="0">
          <Node pos="l" depth="2" NCoef="0" IVar="-1" Cut="0.0000000000000000e+00" cType="1" res="-1.5060050645843148e-03" rms="4.5893839001655579e-01" purity="3.2749560475349426e-01" nType="-99"/>
          <Node pos="r" depth="2" NCoef="0" IVar="-1" Cut="0.0000000000000000e+00" cType="1" res="6.4259849023073912e-04" rms="4.8968011140823364e-01" purity="5.6639784574508667e-01" nType="-99"/>
        </Node>
        <Node pos="r" depth="1" NCoef="0" IVar="-1" Cut="0.0000000000000000e+00" cType="1" res="1.7658332362771034e-03" rms="4.2457827925682068e-01" purity="7.5517088174819946e-01" nType="-99"/>
      </Node>
    </BinaryTree>
    <BinaryTree type="DecisionTree" boostWeight="1.0000000000000000e+00" itree="127">
      <Node pos="s" depth="0" NCoef="0" IVar="1" Cut="9.7843420505523682e-01" cType="1" res="1.8304571509361267e-02" rms="4.7377941012382507e-01" purity="5.0098621845245361e-01" nType="0">
        <Node pos="l" depth="1" NCoef="0" IVar="2" Cut="5.4612988281250000e+02" cType="1" res="-4.7103404067456722e-03" rms="4.7860410809516907e-01" purity="4.5338672399520874e-01" nType="0">
          <Node pos="l" depth="2" NCoef="0" IVar="-1" Cut="0.0000000000000000e+00" cType="1" res="-6.8299158010631800e-04" rms="4.7406449913978577e-01" purity="3.9678904414176941e-01" nType="-99"/>
          <Node pos="r" depth="2" NCoef="0" IVar="-1" Cut="0.0000000000000000e+00" cType="1" res="1.0853100102394819e-03" rms="4.8257371783256531e-01" purity="6.1389201879501343e-01" nType="-99"/>
        </Node>
        <Node pos="r" depth="1" NCoef="0" IVar="-1" Cut="0.0000000000000000e+00" cType="1" res="1.7140473937615752e-03" rms="4.2785933613777161e-01" purity="7.5043547153472900e-01" nType="-99"/>
      </Node>
    </BinaryTree>
    <BinaryTree type="DecisionTree" boostWeight="1.0000000000000000e+00" itree="128">
      <Node pos="s" depth="0" NCoef="0" IVar="1" Cut="9.6359241008758545e-01" cType="1" res="1.7806559801101685e-02" rms="4.7338780760765076e-01" purity="5.0048243999481201e-01" nType="0">
        <Node pos="l" depth="1" NCoef="0" IVar="6" Cut="2.5253326892852783e+00" cType="1" res="-1.9201328977942467e-02" rms="4.7624507546424866e-01" purity="4.1983431577682495e-01" nType="0">
          <Node pos="l" depth="2" NCoef="0" IVar="-1" Cut="0.0000000000000000e+00" cType="1" res="5.7507382734911516e-05" rms="4.8156127333641052e-01" purity="4.4969418644905090e-01" nType="-99"/>
          <Node pos="r" depth="2" NCoef="0" IVar="-1" Cut="0.0000000000000000e+00" cType="1" res="-3.3139267470687628e-03" rms="4.3851068615913391e-01" purity="2.8741782903671265e-01" nType="-99"/>
        </Node>
        <Node pos="r" depth="1" NCoef="0" IVar="2" Cut="5.4605334472656250e+02" cType="1" res="9.3765027821063995e-02" rms="4.5819878578186035e-01" purity="6.6601216793060303e-01" nType="0">
          <Node pos="l" depth="2" NCoef="0" IVar="-1" Cut="0.0000000000000000e+00" cType="1" res="8.2801328971982002e-04" rms="4.7408467531204224e-01" purity="6.1427277326583862e-01" nType="-99"/>
          <Node pos="r" depth="2" NCoef="0" IVar="-1" Cut="0.0000000000000000e+00" cType="1" res="2.1573887206614017e-03" rms="4.0519303083419800e-01" purity="7.8841704130172729e-01" nType="-99"/>
        </Node>
      </Node>
    </BinaryTree>
    <BinaryTree type="DecisionTree" boostWeight="1.0000000000000000e+00" itree="129">
      <Node pos="s" depth="0" NCoef="0" IVar="1" Cut="9.4914233684539795e-01" cType="1" res="1.8770173192024231e-02" rms="4.7325176000595093e-01" purity="5.0191920995712280e-01" nType="0">
        <Node pos="l" depth="1" NCoef="0" IVar="2" Cut="6.3745947265625000e+02" cType="1" res="-4.1450377553701401e-02" rms="4.7067019343376160e-01" purity="3.8875490427017212e-01" nType="0">
          <Node pos="l" depth="2" NCoef="0" IVar="-1" Cut="0.0000000000000000e+00" cType="1" res="-1.4351762365549803e-03" rms="4.6415460109710693e-01" purity="3.5136783123016357e-01" nType="-99"/>
          <Node pos="r" depth="2" NCoef="0" IVar="-1" Cut="0.0000000000000000e+00" cType="1" res="1.1155541287735105e-03" rms="4.8949265480041504e-01" purity="5.9747189283370972e-01" nType="-99"/>
        </Node>
        <Node pos="r" depth="1" NCoef="0" IVar="6" Cut="2.3384625911712646e+00" cType="1" res="6.9566905498504639e-02" rms="4.6945008635520935e-01" purity="5.9737461805343628e-01" nType="0">
          <Node pos="l" depth="2" NCoef="0" IVar="-1" Cut="0.0000000000000000e+00" cType="1" res="1.4576609246432781e-03" rms="4.5995846390724182e-01" purity="6.4036637544631958e-01" nType="-99"/>
          <Node pos="r" depth="2" NCoef="0" IVar="-1" Cut="0.0000000000000000e+00" cType="1" res="-2.4962191673694178e-05" rms="4.8087313771247864e-01" purity="5.0806361436843872e-01" nType="-99"/>
        </Node>
      </Node>
    </BinaryTree>
    <BinaryTree type="DecisionTree" boostWeight="1.0000000000000000e+00" itree="130">
      <Node pos="s" depth="0" NCoef="0" IVar="6" Cut="2.5280437469482422e+00" cType="1" res="1.4755245298147202e-02" rms="4.7307917475700378e-01" purity="4.9773055315017700e-01" nType="0">
        <Node pos="l" depth="1" NCoef="0" IVar="1" Cut="9.6617990732192993e-01" cType="1" res="3.9451457560062408e-02" rms="4.7375348210334778e-01" purity="5.3026932477951050e-01" nType="0">
          <Node pos="l" depth="2" NCoef="0" IVar="-1" Cut="0.0000000000000000e+00" cType="1" res="6.7944281909149140e-05" rms="4.8155164718627930e-01" purity="4.5289435982704163e-01" nType="-99"/>
          <Node pos="r" depth="2" NCoef="0" IVar="-1" Cut="0.0000000000000000e+00" cType="1" res="1.5787220327183604e-03" rms="4.4451937079429626e-01" purity="7.0804858207702637e-01" nType="-99"/>
        </Node>
        <Node pos="r" depth="1" NCoef="0" IVar="4" Cut="1.0204601287841797e-01" cType="1" res="-1.0234276950359344e-01" rms="4.5185485482215881e-01" purity="3.4344688057899475e-01" nType="0">
          <Node pos="l" depth="2" NCoef="0" IVar="-1" Cut="0.0000000000000000e+00" cType="1" res="-1.5776102663949132e-03" rms="4.5761156082153320e-01" purity="3.7443539500236511e-01" nType="-99"/>
          <Node pos="r" depth="2" NCoef="0" IVar="-1" Cut="0.0000000000000000e+00" cType="1" res="-5.2424934692680836e-03" rms="4.2843091487884521e-01" purity="2.7026414871215820e-01" nType="-99"/>
        </Node>
      </Node>
    </BinaryTree>
    <BinaryTree type="DecisionTree" boostWeight="1.0000000000000000e+00" itree="131">
      <Node pos="s" depth="0" NCoef="0" IVar="6" Cut="2.6203904151916504e+00" cType="1" res="1.9954804331064224e-02" rms="4.7283327579498291e-01" purity="5.0337219238281250e-01" nType="0">
        <Node pos="l" depth="1" NCoef="0" IVar="1" Cut="9.5123165845870972e-01" cType="1" res="4.0187831968069077e-02" rms="4.7347256541252136e-01" purity="5.2974700927734375e-01" nType="0">
          <Node pos="l" depth="2" NCoef="0" IVar="-1" Cut="0.0000000000000000e+00" cType="1" res="-2.7244855300523341e-04" rms="4.7919023036956787e-01" purity="4.2128798365592957e-01" nType="-99"/>
          <Node pos="r" depth="2" NCoef="0" IVar="-1" Cut="0.0000000000000000e+00" cType="1" res="1.2981252511963248e-03" rms="4.6220949292182922e-01" purity="6.3275694847106934e-01" nType="-99"/>
        </Node>
        <Node pos="r" depth="1" NCoef="0" IVar="3" Cut="-7.4764013290405273e-02" cType="1" res="-1.2180925160646439e-01" rms="4.4313347339630127e-01" purity="3.1857565045356750e-01" nType="0">
          <Node pos="l" depth="2" NCoef="0" IVar="-1" Cut="0.0000000000000000e+00" cType="1" res="-4.8375595360994339e-03" rms="4.2117926478385925e-01" purity="2.7359539270401001e-01" nType="-99"/>
          <Node pos="r" depth="2" NCoef="0" IVar="-1" Cut="0.0000000000000000e+00" cType="1" res="-1.9935690797865391e-03" rms="4.5632943511009216e-01" purity="3.5403940081596375e-01" nType="-99"/>
        </Node>
      </Node>
    </BinaryTree>
    <BinaryTree type="DecisionTree" boostWeight="1.0000000000000000e+00" itree="132">
      <Node pos="s" depth="0" NCoef="0" IVar="1" Cut="9.8452526330947876e-01" cType="1" res="1.7525622621178627e-02" rms="4.7322267293930054e-01" purity="4.9939158558845520e-01" nType="0">
        <Node pos="l" depth="1" NCoef="0" IVar="6" Cut="2.4847788810729980e+00" cType="1" res="-7.1828835643827915e-04" rms="4.7750139236450195e-01" purity="4.6537646651268005e-01" nType="0">
          <Node pos="l" depth="2" NCoef="0" IVar="-1" Cut="0.0000000000000000e+00" cType="1" res="4.4045507092960179e-04" rms="4.8032024502754211e-01" purity="5.0070255994796753e-01" nType="-99"/>
          <Node pos="r" depth="2" NCoef="0" IVar="-1" Cut="0.0000000000000000e+00" cType="1" res="-2.5564515963196754e-03" rms="4.5239377021789551e-01" purity="3.2844185829162598e-01" nType="-99"/>
        </Node>
        <Node pos="r" depth="1" NCoef="0" IVar="-1" Cut="0.0000000000000000e+00" cType="1" res="2.0528088789433241e-03" rms="4.0128695964813232e-01" purity="7.9341566562652588e-01" nType="-99"/>
      </Node>
    </BinaryTree>
    <BinaryTree type="DecisionTree" boostWeight="1.0000000000000000e+00" itree="133">
      <Node pos="s" depth="0" NCoef="0" IVar="1" Cut="9.4842320680618286e-01" cType="1" res="1.4018321409821510e-02" rms="4.7142580151557922e-01" purity="4.9846076965332031e-01" nType="0">
        <Node pos="l" depth="1" NCoef="0" IVar="2" Cut="6.0656018066406250e+02" cType="1" res="-5.1570795476436615e-02" rms="4.6786278486251831e-01" purity="3.7649744749069214e-01" nType="0">
          <Node pos="l" depth="2" NCoef="0" IVar="-1" Cut="0.0000000000000000e+00" cType="1" res="-1.8041037255898118e-03" rms="4.5885628461837769e-01" purity="3.3292877674102783e-01" nType="-99"/>
          <Node pos="r" depth="2" NCoef="0" IVar="-1" Cut="0.0000000000000000e+00" cType="1" res="8.2793651381507516e-04" rms="4.9353951215744019e-01" purity="5.7501745223999023e-01" nType="-99"/>
        </Node>
        <Node pos="r" depth="1" NCoef="0" IVar="5" Cut="2.4599627685546875e+02" cType="1" res="6.5564654767513275e-02" rms="4.6779754757881165e-01" purity="5.9431147575378418e-01" nType="0">
          <Node pos="l" depth="2" NCoef="0" IVar="-1" Cut="0.0000000000000000e+00" cType="1" res="-9.1723661171272397e-04" rms="4.7000053524971008e-01" purity="4.0446943044662476e-01" nType="-99"/>
          <Node pos="r" depth="2" NCoef="0" IVar="-1" Cut="0.0000000000000000e+00" cType="1" res="1.3303743908181787e-03" rms="4.6265792846679688e-01" purity="6.4667439460754395e-01" nType="-99"/>
        </Node>
      </Node>
    </BinaryTree>
    <BinaryTree type="DecisionTree" boostWeight="1.0000000000000000e+00" itree="134">
      <Node pos="s" depth="0" NCoef="0" IVar="1" Cut="9.6642071008682251e-01" cType="1" res="2.0914016291499138e-02" rms="4.7230750322341919e-01" purity="5.0403076410293579e-01" nType="0">
        <Node pos="l" depth="1" NCoef="0" IVar="2" Cut="6.0763183593750000e+02" cType="1" res="-1.3757797889411449e-02" rms="4.7661560773849487e-01" purity="4.2706745862960815e-01" nType="0">
          <Node pos="l" depth="2" NCoef="0" IVar="-1" Cut="0.0000000000000000e+00" cType="1" res="-7.5337896123528481e-04" rms="4.7226589918136597e-01" purity="3.8625258207321167e-01" nType="-99"/>
          <Node pos="r" depth="2" NCoef="0" IVar="-1" Cut="0.0000000000000000e+00" cType="1" res="1.2558816233649850e-03" rms="4.8401483893394470e-01" purity="6.1721062660217285e-01" nType="-99"/>
        </Node>
        <Node pos="r" depth="1" NCoef="0" IVar="6" Cut="2.4516458511352539e+00" cType="1" res="1.0373052209615707e-01" rms="4.5119813084602356e-01" purity="6.8786406517028809e-01" nType="0">
          <Node pos="l" depth="2" NCoef="0" IVar="-1" Cut="0.0000000000000000e+00" cType="1" res="1.6802768222987652e-03" rms="4.3801844120025635e-01" purity="7.2224354743957520e-01" nType="-99"/>
          <Node pos="r" depth="2" NCoef="0" IVar="-1" Cut="0.0000000000000000e+00" cType="1" res="-5.8983940107282251e-05" rms="4.8400288820266724e-01" purity="5.5525624752044678e-01" nType="-99"/>
        </Node>
      </Node>
    </BinaryTree>
    <BinaryTree type="DecisionTree" boostWeight="1.0000000000000000e+00" itree="135">
      <Node pos="s" depth="0" NCoef="0" IVar="2" Cut="4.8267938232421875e+02" cType="1" res="1.8478216603398323e-02" rms="4.7325786948204041e-01" purity="5.0141072273254395e-01" nType="0">
        <Node pos="l" depth="1" NCoef="0" IVar="6" Cut="2.4796578884124756e+00" cType="1" res="-2.2590134292840958e-02" rms="4.6935340762138367e-01" purity="4.1445747017860413e-01" nType="0">
          <Node pos="l" depth="2" NCoef="0" IVar="-1" Cut="0.0000000000000000e+00" cType="1" res="4.8976617108564824e-05" rms="4.7499704360961914e-01" purity="4.4900244474411011e-01" nType="-99"/>
          <Node pos="r" depth="2" NCoef="0" IVar="-1" Cut="0.0000000000000000e+00" cType="1" res="-2.9689942020922899e-03" rms="4.3864852190017700e-01" purity="2.9605621099472046e-01" nType="-99"/>
        </Node>
        <Node pos="r" depth="1" NCoef="0" IVar="1" Cut="9.3790721893310547e-01" cType="1" res="8.1090398132801056e-02" rms="4.7232660651206970e-01" purity="6.3397824764251709e-01" nType="0">
          <Node pos="l" depth="2" NCoef="0" IVar="-1" Cut="0.0000000000000000e+00" cType="1" res="-5.8883913879981264e-05" rms="4.9797233939170837e-01" purity="5.0974947214126587e-01" nType="-99"/>
          <Node pos="r" depth="2" NCoef="0" IVar="-1" Cut="0.0000000000000000e+00" cType="1" res="1.5270840376615524e-03" rms="4.5746675133705139e-01" purity="6.8320393562316895e-01" nType="-99"/>
        </Node>
      </Node>
    </BinaryTree>
    <BinaryTree type="DecisionTree" boostWeight="1.0000000000000000e+00" itree="136">
      <Node pos="s" depth="0" NCoef="0" IVar="1" Cut="9.8424941301345825e-01" cType="1" res="1.5387595631182194e-02" rms="4.7341755032539368e-01" purity="4.9731627106666565e-01" nType="0">
        <Node pos="l" depth="1" NCoef="0" IVar="2" Cut="3.6728643798828125e+02" cType="1" res="-1.5777146909385920e-03" rms="4.7749078273773193e-01" purity="4.6435239911079407e-01" nType="0">
          <Node pos="l" depth="2" NCoef="0" IVar="-1" Cut="0.0000000000000000e+00" cType="1" res="-2.4029391352087259e-03" rms="4.3928742408752441e-01" purity="2.7836960554122925e-01" nType="-99"/>
          <Node pos="r" depth="2" NCoef="0" IVar="-1" Cut="0.0000000000000000e+00" cType="1" res="4.4671076466329396e-04" rms="4.8696291446685791e-01" purity="5.2978765964508057e-01" nType="-99"/>
        </Node>
        <Node pos="r" depth="1" NCoef="0" IVar="-1" Cut="0.0000000000000000e+00" cType="1" res="1.9432001281529665e-03" rms="4.0803027153015137e-01" purity="7.8283751010894775e-01" nType="-99"/>
      </Node>
    </BinaryTree>
    <BinaryTree type="DecisionTree" boostWeight="1.0000000000000000e+00" itree="137">
      <Node pos="s" depth="0" NCoef="0" IVar="2" Cut="4.6482199096679688e+02" cType="1" res="1.6172736883163452e-02" rms="4.7271171212196350e-01" purity="4.9885472655296326e-01" nType="0">
        <Node pos="l" depth="1" NCoef="0" IVar="1" Cut="9.7845309972763062e-01" cType="1" res="-3.0635435134172440e-02" rms="4.6651333570480347e-01" purity="3.9864552021026611e-01" nType="0">
          <Node pos="l" depth="2" NCoef="0" IVar="-1" Cut="0.0000000000000000e+00" cType="1" res="-1.1785173555836082e-03" rms="4.6465232968330383e-01" purity="3.5001459717750549e-01" nType="-99"/>
          <Node pos="r" depth="2" NCoef="0" IVar="-1" Cut="0.0000000000000000e+00" cType="1" res="1.1413182364776731e-03" rms="4.6061792969703674e-01" purity="6.8353289365768433e-01" nType="-99"/>
        </Node>
        <Node pos="r" depth="1" NCoef="0" IVar="6" Cut="2.4688990116119385e+00" cType="1" res="7.5556151568889618e-02" rms="4.7385233640670776e-01" purity="6.2598562240600586e-01" nType="0">
          <Node pos="l" depth="2" NCoef="0" IVar="-1" Cut="0.0000000000000000e+00" cType="1" res="1.3692026259377599e-03" rms="4.6649658679962158e-01" purity="6.5552949905395508e-01" nType="-99"/>
          <Node pos="r" depth="2" NCoef="0" IVar="-1" Cut="0.0000000000000000e+00" cType="1" res="-5.4402597015723586e-04" rms="4.9151924252510071e-01" purity="4.9404275417327881e-01" nType="-99"/>
        </Node>
      </Node>
    </BinaryTree>
    <BinaryTree type="DecisionTree" boostWeight="1.0000000000000000e+00" itree="138">
      <Node pos="s" depth="0" NCoef="0" IVar="1" Cut="9.8408466577529907e-01" cType="1" res="1.2847845442593098e-02" rms="4.7234496474266052e-01" purity="4.9509963393211365e-01" nType="0">
        <Node pos="l" depth="1" NCoef="0" IVar="2" Cut="4.5645288085937500e+02" cType="1" res="-4.7951885499060154e-03" rms="4.7626906633377075e-01" purity="4.6070662140846252e-01" nType="0">
          <Node pos="l" depth="2" NCoef="0" IVar="-1" Cut="0.0000000000000000e+00" cType="1" res="-1.1172423837706447e-03" rms="4.6398648619651794e-01" purity="3.5726571083068848e-01" nType="-99"/>
          <Node pos="r" depth="2" NCoef="0" IVar="-1" Cut="0.0000000000000000e+00" cType="1" res="7.2728865779936314e-04" rms="4.8547789454460144e-01" purity="5.8572578430175781e-01" nType="-99"/>
        </Node>
        <Node pos="r" depth="1" NCoef="0" IVar="-1" Cut="0.0000000000000000e+00" cType="1" res="1.9209681777283549e-03" rms="4.1034919023513794e-01" purity="7.7981215715408325e-01" nType="-99"/>
      </Node>
    </BinaryTree>
    <BinaryTree type="DecisionTree" boostWeight="1.0000000000000000e+00" itree="139">
      <Node pos="s" depth="0" NCoef="0" IVar="1" Cut="9.6923708915710449e-01" cType="1" res="1.5216157771646976e-02" rms="4.7152215242385864e-01" purity="4.9866899847984314e-01" nType="0">
        <Node pos="l" depth="1" NCoef="0" IVar="2" Cut="5.6006939697265625e+02" cType="1" res="-1.5541247092187405e-02" rms="4.7541508078575134e-01" purity="4.2978939414024353e-01" nType="0">
          <Node pos="l" depth="2" NCoef="0" IVar="-1" Cut="0.0000000000000000e+00" cType="1" res="-9.6771033713594079e-04" rms="4.6896967291831970e-01" purity="3.7335294485092163e-01" nType="-99"/>
          <Node pos="r" depth="2" NCoef="0" IVar="-1" Cut="0.0000000000000000e+00" cType="1" res="1.1027501896023750e-03" rms="4.8443153500556946e-01" purity="6.1023271083831787e-01" nType="-99"/>
        </Node>
        <Node pos="r" depth="1" NCoef="0" IVar="2" Cut="4.0659738159179688e+02" cType="1" res="1.0403245687484741e-01" rms="4.4840621948242188e-01" purity="6.9756853580474854e-01" nType="0">
          <Node pos="l" depth="2" NCoef="0" IVar="-1" Cut="0.0000000000000000e+00" cType="1" res="5.6584825506433845e-04" rms="4.8258504271507263e-01" purity="5.8736455440521240e-01" nType="-99"/>
          <Node pos="r" depth="2" NCoef="0" IVar="-1" Cut="0.0000000000000000e+00" cType="1" res="1.7236075364053249e-03" rms="4.2457729578018188e-01" purity="7.5700116157531738e-01" nType="-99"/>
        </Node>
      </Node>
    </BinaryTree>
    <BinaryTree type="DecisionTree" boostWeight="1.0000000000000000e+00" itree="140">
      <Node pos="s" depth="0" NCoef="0" IVar="1" Cut="9.3950420618057251e-01" cType="1" res="1.7738588154315948e-02" rms="4.7324457764625549e-01" purity="4.9933135509490967e-01" nType="0">
        <Node pos="l" depth="1" NCoef="0" IVar="6" Cut="2.1213417053222656e+00" cType="1" res="-5.1560331135988235e-02" rms="4.6746268868446350e-01" purity="3.7181299924850464e-01" nType="0">
          <Node pos="l" depth="2" NCoef="0" IVar="-1" Cut="0.0000000000000000e+00" cType="1" res="1.7832159937825054e-04" rms="4.8254621028900146e-01" purity="4.4179585576057434e-01" nType="-99"/>
          <Node pos="r" depth="2" NCoef="0" IVar="-1" Cut="0.0000000000000000e+00" cType="1" res="-2.0722832996398211e-03" rms="4.5575770735740662e-01" purity="3.3405587077140808e-01" nType="-99"/>
        </Node>
        <Node pos="r" depth="1" NCoef="0" IVar="5" Cut="2.6806607055664062e+02" cType="1" res="5.0609011203050613e-02" rms="4.7242140769958496e-01" purity="5.5981689691543579e-01" nType="0">
          <Node pos="l" depth="2" NCoef="0" IVar="-1" Cut="0.0000000000000000e+00" cType="1" res="-4.7247132170014083e-04" rms="4.7125518321990967e-01" purity="4.1012510657310486e-01" nType="-99"/>
          <Node pos="r" depth="2" NCoef="0" IVar="-1" Cut="0.0000000000000000e+00" cType="1" res="1.2193676084280014e-03" rms="4.6891856193542480e-01" purity="6.3160389661788940e-01" nType="-99"/>
        </Node>
      </Node>
    </BinaryTree>
    <BinaryTree type="DecisionTree" boostWeight="1.0000000000000000e+00" itree="141">
      <Node pos="s" depth="0" NCoef="0" IVar="1" Cut="9.5160341262817383e-01" cType="1" res="1.4906235970556736e-02" rms="4.7165271639823914e-01" purity="4.9838030338287354e-01" nType="0">
        <Node pos="l" depth="1" NCoef="0" IVar="2" Cut="5.5928643798828125e+02" cType="1" res="-3.8444995880126953e-02" rms="4.6990656852722168e-01" purity="3.8909700512886047e-01" nType="0">
          <Node pos="l" depth="2" NCoef="0" IVar="-1" Cut="0.0000000000000000e+00" cType="1" res="-1.5530594391748309e-03" rms="4.5931285619735718e-01" purity="3.3410343527793884e-01" nType="-99"/>
          <Node pos="r" depth="2" NCoef="0" IVar="-1" Cut="0.0000000000000000e+00" cType="1" res="6.9885776611045003e-04" rms="4.9380037188529968e-01" purity="5.6794291734695435e-01" nType="-99"/>
        </Node>
        <Node pos="r" depth="1" NCoef="0" IVar="6" Cut="2.4516458511352539e+00" cType="1" res="6.7883819341659546e-02" rms="4.6739259362220764e-01" purity="6.0689818859100342e-01" nType="0">
          <Node pos="l" depth="2" NCoef="0" IVar="-1" Cut="0.0000000000000000e+00" cType="1" res="1.3688270701095462e-03" rms="4.5870354771614075e-01" purity="6.4562559127807617e-01" nType="-99"/>
          <Node pos="r" depth="2" NCoef="0" IVar="-1" Cut="0.0000000000000000e+00" cType="1" res="-8.9419831056147814e-04" rms="4.8284819722175598e-01" purity="4.5653125643730164e-01" nType="-99"/>
        </Node>
      </Node>
    </BinaryTree>
    <BinaryTree type="DecisionTree" boostWeight="1.0000000000000000e+00" itree="142">
      <Node pos="s" depth="0" NCoef="0" IVar="1" Cut="9.4824200868606567e-01" cType="1" res="1.9527986645698547e-02" rms="4.7235307097434998e-01" purity="5.0242197513580322e-01" nType="0">
        <Node pos="l" depth="1" NCoef="0" IVar="2" Cut="5.6006939697265625e+02" cType="1" res="-4.0543358772993088e-02" rms="4.7016260027885437e-01" purity="3.8492518663406372e-01" nType="0">
          <Node pos="l" depth="2" NCoef="0" IVar="-1" Cut="0.0000000000000000e+00" cType="1" res="-1.5104624908417463e-03" rms="4.6004751324653625e-01" purity="3.3345562219619751e-01" nType="-99"/>
          <Node pos="r" depth="2" NCoef="0" IVar="-1" Cut="0.0000000000000000e+00" cType="1" res="5.1476445514708757e-04" rms="4.9534446001052856e-01" purity="5.5578196048736572e-01" nType="-99"/>
        </Node>
        <Node pos="r" depth="1" NCoef="0" IVar="2" Cut="5.3546942138671875e+02" cType="1" res="6.7078262567520142e-02" rms="4.6865144371986389e-01" purity="5.9542816877365112e-01" nType="0">
          <Node pos="l" depth="2" NCoef="0" IVar="-1" Cut="0.0000000000000000e+00" cType="1" res="5.6066300021484494e-04" rms="4.7835817933082581e-01" purity="5.3712087869644165e-01" nType="-99"/>
          <Node pos="r" depth="2" NCoef="0" IVar="-1" Cut="0.0000000000000000e+00" cType="1" res="1.8208499532192945e-03" rms="4.3496438860893250e-01" purity="7.3374938964843750e-01" nType="-99"/>
        </Node>
      </Node>
    </BinaryTree>
    <BinaryTree type="DecisionTree" boostWeight="1.0000000000000000e+00" itree="143">
      <Node pos="s" depth="0" NCoef="0" IVar="1" Cut="9.8144096136093140e-01" cType="1" res="2.2768773138523102e-02" rms="4.7273248434066772e-01" purity="5.0569540262222290e-01" nType="0">
        <Node pos="l" depth="1" NCoef="0" IVar="6" Cut="2.5621693134307861e+00" cType="1" res="2.7661344502121210e-03" rms="4.7820335626602173e-01" purity="4.6413546800613403e-01" nType="0">
          <Node pos="l" depth="2" NCoef="0" IVar="-1" Cut="0.0000000000000000e+00" cType="1" res="4.0792269282974303e-04" rms="4.8103386163711548e-01" purity="4.9280816316604614e-01" nType="-99"/>
          <Node pos="r" depth="2" NCoef="0" IVar="-1" Cut="0.0000000000000000e+00" cType="1" res="-2.7971216477453709e-03" rms="4.4739547371864319e-01" purity="3.1197258830070496e-01" nType="-99"/>
        </Node>
        <Node pos="r" depth="1" NCoef="0" IVar="-1" Cut="0.0000000000000000e+00" cType="1" res="1.8467277986928821e-03" rms="4.1288679838180542e-01" purity="7.7460032701492310e-01" nType="-99"/>
      </Node>
    </BinaryTree>
    <BinaryTree type="DecisionTree" boostWeight="1.0000000000000000e+00" itree="144">
      <Node pos="s" depth="0" NCoef="0" IVar="6" Cut="2.4516458511352539e+00" cType="1" res="1.5906082466244698e-02" rms="4.7257018089294434e-01" purity="4.9792775511741638e-01" nType="0">
        <Node pos="l" depth="1" NCoef="0" IVar="1" Cut="9.7822177410125732e-01" cType="1" res="4.3186720460653305e-02" rms="4.7303247451782227e-01" purity="5.3615176677703857e-01" nType="0">
          <Node pos="l" depth="2" NCoef="0" IVar="-1" Cut="0.0000000000000000e+00" cType="1" res="3.6230601835995913e-04" rms="4.8166561126708984e-01" purity="4.8679381608963013e-01" nType="-99"/>
          <Node pos="r" depth="2" NCoef="0" IVar="-1" Cut="0.0000000000000000e+00" cType="1" res="1.8910086946561933e-03" rms="4.0919661521911621e-01" purity="7.8155058622360229e-01" nType="-99"/>
        </Node>
        <Node pos="r" depth="1" NCoef="0" IVar="2" Cut="5.2676782226562500e+02" cType="1" res="-7.8727729618549347e-02" rms="4.5855090022087097e-01" purity="3.6533260345458984e-01" nType="0">
          <Node pos="l" depth="2" NCoef="0" IVar="-1" Cut="0.0000000000000000e+00" cType="1" res="-2.7462423313409090e-03" rms="4.4415554404258728e-01" purity="3.0910798907279968e-01" nType="-99"/>
          <Node pos="r" depth="2" NCoef="0" IVar="-1" Cut="0.0000000000000000e+00" cType="1" res="-1.8231832655146718e-05" rms="4.9082610011100769e-01" purity="5.3275144100189209e-01" nType="-99"/>
        </Node>
      </Node>
    </BinaryTree>
    <BinaryTree type="DecisionTree" boostWeight="1.0000000000000000e+00" itree="145">
      <Node pos="s" depth="0" NCoef="0" IVar="1" Cut="9.3704140186309814e-01" cType="1" res="1.4504946768283844e-02" rms="4.7076177597045898e-01" purity="4.9869489669799805e-01" nType="0">
        <Node pos="l" depth="1" NCoef="0" IVar="2" Cut="3.3630053710937500e+02" cType="1" res="-7.2966940701007843e-02" rms="4.6089926362037659e-01" purity="3.4762430191040039e-01" nType="0">
          <Node pos="l" depth="2" NCoef="0" IVar="-1" Cut="0.0000000000000000e+00" cType="1" res="-6.2659382820129395e-03" rms="3.6798438429832458e-01" purity="1.6269615292549133e-01" nType="-99"/>
          <Node pos="r" depth="2" NCoef="0" IVar="-1" Cut="0.0000000000000000e+00" cType="1" res="-1.2168561806902289e-03" rms="4.7757366299629211e-01" purity="3.8872960209846497e-01" nType="-99"/>
        </Node>
        <Node pos="r" depth="1" NCoef="0" IVar="2" Cut="4.1733200073242188e+02" cType="1" res="4.9481488764286041e-02" rms="4.7011482715606689e-01" purity="5.5910205841064453e-01" nType="0">
          <Node pos="l" depth="2" NCoef="0" IVar="-1" Cut="0.0000000000000000e+00" cType="1" res="-3.4378244890831411e-04" rms="4.7193643450737000e-01" purity="4.1657912731170654e-01" nType="-99"/>
          <Node pos="r" depth="2" NCoef="0" IVar="-1" Cut="0.0000000000000000e+00" cType="1" res="1.2904853792861104e-03" rms="4.6365314722061157e-01" purity="6.5420228242874146e-01" nType="-99"/>
        </Node>
      </Node>
    </BinaryTree>
    <BinaryTree type="DecisionTree" boostWeight="1.0000000000000000e+00" itree="146">
      <Node pos="s" depth="0" NCoef="0" IVar="6" Cut="2.4690330028533936e+00" cType="1" res="1.3880739919841290e-02" rms="4.7255259752273560e-01" purity="4.9615585803985596e-01" nType="0">
        <Node pos="l" depth="1" NCoef="0" IVar="1" Cut="9.3679356575012207e-01" cType="1" res="3.9507154375314713e-02" rms="4.7324863076210022e-01" purity="5.3254270553588867e-01" nType="0">
          <Node pos="l" depth="2" NCoef="0" IVar="-1" Cut="0.0000000000000000e+00" cType="1" res="-8.1322283949702978e-04" rms="4.7533875703811646e-01" purity="3.9158344268798828e-01" nType="-99"/>
          <Node pos="r" depth="2" NCoef="0" IVar="-1" Cut="0.0000000000000000e+00" cType="1" res="1.0670915944501758e-03" rms="4.6887168288230896e-01" purity="5.8818709850311279e-01" nType="-99"/>
        </Node>
        <Node pos="r" depth="1" NCoef="0" IVar="4" Cut="9.7166202962398529e-02" cType="1" res="-8.0686464905738831e-02" rms="4.5772296190261841e-01" purity="3.6188033223152161e-01" nType="0">
          <Node pos="l" depth="2" NCoef="0" IVar="-1" Cut="0.0000000000000000e+00" cType="1" res="-1.1391201987862587e-03" rms="4.6260365843772888e-01" purity="3.8889214396476746e-01" nType="-99"/>
          <Node pos="r" depth="2" NCoef="0" IVar="-1" Cut="0.0000000000000000e+00" cType="1" res="-4.0873917751014233e-03" rms="4.3841296434402466e-01" purity="2.9728958010673523e-01" nType="-99"/>
        </Node>
      </Node>
    </BinaryTree>
    <BinaryTree type="DecisionTree" boostWeight="1.0000000000000000e+00" itree="147">
      <Node pos="s" depth="0" NCoef="0" IVar="1" Cut="9.5123165845870972e-01" cType="1" res="2.0692041143774986e-02" rms="4.7147765755653381e-01" purity="5.0400048494338989e-01" nType="0">
        <Node pos="l" depth="1" NCoef="0" IVar="6" Cut="2.2180986404418945e+00" cType="1" res="-3.1437989324331284e-02" rms="4.7127696871757507e-01" purity="3.9375290274620056e-01" nType="0">
          <Node pos="l" depth="2" NCoef="0" IVar="-1" Cut="0.0000000000000000e+00" cType="1" res="2.3868631978984922e-04" rms="4.8126271367073059e-01" purity="4.5012605190277100e-01" nType="-99"/>
          <Node pos="r" depth="2" NCoef="0" IVar="-1" Cut="0.0000000000000000e+00" cType="1" res="-1.8692750018090010e-03" rms="4.5668798685073853e-01" purity="3.3691614866256714e-01" nType="-99"/>
        </Node>
        <Node pos="r" depth="1" NCoef="0" IVar="5" Cut="2.4563087463378906e+02" cType="1" res="7.0880487561225891e-02" rms="4.6619540452957153e-01" purity="6.1014187335968018e-01" nType="0">
          <Node pos="l" depth="2" NCoef="0" IVar="-1" Cut="0.0000000000000000e+00" cType="1" res="-6.6952023189514875e-04" rms="4.7494414448738098e-01" purity="4.2465159296989441e-01" nType="-99"/>
          <Node pos="r" depth="2" NCoef="0" IVar="-1" Cut="0.0000000000000000e+00" cType="1" res="1.3661857228726149e-03" rms="4.5976290106773376e-01" purity="6.6018486022949219e-01" nType="-99"/>
        </Node>
      </Node>
    </BinaryTree>
    <BinaryTree type="DecisionTree" boostWeight="1.0000000000000000e+00" itree="148">
      <Node pos="s" depth="0" NCoef="0" IVar="2" Cut="4.8267938232421875e+02" cType="1" res="1.9245471805334091e-02" rms="4.7190523147583008e-01" purity="5.0196737051010132e-01" nType="0">
        <Node pos="l" depth="1" NCoef="0" IVar="6" Cut="2.5821456909179688e+00" cType="1" res="-2.0252879709005356e-02" rms="4.6869102120399475e-01" purity="4.1349452733993530e-01" nType="0">
          <Node pos="l" depth="2" NCoef="0" IVar="-1" Cut="0.0000000000000000e+00" cType="1" res="-5.6969861361721996e-06" rms="4.7379079461097717e-01" purity="4.4189441204071045e-01" nType="-99"/>
          <Node pos="r" depth="2" NCoef="0" IVar="-1" Cut="0.0000000000000000e+00" cType="1" res="-3.7930977996438742e-03" rms="4.2516180872917175e-01" purity="2.6256933808326721e-01" nType="-99"/>
        </Node>
        <Node pos="r" depth="1" NCoef="0" IVar="1" Cut="9.5785242319107056e-01" cType="1" res="7.9357378184795380e-02" rms="4.7043371200561523e-01" purity="6.3661277294158936e-01" nType="0">
          <Node pos="l" depth="2" NCoef="0" IVar="-1" Cut="0.0000000000000000e+00" cType="1" res="5.6654139189049602e-04" rms="4.9433502554893494e-01" purity="5.5512166023254395e-01" nType="-99"/>
          <Node pos="r" depth="2" NCoef="0" IVar="-1" Cut="0.0000000000000000e+00" cType="1" res="1.7144567100331187e-03" rms="4.2989748716354370e-01" purity="7.4515199661254883e-01" nType="-99"/>
        </Node>
      </Node>
    </BinaryTree>
    <BinaryTree type="DecisionTree" boostWeight="1.0000000000000000e+00" itree="149">
      <Node pos="s" depth="0" NCoef="0" IVar="1" Cut="9.5757091045379639e-01" cType="1" res="1.4929557219147682e-02" rms="4.7187280654907227e-01" purity="4.9700686335563660e-01" nType="0">
        <Node pos="l" depth="1" NCoef="0" IVar="6" Cut="2.3186373710632324e+00" cType="1" res="-2.3542596027255058e-02" rms="4.7357222437858582e-01" purity="4.0435597300529480e-01" nType="0">
          <Node pos="l" depth="2" NCoef="0" IVar="-1" Cut="0.0000000000000000e+00" cType="1" res="1.4535880472976714e-04" rms="4.8237580060958862e-01" purity="4.4767007231712341e-01" nType="-99"/>
          <Node pos="r" depth="2" NCoef="0" IVar="-1" Cut="0.0000000000000000e+00" cType="1" res="-1.9127499544993043e-03" rms="4.5331013202667236e-01" purity="3.3074128627777100e-01" nType="-99"/>
        </Node>
        <Node pos="r" depth="1" NCoef="0" IVar="2" Cut="3.6895181274414062e+02" cType="1" res="7.1327984333038330e-02" rms="4.6363571286201477e-01" purity="6.3282883167266846e-01" nType="0">
          <Node pos="l" depth="2" NCoef="0" IVar="-1" Cut="0.0000000000000000e+00" cType="1" res="-4.5165704796090722e-04" rms="4.8283550143241882e-01" purity="4.5578595995903015e-01" nType="-99"/>
          <Node pos="r" depth="2" NCoef="0" IVar="-1" Cut="0.0000000000000000e+00" cType="1" res="1.3361880555748940e-03" rms="4.5392456650733948e-01" purity="6.8537741899490356e-01" nType="-99"/>
        </Node>
      </Node>
    </BinaryTree>
    <BinaryTree type="DecisionTree" boostWeight="1.0000000000000000e+00" itree="150">
      <Node pos="s" depth="0" NCoef="0" IVar="1" Cut="9.3414324522018433e-01" cType="1" res="1.6285598278045654e-02" rms="4.7205033898353577e-01" purity="4.9836409091949463e-01" nType="0">
        <Node pos="l" depth="1" NCoef="0" IVar="2" Cut="4.8271987915039062e+02" cType="1" res="-6.7421786487102509e-02" rms="4.6264633536338806e-01" purity="3.5080200433731079e-01" nType="0">
          <Node pos="l" depth="2" NCoef="0" IVar="-1" Cut="0.0000000000000000e+00" cType="1" res="-2.6549147441983223e-03" rms="4.3898352980613708e-01" purity="2.7222380042076111e-01" nType="-99"/>
          <Node pos="r" depth="2" NCoef="0" IVar="-1" Cut="0.0000000000000000e+00" cType="1" res="-4.5462444541044533e-04" rms="4.9782171845436096e-01" purity="4.8524293303489685e-01" nType="-99"/>
        </Node>
        <Node pos="r" depth="1" NCoef="0" IVar="2" Cut="3.6980026245117188e+02" cType="1" res="4.5437615364789963e-02" rms="4.7180780768394470e-01" purity="5.4975420236587524e-01" nType="0">
          <Node pos="l" depth="2" NCoef="0" IVar="-1" Cut="0.0000000000000000e+00" cType="1" res="-9.5267797587439418e-04" rms="4.6113097667694092e-01" purity="3.6102065443992615e-01" nType="-99"/>
          <Node pos="r" depth="2" NCoef="0" IVar="-1" Cut="0.0000000000000000e+00" cType="1" res="1.0874293511733413e-03" rms="4.7180226445198059e-01" purity="6.1334812641143799e-01" nType="-99"/>
        </Node>
      </Node>
    </BinaryTree>
    <BinaryTree type="DecisionTree" boostWeight="1.0000000000000000e+00" itree="151">
      <Node pos="s" depth="0" NCoef="0" IVar="2" Cut="3.6980026245117188e+02" cType="1" res="1.2513677589595318e-02" rms="4.7113284468650818e-01" purity="4.9533322453498840e-01" nType="0">
        <Node pos="l" depth="1" NCoef="0" IVar="3" Cut="2.7446642518043518e-02" cType="1" res="-6.8544231355190277e-02" rms="4.3957716226577759e-01" purity="3.0914217233657837e-01" nType="0">
          <Node pos="l" depth="2" NCoef="0" IVar="-1" Cut="0.0000000000000000e+00" cType="1" res="-3.2766605727374554e-03" rms="4.1925179958343506e-01" purity="2.6478826999664307e-01" nType="-99"/>
          <Node pos="r" depth="2" NCoef="0" IVar="-1" Cut="0.0000000000000000e+00" cType="1" res="-4.1243107989430428e-04" rms="4.5819953083992004e-01" purity="3.6345323920249939e-01" nType="-99"/>
        </Node>
        <Node pos="r" depth="1" NCoef="0" IVar="6" Cut="2.5423111915588379e+00" cType="1" res="4.1492871940135956e-02" rms="4.7859331965446472e-01" purity="5.6189876794815063e-01" nType="0">
          <Node pos="l" depth="2" NCoef="0" IVar="-1" Cut="0.0000000000000000e+00" cType="1" res="9.2923571355640888e-04" rms="4.7626805305480957e-01" purity="5.8942967653274536e-01" nType="-99"/>
          <Node pos="r" depth="2" NCoef="0" IVar="-1" Cut="0.0000000000000000e+00" cType="1" res="-1.4566087629646063e-03" rms="4.7615373134613037e-01" purity="4.0930727124214172e-01" nType="-99"/>
        </Node>
      </Node>
    </BinaryTree>
    <BinaryTree type="DecisionTree" boostWeight="1.0000000000000000e+00" itree="152">
      <Node pos="s" depth="0" NCoef="0" IVar="1" Cut="9.8456966876983643e-01" cType="1" res="1.6409842297434807e-02" rms="4.7071936726570129e-01" purity="4.9941009283065796e-01" nType="0">
        <Node pos="l" depth="1" NCoef="0" IVar="2" Cut="5.5589727783203125e+02" cType="1" res="-1.0748800123110414e-03" rms="4.7530534863471985e-01" purity="4.6451386809349060e-01" nType="0">
          <Node pos="l" depth="2" NCoef="0" IVar="-1" Cut="0.0000000000000000e+00" cType="1" res="-6.0707924421876669e-04" rms="4.7214314341545105e-01" purity="4.0713891386985779e-01" nType="-99"/>
          <Node pos="r" depth="2" NCoef="0" IVar="-1" Cut="0.0000000000000000e+00" cType="1" res="1.1837680358439684e-03" rms="4.7472408413887024e-01" purity="6.3532406091690063e-01" nType="-99"/>
        </Node>
        <Node pos="r" depth="1" NCoef="0" IVar="-1" Cut="0.0000000000000000e+00" cType="1" res="1.9379399018362164e-03" rms="4.0176844596862793e-01" purity="7.9102575778961182e-01" nType="-99"/>
      </Node>
    </BinaryTree>
    <BinaryTree type="DecisionTree" boostWeight="1.0000000000000000e+00" itree="153">
      <Node pos="s" depth="0" NCoef="0" IVar="2" Cut="4.8267938232421875e+02" cType="1" res="1.4753557741641998e-02" rms="4.7160080075263977e-01" purity="4.9708199501037598e-01" nType="0">
        <Node pos="l" depth="1" NCoef="0" IVar="2" Cut="3.3105673217773438e+02" cType="1" res="-2.3717271164059639e-02" rms="4.6749582886695862e-01" purity="4.0950426459312439e-01" nType="0">
          <Node pos="l" depth="2" NCoef="0" IVar="-1" Cut="0.0000000000000000e+00" cType="1" res="-3.3751076553016901e-03" rms="4.1703024506568909e-01" purity="2.5435510277748108e-01" nType="-99"/>
          <Node pos="r" depth="2" NCoef="0" IVar="-1" Cut="0.0000000000000000e+00" cType="1" res="1.9583018001867458e-05" rms="4.7816276550292969e-01" purity="4.5410305261611938e-01" nType="-99"/>
        </Node>
        <Node pos="r" depth="1" NCoef="0" IVar="1" Cut="9.5529657602310181e-01" cType="1" res="7.3844827711582184e-02" rms="4.7176635265350342e-01" purity="6.3160157203674316e-01" nType="0">
          <Node pos="l" depth="2" NCoef="0" IVar="-1" Cut="0.0000000000000000e+00" cType="1" res="4.5153085375204682e-04" rms="4.9540686607360840e-01" purity="5.4615473747253418e-01" nType="-99"/>
          <Node pos="r" depth="2" NCoef="0" IVar="-1" Cut="0.0000000000000000e+00" cType="1" res="1.6292280051857233e-03" rms="4.3646305799484253e-01" purity="7.3168832063674927e-01" nType="-99"/>
        </Node>
      </Node>
    </BinaryTree>
    <BinaryTree type="DecisionTree" boostWeight="1.0000000000000000e+00" itree="154">
      <Node pos="s" depth="0" NCoef="0" IVar="1" Cut="9.5141851902008057e-01" cType="1" res="1.6755839809775352e-02" rms="4.7122791409492493e-01" purity="4.9921765923500061e-01" nType="0">
        <Node pos="l" depth="1" NCoef="0" IVar="6" Cut="2.5590500831604004e+00" cType="1" res="-3.1513106077909470e-02" rms="4.7061595320701599e-01" purity="3.9232417941093445e-01" nType="0">
          <Node pos="l" depth="2" NCoef="0" IVar="-1" Cut="0.0000000000000000e+00" cType="1" res="-2.8295343508943915e-04" rms="4.7766256332397461e-01" purity="4.1908690333366394e-01" nType="-99"/>
          <Node pos="r" depth="2" NCoef="0" IVar="-1" Cut="0.0000000000000000e+00" cType="1" res="-3.5200638230890036e-03" rms="4.2461097240447998e-01" purity="2.6218476891517639e-01" nType="-99"/>
        </Node>
        <Node pos="r" depth="1" NCoef="0" IVar="6" Cut="2.4502999782562256e+00" cType="1" res="6.4841814339160919e-02" rms="4.6690106391906738e-01" purity="6.0570597648620605e-01" nType="0">
          <Node pos="l" depth="2" NCoef="0" IVar="-1" Cut="0.0000000000000000e+00" cType="1" res="1.2918018037453294e-03" rms="4.5967331528663635e-01" purity="6.4280164241790771e-01" nType="-99"/>
          <Node pos="r" depth="2" NCoef="0" IVar="-1" Cut="0.0000000000000000e+00" cType="1" res="-6.3119566766545177e-04" rms="4.8013764619827271e-01" purity="4.6740600466728210e-01" nType="-99"/>
        </Node>
      </Node>
    </BinaryTree>
    <BinaryTree type="DecisionTree" boostWeight="1.0000000000000000e+00" itree="155">
      <Node pos="s" depth="0" NCoef="0" IVar="1" Cut="9.8436695337295532e-01" cType="1" res="1.8979277461767197e-02" rms="4.7059273719787598e-01" purity="5.0272542238235474e-01" nType="0">
        <Node pos="l" depth="1" NCoef="0" IVar="5" Cut="2.5845178222656250e+02" cType="1" res="1.7469578888267279e-03" rms="4.7550570964813232e-01" purity="4.6763828396797180e-01" nType="0">
          <Node pos="l" depth="2" NCoef="0" IVar="-1" Cut="0.0000000000000000e+00" cType="1" res="-1.7763365758582950e-03" rms="4.4789251685142517e-01" purity="3.0516618490219116e-01" nType="-99"/>
          <Node pos="r" depth="2" NCoef="0" IVar="-1" Cut="0.0000000000000000e+00" cType="1" res="5.1592924864962697e-04" rms="4.8402446508407593e-01" purity="5.3847235441207886e-01" nType="-99"/>
        </Node>
        <Node pos="r" depth="1" NCoef="0" IVar="-1" Cut="0.0000000000000000e+00" cType="1" res="1.9110316643491387e-03" rms="4.0085068345069885e-01" purity="7.9136604070663452e-01" nType="-99"/>
      </Node>
    </BinaryTree>
    <BinaryTree type="DecisionTree" boostWeight="1.0000000000000000e+00" itree="156">
      <Node pos="s" depth="0" NCoef="0" IVar="1" Cut="9.3370085954666138e-01" cType="1" res="1.8932126462459564e-02" rms="4.7208219766616821e-01" purity="5.0142645835876465e-01" nType="0">
        <Node pos="l" depth="1" NCoef="0" IVar="6" Cut="2.4438781738281250e+00" cType="1" res="-6.1373580247163773e-02" rms="4.6282327175140381e-01" purity="3.5459378361701965e-01" nType="0">
          <Node pos="l" depth="2" NCoef="0" IVar="-1" Cut="0.0000000000000000e+00" cType="1" res="-8.5268949624150991e-04" rms="4.7319403290748596e-01" purity="3.8790583610534668e-01" nType="-99"/>
          <Node pos="r" depth="2" NCoef="0" IVar="-1" Cut="0.0000000000000000e+00" cType="1" res="-3.8697840645909309e-03" rms="4.2455551028251648e-01" purity="2.5627288222312927e-01" nType="-99"/>
        </Node>
        <Node pos="r" depth="1" NCoef="0" IVar="5" Cut="2.6588882446289062e+02" cType="1" res="4.6245951205492020e-02" rms="4.7208717465400696e-01" purity="5.5136764049530029e-01" nType="0">
          <Node pos="l" depth="2" NCoef="0" IVar="-1" Cut="0.0000000000000000e+00" cType="1" res="-3.7661145324818790e-04" rms="4.6742603182792664e-01" purity="4.0473034977912903e-01" nType="-99"/>
          <Node pos="r" depth="2" NCoef="0" IVar="-1" Cut="0.0000000000000000e+00" cType="1" res="1.1088185710832477e-03" rms="4.7126400470733643e-01" purity="6.1980569362640381e-01" nType="-99"/>
        </Node>
      </Node>
    </BinaryTree>
    <BinaryTree type="DecisionTree" boostWeight="1.0000000000000000e+00" itree="157">
      <Node pos="s" depth="0" NCoef="0" IVar="2" Cut="5.9811975097656250e+02" cType="1" res="1.5902331098914146e-02" rms="4.7156736254692078e-01" purity="4.9845045804977417e-01" nType="0">
        <Node pos="l" depth="1" NCoef="0" IVar="6" Cut="2.4652817249298096e+00" cType="1" res="-7.3072980158030987e-03" rms="4.7161322832107544e-01" purity="4.5492628216743469e-01" nType="0">
          <Node pos="l" depth="2" NCoef="0" IVar="-1" Cut="0.0000000000000000e+00" cType="1" res="3.1536200549453497e-04" rms="4.7495287656784058e-01" purity="4.9280878901481628e-01" nType="-99"/>
          <Node pos="r" depth="2" NCoef="0" IVar="-1" Cut="0.0000000000000000e+00" cType="1" res="-2.3284077178686857e-03" rms="4.4973161816596985e-01" purity="3.2646152377128601e-01" nType="-99"/>
        </Node>
        <Node pos="r" depth="1" NCoef="0" IVar="0" Cut="5.7123105973005295e-02" cType="1" res="1.1092429608106613e-01" rms="4.5930829644203186e-01" purity="6.7664170265197754e-01" nType="0">
          <Node pos="l" depth="2" NCoef="0" IVar="-1" Cut="0.0000000000000000e+00" cType="1" res="9.3482714146375656e-04" rms="4.7542786598205566e-01" purity="6.2485736608505249e-01" nType="-99"/>
          <Node pos="r" depth="2" NCoef="0" IVar="-1" Cut="0.0000000000000000e+00" cType="1" res="2.1947938948869705e-03" rms="4.2701765894889832e-01" purity="7.4924170970916748e-01" nType="-99"/>
        </Node>
      </Node>
    </BinaryTree>
    <BinaryTree type="DecisionTree" boostWeight="1.0000000000000000e+00" itree="158">
      <Node pos="s" depth="0" NCoef="0" IVar="2" Cut="3.4020376586914062e+02" cType="1" res="1.7457570880651474e-02" rms="4.7040352225303650e-01" purity="5.0084018707275391e-01" nType="0">
        <Node pos="l" depth="1" NCoef="0" IVar="3" Cut="7.7653899788856506e-02" cType="1" res="-9.6246957778930664e-02" rms="4.2520511150360107e-01" purity="2.6715511083602905e-01" nType="0">
          <Node pos="l" depth="2" NCoef="0" IVar="-1" Cut="0.0000000000000000e+00" cType="1" res="-4.2447680607438087e-03" rms="4.0568155050277710e-01" purity="2.3142689466476440e-01" nType="-99"/>
          <Node pos="r" depth="2" NCoef="0" IVar="-1" Cut="0.0000000000000000e+00" cType="1" res="-8.0142705701291561e-04" rms="4.5421212911605835e-01" purity="3.3679658174514771e-01" nType="-99"/>
        </Node>
        <Node pos="r" depth="1" NCoef="0" IVar="1" Cut="9.4941473007202148e-01" cType="1" res="3.9484292268753052e-02" rms="4.7553288936614990e-01" purity="5.4610943794250488e-01" nType="0">
          <Node pos="l" depth="2" NCoef="0" IVar="-1" Cut="0.0000000000000000e+00" cType="1" res="-2.3577782849315554e-04" rms="4.8528841137886047e-01" purity="4.3632033467292786e-01" nType="-99"/>
          <Node pos="r" depth="2" NCoef="0" IVar="-1" Cut="0.0000000000000000e+00" cType="1" res="1.1775697348639369e-03" rms="4.6283254027366638e-01" purity="6.3779211044311523e-01" nType="-99"/>
        </Node>
      </Node>
    </BinaryTree>
    <BinaryTree type="DecisionTree" boostWeight="1.0000000000000000e+00" itree="159">
      <Node pos="s" depth="0" NCoef="0" IVar="1" Cut="9.8125678300857544e-01" cType="1" res="2.0248774439096451e-02" rms="4.7223746776580811e-01" purity="5.0247561931610107e-01" nType="0">
        <Node pos="l" depth="1" NCoef="0" IVar="2" Cut="6.0763183593750000e+02" cType="1" res="2.4172849953174591e-03" rms="4.7739112377166748e-01" purity="4.6252277493476868e-01" nType="0">
          <Node pos="l" depth="2" NCoef="0" IVar="-1" Cut="0.0000000000000000e+00" cType="1" res="-3.2081443350762129e-04" rms="4.7583898901939392e-01" purity="4.2391437292098999e-01" nType="-99"/>
          <Node pos="r" depth="2" NCoef="0" IVar="-1" Cut="0.0000000000000000e+00" cType="1" res="1.2436488177627325e-03" rms="4.7527512907981873e-01" purity="6.4005666971206665e-01" nType="-99"/>
        </Node>
        <Node pos="r" depth="1" NCoef="0" IVar="-1" Cut="0.0000000000000000e+00" cType="1" res="1.6979519277811050e-03" rms="4.1838222742080688e-01" purity="7.6495122909545898e-01" nType="-99"/>
      </Node>
    </BinaryTree>
    <BinaryTree type="DecisionTree" boostWeight="1.0000000000000000e+00" itree="160">
      <Node pos="s" depth="0" NCoef="0" IVar="6" Cut="2.6047730445861816e+00" cType="1" res="1.9214354455471039e-02" rms="4.7215610742568970e-01" purity="5.0138479471206665e-01" nType="0">
        <Node pos="l" depth="1" NCoef="0" IVar="1" Cut="9.4633090496063232e-01" cType="1" res="3.6952972412109375e-02" rms="4.7307232022285461e-01" purity="5.2790611982345581e-01" nType="0">
          <Node pos="l" depth="2" NCoef="0" IVar="-1" Cut="0.0000000000000000e+00" cType="1" res="-3.4983019577339292e-04" rms="4.7779294848442078e-01" purity="4.1175240278244019e-01" nType="-99"/>
          <Node pos="r" depth="2" NCoef="0" IVar="-1" Cut="0.0000000000000000e+00" cType="1" res="1.0993978939950466e-03" rms="4.6613371372222900e-01" purity="6.0820567607879639e-01" nType="-99"/>
        </Node>
        <Node pos="r" depth="1" NCoef="0" IVar="4" Cut="4.9005061388015747e-02" cType="1" res="-9.5837578177452087e-02" rms="4.4948479533195496e-01" purity="3.2936817407608032e-01" nType="0">
          <Node pos="l" depth="2" NCoef="0" IVar="-1" Cut="0.0000000000000000e+00" cType="1" res="-1.1405178811401129e-03" rms="4.6181371808052063e-01" purity="3.7282150983810425e-01" nType="-99"/>
          <Node pos="r" depth="2" NCoef="0" IVar="-1" Cut="0.0000000000000000e+00" cType="1" res="-3.7743730936199427e-03" rms="4.3410772085189819e-01" purity="2.9053267836570740e-01" nType="-99"/>
        </Node>
      </Node>
    </BinaryTree>
    <BinaryTree type="DecisionTree" boostWeight="1.0000000000000000e+00" itree="161">
      <Node pos="s" depth="0" NCoef="0" IVar="1" Cut="9.7834503650665283e-01" cType="1" res="1.3674686662852764e-02" rms="4.7001227736473083e-01" purity="4.9700692296028137e-01" nType="0">
        <Node pos="l" depth="1" NCoef="0" IVar="6" Cut="2.6968941688537598e+00" cType="1" res="-7.9565830528736115e-03" rms="4.7491198778152466e-01" purity="4.4811552762985229e-01" nType="0">
          <Node pos="l" depth="2" NCoef="0" IVar="-1" Cut="0.0000000000000000e+00" cType="1" res="1.2244409299455583e-04" rms="4.7828447818756104e-01" purity="4.6928685903549194e-01" nType="-99"/>
          <Node pos="r" depth="2" NCoef="0" IVar="-1" Cut="0.0000000000000000e+00" cType="1" res="-4.2905318550765514e-03" rms="4.2093834280967712e-01" purity="2.5703197717666626e-01" nType="-99"/>
        </Node>
        <Node pos="r" depth="1" NCoef="0" IVar="-1" Cut="0.0000000000000000e+00" cType="1" res="1.5908926725387573e-03" rms="4.2653158307075500e-01" purity="7.5036555528640747e-01" nType="-99"/>
      </Node>
    </BinaryTree>
    <BinaryTree type="DecisionTree" boostWeight="1.0000000000000000e+00" itree="162">
      <Node pos="s" depth="0" NCoef="0" IVar="1" Cut="9.4295406341552734e-01" cType="1" res="1.6574459150433540e-02" rms="4.7022935748100281e-01" purity="5.0024324655532837e-01" nType="0">
        <Node pos="l" depth="1" NCoef="0" IVar="2" Cut="6.2117755126953125e+02" cType="1" res="-4.7107566148042679e-02" rms="4.6668106317520142e-01" purity="3.7077173590660095e-01" nType="0">
          <Node pos="l" depth="2" NCoef="0" IVar="-1" Cut="0.0000000000000000e+00" cType="1" res="-1.5644982922822237e-03" rms="4.5953652262687683e-01" purity="3.3403447270393372e-01" nType="-99"/>
          <Node pos="r" depth="2" NCoef="0" IVar="-1" Cut="0.0000000000000000e+00" cType="1" res="6.8780273431912065e-04" rms="4.9362322688102722e-01" purity="5.6841254234313965e-01" nType="-99"/>
        </Node>
        <Node pos="r" depth="1" NCoef="0" IVar="6" Cut="2.3484635353088379e+00" cType="1" res="5.2612099796533585e-02" rms="4.6840506792068481e-01" purity="5.7351118326187134e-01" nType="0">
          <Node pos="l" depth="2" NCoef="0" IVar="-1" Cut="0.0000000000000000e+00" cType="1" res="1.2564709177240729e-03" rms="4.6162644028663635e-01" purity="6.1980515718460083e-01" nType="-99"/>
          <Node pos="r" depth="2" NCoef="0" IVar="-1" Cut="0.0000000000000000e+00" cType="1" res="-4.1630177292972803e-04" rms="4.7478696703910828e-01" purity="4.6959760785102844e-01" nType="-99"/>
        </Node>
      </Node>
    </BinaryTree>
    <BinaryTree type="DecisionTree" boostWeight="1.0000000000000000e+00" itree="163">
      <Node pos="s" depth="0" NCoef="0" IVar="1" Cut="9.8131811618804932e-01" cType="1" res="1.4083909802138805e-02" rms="4.7090592980384827e-01" purity="4.9685418605804443e-01" nType="0">
        <Node pos="l" depth="1" NCoef="0" IVar="2" Cut="3.5962454223632812e+02" cType="1" res="-4.2665009386837482e-03" rms="4.7569745779037476e-01" purity="4.5597136020660400e-01" nType="0">
          <Node pos="l" depth="2" NCoef="0" IVar="-1" Cut="0.0000000000000000e+00" cType="1" res="-2.5343869347125292e-03" rms="4.3176880478858948e-01" purity="2.6160386204719543e-01" nType="-99"/>
          <Node pos="r" depth="2" NCoef="0" IVar="-1" Cut="0.0000000000000000e+00" cType="1" res="3.3525429898872972e-04" rms="4.8592439293861389e-01" purity="5.1603770256042480e-01" nType="-99"/>
        </Node>
        <Node pos="r" depth="1" NCoef="0" IVar="-1" Cut="0.0000000000000000e+00" cType="1" res="1.6689498443156481e-03" rms="4.1896378993988037e-01" purity="7.6402199268341064e-01" nType="-99"/>
      </Node>
    </BinaryTree>
    <BinaryTree type="DecisionTree" boostWeight="1.0000000000000000e+00" itree="164">
      <Node pos="s" depth="0" NCoef="0" IVar="6" Cut="2.6437685489654541e+00" cType="1" res="1.6498083248734474e-02" rms="4.7122481465339661e-01" purity="4.9910575151443481e-01" nType="0">
        <Node pos="l" depth="1" NCoef="0" IVar="1" Cut="9.7514885663986206e-01" cType="1" res="3.2921843230724335e-02" rms="4.7238996624946594e-01" purity="5.2340000867843628e-01" nType="0">
          <Node pos="l" depth="2" NCoef="0" IVar="-1" Cut="0.0000000000000000e+00" cType="1" res="2.0179209241177887e-04" rms="4.7995778918266296e-01" purity="4.6982017159461975e-01" nType="-99"/>
          <Node pos="r" depth="2" NCoef="0" IVar="-1" Cut="0.0000000000000000e+00" cType="1" res="1.5759316738694906e-03" rms="4.2717045545578003e-01" purity="7.4814426898956299e-01" nType="-99"/>
        </Node>
        <Node pos="r" depth="1" NCoef="0" IVar="4" Cut="5.1782719790935516e-02" cType="1" res="-1.0912415385246277e-01" rms="4.4249209761619568e-01" purity="3.1328374147415161e-01" nType="0">
          <Node pos="l" depth="2" NCoef="0" IVar="-1" Cut="0.0000000000000000e+00" cType="1" res="-1.5061780577525496e-03" rms="4.5694395899772644e-01" purity="3.5893741250038147e-01" nType="-99"/>
          <Node pos="r" depth="2" NCoef="0" IVar="-1" Cut="0.0000000000000000e+00" cType="1" res="-4.3638078495860100e-03" rms="4.2569479346275330e-01" purity="2.7338173985481262e-01" nType="-99"/>
        </Node>
      </Node>
    </BinaryTree>
    <BinaryTree type="DecisionTree" boostWeight="1.0000000000000000e+00" itree="165">
      <Node pos="s" depth="0" NCoef="0" IVar="1" Cut="9.8436695337295532e-01" cType="1" res="1.8935464322566986e-02" rms="4.7027653455734253e-01" purity="5.0204545259475708e-01" nType="0">
        <Node pos="l" depth="1" NCoef="0" IVar="6" Cut="2.5600533485412598e+00" cType="1" res="2.7353484183549881e-03" rms="4.7509932518005371e-01" purity="4.6799042820930481e-01" nType="0">
          <Node pos="l" depth="2" NCoef="0" IVar="-1" Cut="0.0000000000000000e+00" cType="1" res="3.8574251811951399e-04" rms="4.7858896851539612e-01" purity="4.9759393930435181e-01" nType="-99"/>
          <Node pos="r" depth="2" NCoef="0" IVar="-1" Cut="0.0000000000000000e+00" cType="1" res="-2.5884655769914389e-03" rms="4.4277620315551758e-01" purity="3.1298670172691345e-01" nType="-99"/>
        </Node>
        <Node pos="r" depth="1" NCoef="0" IVar="-1" Cut="0.0000000000000000e+00" cType="1" res="1.8931186059489846e-03" rms="4.0185910463333130e-01" purity="7.9049360752105713e-01" nType="-99"/>
      </Node>
    </BinaryTree>
    <BinaryTree type="DecisionTree" boostWeight="1.0000000000000000e+00" itree="166">
      <Node pos="s" depth="0" NCoef="0" IVar="1" Cut="9.4563591480255127e-01" cType="1" res="1.3914449140429497e-02" rms="4.7023507952690125e-01" purity="4.9711257219314575e-01" nType="0">
        <Node pos="l" depth="1" NCoef="0" IVar="2" Cut="6.0636621093750000e+02" cType="1" res="-4.3646689504384995e-02" rms="4.6641668677330017e-01" purity="3.7560415267944336e-01" nType="0">
          <Node pos="l" depth="2" NCoef="0" IVar="-1" Cut="0.0000000000000000e+00" cType="1" res="-1.5424924204126000e-03" rms="4.5804890990257263e-01" purity="3.3241790533065796e-01" nType="-99"/>
          <Node pos="r" depth="2" NCoef="0" IVar="-1" Cut="0.0000000000000000e+00" cType="1" res="7.0344458799809217e-04" rms="4.9296841025352478e-01" purity="5.7172542810440063e-01" nType="-99"/>
        </Node>
        <Node pos="r" depth="1" NCoef="0" IVar="2" Cut="3.7524279785156250e+02" cType="1" res="5.2986528724431992e-02" rms="4.6879959106445312e-01" purity="5.7959157228469849e-01" nType="0">
          <Node pos="l" depth="2" NCoef="0" IVar="-1" Cut="0.0000000000000000e+00" cType="1" res="-5.5367982713505626e-04" rms="4.7191059589385986e-01" purity="3.9966183900833130e-01" nType="-99"/>
          <Node pos="r" depth="2" NCoef="0" IVar="-1" Cut="0.0000000000000000e+00" cType="1" res="1.1479582171887159e-03" rms="4.6446499228477478e-01" purity="6.4355474710464478e-01" nType="-99"/>
        </Node>
      </Node>
    </BinaryTree>
    <BinaryTree type="DecisionTree" boostWeight="1.0000000000000000e+00" itree="167">
      <Node pos="s" depth="0" NCoef="0" IVar="1" Cut="9.7845721244812012e-01" cType="1" res="1.7775733023881912e-02" rms="4.7110760211944580e-01" purity="5.0067013502120972e-01" nType="0">
        <Node pos="l" depth="1" NCoef="0" IVar="6" Cut="2.3937151432037354e+00" cType="1" res="-1.3065952807664871e-03" rms="4.7672271728515625e-01" purity="4.5360782742500305e-01" nType="0">
          <Node pos="l" depth="2" NCoef="0" IVar="-1" Cut="0.0000000000000000e+00" cType="1" res="3.9180781459435821e-04" rms="4.8121020197868347e-01" purity="4.9078783392906189e-01" nType="-99"/>
          <Node pos="r" depth="2" NCoef="0" IVar="-1" Cut="0.0000000000000000e+00" cType="1" res="-1.3974243775010109e-03" rms="4.6008425951004028e-01" purity="3.6085939407348633e-01" nType="-99"/>
        </Node>
        <Node pos="r" depth="1" NCoef="0" IVar="-1" Cut="0.0000000000000000e+00" cType="1" res="1.5084234764799476e-03" rms="4.2646679282188416e-01" purity="7.4863213300704956e-01" nType="-99"/>
      </Node>
    </BinaryTree>
    <BinaryTree type="DecisionTree" boostWeight="1.0000000000000000e+00" itree="168">
      <Node pos="s" depth="0" NCoef="0" IVar="1" Cut="9.4330561161041260e-01" cType="1" res="1.4121309854090214e-02" rms="4.7009420394897461e-01" purity="4.9762246012687683e-01" nType="0">
        <Node pos="l" depth="1" NCoef="0" IVar="6" Cut="2.3933141231536865e+00" cType="1" res="-4.6913214027881622e-02" rms="4.6499997377395630e-01" purity="3.7063235044479370e-01" nType="0">
          <Node pos="l" depth="2" NCoef="0" IVar="-1" Cut="0.0000000000000000e+00" cType="1" res="-4.4177434756420553e-04" rms="4.7588127851486206e-01" purity="4.0978616476058960e-01" nType="-99"/>
          <Node pos="r" depth="2" NCoef="0" IVar="-1" Cut="0.0000000000000000e+00" cType="1" res="-3.1765627209097147e-03" rms="4.3152385950088501e-01" purity="2.7602633833885193e-01" nType="-99"/>
        </Node>
        <Node pos="r" depth="1" NCoef="0" IVar="6" Cut="2.5016129016876221e+00" cType="1" res="4.9785945564508438e-02" rms="4.6938613057136536e-01" purity="5.7182729244232178e-01" nType="0">
          <Node pos="l" depth="2" NCoef="0" IVar="-1" Cut="0.0000000000000000e+00" cType="1" res="1.0749686043709517e-03" rms="4.6620920300483704e-01" purity="6.0569816827774048e-01" nType="-99"/>
          <Node pos="r" depth="2" NCoef="0" IVar="-1" Cut="0.0000000000000000e+00" cType="1" res="-1.1074813082814217e-03" rms="4.6994906663894653e-01" purity="4.1699895262718201e-01" nType="-99"/>
        </Node>
      </Node>
    </BinaryTree>
    <BinaryTree type="DecisionTree" boostWeight="1.0000000000000000e+00" itree="169">
      <Node pos="s" depth="0" NCoef="0" IVar="2" Cut="3.3664035034179688e+02" cType="1" res="1.6244523227214813e-02" rms="4.7063437104225159e-01" purity="4.9943420290946960e-01" nType="0">
        <Node pos="l" depth="1" NCoef="0" IVar="3" Cut="4.3320614844560623e-02" cType="1" res="-9.1537036001682281e-02" rms="4.2390501499176025e-01" purity="2.6681381464004517e-01" nType="0">
          <Node pos="l" depth="2" NCoef="0" IVar="-1" Cut="0.0000000000000000e+00" cType="1" res="-4.5756790786981583e-03" rms="3.9929449558258057e-01" purity="2.2358052432537079e-01" nType="-99"/>
          <Node pos="r" depth="2" NCoef="0" IVar="-1" Cut="0.0000000000000000e+00" cType="1" res="-8.7104603881016374e-04" rms="4.5104336738586426e-01" purity="3.2929307222366333e-01" nType="-99"/>
        </Node>
        <Node pos="r" depth="1" NCoef="0" IVar="6" Cut="2.5195295810699463e+00" cType="1" res="3.5374667495489120e-02" rms="4.7590774297714233e-01" purity="5.4072195291519165e-01" nType="0">
          <Node pos="l" depth="2" NCoef="0" IVar="-1" Cut="0.0000000000000000e+00" cType="1" res="8.6917896987870336e-04" rms="4.7471266984939575e-01" purity="5.7162779569625854e-01" nType="-99"/>
          <Node pos="r" depth="2" NCoef="0" IVar="-1" Cut="0.0000000000000000e+00" cType="1" res="-1.4283052878454328e-03" rms="4.6892806887626648e-01" purity="3.8858732581138611e-01" nType="-99"/>
        </Node>
      </Node>
    </BinaryTree>
    <BinaryTree type="DecisionTree" boostWeight="1.0000000000000000e+00" itree="170">
      <Node pos="s" depth="0" NCoef="0" IVar="1" Cut="9.3966841697692871e-01" cType="1" res="1.9664667546749115e-02" rms="4.7070312500000000e-01" purity="5.0227135419845581e-01" nType="0">
        <Node pos="l" depth="1" NCoef="0" IVar="4" Cut="-1.3402829878032207e-02" cType="1" res="-4.3256931006908417e-02" rms="4.6796482801437378e-01" purity="3.6926329135894775e-01" nType="0">
          <Node pos="l" depth="2" NCoef="0" IVar="-1" Cut="0.0000000000000000e+00" cType="1" res="1.2319408597250003e-05" rms="4.7544291615486145e-01" purity="4.0584200620651245e-01" nType="-99"/>
          <Node pos="r" depth="2" NCoef="0" IVar="-1" Cut="0.0000000000000000e+00" cType="1" res="-1.6268206527456641e-03" rms="4.6170589327812195e-01" purity="3.4816184639930725e-01" nType="-99"/>
        </Node>
        <Node pos="r" depth="1" NCoef="0" IVar="6" Cut="2.5016129016876221e+00" cType="1" res="4.9606394022703171e-02" rms="4.6904593706130981e-01" purity="5.6556421518325806e-01" nType="0">
          <Node pos="l" depth="2" NCoef="0" IVar="-1" Cut="0.0000000000000000e+00" cType="1" res="1.0845841607078910e-03" rms="4.6551367640495300e-01" purity="6.0034030675888062e-01" nType="-99"/>
          <Node pos="r" depth="2" NCoef="0" IVar="-1" Cut="0.0000000000000000e+00" cType="1" res="-1.1231050593778491e-03" rms="4.7125449776649475e-01" purity="4.0780860185623169e-01" nType="-99"/>
        </Node>
      </Node>
    </BinaryTree>
    <BinaryTree type="DecisionTree" boostWeight="1.0000000000000000e+00" itree="171">
      <Node pos="s" depth="0" NCoef="0" IVar="1" Cut="9.8144096136093140e-01" cType="1" res="1.8237927928566933e-02" rms="4.6973738074302673e-01" purity="5.0252401828765869e-01" nType="0">
        <Node pos="l" depth="1" NCoef="0" IVar="6" Cut="2.3162329196929932e+00" cType="1" res="-1.6499837511219084e-04" rms="4.7521939873695374e-01" purity="4.6076512336730957e-01" nType="0">
          <Node pos="l" depth="2" NCoef="0" IVar="-1" Cut="0.0000000000000000e+00" cType="1" res="5.4783612722530961e-04" rms="4.7914123535156250e-01" purity="5.0870585441589355e-01" nType="-99"/>
          <Node pos="r" depth="2" NCoef="0" IVar="-1" Cut="0.0000000000000000e+00" cType="1" res="-1.2775131035596132e-03" rms="4.6283021569252014e-01" purity="3.7632173299789429e-01" nType="-99"/>
        </Node>
        <Node pos="r" depth="1" NCoef="0" IVar="-1" Cut="0.0000000000000000e+00" cType="1" res="1.6956897452473640e-03" rms="4.1392982006072998e-01" purity="7.7029830217361450e-01" nType="-99"/>
      </Node>
    </BinaryTree>
    <BinaryTree type="DecisionTree" boostWeight="1.0000000000000000e+00" itree="172">
      <Node pos="s" depth="0" NCoef="0" IVar="1" Cut="9.6377974748611450e-01" cType="1" res="1.3102315366268158e-02" rms="4.6988695859909058e-01" purity="4.9605190753936768e-01" nType="0">
        <Node pos="l" depth="1" NCoef="0" IVar="2" Cut="5.7500860595703125e+02" cType="1" res="-1.9078508019447327e-02" rms="4.7336837649345398e-01" purity="4.1431874036788940e-01" nType="0">
          <Node pos="l" depth="2" NCoef="0" IVar="-1" Cut="0.0000000000000000e+00" cType="1" res="-8.5523660527542233e-04" rms="4.6721664071083069e-01" purity="3.6791706085205078e-01" nType="-99"/>
          <Node pos="r" depth="2" NCoef="0" IVar="-1" Cut="0.0000000000000000e+00" cType="1" res="7.7469140524044633e-04" rms="4.8919439315795898e-01" purity="5.8658939599990845e-01" nType="-99"/>
        </Node>
        <Node pos="r" depth="1" NCoef="0" IVar="2" Cut="4.1606668090820312e+02" cType="1" res="8.0026976764202118e-02" rms="4.5533716678619385e-01" purity="6.6602784395217896e-01" nType="0">
          <Node pos="l" depth="2" NCoef="0" IVar="-1" Cut="0.0000000000000000e+00" cType="1" res="3.6040347185917199e-04" rms="4.8251107335090637e-01" purity="5.5338233709335327e-01" nType="-99"/>
          <Node pos="r" depth="2" NCoef="0" IVar="-1" Cut="0.0000000000000000e+00" cType="1" res="1.4950897311791778e-03" rms="4.3341717123985291e-01" purity="7.3714482784271240e-01" nType="-99"/>
        </Node>
      </Node>
    </BinaryTree>
    <BinaryTree type="DecisionTree" boostWeight="1.0000000000000000e+00" itree="173">
      <Node pos="s" depth="0" NCoef="0" IVar="1" Cut="9.8430716991424561e-01" cType="1" res="1.7260162159800529e-02" rms="4.6968105435371399e-01" purity="5.0031518936157227e-01" nType="0">
        <Node pos="l" depth="1" NCoef="0" IVar="5" Cut="2.6685147094726562e+02" cType="1" res="1.1497567174956203e-03" rms="4.7455918788909912e-01" purity="4.6587464213371277e-01" nType="0">
          <Node pos="l" depth="2" NCoef="0" IVar="-1" Cut="0.0000000000000000e+00" cType="1" res="-1.4207013882696629e-03" rms="4.4920688867568970e-01" purity="3.1927192211151123e-01" nType="-99"/>
          <Node pos="r" depth="2" NCoef="0" IVar="-1" Cut="0.0000000000000000e+00" cType="1" res="4.9490627134218812e-04" rms="4.8460626602172852e-01" purity="5.4197138547897339e-01" nType="-99"/>
        </Node>
        <Node pos="r" depth="1" NCoef="0" IVar="-1" Cut="0.0000000000000000e+00" cType="1" res="1.8422377761453390e-03" rms="4.0118268132209778e-01" purity="7.9135912656784058e-01" nType="-99"/>
      </Node>
    </BinaryTree>
    <BinaryTree type="DecisionTree" boostWeight="1.0000000000000000e+00" itree="174">
      <Node pos="s" depth="0" NCoef="0" IVar="2" Cut="4.9703775024414062e+02" cType="1" res="1.7110392451286316e-02" rms="4.6959531307220459e-01" purity="5.0052410364151001e-01" nType="0">
        <Node pos="l" depth="1" NCoef="0" IVar="1" Cut="9.3056988716125488e-01" cType="1" res="-1.7231626436114311e-02" rms="4.6691590547561646e-01" purity="4.2041400074958801e-01" nType="0">
          <Node pos="l" depth="2" NCoef="0" IVar="-1" Cut="0.0000000000000000e+00" cType="1" res="-2.7664345689117908e-03" rms="4.3316328525543213e-01" purity="2.6674988865852356e-01" nType="-99"/>
          <Node pos="r" depth="2" NCoef="0" IVar="-1" Cut="0.0000000000000000e+00" cType="1" res="1.0572822793619707e-04" rms="4.7403243184089661e-01" purity="4.6591258049011230e-01" nType="-99"/>
        </Node>
        <Node pos="r" depth="1" NCoef="0" IVar="1" Cut="9.5454376935958862e-01" cType="1" res="7.7414415776729584e-02" rms="4.6820774674415588e-01" purity="6.4119619131088257e-01" nType="0">
          <Node pos="l" depth="2" NCoef="0" IVar="-1" Cut="0.0000000000000000e+00" cType="1" res="5.5231340229511261e-04" rms="4.9350631237030029e-01" purity="5.5592286586761475e-01" nType="-99"/>
          <Node pos="r" depth="2" NCoef="0" IVar="-1" Cut="0.0000000000000000e+00" cType="1" res="1.6011336119845510e-03" rms="4.3348276615142822e-01" purity="7.3627001047134399e-01" nType="-99"/>
        </Node>
      </Node>
    </BinaryTree>
    <BinaryTree type="DecisionTree" boostWeight="1.0000000000000000e+00" itree="175">
      <Node pos="s" depth="0" NCoef="0" IVar="1" Cut="9.8144096136093140e-01" cType="1" res="9.9047599360346794e-03" rms="4.7013291716575623e-01" purity="4.9234530329704285e-01" nType="0">
        <Node pos="l" depth="1" NCoef="0" IVar="2" Cut="3.5887960815429688e+02" cType="1" res="-7.7127469703555107e-03" rms="4.7480854392051697e-01" purity="4.5167070627212524e-01" nType="0">
          <Node pos="l" depth="2" NCoef="0" IVar="-1" Cut="0.0000000000000000e+00" cType="1" res="-2.3596009705215693e-03" rms="4.3064725399017334e-01" purity="2.6261562108993530e-01" nType="-99"/>
          <Node pos="r" depth="2" NCoef="0" IVar="-1" Cut="0.0000000000000000e+00" cType="1" res="2.3975716612767428e-04" rms="4.8560968041419983e-01" purity="5.1019877195358276e-01" nType="-99"/>
        </Node>
        <Node pos="r" depth="1" NCoef="0" IVar="-1" Cut="0.0000000000000000e+00" cType="1" res="1.5974740963429213e-03" rms="4.1940319538116455e-01" purity="7.6262599229812622e-01" nType="-99"/>
      </Node>
    </BinaryTree>
    <BinaryTree type="DecisionTree" boostWeight="1.0000000000000000e+00" itree="176">
      <Node pos="s" depth="0" NCoef="0" IVar="2" Cut="3.5469033813476562e+02" cType="1" res="2.2026373073458672e-02" rms="4.6986570954322815e-01" purity="5.0562995672225952e-01" nType="0">
        <Node pos="l" depth="1" NCoef="0" IVar="3" Cut="3.5538472235202789e-02" cType="1" res="-5.9553053230047226e-02" rms="4.3922311067581177e-01" purity="3.0414301156997681e-01" nType="0">
          <Node pos="l" depth="2" NCoef="0" IVar="-1" Cut="0.0000000000000000e+00" cType="1" res="-3.0570302624255419e-03" rms="4.1716632246971130e-01" purity="2.5985029339790344e-01" nType="-99"/>
          <Node pos="r" depth="2" NCoef="0" IVar="-1" Cut="0.0000000000000000e+00" cType="1" res="-1.5609605179633945e-04" rms="4.6053126454353333e-01" purity="3.6079037189483643e-01" nType="-99"/>
        </Node>
        <Node pos="r" depth="1" NCoef="0" IVar="1" Cut="9.6072024106979370e-01" cType="1" res="4.3910823762416840e-02" rms="4.7537603974342346e-01" purity="5.5968075990676880e-01" nType="0">
          <Node pos="l" depth="2" NCoef="0" IVar="-1" Cut="0.0000000000000000e+00" cType="1" res="1.8397065286990255e-04" rms="4.8802369832992554e-01" purity="4.7571066021919250e-01" nType="-99"/>
          <Node pos="r" depth="2" NCoef="0" IVar="-1" Cut="0.0000000000000000e+00" cType="1" res="1.3246445450931787e-03" rms="4.4844692945480347e-01" purity="6.9734245538711548e-01" nType="-99"/>
        </Node>
      </Node>
    </BinaryTree>
    <BinaryTree type="DecisionTree" boostWeight="1.0000000000000000e+00" itree="177">
      <Node pos="s" depth="0" NCoef="0" IVar="1" Cut="9.7837632894515991e-01" cType="1" res="1.3449235819280148e-02" rms="4.6933442354202271e-01" purity="4.9641686677932739e-01" nType="0">
        <Node pos="l" depth="1" NCoef="0" IVar="2" Cut="5.2728631591796875e+02" cType="1" res="-6.6068964079022408e-03" rms="4.7497424483299255e-01" purity="4.4743883609771729e-01" nType="0">
          <Node pos="l" depth="2" NCoef="0" IVar="-1" Cut="0.0000000000000000e+00" cType="1" res="-7.0308684371411800e-04" rms="4.6936950087547302e-01" purity="3.8364008069038391e-01" nType="-99"/>
          <Node pos="r" depth="2" NCoef="0" IVar="-1" Cut="0.0000000000000000e+00" cType="1" res="8.3661015378311276e-04" rms="4.8274967074394226e-01" purity="6.0425579547882080e-01" nType="-99"/>
        </Node>
        <Node pos="r" depth="1" NCoef="0" IVar="-1" Cut="0.0000000000000000e+00" cType="1" res="1.5118118608370423e-03" rms="4.2351946234703064e-01" purity="7.5230610370635986e-01" nType="-99"/>
      </Node>
    </BinaryTree>
    <BinaryTree type="DecisionTree" boostWeight="1.0000000000000000e+00" itree="178">
      <Node pos="s" depth="0" NCoef="0" IVar="1" Cut="9.5141851902008057e-01" cType="1" res="1.7752012237906456e-02" rms="4.6954679489135742e-01" purity="5.0137865543365479e-01" nType="0">
        <Node pos="l" depth="1" NCoef="0" IVar="2" Cut="6.6445544433593750e+02" cType="1" res="-2.8519131243228912e-02" rms="4.6973451972007751e-01" purity="3.9154884219169617e-01" nType="0">
          <Node pos="l" depth="2" NCoef="0" IVar="-1" Cut="0.0000000000000000e+00" cType="1" res="-1.0244941804558039e-03" rms="4.6506741642951965e-01" purity="3.5936900973320007e-01" nType="-99"/>
          <Node pos="r" depth="2" NCoef="0" IVar="-1" Cut="0.0000000000000000e+00" cType="1" res="1.1773069854825735e-03" rms="4.8625037074089050e-01" purity="6.1043012142181396e-01" nType="-99"/>
        </Node>
        <Node pos="r" depth="1" NCoef="0" IVar="1" Cut="9.8369461297988892e-01" cType="1" res="6.3292786478996277e-02" rms="4.6488651633262634e-01" purity="6.0947477817535400e-01" nType="0">
          <Node pos="l" depth="2" NCoef="0" IVar="-1" Cut="0.0000000000000000e+00" cType="1" res="6.4483151072636247e-04" rms="4.7776171565055847e-01" purity="5.6037098169326782e-01" nType="-99"/>
          <Node pos="r" depth="2" NCoef="0" IVar="-1" Cut="0.0000000000000000e+00" cType="1" res="1.7764505464583635e-03" rms="4.0523305535316467e-01" purity="7.8522485494613647e-01" nType="-99"/>
        </Node>
      </Node>
    </BinaryTree>
    <BinaryTree type="DecisionTree" boostWeight="1.0000000000000000e+00" itree="179">
      <Node pos="s" depth="0" NCoef="0" IVar="2" Cut="4.7018118286132812e+02" cType="1" res="1.5121909789741039e-02" rms="4.6973836421966553e-01" purity="4.9834725260734558e-01" nType="0">
        <Node pos="l" depth="1" NCoef="0" IVar="2" Cut="3.0775958251953125e+02" cType="1" res="-2.2970871999859810e-02" rms="4.6485033631324768e-01" purity="4.0292817354202271e-01" nType="0">
          <Node pos="l" depth="2" NCoef="0" IVar="-1" Cut="0.0000000000000000e+00" cType="1" res="-4.5184614136815071e-03" rms="3.9154601097106934e-01" purity="2.2241857647895813e-01" nType="-99"/>
          <Node pos="r" depth="2" NCoef="0" IVar="-1" Cut="0.0000000000000000e+00" cType="1" res="-1.4356951578520238e-04" rms="4.7257348895072937e-01" purity="4.2936050891876221e-01" nType="-99"/>
        </Node>
        <Node pos="r" depth="1" NCoef="0" IVar="1" Cut="9.5774924755096436e-01" cType="1" res="6.6469639539718628e-02" rms="4.7140157222747803e-01" purity="6.2696874141693115e-01" nType="0">
          <Node pos="l" depth="2" NCoef="0" IVar="-1" Cut="0.0000000000000000e+00" cType="1" res="3.9770326111465693e-04" rms="4.9432978034019470e-01" purity="5.4238599538803101e-01" nType="-99"/>
          <Node pos="r" depth="2" NCoef="0" IVar="-1" Cut="0.0000000000000000e+00" cType="1" res="1.5512602403759956e-03" rms="4.3341961503028870e-01" purity="7.3815679550170898e-01" nType="-99"/>
        </Node>
      </Node>
    </BinaryTree>
    <BinaryTree type="DecisionTree" boostWeight="1.0000000000000000e+00" itree="180">
      <Node pos="s" depth="0" NCoef="0" IVar="1" Cut="9.4243258237838745e-01" cType="1" res="1.7959844321012497e-02" rms="4.6928533911705017e-01" purity="5.0255912542343140e-01" nType="0">
        <Node pos="l" depth="1" NCoef="0" IVar="6" Cut="2.4673297405242920e+00" cType="1" res="-4.1660688817501068e-02" rms="4.6530175209045410e-01" purity="3.7364977598190308e-01" nType="0">
          <Node pos="l" depth="2" NCoef="0" IVar="-1" Cut="0.0000000000000000e+00" cType="1" res="-3.8130677421577275e-04" rms="4.7580999135971069e-01" purity="4.1046047210693359e-01" nType="-99"/>
          <Node pos="r" depth="2" NCoef="0" IVar="-1" Cut="0.0000000000000000e+00" cType="1" res="-3.7899869494140148e-03" rms="4.1908094286918640e-01" purity="2.5040072202682495e-01" nType="-99"/>
        </Node>
        <Node pos="r" depth="1" NCoef="0" IVar="2" Cut="4.3399075317382812e+02" cType="1" res="5.0894439220428467e-02" rms="4.6822759509086609e-01" purity="5.7376903295516968e-01" nType="0">
          <Node pos="l" depth="2" NCoef="0" IVar="-1" Cut="0.0000000000000000e+00" cType="1" res="3.5953664337284863e-05" rms="4.7774642705917358e-01" purity="4.5250675082206726e-01" nType="-99"/>
          <Node pos="r" depth="2" NCoef="0" IVar="-1" Cut="0.0000000000000000e+00" cType="1" res="1.2494740076363087e-03" rms="4.5613148808479309e-01" purity="6.7487215995788574e-01" nType="-99"/>
        </Node>
      </Node>
    </BinaryTree>
    <BinaryTree type="DecisionTree" boostWeight="1.0000000000000000e+00" itree="181">
      <Node pos="s" depth="0" NCoef="0" IVar="1" Cut="9.5416182279586792e-01" cType="1" res="1.6143389046192169e-02" rms="4.6891111135482788e-01" purity="5.0038605928421021e-01" nType="0">
        <Node pos="l" depth="1" NCoef="0" IVar="1" Cut="9.2306274175643921e-01" cType="1" res="-2.6983918622136116e-02" rms="4.7117450833320618e-01" purity="3.9392471313476562e-01" nType="0">
          <Node pos="l" depth="2" NCoef="0" IVar="-1" Cut="0.0000000000000000e+00" cType="1" res="-2.2346095647662878e-03" rms="4.5263001322746277e-01" purity="3.2056480646133423e-01" nType="-99"/>
          <Node pos="r" depth="2" NCoef="0" IVar="-1" Cut="0.0000000000000000e+00" cType="1" res="-5.9139161749044433e-05" rms="4.7622874379158020e-01" purity="4.2312744259834290e-01" nType="-99"/>
        </Node>
        <Node pos="r" depth="1" NCoef="0" IVar="5" Cut="2.5159246826171875e+02" cType="1" res="6.6183030605316162e-02" rms="4.6124479174613953e-01" purity="6.2391078472137451e-01" nType="0">
          <Node pos="l" depth="2" NCoef="0" IVar="-1" Cut="0.0000000000000000e+00" cType="1" res="-4.9725774442777038e-04" rms="4.7376006841659546e-01" purity="4.4530084729194641e-01" nType="-99"/>
          <Node pos="r" depth="2" NCoef="0" IVar="-1" Cut="0.0000000000000000e+00" cType="1" res="1.2863723095506430e-03" rms="4.5357078313827515e-01" purity="6.7897576093673706e-01" nType="-99"/>
        </Node>
      </Node>
    </BinaryTree>
    <BinaryTree type="DecisionTree" boostWeight="1.0000000000000000e+00" itree="182">
      <Node pos="s" depth="0" NCoef="0" IVar="1" Cut="9.5747745037078857e-01" cType="1" res="1.5676600858569145e-02" rms="4.6806606650352478e-01" purity="5.0048601627349854e-01" nType="0">
        <Node pos="l" depth="1" NCoef="0" IVar="6" Cut="2.5234251022338867e+00" cType="1" res="-2.3732148110866547e-02" rms="4.7080212831497192e-01" purity="4.0030226111412048e-01" nType="0">
          <Node pos="l" depth="2" NCoef="0" IVar="-1" Cut="0.0000000000000000e+00" cType="1" res="-1.0179437231272459e-04" rms="4.7870957851409912e-01" purity="4.3174535036087036e-01" nType="-99"/>
          <Node pos="r" depth="2" NCoef="0" IVar="-1" Cut="0.0000000000000000e+00" cType="1" res="-3.1979798804968596e-03" rms="4.2571523785591125e-01" purity="2.6419842243194580e-01" nType="-99"/>
        </Node>
        <Node pos="r" depth="1" NCoef="0" IVar="2" Cut="4.6597012329101562e+02" cType="1" res="7.0652887225151062e-02" rms="4.5859932899475098e-01" purity="6.4024507999420166e-01" nType="0">
          <Node pos="l" depth="2" NCoef="0" IVar="-1" Cut="0.0000000000000000e+00" cType="1" res="3.5591720370575786e-04" rms="4.7864174842834473e-01" purity="5.4656738042831421e-01" nType="-99"/>
          <Node pos="r" depth="2" NCoef="0" IVar="-1" Cut="0.0000000000000000e+00" cType="1" res="1.6035805456340313e-03" rms="4.2853108048439026e-01" purity="7.4517291784286499e-01" nType="-99"/>
        </Node>
      </Node>
    </BinaryTree>
    <BinaryTree type="DecisionTree" boostWeight="1.0000000000000000e+00" itree="183">
      <Node pos="s" depth="0" NCoef="0" IVar="1" Cut="9.7563433647155762e-01" cType="1" res="1.9481938332319260e-02" rms="4.6965506672859192e-01" purity="5.0229591131210327e-01" nType="0">
        <Node pos="l" depth="1" NCoef="0" IVar="6" Cut="2.6639397144317627e+00" cType="1" res="-3.4119177144020796e-04" rms="4.7543197870254517e-01" purity="4.4941645860671997e-01" nType="0">
          <Node pos="l" depth="2" NCoef="0" IVar="-1" Cut="0.0000000000000000e+00" cType="1" res="2.3982873244676739e-04" rms="4.7926044464111328e-01" purity="4.7103276848793030e-01" nType="-99"/>
          <Node pos="r" depth="2" NCoef="0" IVar="-1" Cut="0.0000000000000000e+00" cType="1" res="-3.1086299568414688e-03" rms="4.2969006299972534e-01" purity="2.7921193838119507e-01" nType="-99"/>
        </Node>
        <Node pos="r" depth="1" NCoef="0" IVar="2" Cut="4.1706225585937500e+02" cType="1" res="1.0645073652267456e-01" rms="4.3282252550125122e-01" purity="7.3429036140441895e-01" nType="0">
          <Node pos="l" depth="2" NCoef="0" IVar="-1" Cut="0.0000000000000000e+00" cType="1" res="7.3647114913910627e-04" rms="4.7320136427879333e-01" purity="6.3929814100265503e-01" nType="-99"/>
          <Node pos="r" depth="2" NCoef="0" IVar="-1" Cut="0.0000000000000000e+00" cType="1" res="1.7151496140286326e-03" rms="4.0345162153244019e-01" purity="7.9080748558044434e-01" nType="-99"/>
        </Node>
      </Node>
    </BinaryTree>
    <BinaryTree type="DecisionTree" boostWeight="1.0000000000000000e+00" itree="184">
      <Node pos="s" depth="0" NCoef="0" IVar="1" Cut="9.3344664573669434e-01" cType="1" res="1.5628004446625710e-02" rms="4.6970456838607788e-01" purity="4.9922823905944824e-01" nType="0">
        <Node pos="l" depth="1" NCoef="0" IVar="6" Cut="2.4318172931671143e+00" cType="1" res="-6.1513185501098633e-02" rms="4.5935374498367310e-01" purity="3.4824362397193909e-01" nType="0">
          <Node pos="l" depth="2" NCoef="0" IVar="-1" Cut="0.0000000000000000e+00" cType="1" res="-9.4365881523117423e-04" rms="4.7070935368537903e-01" purity="3.8103508949279785e-01" nType="-99"/>
          <Node pos="r" depth="2" NCoef="0" IVar="-1" Cut="0.0000000000000000e+00" cType="1" res="-3.4818113781511784e-03" rms="4.2205971479415894e-01" purity="2.5678014755249023e-01" nType="-99"/>
        </Node>
        <Node pos="r" depth="1" NCoef="0" IVar="2" Cut="5.4896478271484375e+02" cType="1" res="4.0963258594274521e-02" rms="4.7030249238014221e-01" purity="5.4881560802459717e-01" nType="0">
          <Node pos="l" depth="2" NCoef="0" IVar="-1" Cut="0.0000000000000000e+00" cType="1" res="2.7407804736867547e-04" rms="4.7472578287124634e-01" purity="4.9472334980964661e-01" nType="-99"/>
          <Node pos="r" depth="2" NCoef="0" IVar="-1" Cut="0.0000000000000000e+00" cType="1" res="1.4810789143666625e-03" rms="4.5052313804626465e-01" purity="6.9762361049652100e-01" nType="-99"/>
        </Node>
      </Node>
    </BinaryTree>
    <BinaryTree type="DecisionTree" boostWeight="1.0000000000000000e+00" itree="185">
      <Node pos="s" depth="0" NCoef="0" IVar="2" Cut="4.1546505737304688e+02" cType="1" res="1.5066990628838539e-02" rms="4.6860551834106445e-01" purity="4.9905723333358765e-01" nType="0">
        <Node pos="l" depth="1" NCoef="0" IVar="1" Cut="9.5791327953338623e-01" cType="1" res="-3.4562095999717712e-02" rms="4.5456314086914062e-01" purity="3.6068949103355408e-01" nType="0">
          <Node pos="l" depth="2" NCoef="0" IVar="-1" Cut="0.0000000000000000e+00" cType="1" res="-1.9949604757130146e-03" rms="4.3413200974464417e-01" purity="2.6396772265434265e-01" nType="-99"/>
          <Node pos="r" depth="2" NCoef="0" IVar="-1" Cut="0.0000000000000000e+00" cType="1" res="2.6189297204837203e-04" rms="4.8223987221717834e-01" purity="5.2026551961898804e-01" nType="-99"/>
        </Node>
        <Node pos="r" depth="1" NCoef="0" IVar="1" Cut="9.6642071008682251e-01" cType="1" res="5.0131183117628098e-02" rms="4.7516360878944397e-01" purity="5.9681749343872070e-01" nType="0">
          <Node pos="l" depth="2" NCoef="0" IVar="-1" Cut="0.0000000000000000e+00" cType="1" res="3.6923462175764143e-04" rms="4.9189308285713196e-01" purity="5.3080755472183228e-01" nType="-99"/>
          <Node pos="r" depth="2" NCoef="0" IVar="-1" Cut="0.0000000000000000e+00" cType="1" res="1.4449961017817259e-03" rms="4.2832690477371216e-01" purity="7.4664205312728882e-01" nType="-99"/>
        </Node>
      </Node>
    </BinaryTree>
    <BinaryTree type="DecisionTree" boostWeight="1.0000000000000000e+00" itree="186">
      <Node pos="s" depth="0" NCoef="0" IVar="1" Cut="9.5117390155792236e-01" cType="1" res="1.3195068575441837e-02" rms="4.7000566124916077e-01" purity="4.9606335163116455e-01" nType="0">
        <Node pos="l" depth="1" NCoef="0" IVar="2" Cut="6.0656018066406250e+02" cType="1" res="-2.8322268277406693e-02" rms="4.6970483660697937e-01" purity="3.8931033015251160e-01" nType="0">
          <Node pos="l" depth="2" NCoef="0" IVar="-1" Cut="0.0000000000000000e+00" cType="1" res="-1.1315103620290756e-03" rms="4.6283710002899170e-01" purity="3.4584859013557434e-01" nType="-99"/>
          <Node pos="r" depth="2" NCoef="0" IVar="-1" Cut="0.0000000000000000e+00" cType="1" res="8.8183977641165257e-04" rms="4.9059060215950012e-01" purity="5.8654594421386719e-01" nType="-99"/>
        </Node>
        <Node pos="r" depth="1" NCoef="0" IVar="6" Cut="2.3113543987274170e+00" cType="1" res="5.3765077143907547e-02" rms="4.6674540638923645e-01" purity="6.0038053989410400e-01" nType="0">
          <Node pos="l" depth="2" NCoef="0" IVar="-1" Cut="0.0000000000000000e+00" cType="1" res="1.2408545007929206e-03" rms="4.5714083313941956e-01" purity="6.4835834503173828e-01" nType="-99"/>
          <Node pos="r" depth="2" NCoef="0" IVar="-1" Cut="0.0000000000000000e+00" cType="1" res="-1.5691266162320971e-04" rms="4.7806641459465027e-01" purity="5.0991052389144897e-01" nType="-99"/>
        </Node>
      </Node>
    </BinaryTree>
    <BinaryTree type="DecisionTree" boostWeight="1.0000000000000000e+00" itree="187">
      <Node pos="s" depth="0" NCoef="0" IVar="2" Cut="5.5778552246093750e+02" cType="1" res="1.3133365660905838e-02" rms="4.6948653459548950e-01" purity="4.9580290913581848e-01" nType="0">
        <Node pos="l" depth="1" NCoef="0" IVar="1" Cut="9.8107516765594482e-01" cType="1" res="-1.0863110423088074e-02" rms="4.6850496530532837e-01" purity="4.4271820783615112e-01" nType="0">
          <Node pos="l" depth="2" NCoef="0" IVar="-1" Cut="0.0000000000000000e+00" cType="1" res="-5.7450268650427461e-04" rms="4.7066995501518250e-01" purity="3.9979258179664612e-01" nType="-99"/>
          <Node pos="r" depth="2" NCoef="0" IVar="-1" Cut="0.0000000000000000e+00" cType="1" res="1.2822479475289583e-03" rms="4.3843966722488403e-01" purity="7.2882384061813354e-01" nType="-99"/>
        </Node>
        <Node pos="r" depth="1" NCoef="0" IVar="0" Cut="6.5613448619842529e-02" cType="1" res="8.6193487048149109e-02" rms="4.6489763259887695e-01" purity="6.5742552280426025e-01" nType="0">
          <Node pos="l" depth="2" NCoef="0" IVar="-1" Cut="0.0000000000000000e+00" cType="1" res="6.6656438866630197e-04" rms="4.7839307785034180e-01" purity="6.0973417758941650e-01" nType="-99"/>
          <Node pos="r" depth="2" NCoef="0" IVar="-1" Cut="0.0000000000000000e+00" cType="1" res="1.9269352778792381e-03" rms="4.3508547544479370e-01" purity="7.3160153627395630e-01" nType="-99"/>
        </Node>
      </Node>
    </BinaryTree>
    <BinaryTree type="DecisionTree" boostWeight="1.0000000000000000e+00" itree="188">
      <Node pos="s" depth="0" NCoef="0" IVar="1" Cut="9.3644195795059204e-01" cType="1" res="2.0582444965839386e-02" rms="4.7066944837570190e-01" purity="5.0277853012084961e-01" nType="0">
        <Node pos="l" depth="1" NCoef="0" IVar="3" Cut="1.6482849419116974e-01" cType="1" res="-4.2730335146188736e-02" rms="4.6564784646034241e-01" purity="3.6539354920387268e-01" nType="0">
          <Node pos="l" depth="2" NCoef="0" IVar="-1" Cut="0.0000000000000000e+00" cType="1" res="-1.4050174504518509e-03" rms="4.5964166522026062e-01" purity="3.4734904766082764e-01" nType="-99"/>
          <Node pos="r" depth="2" NCoef="0" IVar="-1" Cut="0.0000000000000000e+00" cType="1" res="5.9033063007518649e-04" rms="4.8459658026695251e-01" purity="4.4484576582908630e-01" nType="-99"/>
        </Node>
        <Node pos="r" depth="1" NCoef="0" IVar="6" Cut="2.6327292919158936e+00" cType="1" res="4.6001780778169632e-02" rms="4.7027856111526489e-01" purity="5.5793702602386475e-01" nType="0">
          <Node pos="l" depth="2" NCoef="0" IVar="-1" Cut="0.0000000000000000e+00" cType="1" res="9.6069579012691975e-04" rms="4.6922823786735535e-01" purity="5.8235543966293335e-01" nType="-99"/>
          <Node pos="r" depth="2" NCoef="0" IVar="-1" Cut="0.0000000000000000e+00" cType="1" res="-1.6472524730488658e-03" rms="4.6103551983833313e-01" purity="3.7458184361457825e-01" nType="-99"/>
        </Node>
      </Node>
    </BinaryTree>
    <BinaryTree type="DecisionTree" boostWeight="1.0000000000000000e+00" itree="189">
      <Node pos="s" depth="0" NCoef="0" IVar="1" Cut="9.4853419065475464e-01" cType="1" res="1.2002930976450443e-02" rms="4.6873933076858521e-01" purity="4.9571520090103149e-01" nType="0">
        <Node pos="l" depth="1" NCoef="0" IVar="2" Cut="6.3745947265625000e+02" cType="1" res="-3.6288268864154816e-02" rms="4.6682208776473999e-01" purity="3.7867787480354309e-01" nType="0">
          <Node pos="l" depth="2" NCoef="0" IVar="-1" Cut="0.0000000000000000e+00" cType="1" res="-1.1766301468014717e-03" rms="4.6108078956604004e-01" purity="3.4673511981964111e-01" nType="-99"/>
          <Node pos="r" depth="2" NCoef="0" IVar="-1" Cut="0.0000000000000000e+00" cType="1" res="6.8350980291143060e-04" rms="4.9270296096801758e-01" purity="5.7264083623886108e-01" nType="-99"/>
        </Node>
        <Node pos="r" depth="1" NCoef="0" IVar="6" Cut="2.4328970909118652e+00" cType="1" res="5.0637617707252502e-02" rms="4.6668323874473572e-01" purity="5.8934926986694336e-01" nType="0">
          <Node pos="l" depth="2" NCoef="0" IVar="-1" Cut="0.0000000000000000e+00" cType="1" res="1.1105027515441179e-03" rms="4.6164819598197937e-01" purity="6.2816822528839111e-01" nType="-99"/>
          <Node pos="r" depth="2" NCoef="0" IVar="-1" Cut="0.0000000000000000e+00" cType="1" res="-6.9827737752348185e-04" rms="4.7302389144897461e-01" purity="4.5790097117424011e-01" nType="-99"/>
        </Node>
      </Node>
    </BinaryTree>
    <BinaryTree type="DecisionTree" boostWeight="1.0000000000000000e+00" itree="190">
      <Node pos="s" depth="0" NCoef="0" IVar="2" Cut="4.2916885375976562e+02" cType="1" res="1.5757922083139420e-02" rms="4.6938276290893555e-01" purity="4.9881023168563843e-01" nType="0">
        <Node pos="l" depth="1" NCoef="0" IVar="2" Cut="3.5357595825195312e+02" cType="1" res="-3.0433043837547302e-02" rms="4.5985803008079529e-01" purity="3.7023636698722839e-01" nType="0">
          <Node pos="l" depth="2" NCoef="0" IVar="-1" Cut="0.0000000000000000e+00" cType="1" res="-1.9905094522982836e-03" rms="4.3428036570549011e-01" purity="2.8801760077476501e-01" nType="-99"/>
          <Node pos="r" depth="2" NCoef="0" IVar="-1" Cut="0.0000000000000000e+00" cType="1" res="4.0328202885575593e-05" rms="4.7756183147430420e-01" purity="4.3827906250953674e-01" nType="-99"/>
        </Node>
        <Node pos="r" depth="1" NCoef="0" IVar="1" Cut="9.4853419065475464e-01" cType="1" res="5.4461080580949783e-02" rms="4.7376206517219543e-01" purity="6.0654157400131226e-01" nType="0">
          <Node pos="l" depth="2" NCoef="0" IVar="-1" Cut="0.0000000000000000e+00" cType="1" res="9.0380272013135254e-05" rms="4.9473962187767029e-01" purity="5.0120109319686890e-01" nType="-99"/>
          <Node pos="r" depth="2" NCoef="0" IVar="-1" Cut="0.0000000000000000e+00" cType="1" res="1.2417605612426996e-03" rms="4.5376843214035034e-01" purity="6.8607378005981445e-01" nType="-99"/>
        </Node>
      </Node>
    </BinaryTree>
    <BinaryTree type="DecisionTree" boostWeight="1.0000000000000000e+00" itree="191">
      <Node pos="s" depth="0" NCoef="0" IVar="1" Cut="9.5716780424118042e-01" cType="1" res="1.3149344362318516e-02" rms="4.6859678626060486e-01" purity="4.9676313996315002e-01" nType="0">
        <Node pos="l" depth="1" NCoef="0" IVar="2" Cut="6.4697155761718750e+02" cType="1" res="-2.3980779573321342e-02" rms="4.7072443366050720e-01" purity="3.9787727594375610e-01" nType="0">
          <Node pos="l" depth="2" NCoef="0" IVar="-1" Cut="0.0000000000000000e+00" cType="1" res="-8.8331603910773993e-04" rms="4.6642041206359863e-01" purity="3.6492997407913208e-01" nType="-99"/>
          <Node pos="r" depth="2" NCoef="0" IVar="-1" Cut="0.0000000000000000e+00" cType="1" res="1.0520240757614374e-03" rms="4.8640608787536621e-01" purity="6.0486686229705811e-01" nType="-99"/>
        </Node>
        <Node pos="r" depth="1" NCoef="0" IVar="2" Cut="4.9214456176757812e+02" cType="1" res="6.5154522657394409e-02" rms="4.6059551835060120e-01" purity="6.3526451587677002e-01" nType="0">
          <Node pos="l" depth="2" NCoef="0" IVar="-1" Cut="0.0000000000000000e+00" cType="1" res="3.8766677607782185e-04" rms="4.7717854380607605e-01" purity="5.5791848897933960e-01" nType="-99"/>
          <Node pos="r" depth="2" NCoef="0" IVar="-1" Cut="0.0000000000000000e+00" cType="1" res="1.6025581862777472e-03" rms="4.2780742049217224e-01" purity="7.4963003396987915e-01" nType="-99"/>
        </Node>
      </Node>
    </BinaryTree>
    <BinaryTree type="DecisionTree" boostWeight="1.0000000000000000e+00" itree="192">
      <Node pos="s" depth="0" NCoef="0" IVar="6" Cut="2.4635806083679199e+00" cType="1" res="1.8577234819531441e-02" rms="4.6910947561264038e-01" purity="5.0213336944580078e-01" nType="0">
        <Node pos="l" depth="1" NCoef="0" IVar="1" Cut="9.3025857210159302e-01" cType="1" res="3.9880201220512390e-02" rms="4.7020846605300903e-01" purity="5.3809499740600586e-01" nType="0">
          <Node pos="l" depth="2" NCoef="0" IVar="-1" Cut="0.0000000000000000e+00" cType="1" res="-8.2173821283504367e-04" rms="4.6988952159881592e-01" purity="3.8365337252616882e-01" nType="-99"/>
          <Node pos="r" depth="2" NCoef="0" IVar="-1" Cut="0.0000000000000000e+00" cType="1" res="9.4721117056906223e-04" rms="4.6805229783058167e-01" purity="5.8008068799972534e-01" nType="-99"/>
        </Node>
        <Node pos="r" depth="1" NCoef="0" IVar="3" Cut="-7.7956713736057281e-02" cType="1" res="-5.9239007532596588e-02" rms="4.5670527219772339e-01" purity="3.7077149748802185e-01" nType="0">
          <Node pos="l" depth="2" NCoef="0" IVar="-1" Cut="0.0000000000000000e+00" cType="1" res="-2.9108084272593260e-03" rms="4.3648582696914673e-01" purity="3.1597450375556946e-01" nType="-99"/>
          <Node pos="r" depth="2" NCoef="0" IVar="-1" Cut="0.0000000000000000e+00" cType="1" res="-6.1327271396294236e-04" rms="4.6534568071365356e-01" purity="4.0262383222579956e-01" nType="-99"/>
        </Node>
      </Node>
    </BinaryTree>
    <BinaryTree type="DecisionTree" boostWeight="1.0000000000000000e+00" itree="193">
      <Node pos="s" depth="0" NCoef="0" IVar="1" Cut="9.8436695337295532e-01" cType="1" res="1.5010366216301918e-02" rms="4.6808749437332153e-01" purity="4.9851664900779724e-01" nType="0">
        <Node pos="l" depth="1" NCoef="0" IVar="2" Cut="5.3701959228515625e+02" cType="1" res="-3.6120362346991897e-04" rms="4.7311300039291382e-01" purity="4.6383199095726013e-01" nType="0">
          <Node pos="l" depth="2" NCoef="0" IVar="-1" Cut="0.0000000000000000e+00" cType="1" res="-5.5260339286178350e-04" rms="4.6959781646728516e-01" purity="4.0121048688888550e-01" nType="-99"/>
          <Node pos="r" depth="2" NCoef="0" IVar="-1" Cut="0.0000000000000000e+00" cType="1" res="9.6446549287065864e-04" rms="4.7560799121856689e-01" purity="6.2613731622695923e-01" nType="-99"/>
        </Node>
        <Node pos="r" depth="1" NCoef="0" IVar="-1" Cut="0.0000000000000000e+00" cType="1" res="1.7695161513984203e-03" rms="4.0018340945243835e-01" purity="7.9207611083984375e-01" nType="-99"/>
      </Node>
    </BinaryTree>
    <BinaryTree type="DecisionTree" boostWeight="1.0000000000000000e+00" itree="194">
      <Node pos="s" depth="0" NCoef="0" IVar="5" Cut="2.4185116577148438e+02" cType="1" res="1.7019288614392281e-02" rms="4.6968352794647217e-01" purity="5.0027203559875488e-01" nType="0">
        <Node pos="l" depth="1" NCoef="0" IVar="5" Cut="2.1601579284667969e+02" cType="1" res="-5.8249436318874359e-02" rms="4.4302064180374146e-01" purity="3.1197351217269897e-01" nType="0">
          <Node pos="l" depth="2" NCoef="0" IVar="-1" Cut="0.0000000000000000e+00" cType="1" res="-2.9278155416250229e-03" rms="4.2203962802886963e-01" purity="2.6064026355743408e-01" nType="-99"/>
          <Node pos="r" depth="2" NCoef="0" IVar="-1" Cut="0.0000000000000000e+00" cType="1" res="-4.3375956011004746e-04" rms="4.6099233627319336e-01" purity="3.6649289727210999e-01" nType="-99"/>
        </Node>
        <Node pos="r" depth="1" NCoef="0" IVar="6" Cut="2.4674940109252930e+00" cType="1" res="3.8568250834941864e-02" rms="4.7485086321830750e-01" purity="5.5418068170547485e-01" nType="0">
          <Node pos="l" depth="2" NCoef="0" IVar="-1" Cut="0.0000000000000000e+00" cType="1" res="9.1697002062574029e-04" rms="4.7287616133689880e-01" purity="5.8874523639678955e-01" nType="-99"/>
          <Node pos="r" depth="2" NCoef="0" IVar="-1" Cut="0.0000000000000000e+00" cType="1" res="-8.8025792501866817e-04" rms="4.7354373335838318e-01" purity="4.2113897204399109e-01" nType="-99"/>
        </Node>
      </Node>
    </BinaryTree>
    <BinaryTree type="DecisionTree" boostWeight="1.0000000000000000e+00" itree="195">
      <Node pos="s" depth="0" NCoef="0" IVar="1" Cut="9.7816765308380127e-01" cType="1" res="1.8312087282538414e-02" rms="4.6906405687332153e-01" purity="5.0178563594818115e-01" nType="0">
        <Node pos="l" depth="1" NCoef="0" IVar="2" Cut="5.6980273437500000e+02" cType="1" res="9.1187190264463425e-05" rms="4.7518670558929443e-01" purity="4.5340287685394287e-01" nType="0">
          <Node pos="l" depth="2" NCoef="0" IVar="-1" Cut="0.0000000000000000e+00" cType="1" res="-4.1813447023741901e-04" rms="4.7241455316543579e-01" purity="4.0369626879692078e-01" nType="-99"/>
          <Node pos="r" depth="2" NCoef="0" IVar="-1" Cut="0.0000000000000000e+00" cType="1" res="1.0114276083186269e-03" rms="4.7817933559417725e-01" purity="6.2479418516159058e-01" nType="-99"/>
        </Node>
        <Node pos="r" depth="1" NCoef="0" IVar="-1" Cut="0.0000000000000000e+00" cType="1" res="1.4490085886791348e-03" rms="4.2361024022102356e-01" purity="7.5240838527679443e-01" nType="-99"/>
      </Node>
    </BinaryTree>
    <BinaryTree type="DecisionTree" boostWeight="1.0000000000000000e+00" itree="196">
      <Node pos="s" depth="0" NCoef="0" IVar="2" Cut="4.1546505737304688e+02" cType="1" res="1.2432117946445942e-02" rms="4.6862420439720154e-01" purity="4.9615615606307983e-01" nType="0">
        <Node pos="l" depth="1" NCoef="0" IVar="2" Cut="3.4459536743164062e+02" cType="1" res="-3.4159172326326370e-02" rms="4.5452013611793518e-01" purity="3.5898002982139587e-01" nType="0">
          <Node pos="l" depth="2" NCoef="0" IVar="-1" Cut="0.0000000000000000e+00" cType="1" res="-2.3641067091375589e-03" rms="4.2656028270721436e-01" purity="2.7437183260917664e-01" nType="-99"/>
          <Node pos="r" depth="2" NCoef="0" IVar="-1" Cut="0.0000000000000000e+00" cType="1" res="-4.0728818930801935e-06" rms="4.7137495875358582e-01" purity="4.2186781764030457e-01" nType="-99"/>
        </Node>
        <Node pos="r" depth="1" NCoef="0" IVar="6" Cut="2.5253326892852783e+00" cType="1" res="4.5614756643772125e-02" rms="4.7564119100570679e-01" purity="5.9385395050048828e-01" nType="0">
          <Node pos="l" depth="2" NCoef="0" IVar="-1" Cut="0.0000000000000000e+00" cType="1" res="9.2439545551314950e-04" rms="4.7246980667114258e-01" purity="6.2101620435714722e-01" nType="-99"/>
          <Node pos="r" depth="2" NCoef="0" IVar="-1" Cut="0.0000000000000000e+00" cType="1" res="-9.9724996834993362e-04" rms="4.8115679621696472e-01" purity="4.4568386673927307e-01" nType="-99"/>
        </Node>
      </Node>
    </BinaryTree>
    <BinaryTree type="DecisionTree" boostWeight="1.0000000000000000e+00" itree="197">
      <Node pos="s" depth="0" NCoef="0" IVar="1" Cut="9.3412184715270996e-01" cType="1" res="1.9191965460777283e-02" rms="4.6874105930328369e-01" purity="5.0321990251541138e-01" nType="0">
        <Node pos="l" depth="1" NCoef="0" IVar="2" Cut="4.6684008789062500e+02" cType="1" res="-4.9202505499124527e-02" rms="4.6070313453674316e-01" purity="3.5642281174659729e-01" nType="0">
          <Node pos="l" depth="2" NCoef="0" IVar="-1" Cut="0.0000000000000000e+00" cType="1" res="-2.3271911777555943e-03" rms="4.3181249499320984e-01" purity="2.6192259788513184e-01" nType="-99"/>
          <Node pos="r" depth="2" NCoef="0" IVar="-1" Cut="0.0000000000000000e+00" cType="1" res="-1.4171023212838918e-04" rms="4.9719595909118652e-01" purity="4.9494948983192444e-01" nType="-99"/>
        </Node>
        <Node pos="r" depth="1" NCoef="0" IVar="2" Cut="5.6825250244140625e+02" cType="1" res="4.2792022228240967e-02" rms="4.6917480230331421e-01" purity="5.5387341976165771e-01" nType="0">
          <Node pos="l" depth="2" NCoef="0" IVar="-1" Cut="0.0000000000000000e+00" cType="1" res="3.5334320273250341e-04" rms="4.7408920526504517e-01" purity="5.0496226549148560e-01" nType="-99"/>
          <Node pos="r" depth="2" NCoef="0" IVar="-1" Cut="0.0000000000000000e+00" cType="1" res="1.5195370651781559e-03" rms="4.4588074088096619e-01" purity="7.0824319124221802e-01" nType="-99"/>
        </Node>
      </Node>
    </BinaryTree>
    <BinaryTree type="DecisionTree" boostWeight="1.0000000000000000e+00" itree="198">
      <Node pos="s" depth="0" NCoef="0" IVar="6" Cut="2.5990154743194580e+00" cType="1" res="1.7980637028813362e-02" rms="4.6848368644714355e-01" purity="5.0178694725036621e-01" nType="0">
        <Node pos="l" depth="1" NCoef="0" IVar="5" Cut="2.6806607055664062e+02" cType="1" res="3.4938648343086243e-02" rms="4.6979993581771851e-01" purity="5.3001302480697632e-01" nType="0">
          <Node pos="l" depth="2" NCoef="0" IVar="-1" Cut="0.0000000000000000e+00" cType="1" res="-5.7795993052423000e-04" rms="4.5972985029220581e-01" purity="3.7422156333923340e-01" nType="-99"/>
          <Node pos="r" depth="2" NCoef="0" IVar="-1" Cut="0.0000000000000000e+00" cType="1" res="9.6092786407098174e-04" rms="4.7183236479759216e-01" purity="6.0623788833618164e-01" nType="-99"/>
        </Node>
        <Node pos="r" depth="1" NCoef="0" IVar="4" Cut="4.4653724879026413e-02" cType="1" res="-9.1643989086151123e-02" rms="4.4454079866409302e-01" purity="3.1932070851325989e-01" nType="0">
          <Node pos="l" depth="2" NCoef="0" IVar="-1" Cut="0.0000000000000000e+00" cType="1" res="-8.8917929679155350e-04" rms="4.5741450786590576e-01" purity="3.7574961781501770e-01" nType="-99"/>
          <Node pos="r" depth="2" NCoef="0" IVar="-1" Cut="0.0000000000000000e+00" cType="1" res="-4.1246218606829643e-03" rms="4.2803892493247986e-01" purity="2.7109250426292419e-01" nType="-99"/>
        </Node>
      </Node>
    </BinaryTree>
    <BinaryTree type="DecisionTree" boostWeight="1.0000000000000000e+00" itree="199">
      <Node pos="s" depth="0" NCoef="0" IVar="1" Cut="9.8417556285858154e-01" cType="1" res="1.6825152561068535e-02" rms="4.6814835071563721e-01" purity="5.0096291303634644e-01" nType="0">
        <Node pos="l" depth="1" NCoef="0" IVar="2" Cut="5.4464001464843750e+02" cType="1" res="2.5140282232314348e-03" rms="4.7311899065971375e-01" purity="4.6701163053512573e-01" nType="0">
          <Node pos="l" depth="2" NCoef="0" IVar="-1" Cut="0.0000000000000000e+00" cType="1" res="-4.4979876838624477e-04" rms="4.7044649720191956e-01" purity="4.0729036927223206e-01" nType="-99"/>
          <Node pos="r" depth="2" NCoef="0" IVar="-1" Cut="0.0000000000000000e+00" cType="1" res="1.0001686168834567e-03" rms="4.7411727905273438e-01" purity="6.3169401884078979e-01" nType="-99"/>
        </Node>
        <Node pos="r" depth="1" NCoef="0" IVar="-1" Cut="0.0000000000000000e+00" cType="1" res="1.6881650080904365e-03" rms="4.0474468469619751e-01" purity="7.8563112020492554e-01" nType="-99"/>
      </Node>
    </BinaryTree>
    <BinaryTree type="DecisionTree" boostWeight="1.0000000000000000e+00" itree="200">
      <Node pos="s" depth="0" NCoef="0" IVar="1" Cut="9.7834503650665283e-01" cType="1" res="1.8042350187897682e-02" rms="4.6914321184158325e-01" purity="5.0194162130355835e-01" nType="0">
        <Node pos="l" depth="1" NCoef="0" IVar="2" Cut="4.8396145629882812e+02" cType="1" res="5.1736488239839673e-04" rms="4.7533315420150757e-01" purity="4.5414367318153381e-01" nType="0">
          <Node pos="l" depth="2" NCoef="0" IVar="-1" Cut="0.0000000000000000e+00" cType="1" res="-5.6766223860904574e-04" rms="4.6770724654197693e-01" purity="3.7147447466850281e-01" nType="-99"/>
          <Node pos="r" depth="2" NCoef="0" IVar="-1" Cut="0.0000000000000000e+00" cType="1" res="6.4433005172759295e-04" rms="4.8463752865791321e-01" purity="5.8970850706100464e-01" nType="-99"/>
        </Node>
        <Node pos="r" depth="1" NCoef="0" IVar="-1" Cut="0.0000000000000000e+00" cType="1" res="1.4151637442409992e-03" rms="4.2367014288902283e-01" purity="7.5200688838958740e-01" nType="-99"/>
      </Node>
    </BinaryTree>
    <BinaryTree type="DecisionTree" boostWeight="1.0000000000000000e+00" itree="201">
      <Node pos="s" depth="0" NCoef="0" IVar="5" Cut="2.6685147094726562e+02" cType="1" res="1.9071308895945549e-02" rms="4.6848702430725098e-01" purity="5.0350874662399292e-01" nType="0">
        <Node pos="l" depth="1" NCoef="0" IVar="2" Cut="3.7868237304687500e+02" cType="1" res="-3.7068068981170654e-02" rms="4.5127665996551514e-01" purity="3.5015362501144409e-01" nType="0">
          <Node pos="l" depth="2" NCoef="0" IVar="-1" Cut="0.0000000000000000e+00" cType="1" res="-1.7960254335775971e-03" rms="4.3662935495376587e-01" purity="2.9614925384521484e-01" nType="-99"/>
          <Node pos="r" depth="2" NCoef="0" IVar="-1" Cut="0.0000000000000000e+00" cType="1" res="7.1341067086905241e-04" rms="4.8219516873359680e-01" purity="5.0429773330688477e-01" nType="-99"/>
        </Node>
        <Node pos="r" depth="1" NCoef="0" IVar="1" Cut="9.2777454853057861e-01" cType="1" res="4.7015145421028137e-02" rms="4.7435194253921509e-01" purity="5.7984250783920288e-01" nType="0">
          <Node pos="l" depth="2" NCoef="0" IVar="-1" Cut="0.0000000000000000e+00" cType="1" res="-8.9430238585919142e-04" rms="4.8552778363227844e-01" purity="4.1792351007461548e-01" nType="-99"/>
          <Node pos="r" depth="2" NCoef="0" IVar="-1" Cut="0.0000000000000000e+00" cType="1" res="9.9888432305306196e-04" rms="4.6944373846054077e-01" purity="6.1572623252868652e-01" nType="-99"/>
        </Node>
      </Node>
    </BinaryTree>
    <BinaryTree type="DecisionTree" boostWeight="1.0000000000000000e+00" itree="202">
      <Node pos="s" depth="0" NCoef="0" IVar="1" Cut="9.3760639429092407e-01" cType="1" res="1.8913291394710541e-02" rms="4.6828752756118774e-01" purity="5.0363916158676147e-01" nType="0">
        <Node pos="l" depth="1" NCoef="0" IVar="2" Cut="5.6202343750000000e+02" cType="1" res="-5.0186906009912491e-02" rms="4.6120235323905945e-01" purity="3.5629719495773315e-01" nType="0">
          <Node pos="l" depth="2" NCoef="0" IVar="-1" Cut="0.0000000000000000e+00" cType="1" res="-1.8059061840176582e-03" rms="4.4902285933494568e-01" purity="3.0457320809364319e-01" nType="-99"/>
          <Node pos="r" depth="2" NCoef="0" IVar="-1" Cut="0.0000000000000000e+00" cType="1" res="1.7241991008631885e-04" rms="4.9602389335632324e-01" purity="5.3390800952911377e-01" nType="-99"/>
        </Node>
        <Node pos="r" depth="1" NCoef="0" IVar="6" Cut="2.5763955116271973e+00" cType="1" res="4.7445699572563171e-02" rms="4.6821662783622742e-01" purity="5.6447869539260864e-01" nType="0">
          <Node pos="l" depth="2" NCoef="0" IVar="-1" Cut="0.0000000000000000e+00" cType="1" res="9.9492061417549849e-04" rms="4.6645802259445190e-01" purity="5.9280455112457275e-01" nType="-99"/>
          <Node pos="r" depth="2" NCoef="0" IVar="-1" Cut="0.0000000000000000e+00" cType="1" res="-1.3134484179317951e-03" rms="4.6490144729614258e-01" purity="3.8836231827735901e-01" nType="-99"/>
        </Node>
      </Node>
    </BinaryTree>
    <BinaryTree type="DecisionTree" boostWeight="1.0000000000000000e+00" itree="203">
      <Node pos="s" depth="0" NCoef="0" IVar="2" Cut="5.4612988281250000e+02" cType="1" res="1.3366671279072762e-02" rms="4.6714314818382263e-01" purity="4.9917089939117432e-01" nType="0">
        <Node pos="l" depth="1" NCoef="0" IVar="6" Cut="2.6446075439453125e+00" cType="1" res="-1.3462047092616558e-02" rms="4.6659559011459351e-01" purity="4.3807557225227356e-01" nType="0">
          <Node pos="l" depth="2" NCoef="0" IVar="-1" Cut="0.0000000000000000e+00" cType="1" res="1.7346492313663475e-05" rms="4.7092097997665405e-01" purity="4.6239584684371948e-01" nType="-99"/>
          <Node pos="r" depth="2" NCoef="0" IVar="-1" Cut="0.0000000000000000e+00" cType="1" res="-3.3734820317476988e-03" rms="4.2223012447357178e-01" purity="2.6966977119445801e-01" nType="-99"/>
        </Node>
        <Node pos="r" depth="1" NCoef="0" IVar="0" Cut="6.5388441085815430e-02" cType="1" res="8.5372917354106903e-02" rms="4.6095368266105652e-01" purity="6.6314607858657837e-01" nType="0">
          <Node pos="l" depth="2" NCoef="0" IVar="-1" Cut="0.0000000000000000e+00" cType="1" res="6.7591958213597536e-04" rms="4.7548747062683105e-01" purity="6.1619997024536133e-01" nType="-99"/>
          <Node pos="r" depth="2" NCoef="0" IVar="-1" Cut="0.0000000000000000e+00" cType="1" res="1.8538669683039188e-03" rms="4.3173834681510925e-01" purity="7.3260289430618286e-01" nType="-99"/>
        </Node>
      </Node>
    </BinaryTree>
    <BinaryTree type="DecisionTree" boostWeight="1.0000000000000000e+00" itree="204">
      <Node pos="s" depth="0" NCoef="0" IVar="1" Cut="9.3927305936813354e-01" cType="1" res="1.6486207023262978e-02" rms="4.6713364124298096e-01" purity="5.0077176094055176e-01" nType="0">
        <Node pos="l" depth="1" NCoef="0" IVar="6" Cut="2.3342301845550537e+00" cType="1" res="-4.5408476144075394e-02" rms="4.6166226267814636e-01" purity="3.6172506213188171e-01" nType="0">
          <Node pos="l" depth="2" NCoef="0" IVar="-1" Cut="0.0000000000000000e+00" cType="1" res="-4.2048114119097590e-04" rms="4.7438699007034302e-01" purity="4.0471220016479492e-01" nType="-99"/>
          <Node pos="r" depth="2" NCoef="0" IVar="-1" Cut="0.0000000000000000e+00" cType="1" res="-2.5838161818683147e-03" rms="4.3402469158172607e-01" purity="2.8388828039169312e-01" nType="-99"/>
        </Node>
        <Node pos="r" depth="1" NCoef="0" IVar="2" Cut="4.1518365478515625e+02" cType="1" res="4.5281406491994858e-02" rms="4.6686890721321106e-01" purity="5.6546032428741455e-01" nType="0">
          <Node pos="l" depth="2" NCoef="0" IVar="-1" Cut="0.0000000000000000e+00" cType="1" res="-1.7170366481877863e-04" rms="4.7142878174781799e-01" purity="4.2212501168251038e-01" nType="-99"/>
          <Node pos="r" depth="2" NCoef="0" IVar="-1" Cut="0.0000000000000000e+00" cType="1" res="1.1254686396569014e-03" rms="4.6046054363250732e-01" purity="6.5951234102249146e-01" nType="-99"/>
        </Node>
      </Node>
    </BinaryTree>
    <BinaryTree type="DecisionTree" boostWeight="1.0000000000000000e+00" itree="205">
      <Node pos="s" depth="0" NCoef="0" IVar="1" Cut="9.8430716991424561e-01" cType="1" res="1.4955302700400352e-02" rms="4.6793445944786072e-01" purity="4.9956616759300232e-01" nType="0">
        <Node pos="l" depth="1" NCoef="0" IVar="6" Cut="2.2798585891723633e+00" cType="1" res="4.7217366955010220e-05" rms="4.7323855757713318e-01" purity="4.6454563736915588e-01" nType="0">
          <Node pos="l" depth="2" NCoef="0" IVar="-1" Cut="0.0000000000000000e+00" cType="1" res="5.0593930063769221e-04" rms="4.7680303454399109e-01" purity="5.1264160871505737e-01" nType="-99"/>
          <Node pos="r" depth="2" NCoef="0" IVar="-1" Cut="0.0000000000000000e+00" cType="1" res="-9.1685418738052249e-04" rms="4.6475929021835327e-01" purity="3.9511156082153320e-01" nType="-99"/>
        </Node>
        <Node pos="r" depth="1" NCoef="0" IVar="-1" Cut="0.0000000000000000e+00" cType="1" res="1.7174968961626291e-03" rms="4.0029433369636536e-01" purity="7.9077684879302979e-01" nType="-99"/>
      </Node>
    </BinaryTree>
    <BinaryTree type="DecisionTree" boostWeight="1.0000000000000000e+00" itree="206">
      <Node pos="s" depth="0" NCoef="0" IVar="1" Cut="9.8423928022384644e-01" cType="1" res="1.7752818763256073e-02" rms="4.6809655427932739e-01" purity="5.0224280357360840e-01" nType="0">
        <Node pos="l" depth="1" NCoef="0" IVar="2" Cut="5.5778552246093750e+02" cType="1" res="2.8663156554102898e-03" rms="4.7376003861427307e-01" purity="4.6675798296928406e-01" nType="0">
          <Node pos="l" depth="2" NCoef="0" IVar="-1" Cut="0.0000000000000000e+00" cType="1" res="-4.2284539085812867e-04" rms="4.7196120023727417e-01" purity="4.0978291630744934e-01" nType="-99"/>
          <Node pos="r" depth="2" NCoef="0" IVar="-1" Cut="0.0000000000000000e+00" cType="1" res="1.0452757123857737e-03" rms="4.7225201129913330e-01" purity="6.3890808820724487e-01" nType="-99"/>
        </Node>
        <Node pos="r" depth="1" NCoef="0" IVar="-1" Cut="0.0000000000000000e+00" cType="1" res="1.7232211539521813e-03" rms="3.9849260449409485e-01" purity="7.9267680644989014e-01" nType="-99"/>
      </Node>
    </BinaryTree>
    <BinaryTree type="DecisionTree" boostWeight="1.0000000000000000e+00" itree="207">
      <Node pos="s" depth="0" NCoef="0" IVar="6" Cut="2.5621693134307861e+00" cType="1" res="1.6007514670491219e-02" rms="4.6840620040893555e-01" purity="4.9986076354980469e-01" nType="0">
        <Node pos="l" depth="1" NCoef="0" IVar="1" Cut="9.4853419065475464e-01" cType="1" res="3.4289494156837463e-02" rms="4.7022444009780884e-01" purity="5.3104788064956665e-01" nType="0">
          <Node pos="l" depth="2" NCoef="0" IVar="-1" Cut="0.0000000000000000e+00" cType="1" res="-2.6041577802971005e-04" rms="4.7563096880912781e-01" purity="4.1236028075218201e-01" nType="-99"/>
          <Node pos="r" depth="2" NCoef="0" IVar="-1" Cut="0.0000000000000000e+00" cType="1" res="1.0478127514943480e-03" rms="4.6260708570480347e-01" purity="6.2419176101684570e-01" nType="-99"/>
        </Node>
        <Node pos="r" depth="1" NCoef="0" IVar="4" Cut="5.8016415685415268e-02" cType="1" res="-8.4854625165462494e-02" rms="4.4493994116783142e-01" purity="3.2780063152313232e-01" nType="0">
          <Node pos="l" depth="2" NCoef="0" IVar="-1" Cut="0.0000000000000000e+00" cType="1" res="-1.1407142737880349e-03" rms="4.5438551902770996e-01" purity="3.6496815085411072e-01" nType="-99"/>
          <Node pos="r" depth="2" NCoef="0" IVar="-1" Cut="0.0000000000000000e+00" cType="1" res="-3.5543802659958601e-03" rms="4.3093878030776978e-01" purity="2.8737848997116089e-01" nType="-99"/>
        </Node>
      </Node>
    </BinaryTree>
    <BinaryTree type="DecisionTree" boostWeight="1.0000000000000000e+00" itree="208">
      <Node pos="s" depth="0" NCoef="0" IVar="1" Cut="9.8418521881103516e-01" cType="1" res="1.7403770238161087e-02" rms="4.6758481860160828e-01" purity="5.0233942270278931e-01" nType="0">
        <Node pos="l" depth="1" NCoef="0" IVar="2" Cut="4.7444293212890625e+02" cType="1" res="3.0115905683487654e-03" rms="4.7289642691612244e-01" purity="4.6764704585075378e-01" nType="0">
          <Node pos="l" depth="2" NCoef="0" IVar="-1" Cut="0.0000000000000000e+00" cType="1" res="-6.2261248240247369e-04" rms="4.6594047546386719e-01" purity="3.7433120608329773e-01" nType="-99"/>
          <Node pos="r" depth="2" NCoef="0" IVar="-1" Cut="0.0000000000000000e+00" cType="1" res="7.1422354085370898e-04" rms="4.7927680611610413e-01" purity="6.0195994377136230e-01" nType="-99"/>
        </Node>
        <Node pos="r" depth="1" NCoef="0" IVar="-1" Cut="0.0000000000000000e+00" cType="1" res="1.6920324414968491e-03" rms="4.0168175101280212e-01" purity="7.8962790966033936e-01" nType="-99"/>
      </Node>
    </BinaryTree>
    <BinaryTree type="DecisionTree" boostWeight="1.0000000000000000e+00" itree="209">
      <Node pos="s" depth="0" NCoef="0" IVar="1" Cut="9.8417556285858154e-01" cType="1" res="1.5055242925882339e-02" rms="4.6804225444793701e-01" purity="4.9913454055786133e-01" nType="0">
        <Node pos="l" depth="1" NCoef="0" IVar="2" Cut="5.6006939697265625e+02" cType="1" res="7.2960794204846025e-04" rms="4.7338017821311951e-01" purity="4.6402174234390259e-01" nType="0">
          <Node pos="l" depth="2" NCoef="0" IVar="-1" Cut="0.0000000000000000e+00" cType="1" res="-4.3122962233610451e-04" rms="4.7124502062797546e-01" purity="4.0954124927520752e-01" nType="-99"/>
          <Node pos="r" depth="2" NCoef="0" IVar="-1" Cut="0.0000000000000000e+00" cType="1" res="9.7820081282407045e-04" rms="4.7377020120620728e-01" purity="6.3450622558593750e-01" nType="-99"/>
        </Node>
        <Node pos="r" depth="1" NCoef="0" IVar="-1" Cut="0.0000000000000000e+00" cType="1" res="1.6531035071238875e-03" rms="4.0295460820198059e-01" purity="7.8706860542297363e-01" nType="-99"/>
      </Node>
    </BinaryTree>
    <BinaryTree type="DecisionTree" boostWeight="1.0000000000000000e+00" itree="210">
      <Node pos="s" depth="0" NCoef="0" IVar="1" Cut="9.4243258237838745e-01" cType="1" res="1.8261775374412537e-02" rms="4.6780401468276978e-01" purity="5.0305509567260742e-01" nType="0">
        <Node pos="l" depth="1" NCoef="0" IVar="6" Cut="2.1243247985839844e+00" cType="1" res="-3.6142677068710327e-02" rms="4.6433857083320618e-01" purity="3.7316843867301941e-01" nType="0">
          <Node pos="l" depth="2" NCoef="0" IVar="-1" Cut="0.0000000000000000e+00" cType="1" res="2.9698980506509542e-04" rms="4.8014342784881592e-01" purity="4.4040206074714661e-01" nType="-99"/>
          <Node pos="r" depth="2" NCoef="0" IVar="-1" Cut="0.0000000000000000e+00" cType="1" res="-1.5691498992964625e-03" rms="4.5332661271095276e-01" purity="3.3738690614700317e-01" nType="-99"/>
        </Node>
        <Node pos="r" depth="1" NCoef="0" IVar="1" Cut="9.8540627956390381e-01" cType="1" res="4.8550583422183990e-02" rms="4.6698367595672607e-01" purity="5.7536739110946655e-01" nType="0">
          <Node pos="l" depth="2" NCoef="0" IVar="-1" Cut="0.0000000000000000e+00" cType="1" res="5.3928891429677606e-04" rms="4.7649607062339783e-01" purity="5.3640806674957275e-01" nType="-99"/>
          <Node pos="r" depth="2" NCoef="0" IVar="-1" Cut="0.0000000000000000e+00" cType="1" res="1.7111629713326693e-03" rms="3.9718699455261230e-01" purity="7.9556542634963989e-01" nType="-99"/>
        </Node>
      </Node>
    </BinaryTree>
    <BinaryTree type="DecisionTree" boostWeight="1.0000000000000000e+00" itree="211">
      <Node pos="s" depth="0" NCoef="0" IVar="6" Cut="2.5116922855377197e+00" cType="1" res="1.3228645548224449e-02" rms="4.6746665239334106e-01" purity="4.9809512495994568e-01" nType="0">
        <Node pos="l" depth="1" NCoef="0" IVar="1" Cut="9.7805172204971313e-01" cType="1" res="3.3026453107595444e-02" rms="4.6940708160400391e-01" purity="5.3291571140289307e-01" nType="0">
          <Node pos="l" depth="2" NCoef="0" IVar="-1" Cut="0.0000000000000000e+00" cType="1" res="2.6358981267549098e-04" rms="4.7851783037185669e-01" purity="4.8330110311508179e-01" nType="-99"/>
          <Node pos="r" depth="2" NCoef="0" IVar="-1" Cut="0.0000000000000000e+00" cType="1" res="1.5666517429053783e-03" rms="4.0981048345565796e-01" purity="7.7737569808959961e-01" nType="-99"/>
        </Node>
        <Node pos="r" depth="1" NCoef="0" IVar="2" Cut="4.9164120483398438e+02" cType="1" res="-7.5308047235012054e-02" rms="4.4811123609542847e-01" purity="3.4237593412399292e-01" nType="0">
          <Node pos="l" depth="2" NCoef="0" IVar="-1" Cut="0.0000000000000000e+00" cType="1" res="-3.1175792682915926e-03" rms="4.2496937513351440e-01" purity="2.6808229088783264e-01" nType="-99"/>
          <Node pos="r" depth="2" NCoef="0" IVar="-1" Cut="0.0000000000000000e+00" cType="1" res="-3.4215426421724260e-04" rms="4.8894861340522766e-01" purity="5.0002986192703247e-01" nType="-99"/>
        </Node>
      </Node>
    </BinaryTree>
    <BinaryTree type="DecisionTree" boostWeight="1.0000000000000000e+00" itree="212">
      <Node pos="s" depth="0" NCoef="0" IVar="1" Cut="9.8114448785781860e-01" cType="1" res="1.2850900180637836e-02" rms="4.6874675154685974e-01" purity="4.9689108133316040e-01" nType="0">
        <Node pos="l" depth="1" NCoef="0" IVar="1" Cut="9.2367249727249146e-01" cType="1" res="-2.6387381367385387e-03" rms="4.7432047128677368e-01" purity="4.5554620027542114e-01" nType="0">
          <Node pos="l" depth="2" NCoef="0" IVar="-1" Cut="0.0000000000000000e+00" cType="1" res="-1.8759754020720720e-03" rms="4.5170828700065613e-01" purity="3.2821747660636902e-01" nType="-99"/>
          <Node pos="r" depth="2" NCoef="0" IVar="-1" Cut="0.0000000000000000e+00" cType="1" res="2.4859511177055538e-04" rms="4.7773480415344238e-01" purity="4.8421049118041992e-01" nType="-99"/>
        </Node>
        <Node pos="r" depth="1" NCoef="0" IVar="-1" Cut="0.0000000000000000e+00" cType="1" res="1.4476801734417677e-03" rms="4.1754683852195740e-01" purity="7.6330226659774780e-01" nType="-99"/>
      </Node>
    </BinaryTree>
    <BinaryTree type="DecisionTree" boostWeight="1.0000000000000000e+00" itree="213">
      <Node pos="s" depth="0" NCoef="0" IVar="6" Cut="2.3111886978149414e+00" cType="1" res="1.4422750100493431e-02" rms="4.6805438399314880e-01" purity="4.9811226129531860e-01" nType="0">
        <Node pos="l" depth="1" NCoef="0" IVar="1" Cut="9.3434166908264160e-01" cType="1" res="4.5495249330997467e-02" rms="4.6896451711654663e-01" purity="5.4873603582382202e-01" nType="0">
          <Node pos="l" depth="2" NCoef="0" IVar="-1" Cut="0.0000000000000000e+00" cType="1" res="-5.4201902821660042e-04" rms="4.7290089726448059e-01" purity="3.9641425013542175e-01" nType="-99"/>
          <Node pos="r" depth="2" NCoef="0" IVar="-1" Cut="0.0000000000000000e+00" cType="1" res="1.0585944401100278e-03" rms="4.6516287326812744e-01" purity="6.0030317306518555e-01" nType="-99"/>
        </Node>
        <Node pos="r" depth="1" NCoef="0" IVar="6" Cut="2.6610784530639648e+00" cType="1" res="-4.0520820766687393e-02" rms="4.6134683489799500e-01" purity="4.0859740972518921e-01" nType="0">
          <Node pos="l" depth="2" NCoef="0" IVar="-1" Cut="0.0000000000000000e+00" cType="1" res="-2.7649340336211026e-04" rms="4.6799466013908386e-01" purity="4.5597133040428162e-01" nType="-99"/>
          <Node pos="r" depth="2" NCoef="0" IVar="-1" Cut="0.0000000000000000e+00" cType="1" res="-2.8139338828623295e-03" rms="4.3944156169891357e-01" purity="2.9800847172737122e-01" nType="-99"/>
        </Node>
      </Node>
    </BinaryTree>
    <BinaryTree type="DecisionTree" boostWeight="1.0000000000000000e+00" itree="214">
      <Node pos="s" depth="0" NCoef="0" IVar="1" Cut="9.7821938991546631e-01" cType="1" res="1.5556542202830315e-02" rms="4.6797788143157959e-01" purity="4.9989932775497437e-01" nType="0">
        <Node pos="l" depth="1" NCoef="0" IVar="2" Cut="3.4289581298828125e+02" cType="1" res="-1.7158478731289506e-03" rms="4.7388148307800293e-01" purity="4.5169454813003540e-01" nType="0">
          <Node pos="l" depth="2" NCoef="0" IVar="-1" Cut="0.0000000000000000e+00" cType="1" res="-2.6112415362149477e-03" rms="4.1937327384948730e-01" purity="2.4000252783298492e-01" nType="-99"/>
          <Node pos="r" depth="2" NCoef="0" IVar="-1" Cut="0.0000000000000000e+00" cType="1" res="2.6141793932765722e-04" rms="4.8336553573608398e-01" purity="4.9794334173202515e-01" nType="-99"/>
        </Node>
        <Node pos="r" depth="1" NCoef="0" IVar="-1" Cut="0.0000000000000000e+00" cType="1" res="1.3704734155908227e-03" rms="4.2486408352851868e-01" purity="7.5035780668258667e-01" nType="-99"/>
      </Node>
    </BinaryTree>
    <BinaryTree type="DecisionTree" boostWeight="1.0000000000000000e+00" itree="215">
      <Node pos="s" depth="0" NCoef="0" IVar="2" Cut="3.5962454223632812e+02" cType="1" res="1.9125534221529961e-02" rms="4.6767115592956543e-01" purity="5.0406801700592041e-01" nType="0">
        <Node pos="l" depth="1" NCoef="0" IVar="3" Cut="-6.3763216137886047e-02" cType="1" res="-5.6979648768901825e-02" rms="4.3690481781959534e-01" purity="2.9605403542518616e-01" nType="0">
          <Node pos="l" depth="2" NCoef="0" IVar="-1" Cut="0.0000000000000000e+00" cType="1" res="-4.0249950252473354e-03" rms="3.9728727936744690e-01" purity="2.2783179581165314e-01" nType="-99"/>
          <Node pos="r" depth="2" NCoef="0" IVar="-1" Cut="0.0000000000000000e+00" cType="1" res="-8.9075759751722217e-04" rms="4.4925749301910400e-01" purity="3.2256624102592468e-01" nType="-99"/>
        </Node>
        <Node pos="r" depth="1" NCoef="0" IVar="6" Cut="2.6163506507873535e+00" cType="1" res="4.1001204401254654e-02" rms="4.7389081120491028e-01" purity="5.6385958194732666e-01" nType="0">
          <Node pos="l" depth="2" NCoef="0" IVar="-1" Cut="0.0000000000000000e+00" cType="1" res="8.3760573761537671e-04" rms="4.7271722555160522e-01" purity="5.8663398027420044e-01" nType="-99"/>
          <Node pos="r" depth="2" NCoef="0" IVar="-1" Cut="0.0000000000000000e+00" cType="1" res="-1.3496560277417302e-03" rms="4.7042962908744812e-01" purity="3.8859775662422180e-01" nType="-99"/>
        </Node>
      </Node>
    </BinaryTree>
    <BinaryTree type="DecisionTree" boostWeight="1.0000000000000000e+00" itree="216">
      <Node pos="s" depth="0" NCoef="0" IVar="2" Cut="4.8267938232421875e+02" cType="1" res="1.5551187098026276e-02" rms="4.6669331192970276e-01" purity="5.0092726945877075e-01" nType="0">
        <Node pos="l" depth="1" NCoef="0" IVar="1" Cut="9.7813850641250610e-01" cType="1" res="-1.7362302169203758e-02" rms="4.6348643302917480e-01" purity="4.0974810719490051e-01" nType="0">
          <Node pos="l" depth="2" NCoef="0" IVar="-1" Cut="0.0000000000000000e+00" cType="1" res="-7.5057952199131250e-04" rms="4.6370223164558411e-01" purity="3.5992017388343811e-01" nType="-99"/>
          <Node pos="r" depth="2" NCoef="0" IVar="-1" Cut="0.0000000000000000e+00" cType="1" res="9.3250413192436099e-04" rms="4.5276862382888794e-01" purity="6.9343727827072144e-01" nType="-99"/>
        </Node>
        <Node pos="r" depth="1" NCoef="0" IVar="1" Cut="9.5774924755096436e-01" cType="1" res="6.4983814954757690e-02" rms="4.6713185310363770e-01" purity="6.3786888122558594e-01" nType="0">
          <Node pos="l" depth="2" NCoef="0" IVar="-1" Cut="0.0000000000000000e+00" cType="1" res="4.0978047763928771e-04" rms="4.9279382824897766e-01" purity="5.5002808570861816e-01" nType="-99"/>
          <Node pos="r" depth="2" NCoef="0" IVar="-1" Cut="0.0000000000000000e+00" cType="1" res="1.4801952056586742e-03" rms="4.2754176259040833e-01" purity="7.4858391284942627e-01" nType="-99"/>
        </Node>
      </Node>
    </BinaryTree>
    <BinaryTree type="DecisionTree" boostWeight="1.0000000000000000e+00" itree="217">
      <Node pos="s" depth="0" NCoef="0" IVar="2" Cut="5.4464001464843750e+02" cType="1" res="1.4129859395325184e-02" rms="4.6795821189880371e-01" purity="4.9928650259971619e-01" nType="0">
        <Node pos="l" depth="1" NCoef="0" IVar="1" Cut="9.3628340959548950e-01" cType="1" res="-9.2783449217677116e-03" rms="4.6780931949615479e-01" purity="4.4038471579551697e-01" nType="0">
          <Node pos="l" depth="2" NCoef="0" IVar="-1" Cut="0.0000000000000000e+00" cType="1" res="-1.7553329234942794e-03" rms="4.4711402058601379e-01" purity="2.9971507191658020e-01" nType="-99"/>
          <Node pos="r" depth="2" NCoef="0" IVar="-1" Cut="0.0000000000000000e+00" cType="1" res="2.2617437934968621e-04" rms="4.7405943274497986e-01" purity="4.9675694108009338e-01" nType="-99"/>
        </Node>
        <Node pos="r" depth="1" NCoef="0" IVar="1" Cut="9.5538741350173950e-01" cType="1" res="7.6856367290019989e-02" rms="4.6255302429199219e-01" purity="6.5712451934814453e-01" nType="0">
          <Node pos="l" depth="2" NCoef="0" IVar="-1" Cut="0.0000000000000000e+00" cType="1" res="5.4966314928606153e-04" rms="4.9252313375473022e-01" purity="5.6742560863494873e-01" nType="-99"/>
          <Node pos="r" depth="2" NCoef="0" IVar="-1" Cut="0.0000000000000000e+00" cType="1" res="1.5992742264643312e-03" rms="4.2117667198181152e-01" purity="7.5863265991210938e-01" nType="-99"/>
        </Node>
      </Node>
    </BinaryTree>
    <BinaryTree type="DecisionTree" boostWeight="1.0000000000000000e+00" itree="218">
      <Node pos="s" depth="0" NCoef="0" IVar="1" Cut="9.7866010665893555e-01" cType="1" res="1.2473175302147865e-02" rms="4.6752431988716125e-01" purity="4.9672991037368774e-01" nType="0">
        <Node pos="l" depth="1" NCoef="0" IVar="6" Cut="2.3103556632995605e+00" cType="1" res="-4.7168056480586529e-03" rms="4.7351351380348206e-01" purity="4.4843611121177673e-01" nType="0">
          <Node pos="l" depth="2" NCoef="0" IVar="-1" Cut="0.0000000000000000e+00" cType="1" res="4.0199156501330435e-04" rms="4.7932365536689758e-01" purity="4.9480536580085754e-01" nType="-99"/>
          <Node pos="r" depth="2" NCoef="0" IVar="-1" Cut="0.0000000000000000e+00" cType="1" res="-1.1730598052963614e-03" rms="4.5978349447250366e-01" purity="3.7003201246261597e-01" nType="-99"/>
        </Node>
        <Node pos="r" depth="1" NCoef="0" IVar="-1" Cut="0.0000000000000000e+00" cType="1" res="1.3456334127113223e-03" rms="4.2293131351470947e-01" purity="7.5252896547317505e-01" nType="-99"/>
      </Node>
    </BinaryTree>
    <BinaryTree type="DecisionTree" boostWeight="1.0000000000000000e+00" itree="219">
      <Node pos="s" depth="0" NCoef="0" IVar="1" Cut="9.4555306434631348e-01" cType="1" res="1.5607565641403198e-02" rms="4.6839243173599243e-01" purity="4.9978110194206238e-01" nType="0">
        <Node pos="l" depth="1" NCoef="0" IVar="5" Cut="4.2848434448242188e+02" cType="1" res="-2.9677880927920341e-02" rms="4.6610304713249207e-01" purity="3.7932780385017395e-01" nType="0">
          <Node pos="l" depth="2" NCoef="0" IVar="-1" Cut="0.0000000000000000e+00" cType="1" res="-1.1303572682663798e-03" rms="4.5838385820388794e-01" purity="3.3644488453865051e-01" nType="-99"/>
          <Node pos="r" depth="2" NCoef="0" IVar="-1" Cut="0.0000000000000000e+00" cType="1" res="6.6156289540231228e-04" rms="4.9244037270545959e-01" purity="5.6871604919433594e-01" nType="-99"/>
        </Node>
        <Node pos="r" depth="1" NCoef="0" IVar="6" Cut="2.5316112041473389e+00" cType="1" res="4.5886609703302383e-02" rms="4.6747612953186035e-01" purity="5.8031928539276123e-01" nType="0">
          <Node pos="l" depth="2" NCoef="0" IVar="-1" Cut="0.0000000000000000e+00" cType="1" res="9.4427820295095444e-04" rms="4.6506863832473755e-01" purity="6.1130350828170776e-01" nType="-99"/>
          <Node pos="r" depth="2" NCoef="0" IVar="-1" Cut="0.0000000000000000e+00" cType="1" res="-8.4182346472516656e-04" rms="4.7006061673164368e-01" purity="4.2207029461860657e-01" nType="-99"/>
        </Node>
      </Node>
    </BinaryTree>
    <BinaryTree type="DecisionTree" boostWeight="1.0000000000000000e+00" itree="220">
      <Node pos="s" depth="0" NCoef="0" IVar="1" Cut="9.3644195795059204e-01" cType="1" res="1.4655995182693005e-02" rms="4.6673145890235901e-01" purity="5.0004923343658447e-01" nType="0">
        <Node pos="l" depth="1" NCoef="0" IVar="2" Cut="5.9312017822265625e+02" cType="1" res="-4.8540323972702026e-02" rms="4.5785567164421082e-01" purity="3.5548976063728333e-01" nType="0">
          <Node pos="l" depth="2" NCoef="0" IVar="-1" Cut="0.0000000000000000e+00" cType="1" res="-1.8386265728622675e-03" rms="4.4634228944778442e-01" purity="3.0492740869522095e-01" nType="-99"/>
          <Node pos="r" depth="2" NCoef="0" IVar="-1" Cut="0.0000000000000000e+00" cType="1" res="5.9138104552403092e-04" rms="4.9334946274757385e-01" purity="5.6419360637664795e-01" nType="-99"/>
        </Node>
        <Node pos="r" depth="1" NCoef="0" IVar="6" Cut="2.3520479202270508e+00" cType="1" res="3.9680384099483490e-02" rms="4.6784630417823792e-01" purity="5.5729168653488159e-01" nType="0">
          <Node pos="l" depth="2" NCoef="0" IVar="-1" Cut="0.0000000000000000e+00" cType="1" res="9.8714721389114857e-04" rms="4.6470260620117188e-01" purity="5.9986692667007446e-01" nType="-99"/>
          <Node pos="r" depth="2" NCoef="0" IVar="-1" Cut="0.0000000000000000e+00" cType="1" res="-2.9991377959959209e-04" rms="4.7004958987236023e-01" purity="4.6264663338661194e-01" nType="-99"/>
        </Node>
      </Node>
    </BinaryTree>
    <BinaryTree type="DecisionTree" boostWeight="1.0000000000000000e+00" itree="221">
      <Node pos="s" depth="0" NCoef="0" IVar="2" Cut="3.4063916015625000e+02" cType="1" res="1.1651636101305485e-02" rms="4.6714642643928528e-01" purity="4.9635136127471924e-01" nType="0">
        <Node pos="l" depth="1" NCoef="0" IVar="5" Cut="2.1337393188476562e+02" cType="1" res="-7.4408635497093201e-02" rms="4.2402169108390808e-01" purity="2.7242571115493774e-01" nType="0">
          <Node pos="l" depth="2" NCoef="0" IVar="-1" Cut="0.0000000000000000e+00" cType="1" res="-4.3930257670581341e-03" rms="3.9359468221664429e-01" purity="2.1571692824363708e-01" nType="-99"/>
          <Node pos="r" depth="2" NCoef="0" IVar="-1" Cut="0.0000000000000000e+00" cType="1" res="-6.7758845398202538e-04" rms="4.4744762778282166e-01" purity="3.2939538359642029e-01" nType="-99"/>
        </Node>
        <Node pos="r" depth="1" NCoef="0" IVar="1" Cut="9.6056789159774780e-01" cType="1" res="2.8989799320697784e-02" rms="4.7347187995910645e-01" purity="5.4146462678909302e-01" nType="0">
          <Node pos="l" depth="2" NCoef="0" IVar="-1" Cut="0.0000000000000000e+00" cType="1" res="-7.5453635872690938e-06" rms="4.8427572846412659e-01" purity="4.5411324501037598e-01" nType="-99"/>
          <Node pos="r" depth="2" NCoef="0" IVar="-1" Cut="0.0000000000000000e+00" cType="1" res="1.0656870435923338e-03" rms="4.5140415430068970e-01" purity="6.8285524845123291e-01" nType="-99"/>
        </Node>
      </Node>
    </BinaryTree>
    <BinaryTree type="DecisionTree" boostWeight="1.0000000000000000e+00" itree="222">
      <Node pos="s" depth="0" NCoef="0" IVar="1" Cut="9.4563591480255127e-01" cType="1" res="2.1596085280179977e-02" rms="4.6844720840454102e-01" purity="5.0551468133926392e-01" nType="0">
        <Node pos="l" depth="1" NCoef="0" IVar="2" Cut="3.7355706787109375e+02" cType="1" res="-2.5666447356343269e-02" rms="4.6694120764732361e-01" purity="3.8254308700561523e-01" nType="0">
          <Node pos="l" depth="2" NCoef="0" IVar="-1" Cut="0.0000000000000000e+00" cType="1" res="-3.2641510479152203e-03" rms="3.9821159839630127e-01" purity="2.0192298293113708e-01" nType="-99"/>
          <Node pos="r" depth="2" NCoef="0" IVar="-1" Cut="0.0000000000000000e+00" cType="1" res="-3.6653083952842280e-05" rms="4.9083822965621948e-01" purity="4.5786947011947632e-01" nType="-99"/>
        </Node>
        <Node pos="r" depth="1" NCoef="0" IVar="6" Cut="2.3066956996917725e+00" cType="1" res="5.3178243339061737e-02" rms="4.6679121255874634e-01" purity="5.8768784999847412e-01" nType="0">
          <Node pos="l" depth="2" NCoef="0" IVar="-1" Cut="0.0000000000000000e+00" cType="1" res="1.2070488883182406e-03" rms="4.6035897731781006e-01" purity="6.3469713926315308e-01" nType="-99"/>
          <Node pos="r" depth="2" NCoef="0" IVar="-1" Cut="0.0000000000000000e+00" cType="1" res="-8.0022182373795658e-06" rms="4.7348323464393616e-01" purity="5.0285357236862183e-01" nType="-99"/>
        </Node>
      </Node>
    </BinaryTree>
    <BinaryTree type="DecisionTree" boostWeight="1.0000000000000000e+00" itree="223">
      <Node pos="s" depth="0" NCoef="0" IVar="6" Cut="2.3745851516723633e+00" cType="1" res="9.3376003205776215e-03" rms="4.6763253211975098e-01" purity="4.9303638935089111e-01" nType="0">
        <Node pos="l" depth="1" NCoef="0" IVar="5" Cut="2.6685147094726562e+02" cType="1" res="3.3421698957681656e-02" rms="4.6864125132560730e-01" purity="5.3720444440841675e-01" nType="0">
          <Node pos="l" depth="2" NCoef="0" IVar="-1" Cut="0.0000000000000000e+00" cType="1" res="-5.6300137657672167e-04" rms="4.6337395906448364e-01" purity="3.7476152181625366e-01" nType="-99"/>
          <Node pos="r" depth="2" NCoef="0" IVar="-1" Cut="0.0000000000000000e+00" cType="1" res="9.0432551223784685e-04" rms="4.6859344840049744e-01" purity="6.1390066146850586e-01" nType="-99"/>
        </Node>
        <Node pos="r" depth="1" NCoef="0" IVar="4" Cut="1.0564167797565460e-01" cType="1" res="-4.8287775367498398e-02" rms="4.6012166142463684e-01" purity="3.8735672831535339e-01" nType="0">
          <Node pos="l" depth="2" NCoef="0" IVar="-1" Cut="0.0000000000000000e+00" cType="1" res="-4.7033373266458511e-04" rms="4.6354287862777710e-01" purity="4.1481587290763855e-01" nType="-99"/>
          <Node pos="r" depth="2" NCoef="0" IVar="-1" Cut="0.0000000000000000e+00" cType="1" res="-3.6730954889208078e-03" rms="4.3848550319671631e-01" purity="2.9813081026077271e-01" nType="-99"/>
        </Node>
      </Node>
    </BinaryTree>
    <BinaryTree type="DecisionTree" boostWeight="1.0000000000000000e+00" itree="224">
      <Node pos="s" depth="0" NCoef="0" IVar="1" Cut="9.4007056951522827e-01" cType="1" res="1.7227636650204659e-02" rms="4.6660453081130981e-01" purity="5.0284808874130249e-01" nType="0">
        <Node pos="l" depth="1" NCoef="0" IVar="5" Cut="4.1019665527343750e+02" cType="1" res="-3.6575514823198318e-02" rms="4.6152782440185547e-01" purity="3.6894005537033081e-01" nType="0">
          <Node pos="l" depth="2" NCoef="0" IVar="-1" Cut="0.0000000000000000e+00" cType="1" res="-1.4188108034431934e-03" rms="4.5063978433609009e-01" purity="3.1821215152740479e-01" nType="-99"/>
          <Node pos="r" depth="2" NCoef="0" IVar="-1" Cut="0.0000000000000000e+00" cType="1" res="4.8933032667264342e-04" rms="4.9320951104164124e-01" purity="5.5260759592056274e-01" nType="-99"/>
        </Node>
        <Node pos="r" depth="1" NCoef="0" IVar="6" Cut="2.2772653102874756e+00" cType="1" res="4.3507579714059830e-02" rms="4.6681547164916992e-01" purity="5.6825494766235352e-01" nType="0">
          <Node pos="l" depth="2" NCoef="0" IVar="-1" Cut="0.0000000000000000e+00" cType="1" res="1.0926567483693361e-03" rms="4.6068474650382996e-01" purity="6.1845195293426514e-01" nType="-99"/>
          <Node pos="r" depth="2" NCoef="0" IVar="-1" Cut="0.0000000000000000e+00" cType="1" res="-5.1445571443764493e-05" rms="4.7230195999145508e-01" purity="4.9141520261764526e-01" nType="-99"/>
        </Node>
      </Node>
    </BinaryTree>
    <BinaryTree type="DecisionTree" boostWeight="1.0000000000000000e+00" itree="225">
      <Node pos="s" depth="0" NCoef="0" IVar="1" Cut="9.8457849025726318e-01" cType="1" res="1.2418627738952637e-02" rms="4.6712163090705872e-01" purity="4.9690312147140503e-01" nType="0">
        <Node pos="l" depth="1" NCoef="0" IVar="2" Cut="3.5962454223632812e+02" cType="1" res="-1.9594541299738921e-05" rms="4.7196963429450989e-01" purity="4.6454092860221863e-01" nType="0">
          <Node pos="l" depth="2" NCoef="0" IVar="-1" Cut="0.0000000000000000e+00" cType="1" res="-1.9766585901379585e-03" rms="4.3103048205375671e-01" purity="2.6869383454322815e-01" nType="-99"/>
          <Node pos="r" depth="2" NCoef="0" IVar="-1" Cut="0.0000000000000000e+00" cType="1" res="3.2884991378523409e-04" rms="4.8210468888282776e-01" purity="5.2444797754287720e-01" nType="-99"/>
        </Node>
        <Node pos="r" depth="1" NCoef="0" IVar="-1" Cut="0.0000000000000000e+00" cType="1" res="1.5472326194867492e-03" rms="4.0578794479370117e-01" purity="7.8226840496063232e-01" nType="-99"/>
      </Node>
    </BinaryTree>
    <BinaryTree type="DecisionTree" boostWeight="1.0000000000000000e+00" itree="226">
      <Node pos="s" depth="0" NCoef="0" IVar="1" Cut="9.8417556285858154e-01" cType="1" res="1.1821365915238857e-02" rms="4.6701902151107788e-01" purity="4.9616310000419617e-01" nType="0">
        <Node pos="l" depth="1" NCoef="0" IVar="5" Cut="2.6871395874023438e+02" cType="1" res="-1.3674306683242321e-03" rms="4.7194924950599670e-01" purity="4.6222254633903503e-01" nType="0">
          <Node pos="l" depth="2" NCoef="0" IVar="-1" Cut="0.0000000000000000e+00" cType="1" res="-1.2663967208936810e-03" rms="4.4759678840637207e-01" purity="3.1441143155097961e-01" nType="-99"/>
          <Node pos="r" depth="2" NCoef="0" IVar="-1" Cut="0.0000000000000000e+00" cType="1" res="3.8520520320162177e-04" rms="4.8273423314094543e-01" purity="5.4178732633590698e-01" nType="-99"/>
        </Node>
        <Node pos="r" depth="1" NCoef="0" IVar="-1" Cut="0.0000000000000000e+00" cType="1" res="1.5638744225725532e-03" rms="4.0619334578514099e-01" purity="7.8342491388320923e-01" nType="-99"/>
      </Node>
    </BinaryTree>
    <BinaryTree type="DecisionTree" boostWeight="1.0000000000000000e+00" itree="227">
      <Node pos="s" depth="0" NCoef="0" IVar="6" Cut="2.4513144493103027e+00" cType="1" res="1.7212420701980591e-02" rms="4.6720400452613831e-01" purity="5.0216490030288696e-01" nType="0">
        <Node pos="l" depth="1" NCoef="0" IVar="1" Cut="9.4824200868606567e-01" cType="1" res="3.7022724747657776e-02" rms="4.6886429190635681e-01" purity="5.4000067710876465e-01" nType="0">
          <Node pos="l" depth="2" NCoef="0" IVar="-1" Cut="0.0000000000000000e+00" cType="1" res="-1.2778751261066645e-04" rms="4.7739607095718384e-01" purity="4.2069128155708313e-01" nType="-99"/>
          <Node pos="r" depth="2" NCoef="0" IVar="-1" Cut="0.0000000000000000e+00" cType="1" res="1.0294864187017083e-03" rms="4.5944464206695557e-01" purity="6.3152652978897095e-01" nType="-99"/>
        </Node>
        <Node pos="r" depth="1" NCoef="0" IVar="4" Cut="5.7486288249492645e-02" cType="1" res="-4.9914669245481491e-02" rms="4.5516753196716309e-01" purity="3.7395876646041870e-01" nType="0">
          <Node pos="l" depth="2" NCoef="0" IVar="-1" Cut="0.0000000000000000e+00" cType="1" res="-1.9415309361647815e-04" rms="4.6173760294914246e-01" purity="4.1708305478096008e-01" nType="-99"/>
          <Node pos="r" depth="2" NCoef="0" IVar="-1" Cut="0.0000000000000000e+00" cType="1" res="-2.7871003840118647e-03" rms="4.4034382700920105e-01" purity="3.1611546874046326e-01" nType="-99"/>
        </Node>
      </Node>
    </BinaryTree>
    <BinaryTree type="DecisionTree" boostWeight="1.0000000000000000e+00" itree="228">
      <Node pos="s" depth="0" NCoef="0" IVar="6" Cut="2.5234251022338867e+00" cType="1" res="1.8133284524083138e-02" rms="4.6644902229309082e-01" purity="5.0355327129364014e-01" nType="0">
        <Node pos="l" depth="1" NCoef="0" IVar="2" Cut="3.2518298339843750e+02" cType="1" res="3.5786826163530350e-02" rms="4.6806445717811584e-01" purity="5.3729313611984253e-01" nType="0">
          <Node pos="l" depth="2" NCoef="0" IVar="-1" Cut="0.0000000000000000e+00" cType="1" res="-2.3080101236701012e-03" rms="4.2562308907508850e-01" purity="2.7938115596771240e-01" nType="-99"/>
          <Node pos="r" depth="2" NCoef="0" IVar="-1" Cut="0.0000000000000000e+00" cType="1" res="7.9100776929408312e-04" rms="4.7109594941139221e-01" purity="5.6881898641586304e-01" nType="-99"/>
        </Node>
        <Node pos="r" depth="1" NCoef="0" IVar="4" Cut="4.8709023743867874e-02" cType="1" res="-6.5089948475360870e-02" rms="4.4951370358467102e-01" purity="3.4449502825737000e-01" nType="0">
          <Node pos="l" depth="2" NCoef="0" IVar="-1" Cut="0.0000000000000000e+00" cType="1" res="-3.6126837949268520e-04" rms="4.5983278751373291e-01" purity="3.9976233243942261e-01" nType="-99"/>
          <Node pos="r" depth="2" NCoef="0" IVar="-1" Cut="0.0000000000000000e+00" cType="1" res="-3.3212301786988974e-03" rms="4.3274635076522827e-01" purity="2.8687644004821777e-01" nType="-99"/>
        </Node>
      </Node>
    </BinaryTree>
    <BinaryTree type="DecisionTree" boostWeight="1.0000000000000000e+00" itree="229">
      <Node pos="s" depth="0" NCoef="0" IVar="1" Cut="9.8411780595779419e-01" cType="1" res="1.1912579648196697e-02" rms="4.6828791499137878e-01" purity="4.9535679817199707e-01" nType="0">
        <Node pos="l" depth="1" NCoef="0" IVar="2" Cut="5.2728631591796875e+02" cType="1" res="-6.3936272636055946e-04" rms="4.7347947955131531e-01" purity="4.6173191070556641e-01" nType="0">
          <Node pos="l" depth="2" NCoef="0" IVar="-1" Cut="0.0000000000000000e+00" cType="1" res="-4.9924541963264346e-04" rms="4.7063219547271729e-01" purity="3.9603072404861450e-01" nType="-99"/>
          <Node pos="r" depth="2" NCoef="0" IVar="-1" Cut="0.0000000000000000e+00" cType="1" res="7.9843244748190045e-04" rms="4.7585940361022949e-01" purity="6.2007504701614380e-01" nType="-99"/>
        </Node>
        <Node pos="r" depth="1" NCoef="0" IVar="-1" Cut="0.0000000000000000e+00" cType="1" res="1.5132639091461897e-03" rms="4.0611389279365540e-01" purity="7.8153491020202637e-01" nType="-99"/>
      </Node>
    </BinaryTree>
    <BinaryTree type="DecisionTree" boostWeight="1.0000000000000000e+00" itree="230">
      <Node pos="s" depth="0" NCoef="0" IVar="1" Cut="9.8119866847991943e-01" cType="1" res="1.4783299528062344e-02" rms="4.6676242351531982e-01" purity="5.0033921003341675e-01" nType="0">
        <Node pos="l" depth="1" NCoef="0" IVar="6" Cut="2.2438879013061523e+00" cType="1" res="-2.1094740368425846e-03" rms="4.7348994016647339e-01" purity="4.5529982447624207e-01" nType="0">
          <Node pos="l" depth="2" NCoef="0" IVar="-1" Cut="0.0000000000000000e+00" cType="1" res="5.3031346760690212e-04" rms="4.7840172052383423e-01" purity="5.0909209251403809e-01" nType="-99"/>
          <Node pos="r" depth="2" NCoef="0" IVar="-1" Cut="0.0000000000000000e+00" cType="1" res="-9.0708601055666804e-04" rms="4.6452206373214722e-01" purity="3.9109185338020325e-01" nType="-99"/>
        </Node>
        <Node pos="r" depth="1" NCoef="0" IVar="-1" Cut="0.0000000000000000e+00" cType="1" res="1.5009966446086764e-03" rms="4.0802332758903503e-01" purity="7.7703595161437988e-01" nType="-99"/>
      </Node>
    </BinaryTree>
    <BinaryTree type="DecisionTree" boostWeight="1.0000000000000000e+00" itree="231">
      <Node pos="s" depth="0" NCoef="0" IVar="1" Cut="9.3101006746292114e-01" cType="1" res="1.6519406810402870e-02" rms="4.6755054593086243e-01" purity="5.0106000900268555e-01" nType="0">
        <Node pos="l" depth="1" NCoef="0" IVar="2" Cut="3.5097799682617188e+02" cType="1" res="-4.8433911055326462e-02" rms="4.5916169881820679e-01" purity="3.4899407625198364e-01" nType="0">
          <Node pos="l" depth="2" NCoef="0" IVar="-1" Cut="0.0000000000000000e+00" cType="1" res="-4.8840665258467197e-03" rms="3.6808562278747559e-01" purity="1.6173376142978668e-01" nType="-99"/>
          <Node pos="r" depth="2" NCoef="0" IVar="-1" Cut="0.0000000000000000e+00" cType="1" res="-6.7403161665424705e-04" rms="4.8108309507369995e-01" purity="4.0312179923057556e-01" nType="-99"/>
        </Node>
        <Node pos="r" depth="1" NCoef="0" IVar="2" Cut="4.9104846191406250e+02" cType="1" res="3.5540565848350525e-02" rms="4.6827641129493713e-01" purity="5.4559153318405151e-01" nType="0">
          <Node pos="l" depth="2" NCoef="0" IVar="-1" Cut="0.0000000000000000e+00" cType="1" res="9.9947275884915143e-05" rms="4.7331154346466064e-01" purity="4.6284565329551697e-01" nType="-99"/>
          <Node pos="r" depth="2" NCoef="0" IVar="-1" Cut="0.0000000000000000e+00" cType="1" res="1.1630391236394644e-03" rms="4.5601370930671692e-01" purity="6.7743390798568726e-01" nType="-99"/>
        </Node>
      </Node>
    </BinaryTree>
    <BinaryTree type="DecisionTree" boostWeight="1.0000000000000000e+00" itree="232">
      <Node pos="s" depth="0" NCoef="0" IVar="1" Cut="9.6035081148147583e-01" cType="1" res="1.9240980967879295e-02" rms="4.6672886610031128e-01" purity="5.0435620546340942e-01" nType="0">
        <Node pos="l" depth="1" NCoef="0" IVar="2" Cut="6.4871673583984375e+02" cType="1" res="-9.3214362859725952e-03" rms="4.7191736102104187e-01" purity="4.1296622157096863e-01" nType="0">
          <Node pos="l" depth="2" NCoef="0" IVar="-1" Cut="0.0000000000000000e+00" cType="1" res="-4.7222647117450833e-04" rms="4.6884655952453613e-01" purity="3.8142746686935425e-01" nType="-99"/>
          <Node pos="r" depth="2" NCoef="0" IVar="-1" Cut="0.0000000000000000e+00" cType="1" res="1.0042743524536490e-03" rms="4.8395577073097229e-01" purity="6.1291223764419556e-01" nType="-99"/>
        </Node>
        <Node pos="r" depth="1" NCoef="0" IVar="2" Cut="3.6817962646484375e+02" cType="1" res="6.7228391766548157e-02" rms="4.5385035872459412e-01" purity="6.5789961814880371e-01" nType="0">
          <Node pos="l" depth="2" NCoef="0" IVar="-1" Cut="0.0000000000000000e+00" cType="1" res="-9.8397475085221231e-05" rms="4.8018404841423035e-01" purity="4.8719438910484314e-01" nType="-99"/>
          <Node pos="r" depth="2" NCoef="0" IVar="-1" Cut="0.0000000000000000e+00" cType="1" res="1.1926350416615605e-03" rms="4.4384565949440002e-01" purity="7.0673221349716187e-01" nType="-99"/>
        </Node>
      </Node>
    </BinaryTree>
    <BinaryTree type="DecisionTree" boostWeight="1.0000000000000000e+00" itree="233">
      <Node pos="s" depth="0" NCoef="0" IVar="1" Cut="9.5757091045379639e-01" cType="1" res="1.3272770680487156e-02" rms="4.6624651551246643e-01" purity="4.9917182326316833e-01" nType="0">
        <Node pos="l" depth="1" NCoef="0" IVar="2" Cut="6.0763183593750000e+02" cType="1" res="-1.9246682524681091e-02" rms="4.6914124488830566e-01" purity="3.9997133612632751e-01" nType="0">
          <Node pos="l" depth="2" NCoef="0" IVar="-1" Cut="0.0000000000000000e+00" cType="1" res="-7.7675946522504091e-04" rms="4.6373611688613892e-01" purity="3.5938131809234619e-01" nType="-99"/>
          <Node pos="r" depth="2" NCoef="0" IVar="-1" Cut="0.0000000000000000e+00" cType="1" res="7.2588142938911915e-04" rms="4.8823025822639465e-01" purity="5.9094083309173584e-01" nType="-99"/>
        </Node>
        <Node pos="r" depth="1" NCoef="0" IVar="2" Cut="5.6448803710937500e+02" cType="1" res="5.9214167296886444e-02" rms="4.5820957422256470e-01" purity="6.3931590318679810e-01" nType="0">
          <Node pos="l" depth="2" NCoef="0" IVar="-1" Cut="0.0000000000000000e+00" cType="1" res="5.5942946346476674e-04" rms="4.7065871953964233e-01" purity="5.9360873699188232e-01" nType="-99"/>
          <Node pos="r" depth="2" NCoef="0" IVar="-1" Cut="0.0000000000000000e+00" cType="1" res="1.6196744982153177e-03" rms="4.1287678480148315e-01" purity="7.7174311876296997e-01" nType="-99"/>
        </Node>
      </Node>
    </BinaryTree>
    <BinaryTree type="DecisionTree" boostWeight="1.0000000000000000e+00" itree="234">
      <Node pos="s" depth="0" NCoef="0" IVar="1" Cut="9.8448842763900757e-01" cType="1" res="1.6849583014845848e-02" rms="4.6594223380088806e-01" purity="5.0258874893188477e-01" nType="0">
        <Node pos="l" depth="1" NCoef="0" IVar="2" Cut="5.7199609375000000e+02" cType="1" res="4.0712156333029270e-03" rms="4.7143822908401489e-01" purity="4.6866244077682495e-01" nType="0">
          <Node pos="l" depth="2" NCoef="0" IVar="-1" Cut="0.0000000000000000e+00" cType="1" res="-3.3814620110206306e-04" rms="4.6995460987091064e-01" purity="4.1593006253242493e-01" nType="-99"/>
          <Node pos="r" depth="2" NCoef="0" IVar="-1" Cut="0.0000000000000000e+00" cType="1" res="1.0448643006384373e-03" rms="4.6986958384513855e-01" purity="6.4586222171783447e-01" nType="-99"/>
        </Node>
        <Node pos="r" depth="1" NCoef="0" IVar="-1" Cut="0.0000000000000000e+00" cType="1" res="1.5869775088503957e-03" rms="4.0035191178321838e-01" purity="7.9030960798263550e-01" nType="-99"/>
      </Node>
    </BinaryTree>
    <BinaryTree type="DecisionTree" boostWeight="1.0000000000000000e+00" itree="235">
      <Node pos="s" depth="0" NCoef="0" IVar="1" Cut="9.7808676958084106e-01" cType="1" res="1.7001908272504807e-02" rms="4.6662452816963196e-01" purity="5.0304681062698364e-01" nType="0">
        <Node pos="l" depth="1" NCoef="0" IVar="2" Cut="3.3829620361328125e+02" cType="1" res="7.8269811638165265e-05" rms="4.7376847267150879e-01" purity="4.5235565304756165e-01" nType="0">
          <Node pos="l" depth="2" NCoef="0" IVar="-1" Cut="0.0000000000000000e+00" cType="1" res="-2.4859525728970766e-03" rms="4.1763001680374146e-01" purity="2.3605439066886902e-01" nType="-99"/>
          <Node pos="r" depth="2" NCoef="0" IVar="-1" Cut="0.0000000000000000e+00" cType="1" res="2.5443779304623604e-04" rms="4.8284512758255005e-01" purity="4.9529024958610535e-01" nType="-99"/>
        </Node>
        <Node pos="r" depth="1" NCoef="0" IVar="-1" Cut="0.0000000000000000e+00" cType="1" res="1.3351856032386422e-03" rms="4.1862562298774719e-01" purity="7.5808423757553101e-01" nType="-99"/>
      </Node>
    </BinaryTree>
    <BinaryTree type="DecisionTree" boostWeight="1.0000000000000000e+00" itree="236">
      <Node pos="s" depth="0" NCoef="0" IVar="1" Cut="9.8424941301345825e-01" cType="1" res="1.4260043390095234e-02" rms="4.6597728133201599e-01" purity="4.9987286329269409e-01" nType="0">
        <Node pos="l" depth="1" NCoef="0" IVar="2" Cut="6.1758917236328125e+02" cType="1" res="1.6788998618721962e-03" rms="4.7136047482490540e-01" purity="4.6603396534919739e-01" nType="0">
          <Node pos="l" depth="2" NCoef="0" IVar="-1" Cut="0.0000000000000000e+00" cType="1" res="-2.8934585861861706e-04" rms="4.7074061632156372e-01" purity="4.2678618431091309e-01" nType="-99"/>
          <Node pos="r" depth="2" NCoef="0" IVar="-1" Cut="0.0000000000000000e+00" cType="1" res="1.1234622215852141e-03" rms="4.6667203307151794e-01" purity="6.5510845184326172e-01" nType="-99"/>
        </Node>
        <Node pos="r" depth="1" NCoef="0" IVar="-1" Cut="0.0000000000000000e+00" cType="1" res="1.5321306418627501e-03" rms="4.0185216069221497e-01" purity="7.8741043806076050e-01" nType="-99"/>
      </Node>
    </BinaryTree>
    <BinaryTree type="DecisionTree" boostWeight="1.0000000000000000e+00" itree="237">
      <Node pos="s" depth="0" NCoef="0" IVar="6" Cut="2.5535109043121338e+00" cType="1" res="1.2927723117172718e-02" rms="4.6718028187751770e-01" purity="4.9733170866966248e-01" nType="0">
        <Node pos="l" depth="1" NCoef="0" IVar="1" Cut="9.6987152099609375e-01" cType="1" res="2.8912384063005447e-02" rms="4.6927210688591003e-01" purity="5.2841579914093018e-01" nType="0">
          <Node pos="l" depth="2" NCoef="0" IVar="-1" Cut="0.0000000000000000e+00" cType="1" res="1.4948438911233097e-04" rms="4.7871923446655273e-01" purity="4.6128392219543457e-01" nType="-99"/>
          <Node pos="r" depth="2" NCoef="0" IVar="-1" Cut="0.0000000000000000e+00" cType="1" res="1.2039806460961699e-03" rms="4.3457746505737305e-01" purity="7.2555285692214966e-01" nType="-99"/>
        </Node>
        <Node pos="r" depth="1" NCoef="0" IVar="4" Cut="1.2561999261379242e-02" cType="1" res="-7.0234470069408417e-02" rms="4.4701313972473145e-01" purity="3.3561277389526367e-01" nType="0">
          <Node pos="l" depth="2" NCoef="0" IVar="-1" Cut="0.0000000000000000e+00" cType="1" res="-3.4278063685633242e-04" rms="4.6103283762931824e-01" purity="3.9686328172683716e-01" nType="-99"/>
          <Node pos="r" depth="2" NCoef="0" IVar="-1" Cut="0.0000000000000000e+00" cType="1" res="-2.7227322570979595e-03" rms="4.3661007285118103e-01" purity="3.0305564403533936e-01" nType="-99"/>
        </Node>
      </Node>
    </BinaryTree>
    <BinaryTree type="DecisionTree" boostWeight="1.0000000000000000e+00" itree="238">
      <Node pos="s" depth="0" NCoef="0" IVar="2" Cut="4.6823376464843750e+02" cType="1" res="1.8006106838583946e-02" rms="4.6828162670135498e-01" purity="5.0198745727539062e-01" nType="0">
        <Node pos="l" depth="1" NCoef="0" IVar="3" Cut="1.4502853155136108e-03" cType="1" res="-9.2915156856179237e-03" rms="4.6517983078956604e-01" purity="4.0815490484237671e-01" nType="0">
          <Node pos="l" depth="2" NCoef="0" IVar="-1" Cut="0.0000000000000000e+00" cType="1" res="-1.0103455279022455e-03" rms="4.5408639311790466e-01" purity="3.6837205290794373e-01" nType="-99"/>
          <Node pos="r" depth="2" NCoef="0" IVar="-1" Cut="0.0000000000000000e+00" cType="1" res="4.2604564805515110e-04" rms="4.7288620471954346e-01" purity="4.4422933459281921e-01" nType="-99"/>
        </Node>
        <Node pos="r" depth="1" NCoef="0" IVar="0" Cut="1.2205187231302261e-01" cType="1" res="5.4092679172754288e-02" rms="4.6992340683937073e-01" purity="6.2603104114532471e-01" nType="0">
          <Node pos="l" depth="2" NCoef="0" IVar="-1" Cut="0.0000000000000000e+00" cType="1" res="5.2490108646452427e-04" rms="4.7492465376853943e-01" purity="6.0435777902603149e-01" nType="-99"/>
          <Node pos="r" depth="2" NCoef="0" IVar="-1" Cut="0.0000000000000000e+00" cType="1" res="1.7949331086128950e-03" rms="4.3845090270042419e-01" purity="7.1795380115509033e-01" nType="-99"/>
        </Node>
      </Node>
    </BinaryTree>
    <BinaryTree type="DecisionTree" boostWeight="1.0000000000000000e+00" itree="239">
      <Node pos="s" depth="0" NCoef="0" IVar="1" Cut="9.8436695337295532e-01" cType="1" res="1.2517746537923813e-02" rms="4.6647644042968750e-01" purity="4.9738755822181702e-01" nType="0">
        <Node pos="l" depth="1" NCoef="0" IVar="6" Cut="2.4145643711090088e+00" cType="1" res="-2.9643796733580530e-04" rms="4.7192808985710144e-01" purity="4.6303203701972961e-01" nType="0">
          <Node pos="l" depth="2" NCoef="0" IVar="-1" Cut="0.0000000000000000e+00" cType="1" res="3.4693337511271238e-04" rms="4.7643002867698669e-01" purity="5.0254893302917480e-01" nType="-99"/>
          <Node pos="r" depth="2" NCoef="0" IVar="-1" Cut="0.0000000000000000e+00" cType="1" res="-1.3824477791786194e-03" rms="4.5424804091453552e-01" purity="3.5168209671974182e-01" nType="-99"/>
        </Node>
        <Node pos="r" depth="1" NCoef="0" IVar="-1" Cut="0.0000000000000000e+00" cType="1" res="1.5272282762452960e-03" rms="4.0146774053573608e-01" purity="7.8804481029510498e-01" nType="-99"/>
      </Node>
    </BinaryTree>
    <BinaryTree type="DecisionTree" boostWeight="1.0000000000000000e+00" itree="240">
      <Node pos="s" depth="0" NCoef="0" IVar="2" Cut="3.4346337890625000e+02" cType="1" res="1.4012135565280914e-02" rms="4.6547329425811768e-01" purity="5.0001829862594604e-01" nType="0">
        <Node pos="l" depth="1" NCoef="0" IVar="2" Cut="2.9942593383789062e+02" cType="1" res="-7.3479652404785156e-02" rms="4.2058157920837402e-01" purity="2.6905784010887146e-01" nType="0">
          <Node pos="l" depth="2" NCoef="0" IVar="-1" Cut="0.0000000000000000e+00" cType="1" res="-4.4237631373107433e-03" rms="3.8232818245887756e-01" purity="2.1080426871776581e-01" nType="-99"/>
          <Node pos="r" depth="2" NCoef="0" IVar="-1" Cut="0.0000000000000000e+00" cType="1" res="-1.4297986635938287e-03" rms="4.3616399168968201e-01" purity="2.9747593402862549e-01" nType="-99"/>
        </Node>
        <Node pos="r" depth="1" NCoef="0" IVar="1" Cut="9.5151525735855103e-01" cType="1" res="3.2074745744466782e-02" rms="4.7219768166542053e-01" purity="5.4769992828369141e-01" nType="0">
          <Node pos="l" depth="2" NCoef="0" IVar="-1" Cut="0.0000000000000000e+00" cType="1" res="-7.3135044658556581e-05" rms="4.8332634568214417e-01" purity="4.4164082407951355e-01" nType="-99"/>
          <Node pos="r" depth="2" NCoef="0" IVar="-1" Cut="0.0000000000000000e+00" cType="1" res="9.5683080144226551e-04" rms="4.5867881178855896e-01" purity="6.4922130107879639e-01" nType="-99"/>
        </Node>
      </Node>
    </BinaryTree>
    <BinaryTree type="DecisionTree" boostWeight="1.0000000000000000e+00" itree="241">
      <Node pos="s" depth="0" NCoef="0" IVar="6" Cut="2.6639397144317627e+00" cType="1" res="1.7802657559514046e-02" rms="4.6734723448753357e-01" purity="5.0261449813842773e-01" nType="0">
        <Node pos="l" depth="1" NCoef="0" IVar="5" Cut="2.4435839843750000e+02" cType="1" res="3.0178828164935112e-02" rms="4.6909147500991821e-01" purity="5.2575093507766724e-01" nType="0">
          <Node pos="l" depth="2" NCoef="0" IVar="-1" Cut="0.0000000000000000e+00" cType="1" res="-1.0460111079737544e-03" rms="4.4927236437797546e-01" purity="3.3208957314491272e-01" nType="-99"/>
          <Node pos="r" depth="2" NCoef="0" IVar="-1" Cut="0.0000000000000000e+00" cType="1" res="7.9143914626911283e-04" rms="4.7263884544372559e-01" purity="5.8133238554000854e-01" nType="-99"/>
        </Node>
        <Node pos="r" depth="1" NCoef="0" IVar="3" Cut="-6.3056886196136475e-02" cType="1" res="-8.4600634872913361e-02" rms="4.3948212265968323e-01" purity="3.1117832660675049e-01" nType="0">
          <Node pos="l" depth="2" NCoef="0" IVar="-1" Cut="0.0000000000000000e+00" cType="1" res="-4.2803552933037281e-03" rms="4.1281953454017639e-01" purity="2.5763595104217529e-01" nType="-99"/>
          <Node pos="r" depth="2" NCoef="0" IVar="-1" Cut="0.0000000000000000e+00" cType="1" res="-8.6582673247903585e-04" rms="4.5805969834327698e-01" purity="3.6172714829444885e-01" nType="-99"/>
        </Node>
      </Node>
    </BinaryTree>
    <BinaryTree type="DecisionTree" boostWeight="1.0000000000000000e+00" itree="242">
      <Node pos="s" depth="0" NCoef="0" IVar="1" Cut="9.8436695337295532e-01" cType="1" res="1.5587524510920048e-02" rms="4.6679553389549255e-01" purity="5.0167185068130493e-01" nType="0">
        <Node pos="l" depth="1" NCoef="0" IVar="2" Cut="3.3829620361328125e+02" cType="1" res="3.8502411916851997e-03" rms="4.7202399373054504e-01" purity="4.6872746944427490e-01" nType="0">
          <Node pos="l" depth="2" NCoef="0" IVar="-1" Cut="0.0000000000000000e+00" cType="1" res="-2.5274029467254877e-03" rms="4.1791307926177979e-01" purity="2.4217012524604797e-01" nType="-99"/>
          <Node pos="r" depth="2" NCoef="0" IVar="-1" Cut="0.0000000000000000e+00" cType="1" res="3.2965940772555768e-04" rms="4.8023694753646851e-01" purity="5.1230782270431519e-01" nType="-99"/>
        </Node>
        <Node pos="r" depth="1" NCoef="0" IVar="-1" Cut="0.0000000000000000e+00" cType="1" res="1.4758792240172625e-03" rms="4.0605771541595459e-01" purity="7.8244692087173462e-01" nType="-99"/>
      </Node>
    </BinaryTree>
    <BinaryTree type="DecisionTree" boostWeight="1.0000000000000000e+00" itree="243">
      <Node pos="s" depth="0" NCoef="0" IVar="2" Cut="3.9069430541992188e+02" cType="1" res="1.5155604109168053e-02" rms="4.6528437733650208e-01" purity="5.0158286094665527e-01" nType="0">
        <Node pos="l" depth="1" NCoef="0" IVar="5" Cut="2.1428584289550781e+02" cType="1" res="-3.8703471422195435e-02" rms="4.4516259431838989e-01" purity="3.2929536700248718e-01" nType="0">
          <Node pos="l" depth="2" NCoef="0" IVar="-1" Cut="0.0000000000000000e+00" cType="1" res="-2.8809981886297464e-03" rms="4.1474989056587219e-01" purity="2.4887056648731232e-01" nType="-99"/>
          <Node pos="r" depth="2" NCoef="0" IVar="-1" Cut="0.0000000000000000e+00" cType="1" res="-3.6944821476936340e-04" rms="4.5685246586799622e-01" purity="3.6685699224472046e-01" nType="-99"/>
        </Node>
        <Node pos="r" depth="1" NCoef="0" IVar="1" Cut="9.4007056951522827e-01" cType="1" res="4.1563175618648529e-02" rms="4.7260159254074097e-01" purity="5.8605694770812988e-01" nType="0">
          <Node pos="l" depth="2" NCoef="0" IVar="-1" Cut="0.0000000000000000e+00" cType="1" res="-2.5568474666215479e-04" rms="4.8941656947135925e-01" purity="4.5624750852584839e-01" nType="-99"/>
          <Node pos="r" depth="2" NCoef="0" IVar="-1" Cut="0.0000000000000000e+00" cType="1" res="9.6397695597261190e-04" rms="4.6252268552780151e-01" purity="6.4530098438262939e-01" nType="-99"/>
        </Node>
      </Node>
    </BinaryTree>
    <BinaryTree type="DecisionTree" boostWeight="1.0000000000000000e+00" itree="244">
      <Node pos="s" depth="0" NCoef="0" IVar="1" Cut="9.7547346353530884e-01" cType="1" res="1.2517998926341534e-02" rms="4.6640440821647644e-01" purity="4.9798122048377991e-01" nType="0">
        <Node pos="l" depth="1" NCoef="0" IVar="6" Cut="2.1310737133026123e+00" cType="1" res="-4.9105677753686905e-03" rms="4.7286421060562134e-01" purity="4.4265693426132202e-01" nType="0">
          <Node pos="l" depth="2" NCoef="0" IVar="-1" Cut="0.0000000000000000e+00" cType="1" res="6.0583092272281647e-04" rms="4.7666358947753906e-01" purity="5.0386822223663330e-01" nType="-99"/>
          <Node pos="r" depth="2" NCoef="0" IVar="-1" Cut="0.0000000000000000e+00" cType="1" res="-6.0342857614159584e-04" rms="4.6902579069137573e-01" purity="4.0673854947090149e-01" nType="-99"/>
        </Node>
        <Node pos="r" depth="1" NCoef="0" IVar="2" Cut="4.3533285522460938e+02" cType="1" res="8.6784966289997101e-02" rms="4.2996308207511902e-01" purity="7.3373037576675415e-01" nType="0">
          <Node pos="l" depth="2" NCoef="0" IVar="-1" Cut="0.0000000000000000e+00" cType="1" res="5.9136765776202083e-04" rms="4.6838524937629700e-01" purity="6.4591711759567261e-01" nType="-99"/>
          <Node pos="r" depth="2" NCoef="0" IVar="-1" Cut="0.0000000000000000e+00" cType="1" res="1.5434344531968236e-03" rms="3.9513620734214783e-01" purity="7.9982364177703857e-01" nType="-99"/>
        </Node>
      </Node>
    </BinaryTree>
    <BinaryTree type="DecisionTree" boostWeight="1.0000000000000000e+00" itree="245">
      <Node pos="s" depth="0" NCoef="0" IVar="1" Cut="9.8430716991424561e-01" cType="1" res="1.4592049643397331e-02" rms="4.6645185351371765e-01" purity="4.9999287724494934e-01" nType="0">
        <Node pos="l" depth="1" NCoef="0" IVar="2" Cut="5.4612988281250000e+02" cType="1" res="2.3560477420687675e-03" rms="4.7178763151168823e-01" purity="4.6615281701087952e-01" nType="0">
          <Node pos="l" depth="2" NCoef="0" IVar="-1" Cut="0.0000000000000000e+00" cType="1" res="-3.3743382664397359e-04" rms="4.6910861134529114e-01" purity="4.0955990552902222e-01" nType="-99"/>
          <Node pos="r" depth="2" NCoef="0" IVar="-1" Cut="0.0000000000000000e+00" cType="1" res="7.9945119796320796e-04" rms="4.7541561722755432e-01" purity="6.2593638896942139e-01" nType="-99"/>
        </Node>
        <Node pos="r" depth="1" NCoef="0" IVar="-1" Cut="0.0000000000000000e+00" cType="1" res="1.5125533100217581e-03" rms="4.0397936105728149e-01" purity="7.8646898269653320e-01" nType="-99"/>
      </Node>
    </BinaryTree>
    <BinaryTree type="DecisionTree" boostWeight="1.0000000000000000e+00" itree="246">
      <Node pos="s" depth="0" NCoef="0" IVar="1" Cut="9.8446094989776611e-01" cType="1" res="1.6957044601440430e-02" rms="4.6667423844337463e-01" purity="5.0243288278579712e-01" nType="0">
        <Node pos="l" depth="1" NCoef="0" IVar="2" Cut="3.7355706787109375e+02" cType="1" res="5.7254582643508911e-03" rms="4.7210642695426941e-01" purity="4.7002306580543518e-01" nType="0">
          <Node pos="l" depth="2" NCoef="0" IVar="-1" Cut="0.0000000000000000e+00" cType="1" res="-1.3608137378469110e-03" rms="4.3880704045295715e-01" purity="2.8591376543045044e-01" nType="-99"/>
          <Node pos="r" depth="2" NCoef="0" IVar="-1" Cut="0.0000000000000000e+00" cType="1" res="4.2587952339090407e-04" rms="4.8289921879768372e-01" purity="5.4162955284118652e-01" nType="-99"/>
        </Node>
        <Node pos="r" depth="1" NCoef="0" IVar="-1" Cut="0.0000000000000000e+00" cType="1" res="1.4633542159572244e-03" rms="4.0316680073738098e-01" purity="7.8539609909057617e-01" nType="-99"/>
      </Node>
    </BinaryTree>
    <BinaryTree type="DecisionTree" boostWeight="1.0000000000000000e+00" itree="247">
      <Node pos="s" depth="0" NCoef="0" IVar="1" Cut="9.8119747638702393e-01" cType="1" res="1.6877435147762299e-02" rms="4.6652895212173462e-01" purity="5.0216817855834961e-01" nType="0">
        <Node pos="l" depth="1" NCoef="0" IVar="2" Cut="3.6905532836914062e+02" cType="1" res="2.8157448396086693e-03" rms="4.7293293476104736e-01" purity="4.6032583713531494e-01" nType="0">
          <Node pos="l" depth="2" NCoef="0" IVar="-1" Cut="0.0000000000000000e+00" cType="1" res="-1.4871557941660285e-03" rms="4.3661895394325256e-01" purity="2.7220416069030762e-01" nType="-99"/>
          <Node pos="r" depth="2" NCoef="0" IVar="-1" Cut="0.0000000000000000e+00" cType="1" res="3.6027524038217962e-04" rms="4.8411813378334045e-01" purity="5.2877527475357056e-01" nType="-99"/>
        </Node>
        <Node pos="r" depth="1" NCoef="0" IVar="-1" Cut="0.0000000000000000e+00" cType="1" res="1.4026000862941146e-03" rms="4.1168045997619629e-01" purity="7.7139115333557129e-01" nType="-99"/>
      </Node>
    </BinaryTree>
    <BinaryTree type="DecisionTree" boostWeight="1.0000000000000000e+00" itree="248">
      <Node pos="s" depth="0" NCoef="0" IVar="1" Cut="9.8448842763900757e-01" cType="1" res="1.3006865046918392e-02" rms="4.6592801809310913e-01" purity="4.9819934368133545e-01" nType="0">
        <Node pos="l" depth="1" NCoef="0" IVar="2" Cut="5.6006939697265625e+02" cType="1" res="5.5272452300414443e-04" rms="4.7153094410896301e-01" purity="4.6382632851600647e-01" nType="0">
          <Node pos="l" depth="2" NCoef="0" IVar="-1" Cut="0.0000000000000000e+00" cType="1" res="-3.6789916339330375e-04" rms="4.6948689222335815e-01" purity="4.1055440902709961e-01" nType="-99"/>
          <Node pos="r" depth="2" NCoef="0" IVar="-1" Cut="0.0000000000000000e+00" cType="1" res="8.5134257096797228e-04" rms="4.7335380315780640e-01" purity="6.3306701183319092e-01" nType="-99"/>
        </Node>
        <Node pos="r" depth="1" NCoef="0" IVar="-1" Cut="0.0000000000000000e+00" cType="1" res="1.5082855243235826e-03" rms="3.9978143572807312e-01" purity="7.9076528549194336e-01" nType="-99"/>
      </Node>
    </BinaryTree>
    <BinaryTree type="DecisionTree" boostWeight="1.0000000000000000e+00" itree="249">
      <Node pos="s" depth="0" NCoef="0" IVar="6" Cut="2.6162910461425781e+00" cType="1" res="1.5598045662045479e-02" rms="4.6577829122543335e-01" purity="5.0171571969985962e-01" nType="0">
        <Node pos="l" depth="1" NCoef="0" IVar="1" Cut="9.8160797357559204e-01" cType="1" res="2.9274588450789452e-02" rms="4.6804001927375793e-01" purity="5.2810567617416382e-01" nType="0">
          <Node pos="l" depth="2" NCoef="0" IVar="-1" Cut="0.0000000000000000e+00" cType="1" res="2.7701756334863603e-04" rms="4.7619193792343140e-01" purity="4.8717787861824036e-01" nType="-99"/>
          <Node pos="r" depth="2" NCoef="0" IVar="-1" Cut="0.0000000000000000e+00" cType="1" res="1.5159376198425889e-03" rms="4.0015220642089844e-01" purity="7.9207754135131836e-01" nType="-99"/>
        </Node>
        <Node pos="r" depth="1" NCoef="0" IVar="3" Cut="-7.7149048447608948e-02" cType="1" res="-7.8124046325683594e-02" rms="4.3864616751670837e-01" purity="3.2087191939353943e-01" nType="0">
          <Node pos="l" depth="2" NCoef="0" IVar="-1" Cut="0.0000000000000000e+00" cType="1" res="-4.5166765339672565e-03" rms="4.0889662504196167e-01" purity="2.5246879458427429e-01" nType="-99"/>
          <Node pos="r" depth="2" NCoef="0" IVar="-1" Cut="0.0000000000000000e+00" cType="1" res="-7.9116754932329059e-04" rms="4.5313060283660889e-01" purity="3.6884009838104248e-01" nType="-99"/>
        </Node>
      </Node>
    </BinaryTree>
    <BinaryTree type="DecisionTree" boostWeight="1.0000000000000000e+00" itree="250">
      <Node pos="s" depth="0" NCoef="0" IVar="1" Cut="9.3660986423492432e-01" cType="1" res="1.7587013542652130e-02" rms="4.6582204103469849e-01" purity="5.0437569618225098e-01" nType="0">
        <Node pos="l" depth="1" NCoef="0" IVar="3" Cut="-9.0180218219757080e-02" cType="1" res="-3.7234492599964142e-02" rms="4.6142065525054932e-01" purity="3.6088547110557556e-01" nType="0">
          <Node pos="l" depth="2" NCoef="0" IVar="-1" Cut="0.0000000000000000e+00" cType="1" res="-2.7796302456408739e-03" rms="4.3168786168098450e-01" purity="2.9110854864120483e-01" nType="-99"/>
          <Node pos="r" depth="2" NCoef="0" IVar="-1" Cut="0.0000000000000000e+00" cType="1" res="-5.2631791913881898e-04" rms="4.6677932143211365e-01" purity="3.7672954797744751e-01" nType="-99"/>
        </Node>
        <Node pos="r" depth="1" NCoef="0" IVar="2" Cut="5.7464007568359375e+02" cType="1" res="3.9159562438726425e-02" rms="4.6577692031860352e-01" purity="5.6083983182907104e-01" nType="0">
          <Node pos="l" depth="2" NCoef="0" IVar="-1" Cut="0.0000000000000000e+00" cType="1" res="3.5708167706616223e-04" rms="4.7136548161506653e-01" purity="5.1525133848190308e-01" nType="-99"/>
          <Node pos="r" depth="2" NCoef="0" IVar="-1" Cut="0.0000000000000000e+00" cType="1" res="1.3751472579315305e-03" rms="4.4051524996757507e-01" purity="7.1533751487731934e-01" nType="-99"/>
        </Node>
      </Node>
    </BinaryTree>
    <BinaryTree type="DecisionTree" boostWeight="1.0000000000000000e+00" itree="251">
      <Node pos="s" depth="0" NCoef="0" IVar="1" Cut="9.8440772294998169e-01" cType="1" res="1.3175388798117638e-02" rms="4.6648326516151428e-01" purity="4.9841722846031189e-01" nType="0">
        <Node pos="l" depth="1" NCoef="0" IVar="2" Cut="3.2789929199218750e+02" cType="1" res="1.5383439604192972e-03" rms="4.7197663784027100e-01" purity="4.6462121605873108e-01" nType="0">
          <Node pos="l" depth="2" NCoef="0" IVar="-1" Cut="0.0000000000000000e+00" cType="1" res="-2.9402584768831730e-03" rms="4.0626794099807739e-01" purity="2.2891019284725189e-01" nType="-99"/>
          <Node pos="r" depth="2" NCoef="0" IVar="-1" Cut="0.0000000000000000e+00" cType="1" res="2.5712692877277732e-04" rms="4.7990015149116516e-01" purity="5.0063908100128174e-01" nType="-99"/>
        </Node>
        <Node pos="r" depth="1" NCoef="0" IVar="-1" Cut="0.0000000000000000e+00" cType="1" res="1.4399260981008410e-03" rms="4.0376308560371399e-01" purity="7.8491169214248657e-01" nType="-99"/>
      </Node>
    </BinaryTree>
    <BinaryTree type="DecisionTree" boostWeight="1.0000000000000000e+00" itree="252">
      <Node pos="s" depth="0" NCoef="0" IVar="1" Cut="9.8137164115905762e-01" cType="1" res="1.4032255858182907e-02" rms="4.6592637896537781e-01" purity="4.9918028712272644e-01" nType="0">
        <Node pos="l" depth="1" NCoef="0" IVar="1" Cut="9.2354321479797363e-01" cType="1" res="5.4394773906096816e-04" rms="4.7188645601272583e-01" purity="4.5828571915626526e-01" nType="0">
          <Node pos="l" depth="2" NCoef="0" IVar="-1" Cut="0.0000000000000000e+00" cType="1" res="-1.5936414711177349e-03" rms="4.5208236575126648e-01" purity="3.3068999648094177e-01" nType="-99"/>
          <Node pos="r" depth="2" NCoef="0" IVar="-1" Cut="0.0000000000000000e+00" cType="1" res="2.7092700474895537e-04" rms="4.7505152225494385e-01" purity="4.8708030581474304e-01" nType="-99"/>
        </Node>
        <Node pos="r" depth="1" NCoef="0" IVar="-1" Cut="0.0000000000000000e+00" cType="1" res="1.3512325240299106e-03" rms="4.1355299949645996e-01" purity="7.6931017637252808e-01" nType="-99"/>
      </Node>
    </BinaryTree>
    <BinaryTree type="DecisionTree" boostWeight="1.0000000000000000e+00" itree="253">
      <Node pos="s" depth="0" NCoef="0" IVar="1" Cut="9.7813850641250610e-01" cType="1" res="1.3634098693728447e-02" rms="4.6617734432220459e-01" purity="4.9966531991958618e-01" nType="0">
        <Node pos="l" depth="1" NCoef="0" IVar="2" Cut="4.3357388305664062e+02" cType="1" res="-1.6238186508417130e-03" rms="4.7290855646133423e-01" purity="4.4978582859039307e-01" nType="0">
          <Node pos="l" depth="2" NCoef="0" IVar="-1" Cut="0.0000000000000000e+00" cType="1" res="-8.1015506293624640e-04" rms="4.5656561851501465e-01" purity="3.2838648557662964e-01" nType="-99"/>
          <Node pos="r" depth="2" NCoef="0" IVar="-1" Cut="0.0000000000000000e+00" cType="1" res="4.2170737287960947e-04" rms="4.8605677485466003e-01" purity="5.6388092041015625e-01" nType="-99"/>
        </Node>
        <Node pos="r" depth="1" NCoef="0" IVar="-1" Cut="0.0000000000000000e+00" cType="1" res="1.2013268424198031e-03" rms="4.2230191826820374e-01" purity="7.5126338005065918e-01" nType="-99"/>
      </Node>
    </BinaryTree>
    <BinaryTree type="DecisionTree" boostWeight="1.0000000000000000e+00" itree="254">
      <Node pos="s" depth="0" NCoef="0" IVar="6" Cut="2.6353275775909424e+00" cType="1" res="1.7883213236927986e-02" rms="4.6673038601875305e-01" purity="5.0386285781860352e-01" nType="0">
        <Node pos="l" depth="1" NCoef="0" IVar="1" Cut="9.8151737451553345e-01" cType="1" res="3.1144097447395325e-02" rms="4.6864616870880127e-01" purity="5.2932649850845337e-01" nType="0">
          <Node pos="l" depth="2" NCoef="0" IVar="-1" Cut="0.0000000000000000e+00" cType="1" res="3.3864553552120924e-04" rms="4.7670832276344299e-01" purity="4.8972225189208984e-01" nType="-99"/>
          <Node pos="r" depth="2" NCoef="0" IVar="-1" Cut="0.0000000000000000e+00" cType="1" res="1.4395096804946661e-03" rms="4.0336015820503235e-01" purity="7.8693300485610962e-01" nType="-99"/>
        </Node>
        <Node pos="r" depth="1" NCoef="0" IVar="4" Cut="7.8106105327606201e-02" cType="1" res="-8.0331601202487946e-02" rms="4.4001886248588562e-01" purity="3.1526973843574524e-01" nType="0">
          <Node pos="l" depth="2" NCoef="0" IVar="-1" Cut="0.0000000000000000e+00" cType="1" res="-1.1901940451934934e-03" rms="4.4654181599617004e-01" purity="3.5343572497367859e-01" nType="-99"/>
          <Node pos="r" depth="2" NCoef="0" IVar="-1" Cut="0.0000000000000000e+00" cType="1" res="-3.8517573848366737e-03" rms="4.2770236730575562e-01" purity="2.6487258076667786e-01" nType="-99"/>
        </Node>
      </Node>
    </BinaryTree>
    <BinaryTree type="DecisionTree" boostWeight="1.0000000000000000e+00" itree="255">
      <Node pos="s" depth="0" NCoef="0" IVar="2" Cut="5.6006939697265625e+02" cType="1" res="1.2427492998540401e-02" rms="4.6658778190612793e-01" purity="4.9738028645515442e-01" nType="0">
        <Node pos="l" depth="1" NCoef="0" IVar="1" Cut="9.2489010095596313e-01" cType="1" res="-7.5057344511151314e-03" rms="4.6672347187995911e-01" purity="4.4344004988670349e-01" nType="0">
          <Node pos="l" depth="2" NCoef="0" IVar="-1" Cut="0.0000000000000000e+00" cType="1" res="-2.0623854361474514e-03" rms="4.3811413645744324e-01" purity="2.8329649567604065e-01" nType="-99"/>
          <Node pos="r" depth="2" NCoef="0" IVar="-1" Cut="0.0000000000000000e+00" cType="1" res="1.1819191422546282e-04" rms="4.7140598297119141e-01" purity="4.7740748524665833e-01" nType="-99"/>
        </Node>
        <Node pos="r" depth="1" NCoef="0" IVar="0" Cut="6.8072512745857239e-02" cType="1" res="7.3494434356689453e-02" rms="4.6083596348762512e-01" purity="6.6263031959533691e-01" nType="0">
          <Node pos="l" depth="2" NCoef="0" IVar="-1" Cut="0.0000000000000000e+00" cType="1" res="4.6126672532409430e-04" rms="4.7621539235115051e-01" purity="6.1129295825958252e-01" nType="-99"/>
          <Node pos="r" depth="2" NCoef="0" IVar="-1" Cut="0.0000000000000000e+00" cType="1" res="1.8496880074962974e-03" rms="4.2502740025520325e-01" purity="7.4670159816741943e-01" nType="-99"/>
        </Node>
      </Node>
    </BinaryTree>
    <BinaryTree type="DecisionTree" boostWeight="1.0000000000000000e+00" itree="256">
      <Node pos="s" depth="0" NCoef="0" IVar="2" Cut="3.6980026245117188e+02" cType="1" res="1.8240692093968391e-02" rms="4.6483045816421509e-01" purity="5.0630098581314087e-01" nType="0">
        <Node pos="l" depth="1" NCoef="0" IVar="3" Cut="1.7939077690243721e-02" cType="1" res="-4.4183526188135147e-02" rms="4.3894121050834656e-01" purity="3.0670008063316345e-01" nType="0">
          <Node pos="l" depth="2" NCoef="0" IVar="-1" Cut="0.0000000000000000e+00" cType="1" res="-2.5022604968398809e-03" rms="4.2003279924392700e-01" purity="2.6464191079139709e-01" nType="-99"/>
          <Node pos="r" depth="2" NCoef="0" IVar="-1" Cut="0.0000000000000000e+00" cType="1" res="-1.0011176345869899e-04" rms="4.5562943816184998e-01" purity="3.5328182578086853e-01" nType="-99"/>
        </Node>
        <Node pos="r" depth="1" NCoef="0" IVar="1" Cut="9.7536396980285645e-01" cType="1" res="3.9596401154994965e-02" rms="4.7146871685981750e-01" purity="5.7458567619323730e-01" nType="0">
          <Node pos="l" depth="2" NCoef="0" IVar="-1" Cut="0.0000000000000000e+00" cType="1" res="3.6739680217579007e-04" rms="4.8515120148658752e-01" purity="5.2164489030838013e-01" nType="-99"/>
          <Node pos="r" depth="2" NCoef="0" IVar="-1" Cut="0.0000000000000000e+00" cType="1" res="1.4106893213465810e-03" rms="4.0680178999900818e-01" purity="7.8012609481811523e-01" nType="-99"/>
        </Node>
      </Node>
    </BinaryTree>
    <BinaryTree type="DecisionTree" boostWeight="1.0000000000000000e+00" itree="257">
      <Node pos="s" depth="0" NCoef="0" IVar="1" Cut="9.8144096136093140e-01" cType="1" res="1.0264745913445950e-02" rms="4.6516886353492737e-01" purity="4.9699020385742188e-01" nType="0">
        <Node pos="l" depth="1" NCoef="0" IVar="2" Cut="5.5629565429687500e+02" cType="1" res="-5.3020231425762177e-03" rms="4.7192093729972839e-01" purity="4.5189309120178223e-01" nType="0">
          <Node pos="l" depth="2" NCoef="0" IVar="-1" Cut="0.0000000000000000e+00" cType="1" res="-4.8485791194252670e-04" rms="4.6930399537086487e-01" purity="3.9713650941848755e-01" nType="-99"/>
          <Node pos="r" depth="2" NCoef="0" IVar="-1" Cut="0.0000000000000000e+00" cType="1" res="7.1267754537984729e-04" rms="4.7597810626029968e-01" purity="6.2106496095657349e-01" nType="-99"/>
        </Node>
        <Node pos="r" depth="1" NCoef="0" IVar="-1" Cut="0.0000000000000000e+00" cType="1" res="1.3922394718974829e-03" rms="4.0774515271186829e-01" purity="7.7696573734283447e-01" nType="-99"/>
      </Node>
    </BinaryTree>
    <BinaryTree type="DecisionTree" boostWeight="1.0000000000000000e+00" itree="258">
      <Node pos="s" depth="0" NCoef="0" IVar="6" Cut="2.6047730445861816e+00" cType="1" res="1.3017789460718632e-02" rms="4.6583142876625061e-01" purity="4.9903872609138489e-01" nType="0">
        <Node pos="l" depth="1" NCoef="0" IVar="1" Cut="9.6011549234390259e-01" cType="1" res="2.7025680989027023e-02" rms="4.6803283691406250e-01" purity="5.2669960260391235e-01" nType="0">
          <Node pos="l" depth="2" NCoef="0" IVar="-1" Cut="0.0000000000000000e+00" cType="1" res="2.1993992049829103e-05" rms="4.7751888632774353e-01" purity="4.3613409996032715e-01" nType="-99"/>
          <Node pos="r" depth="2" NCoef="0" IVar="-1" Cut="0.0000000000000000e+00" cType="1" res="9.9454645533114672e-04" rms="4.4865858554840088e-01" purity="6.7633277177810669e-01" nType="-99"/>
        </Node>
        <Node pos="r" depth="1" NCoef="0" IVar="4" Cut="7.6151579618453979e-02" cType="1" res="-7.9130552709102631e-02" rms="4.4010555744171143e-01" purity="3.1707635521888733e-01" nType="0">
          <Node pos="l" depth="2" NCoef="0" IVar="-1" Cut="0.0000000000000000e+00" cType="1" res="-1.0838243179023266e-03" rms="4.4962036609649658e-01" purity="3.5584330558776855e-01" nType="-99"/>
          <Node pos="r" depth="2" NCoef="0" IVar="-1" Cut="0.0000000000000000e+00" cType="1" res="-4.0190252475440502e-03" rms="4.2190194129943848e-01" purity="2.6321417093276978e-01" nType="-99"/>
        </Node>
      </Node>
    </BinaryTree>
    <BinaryTree type="DecisionTree" boostWeight="1.0000000000000000e+00" itree="259">
      <Node pos="s" depth="0" NCoef="0" IVar="6" Cut="2.3366348743438721e+00" cType="1" res="9.8280692473053932e-03" rms="4.6630814671516418e-01" purity="4.9566331505775452e-01" nType="0">
        <Node pos="l" depth="1" NCoef="0" IVar="1" Cut="9.7524130344390869e-01" cType="1" res="3.3405736088752747e-02" rms="4.6790525317192078e-01" purity="5.4094409942626953e-01" nType="0">
          <Node pos="l" depth="2" NCoef="0" IVar="-1" Cut="0.0000000000000000e+00" cType="1" res="3.0035106465220451e-04" rms="4.7869595885276794e-01" purity="4.8561787605285645e-01" nType="-99"/>
          <Node pos="r" depth="2" NCoef="0" IVar="-1" Cut="0.0000000000000000e+00" cType="1" res="1.3372920220717788e-03" rms="4.1421946883201599e-01" purity="7.6652181148529053e-01" nType="-99"/>
        </Node>
        <Node pos="r" depth="1" NCoef="0" IVar="4" Cut="7.8580573201179504e-02" cType="1" res="-3.6753755062818527e-02" rms="4.5959478616714478e-01" purity="4.0620309114456177e-01" nType="0">
          <Node pos="l" depth="2" NCoef="0" IVar="-1" Cut="0.0000000000000000e+00" cType="1" res="-2.3905727721285075e-04" rms="4.6099025011062622e-01" purity="4.3586751818656921e-01" nType="-99"/>
          <Node pos="r" depth="2" NCoef="0" IVar="-1" Cut="0.0000000000000000e+00" cType="1" res="-2.3048040457069874e-03" rms="4.5162320137023926e-01" purity="3.4057649970054626e-01" nType="-99"/>
        </Node>
      </Node>
    </BinaryTree>
    <BinaryTree type="DecisionTree" boostWeight="1.0000000000000000e+00" itree="260">
      <Node pos="s" depth="0" NCoef="0" IVar="6" Cut="2.2833211421966553e+00" cType="1" res="1.2877809815108776e-02" rms="4.6630612015724182e-01" purity="4.9797764420509338e-01" nType="0">
        <Node pos="l" depth="1" NCoef="0" IVar="5" Cut="2.4872912597656250e+02" cType="1" res="3.9772409945726395e-02" rms="4.6752417087554932e-01" purity="5.4809612035751343e-01" nType="0">
          <Node pos="l" depth="2" NCoef="0" IVar="-1" Cut="0.0000000000000000e+00" cType="1" res="-5.3453538566827774e-04" rms="4.5971289277076721e-01" purity="3.6213019490242004e-01" nType="-99"/>
          <Node pos="r" depth="2" NCoef="0" IVar="-1" Cut="0.0000000000000000e+00" cType="1" res="9.0662128059193492e-04" rms="4.6824428439140320e-01" purity="6.0827308893203735e-01" nType="-99"/>
        </Node>
        <Node pos="r" depth="1" NCoef="0" IVar="6" Cut="2.8270618915557861e+00" cType="1" res="-2.8396394103765488e-02" rms="4.6139156818389893e-01" purity="4.2106243968009949e-01" nType="0">
          <Node pos="l" depth="2" NCoef="0" IVar="-1" Cut="0.0000000000000000e+00" cType="1" res="-2.9027037089690566e-04" rms="4.6619606018066406e-01" purity="4.4688171148300171e-01" nType="-99"/>
          <Node pos="r" depth="2" NCoef="0" IVar="-1" Cut="0.0000000000000000e+00" cType="1" res="-3.2436389010399580e-03" rms="4.2528641223907471e-01" purity="2.7672514319419861e-01" nType="-99"/>
        </Node>
      </Node>
    </BinaryTree>
    <BinaryTree type="DecisionTree" boostWeight="1.0000000000000000e+00" itree="261">
      <Node pos="s" depth="0" NCoef="0" IVar="6" Cut="2.2978558540344238e+00" cType="1" res="1.0726761072874069e-02" rms="4.6522846817970276e-01" purity="4.9595847725868225e-01" nType="0">
        <Node pos="l" depth="1" NCoef="0" IVar="1" Cut="9.2807441949844360e-01" cType="1" res="3.7143718451261520e-02" rms="4.6659824252128601e-01" purity="5.4557710886001587e-01" nType="0">
          <Node pos="l" depth="2" NCoef="0" IVar="-1" Cut="0.0000000000000000e+00" cType="1" res="-7.6170125976204872e-04" rms="4.6861419081687927e-01" purity="3.8040873408317566e-01" nType="-99"/>
          <Node pos="r" depth="2" NCoef="0" IVar="-1" Cut="0.0000000000000000e+00" cType="1" res="8.5606635548174381e-04" rms="4.6446934342384338e-01" purity="5.8484023809432983e-01" nType="-99"/>
        </Node>
        <Node pos="r" depth="1" NCoef="0" IVar="5" Cut="3.5401898193359375e+02" cType="1" res="-3.2680116593837738e-02" rms="4.5968401432037354e-01" purity="4.1442784667015076e-01" nType="0">
          <Node pos="l" depth="2" NCoef="0" IVar="-1" Cut="0.0000000000000000e+00" cType="1" res="-1.4086888404563069e-03" rms="4.4641128182411194e-01" purity="3.3949819207191467e-01" nType="-99"/>
          <Node pos="r" depth="2" NCoef="0" IVar="-1" Cut="0.0000000000000000e+00" cType="1" res="2.1754394401796162e-04" rms="4.8130264878273010e-01" purity="5.6111842393875122e-01" nType="-99"/>
        </Node>
      </Node>
    </BinaryTree>
    <BinaryTree type="DecisionTree" boostWeight="1.0000000000000000e+00" itree="262">
      <Node pos="s" depth="0" NCoef="0" IVar="1" Cut="9.4833773374557495e-01" cType="1" res="1.5015458688139915e-02" rms="4.6538448333740234e-01" purity="5.0094449520111084e-01" nType="0">
        <Node pos="l" depth="1" NCoef="0" IVar="6" Cut="2.6462295055389404e+00" cType="1" res="-2.2406887263059616e-02" rms="4.6703621745109558e-01" purity="3.8316464424133301e-01" nType="0">
          <Node pos="l" depth="2" NCoef="0" IVar="-1" Cut="0.0000000000000000e+00" cType="1" res="-2.5638524675741792e-04" rms="4.7420376539230347e-01" purity="4.0551054477691650e-01" nType="-99"/>
          <Node pos="r" depth="2" NCoef="0" IVar="-1" Cut="0.0000000000000000e+00" cType="1" res="-3.4352079965174198e-03" rms="4.0703195333480835e-01" purity="2.2853104770183563e-01" nType="-99"/>
        </Node>
        <Node pos="r" depth="1" NCoef="0" IVar="5" Cut="2.4642304992675781e+02" cType="1" res="4.4639397412538528e-02" rms="4.6192789077758789e-01" purity="5.9418034553527832e-01" nType="0">
          <Node pos="l" depth="2" NCoef="0" IVar="-1" Cut="0.0000000000000000e+00" cType="1" res="-6.3663430046290159e-04" rms="4.6592789888381958e-01" purity="4.0322670340538025e-01" nType="-99"/>
          <Node pos="r" depth="2" NCoef="0" IVar="-1" Cut="0.0000000000000000e+00" cType="1" res="9.5199630595743656e-04" rms="4.5864295959472656e-01" purity="6.4755898714065552e-01" nType="-99"/>
        </Node>
      </Node>
    </BinaryTree>
    <BinaryTree type="DecisionTree" boostWeight="1.0000000000000000e+00" itree="263">
      <Node pos="s" depth="0" NCoef="0" IVar="1" Cut="9.3399035930633545e-01" cType="1" res="1.5339772216975689e-02" rms="4.6622705459594727e-01" purity="5.0080382823944092e-01" nType="0">
        <Node pos="l" depth="1" NCoef="0" IVar="0" Cut="5.4095577448606491e-02" cType="1" res="-4.0970575064420700e-02" rms="4.5940718054771423e-01" purity="3.5339105129241943e-01" nType="0">
          <Node pos="l" depth="2" NCoef="0" IVar="-1" Cut="0.0000000000000000e+00" cType="1" res="-1.8388942116871476e-03" rms="4.6324896812438965e-01" purity="3.4380519390106201e-01" nType="-99"/>
          <Node pos="r" depth="2" NCoef="0" IVar="-1" Cut="0.0000000000000000e+00" cType="1" res="-5.3512351587414742e-04" rms="4.5635506510734558e-01" purity="3.5838797688484192e-01" nType="-99"/>
        </Node>
        <Node pos="r" depth="1" NCoef="0" IVar="2" Cut="5.9480633544921875e+02" cType="1" res="3.4633655101060867e-02" rms="4.6698170900344849e-01" purity="5.5131256580352783e-01" nType="0">
          <Node pos="l" depth="2" NCoef="0" IVar="-1" Cut="0.0000000000000000e+00" cType="1" res="3.2189936609938741e-04" rms="4.7184950113296509e-01" purity="5.1025038957595825e-01" nType="-99"/>
          <Node pos="r" depth="2" NCoef="0" IVar="-1" Cut="0.0000000000000000e+00" cType="1" res="1.3572579482570291e-03" rms="4.4107198715209961e-01" purity="7.1504354476928711e-01" nType="-99"/>
        </Node>
      </Node>
    </BinaryTree>
    <BinaryTree type="DecisionTree" boostWeight="1.0000000000000000e+00" itree="264">
      <Node pos="s" depth="0" NCoef="0" IVar="1" Cut="9.3628340959548950e-01" cType="1" res="1.1245172470808029e-02" rms="4.6504122018814087e-01" purity="4.9800762534141541e-01" nType="0">
        <Node pos="l" depth="1" NCoef="0" IVar="3" Cut="9.6544831991195679e-02" cType="1" res="-4.5805327594280243e-02" rms="4.5679387450218201e-01" purity="3.5108163952827454e-01" nType="0">
          <Node pos="l" depth="2" NCoef="0" IVar="-1" Cut="0.0000000000000000e+00" cType="1" res="-1.7594845267012715e-03" rms="4.4742760062217712e-01" purity="3.2367128133773804e-01" nType="-99"/>
          <Node pos="r" depth="2" NCoef="0" IVar="-1" Cut="0.0000000000000000e+00" cType="1" res="5.1391081797191873e-05" rms="4.7261708974838257e-01" purity="4.0974193811416626e-01" nType="-99"/>
        </Node>
        <Node pos="r" depth="1" NCoef="0" IVar="2" Cut="5.5412701416015625e+02" cType="1" res="3.3463165163993835e-02" rms="4.6632924675941467e-01" purity="5.5522716045379639e-01" nType="0">
          <Node pos="l" depth="2" NCoef="0" IVar="-1" Cut="0.0000000000000000e+00" cType="1" res="1.8003321019932628e-04" rms="4.7263169288635254e-01" purity="4.9734953045845032e-01" nType="-99"/>
          <Node pos="r" depth="2" NCoef="0" IVar="-1" Cut="0.0000000000000000e+00" cType="1" res="1.3257582904770970e-03" rms="4.4231268763542175e-01" purity="7.1364581584930420e-01" nType="-99"/>
        </Node>
      </Node>
    </BinaryTree>
    <BinaryTree type="DecisionTree" boostWeight="1.0000000000000000e+00" itree="265">
      <Node pos="s" depth="0" NCoef="0" IVar="1" Cut="9.6617990732192993e-01" cType="1" res="1.3247340917587280e-02" rms="4.6526810526847839e-01" purity="5.0034075975418091e-01" nType="0">
        <Node pos="l" depth="1" NCoef="0" IVar="5" Cut="5.2181793212890625e+02" cType="1" res="-9.6278963610529900e-03" rms="4.7180396318435669e-01" purity="4.2137831449508667e-01" nType="0">
          <Node pos="l" depth="2" NCoef="0" IVar="-1" Cut="0.0000000000000000e+00" cType="1" res="-4.3040807940997183e-04" rms="4.7055190801620483e-01" purity="3.9756098389625549e-01" nType="-99"/>
          <Node pos="r" depth="2" NCoef="0" IVar="-1" Cut="0.0000000000000000e+00" cType="1" res="1.3048903783783317e-03" rms="4.7206705808639526e-01" purity="6.4886230230331421e-01" nType="-99"/>
        </Node>
        <Node pos="r" depth="1" NCoef="0" IVar="5" Cut="3.2038488769531250e+02" cType="1" res="6.7156031727790833e-02" rms="4.4486147165298462e-01" purity="6.8642669916152954e-01" nType="0">
          <Node pos="l" depth="2" NCoef="0" IVar="-1" Cut="0.0000000000000000e+00" cType="1" res="4.2776062036864460e-04" rms="4.7074803709983826e-01" purity="6.0392415523529053e-01" nType="-99"/>
          <Node pos="r" depth="2" NCoef="0" IVar="-1" Cut="0.0000000000000000e+00" cType="1" res="1.3977182097733021e-03" rms="4.1289234161376953e-01" purity="7.7084624767303467e-01" nType="-99"/>
        </Node>
      </Node>
    </BinaryTree>
    <BinaryTree type="DecisionTree" boostWeight="1.0000000000000000e+00" itree="266">
      <Node pos="s" depth="0" NCoef="0" IVar="1" Cut="9.8448842763900757e-01" cType="1" res="1.5494873747229576e-02" rms="4.6659877896308899e-01" purity="5.0140947103500366e-01" nType="0">
        <Node pos="l" depth="1" NCoef="0" IVar="2" Cut="7.1484948730468750e+02" cType="1" res="4.3897759169340134e-03" rms="4.7234275937080383e-01" purity="4.6814233064651489e-01" nType="0">
          <Node pos="l" depth="2" NCoef="0" IVar="-1" Cut="0.0000000000000000e+00" cType="1" res="-1.1511538468766958e-04" rms="4.7241526842117310e-01" purity="4.4536334276199341e-01" nType="-99"/>
          <Node pos="r" depth="2" NCoef="0" IVar="-1" Cut="0.0000000000000000e+00" cType="1" res="1.3834431301802397e-03" rms="4.6104955673217773e-01" purity="6.7823189496994019e-01" nType="-99"/>
        </Node>
        <Node pos="r" depth="1" NCoef="0" IVar="-1" Cut="0.0000000000000000e+00" cType="1" res="1.4344775117933750e-03" rms="4.0107899904251099e-01" purity="7.8875291347503662e-01" nType="-99"/>
      </Node>
    </BinaryTree>
    <BinaryTree type="DecisionTree" boostWeight="1.0000000000000000e+00" itree="267">
      <Node pos="s" depth="0" NCoef="0" IVar="1" Cut="9.8125678300857544e-01" cType="1" res="1.4340691268444061e-02" rms="4.6565631031990051e-01" purity="5.0035470724105835e-01" nType="0">
        <Node pos="l" depth="1" NCoef="0" IVar="5" Cut="4.7201605224609375e+02" cType="1" res="1.5753429615870118e-03" rms="4.7199276089668274e-01" purity="4.5890593528747559e-01" nType="0">
          <Node pos="l" depth="2" NCoef="0" IVar="-1" Cut="0.0000000000000000e+00" cType="1" res="-2.3032040917314589e-04" rms="4.7145357728004456e-01" purity="4.2684677243232727e-01" nType="-99"/>
          <Node pos="r" depth="2" NCoef="0" IVar="-1" Cut="0.0000000000000000e+00" cType="1" res="1.1723843635991216e-03" rms="4.6731749176979065e-01" purity="6.5776383876800537e-01" nType="-99"/>
        </Node>
        <Node pos="r" depth="1" NCoef="0" IVar="-1" Cut="0.0000000000000000e+00" cType="1" res="1.2834123335778713e-03" rms="4.1302123665809631e-01" purity="7.6818907260894775e-01" nType="-99"/>
      </Node>
    </BinaryTree>
    <BinaryTree type="DecisionTree" boostWeight="1.0000000000000000e+00" itree="268">
      <Node pos="s" depth="0" NCoef="0" IVar="2" Cut="6.4697155761718750e+02" cType="1" res="1.3447415083646774e-02" rms="4.6549373865127563e-01" purity="5.0016534328460693e-01" nType="0">
        <Node pos="l" depth="1" NCoef="0" IVar="1" Cut="9.4586515426635742e-01" cType="1" res="-6.1728450236842036e-04" rms="4.6607649326324463e-01" purity="4.6781668066978455e-01" nType="0">
          <Node pos="l" depth="2" NCoef="0" IVar="-1" Cut="0.0000000000000000e+00" cType="1" res="-1.0549130383878946e-03" rms="4.5803618431091309e-01" purity="3.3805269002914429e-01" nType="-99"/>
          <Node pos="r" depth="2" NCoef="0" IVar="-1" Cut="0.0000000000000000e+00" cType="1" res="4.5942008728161454e-04" rms="4.6928468346595764e-01" purity="5.5567342042922974e-01" nType="-99"/>
        </Node>
        <Node pos="r" depth="1" NCoef="0" IVar="4" Cut="5.0927244126796722e-02" cType="1" res="9.5331445336341858e-02" rms="4.5350533723831177e-01" purity="6.8849802017211914e-01" nType="0">
          <Node pos="l" depth="2" NCoef="0" IVar="-1" Cut="0.0000000000000000e+00" cType="1" res="1.6854307614266872e-03" rms="4.3568325042724609e-01" purity="7.2909218072891235e-01" nType="-99"/>
          <Node pos="r" depth="2" NCoef="0" IVar="-1" Cut="0.0000000000000000e+00" cType="1" res="7.8789918916299939e-04" rms="4.7202774882316589e-01" purity="6.3627058267593384e-01" nType="-99"/>
        </Node>
      </Node>
    </BinaryTree>
    <BinaryTree type="DecisionTree" boostWeight="1.0000000000000000e+00" itree="269">
      <Node pos="s" depth="0" NCoef="0" IVar="1" Cut="9.6939039230346680e-01" cType="1" res="1.0073367506265640e-02" rms="4.6421301364898682e-01" purity="4.9746614694595337e-01" nType="0">
        <Node pos="l" depth="1" NCoef="0" IVar="6" Cut="2.6159727573394775e+00" cType="1" res="-1.0548180900514126e-02" rms="4.7043135762214661e-01" purity="4.2610576748847961e-01" nType="0">
          <Node pos="l" depth="2" NCoef="0" IVar="-1" Cut="0.0000000000000000e+00" cType="1" res="2.2845042622066103e-05" rms="4.7607475519180298e-01" purity="4.5170682668685913e-01" nType="-99"/>
          <Node pos="r" depth="2" NCoef="0" IVar="-1" Cut="0.0000000000000000e+00" cType="1" res="-2.7826379518955946e-03" rms="4.2411103844642639e-01" purity="2.5971350073814392e-01" nType="-99"/>
        </Node>
        <Node pos="r" depth="1" NCoef="0" IVar="6" Cut="2.3670606613159180e+00" cType="1" res="6.8971239030361176e-02" rms="4.4069316983222961e-01" purity="7.0128101110458374e-01" nType="0">
          <Node pos="l" depth="2" NCoef="0" IVar="-1" Cut="0.0000000000000000e+00" cType="1" res="1.2562067713588476e-03" rms="4.2388358712196350e-01" purity="7.4313998222351074e-01" nType="-99"/>
          <Node pos="r" depth="2" NCoef="0" IVar="-1" Cut="0.0000000000000000e+00" cType="1" res="4.2685987864388153e-05" rms="4.7668960690498352e-01" purity="5.8881974220275879e-01" nType="-99"/>
        </Node>
      </Node>
    </BinaryTree>
    <BinaryTree type="DecisionTree" boostWeight="1.0000000000000000e+00" itree="270">
      <Node pos="s" depth="0" NCoef="0" IVar="2" Cut="5.1436920166015625e+02" cType="1" res="1.0526995174586773e-02" rms="4.6542492508888245e-01" purity="4.9691066145896912e-01" nType="0">
        <Node pos="l" depth="1" NCoef="0" IVar="6" Cut="2.4013628959655762e+00" cType="1" res="-1.2741860002279282e-02" rms="4.6441304683685303e-01" purity="4.2456489801406860e-01" nType="0">
          <Node pos="l" depth="2" NCoef="0" IVar="-1" Cut="0.0000000000000000e+00" cType="1" res="1.3550961739383638e-04" rms="4.7210410237312317e-01" purity="4.6645978093147278e-01" nType="-99"/>
          <Node pos="r" depth="2" NCoef="0" IVar="-1" Cut="0.0000000000000000e+00" cType="1" res="-1.6470700502395630e-03" rms="4.4094195961952209e-01" purity="3.2083034515380859e-01" nType="-99"/>
        </Node>
        <Node pos="r" depth="1" NCoef="0" IVar="0" Cut="7.3541514575481415e-02" cType="1" res="5.8463193476200104e-02" rms="4.6383765339851379e-01" purity="6.4595031738281250e-01" nType="0">
          <Node pos="l" depth="2" NCoef="0" IVar="-1" Cut="0.0000000000000000e+00" cType="1" res="4.2764437966980040e-04" rms="4.7255596518516541e-01" purity="6.1028748750686646e-01" nType="-99"/>
          <Node pos="r" depth="2" NCoef="0" IVar="-1" Cut="0.0000000000000000e+00" cType="1" res="1.4959403779357672e-03" rms="4.4321829080581665e-01" purity="7.0806711912155151e-01" nType="-99"/>
        </Node>
      </Node>
    </BinaryTree>
    <BinaryTree type="DecisionTree" boostWeight="1.0000000000000000e+00" itree="271">
      <Node pos="s" depth="0" NCoef="0" IVar="1" Cut="9.7509831190109253e-01" cType="1" res="1.5669343993067741e-02" rms="4.6460479497909546e-01" purity="5.0298732519149780e-01" nType="0">
        <Node pos="l" depth="1" NCoef="0" IVar="6" Cut="2.5234251022338867e+00" cType="1" res="-4.2293799924664199e-04" rms="4.7154885530471802e-01" purity="4.4663062691688538e-01" nType="0">
          <Node pos="l" depth="2" NCoef="0" IVar="-1" Cut="0.0000000000000000e+00" cType="1" res="2.5012771948240697e-04" rms="4.7727227210998535e-01" purity="4.7835645079612732e-01" nType="-99"/>
          <Node pos="r" depth="2" NCoef="0" IVar="-1" Cut="0.0000000000000000e+00" cType="1" res="-1.7869538860395551e-03" rms="4.3908971548080444e-01" purity="3.0307394266128540e-01" nType="-99"/>
        </Node>
        <Node pos="r" depth="1" NCoef="0" IVar="6" Cut="2.2610344886779785e+00" cType="1" res="8.2159385085105896e-02" rms="4.2837733030319214e-01" purity="7.3584175109863281e-01" nType="0">
          <Node pos="l" depth="2" NCoef="0" IVar="-1" Cut="0.0000000000000000e+00" cType="1" res="1.4560815179720521e-03" rms="4.0519654750823975e-01" purity="7.8143525123596191e-01" nType="-99"/>
          <Node pos="r" depth="2" NCoef="0" IVar="-1" Cut="0.0000000000000000e+00" cType="1" res="5.3476472385227680e-04" rms="4.5797646045684814e-01" purity="6.6611433029174805e-01" nType="-99"/>
        </Node>
      </Node>
    </BinaryTree>
    <BinaryTree type="DecisionTree" boostWeight="1.0000000000000000e+00" itree="272">
      <Node pos="s" depth="0" NCoef="0" IVar="1" Cut="9.8448842763900757e-01" cType="1" res="1.5217778272926807e-02" rms="4.6729093790054321e-01" purity="4.9917712807655334e-01" nType="0">
        <Node pos="l" depth="1" NCoef="0" IVar="6" Cut="2.4355685710906982e+00" cType="1" res="5.5431011132895947e-03" rms="4.7273883223533630e-01" purity="4.6743819117546082e-01" nType="0">
          <Node pos="l" depth="2" NCoef="0" IVar="-1" Cut="0.0000000000000000e+00" cType="1" res="3.6859163083136082e-04" rms="4.7725749015808105e-01" purity="5.0306874513626099e-01" nType="-99"/>
          <Node pos="r" depth="2" NCoef="0" IVar="-1" Cut="0.0000000000000000e+00" cType="1" res="-9.8459608852863312e-04" rms="4.5565754175186157e-01" purity="3.5970169305801392e-01" nType="-99"/>
        </Node>
        <Node pos="r" depth="1" NCoef="0" IVar="-1" Cut="0.0000000000000000e+00" cType="1" res="1.3257010141387582e-03" rms="4.0561884641647339e-01" purity="7.8169316053390503e-01" nType="-99"/>
      </Node>
    </BinaryTree>
    <BinaryTree type="DecisionTree" boostWeight="1.0000000000000000e+00" itree="273">
      <Node pos="s" depth="0" NCoef="0" IVar="1" Cut="9.5747745037078857e-01" cType="1" res="1.6224592924118042e-02" rms="4.6479249000549316e-01" purity="5.0302219390869141e-01" nType="0">
        <Node pos="l" depth="1" NCoef="0" IVar="1" Cut="9.2340779304504395e-01" cType="1" res="-1.0145242325961590e-02" rms="4.6933189034461975e-01" purity="4.0697839856147766e-01" nType="0">
          <Node pos="l" depth="2" NCoef="0" IVar="-1" Cut="0.0000000000000000e+00" cType="1" res="-1.3831618707627058e-03" rms="4.5316803455352783e-01" purity="3.3431938290596008e-01" nType="-99"/>
          <Node pos="r" depth="2" NCoef="0" IVar="-1" Cut="0.0000000000000000e+00" cType="1" res="1.2830199557356536e-04" rms="4.7402086853981018e-01" purity="4.3354415893554688e-01" nType="-99"/>
        </Node>
        <Node pos="r" depth="1" NCoef="0" IVar="2" Cut="4.5578790283203125e+02" cType="1" res="5.4003342986106873e-02" rms="4.5555859804153442e-01" purity="6.4061927795410156e-01" nType="0">
          <Node pos="l" depth="2" NCoef="0" IVar="-1" Cut="0.0000000000000000e+00" cType="1" res="2.7330065495334566e-04" rms="4.7475087642669678e-01" purity="5.4729717969894409e-01" nType="-99"/>
          <Node pos="r" depth="2" NCoef="0" IVar="-1" Cut="0.0000000000000000e+00" cType="1" res="1.2502468889579177e-03" rms="4.3109801411628723e-01" purity="7.3838150501251221e-01" nType="-99"/>
        </Node>
      </Node>
    </BinaryTree>
    <BinaryTree type="DecisionTree" boostWeight="1.0000000000000000e+00" itree="274">
      <Node pos="s" depth="0" NCoef="0" IVar="1" Cut="9.8436695337295532e-01" cType="1" res="1.5853350982069969e-02" rms="4.6598845720291138e-01" purity="5.0196331739425659e-01" nType="0">
        <Node pos="l" depth="1" NCoef="0" IVar="6" Cut="2.2798585891723633e+00" cType="1" res="5.0254813395440578e-03" rms="4.7203761339187622e-01" purity="4.6799451112747192e-01" nType="0">
          <Node pos="l" depth="2" NCoef="0" IVar="-1" Cut="0.0000000000000000e+00" cType="1" res="4.9433548701927066e-04" rms="4.7641378641128540e-01" purity="5.1553738117218018e-01" nType="-99"/>
          <Node pos="r" depth="2" NCoef="0" IVar="-1" Cut="0.0000000000000000e+00" cType="1" res="-6.3311075791716576e-04" rms="4.6352732181549072e-01" purity="3.9941358566284180e-01" nType="-99"/>
        </Node>
        <Node pos="r" depth="1" NCoef="0" IVar="-1" Cut="0.0000000000000000e+00" cType="1" res="1.3937003677710891e-03" rms="3.9946079254150391e-01" purity="7.9016387462615967e-01" nType="-99"/>
      </Node>
    </BinaryTree>
    <BinaryTree type="DecisionTree" boostWeight="1.0000000000000000e+00" itree="275">
      <Node pos="s" depth="0" NCoef="0" IVar="1" Cut="9.8424941301345825e-01" cType="1" res="9.8991952836513519e-03" rms="4.6584951877593994e-01" purity="4.9572175741195679e-01" nType="0">
        <Node pos="l" depth="1" NCoef="0" IVar="6" Cut="2.5949757099151611e+00" cType="1" res="-1.1601296719163656e-03" rms="4.7133672237396240e-01" purity="4.6150726079940796e-01" nType="0">
          <Node pos="l" depth="2" NCoef="0" IVar="-1" Cut="0.0000000000000000e+00" cType="1" res="1.8889681086875498e-04" rms="4.7516056895256042e-01" purity="4.8843345046043396e-01" nType="-99"/>
          <Node pos="r" depth="2" NCoef="0" IVar="-1" Cut="0.0000000000000000e+00" cType="1" res="-2.0095547661185265e-03" rms="4.4100567698478699e-01" purity="2.9848268628120422e-01" nType="-99"/>
        </Node>
        <Node pos="r" depth="1" NCoef="0" IVar="-1" Cut="0.0000000000000000e+00" cType="1" res="1.3504109811037779e-03" rms="4.0499514341354370e-01" purity="7.8377819061279297e-01" nType="-99"/>
      </Node>
    </BinaryTree>
    <BinaryTree type="DecisionTree" boostWeight="1.0000000000000000e+00" itree="276">
      <Node pos="s" depth="0" NCoef="0" IVar="1" Cut="9.4582229852676392e-01" cType="1" res="1.3495206832885742e-02" rms="4.6517607569694519e-01" purity="5.0026357173919678e-01" nType="0">
        <Node pos="l" depth="1" NCoef="0" IVar="4" Cut="-7.1455901488661766e-03" cType="1" res="-2.6248609647154808e-02" rms="4.6495658159255981e-01" purity="3.7671628594398499e-01" nType="0">
          <Node pos="l" depth="2" NCoef="0" IVar="-1" Cut="0.0000000000000000e+00" cType="1" res="1.2823801080230623e-04" rms="4.6932148933410645e-01" purity="4.0596738457679749e-01" nType="-99"/>
          <Node pos="r" depth="2" NCoef="0" IVar="-1" Cut="0.0000000000000000e+00" cType="1" res="-1.1238076258450747e-03" rms="4.6088254451751709e-01" purity="3.5772454738616943e-01" nType="-99"/>
        </Node>
        <Node pos="r" depth="1" NCoef="0" IVar="2" Cut="5.3546942138671875e+02" cType="1" res="4.0476016700267792e-02" rms="4.6338656544685364e-01" purity="5.8413589000701904e-01" nType="0">
          <Node pos="l" depth="2" NCoef="0" IVar="-1" Cut="0.0000000000000000e+00" cType="1" res="3.1807622872292995e-04" rms="4.7180914878845215e-01" purity="5.2683460712432861e-01" nType="-99"/>
          <Node pos="r" depth="2" NCoef="0" IVar="-1" Cut="0.0000000000000000e+00" cType="1" res="1.2557652080431581e-03" rms="4.3780878186225891e-01" purity="7.2302627563476562e-01" nType="-99"/>
        </Node>
      </Node>
    </BinaryTree>
    <BinaryTree type="DecisionTree" boostWeight="1.0000000000000000e+00" itree="277">
      <Node pos="s" depth="0" NCoef="0" IVar="1" Cut="9.4838243722915649e-01" cType="1" res="1.3932631351053715e-02" rms="4.6472901105880737e-01" purity="5.0124663114547729e-01" nType="0">
        <Node pos="l" depth="1" NCoef="0" IVar="3" Cut="8.6793981492519379e-02" cType="1" res="-2.1202543750405312e-02" rms="4.6493402123451233e-01" purity="3.8454002141952515e-01" nType="0">
          <Node pos="l" depth="2" NCoef="0" IVar="-1" Cut="0.0000000000000000e+00" cType="1" res="-1.0303184390068054e-03" rms="4.5566916465759277e-01" purity="3.5773956775665283e-01" nType="-99"/>
          <Node pos="r" depth="2" NCoef="0" IVar="-1" Cut="0.0000000000000000e+00" cType="1" res="4.6380542335100472e-04" rms="4.7974783182144165e-01" purity="4.3789774179458618e-01" nType="-99"/>
        </Node>
        <Node pos="r" depth="1" NCoef="0" IVar="2" Cut="3.7498568725585938e+02" cType="1" res="4.1918445378541946e-02" rms="4.6266052126884460e-01" purity="5.9420561790466309e-01" nType="0">
          <Node pos="l" depth="2" NCoef="0" IVar="-1" Cut="0.0000000000000000e+00" cType="1" res="-3.2000034116208553e-04" rms="4.7071900963783264e-01" purity="4.1392984986305237e-01" nType="-99"/>
          <Node pos="r" depth="2" NCoef="0" IVar="-1" Cut="0.0000000000000000e+00" cType="1" res="8.8757707271724939e-04" rms="4.5813807845115662e-01" purity="6.5716069936752319e-01" nType="-99"/>
        </Node>
      </Node>
    </BinaryTree>
    <BinaryTree type="DecisionTree" boostWeight="1.0000000000000000e+00" itree="278">
      <Node pos="s" depth="0" NCoef="0" IVar="1" Cut="9.8404079675674438e-01" cType="1" res="1.1212781071662903e-02" rms="4.6536326408386230e-01" purity="4.9831420183181763e-01" nType="0">
        <Node pos="l" depth="1" NCoef="0" IVar="2" Cut="5.7002008056640625e+02" cType="1" res="2.4128523364197463e-04" rms="4.7102639079093933e-01" purity="4.6373748779296875e-01" nType="0">
          <Node pos="l" depth="2" NCoef="0" IVar="-1" Cut="0.0000000000000000e+00" cType="1" res="-3.6728277336806059e-04" rms="4.6979200839996338e-01" purity="4.1088777780532837e-01" nType="-99"/>
          <Node pos="r" depth="2" NCoef="0" IVar="-1" Cut="0.0000000000000000e+00" cType="1" res="8.6533924331888556e-04" rms="4.7032770514488220e-01" purity="6.3940334320068359e-01" nType="-99"/>
        </Node>
        <Node pos="r" depth="1" NCoef="0" IVar="-1" Cut="0.0000000000000000e+00" cType="1" res="1.3361223973333836e-03" rms="4.0447443723678589e-01" purity="7.8370451927185059e-01" nType="-99"/>
      </Node>
    </BinaryTree>
    <BinaryTree type="DecisionTree" boostWeight="1.0000000000000000e+00" itree="279">
      <Node pos="s" depth="0" NCoef="0" IVar="2" Cut="4.8267938232421875e+02" cType="1" res="1.0664773173630238e-02" rms="4.6447324752807617e-01" purity="4.9798801541328430e-01" nType="0">
        <Node pos="l" depth="1" NCoef="0" IVar="2" Cut="3.1210412597656250e+02" cType="1" res="-1.4495098032057285e-02" rms="4.6115764975547791e-01" purity="4.0976306796073914e-01" nType="0">
          <Node pos="l" depth="2" NCoef="0" IVar="-1" Cut="0.0000000000000000e+00" cType="1" res="-3.2147818710654974e-03" rms="4.0010139346122742e-01" purity="2.3223793506622314e-01" nType="-99"/>
          <Node pos="r" depth="2" NCoef="0" IVar="-1" Cut="0.0000000000000000e+00" cType="1" res="-3.9040703995851800e-05" rms="4.6913829445838928e-01" purity="4.3862050771713257e-01" nType="-99"/>
        </Node>
        <Node pos="r" depth="1" NCoef="0" IVar="0" Cut="6.5553575754165649e-02" cType="1" res="4.8790778964757919e-02" rms="4.6687600016593933e-01" purity="6.3167953491210938e-01" nType="0">
          <Node pos="l" depth="2" NCoef="0" IVar="-1" Cut="0.0000000000000000e+00" cType="1" res="1.7108939937315881e-04" rms="4.7670683264732361e-01" purity="5.8683538436889648e-01" nType="-99"/>
          <Node pos="r" depth="2" NCoef="0" IVar="-1" Cut="0.0000000000000000e+00" cType="1" res="1.2980675091966987e-03" rms="4.5068028569221497e-01" purity="6.8526065349578857e-01" nType="-99"/>
        </Node>
      </Node>
    </BinaryTree>
    <BinaryTree type="DecisionTree" boostWeight="1.0000000000000000e+00" itree="280">
      <Node pos="s" depth="0" NCoef="0" IVar="1" Cut="9.3644195795059204e-01" cType="1" res="1.3231704942882061e-02" rms="4.6601381897926331e-01" purity="4.9847936630249023e-01" nType="0">
        <Node pos="l" depth="1" NCoef="0" IVar="2" Cut="3.4518896484375000e+02" cType="1" res="-3.3654093742370605e-02" rms="4.6204447746276855e-01" purity="3.5987016558647156e-01" nType="0">
          <Node pos="l" depth="2" NCoef="0" IVar="-1" Cut="0.0000000000000000e+00" cType="1" res="-3.8794483989477158e-03" rms="3.7452819943428040e-01" purity="1.7013825476169586e-01" nType="-99"/>
          <Node pos="r" depth="2" NCoef="0" IVar="-1" Cut="0.0000000000000000e+00" cType="1" res="-4.5755755854770541e-04" rms="4.8085278272628784e-01" purity="4.0760844945907593e-01" nType="-99"/>
        </Node>
        <Node pos="r" depth="1" NCoef="0" IVar="5" Cut="2.6806607055664062e+02" cType="1" res="3.2124891877174377e-02" rms="4.6627303957939148e-01" purity="5.5433356761932373e-01" nType="0">
          <Node pos="l" depth="2" NCoef="0" IVar="-1" Cut="0.0000000000000000e+00" cType="1" res="-2.7318025240674615e-04" rms="4.6336624026298523e-01" purity="4.0687140822410583e-01" nType="-99"/>
          <Node pos="r" depth="2" NCoef="0" IVar="-1" Cut="0.0000000000000000e+00" cType="1" res="8.0859987065196037e-04" rms="4.6611821651458740e-01" purity="6.2682992219924927e-01" nType="-99"/>
        </Node>
      </Node>
    </BinaryTree>
    <BinaryTree type="DecisionTree" boostWeight="1.0000000000000000e+00" itree="281">
      <Node pos="s" depth="0" NCoef="0" IVar="1" Cut="9.7814589738845825e-01" cType="1" res="1.2692132033407688e-02" rms="4.6600261330604553e-01" purity="4.9840080738067627e-01" nType="0">
        <Node pos="l" depth="1" NCoef="0" IVar="2" Cut="6.0763183593750000e+02" cType="1" res="-1.0087776172440499e-04" rms="4.7261068224906921e-01" purity="4.5059463381767273e-01" nType="0">
          <Node pos="l" depth="2" NCoef="0" IVar="-1" Cut="0.0000000000000000e+00" cType="1" res="-2.5882382760755718e-04" rms="4.7113472223281860e-01" purity="4.1129711270332336e-01" nType="-99"/>
          <Node pos="r" depth="2" NCoef="0" IVar="-1" Cut="0.0000000000000000e+00" cType="1" res="8.3399488357827067e-04" rms="4.7522872686386108e-01" purity="6.3145875930786133e-01" nType="-99"/>
        </Node>
        <Node pos="r" depth="1" NCoef="0" IVar="-1" Cut="0.0000000000000000e+00" cType="1" res="1.0830765822902322e-03" rms="4.2375209927558899e-01" purity="7.4736952781677246e-01" nType="-99"/>
      </Node>
    </BinaryTree>
    <BinaryTree type="DecisionTree" boostWeight="1.0000000000000000e+00" itree="282">
      <Node pos="s" depth="0" NCoef="0" IVar="2" Cut="7.1484948730468750e+02" cType="1" res="1.4291863888502121e-02" rms="4.6576800942420959e-01" purity="5.0056272745132446e-01" nType="0">
        <Node pos="l" depth="1" NCoef="0" IVar="1" Cut="9.8404079675674438e-01" cType="1" res="4.5455079525709152e-03" rms="4.6688553690910339e-01" purity="4.7864046692848206e-01" nType="0">
          <Node pos="l" depth="2" NCoef="0" IVar="-1" Cut="0.0000000000000000e+00" cType="1" res="-1.1363011435605586e-04" rms="4.7171482443809509e-01" purity="4.4400942325592041e-01" nType="-99"/>
          <Node pos="r" depth="2" NCoef="0" IVar="-1" Cut="0.0000000000000000e+00" cType="1" res="1.2101824395358562e-03" rms="4.1402342915534973e-01" purity="7.6997393369674683e-01" nType="-99"/>
        </Node>
        <Node pos="r" depth="1" NCoef="0" IVar="-1" Cut="0.0000000000000000e+00" cType="1" res="1.4510882319882512e-03" rms="4.4497033953666687e-01" purity="7.0556223392486572e-01" nType="-99"/>
      </Node>
    </BinaryTree>
    <BinaryTree type="DecisionTree" boostWeight="1.0000000000000000e+00" itree="283">
      <Node pos="s" depth="0" NCoef="0" IVar="2" Cut="3.0570053100585938e+02" cType="1" res="1.2619235552847385e-02" rms="4.6449512243270874e-01" purity="5.0019347667694092e-01" nType="0">
        <Node pos="l" depth="1" NCoef="0" IVar="-1" Cut="0.0000000000000000e+00" cType="1" res="-3.9919619448482990e-03" rms="3.8568976521492004e-01" purity="2.1208974719047546e-01" nType="-99"/>
        <Node pos="r" depth="1" NCoef="0" IVar="1" Cut="9.4927603006362915e-01" cType="1" res="2.1413780748844147e-02" rms="4.6860963106155396e-01" purity="5.2152687311172485e-01" nType="0">
          <Node pos="l" depth="2" NCoef="0" IVar="-1" Cut="0.0000000000000000e+00" cType="1" res="-2.5897065643221140e-04" rms="4.7411066293716431e-01" purity="4.0784341096878052e-01" nType="-99"/>
          <Node pos="r" depth="2" NCoef="0" IVar="-1" Cut="0.0000000000000000e+00" cType="1" res="7.5460900552570820e-04" rms="4.6215218305587769e-01" purity="6.1560100317001343e-01" nType="-99"/>
        </Node>
      </Node>
    </BinaryTree>
    <BinaryTree type="DecisionTree" boostWeight="1.0000000000000000e+00" itree="284">
      <Node pos="s" depth="0" NCoef="0" IVar="6" Cut="2.5280437469482422e+00" cType="1" res="1.6154745593667030e-02" rms="4.6502268314361572e-01" purity="5.0397545099258423e-01" nType="0">
        <Node pos="l" depth="1" NCoef="0" IVar="1" Cut="9.4833773374557495e-01" cType="1" res="3.0929567292332649e-02" rms="4.6784082055091858e-01" purity="5.3684204816818237e-01" nType="0">
          <Node pos="l" depth="2" NCoef="0" IVar="-1" Cut="0.0000000000000000e+00" cType="1" res="-5.6636145018273965e-05" rms="4.7628915309906006e-01" purity="4.1971009969711304e-01" nType="-99"/>
          <Node pos="r" depth="2" NCoef="0" IVar="-1" Cut="0.0000000000000000e+00" cType="1" res="8.5709884297102690e-04" rms="4.5952057838439941e-01" purity="6.2731426954269409e-01" nType="-99"/>
        </Node>
        <Node pos="r" depth="1" NCoef="0" IVar="4" Cut="7.6209455728530884e-02" cType="1" res="-5.4080303758382797e-02" rms="4.4472265243530273e-01" purity="3.4773755073547363e-01" nType="0">
          <Node pos="l" depth="2" NCoef="0" IVar="-1" Cut="0.0000000000000000e+00" cType="1" res="-3.6411930341273546e-04" rms="4.5247304439544678e-01" purity="3.9091181755065918e-01" nType="-99"/>
          <Node pos="r" depth="2" NCoef="0" IVar="-1" Cut="0.0000000000000000e+00" cType="1" res="-3.4075835719704628e-03" rms="4.2501038312911987e-01" purity="2.7835205197334290e-01" nType="-99"/>
        </Node>
      </Node>
    </BinaryTree>
    <BinaryTree type="DecisionTree" boostWeight="1.0000000000000000e+00" itree="285">
      <Node pos="s" depth="0" NCoef="0" IVar="1" Cut="9.7563433647155762e-01" cType="1" res="1.4610216021537781e-02" rms="4.6682038903236389e-01" purity="5.0043565034866333e-01" nType="0">
        <Node pos="l" depth="1" NCoef="0" IVar="5" Cut="5.2525201416015625e+02" cType="1" res="6.1896676197648048e-04" rms="4.7414466738700867e-01" purity="4.4642513990402222e-01" nType="0">
          <Node pos="l" depth="2" NCoef="0" IVar="-1" Cut="0.0000000000000000e+00" cType="1" res="-1.5950277156662196e-04" rms="4.7387456893920898e-01" purity="4.2523819208145142e-01" nType="-99"/>
          <Node pos="r" depth="2" NCoef="0" IVar="-1" Cut="0.0000000000000000e+00" cType="1" res="1.2215519091114402e-03" rms="4.6839019656181335e-01" purity="6.5873265266418457e-01" nType="-99"/>
        </Node>
        <Node pos="r" depth="1" NCoef="0" IVar="6" Cut="2.2806131839752197e+00" cType="1" res="7.5629882514476776e-02" rms="4.2811983823776245e-01" purity="7.3599052429199219e-01" nType="0">
          <Node pos="l" depth="2" NCoef="0" IVar="-1" Cut="0.0000000000000000e+00" cType="1" res="1.3754799729213119e-03" rms="4.0519925951957703e-01" purity="7.7973014116287231e-01" nType="-99"/>
          <Node pos="r" depth="2" NCoef="0" IVar="-1" Cut="0.0000000000000000e+00" cType="1" res="3.9189372910186648e-04" rms="4.6103563904762268e-01" purity="6.6031819581985474e-01" nType="-99"/>
        </Node>
      </Node>
    </BinaryTree>
    <BinaryTree type="DecisionTree" boostWeight="1.0000000000000000e+00" itree="286">
      <Node pos="s" depth="0" NCoef="0" IVar="6" Cut="2.2572207450866699e+00" cType="1" res="1.1040602810680866e-02" rms="4.6513640880584717e-01" purity="4.9837318062782288e-01" nType="0">
        <Node pos="l" depth="1" NCoef="0" IVar="1" Cut="9.2163562774658203e-01" cType="1" res="4.1243832558393478e-02" rms="4.6643611788749695e-01" purity="5.5417960882186890e-01" nType="0">
          <Node pos="l" depth="2" NCoef="0" IVar="-1" Cut="0.0000000000000000e+00" cType="1" res="-1.0094675235450268e-03" rms="4.6677917242050171e-01" purity="3.6865115165710449e-01" nType="-99"/>
          <Node pos="r" depth="2" NCoef="0" IVar="-1" Cut="0.0000000000000000e+00" cType="1" res="8.6135650053620338e-04" rms="4.6500715613365173e-01" purity="5.8277964591979980e-01" nType="-99"/>
        </Node>
        <Node pos="r" depth="1" NCoef="0" IVar="4" Cut="1.2595655024051666e-01" cType="1" res="-2.8803940862417221e-02" rms="4.6039503812789917e-01" purity="4.2475253343582153e-01" nType="0">
          <Node pos="l" depth="2" NCoef="0" IVar="-1" Cut="0.0000000000000000e+00" cType="1" res="-3.1208488508127630e-04" rms="4.6051186323165894e-01" purity="4.4037145376205444e-01" nType="-99"/>
          <Node pos="r" depth="2" NCoef="0" IVar="-1" Cut="0.0000000000000000e+00" cType="1" res="-2.5559267960488796e-03" rms="4.5301154255867004e-01" purity="3.4101894497871399e-01" nType="-99"/>
        </Node>
      </Node>
    </BinaryTree>
    <BinaryTree type="DecisionTree" boostWeight="1.0000000000000000e+00" itree="287">
      <Node pos="s" depth="0" NCoef="0" IVar="6" Cut="2.5195295810699463e+00" cType="1" res="1.4856289140880108e-02" rms="4.6618357300758362e-01" purity="5.0058132410049438e-01" nType="0">
        <Node pos="l" depth="1" NCoef="0" IVar="1" Cut="9.8103928565979004e-01" cType="1" res="2.8149589896202087e-02" rms="4.6848687529563904e-01" purity="5.3254514932632446e-01" nType="0">
          <Node pos="l" depth="2" NCoef="0" IVar="-1" Cut="0.0000000000000000e+00" cType="1" res="3.0555709963664412e-04" rms="4.7707843780517578e-01" purity="4.9220290780067444e-01" nType="-99"/>
          <Node pos="r" depth="2" NCoef="0" IVar="-1" Cut="0.0000000000000000e+00" cType="1" res="1.3002568157389760e-03" rms="4.0304601192474365e-01" purity="7.8731507062911987e-01" nType="-99"/>
        </Node>
        <Node pos="r" depth="1" NCoef="0" IVar="4" Cut="1.7316045239567757e-02" cType="1" res="-4.5256644487380981e-02" rms="4.5075404644012451e-01" purity="3.5603958368301392e-01" nType="0">
          <Node pos="l" depth="2" NCoef="0" IVar="-1" Cut="0.0000000000000000e+00" cType="1" res="1.3857164958608337e-05" rms="4.6403437852859497e-01" purity="4.0581029653549194e-01" nType="-99"/>
          <Node pos="r" depth="2" NCoef="0" IVar="-1" Cut="0.0000000000000000e+00" cType="1" res="-1.9185830606147647e-03" rms="4.4013494253158569e-01" purity="3.2573497295379639e-01" nType="-99"/>
        </Node>
      </Node>
    </BinaryTree>
    <BinaryTree type="DecisionTree" boostWeight="1.0000000000000000e+00" itree="288">
      <Node pos="s" depth="0" NCoef="0" IVar="2" Cut="5.2030639648437500e+02" cType="1" res="8.6722774431109428e-03" rms="4.6435815095901489e-01" purity="4.9589052796363831e-01" nType="0">
        <Node pos="l" depth="1" NCoef="0" IVar="6" Cut="2.5697751045227051e+00" cType="1" res="-1.2942192144691944e-02" rms="4.6329843997955322e-01" purity="4.2666342854499817e-01" nType="0">
          <Node pos="l" depth="2" NCoef="0" IVar="-1" Cut="0.0000000000000000e+00" cType="1" res="1.4577134606952313e-05" rms="4.6932408213615417e-01" purity="4.5768451690673828e-01" nType="-99"/>
          <Node pos="r" depth="2" NCoef="0" IVar="-1" Cut="0.0000000000000000e+00" cType="1" res="-2.7089326176792383e-03" rms="4.2309847474098206e-01" purity="2.6392391324043274e-01" nType="-99"/>
        </Node>
        <Node pos="r" depth="1" NCoef="0" IVar="0" Cut="6.5742194652557373e-02" cType="1" res="5.6031912565231323e-02" rms="4.6315857768058777e-01" purity="6.4757466316223145e-01" nType="0">
          <Node pos="l" depth="2" NCoef="0" IVar="-1" Cut="0.0000000000000000e+00" cType="1" res="3.2617911347188056e-04" rms="4.7516825795173645e-01" purity="6.0382986068725586e-01" nType="-99"/>
          <Node pos="r" depth="2" NCoef="0" IVar="-1" Cut="0.0000000000000000e+00" cType="1" res="1.4161199796944857e-03" rms="4.4135302305221558e-01" purity="7.0839059352874756e-01" nType="-99"/>
        </Node>
      </Node>
    </BinaryTree>
    <BinaryTree type="DecisionTree" boostWeight="1.0000000000000000e+00" itree="289">
      <Node pos="s" depth="0" NCoef="0" IVar="2" Cut="3.5962454223632812e+02" cType="1" res="1.6518756747245789e-02" rms="4.6500959992408752e-01" purity="5.0439655780792236e-01" nType="0">
        <Node pos="l" depth="1" NCoef="0" IVar="2" Cut="3.1014093017578125e+02" cType="1" res="-3.8275294005870819e-02" rms="4.3645659089088440e-01" purity="3.0455625057220459e-01" nType="0">
          <Node pos="l" depth="2" NCoef="0" IVar="-1" Cut="0.0000000000000000e+00" cType="1" res="-2.5774494279175997e-03" rms="4.0610349178314209e-01" purity="2.4514171481132507e-01" nType="-99"/>
          <Node pos="r" depth="2" NCoef="0" IVar="-1" Cut="0.0000000000000000e+00" cType="1" res="-4.4217513641342521e-04" rms="4.5070329308509827e-01" purity="3.3685499429702759e-01" nType="-99"/>
        </Node>
        <Node pos="r" depth="1" NCoef="0" IVar="4" Cut="3.5626638680696487e-02" cType="1" res="3.2439023256301880e-02" rms="4.7179093956947327e-01" purity="5.6245958805084229e-01" nType="0">
          <Node pos="l" depth="2" NCoef="0" IVar="-1" Cut="0.0000000000000000e+00" cType="1" res="9.2273153131827712e-04" rms="4.6737667918205261e-01" purity="5.9500974416732788e-01" nType="-99"/>
          <Node pos="r" depth="2" NCoef="0" IVar="-1" Cut="0.0000000000000000e+00" cType="1" res="-1.3031318667344749e-04" rms="4.7538903355598450e-01" purity="5.1474827527999878e-01" nType="-99"/>
        </Node>
      </Node>
    </BinaryTree>
    <BinaryTree type="DecisionTree" boostWeight="1.0000000000000000e+00" itree="290">
      <Node pos="s" depth="0" NCoef="0" IVar="1" Cut="9.8411780595779419e-01" cType="1" res="1.3473462313413620e-02" rms="4.6421450376510620e-01" purity="5.0074493885040283e-01" nType="0">
        <Node pos="l" depth="1" NCoef="0" IVar="2" Cut="6.1758917236328125e+02" cType="1" res="2.4492389056831598e-03" rms="4.7029632329940796e-01" purity="4.6579077839851379e-01" nType="0">
          <Node pos="l" depth="2" NCoef="0" IVar="-1" Cut="0.0000000000000000e+00" cType="1" res="-2.2346568584907800e-04" rms="4.6996301412582397e-01" purity="4.2740049958229065e-01" nType="-99"/>
          <Node pos="r" depth="2" NCoef="0" IVar="-1" Cut="0.0000000000000000e+00" cType="1" res="9.8983128555119038e-04" rms="4.6634671092033386e-01" purity="6.5375345945358276e-01" nType="-99"/>
        </Node>
        <Node pos="r" depth="1" NCoef="0" IVar="-1" Cut="0.0000000000000000e+00" cType="1" res="1.3820677995681763e-03" rms="3.9872980117797852e-01" purity="7.9066509008407593e-01" nType="-99"/>
      </Node>
    </BinaryTree>
    <BinaryTree type="DecisionTree" boostWeight="1.0000000000000000e+00" itree="291">
      <Node pos="s" depth="0" NCoef="0" IVar="1" Cut="9.8440772294998169e-01" cType="1" res="1.6942657530307770e-02" rms="4.6545398235321045e-01" purity="5.0413274765014648e-01" nType="0">
        <Node pos="l" depth="1" NCoef="0" IVar="2" Cut="3.9069430541992188e+02" cType="1" res="6.6947401501238346e-03" rms="4.7173726558685303e-01" purity="4.6996068954467773e-01" nType="0">
          <Node pos="l" depth="2" NCoef="0" IVar="-1" Cut="0.0000000000000000e+00" cType="1" res="-8.7821524357423186e-04" rms="4.4758999347686768e-01" purity="3.0628126859664917e-01" nType="-99"/>
          <Node pos="r" depth="2" NCoef="0" IVar="-1" Cut="0.0000000000000000e+00" cType="1" res="4.2709565605036914e-04" rms="4.8245841264724731e-01" purity="5.5382484197616577e-01" nType="-99"/>
        </Node>
        <Node pos="r" depth="1" NCoef="0" IVar="-1" Cut="0.0000000000000000e+00" cType="1" res="1.3566846027970314e-03" rms="3.9868500828742981e-01" purity="7.9091751575469971e-01" nType="-99"/>
      </Node>
    </BinaryTree>
    <BinaryTree type="DecisionTree" boostWeight="1.0000000000000000e+00" itree="292">
      <Node pos="s" depth="0" NCoef="0" IVar="1" Cut="9.3390893936157227e-01" cType="1" res="1.7946448177099228e-02" rms="4.6584740281105042e-01" purity="5.0456941127777100e-01" nType="0">
        <Node pos="l" depth="1" NCoef="0" IVar="3" Cut="1.5229882299900055e-01" cType="1" res="-3.7362907081842422e-02" rms="4.5753836631774902e-01" purity="3.5449221730232239e-01" nType="0">
          <Node pos="l" depth="2" NCoef="0" IVar="-1" Cut="0.0000000000000000e+00" cType="1" res="-1.2838394613936543e-03" rms="4.5128840208053589e-01" purity="3.3670371770858765e-01" nType="-99"/>
          <Node pos="r" depth="2" NCoef="0" IVar="-1" Cut="0.0000000000000000e+00" cType="1" res="3.5713455872610211e-04" rms="4.7692453861236572e-01" purity="4.2303353548049927e-01" nType="-99"/>
        </Node>
        <Node pos="r" depth="1" NCoef="0" IVar="6" Cut="2.5437016487121582e+00" cType="1" res="3.6998733878135681e-02" rms="4.6716159582138062e-01" purity="5.5626612901687622e-01" nType="0">
          <Node pos="l" depth="2" NCoef="0" IVar="-1" Cut="0.0000000000000000e+00" cType="1" res="7.7784439781680703e-04" rms="4.6625021100044250e-01" purity="5.8559495210647583e-01" nType="-99"/>
          <Node pos="r" depth="2" NCoef="0" IVar="-1" Cut="0.0000000000000000e+00" cType="1" res="-5.0559587543830276e-04" rms="4.6715861558914185e-01" purity="4.0599685907363892e-01" nType="-99"/>
        </Node>
      </Node>
    </BinaryTree>
    <BinaryTree type="DecisionTree" boostWeight="1.0000000000000000e+00" itree="293">
      <Node pos="s" depth="0" NCoef="0" IVar="1" Cut="9.3422442674636841e-01" cType="1" res="1.2494523078203201e-02" rms="4.6479520201683044e-01" purity="4.9981516599655151e-01" nType="0">
        <Node pos="l" depth="1" NCoef="0" IVar="1" Cut="9.1148692369461060e-01" cType="1" res="-4.1263513267040253e-02" rms="4.5707702636718750e-01" purity="3.4900724887847900e-01" nType="0">
          <Node pos="l" depth="2" NCoef="0" IVar="-1" Cut="0.0000000000000000e+00" cType="1" res="-2.3314319550991058e-03" rms="4.4081246852874756e-01" purity="2.9912009835243225e-01" nType="-99"/>
          <Node pos="r" depth="2" NCoef="0" IVar="-1" Cut="0.0000000000000000e+00" cType="1" res="-5.1776319742202759e-04" rms="4.6271714568138123e-01" purity="3.7065821886062622e-01" nType="-99"/>
        </Node>
        <Node pos="r" depth="1" NCoef="0" IVar="2" Cut="4.9214456176757812e+02" cType="1" res="3.1028585508465767e-02" rms="4.6599116921424866e-01" purity="5.5180895328521729e-01" nType="0">
          <Node pos="l" depth="2" NCoef="0" IVar="-1" Cut="0.0000000000000000e+00" cType="1" res="1.4394274330697954e-04" rms="4.7153773903846741e-01" purity="4.7192975878715515e-01" nType="-99"/>
          <Node pos="r" depth="2" NCoef="0" IVar="-1" Cut="0.0000000000000000e+00" cType="1" res="9.6371222753077745e-04" rms="4.5453998446464539e-01" purity="6.7912846803665161e-01" nType="-99"/>
        </Node>
      </Node>
    </BinaryTree>
    <BinaryTree type="DecisionTree" boostWeight="1.0000000000000000e+00" itree="294">
      <Node pos="s" depth="0" NCoef="0" IVar="1" Cut="9.2745602130889893e-01" cType="1" res="1.2190036475658417e-02" rms="4.6543455123901367e-01" purity="4.9929133057594299e-01" nType="0">
        <Node pos="l" depth="1" NCoef="0" IVar="6" Cut="2.1247358322143555e+00" cType="1" res="-5.0253842025995255e-02" rms="4.5469844341278076e-01" purity="3.3753934502601624e-01" nType="0">
          <Node pos="l" depth="2" NCoef="0" IVar="-1" Cut="0.0000000000000000e+00" cType="1" res="-2.0384222443681210e-04" rms="4.7803345322608948e-01" purity="3.9764475822448730e-01" nType="-99"/>
          <Node pos="r" depth="2" NCoef="0" IVar="-1" Cut="0.0000000000000000e+00" cType="1" res="-1.9438399467617273e-03" rms="4.4036218523979187e-01" purity="3.0579674243927002e-01" nType="-99"/>
        </Node>
        <Node pos="r" depth="1" NCoef="0" IVar="6" Cut="2.6159727573394775e+00" cType="1" res="2.6940783485770226e-02" rms="4.6671640872955322e-01" purity="5.3750103712081909e-01" nType="0">
          <Node pos="l" depth="2" NCoef="0" IVar="-1" Cut="0.0000000000000000e+00" cType="1" res="6.2392262043431401e-04" rms="4.6766385436058044e-01" purity="5.6261479854583740e-01" nType="-99"/>
          <Node pos="r" depth="2" NCoef="0" IVar="-1" Cut="0.0000000000000000e+00" cType="1" res="-1.2357588857412338e-03" rms="4.5233896374702454e-01" purity="3.6095404624938965e-01" nType="-99"/>
        </Node>
      </Node>
    </BinaryTree>
    <BinaryTree type="DecisionTree" boostWeight="1.0000000000000000e+00" itree="295">
      <Node pos="s" depth="0" NCoef="0" IVar="1" Cut="9.4257199764251709e-01" cType="1" res="1.8121220171451569e-02" rms="4.6559464931488037e-01" purity="5.0521188974380493e-01" nType="0">
        <Node pos="l" depth="1" NCoef="0" IVar="5" Cut="2.2898625183105469e+02" cType="1" res="-1.9705332815647125e-02" rms="4.6517461538314819e-01" purity="3.7846025824546814e-01" nType="0">
          <Node pos="l" depth="2" NCoef="0" IVar="-1" Cut="0.0000000000000000e+00" cType="1" res="-3.0152150429785252e-03" rms="3.8902217149734497e-01" purity="1.9432742893695831e-01" nType="-99"/>
          <Node pos="r" depth="2" NCoef="0" IVar="-1" Cut="0.0000000000000000e+00" cType="1" res="-1.6248846077360213e-04" rms="4.8017111420631409e-01" purity="4.2066758871078491e-01" nType="-99"/>
        </Node>
        <Node pos="r" depth="1" NCoef="0" IVar="6" Cut="2.3583784103393555e+00" cType="1" res="3.9294321089982986e-02" rms="4.6448683738708496e-01" purity="5.7616007328033447e-01" nType="0">
          <Node pos="l" depth="2" NCoef="0" IVar="-1" Cut="0.0000000000000000e+00" cType="1" res="9.1499771224334836e-04" rms="4.5970630645751953e-01" purity="6.2024152278900146e-01" nType="-99"/>
          <Node pos="r" depth="2" NCoef="0" IVar="-1" Cut="0.0000000000000000e+00" cType="1" res="-1.7263011250179261e-04" rms="4.7181534767150879e-01" purity="4.7421836853027344e-01" nType="-99"/>
        </Node>
      </Node>
    </BinaryTree>
    <BinaryTree type="DecisionTree" boostWeight="1.0000000000000000e+00" itree="296">
      <Node pos="s" depth="0" NCoef="0" IVar="2" Cut="7.1484948730468750e+02" cType="1" res="1.5604292042553425e-02" rms="4.6643769741058350e-01" purity="5.0182139873504639e-01" nType="0">
        <Node pos="l" depth="1" NCoef="0" IVar="3" Cut="-9.5097027719020844e-02" cType="1" res="7.1180080994963646e-03" rms="4.6728751063346863e-01" purity="4.8126372694969177e-01" nType="0">
          <Node pos="l" depth="2" NCoef="0" IVar="-1" Cut="0.0000000000000000e+00" cType="1" res="-1.2161363847553730e-03" rms="4.5555543899536133e-01" purity="4.0188130736351013e-01" nType="-99"/>
          <Node pos="r" depth="2" NCoef="0" IVar="-1" Cut="0.0000000000000000e+00" cType="1" res="3.5491233575157821e-04" rms="4.6859407424926758e-01" purity="4.9708104133605957e-01" nType="-99"/>
        </Node>
        <Node pos="r" depth="1" NCoef="0" IVar="-1" Cut="0.0000000000000000e+00" cType="1" res="1.3439535396173596e-03" rms="4.5050680637359619e-01" purity="6.9606715440750122e-01" nType="-99"/>
      </Node>
    </BinaryTree>
    <BinaryTree type="DecisionTree" boostWeight="1.0000000000000000e+00" itree="297">
      <Node pos="s" depth="0" NCoef="0" IVar="1" Cut="9.8404079675674438e-01" cType="1" res="1.3076032511889935e-02" rms="4.6404671669006348e-01" purity="5.0055336952209473e-01" nType="0">
        <Node pos="l" depth="1" NCoef="0" IVar="6" Cut="2.3558380603790283e+00" cType="1" res="1.9048185786232352e-03" rms="4.7007533907890320e-01" purity="4.6517059206962585e-01" nType="0">
          <Node pos="l" depth="2" NCoef="0" IVar="-1" Cut="0.0000000000000000e+00" cType="1" res="3.7514965515583754e-04" rms="4.7510874271392822e-01" purity="5.0903642177581787e-01" nType="-99"/>
          <Node pos="r" depth="2" NCoef="0" IVar="-1" Cut="0.0000000000000000e+00" cType="1" res="-9.2405296163633466e-04" rms="4.5647135376930237e-01" purity="3.7221911549568176e-01" nType="-99"/>
        </Node>
        <Node pos="r" depth="1" NCoef="0" IVar="-1" Cut="0.0000000000000000e+00" cType="1" res="1.3647675514221191e-03" rms="3.9981076121330261e-01" purity="7.9023015499114990e-01" nType="-99"/>
      </Node>
    </BinaryTree>
    <BinaryTree type="DecisionTree" boostWeight="1.0000000000000000e+00" itree="298">
      <Node pos="s" depth="0" NCoef="0" IVar="6" Cut="2.6047730445861816e+00" cType="1" res="1.3097262941300869e-02" rms="4.6545183658599854e-01" purity="5.0046151876449585e-01" nType="0">
        <Node pos="l" depth="1" NCoef="0" IVar="1" Cut="9.7515654563903809e-01" cType="1" res="2.3954449221491814e-02" rms="4.6756476163864136e-01" purity="5.2686047554016113e-01" nType="0">
          <Node pos="l" depth="2" NCoef="0" IVar="-1" Cut="0.0000000000000000e+00" cType="1" res="1.8964173796121031e-04" rms="4.7664254903793335e-01" purity="4.7214889526367188e-01" nType="-99"/>
          <Node pos="r" depth="2" NCoef="0" IVar="-1" Cut="0.0000000000000000e+00" cType="1" res="1.0822488693520427e-03" rms="4.2425528168678284e-01" purity="7.4877977371215820e-01" nType="-99"/>
        </Node>
        <Node pos="r" depth="1" NCoef="0" IVar="4" Cut="3.8753118366003036e-02" cType="1" res="-5.8149125427007675e-02" rms="4.4481381773948669e-01" purity="3.2722803950309753e-01" nType="0">
          <Node pos="l" depth="2" NCoef="0" IVar="-1" Cut="0.0000000000000000e+00" cType="1" res="-2.0599050913006067e-04" rms="4.5870512723922729e-01" purity="3.8428547978401184e-01" nType="-99"/>
          <Node pos="r" depth="2" NCoef="0" IVar="-1" Cut="0.0000000000000000e+00" cType="1" res="-2.8997114859521389e-03" rms="4.2994078993797302e-01" purity="2.8312811255455017e-01" nType="-99"/>
        </Node>
      </Node>
    </BinaryTree>
    <BinaryTree type="DecisionTree" boostWeight="1.0000000000000000e+00" itree="299">
      <Node pos="s" depth="0" NCoef="0" IVar="2" Cut="5.5629565429687500e+02" cType="1" res="1.2588085606694221e-02" rms="4.6331414580345154e-01" purity="5.0187581777572632e-01" nType="0">
        <Node pos="l" depth="1" NCoef="0" IVar="1" Cut="9.8119866847991943e-01" cType="1" res="-5.1317168399691582e-03" rms="4.6376961469650269e-01" purity="4.4645267724990845e-01" nType="0">
          <Node pos="l" depth="2" NCoef="0" IVar="-1" Cut="0.0000000000000000e+00" cType="1" res="-3.5127985756844282e-04" rms="4.6754539012908936e-01" purity="4.0290066599845886e-01" nType="-99"/>
          <Node pos="r" depth="2" NCoef="0" IVar="-1" Cut="0.0000000000000000e+00" cType="1" res="9.6590264001861215e-04" rms="4.2988386750221252e-01" purity="7.3877155780792236e-01" nType="-99"/>
        </Node>
        <Node pos="r" depth="1" NCoef="0" IVar="0" Cut="5.4439209401607513e-02" cType="1" res="6.4768366515636444e-02" rms="4.5800557732582092e-01" purity="6.6508269309997559e-01" nType="0">
          <Node pos="l" depth="2" NCoef="0" IVar="-1" Cut="0.0000000000000000e+00" cType="1" res="3.3826622529886663e-04" rms="4.7377845644950867e-01" purity="6.1096042394638062e-01" nType="-99"/>
          <Node pos="r" depth="2" NCoef="0" IVar="-1" Cut="0.0000000000000000e+00" cType="1" res="1.5023980522528291e-03" rms="4.3513047695159912e-01" purity="7.2463774681091309e-01" nType="-99"/>
        </Node>
      </Node>
    </BinaryTree>
    <BinaryTree type="DecisionTree" boostWeight="1.0000000000000000e+00" itree="300">
      <Node pos="s" depth="0" NCoef="0" IVar="6" Cut="2.6047730445861816e+00" cType="1" res="1.2785457074642181e-02" rms="4.6451386809349060e-01" purity="5.0160545110702515e-01" nType="0">
        <Node pos="l" depth="1" NCoef="0" IVar="1" Cut="9.7826415300369263e-01" cType="1" res="2.4823468178510666e-02" rms="4.6746709942817688e-01" purity="5.2887922525405884e-01" nType="0">
          <Node pos="l" depth="2" NCoef="0" IVar="-1" Cut="0.0000000000000000e+00" cType="1" res="2.1418972755782306e-04" rms="4.7712558507919312e-01" purity="4.7904407978057861e-01" nType="-99"/>
          <Node pos="r" depth="2" NCoef="0" IVar="-1" Cut="0.0000000000000000e+00" cType="1" res="1.2081814929842949e-03" rms="4.1051396727561951e-01" purity="7.7442139387130737e-01" nType="-99"/>
        </Node>
        <Node pos="r" depth="1" NCoef="0" IVar="3" Cut="-7.8727006912231445e-02" cType="1" res="-6.7254781723022461e-02" rms="4.3600782752037048e-01" purity="3.2026338577270508e-01" nType="0">
          <Node pos="l" depth="2" NCoef="0" IVar="-1" Cut="0.0000000000000000e+00" cType="1" res="-3.1554251909255981e-03" rms="4.2014849185943604e-01" purity="2.7582800388336182e-01" nType="-99"/>
          <Node pos="r" depth="2" NCoef="0" IVar="-1" Cut="0.0000000000000000e+00" cType="1" res="-1.0223092976957560e-03" rms="4.4483354687690735e-01" purity="3.5108292102813721e-01" nType="-99"/>
        </Node>
      </Node>
    </BinaryTree>
    <BinaryTree type="DecisionTree" boostWeight="1.0000000000000000e+00" itree="301">
      <Node pos="s" depth="0" NCoef="0" IVar="1" Cut="9.3027204275131226e-01" cType="1" res="1.0292719118297100e-02" rms="4.6385249495506287e-01" purity="4.9814069271087646e-01" nType="0">
        <Node pos="l" depth="1" NCoef="0" IVar="0" Cut="9.2894956469535828e-02" cType="1" res="-4.7971546649932861e-02" rms="4.5362010598182678e-01" purity="3.3983966708183289e-01" nType="0">
          <Node pos="l" depth="2" NCoef="0" IVar="-1" Cut="0.0000000000000000e+00" cType="1" res="-2.0033235196024179e-03" rms="4.5048749446868896e-01" purity="3.2415890693664551e-01" nType="-99"/>
          <Node pos="r" depth="2" NCoef="0" IVar="-1" Cut="0.0000000000000000e+00" cType="1" res="-1.3584595581050962e-04" rms="4.5460611581802368e-01" purity="3.6170977354049683e-01" nType="-99"/>
        </Node>
        <Node pos="r" depth="1" NCoef="0" IVar="2" Cut="4.9104846191406250e+02" cType="1" res="2.6491327211260796e-02" rms="4.6536326408386230e-01" purity="5.4215145111083984e-01" nType="0">
          <Node pos="l" depth="2" NCoef="0" IVar="-1" Cut="0.0000000000000000e+00" cType="1" res="2.8537382604554296e-05" rms="4.7024905681610107e-01" purity="4.5920673012733459e-01" nType="-99"/>
          <Node pos="r" depth="2" NCoef="0" IVar="-1" Cut="0.0000000000000000e+00" cType="1" res="9.4967574113979936e-04" rms="4.5448523759841919e-01" purity="6.7589879035949707e-01" nType="-99"/>
        </Node>
      </Node>
    </BinaryTree>
    <BinaryTree type="DecisionTree" boostWeight="1.0000000000000000e+00" itree="302">
      <Node pos="s" depth="0" NCoef="0" IVar="2" Cut="4.8267938232421875e+02" cType="1" res="1.0489287786185741e-02" rms="4.6566334366798401e-01" purity="4.9725919961929321e-01" nType="0">
        <Node pos="l" depth="1" NCoef="0" IVar="3" Cut="8.5891209542751312e-02" cType="1" res="-1.2237991206347942e-02" rms="4.6293738484382629e-01" purity="4.0997266769409180e-01" nType="0">
          <Node pos="l" depth="2" NCoef="0" IVar="-1" Cut="0.0000000000000000e+00" cType="1" res="-6.7865749588236213e-04" rms="4.5673745870590210e-01" purity="3.8861677050590515e-01" nType="-99"/>
          <Node pos="r" depth="2" NCoef="0" IVar="-1" Cut="0.0000000000000000e+00" cType="1" res="5.0624483264982700e-04" rms="4.7347173094749451e-01" purity="4.5500868558883667e-01" nType="-99"/>
        </Node>
        <Node pos="r" depth="1" NCoef="0" IVar="0" Cut="6.6279478371143341e-02" cType="1" res="4.5083489269018173e-02" rms="4.6766695380210876e-01" purity="6.3012188673019409e-01" nType="0">
          <Node pos="l" depth="2" NCoef="0" IVar="-1" Cut="0.0000000000000000e+00" cType="1" res="1.7506744188722223e-04" rms="4.7737637162208557e-01" purity="5.8808761835098267e-01" nType="-99"/>
          <Node pos="r" depth="2" NCoef="0" IVar="-1" Cut="0.0000000000000000e+00" cType="1" res="1.2005957541987300e-03" rms="4.5217970013618469e-01" purity="6.8115723133087158e-01" nType="-99"/>
        </Node>
      </Node>
    </BinaryTree>
    <BinaryTree type="DecisionTree" boostWeight="1.0000000000000000e+00" itree="303">
      <Node pos="s" depth="0" NCoef="0" IVar="1" Cut="9.3691384792327881e-01" cType="1" res="1.5312379226088524e-02" rms="4.6473628282546997e-01" purity="5.0317555665969849e-01" nType="0">
        <Node pos="l" depth="1" NCoef="0" IVar="3" Cut="1.1891295015811920e-01" cType="1" res="-3.0590945854783058e-02" rms="4.6016514301300049e-01" purity="3.6174994707107544e-01" nType="0">
          <Node pos="l" depth="2" NCoef="0" IVar="-1" Cut="0.0000000000000000e+00" cType="1" res="-1.1893454939126968e-03" rms="4.5294225215911865e-01" purity="3.4036976099014282e-01" nType="-99"/>
          <Node pos="r" depth="2" NCoef="0" IVar="-1" Cut="0.0000000000000000e+00" cType="1" res="2.9148344765417278e-04" rms="4.7604322433471680e-01" purity="4.1890963912010193e-01" nType="-99"/>
        </Node>
        <Node pos="r" depth="1" NCoef="0" IVar="6" Cut="2.2772653102874756e+00" cType="1" res="3.3991880714893341e-02" rms="4.6528902649879456e-01" purity="5.6072610616683960e-01" nType="0">
          <Node pos="l" depth="2" NCoef="0" IVar="-1" Cut="0.0000000000000000e+00" cType="1" res="9.0768653899431229e-04" rms="4.6077087521553040e-01" purity="6.1055332422256470e-01" nType="-99"/>
          <Node pos="r" depth="2" NCoef="0" IVar="-1" Cut="0.0000000000000000e+00" cType="1" res="-8.0818324931897223e-05" rms="4.6953383088111877e-01" purity="4.8455074429512024e-01" nType="-99"/>
        </Node>
      </Node>
    </BinaryTree>
    <BinaryTree type="DecisionTree" boostWeight="1.0000000000000000e+00" itree="304">
      <Node pos="s" depth="0" NCoef="0" IVar="2" Cut="5.4612988281250000e+02" cType="1" res="1.0387862101197243e-02" rms="4.6504616737365723e-01" purity="4.9872875213623047e-01" nType="0">
        <Node pos="l" depth="1" NCoef="0" IVar="3" Cut="1.4460156857967377e-01" cType="1" res="-6.5438407473266125e-03" rms="4.6545711159706116e-01" purity="4.4144868850708008e-01" nType="0">
          <Node pos="l" depth="2" NCoef="0" IVar="-1" Cut="0.0000000000000000e+00" cType="1" res="-4.7992897452786565e-04" rms="4.6210151910781860e-01" purity="4.2204228043556213e-01" nType="-99"/>
          <Node pos="r" depth="2" NCoef="0" IVar="-1" Cut="0.0000000000000000e+00" cType="1" res="9.6232775831595063e-04" rms="4.7272729873657227e-01" purity="5.1363885402679443e-01" nType="-99"/>
        </Node>
        <Node pos="r" depth="1" NCoef="0" IVar="0" Cut="6.5553575754165649e-02" cType="1" res="5.6662227958440781e-02" rms="4.6075820922851562e-01" purity="6.5527516603469849e-01" nType="0">
          <Node pos="l" depth="2" NCoef="0" IVar="-1" Cut="0.0000000000000000e+00" cType="1" res="3.4047025837935507e-04" rms="4.7233951091766357e-01" purity="6.1225342750549316e-01" nType="-99"/>
          <Node pos="r" depth="2" NCoef="0" IVar="-1" Cut="0.0000000000000000e+00" cType="1" res="1.4893617480993271e-03" rms="4.3658193945884705e-01" purity="7.2251385450363159e-01" nType="-99"/>
        </Node>
      </Node>
    </BinaryTree>
    <BinaryTree type="DecisionTree" boostWeight="1.0000000000000000e+00" itree="305">
      <Node pos="s" depth="0" NCoef="0" IVar="5" Cut="2.4185116577148438e+02" cType="1" res="1.0062904097139835e-02" rms="4.6489572525024414e-01" purity="4.9795547127723694e-01" nType="0">
        <Node pos="l" depth="1" NCoef="0" IVar="3" Cut="1.0642575100064278e-02" cType="1" res="-4.5018978416919708e-02" rms="4.3580123782157898e-01" purity="3.1019014120101929e-01" nType="0">
          <Node pos="l" depth="2" NCoef="0" IVar="-1" Cut="0.0000000000000000e+00" cType="1" res="-2.3485734127461910e-03" rms="4.1692152619361877e-01" purity="2.6586812734603882e-01" nType="-99"/>
          <Node pos="r" depth="2" NCoef="0" IVar="-1" Cut="0.0000000000000000e+00" cType="1" res="-4.3660536175593734e-04" rms="4.5048272609710693e-01" purity="3.5033345222473145e-01" nType="-99"/>
        </Node>
        <Node pos="r" depth="1" NCoef="0" IVar="4" Cut="5.7274151593446732e-02" cType="1" res="2.5863146409392357e-02" rms="4.7172564268112183e-01" purity="5.5181592702865601e-01" nType="0">
          <Node pos="l" depth="2" NCoef="0" IVar="-1" Cut="0.0000000000000000e+00" cType="1" res="7.6417782111093402e-04" rms="4.6873319149017334e-01" purity="5.7846194505691528e-01" nType="-99"/>
          <Node pos="r" depth="2" NCoef="0" IVar="-1" Cut="0.0000000000000000e+00" cType="1" res="-3.7054982385598123e-04" rms="4.7450816631317139e-01" purity="4.9697765707969666e-01" nType="-99"/>
        </Node>
      </Node>
    </BinaryTree>
    <BinaryTree type="DecisionTree" boostWeight="1.0000000000000000e+00" itree="306">
      <Node pos="s" depth="0" NCoef="0" IVar="1" Cut="9.3687731027603149e-01" cType="1" res="1.3827684335410595e-02" rms="4.6552994847297668e-01" purity="5.0131863355636597e-01" nType="0">
        <Node pos="l" depth="1" NCoef="0" IVar="0" Cut="1.2029717117547989e-01" cType="1" res="-3.4459792077541351e-02" rms="4.5816716551780701e-01" purity="3.5587772727012634e-01" nType="0">
          <Node pos="l" depth="2" NCoef="0" IVar="-1" Cut="0.0000000000000000e+00" cType="1" res="-1.3276617974042892e-03" rms="4.5751103758811951e-01" purity="3.4594622254371643e-01" nType="-99"/>
          <Node pos="r" depth="2" NCoef="0" IVar="-1" Cut="0.0000000000000000e+00" cType="1" res="3.0483069713227451e-04" rms="4.5618364214897156e-01" purity="3.7975624203681946e-01" nType="-99"/>
        </Node>
        <Node pos="r" depth="1" NCoef="0" IVar="6" Cut="2.4478347301483154e+00" cType="1" res="3.3145718276500702e-02" rms="4.6704703569412231e-01" purity="5.5950415134429932e-01" nType="0">
          <Node pos="l" depth="2" NCoef="0" IVar="-1" Cut="0.0000000000000000e+00" cType="1" res="7.4001238681375980e-04" rms="4.6507385373115540e-01" purity="5.9553378820419312e-01" nType="-99"/>
          <Node pos="r" depth="2" NCoef="0" IVar="-1" Cut="0.0000000000000000e+00" cType="1" res="-3.3168561640195549e-04" rms="4.7057706117630005e-01" purity="4.3352511525154114e-01" nType="-99"/>
        </Node>
      </Node>
    </BinaryTree>
    <BinaryTree type="DecisionTree" boostWeight="1.0000000000000000e+00" itree="307">
      <Node pos="s" depth="0" NCoef="0" IVar="1" Cut="9.4289410114288330e-01" cType="1" res="1.2421197257936001e-02" rms="4.6483063697814941e-01" purity="4.9984934926033020e-01" nType="0">
        <Node pos="l" depth="1" NCoef="0" IVar="6" Cut="2.4231481552124023e+00" cType="1" res="-2.7745177969336510e-02" rms="4.6155682206153870e-01" purity="3.6959847807884216e-01" nType="0">
          <Node pos="l" depth="2" NCoef="0" IVar="-1" Cut="0.0000000000000000e+00" cType="1" res="-2.3166213941294700e-04" rms="4.7392988204956055e-01" purity="4.0866884589195251e-01" nType="-99"/>
          <Node pos="r" depth="2" NCoef="0" IVar="-1" Cut="0.0000000000000000e+00" cType="1" res="-2.3897835053503513e-03" rms="4.2123559117317200e-01" purity="2.5947934389114380e-01" nType="-99"/>
        </Node>
        <Node pos="r" depth="1" NCoef="0" IVar="6" Cut="2.2772653102874756e+00" cType="1" res="3.5351175814867020e-02" rms="4.6513664722442627e-01" purity="5.7420641183853149e-01" nType="0">
          <Node pos="l" depth="2" NCoef="0" IVar="-1" Cut="0.0000000000000000e+00" cType="1" res="9.1732159489765763e-04" rms="4.6020933985710144e-01" purity="6.2374186515808105e-01" nType="-99"/>
          <Node pos="r" depth="2" NCoef="0" IVar="-1" Cut="0.0000000000000000e+00" cType="1" res="-7.2316499426960945e-05" rms="4.6995177865028381e-01" purity="4.9763900041580200e-01" nType="-99"/>
        </Node>
      </Node>
    </BinaryTree>
    <BinaryTree type="DecisionTree" boostWeight="1.0000000000000000e+00" itree="308">
      <Node pos="s" depth="0" NCoef="0" IVar="1" Cut="9.7806501388549805e-01" cType="1" res="1.3989279977977276e-02" rms="4.6489810943603516e-01" purity="5.0230574607849121e-01" nType="0">
        <Node pos="l" depth="1" NCoef="0" IVar="2" Cut="7.2584497070312500e+02" cType="1" res="2.1321694366633892e-03" rms="4.7195690870285034e-01" purity="4.5418027043342590e-01" nType="0">
          <Node pos="l" depth="2" NCoef="0" IVar="-1" Cut="0.0000000000000000e+00" cType="1" res="-1.2152508134022355e-04" rms="4.7167265415191650e-01" purity="4.3367573618888855e-01" nType="-99"/>
          <Node pos="r" depth="2" NCoef="0" IVar="-1" Cut="0.0000000000000000e+00" cType="1" res="1.2321764370426536e-03" rms="4.6658223867416382e-01" purity="6.6476672887802124e-01" nType="-99"/>
        </Node>
        <Node pos="r" depth="1" NCoef="0" IVar="-1" Cut="0.0000000000000000e+00" cType="1" res="1.0400533210486174e-03" rms="4.2125380039215088e-01" purity="7.5112068653106689e-01" nType="-99"/>
      </Node>
    </BinaryTree>
    <BinaryTree type="DecisionTree" boostWeight="1.0000000000000000e+00" itree="309">
      <Node pos="s" depth="0" NCoef="0" IVar="1" Cut="9.8161488771438599e-01" cType="1" res="1.3478722423315048e-02" rms="4.6421414613723755e-01" purity="5.0215917825698853e-01" nType="0">
        <Node pos="l" depth="1" NCoef="0" IVar="3" Cut="1.9170270860195160e-01" cType="1" res="2.7330724988132715e-03" rms="4.7048529982566833e-01" purity="4.6229401230812073e-01" nType="0">
          <Node pos="l" depth="2" NCoef="0" IVar="-1" Cut="0.0000000000000000e+00" cType="1" res="-1.8401713168714195e-04" rms="4.6873238682746887e-01" purity="4.4860032200813293e-01" nType="-99"/>
          <Node pos="r" depth="2" NCoef="0" IVar="-1" Cut="0.0000000000000000e+00" cType="1" res="1.3216291554272175e-03" rms="4.7422888875007629e-01" purity="5.5099821090698242e-01" nType="-99"/>
        </Node>
        <Node pos="r" depth="1" NCoef="0" IVar="-1" Cut="0.0000000000000000e+00" cType="1" res="1.1483096750453115e-03" rms="4.1268682479858398e-01" purity="7.6901274919509888e-01" nType="-99"/>
      </Node>
    </BinaryTree>
    <BinaryTree type="DecisionTree" boostWeight="1.0000000000000000e+00" itree="310">
      <Node pos="s" depth="0" NCoef="0" IVar="2" Cut="3.2789929199218750e+02" cType="1" res="1.2795339338481426e-02" rms="4.6512439846992493e-01" purity="4.9993854761123657e-01" nType="0">
        <Node pos="l" depth="1" NCoef="0" IVar="2" Cut="2.9946304321289062e+02" cType="1" res="-6.3536375761032104e-02" rms="4.1828301548957825e-01" purity="2.5942537188529968e-01" nType="0">
          <Node pos="l" depth="2" NCoef="0" IVar="-1" Cut="0.0000000000000000e+00" cType="1" res="-3.6867449525743723e-03" rms="3.8988918066024780e-01" purity="2.1383376419544220e-01" nType="-99"/>
          <Node pos="r" depth="2" NCoef="0" IVar="-1" Cut="0.0000000000000000e+00" cType="1" res="-1.0124580003321171e-03" rms="4.3797171115875244e-01" purity="2.9656493663787842e-01" nType="-99"/>
        </Node>
        <Node pos="r" depth="1" NCoef="0" IVar="4" Cut="4.7511653974652290e-03" cType="1" res="2.4006282910704613e-02" rms="4.7057071328163147e-01" purity="5.3526300191879272e-01" nType="0">
          <Node pos="l" depth="2" NCoef="0" IVar="-1" Cut="0.0000000000000000e+00" cType="1" res="8.4605510346591473e-04" rms="4.6559986472129822e-01" purity="5.6904667615890503e-01" nType="-99"/>
          <Node pos="r" depth="2" NCoef="0" IVar="-1" Cut="0.0000000000000000e+00" cType="1" res="-8.6286390796885826e-06" rms="4.7346389293670654e-01" purity="5.0604921579360962e-01" nType="-99"/>
        </Node>
      </Node>
    </BinaryTree>
    <BinaryTree type="DecisionTree" boostWeight="1.0000000000000000e+00" itree="311">
      <Node pos="s" depth="0" NCoef="0" IVar="1" Cut="9.8417556285858154e-01" cType="1" res="1.3333937153220177e-02" rms="4.6423354744911194e-01" purity="5.0075453519821167e-01" nType="0">
        <Node pos="l" depth="1" NCoef="0" IVar="2" Cut="3.2789929199218750e+02" cType="1" res="3.2644369639456272e-03" rms="4.7046422958374023e-01" purity="4.6632251143455505e-01" nType="0">
          <Node pos="l" depth="2" NCoef="0" IVar="-1" Cut="0.0000000000000000e+00" cType="1" res="-2.5661534164100885e-03" rms="4.0792617201805115e-01" purity="2.3031339049339294e-01" nType="-99"/>
          <Node pos="r" depth="2" NCoef="0" IVar="-1" Cut="0.0000000000000000e+00" cType="1" res="2.6119395624846220e-04" rms="4.7825685143470764e-01" purity="5.0239014625549316e-01" nType="-99"/>
        </Node>
        <Node pos="r" depth="1" NCoef="0" IVar="-1" Cut="0.0000000000000000e+00" cType="1" res="1.3149866135790944e-03" rms="3.9792069792747498e-01" purity="7.9109269380569458e-01" nType="-99"/>
      </Node>
    </BinaryTree>
    <BinaryTree type="DecisionTree" boostWeight="1.0000000000000000e+00" itree="312">
      <Node pos="s" depth="0" NCoef="0" IVar="1" Cut="9.8436695337295532e-01" cType="1" res="1.1669619008898735e-02" rms="4.6382108330726624e-01" purity="5.0021022558212280e-01" nType="0">
        <Node pos="l" depth="1" NCoef="0" IVar="5" Cut="2.6588882446289062e+02" cType="1" res="1.7201296286657453e-03" rms="4.6982845664024353e-01" purity="4.6621295809745789e-01" nType="0">
          <Node pos="l" depth="2" NCoef="0" IVar="-1" Cut="0.0000000000000000e+00" cType="1" res="-1.0158719960600138e-03" rms="4.4485732913017273e-01" purity="3.1239753961563110e-01" nType="-99"/>
          <Node pos="r" depth="2" NCoef="0" IVar="-1" Cut="0.0000000000000000e+00" cType="1" res="3.5770697286352515e-04" rms="4.8080268502235413e-01" purity="5.4443752765655518e-01" nType="-99"/>
        </Node>
        <Node pos="r" depth="1" NCoef="0" IVar="-1" Cut="0.0000000000000000e+00" cType="1" res="1.2819821713492274e-03" rms="3.9911079406738281e-01" purity="7.8997963666915894e-01" nType="-99"/>
      </Node>
    </BinaryTree>
    <BinaryTree type="DecisionTree" boostWeight="1.0000000000000000e+00" itree="313">
      <Node pos="s" depth="0" NCoef="0" IVar="6" Cut="2.6047730445861816e+00" cType="1" res="1.8189296126365662e-02" rms="4.6519795060157776e-01" purity="5.0689637660980225e-01" nType="0">
        <Node pos="l" depth="1" NCoef="0" IVar="5" Cut="2.6839605712890625e+02" cType="1" res="2.9866302385926247e-02" rms="4.6747517585754395e-01" purity="5.3404444456100464e-01" nType="0">
          <Node pos="l" depth="2" NCoef="0" IVar="-1" Cut="0.0000000000000000e+00" cType="1" res="-1.4144592569209635e-04" rms="4.6158915758132935e-01" purity="3.8554540276527405e-01" nType="-99"/>
          <Node pos="r" depth="2" NCoef="0" IVar="-1" Cut="0.0000000000000000e+00" cType="1" res="7.3037773836404085e-04" rms="4.6933519840240479e-01" purity="6.0765212774276733e-01" nType="-99"/>
        </Node>
        <Node pos="r" depth="1" NCoef="0" IVar="4" Cut="2.9537443071603775e-02" cType="1" res="-5.9059087187051773e-02" rms="4.4214174151420593e-01" purity="3.2730057835578918e-01" nType="0">
          <Node pos="l" depth="2" NCoef="0" IVar="-1" Cut="0.0000000000000000e+00" cType="1" res="-4.4456540490500629e-04" rms="4.5833861827850342e-01" purity="3.7674677371978760e-01" nType="-99"/>
          <Node pos="r" depth="2" NCoef="0" IVar="-1" Cut="0.0000000000000000e+00" cType="1" res="-2.4465972092002630e-03" rms="4.2972862720489502e-01" purity="2.9622104763984680e-01" nType="-99"/>
        </Node>
      </Node>
    </BinaryTree>
    <BinaryTree type="DecisionTree" boostWeight="1.0000000000000000e+00" itree="314">
      <Node pos="s" depth="0" NCoef="0" IVar="2" Cut="5.9685479736328125e+02" cType="1" res="1.3532831333577633e-02" rms="4.6471151709556580e-01" purity="5.0188398361206055e-01" nType="0">
        <Node pos="l" depth="1" NCoef="0" IVar="1" Cut="9.7843790054321289e-01" cType="1" res="2.6464981601748150e-06" rms="4.6599301695823669e-01" purity="4.5976060628890991e-01" nType="0">
          <Node pos="l" depth="2" NCoef="0" IVar="-1" Cut="0.0000000000000000e+00" cType="1" res="-2.2476149024441838e-04" rms="4.7065156698226929e-01" purity="4.1096150875091553e-01" nType="-99"/>
          <Node pos="r" depth="2" NCoef="0" IVar="-1" Cut="0.0000000000000000e+00" cType="1" res="8.1953965127468109e-04" rms="4.3506121635437012e-01" purity="7.2572827339172363e-01" nType="-99"/>
        </Node>
        <Node pos="r" depth="1" NCoef="0" IVar="0" Cut="5.2508208900690079e-02" cType="1" res="6.8625517189502716e-02" rms="4.5532375574111938e-01" purity="6.7340344190597534e-01" nType="0">
          <Node pos="l" depth="2" NCoef="0" IVar="-1" Cut="0.0000000000000000e+00" cType="1" res="4.1399692418053746e-04" rms="4.7187849879264832e-01" purity="6.1989134550094604e-01" nType="-99"/>
          <Node pos="r" depth="2" NCoef="0" IVar="-1" Cut="0.0000000000000000e+00" cType="1" res="1.5791837358847260e-03" rms="4.2934459447860718e-01" purity="7.3752880096435547e-01" nType="-99"/>
        </Node>
      </Node>
    </BinaryTree>
    <BinaryTree type="DecisionTree" boostWeight="1.0000000000000000e+00" itree="315">
      <Node pos="s" depth="0" NCoef="0" IVar="5" Cut="2.5941445922851562e+02" cType="1" res="1.1286883614957333e-02" rms="4.6502792835235596e-01" purity="5.0028312206268311e-01" nType="0">
        <Node pos="l" depth="1" NCoef="0" IVar="3" Cut="1.7644311487674713e-01" cType="1" res="-2.9604123905301094e-02" rms="4.4748827815055847e-01" purity="3.3847427368164062e-01" nType="0">
          <Node pos="l" depth="2" NCoef="0" IVar="-1" Cut="0.0000000000000000e+00" cType="1" res="-1.2332957703620195e-03" rms="4.3939167261123657e-01" purity="3.1993502378463745e-01" nType="-99"/>
          <Node pos="r" depth="2" NCoef="0" IVar="-1" Cut="0.0000000000000000e+00" cType="1" res="1.0513585293665528e-03" rms="4.7774541378021240e-01" purity="4.3085688352584839e-01" nType="-99"/>
        </Node>
        <Node pos="r" depth="1" NCoef="0" IVar="4" Cut="4.5547693967819214e-02" cType="1" res="2.8750795871019363e-02" rms="4.7124034166336060e-01" purity="5.6938916444778442e-01" nType="0">
          <Node pos="l" depth="2" NCoef="0" IVar="-1" Cut="0.0000000000000000e+00" cType="1" res="8.5190532263368368e-04" rms="4.6662747859954834e-01" purity="6.0171115398406982e-01" nType="-99"/>
          <Node pos="r" depth="2" NCoef="0" IVar="-1" Cut="0.0000000000000000e+00" cType="1" res="-2.6880213408730924e-04" rms="4.7550621628761292e-01" purity="5.1597243547439575e-01" nType="-99"/>
        </Node>
      </Node>
    </BinaryTree>
    <BinaryTree type="DecisionTree" boostWeight="1.0000000000000000e+00" itree="316">
      <Node pos="s" depth="0" NCoef="0" IVar="1" Cut="9.8442471027374268e-01" cType="1" res="1.0877765715122223e-02" rms="4.6349871158599854e-01" purity="5.0071227550506592e-01" nType="0">
        <Node pos="l" depth="1" NCoef="0" IVar="2" Cut="7.1250512695312500e+02" cType="1" res="6.8745913449674845e-04" rms="4.6949642896652222e-01" purity="4.6588912606239319e-01" nType="0">
          <Node pos="l" depth="2" NCoef="0" IVar="-1" Cut="0.0000000000000000e+00" cType="1" res="-1.6609052545391023e-04" rms="4.6960565447807312e-01" purity="4.4297856092453003e-01" nType="-99"/>
          <Node pos="r" depth="2" NCoef="0" IVar="-1" Cut="0.0000000000000000e+00" cType="1" res="1.1800525244325399e-03" rms="4.6025183796882629e-01" purity="6.7533349990844727e-01" nType="-99"/>
        </Node>
        <Node pos="r" depth="1" NCoef="0" IVar="-1" Cut="0.0000000000000000e+00" cType="1" res="1.2694462202489376e-03" rms="4.0072068572044373e-01" purity="7.8877186775207520e-01" nType="-99"/>
      </Node>
    </BinaryTree>
    <BinaryTree type="DecisionTree" boostWeight="1.0000000000000000e+00" itree="317">
      <Node pos="s" depth="0" NCoef="0" IVar="2" Cut="3.2789929199218750e+02" cType="1" res="8.4772063419222832e-03" rms="4.6431493759155273e-01" purity="4.9689227342605591e-01" nType="0">
        <Node pos="l" depth="1" NCoef="0" IVar="3" Cut="-2.7522103860974312e-02" cType="1" res="-6.7526184022426605e-02" rms="4.0959393978118896e-01" purity="2.5618338584899902e-01" nType="0">
          <Node pos="l" depth="2" NCoef="0" IVar="-1" Cut="0.0000000000000000e+00" cType="1" res="-4.4318460859358311e-03" rms="3.7479570508003235e-01" purity="1.9929848611354828e-01" nType="-99"/>
          <Node pos="r" depth="2" NCoef="0" IVar="-1" Cut="0.0000000000000000e+00" cType="1" res="-1.1169397039338946e-03" rms="4.2961704730987549e-01" purity="2.9542338848114014e-01" nType="-99"/>
        </Node>
        <Node pos="r" depth="1" NCoef="0" IVar="4" Cut="5.5853505618870258e-03" cType="1" res="1.9540660083293915e-02" rms="4.7072941064834595e-01" purity="5.3193116188049316e-01" nType="0">
          <Node pos="l" depth="2" NCoef="0" IVar="-1" Cut="0.0000000000000000e+00" cType="1" res="7.9065695172175765e-04" rms="4.6617010235786438e-01" purity="5.6647336483001709e-01" nType="-99"/>
          <Node pos="r" depth="2" NCoef="0" IVar="-1" Cut="0.0000000000000000e+00" cType="1" res="-1.0290146019542590e-04" rms="4.7319957613945007e-01" purity="5.0199025869369507e-01" nType="-99"/>
        </Node>
      </Node>
    </BinaryTree>
    <BinaryTree type="DecisionTree" boostWeight="1.0000000000000000e+00" itree="318">
      <Node pos="s" depth="0" NCoef="0" IVar="6" Cut="2.6405117511749268e+00" cType="1" res="1.1109934188425541e-02" rms="4.6485957503318787e-01" purity="4.9856737256050110e-01" nType="0">
        <Node pos="l" depth="1" NCoef="0" IVar="5" Cut="2.4402841186523438e+02" cType="1" res="2.1184664219617844e-02" rms="4.6709719300270081e-01" purity="5.2293139696121216e-01" nType="0">
          <Node pos="l" depth="2" NCoef="0" IVar="-1" Cut="0.0000000000000000e+00" cType="1" res="-8.3037686999887228e-04" rms="4.5076391100883484e-01" purity="3.3374691009521484e-01" nType="-99"/>
          <Node pos="r" depth="2" NCoef="0" IVar="-1" Cut="0.0000000000000000e+00" cType="1" res="5.9102760860696435e-04" rms="4.7061643004417419e-01" purity="5.7828569412231445e-01" nType="-99"/>
        </Node>
        <Node pos="r" depth="1" NCoef="0" IVar="4" Cut="6.9020338356494904e-02" cType="1" res="-6.6437236964702606e-02" rms="4.3959987163543701e-01" purity="3.1103271245956421e-01" nType="0">
          <Node pos="l" depth="2" NCoef="0" IVar="-1" Cut="0.0000000000000000e+00" cType="1" res="-9.3183456920087337e-04" rms="4.4798576831817627e-01" purity="3.5004979372024536e-01" nType="-99"/>
          <Node pos="r" depth="2" NCoef="0" IVar="-1" Cut="0.0000000000000000e+00" cType="1" res="-3.1135748140513897e-03" rms="4.2759951949119568e-01" purity="2.6718032360076904e-01" nType="-99"/>
        </Node>
      </Node>
    </BinaryTree>
    <BinaryTree type="DecisionTree" boostWeight="1.0000000000000000e+00" itree="319">
      <Node pos="s" depth="0" NCoef="0" IVar="1" Cut="9.8436695337295532e-01" cType="1" res="1.1969205923378468e-02" rms="4.6397194266319275e-01" purity="5.0126761198043823e-01" nType="0">
        <Node pos="l" depth="1" NCoef="0" IVar="2" Cut="5.1073913574218750e+02" cType="1" res="2.0542759448289871e-03" rms="4.6998754143714905e-01" purity="4.6705693006515503e-01" nType="0">
          <Node pos="l" depth="2" NCoef="0" IVar="-1" Cut="0.0000000000000000e+00" cType="1" res="-3.7716532824561000e-04" rms="4.6643686294555664e-01" purity="3.9305868744850159e-01" nType="-99"/>
          <Node pos="r" depth="2" NCoef="0" IVar="-1" Cut="0.0000000000000000e+00" cType="1" res="6.2070641433820128e-04" rms="4.7474390268325806e-01" purity="6.1837106943130493e-01" nType="-99"/>
        </Node>
        <Node pos="r" depth="1" NCoef="0" IVar="-1" Cut="0.0000000000000000e+00" cType="1" res="1.2767363805323839e-03" rms="4.0014645457267761e-01" purity="7.8954982757568359e-01" nType="-99"/>
      </Node>
    </BinaryTree>
    <BinaryTree type="DecisionTree" boostWeight="1.0000000000000000e+00" itree="320">
      <Node pos="s" depth="0" NCoef="0" IVar="2" Cut="3.6817962646484375e+02" cType="1" res="1.3054478913545609e-02" rms="4.6340462565422058e-01" purity="5.0204360485076904e-01" nType="0">
        <Node pos="l" depth="1" NCoef="0" IVar="5" Cut="2.4884925842285156e+02" cType="1" res="-3.7287648767232895e-02" rms="4.3607729673385620e-01" purity="3.0670335888862610e-01" nType="0">
          <Node pos="l" depth="2" NCoef="0" IVar="-1" Cut="0.0000000000000000e+00" cType="1" res="-1.6116223996505141e-03" rms="4.2736643552780151e-01" purity="2.7916890382766724e-01" nType="-99"/>
          <Node pos="r" depth="2" NCoef="0" IVar="-1" Cut="0.0000000000000000e+00" cType="1" res="3.2159508555196226e-04" rms="4.5984157919883728e-01" purity="3.9733773469924927e-01" nType="-99"/>
        </Node>
        <Node pos="r" depth="1" NCoef="0" IVar="0" Cut="8.1852085888385773e-02" cType="1" res="3.0270243063569069e-02" rms="4.7115463018417358e-01" purity="5.6884515285491943e-01" nType="0">
          <Node pos="l" depth="2" NCoef="0" IVar="-1" Cut="0.0000000000000000e+00" cType="1" res="8.9008208306040615e-06" rms="4.7514161467552185e-01" purity="5.4007762670516968e-01" nType="-99"/>
          <Node pos="r" depth="2" NCoef="0" IVar="-1" Cut="0.0000000000000000e+00" cType="1" res="1.0169226443395019e-03" rms="4.6362397074699402e-01" purity="6.0411369800567627e-01" nType="-99"/>
        </Node>
      </Node>
    </BinaryTree>
    <BinaryTree type="DecisionTree" boostWeight="1.0000000000000000e+00" itree="321">
      <Node pos="s" depth="0" NCoef="0" IVar="2" Cut="3.2789929199218750e+02" cType="1" res="1.1354347690939903e-02" rms="4.6241158246994019e-01" purity="5.0116765499114990e-01" nType="0">
        <Node pos="l" depth="1" NCoef="0" IVar="3" Cut="3.6128338426351547e-02" cType="1" res="-6.6344894468784332e-02" rms="4.1122499108314514e-01" purity="2.5312522053718567e-01" nType="0">
          <Node pos="l" depth="2" NCoef="0" IVar="-1" Cut="0.0000000000000000e+00" cType="1" res="-3.3157316502183676e-03" rms="3.9218416810035706e-01" purity="2.2235186398029327e-01" nType="-99"/>
          <Node pos="r" depth="2" NCoef="0" IVar="-1" Cut="0.0000000000000000e+00" cType="1" res="-9.9458650220185518e-04" rms="4.3462654948234558e-01" purity="2.9640021920204163e-01" nType="-99"/>
        </Node>
        <Node pos="r" depth="1" NCoef="0" IVar="6" Cut="1.8714846372604370e+00" cType="1" res="2.2505410015583038e-02" rms="4.6824300289154053e-01" purity="5.3676557540893555e-01" nType="0">
          <Node pos="l" depth="2" NCoef="0" IVar="-1" Cut="0.0000000000000000e+00" cType="1" res="1.2459203135222197e-03" rms="4.5363584160804749e-01" purity="6.2673991918563843e-01" nType="-99"/>
          <Node pos="r" depth="2" NCoef="0" IVar="-1" Cut="0.0000000000000000e+00" cType="1" res="1.5935607370920479e-04" rms="4.7030407190322876e-01" purity="5.1707518100738525e-01" nType="-99"/>
        </Node>
      </Node>
    </BinaryTree>
    <BinaryTree type="DecisionTree" boostWeight="1.0000000000000000e+00" itree="322">
      <Node pos="s" depth="0" NCoef="0" IVar="1" Cut="9.4883614778518677e-01" cType="1" res="8.1093460321426392e-03" rms="4.6334049105644226e-01" purity="4.9696755409240723e-01" nType="0">
        <Node pos="l" depth="1" NCoef="0" IVar="2" Cut="6.1996130371093750e+02" cType="1" res="-2.5278504937887192e-02" rms="4.6396365761756897e-01" purity="3.7765556573867798e-01" nType="0">
          <Node pos="l" depth="2" NCoef="0" IVar="-1" Cut="0.0000000000000000e+00" cType="1" res="-8.9846923947334290e-04" rms="4.5789262652397156e-01" purity="3.3875414729118347e-01" nType="-99"/>
          <Node pos="r" depth="2" NCoef="0" IVar="-1" Cut="0.0000000000000000e+00" cType="1" res="5.0494720926508307e-04" rms="4.9014464020729065e-01" purity="5.7850408554077148e-01" nType="-99"/>
        </Node>
        <Node pos="r" depth="1" NCoef="0" IVar="6" Cut="2.3066956996917725e+00" cType="1" res="3.5441696643829346e-02" rms="4.6103331446647644e-01" purity="5.9464013576507568e-01" nType="0">
          <Node pos="l" depth="2" NCoef="0" IVar="-1" Cut="0.0000000000000000e+00" cType="1" res="8.9129392290487885e-04" rms="4.5314589142799377e-01" purity="6.4425492286682129e-01" nType="-99"/>
          <Node pos="r" depth="2" NCoef="0" IVar="-1" Cut="0.0000000000000000e+00" cType="1" res="-1.6073878214228898e-04" rms="4.7190853953361511e-01" purity="5.0387722253799438e-01" nType="-99"/>
        </Node>
      </Node>
    </BinaryTree>
    <BinaryTree type="DecisionTree" boostWeight="1.0000000000000000e+00" itree="323">
      <Node pos="s" depth="0" NCoef="0" IVar="1" Cut="9.6639508008956909e-01" cType="1" res="9.7657479345798492e-03" rms="4.6279215812683105e-01" purity="4.9908652901649475e-01" nType="0">
        <Node pos="l" depth="1" NCoef="0" IVar="6" Cut="1.6743315458297729e+00" cType="1" res="-9.7967535257339478e-03" rms="4.6951562166213989e-01" purity="4.2059195041656494e-01" nType="0">
          <Node pos="l" depth="2" NCoef="0" IVar="-1" Cut="0.0000000000000000e+00" cType="1" res="1.0959154460579157e-03" rms="4.6632266044616699e-01" purity="5.3276288509368896e-01" nType="-99"/>
          <Node pos="r" depth="2" NCoef="0" IVar="-1" Cut="0.0000000000000000e+00" cType="1" res="-3.8212366052903235e-04" rms="4.6911826729774475e-01" purity="4.0846991539001465e-01" nType="-99"/>
        </Node>
        <Node pos="r" depth="1" NCoef="0" IVar="5" Cut="2.6481954956054688e+02" cType="1" res="5.6759312748908997e-02" rms="4.4270858168601990e-01" purity="6.8764841556549072e-01" nType="0">
          <Node pos="l" depth="2" NCoef="0" IVar="-1" Cut="0.0000000000000000e+00" cType="1" res="3.3452110073994845e-05" rms="4.7675606608390808e-01" purity="5.5310118198394775e-01" nType="-99"/>
          <Node pos="r" depth="2" NCoef="0" IVar="-1" Cut="0.0000000000000000e+00" cType="1" res="1.0674437507987022e-03" rms="4.2654094099998474e-01" purity="7.4093830585479736e-01" nType="-99"/>
        </Node>
      </Node>
    </BinaryTree>
    <BinaryTree type="DecisionTree" boostWeight="1.0000000000000000e+00" itree="324">
      <Node pos="s" depth="0" NCoef="0" IVar="6" Cut="2.3381619453430176e+00" cType="1" res="6.0845362022519112e-03" rms="4.6379759907722473e-01" purity="4.9445936083793640e-01" nType="0">
        <Node pos="l" depth="1" NCoef="0" IVar="1" Cut="9.6921682357788086e-01" cType="1" res="2.6506954804062843e-02" rms="4.6652087569236755e-01" purity="5.4111814498901367e-01" nType="0">
          <Node pos="l" depth="2" NCoef="0" IVar="-1" Cut="0.0000000000000000e+00" cType="1" res="1.7472340550739318e-04" rms="4.7834011912345886e-01" purity="4.7181817889213562e-01" nType="-99"/>
          <Node pos="r" depth="2" NCoef="0" IVar="-1" Cut="0.0000000000000000e+00" cType="1" res="1.0278425179421902e-03" rms="4.2812561988830566e-01" purity="7.3513424396514893e-01" nType="-99"/>
        </Node>
        <Node pos="r" depth="1" NCoef="0" IVar="2" Cut="5.9811975097656250e+02" cType="1" res="-3.4938648343086243e-02" rms="4.5551985502243042e-01" purity="4.0073433518409729e-01" nType="0">
          <Node pos="l" depth="2" NCoef="0" IVar="-1" Cut="0.0000000000000000e+00" cType="1" res="-1.2144453357905149e-03" rms="4.4942057132720947e-01" purity="3.5813730955123901e-01" nType="-99"/>
          <Node pos="r" depth="2" NCoef="0" IVar="-1" Cut="0.0000000000000000e+00" cType="1" res="5.7655241107568145e-04" rms="4.7680166363716125e-01" purity="6.0245203971862793e-01" nType="-99"/>
        </Node>
      </Node>
    </BinaryTree>
    <BinaryTree type="DecisionTree" boostWeight="1.0000000000000000e+00" itree="325">
      <Node pos="s" depth="0" NCoef="0" IVar="1" Cut="9.2146539688110352e-01" cType="1" res="8.2263369113206863e-03" rms="4.6427574753761292e-01" purity="4.9676629900932312e-01" nType="0">
        <Node pos="l" depth="1" NCoef="0" IVar="1" Cut="9.0740537643432617e-01" cType="1" res="-6.2022335827350616e-02" rms="4.4758939743041992e-01" purity="3.2089948654174805e-01" nType="0">
          <Node pos="l" depth="2" NCoef="0" IVar="-1" Cut="0.0000000000000000e+00" cType="1" res="-2.5465786457061768e-03" rms="4.3451309204101562e-01" purity="2.9086828231811523e-01" nType="-99"/>
          <Node pos="r" depth="2" NCoef="0" IVar="-1" Cut="0.0000000000000000e+00" cType="1" res="-1.0492777219042182e-03" rms="4.5538878440856934e-01" purity="3.4184846282005310e-01" nType="-99"/>
        </Node>
        <Node pos="r" depth="1" NCoef="0" IVar="6" Cut="2.5455796718597412e+00" cType="1" res="1.9882680848240852e-02" rms="4.6596351265907288e-01" purity="5.2594786882400513e-01" nType="0">
          <Node pos="l" depth="2" NCoef="0" IVar="-1" Cut="0.0000000000000000e+00" cType="1" res="5.3490290883928537e-04" rms="4.6711727976799011e-01" purity="5.5732744932174683e-01" nType="-99"/>
          <Node pos="r" depth="2" NCoef="0" IVar="-1" Cut="0.0000000000000000e+00" cType="1" res="-1.1046639410778880e-03" rms="4.5428758859634399e-01" purity="3.6045458912849426e-01" nType="-99"/>
        </Node>
      </Node>
    </BinaryTree>
    <BinaryTree type="DecisionTree" boostWeight="1.0000000000000000e+00" itree="326">
      <Node pos="s" depth="0" NCoef="0" IVar="2" Cut="3.4020376586914062e+02" cType="1" res="1.1658073402941227e-02" rms="4.6465697884559631e-01" purity="4.9948289990425110e-01" nType="0">
        <Node pos="l" depth="1" NCoef="0" IVar="2" Cut="3.0872250366210938e+02" cType="1" res="-4.8618488013744354e-02" rms="4.2294257879257202e-01" purity="2.7754044532775879e-01" nType="0">
          <Node pos="l" depth="2" NCoef="0" IVar="-1" Cut="0.0000000000000000e+00" cType="1" res="-3.1108672264963388e-03" rms="3.9396381378173828e-01" purity="2.2612276673316956e-01" nType="-99"/>
          <Node pos="r" depth="2" NCoef="0" IVar="-1" Cut="0.0000000000000000e+00" cType="1" res="-4.4517152127809823e-04" rms="4.4406428933143616e-01" purity="3.2222691178321838e-01" nType="-99"/>
        </Node>
        <Node pos="r" depth="1" NCoef="0" IVar="0" Cut="1.2119410932064056e-01" cType="1" res="2.3532049730420113e-02" rms="4.7153276205062866e-01" purity="5.4320365190505981e-01" nType="0">
          <Node pos="l" depth="2" NCoef="0" IVar="-1" Cut="0.0000000000000000e+00" cType="1" res="1.1320640624035150e-04" rms="4.7302493453025818e-01" purity="5.2941191196441650e-01" nType="-99"/>
          <Node pos="r" depth="2" NCoef="0" IVar="-1" Cut="0.0000000000000000e+00" cType="1" res="1.0768240317702293e-03" rms="4.6472591161727905e-01" purity="5.7909220457077026e-01" nType="-99"/>
        </Node>
      </Node>
    </BinaryTree>
    <BinaryTree type="DecisionTree" boostWeight="1.0000000000000000e+00" itree="327">
      <Node pos="s" depth="0" NCoef="0" IVar="6" Cut="2.3785748481750488e+00" cType="1" res="1.2895458377897739e-02" rms="4.6373340487480164e-01" purity="5.0221896171569824e-01" nType="0">
        <Node pos="l" depth="1" NCoef="0" IVar="1" Cut="9.4337481260299683e-01" cType="1" res="3.2918233424425125e-02" rms="4.6639871597290039e-01" purity="5.4738777875900269e-01" nType="0">
          <Node pos="l" depth="2" NCoef="0" IVar="-1" Cut="0.0000000000000000e+00" cType="1" res="-1.0091390868183225e-04" rms="4.7609242796897888e-01" purity="4.1571801900863647e-01" nType="-99"/>
          <Node pos="r" depth="2" NCoef="0" IVar="-1" Cut="0.0000000000000000e+00" cType="1" res="8.2434923388063908e-04" rms="4.5955839753150940e-01" purity="6.2076598405838013e-01" nType="-99"/>
        </Node>
        <Node pos="r" depth="1" NCoef="0" IVar="4" Cut="1.1552020907402039e-01" cType="1" res="-3.6829922348260880e-02" rms="4.5323696732521057e-01" purity="3.9004492759704590e-01" nType="0">
          <Node pos="l" depth="2" NCoef="0" IVar="-1" Cut="0.0000000000000000e+00" cType="1" res="-3.3061212161555886e-04" rms="4.5643061399459839e-01" purity="4.1569516062736511e-01" nType="-99"/>
          <Node pos="r" depth="2" NCoef="0" IVar="-1" Cut="0.0000000000000000e+00" cType="1" res="-3.4833452664315701e-03" rms="4.3065088987350464e-01" purity="2.9000136256217957e-01" nType="-99"/>
        </Node>
      </Node>
    </BinaryTree>
    <BinaryTree type="DecisionTree" boostWeight="1.0000000000000000e+00" itree="328">
      <Node pos="s" depth="0" NCoef="0" IVar="2" Cut="3.3664035034179688e+02" cType="1" res="1.1451776139438152e-02" rms="4.6473237872123718e-01" purity="4.9935397505760193e-01" nType="0">
        <Node pos="l" depth="1" NCoef="0" IVar="3" Cut="7.3559574782848358e-02" cType="1" res="-4.8088043928146362e-02" rms="4.2419582605361938e-01" purity="2.7497339248657227e-01" nType="0">
          <Node pos="l" depth="2" NCoef="0" IVar="-1" Cut="0.0000000000000000e+00" cType="1" res="-2.4980895686894655e-03" rms="4.0826556086540222e-01" purity="2.4442295730113983e-01" nType="-99"/>
          <Node pos="r" depth="2" NCoef="0" IVar="-1" Cut="0.0000000000000000e+00" cType="1" res="-7.2415736212860793e-05" rms="4.4985809922218323e-01" purity="3.3384567499160767e-01" nType="-99"/>
        </Node>
        <Node pos="r" depth="1" NCoef="0" IVar="4" Cut="5.5697061121463776e-02" cType="1" res="2.2233240306377411e-02" rms="4.7089603543281555e-01" purity="5.3998476266860962e-01" nType="0">
          <Node pos="l" depth="2" NCoef="0" IVar="-1" Cut="0.0000000000000000e+00" cType="1" res="6.8368657957762480e-04" rms="4.6935540437698364e-01" purity="5.6336039304733276e-01" nType="-99"/>
          <Node pos="r" depth="2" NCoef="0" IVar="-1" Cut="0.0000000000000000e+00" cType="1" res="-3.2042263774201274e-04" rms="4.7150468826293945e-01" purity="4.9276793003082275e-01" nType="-99"/>
        </Node>
      </Node>
    </BinaryTree>
    <BinaryTree type="DecisionTree" boostWeight="1.0000000000000000e+00" itree="329">
      <Node pos="s" depth="0" NCoef="0" IVar="2" Cut="3.4020376586914062e+02" cType="1" res="1.0334629565477371e-02" rms="4.6570852398872375e-01" purity="4.9645987153053284e-01" nType="0">
        <Node pos="l" depth="1" NCoef="0" IVar="5" Cut="2.1369737243652344e+02" cType="1" res="-4.7763764858245850e-02" rms="4.2381143569946289e-01" purity="2.7622902393341064e-01" nType="0">
          <Node pos="l" depth="2" NCoef="0" IVar="-1" Cut="0.0000000000000000e+00" cType="1" res="-2.9214234091341496e-03" rms="4.0237733721733093e-01" purity="2.2937725484371185e-01" nType="-99"/>
          <Node pos="r" depth="2" NCoef="0" IVar="-1" Cut="0.0000000000000000e+00" cType="1" res="-3.4772156504914165e-04" rms="4.4249424338340759e-01" purity="3.2531723380088806e-01" nType="-99"/>
        </Node>
        <Node pos="r" depth="1" NCoef="0" IVar="0" Cut="1.1188101768493652e-01" cType="1" res="2.1790090948343277e-02" rms="4.7269016504287720e-01" purity="5.3988349437713623e-01" nType="0">
          <Node pos="l" depth="2" NCoef="0" IVar="-1" Cut="0.0000000000000000e+00" cType="1" res="5.2008443162776530e-05" rms="4.7375315427780151e-01" purity="5.2487903833389282e-01" nType="-99"/>
          <Node pos="r" depth="2" NCoef="0" IVar="-1" Cut="0.0000000000000000e+00" cType="1" res="1.0005321819335222e-03" rms="4.6781507134437561e-01" purity="5.7226848602294922e-01" nType="-99"/>
        </Node>
      </Node>
    </BinaryTree>
    <BinaryTree type="DecisionTree" boostWeight="1.0000000000000000e+00" itree="330">
      <Node pos="s" depth="0" NCoef="0" IVar="3" Cut="4.1240868158638477e-03" cType="1" res="1.1666349135339260e-02" rms="4.6666330099105835e-01" purity="4.9834069609642029e-01" nType="0">
        <Node pos="l" depth="1" NCoef="0" IVar="4" Cut="8.6562432348728180e-02" cType="1" res="-1.4354732818901539e-02" rms="4.6234732866287231e-01" purity="4.6469047665596008e-01" nType="0">
          <Node pos="l" depth="2" NCoef="0" IVar="-1" Cut="0.0000000000000000e+00" cType="1" res="4.9003585445461795e-05" rms="4.6369290351867676e-01" purity="4.8178315162658691e-01" nType="-99"/>
          <Node pos="r" depth="2" NCoef="0" IVar="-1" Cut="0.0000000000000000e+00" cType="1" res="-1.7351612914353609e-03" rms="4.5168349146842957e-01" purity="4.0077716112136841e-01" nType="-99"/>
        </Node>
        <Node pos="r" depth="1" NCoef="0" IVar="1" Cut="9.2251944541931152e-01" cType="1" res="3.5734154284000397e-02" rms="4.6933755278587341e-01" purity="5.2946496009826660e-01" nType="0">
          <Node pos="l" depth="2" NCoef="0" IVar="-1" Cut="0.0000000000000000e+00" cType="1" res="-4.6985564404167235e-04" rms="4.6634432673454285e-01" purity="3.7248057126998901e-01" nType="-99"/>
          <Node pos="r" depth="2" NCoef="0" IVar="-1" Cut="0.0000000000000000e+00" cType="1" res="7.7028747182339430e-04" rms="4.6913537383079529e-01" purity="5.5886787176132202e-01" nType="-99"/>
        </Node>
      </Node>
    </BinaryTree>
    <BinaryTree type="DecisionTree" boostWeight="1.0000000000000000e+00" itree="331">
      <Node pos="s" depth="0" NCoef="0" IVar="1" Cut="9.8445212841033936e-01" cType="1" res="1.1136087588965893e-02" rms="4.6231740713119507e-01" purity="5.0016182661056519e-01" nType="0">
        <Node pos="l" depth="1" NCoef="0" IVar="2" Cut="4.5645288085937500e+02" cType="1" res="6.4809457398951054e-04" rms="4.6849322319030762e-01" purity="4.6506717801094055e-01" nType="0">
          <Node pos="l" depth="2" NCoef="0" IVar="-1" Cut="0.0000000000000000e+00" cType="1" res="-6.3595117535442114e-04" rms="4.5782342553138733e-01" purity="3.5531890392303467e-01" nType="-99"/>
          <Node pos="r" depth="2" NCoef="0" IVar="-1" Cut="0.0000000000000000e+00" cType="1" res="4.9878709251061082e-04" rms="4.7881326079368591e-01" purity="5.9465569257736206e-01" nType="-99"/>
        </Node>
        <Node pos="r" depth="1" NCoef="0" IVar="-1" Cut="0.0000000000000000e+00" cType="1" res="1.3227502349764109e-03" rms="3.9597508311271667e-01" purity="7.9481196403503418e-01" nType="-99"/>
      </Node>
    </BinaryTree>
    <BinaryTree type="DecisionTree" boostWeight="1.0000000000000000e+00" itree="332">
      <Node pos="s" depth="0" NCoef="0" IVar="1" Cut="9.8125678300857544e-01" cType="1" res="8.4121543914079666e-03" rms="4.6204018592834473e-01" purity="4.9790731072425842e-01" nType="0">
        <Node pos="l" depth="1" NCoef="0" IVar="2" Cut="5.6980273437500000e+02" cType="1" res="-3.6610933020710945e-03" rms="4.6861168742179871e-01" purity="4.5513969659805298e-01" nType="0">
          <Node pos="l" depth="2" NCoef="0" IVar="-1" Cut="0.0000000000000000e+00" cType="1" res="-4.1457856423221529e-04" rms="4.6582600474357605e-01" purity="4.0224105119705200e-01" nType="-99"/>
          <Node pos="r" depth="2" NCoef="0" IVar="-1" Cut="0.0000000000000000e+00" cType="1" res="7.3252851143479347e-04" rms="4.7402563691139221e-01" purity="6.3281857967376709e-01" nType="-99"/>
        </Node>
        <Node pos="r" depth="1" NCoef="0" IVar="-1" Cut="0.0000000000000000e+00" cType="1" res="1.1732421116903424e-03" rms="4.0875345468521118e-01" purity="7.7349889278411865e-01" nType="-99"/>
      </Node>
    </BinaryTree>
    <BinaryTree type="DecisionTree" boostWeight="1.0000000000000000e+00" itree="333">
      <Node pos="s" depth="0" NCoef="0" IVar="1" Cut="9.8411780595779419e-01" cType="1" res="8.4729716181755066e-03" rms="4.6332150697708130e-01" purity="4.9745640158653259e-01" nType="0">
        <Node pos="l" depth="1" NCoef="0" IVar="2" Cut="5.6980273437500000e+02" cType="1" res="-9.1275887098163366e-04" rms="4.6905881166458130e-01" purity="4.6344605088233948e-01" nType="0">
          <Node pos="l" depth="2" NCoef="0" IVar="-1" Cut="0.0000000000000000e+00" cType="1" res="-3.0435368535108864e-04" rms="4.6716475486755371e-01" purity="4.1359466314315796e-01" nType="-99"/>
          <Node pos="r" depth="2" NCoef="0" IVar="-1" Cut="0.0000000000000000e+00" cType="1" res="6.7708193091675639e-04" rms="4.7251582145690918e-01" purity="6.3441151380538940e-01" nType="-99"/>
        </Node>
        <Node pos="r" depth="1" NCoef="0" IVar="-1" Cut="0.0000000000000000e+00" cType="1" res="1.1866824934259057e-03" rms="4.0328416228294373e-01" purity="7.8382337093353271e-01" nType="-99"/>
      </Node>
    </BinaryTree>
    <BinaryTree type="DecisionTree" boostWeight="1.0000000000000000e+00" itree="334">
      <Node pos="s" depth="0" NCoef="0" IVar="6" Cut="2.4355685710906982e+00" cType="1" res="1.0544825345277786e-02" rms="4.6337488293647766e-01" purity="4.9902588129043579e-01" nType="0">
        <Node pos="l" depth="1" NCoef="0" IVar="1" Cut="9.2943263053894043e-01" cType="1" res="2.5813665241003036e-02" rms="4.6560841798782349e-01" purity="5.3885966539382935e-01" nType="0">
          <Node pos="l" depth="2" NCoef="0" IVar="-1" Cut="0.0000000000000000e+00" cType="1" res="-7.1340880822390318e-04" rms="4.6813365817070007e-01" purity="3.7724170088768005e-01" nType="-99"/>
          <Node pos="r" depth="2" NCoef="0" IVar="-1" Cut="0.0000000000000000e+00" cType="1" res="6.5350870136171579e-04" rms="4.6380853652954102e-01" purity="5.8029210567474365e-01" nType="-99"/>
        </Node>
        <Node pos="r" depth="1" NCoef="0" IVar="4" Cut="1.1576055735349655e-01" cType="1" res="-3.8059465587139130e-02" rms="4.5277687907218933e-01" purity="3.7222555279731750e-01" nType="0">
          <Node pos="l" depth="2" NCoef="0" IVar="-1" Cut="0.0000000000000000e+00" cType="1" res="-3.8850004784762859e-04" rms="4.5462620258331299e-01" purity="3.9858159422874451e-01" nType="-99"/>
          <Node pos="r" depth="2" NCoef="0" IVar="-1" Cut="0.0000000000000000e+00" cType="1" res="-3.4023763146251440e-03" rms="4.3826776742935181e-01" purity="2.7822446823120117e-01" nType="-99"/>
        </Node>
      </Node>
    </BinaryTree>
    <BinaryTree type="DecisionTree" boostWeight="1.0000000000000000e+00" itree="335">
      <Node pos="s" depth="0" NCoef="0" IVar="1" Cut="9.8442471027374268e-01" cType="1" res="8.3441250026226044e-03" rms="4.6368151903152466e-01" purity="4.9701362848281860e-01" nType="0">
        <Node pos="l" depth="1" NCoef="0" IVar="6" Cut="2.1422991752624512e+00" cType="1" res="-2.0617775153368711e-03" rms="4.6982836723327637e-01" purity="4.6154621243476868e-01" nType="0">
          <Node pos="l" depth="2" NCoef="0" IVar="-1" Cut="0.0000000000000000e+00" cType="1" res="5.2616902394220233e-04" rms="4.7260230779647827e-01" purity="5.2287977933883667e-01" nType="-99"/>
          <Node pos="r" depth="2" NCoef="0" IVar="-1" Cut="0.0000000000000000e+00" cType="1" res="-4.7740264562889934e-04" rms="4.6687322854995728e-01" purity="4.2265453934669495e-01" nType="-99"/>
        </Node>
        <Node pos="r" depth="1" NCoef="0" IVar="-1" Cut="0.0000000000000000e+00" cType="1" res="1.2800550321117043e-03" rms="3.9860525727272034e-01" purity="7.9199331998825073e-01" nType="-99"/>
      </Node>
    </BinaryTree>
    <BinaryTree type="DecisionTree" boostWeight="1.0000000000000000e+00" itree="336">
      <Node pos="s" depth="0" NCoef="0" IVar="2" Cut="4.3075424194335938e+02" cType="1" res="1.1159189045429230e-02" rms="4.6261656284332275e-01" purity="5.0104826688766479e-01" nType="0">
        <Node pos="l" depth="1" NCoef="0" IVar="3" Cut="1.0627205669879913e-01" cType="1" res="-2.2119604051113129e-02" rms="4.5330971479415894e-01" purity="3.6892318725585938e-01" nType="0">
          <Node pos="l" depth="2" NCoef="0" IVar="-1" Cut="0.0000000000000000e+00" cType="1" res="-1.0031876154243946e-03" rms="4.4534051418304443e-01" purity="3.4605902433395386e-01" nType="-99"/>
          <Node pos="r" depth="2" NCoef="0" IVar="-1" Cut="0.0000000000000000e+00" cType="1" res="5.1094603259116411e-04" rms="4.6987909078598022e-01" purity="4.2756792902946472e-01" nType="-99"/>
        </Node>
        <Node pos="r" depth="1" NCoef="0" IVar="0" Cut="6.9688715040683746e-02" cType="1" res="3.9275310933589935e-02" rms="4.6849742531776428e-01" purity="6.1267626285552979e-01" nType="0">
          <Node pos="l" depth="2" NCoef="0" IVar="-1" Cut="0.0000000000000000e+00" cType="1" res="6.8444576754700392e-05" rms="4.7658705711364746e-01" purity="5.7069247961044312e-01" nType="-99"/>
          <Node pos="r" depth="2" NCoef="0" IVar="-1" Cut="0.0000000000000000e+00" cType="1" res="1.1206751223653555e-03" rms="4.5615169405937195e-01" purity="6.5943157672882080e-01" nType="-99"/>
        </Node>
      </Node>
    </BinaryTree>
    <BinaryTree type="DecisionTree" boostWeight="1.0000000000000000e+00" itree="337">
      <Node pos="s" depth="0" NCoef="0" IVar="6" Cut="2.2349927425384521e+00" cType="1" res="1.2762514874339104e-02" rms="4.6335390210151672e-01" purity="5.0282239913940430e-01" nType="0">
        <Node pos="l" depth="1" NCoef="0" IVar="5" Cut="2.7796972656250000e+02" cType="1" res="3.8335800170898438e-02" rms="4.6411576867103577e-01" purity="5.5711048841476440e-01" nType="0">
          <Node pos="l" depth="2" NCoef="0" IVar="-1" Cut="0.0000000000000000e+00" cType="1" res="-8.1324196798959747e-06" rms="4.6594986319541931e-01" purity="4.1397690773010254e-01" nType="-99"/>
          <Node pos="r" depth="2" NCoef="0" IVar="-1" Cut="0.0000000000000000e+00" cType="1" res="9.0584345161914825e-04" rms="4.6146130561828613e-01" purity="6.4282655715942383e-01" nType="-99"/>
        </Node>
        <Node pos="r" depth="1" NCoef="0" IVar="4" Cut="9.7639501094818115e-02" cType="1" res="-1.7048036679625511e-02" rms="4.6067571640014648e-01" purity="4.3953919410705566e-01" nType="0">
          <Node pos="l" depth="2" NCoef="0" IVar="-1" Cut="0.0000000000000000e+00" cType="1" res="-1.0762293641164433e-05" rms="4.6164315938949585e-01" purity="4.5969399809837341e-01" nType="-99"/>
          <Node pos="r" depth="2" NCoef="0" IVar="-1" Cut="0.0000000000000000e+00" cType="1" res="-1.6957069747149944e-03" rms="4.5312315225601196e-01" purity="3.7238651514053345e-01" nType="-99"/>
        </Node>
      </Node>
    </BinaryTree>
    <BinaryTree type="DecisionTree" boostWeight="1.0000000000000000e+00" itree="338">
      <Node pos="s" depth="0" NCoef="0" IVar="1" Cut="9.2146539688110352e-01" cType="1" res="1.2132248841226101e-02" rms="4.6284300088882446e-01" purity="5.0177150964736938e-01" nType="0">
        <Node pos="l" depth="1" NCoef="0" IVar="1" Cut="9.1021353006362915e-01" cType="1" res="-5.4132591933012009e-02" rms="4.5016473531723022e-01" purity="3.2407230138778687e-01" nType="0">
          <Node pos="l" depth="2" NCoef="0" IVar="-1" Cut="0.0000000000000000e+00" cType="1" res="-2.0315416622906923e-03" rms="4.4131082296371460e-01" purity="3.0183553695678711e-01" nType="-99"/>
          <Node pos="r" depth="2" NCoef="0" IVar="-1" Cut="0.0000000000000000e+00" cType="1" res="-8.3895778516307473e-04" rms="4.5817321538925171e-01" purity="3.4675970673561096e-01" nType="-99"/>
        </Node>
        <Node pos="r" depth="1" NCoef="0" IVar="2" Cut="5.6168676757812500e+02" cType="1" res="2.2931765764951706e-02" rms="4.6398046612739563e-01" purity="5.3073203563690186e-01" nType="0">
          <Node pos="l" depth="2" NCoef="0" IVar="-1" Cut="0.0000000000000000e+00" cType="1" res="1.3111605949234217e-04" rms="4.6782270073890686e-01" purity="4.7798600792884827e-01" nType="-99"/>
          <Node pos="r" depth="2" NCoef="0" IVar="-1" Cut="0.0000000000000000e+00" cType="1" res="1.0073757730424404e-03" rms="4.4870209693908691e-01" purity="6.9038355350494385e-01" nType="-99"/>
        </Node>
      </Node>
    </BinaryTree>
    <BinaryTree type="DecisionTree" boostWeight="1.0000000000000000e+00" itree="339">
      <Node pos="s" depth="0" NCoef="0" IVar="1" Cut="9.8417556285858154e-01" cType="1" res="7.1153580211102962e-03" rms="4.6219688653945923e-01" purity="4.9741488695144653e-01" nType="0">
        <Node pos="l" depth="1" NCoef="0" IVar="3" Cut="1.7997679114341736e-01" cType="1" res="-3.7584975361824036e-03" rms="4.6864274144172668e-01" purity="4.6076154708862305e-01" nType="0">
          <Node pos="l" depth="2" NCoef="0" IVar="-1" Cut="0.0000000000000000e+00" cType="1" res="-2.8689566534012556e-04" rms="4.6652004122734070e-01" purity="4.4784787297248840e-01" nType="-99"/>
          <Node pos="r" depth="2" NCoef="0" IVar="-1" Cut="0.0000000000000000e+00" cType="1" res="9.7863166593015194e-04" rms="4.7587025165557861e-01" purity="5.3411823511123657e-01" nType="-99"/>
        </Node>
        <Node pos="r" depth="1" NCoef="0" IVar="-1" Cut="0.0000000000000000e+00" cType="1" res="1.2803748250007629e-03" rms="3.9525830745697021e-01" purity="7.9467546939849854e-01" nType="-99"/>
      </Node>
    </BinaryTree>
    <BinaryTree type="DecisionTree" boostWeight="1.0000000000000000e+00" itree="340">
      <Node pos="s" depth="0" NCoef="0" IVar="2" Cut="6.1758917236328125e+02" cType="1" res="1.3420597650110722e-02" rms="4.6350914239883423e-01" purity="5.0266325473785400e-01" nType="0">
        <Node pos="l" depth="1" NCoef="0" IVar="1" Cut="9.4824200868606567e-01" cType="1" res="3.2558004022575915e-04" rms="4.6462640166282654e-01" purity="4.6461519598960876e-01" nType="0">
          <Node pos="l" depth="2" NCoef="0" IVar="-1" Cut="0.0000000000000000e+00" cType="1" res="-7.3672371217980981e-04" rms="4.5785775780677795e-01" purity="3.4285768866539001e-01" nType="-99"/>
          <Node pos="r" depth="2" NCoef="0" IVar="-1" Cut="0.0000000000000000e+00" cType="1" res="4.0605553658679128e-04" rms="4.6852156519889832e-01" purity="5.6112217903137207e-01" nType="-99"/>
        </Node>
        <Node pos="r" depth="1" NCoef="0" IVar="0" Cut="4.9494143575429916e-02" cType="1" res="7.5527690351009369e-02" rms="4.5304742455482483e-01" purity="6.8311756849288940e-01" nType="0">
          <Node pos="l" depth="2" NCoef="0" IVar="-1" Cut="0.0000000000000000e+00" cType="1" res="5.6527275592088699e-04" rms="4.7087359428405762e-01" purity="6.3149410486221313e-01" nType="-99"/>
          <Node pos="r" depth="2" NCoef="0" IVar="-1" Cut="0.0000000000000000e+00" cType="1" res="1.5776773216202855e-03" rms="4.2766407132148743e-01" purity="7.4216902256011963e-01" nType="-99"/>
        </Node>
      </Node>
    </BinaryTree>
    <BinaryTree type="DecisionTree" boostWeight="1.0000000000000000e+00" itree="341">
      <Node pos="s" depth="0" NCoef="0" IVar="1" Cut="9.8125678300857544e-01" cType="1" res="1.3330145739018917e-02" rms="4.6386048197746277e-01" purity="5.0295954942703247e-01" nType="0">
        <Node pos="l" depth="1" NCoef="0" IVar="6" Cut="1.9584103822708130e+00" cType="1" res="2.8349361382424831e-03" rms="4.7075980901718140e-01" purity="4.6087041497230530e-01" nType="0">
          <Node pos="l" depth="2" NCoef="0" IVar="-1" Cut="0.0000000000000000e+00" cType="1" res="8.6813420057296753e-04" rms="4.7053700685501099e-01" purity="5.3747880458831787e-01" nType="-99"/>
          <Node pos="r" depth="2" NCoef="0" IVar="-1" Cut="0.0000000000000000e+00" cType="1" res="-2.1591169934254140e-04" rms="4.6991053223609924e-01" purity="4.3985071778297424e-01" nType="-99"/>
        </Node>
        <Node pos="r" depth="1" NCoef="0" IVar="-1" Cut="0.0000000000000000e+00" cType="1" res="1.0933073936030269e-03" rms="4.1113165020942688e-01" purity="7.7048981189727783e-01" nType="-99"/>
      </Node>
    </BinaryTree>
    <BinaryTree type="DecisionTree" boostWeight="1.0000000000000000e+00" itree="342">
      <Node pos="s" depth="0" NCoef="0" IVar="1" Cut="9.8445212841033936e-01" cType="1" res="7.4739968404173851e-03" rms="4.6324992179870605e-01" purity="4.9688333272933960e-01" nType="0">
        <Node pos="l" depth="1" NCoef="0" IVar="6" Cut="2.1231935024261475e+00" cType="1" res="-2.7882193680852652e-03" rms="4.6943297982215881e-01" purity="4.6138161420822144e-01" nType="0">
          <Node pos="l" depth="2" NCoef="0" IVar="-1" Cut="0.0000000000000000e+00" cType="1" res="4.7254297533072531e-04" rms="4.7359514236450195e-01" purity="5.1903176307678223e-01" nType="-99"/>
          <Node pos="r" depth="2" NCoef="0" IVar="-1" Cut="0.0000000000000000e+00" cType="1" res="-3.9695299346931279e-04" rms="4.6633803844451904e-01" purity="4.3014150857925415e-01" nType="-99"/>
        </Node>
        <Node pos="r" depth="1" NCoef="0" IVar="-1" Cut="0.0000000000000000e+00" cType="1" res="1.2541472679004073e-03" rms="3.9801403880119324e-01" purity="7.9244023561477661e-01" nType="-99"/>
      </Node>
    </BinaryTree>
    <BinaryTree type="DecisionTree" boostWeight="1.0000000000000000e+00" itree="343">
      <Node pos="s" depth="0" NCoef="0" IVar="5" Cut="2.5845178222656250e+02" cType="1" res="1.0079964995384216e-02" rms="4.6453571319580078e-01" purity="4.9747270345687866e-01" nType="0">
        <Node pos="l" depth="1" NCoef="0" IVar="3" Cut="9.2741958796977997e-02" cType="1" res="-2.9990015551447868e-02" rms="4.4391673803329468e-01" purity="3.3317041397094727e-01" nType="0">
          <Node pos="l" depth="2" NCoef="0" IVar="-1" Cut="0.0000000000000000e+00" cType="1" res="-1.3774858089163899e-03" rms="4.3362480401992798e-01" purity="3.0582398176193237e-01" nType="-99"/>
          <Node pos="r" depth="2" NCoef="0" IVar="-1" Cut="0.0000000000000000e+00" cType="1" res="2.2185382840689272e-04" rms="4.6231213212013245e-01" purity="3.9072376489639282e-01" nType="-99"/>
        </Node>
        <Node pos="r" depth="1" NCoef="0" IVar="0" Cut="1.7766058444976807e-01" cType="1" res="2.6888266205787659e-02" rms="4.7190541028976440e-01" purity="5.6639313697814941e-01" nType="0">
          <Node pos="l" depth="2" NCoef="0" IVar="-1" Cut="0.0000000000000000e+00" cType="1" res="2.7618612512014806e-04" rms="4.7300899028778076e-01" purity="5.5626487731933594e-01" nType="-99"/>
          <Node pos="r" depth="2" NCoef="0" IVar="-1" Cut="0.0000000000000000e+00" cType="1" res="1.6147190472111106e-03" rms="4.5315676927566528e-01" purity="6.5257543325424194e-01" nType="-99"/>
        </Node>
      </Node>
    </BinaryTree>
    <BinaryTree type="DecisionTree" boostWeight="1.0000000000000000e+00" itree="344">
      <Node pos="s" depth="0" NCoef="0" IVar="1" Cut="9.8436695337295532e-01" cType="1" res="1.3360013253986835e-02" rms="4.6456295251846313e-01" purity="5.0161099433898926e-01" nType="0">
        <Node pos="l" depth="1" NCoef="0" IVar="2" Cut="7.4124285888671875e+02" cType="1" res="4.1072713211178780e-03" rms="4.7091645002365112e-01" purity="4.6711441874504089e-01" nType="0">
          <Node pos="l" depth="2" NCoef="0" IVar="-1" Cut="0.0000000000000000e+00" cType="1" res="-5.6774289987515658e-05" rms="4.7120317816734314e-01" purity="4.4842416048049927e-01" nType="-99"/>
          <Node pos="r" depth="2" NCoef="0" IVar="-1" Cut="0.0000000000000000e+00" cType="1" res="1.1629918590188026e-03" rms="4.6055638790130615e-01" purity="6.7556512355804443e-01" nType="-99"/>
        </Node>
        <Node pos="r" depth="1" NCoef="0" IVar="-1" Cut="0.0000000000000000e+00" cType="1" res="1.2337861116975546e-03" rms="3.9890477061271667e-01" purity="7.9141730070114136e-01" nType="-99"/>
      </Node>
    </BinaryTree>
    <BinaryTree type="DecisionTree" boostWeight="1.0000000000000000e+00" itree="345">
      <Node pos="s" depth="0" NCoef="0" IVar="6" Cut="2.6215119361877441e+00" cType="1" res="1.3751969672739506e-02" rms="4.6333891153335571e-01" purity="5.0355601310729980e-01" nType="0">
        <Node pos="l" depth="1" NCoef="0" IVar="1" Cut="9.7555017471313477e-01" cType="1" res="2.3881245404481888e-02" rms="4.6596276760101318e-01" purity="5.2941966056823730e-01" nType="0">
          <Node pos="l" depth="2" NCoef="0" IVar="-1" Cut="0.0000000000000000e+00" cType="1" res="2.1012841898482293e-04" rms="4.7577250003814697e-01" purity="4.7544389963150024e-01" nType="-99"/>
          <Node pos="r" depth="2" NCoef="0" IVar="-1" Cut="0.0000000000000000e+00" cType="1" res="1.0617715306580067e-03" rms="4.1775652766227722e-01" purity="7.5798201560974121e-01" nType="-99"/>
        </Node>
        <Node pos="r" depth="1" NCoef="0" IVar="4" Cut="8.0745443701744080e-02" cType="1" res="-5.8065250515937805e-02" rms="4.3761834502220154e-01" purity="3.2018086314201355e-01" nType="0">
          <Node pos="l" depth="2" NCoef="0" IVar="-1" Cut="0.0000000000000000e+00" cType="1" res="-7.2013965109363198e-04" rms="4.4599702954292297e-01" purity="3.6010336875915527e-01" nType="-99"/>
          <Node pos="r" depth="2" NCoef="0" IVar="-1" Cut="0.0000000000000000e+00" cType="1" res="-3.2672488596290350e-03" rms="4.2123255133628845e-01" purity="2.6101312041282654e-01" nType="-99"/>
        </Node>
      </Node>
    </BinaryTree>
    <BinaryTree type="DecisionTree" boostWeight="1.0000000000000000e+00" itree="346">
      <Node pos="s" depth="0" NCoef="0" IVar="6" Cut="2.3177828788757324e+00" cType="1" res="9.0228663757443428e-03" rms="4.6487039327621460e-01" purity="4.9713522195816040e-01" nType="0">
        <Node pos="l" depth="1" NCoef="0" IVar="5" Cut="2.4281382751464844e+02" cType="1" res="2.8190627694129944e-02" rms="4.6764460206031799e-01" purity="5.4386562108993530e-01" nType="0">
          <Node pos="l" depth="2" NCoef="0" IVar="-1" Cut="0.0000000000000000e+00" cType="1" res="-4.8146009794436395e-04" rms="4.5626914501190186e-01" purity="3.5552039742469788e-01" nType="-99"/>
          <Node pos="r" depth="2" NCoef="0" IVar="-1" Cut="0.0000000000000000e+00" cType="1" res="6.5446883672848344e-04" rms="4.6990144252777100e-01" purity="5.9666371345520020e-01" nType="-99"/>
        </Node>
        <Node pos="r" depth="1" NCoef="0" IVar="4" Cut="4.6763028949499130e-02" cType="1" res="-2.5657996535301208e-02" rms="4.5777311921119690e-01" purity="4.1258445382118225e-01" nType="0">
          <Node pos="l" depth="2" NCoef="0" IVar="-1" Cut="0.0000000000000000e+00" cType="1" res="1.6461331688333303e-04" rms="4.6111044287681580e-01" purity="4.5488041639328003e-01" nType="-99"/>
          <Node pos="r" depth="2" NCoef="0" IVar="-1" Cut="0.0000000000000000e+00" cType="1" res="-1.8067107303068042e-03" rms="4.4883126020431519e-01" purity="3.5373547673225403e-01" nType="-99"/>
        </Node>
      </Node>
    </BinaryTree>
    <BinaryTree type="DecisionTree" boostWeight="1.0000000000000000e+00" itree="347">
      <Node pos="s" depth="0" NCoef="0" IVar="1" Cut="9.8436695337295532e-01" cType="1" res="1.3659739866852760e-02" rms="4.6406865119934082e-01" purity="5.0319027900695801e-01" nType="0">
        <Node pos="l" depth="1" NCoef="0" IVar="4" Cut="7.7746077440679073e-03" cType="1" res="5.0418474711477757e-03" rms="4.7033628821372986e-01" purity="4.6933829784393311e-01" nType="0">
          <Node pos="l" depth="2" NCoef="0" IVar="-1" Cut="0.0000000000000000e+00" cType="1" res="5.2194908494129777e-04" rms="4.6871033310890198e-01" purity="4.9609819054603577e-01" nType="-99"/>
          <Node pos="r" depth="2" NCoef="0" IVar="-1" Cut="0.0000000000000000e+00" cType="1" res="-3.3726642141118646e-04" rms="4.7076055407524109e-01" purity="4.4473877549171448e-01" nType="-99"/>
        </Node>
        <Node pos="r" depth="1" NCoef="0" IVar="-1" Cut="0.0000000000000000e+00" cType="1" res="1.1735174339264631e-03" rms="4.0046498179435730e-01" purity="7.8721028566360474e-01" nType="-99"/>
      </Node>
    </BinaryTree>
    <BinaryTree type="DecisionTree" boostWeight="1.0000000000000000e+00" itree="348">
      <Node pos="s" depth="0" NCoef="0" IVar="1" Cut="9.6639508008956909e-01" cType="1" res="8.0548869445919991e-03" rms="4.6265444159507751e-01" purity="4.9758365750312805e-01" nType="0">
        <Node pos="l" depth="1" NCoef="0" IVar="6" Cut="1.6254246234893799e+00" cType="1" res="-9.5319859683513641e-03" rms="4.6886271238327026e-01" purity="4.2024159431457520e-01" nType="0">
          <Node pos="l" depth="2" NCoef="0" IVar="-1" Cut="0.0000000000000000e+00" cType="1" res="1.2020845897495747e-03" rms="4.6799236536026001e-01" purity="5.3992223739624023e-01" nType="-99"/>
          <Node pos="r" depth="2" NCoef="0" IVar="-1" Cut="0.0000000000000000e+00" cType="1" res="-3.6423272104002535e-04" rms="4.6821001172065735e-01" purity="4.0935000777244568e-01" nType="-99"/>
        </Node>
        <Node pos="r" depth="1" NCoef="0" IVar="2" Cut="4.6982528686523438e+02" cType="1" res="5.0272241234779358e-02" rms="4.4456940889358521e-01" purity="6.8324369192123413e-01" nType="0">
          <Node pos="l" depth="2" NCoef="0" IVar="-1" Cut="0.0000000000000000e+00" cType="1" res="2.8062946512363851e-04" rms="4.6946495771408081e-01" purity="6.0437506437301636e-01" nType="-99"/>
          <Node pos="r" depth="2" NCoef="0" IVar="-1" Cut="0.0000000000000000e+00" cType="1" res="1.1948874453082681e-03" rms="4.1040450334548950e-01" purity="7.7534615993499756e-01" nType="-99"/>
        </Node>
      </Node>
    </BinaryTree>
    <BinaryTree type="DecisionTree" boostWeight="1.0000000000000000e+00" itree="349">
      <Node pos="s" depth="0" NCoef="0" IVar="2" Cut="3.2518298339843750e+02" cType="1" res="6.3987979665398598e-03" rms="4.6375623345375061e-01" purity="4.9487477540969849e-01" nType="0">
        <Node pos="l" depth="1" NCoef="0" IVar="5" Cut="2.0509806823730469e+02" cType="1" res="-7.1349732577800751e-02" rms="4.0435063838958740e-01" purity="2.4303123354911804e-01" nType="0">
          <Node pos="l" depth="2" NCoef="0" IVar="-1" Cut="0.0000000000000000e+00" cType="1" res="-4.5413407497107983e-03" rms="3.7652689218521118e-01" purity="1.9275285303592682e-01" nType="-99"/>
          <Node pos="r" depth="2" NCoef="0" IVar="-1" Cut="0.0000000000000000e+00" cType="1" res="-1.0711770737543702e-03" rms="4.2524629831314087e-01" purity="2.8923520445823669e-01" nType="-99"/>
        </Node>
        <Node pos="r" depth="1" NCoef="0" IVar="6" Cut="2.6143307685852051e+00" cType="1" res="1.6907388344407082e-02" rms="4.7022622823715210e-01" purity="5.2891427278518677e-01" nType="0">
          <Node pos="l" depth="2" NCoef="0" IVar="-1" Cut="0.0000000000000000e+00" cType="1" res="4.4052265002392232e-04" rms="4.7144851088523865e-01" purity="5.5339545011520386e-01" nType="-99"/>
          <Node pos="r" depth="2" NCoef="0" IVar="-1" Cut="0.0000000000000000e+00" cType="1" res="-1.3023357605561614e-03" rms="4.5528656244277954e-01" purity="3.5076662898063660e-01" nType="-99"/>
        </Node>
      </Node>
    </BinaryTree>
    <BinaryTree type="DecisionTree" boostWeight="1.0000000000000000e+00" itree="350">
      <Node pos="s" depth="0" NCoef="0" IVar="2" Cut="4.6865063476562500e+02" cType="1" res="8.1589678302407265e-03" rms="4.6321943402290344e-01" purity="4.9788978695869446e-01" nType="0">
        <Node pos="l" depth="1" NCoef="0" IVar="3" Cut="-6.8406842648983002e-02" cType="1" res="-1.3827009126543999e-02" rms="4.5913460850715637e-01" purity="4.0181612968444824e-01" nType="0">
          <Node pos="l" depth="2" NCoef="0" IVar="-1" Cut="0.0000000000000000e+00" cType="1" res="-1.4934996142983437e-03" rms="4.4150650501251221e-01" purity="3.3820486068725586e-01" nType="-99"/>
          <Node pos="r" depth="2" NCoef="0" IVar="-1" Cut="0.0000000000000000e+00" cType="1" res="3.5965131246484816e-05" rms="4.6416816115379333e-01" purity="4.2416444420814514e-01" nType="-99"/>
        </Node>
        <Node pos="r" depth="1" NCoef="0" IVar="0" Cut="1.0721845924854279e-01" cType="1" res="3.7216357886791229e-02" rms="4.6697810292243958e-01" purity="6.2486386299133301e-01" nType="0">
          <Node pos="l" depth="2" NCoef="0" IVar="-1" Cut="0.0000000000000000e+00" cType="1" res="1.8979025480803102e-04" rms="4.7309899330139160e-01" purity="5.9489715099334717e-01" nType="-99"/>
          <Node pos="r" depth="2" NCoef="0" IVar="-1" Cut="0.0000000000000000e+00" cType="1" res="1.5060637379065156e-03" rms="4.4009834527969360e-01" purity="7.1319967508316040e-01" nType="-99"/>
        </Node>
      </Node>
    </BinaryTree>
    <BinaryTree type="DecisionTree" boostWeight="1.0000000000000000e+00" itree="351">
      <Node pos="s" depth="0" NCoef="0" IVar="1" Cut="9.2446070909500122e-01" cType="1" res="1.0635497048497200e-02" rms="4.6454602479934692e-01" purity="4.9974569678306580e-01" nType="0">
        <Node pos="l" depth="1" NCoef="0" IVar="3" Cut="1.0064058750867844e-01" cType="1" res="-4.7037553042173386e-02" rms="4.5316889882087708e-01" purity="3.3373782038688660e-01" nType="0">
          <Node pos="l" depth="2" NCoef="0" IVar="-1" Cut="0.0000000000000000e+00" cType="1" res="-1.8021988216787577e-03" rms="4.4500029087066650e-01" purity="3.0776315927505493e-01" nType="-99"/>
          <Node pos="r" depth="2" NCoef="0" IVar="-1" Cut="0.0000000000000000e+00" cType="1" res="-9.8473057732917368e-05" rms="4.6859261393547058e-01" purity="3.9329609274864197e-01" nType="-99"/>
        </Node>
        <Node pos="r" depth="1" NCoef="0" IVar="3" Cut="1.8727286159992218e-01" cType="1" res="2.2112298756837845e-02" rms="4.6592608094215393e-01" purity="5.3278088569641113e-01" nType="0">
          <Node pos="l" depth="2" NCoef="0" IVar="-1" Cut="0.0000000000000000e+00" cType="1" res="2.3124046856537461e-04" rms="4.6577644348144531e-01" purity="5.2255952358245850e-01" nType="-99"/>
          <Node pos="r" depth="2" NCoef="0" IVar="-1" Cut="0.0000000000000000e+00" cType="1" res="1.3129517901688814e-03" rms="4.6224427223205566e-01" purity="6.0234016180038452e-01" nType="-99"/>
        </Node>
      </Node>
    </BinaryTree>
    <BinaryTree type="DecisionTree" boostWeight="1.0000000000000000e+00" itree="352">
      <Node pos="s" depth="0" NCoef="0" IVar="1" Cut="9.8442471027374268e-01" cType="1" res="7.6358043588697910e-03" rms="4.6270713210105896e-01" purity="4.9764773249626160e-01" nType="0">
        <Node pos="l" depth="1" NCoef="0" IVar="5" Cut="2.5509506225585938e+02" cType="1" res="-1.5377876115962863e-03" rms="4.6862787008285522e-01" purity="4.6289920806884766e-01" nType="0">
          <Node pos="l" depth="2" NCoef="0" IVar="-1" Cut="0.0000000000000000e+00" cType="1" res="-1.1211117962375283e-03" rms="4.3901208043098450e-01" purity="2.9519495368003845e-01" nType="-99"/>
          <Node pos="r" depth="2" NCoef="0" IVar="-1" Cut="0.0000000000000000e+00" cType="1" res="2.3539515677839518e-04" rms="4.7931167483329773e-01" purity="5.3118759393692017e-01" nType="-99"/>
        </Node>
        <Node pos="r" depth="1" NCoef="0" IVar="-1" Cut="0.0000000000000000e+00" cType="1" res="1.1442617978900671e-03" rms="4.0220817923545837e-01" purity="7.8637278079986572e-01" nType="-99"/>
      </Node>
    </BinaryTree>
    <BinaryTree type="DecisionTree" boostWeight="1.0000000000000000e+00" itree="353">
      <Node pos="s" depth="0" NCoef="0" IVar="1" Cut="9.7859799861907959e-01" cType="1" res="1.5211912803351879e-02" rms="4.6269056200981140e-01" purity="5.0641715526580811e-01" nType="0">
        <Node pos="l" depth="1" NCoef="0" IVar="5" Cut="2.6588882446289062e+02" cType="1" res="3.1277260277420282e-03" rms="4.7064965963363647e-01" purity="4.5596435666084290e-01" nType="0">
          <Node pos="l" depth="2" NCoef="0" IVar="-1" Cut="0.0000000000000000e+00" cType="1" res="-8.5820478852838278e-04" rms="4.4114747643470764e-01" purity="3.0173322558403015e-01" nType="-99"/>
          <Node pos="r" depth="2" NCoef="0" IVar="-1" Cut="0.0000000000000000e+00" cType="1" res="3.4229317680001259e-04" rms="4.8403853178024292e-01" purity="5.3436732292175293e-01" nType="-99"/>
        </Node>
        <Node pos="r" depth="1" NCoef="0" IVar="-1" Cut="0.0000000000000000e+00" cType="1" res="1.0548023274168372e-03" rms="4.1466653347015381e-01" purity="7.6208776235580444e-01" nType="-99"/>
      </Node>
    </BinaryTree>
    <BinaryTree type="DecisionTree" boostWeight="1.0000000000000000e+00" itree="354">
      <Node pos="s" depth="0" NCoef="0" IVar="3" Cut="1.7886576056480408e-01" cType="1" res="1.1581607162952423e-02" rms="4.6379944682121277e-01" purity="5.0009417533874512e-01" nType="0">
        <Node pos="l" depth="1" NCoef="0" IVar="4" Cut="3.3817559480667114e-02" cType="1" res="9.5851492369547486e-04" rms="4.6262538433074951e-01" purity="4.8808243870735168e-01" nType="0">
          <Node pos="l" depth="2" NCoef="0" IVar="-1" Cut="0.0000000000000000e+00" cType="1" res="4.5775491162203252e-04" rms="4.6185025572776794e-01" purity="5.1749867200851440e-01" nType="-99"/>
          <Node pos="r" depth="2" NCoef="0" IVar="-1" Cut="0.0000000000000000e+00" cType="1" res="-1.0798258008435369e-03" rms="4.5990076661109924e-01" purity="4.2595222592353821e-01" nType="-99"/>
        </Node>
        <Node pos="r" depth="1" NCoef="0" IVar="5" Cut="2.9029705810546875e+02" cType="1" res="7.3051035404205322e-02" rms="4.6580275893211365e-01" purity="5.6959903240203857e-01" nType="0">
          <Node pos="l" depth="2" NCoef="0" IVar="-1" Cut="0.0000000000000000e+00" cType="1" res="9.1943627921864390e-04" rms="4.7249561548233032e-01" purity="4.5781385898590088e-01" nType="-99"/>
          <Node pos="r" depth="2" NCoef="0" IVar="-1" Cut="0.0000000000000000e+00" cType="1" res="1.3635096838697791e-03" rms="4.5902711153030396e-01" purity="6.6344404220581055e-01" nType="-99"/>
        </Node>
      </Node>
    </BinaryTree>
    <BinaryTree type="DecisionTree" boostWeight="1.0000000000000000e+00" itree="355">
      <Node pos="s" depth="0" NCoef="0" IVar="1" Cut="9.4243258237838745e-01" cType="1" res="1.0307628661394119e-02" rms="4.6217608451843262e-01" purity="4.9971461296081543e-01" nType="0">
        <Node pos="l" depth="1" NCoef="0" IVar="6" Cut="1.9909386634826660e+00" cType="1" res="-2.9136894270777702e-02" rms="4.5869797468185425e-01" purity="3.6473017930984497e-01" nType="0">
          <Node pos="l" depth="2" NCoef="0" IVar="-1" Cut="0.0000000000000000e+00" cType="1" res="3.7799595156684518e-04" rms="4.7259315848350525e-01" purity="4.3779233098030090e-01" nType="-99"/>
          <Node pos="r" depth="2" NCoef="0" IVar="-1" Cut="0.0000000000000000e+00" cType="1" res="-1.0829145321622491e-03" rms="4.5353937149047852e-01" purity="3.4322324395179749e-01" nType="-99"/>
        </Node>
        <Node pos="r" depth="1" NCoef="0" IVar="6" Cut="2.6810357570648193e+00" cType="1" res="3.2197490334510803e-02" rms="4.6264630556106567e-01" purity="5.7462465763092041e-01" nType="0">
          <Node pos="l" depth="2" NCoef="0" IVar="-1" Cut="0.0000000000000000e+00" cType="1" res="6.6452386090531945e-04" rms="4.6233573555946350e-01" purity="5.9678661823272705e-01" nType="-99"/>
          <Node pos="r" depth="2" NCoef="0" IVar="-1" Cut="0.0000000000000000e+00" cType="1" res="-1.4098556712269783e-03" rms="4.5552194118499756e-01" purity="3.6215251684188843e-01" nType="-99"/>
        </Node>
      </Node>
    </BinaryTree>
    <BinaryTree type="DecisionTree" boostWeight="1.0000000000000000e+00" itree="356">
      <Node pos="s" depth="0" NCoef="0" IVar="2" Cut="7.3978656005859375e+02" cType="1" res="1.5711568295955658e-02" rms="4.6389734745025635e-01" purity="5.0465583801269531e-01" nType="0">
        <Node pos="l" depth="1" NCoef="0" IVar="1" Cut="9.8461776971817017e-01" cType="1" res="7.3007973842322826e-03" rms="4.6503770351409912e-01" purity="4.8491883277893066e-01" nType="0">
          <Node pos="l" depth="2" NCoef="0" IVar="-1" Cut="0.0000000000000000e+00" cType="1" res="-1.9042150597670116e-05" rms="4.7036466002464294e-01" purity="4.5177182555198669e-01" nType="-99"/>
          <Node pos="r" depth="2" NCoef="0" IVar="-1" Cut="0.0000000000000000e+00" cType="1" res="1.1009654263034463e-03" rms="4.0759888291358948e-01" purity="7.7861428260803223e-01" nType="-99"/>
        </Node>
        <Node pos="r" depth="1" NCoef="0" IVar="-1" Cut="0.0000000000000000e+00" cType="1" res="1.4416443882510066e-03" rms="4.4166585803031921e-01" purity="7.1540474891662598e-01" nType="-99"/>
      </Node>
    </BinaryTree>
    <BinaryTree type="DecisionTree" boostWeight="1.0000000000000000e+00" itree="357">
      <Node pos="s" depth="0" NCoef="0" IVar="1" Cut="9.8442471027374268e-01" cType="1" res="7.0499973371624947e-03" rms="4.6329966187477112e-01" purity="4.9518781900405884e-01" nType="0">
        <Node pos="l" depth="1" NCoef="0" IVar="3" Cut="2.7539832517504692e-02" cType="1" res="-1.2328356970101595e-03" rms="4.6900048851966858e-01" purity="4.6217083930969238e-01" nType="0">
          <Node pos="l" depth="2" NCoef="0" IVar="-1" Cut="0.0000000000000000e+00" cType="1" res="-4.5305877574719489e-04" rms="4.6333637833595276e-01" purity="4.3224632740020752e-01" nType="-99"/>
          <Node pos="r" depth="2" NCoef="0" IVar="-1" Cut="0.0000000000000000e+00" cType="1" res="4.2700913036242127e-04" rms="4.7441959381103516e-01" purity="4.9763241410255432e-01" nType="-99"/>
        </Node>
        <Node pos="r" depth="1" NCoef="0" IVar="-1" Cut="0.0000000000000000e+00" cType="1" res="1.0942243970930576e-03" rms="4.0293401479721069e-01" purity="7.8374922275543213e-01" nType="-99"/>
      </Node>
    </BinaryTree>
    <BinaryTree type="DecisionTree" boostWeight="1.0000000000000000e+00" itree="358">
      <Node pos="s" depth="0" NCoef="0" IVar="5" Cut="2.6839605712890625e+02" cType="1" res="1.0658040642738342e-02" rms="4.6240225434303284e-01" purity="5.0090241432189941e-01" nType="0">
        <Node pos="l" depth="1" NCoef="0" IVar="2" Cut="3.7885662841796875e+02" cType="1" res="-2.5394547730684280e-02" rms="4.4491201639175415e-01" purity="3.4779024124145508e-01" nType="0">
          <Node pos="l" depth="2" NCoef="0" IVar="-1" Cut="0.0000000000000000e+00" cType="1" res="-1.2028308119624853e-03" rms="4.3340256810188293e-01" purity="2.9760542511940002e-01" nType="-99"/>
          <Node pos="r" depth="2" NCoef="0" IVar="-1" Cut="0.0000000000000000e+00" cType="1" res="3.7898059235885739e-04" rms="4.7309827804565430e-01" purity="4.9062290787696838e-01" nType="-99"/>
        </Node>
        <Node pos="r" depth="1" NCoef="0" IVar="4" Cut="5.5468752980232239e-02" cType="1" res="2.8994446620345116e-02" rms="4.6998894214630127e-01" purity="5.7877552509307861e-01" nType="0">
          <Node pos="l" depth="2" NCoef="0" IVar="-1" Cut="0.0000000000000000e+00" cType="1" res="7.9699489288032055e-04" rms="4.6595230698585510e-01" purity="6.0943925380706787e-01" nType="-99"/>
          <Node pos="r" depth="2" NCoef="0" IVar="-1" Cut="0.0000000000000000e+00" cType="1" res="-2.4954427499324083e-04" rms="4.7459724545478821e-01" purity="5.2037793397903442e-01" nType="-99"/>
        </Node>
      </Node>
    </BinaryTree>
    <BinaryTree type="DecisionTree" boostWeight="1.0000000000000000e+00" itree="359">
      <Node pos="s" depth="0" NCoef="0" IVar="2" Cut="5.9811975097656250e+02" cType="1" res="7.4694221839308739e-03" rms="4.6300983428955078e-01" purity="4.9746218323707581e-01" nType="0">
        <Node pos="l" depth="1" NCoef="0" IVar="2" Cut="3.1189291381835938e+02" cType="1" res="-4.8624244518578053e-03" rms="4.6449214220046997e-01" purity="4.5534288883209229e-01" nType="0">
          <Node pos="l" depth="2" NCoef="0" IVar="-1" Cut="0.0000000000000000e+00" cType="1" res="-2.7183496858924627e-03" rms="4.0062719583511353e-01" purity="2.2934308648109436e-01" nType="-99"/>
          <Node pos="r" depth="2" NCoef="0" IVar="-1" Cut="0.0000000000000000e+00" cType="1" res="5.8164714573649690e-05" rms="4.7067651152610779e-01" purity="4.8150807619094849e-01" nType="-99"/>
        </Node>
        <Node pos="r" depth="1" NCoef="0" IVar="0" Cut="4.9494143575429916e-02" cType="1" res="5.8836057782173157e-02" rms="4.5318803191184998e-01" purity="6.7290443181991577e-01" nType="0">
          <Node pos="l" depth="2" NCoef="0" IVar="-1" Cut="0.0000000000000000e+00" cType="1" res="1.8912636733148247e-04" rms="4.7108152508735657e-01" purity="6.1238312721252441e-01" nType="-99"/>
          <Node pos="r" depth="2" NCoef="0" IVar="-1" Cut="0.0000000000000000e+00" cType="1" res="1.4670098898932338e-03" rms="4.2818221449851990e-01" purity="7.3630642890930176e-01" nType="-99"/>
        </Node>
      </Node>
    </BinaryTree>
    <BinaryTree type="DecisionTree" boostWeight="1.0000000000000000e+00" itree="360">
      <Node pos="s" depth="0" NCoef="0" IVar="2" Cut="7.2623406982421875e+02" cType="1" res="1.2848048470914364e-02" rms="4.6457797288894653e-01" purity="5.0135695934295654e-01" nType="0">
        <Node pos="l" depth="1" NCoef="0" IVar="1" Cut="9.8461776971817017e-01" cType="1" res="5.1767430268228054e-03" rms="4.6559727191925049e-01" purity="4.8154616355895996e-01" nType="0">
          <Node pos="l" depth="2" NCoef="0" IVar="-1" Cut="0.0000000000000000e+00" cType="1" res="-6.7508983192965388e-05" rms="4.7128611803054810e-01" purity="4.4708710908889771e-01" nType="-99"/>
          <Node pos="r" depth="2" NCoef="0" IVar="-1" Cut="0.0000000000000000e+00" cType="1" res="1.0954679455608130e-03" rms="4.0552964806556702e-01" purity="7.7994120121002197e-01" nType="-99"/>
        </Node>
        <Node pos="r" depth="1" NCoef="0" IVar="-1" Cut="0.0000000000000000e+00" cType="1" res="1.2735564960166812e-03" rms="4.4684928655624390e-01" purity="7.0130980014801025e-01" nType="-99"/>
      </Node>
    </BinaryTree>
    <BinaryTree type="DecisionTree" boostWeight="1.0000000000000000e+00" itree="361">
      <Node pos="s" depth="0" NCoef="0" IVar="1" Cut="9.2745602130889893e-01" cType="1" res="7.8830635175108910e-03" rms="4.6294859051704407e-01" purity="4.9824136495590210e-01" nType="0">
        <Node pos="l" depth="1" NCoef="0" IVar="6" Cut="2.1764359474182129e+00" cType="1" res="-4.9098562449216843e-02" rms="4.5184627175331116e-01" purity="3.3394145965576172e-01" nType="0">
          <Node pos="l" depth="2" NCoef="0" IVar="-1" Cut="0.0000000000000000e+00" cType="1" res="-5.9476500609889627e-04" rms="4.7262611985206604e-01" purity="3.8284757733345032e-01" nType="-99"/>
          <Node pos="r" depth="2" NCoef="0" IVar="-1" Cut="0.0000000000000000e+00" cType="1" res="-1.8656867323443294e-03" rms="4.3467405438423157e-01" purity="2.9686629772186279e-01" nType="-99"/>
        </Node>
        <Node pos="r" depth="1" NCoef="0" IVar="6" Cut="2.2589559555053711e+00" cType="1" res="2.1605089306831360e-02" rms="4.6453955769538879e-01" purity="5.3780722618103027e-01" nType="0">
          <Node pos="l" depth="2" NCoef="0" IVar="-1" Cut="0.0000000000000000e+00" cType="1" res="7.1915570879355073e-04" rms="4.6279585361480713e-01" purity="5.8984482288360596e-01" nType="-99"/>
          <Node pos="r" depth="2" NCoef="0" IVar="-1" Cut="0.0000000000000000e+00" cType="1" res="-2.0601194410119206e-04" rms="4.6502014994621277e-01" purity="4.6609342098236084e-01" nType="-99"/>
        </Node>
      </Node>
    </BinaryTree>
    <BinaryTree type="DecisionTree" boostWeight="1.0000000000000000e+00" itree="362">
      <Node pos="s" depth="0" NCoef="0" IVar="6" Cut="1.9788264036178589e+00" cType="1" res="1.0173265822231770e-02" rms="4.6345365047454834e-01" purity="4.9975952506065369e-01" nType="0">
        <Node pos="l" depth="1" NCoef="0" IVar="5" Cut="2.4872912597656250e+02" cType="1" res="5.9113904833793640e-02" rms="4.6153265237808228e-01" purity="5.7409822940826416e-01" nType="0">
          <Node pos="l" depth="2" NCoef="0" IVar="-1" Cut="0.0000000000000000e+00" cType="1" res="1.2051567318849266e-04" rms="4.6711432933807373e-01" purity="3.9448794722557068e-01" nType="-99"/>
          <Node pos="r" depth="2" NCoef="0" IVar="-1" Cut="0.0000000000000000e+00" cType="1" res="1.1868220753967762e-03" rms="4.5717582106590271e-01" purity="6.5143144130706787e-01" nType="-99"/>
        </Node>
        <Node pos="r" depth="1" NCoef="0" IVar="1" Cut="9.7547346353530884e-01" cType="1" res="-4.4284071773290634e-03" rms="4.6302440762519836e-01" purity="4.7758018970489502e-01" nType="0">
          <Node pos="l" depth="2" NCoef="0" IVar="-1" Cut="0.0000000000000000e+00" cType="1" res="-3.5975253558717668e-04" rms="4.6836289763450623e-01" purity="4.2235797643661499e-01" nType="-99"/>
          <Node pos="r" depth="2" NCoef="0" IVar="-1" Cut="0.0000000000000000e+00" cType="1" res="7.3999259620904922e-04" rms="4.3445524573326111e-01" purity="7.1913063526153564e-01" nType="-99"/>
        </Node>
      </Node>
    </BinaryTree>
    <BinaryTree type="DecisionTree" boostWeight="1.0000000000000000e+00" itree="363">
      <Node pos="s" depth="0" NCoef="0" IVar="1" Cut="9.6928513050079346e-01" cType="1" res="8.6686238646507263e-03" rms="4.6428927779197693e-01" purity="4.9748760461807251e-01" nType="0">
        <Node pos="l" depth="1" NCoef="0" IVar="4" Cut="5.7606771588325500e-02" cType="1" res="-5.5163446813821793e-03" rms="4.7098299860954285e-01" purity="4.2887669801712036e-01" nType="0">
          <Node pos="l" depth="2" NCoef="0" IVar="-1" Cut="0.0000000000000000e+00" cType="1" res="1.6735226381570101e-04" rms="4.7128695249557495e-01" purity="4.4394689798355103e-01" nType="-99"/>
          <Node pos="r" depth="2" NCoef="0" IVar="-1" Cut="0.0000000000000000e+00" cType="1" res="-7.4938003672286868e-04" rms="4.6903255581855774e-01" purity="3.9770475029945374e-01" nType="-99"/>
        </Node>
        <Node pos="r" depth="1" NCoef="0" IVar="2" Cut="4.6545907592773438e+02" cType="1" res="4.9568504095077515e-02" rms="4.4188299775123596e-01" purity="6.9531524181365967e-01" nType="0">
          <Node pos="l" depth="2" NCoef="0" IVar="-1" Cut="0.0000000000000000e+00" cType="1" res="3.6747593549080193e-04" rms="4.6684303879737854e-01" purity="6.2477385997772217e-01" nType="-99"/>
          <Node pos="r" depth="2" NCoef="0" IVar="-1" Cut="0.0000000000000000e+00" cType="1" res="1.0741188889369369e-03" rms="4.1005805134773254e-01" purity="7.7484953403472900e-01" nType="-99"/>
        </Node>
      </Node>
    </BinaryTree>
    <BinaryTree type="DecisionTree" boostWeight="1.0000000000000000e+00" itree="364">
      <Node pos="s" depth="0" NCoef="0" IVar="2" Cut="7.3978656005859375e+02" cType="1" res="1.0736897587776184e-02" rms="4.6335840225219727e-01" purity="5.0052899122238159e-01" nType="0">
        <Node pos="l" depth="1" NCoef="0" IVar="3" Cut="1.7884668707847595e-01" cType="1" res="3.2321335747838020e-03" rms="4.6407616138458252e-01" purity="4.8219829797744751e-01" nType="0">
          <Node pos="l" depth="2" NCoef="0" IVar="-1" Cut="0.0000000000000000e+00" cType="1" res="-1.5048535715322942e-04" rms="4.6232423186302185e-01" purity="4.6966737508773804e-01" nType="-99"/>
          <Node pos="r" depth="2" NCoef="0" IVar="-1" Cut="0.0000000000000000e+00" cType="1" res="1.1051099281758070e-03" rms="4.6902975440025330e-01" purity="5.5347806215286255e-01" nType="-99"/>
        </Node>
        <Node pos="r" depth="1" NCoef="0" IVar="-1" Cut="0.0000000000000000e+00" cType="1" res="1.3016276061534882e-03" rms="4.4684034585952759e-01" purity="7.0475298166275024e-01" nType="-99"/>
      </Node>
    </BinaryTree>
    <BinaryTree type="DecisionTree" boostWeight="1.0000000000000000e+00" itree="365">
      <Node pos="s" depth="0" NCoef="0" IVar="1" Cut="9.3946844339370728e-01" cType="1" res="1.1839166283607483e-02" rms="4.6342256665229797e-01" purity="5.0234091281890869e-01" nType="0">
        <Node pos="l" depth="1" NCoef="0" IVar="3" Cut="1.1229554563760757e-01" cType="1" res="-2.7726136147975922e-02" rms="4.6065983176231384e-01" purity="3.6232140660285950e-01" nType="0">
          <Node pos="l" depth="2" NCoef="0" IVar="-1" Cut="0.0000000000000000e+00" cType="1" res="-1.0848029050976038e-03" rms="4.5384806394577026e-01" purity="3.4041011333465576e-01" nType="-99"/>
          <Node pos="r" depth="2" NCoef="0" IVar="-1" Cut="0.0000000000000000e+00" cType="1" res="2.6745890500023961e-04" rms="4.7546181082725525e-01" purity="4.1904687881469727e-01" nType="-99"/>
        </Node>
        <Node pos="r" depth="1" NCoef="0" IVar="5" Cut="2.6871395874023438e+02" cType="1" res="3.0084561556577682e-02" rms="4.6355476975440979e-01" purity="5.6691032648086548e-01" nType="0">
          <Node pos="l" depth="2" NCoef="0" IVar="-1" Cut="0.0000000000000000e+00" cType="1" res="-1.4634974650107324e-04" rms="4.6643686294555664e-01" purity="4.1527441143989563e-01" nType="-99"/>
          <Node pos="r" depth="2" NCoef="0" IVar="-1" Cut="0.0000000000000000e+00" cType="1" res="7.1760005084797740e-04" rms="4.6112415194511414e-01" purity="6.3949412107467651e-01" nType="-99"/>
        </Node>
      </Node>
    </BinaryTree>
    <BinaryTree type="DecisionTree" boostWeight="1.0000000000000000e+00" itree="366">
      <Node pos="s" depth="0" NCoef="0" IVar="1" Cut="9.7845309972763062e-01" cType="1" res="9.7598861902952194e-03" rms="4.6378707885742188e-01" purity="4.9839556217193604e-01" nType="0">
        <Node pos="l" depth="1" NCoef="0" IVar="3" Cut="5.9298418462276459e-02" cType="1" res="-8.3671545144170523e-04" rms="4.7115701436996460e-01" purity="4.4996926188468933e-01" nType="0">
          <Node pos="l" depth="2" NCoef="0" IVar="-1" Cut="0.0000000000000000e+00" cType="1" res="-3.8971181493252516e-04" rms="4.6707272529602051e-01" purity="4.2448538541793823e-01" nType="-99"/>
          <Node pos="r" depth="2" NCoef="0" IVar="-1" Cut="0.0000000000000000e+00" cType="1" res="5.0438666949048638e-04" rms="4.7618362307548523e-01" purity="4.9061402678489685e-01" nType="-99"/>
        </Node>
        <Node pos="r" depth="1" NCoef="0" IVar="-1" Cut="0.0000000000000000e+00" cType="1" res="9.2144572408869863e-04" rms="4.1845452785491943e-01" purity="7.5343114137649536e-01" nType="-99"/>
      </Node>
    </BinaryTree>
    <BinaryTree type="DecisionTree" boostWeight="1.0000000000000000e+00" itree="367">
      <Node pos="s" depth="0" NCoef="0" IVar="1" Cut="9.1834551095962524e-01" cType="1" res="1.0585234500467777e-02" rms="4.6432140469551086e-01" purity="4.9916025996208191e-01" nType="0">
        <Node pos="l" depth="1" NCoef="0" IVar="0" Cut="8.7467066943645477e-02" cType="1" res="-5.6555312126874924e-02" rms="4.4548550248146057e-01" purity="3.2291987538337708e-01" nType="0">
          <Node pos="l" depth="2" NCoef="0" IVar="-1" Cut="0.0000000000000000e+00" cType="1" res="-2.1007522009313107e-03" rms="4.4146016240119934e-01" purity="3.1789073348045349e-01" nType="-99"/>
          <Node pos="r" depth="2" NCoef="0" IVar="-1" Cut="0.0000000000000000e+00" cType="1" res="-6.8780098808929324e-04" rms="4.4895237684249878e-01" purity="3.2953098416328430e-01" nType="-99"/>
        </Node>
        <Node pos="r" depth="1" NCoef="0" IVar="3" Cut="5.4493803530931473e-02" cType="1" res="1.9641363993287086e-02" rms="4.6606418490409851e-01" purity="5.2293211221694946e-01" nType="0">
          <Node pos="l" depth="2" NCoef="0" IVar="-1" Cut="0.0000000000000000e+00" cType="1" res="-5.3362973631010391e-06" rms="4.6462869644165039e-01" purity="4.9659106135368347e-01" nType="-99"/>
          <Node pos="r" depth="2" NCoef="0" IVar="-1" Cut="0.0000000000000000e+00" cType="1" res="8.3914026618003845e-04" rms="4.6659597754478455e-01" purity="5.6419605016708374e-01" nType="-99"/>
        </Node>
      </Node>
    </BinaryTree>
    <BinaryTree type="DecisionTree" boostWeight="1.0000000000000000e+00" itree="368">
      <Node pos="s" depth="0" NCoef="0" IVar="1" Cut="9.8424941301345825e-01" cType="1" res="8.3081889897584915e-03" rms="4.6297860145568848e-01" purity="4.9812945723533630e-01" nType="0">
        <Node pos="l" depth="1" NCoef="0" IVar="2" Cut="3.8561947631835938e+02" cType="1" res="6.0899264644831419e-04" rms="4.6871006488800049e-01" purity="4.6520394086837769e-01" nType="0">
          <Node pos="l" depth="2" NCoef="0" IVar="-1" Cut="0.0000000000000000e+00" cType="1" res="-8.8821671670302749e-04" rms="4.4035902619361877e-01" purity="2.9689657688140869e-01" nType="-99"/>
          <Node pos="r" depth="2" NCoef="0" IVar="-1" Cut="0.0000000000000000e+00" cType="1" res="2.5919408653862774e-04" rms="4.8102766275405884e-01" purity="5.4619652032852173e-01" nType="-99"/>
        </Node>
        <Node pos="r" depth="1" NCoef="0" IVar="-1" Cut="0.0000000000000000e+00" cType="1" res="1.0311997029930353e-03" rms="4.0448755025863647e-01" purity="7.8088682889938354e-01" nType="-99"/>
      </Node>
    </BinaryTree>
    <BinaryTree type="DecisionTree" boostWeight="1.0000000000000000e+00" itree="369">
      <Node pos="s" depth="0" NCoef="0" IVar="1" Cut="9.3624889850616455e-01" cType="1" res="7.4473344720900059e-03" rms="4.6348208189010620e-01" purity="4.9664890766143799e-01" nType="0">
        <Node pos="l" depth="1" NCoef="0" IVar="3" Cut="1.5059454739093781e-01" cType="1" res="-3.4925866872072220e-02" rms="4.5835632085800171e-01" purity="3.4960305690765381e-01" nType="0">
          <Node pos="l" depth="2" NCoef="0" IVar="-1" Cut="0.0000000000000000e+00" cType="1" res="-1.1465896386653185e-03" rms="4.5295283198356628e-01" purity="3.3478602766990662e-01" nType="-99"/>
          <Node pos="r" depth="2" NCoef="0" IVar="-1" Cut="0.0000000000000000e+00" cType="1" res="8.6857238784432411e-05" rms="4.7631475329399109e-01" purity="4.0588101744651794e-01" nType="-99"/>
        </Node>
        <Node pos="r" depth="1" NCoef="0" IVar="2" Cut="5.6825250244140625e+02" cType="1" res="2.4139391258358955e-02" rms="4.6442556381225586e-01" purity="5.5457460880279541e-01" nType="0">
          <Node pos="l" depth="2" NCoef="0" IVar="-1" Cut="0.0000000000000000e+00" cType="1" res="1.6346179472748190e-04" rms="4.6984225511550903e-01" purity="5.0575625896453857e-01" nType="-99"/>
          <Node pos="r" depth="2" NCoef="0" IVar="-1" Cut="0.0000000000000000e+00" cType="1" res="1.0039736516773701e-03" rms="4.4341656565666199e-01" purity="7.0946013927459717e-01" nType="-99"/>
        </Node>
      </Node>
    </BinaryTree>
    <BinaryTree type="DecisionTree" boostWeight="1.0000000000000000e+00" itree="370">
      <Node pos="s" depth="0" NCoef="0" IVar="6" Cut="2.6280713081359863e+00" cType="1" res="9.7418213263154030e-03" rms="4.6252554655075073e-01" purity="4.9999561905860901e-01" nType="0">
        <Node pos="l" depth="1" NCoef="0" IVar="2" Cut="3.9417453002929688e+02" cType="1" res="1.9266529008746147e-02" rms="4.6566313505172729e-01" purity="5.2518475055694580e-01" nType="0">
          <Node pos="l" depth="2" NCoef="0" IVar="-1" Cut="0.0000000000000000e+00" cType="1" res="-4.3415703112259507e-04" rms="4.5455569028854370e-01" purity="3.5710453987121582e-01" nType="-99"/>
          <Node pos="r" depth="2" NCoef="0" IVar="-1" Cut="0.0000000000000000e+00" cType="1" res="5.7719973847270012e-04" rms="4.6999344229698181e-01" purity="6.0844647884368896e-01" nType="-99"/>
        </Node>
        <Node pos="r" depth="1" NCoef="0" IVar="4" Cut="4.6276710927486420e-02" cType="1" res="-5.8610044419765472e-02" rms="4.3325251340866089e-01" purity="3.1923165917396545e-01" nType="0">
          <Node pos="l" depth="2" NCoef="0" IVar="-1" Cut="0.0000000000000000e+00" cType="1" res="-3.2392545836046338e-04" rms="4.4959467649459839e-01" purity="3.7879326939582825e-01" nType="-99"/>
          <Node pos="r" depth="2" NCoef="0" IVar="-1" Cut="0.0000000000000000e+00" cType="1" res="-3.0777538195252419e-03" rms="4.1494762897491455e-01" purity="2.6836255192756653e-01" nType="-99"/>
        </Node>
      </Node>
    </BinaryTree>
    <BinaryTree type="DecisionTree" boostWeight="1.0000000000000000e+00" itree="371">
      <Node pos="s" depth="0" NCoef="0" IVar="6" Cut="2.2024827003479004e+00" cType="1" res="7.9229986295104027e-03" rms="4.6382153034210205e-01" purity="4.9690759181976318e-01" nType="0">
        <Node pos="l" depth="1" NCoef="0" IVar="5" Cut="2.4281382751464844e+02" cType="1" res="3.5132754594087601e-02" rms="4.6457740664482117e-01" purity="5.5555385351181030e-01" nType="0">
          <Node pos="l" depth="2" NCoef="0" IVar="-1" Cut="0.0000000000000000e+00" cType="1" res="-5.7466182624921203e-04" rms="4.5743927359580994e-01" purity="3.5137930512428284e-01" nType="-99"/>
          <Node pos="r" depth="2" NCoef="0" IVar="-1" Cut="0.0000000000000000e+00" cType="1" res="7.9145253403112292e-04" rms="4.6524834632873535e-01" purity="6.1359375715255737e-01" nType="-99"/>
        </Node>
        <Node pos="r" depth="1" NCoef="0" IVar="4" Cut="4.6244431287050247e-02" cType="1" res="-1.8820313736796379e-02" rms="4.6151682734489441e-01" purity="4.3926671147346497e-01" nType="0">
          <Node pos="l" depth="2" NCoef="0" IVar="-1" Cut="0.0000000000000000e+00" cType="1" res="5.7204721088055521e-05" rms="4.6168726682662964e-01" purity="4.6837067604064941e-01" nType="-99"/>
          <Node pos="r" depth="2" NCoef="0" IVar="-1" Cut="0.0000000000000000e+00" cType="1" res="-1.1660153977572918e-03" rms="4.5932543277740479e-01" purity="3.9551097154617310e-01" nType="-99"/>
        </Node>
      </Node>
    </BinaryTree>
    <BinaryTree type="DecisionTree" boostWeight="1.0000000000000000e+00" itree="372">
      <Node pos="s" depth="0" NCoef="0" IVar="1" Cut="9.4222575426101685e-01" cType="1" res="1.4929669909179211e-02" rms="4.6262151002883911e-01" purity="5.0670546293258667e-01" nType="0">
        <Node pos="l" depth="1" NCoef="0" IVar="2" Cut="6.2465740966796875e+02" cType="1" res="-1.8858473747968674e-02" rms="4.6047520637512207e-01" purity="3.7721896171569824e-01" nType="0">
          <Node pos="l" depth="2" NCoef="0" IVar="-1" Cut="0.0000000000000000e+00" cType="1" res="-8.6031830869615078e-04" rms="4.5384803414344788e-01" purity="3.3251073956489563e-01" nType="-99"/>
          <Node pos="r" depth="2" NCoef="0" IVar="-1" Cut="0.0000000000000000e+00" cType="1" res="8.4246019832789898e-04" rms="4.8523071408271790e-01" purity="5.9906351566314697e-01" nType="-99"/>
        </Node>
        <Node pos="r" depth="1" NCoef="0" IVar="2" Cut="3.3664035034179688e+02" cType="1" res="3.3142391592264175e-02" rms="4.6275213360786438e-01" purity="5.7650214433670044e-01" nType="0">
          <Node pos="l" depth="2" NCoef="0" IVar="-1" Cut="0.0000000000000000e+00" cType="1" res="-6.4575974829494953e-04" rms="4.5618388056755066e-01" purity="3.4860327839851379e-01" nType="-99"/>
          <Node pos="r" depth="2" NCoef="0" IVar="-1" Cut="0.0000000000000000e+00" cType="1" res="6.6560239065438509e-04" rms="4.6311202645301819e-01" purity="6.1429440975189209e-01" nType="-99"/>
        </Node>
      </Node>
    </BinaryTree>
    <BinaryTree type="DecisionTree" boostWeight="1.0000000000000000e+00" itree="373">
      <Node pos="s" depth="0" NCoef="0" IVar="2" Cut="5.1073913574218750e+02" cType="1" res="8.0365035682916641e-03" rms="4.6153026819229126e-01" purity="4.9848735332489014e-01" nType="0">
        <Node pos="l" depth="1" NCoef="0" IVar="3" Cut="1.4502853155136108e-03" cType="1" res="-1.0525131598114967e-02" rms="4.6039718389511108e-01" purity="4.2483443021774292e-01" nType="0">
          <Node pos="l" depth="2" NCoef="0" IVar="-1" Cut="0.0000000000000000e+00" cType="1" res="-8.5668457904830575e-04" rms="4.5243656635284424e-01" purity="3.8442921638488770e-01" nType="-99"/>
          <Node pos="r" depth="2" NCoef="0" IVar="-1" Cut="0.0000000000000000e+00" cType="1" res="2.6499305386096239e-04" rms="4.6610990166664124e-01" purity="4.6110212802886963e-01" nType="-99"/>
        </Node>
        <Node pos="r" depth="1" NCoef="0" IVar="0" Cut="6.5388441085815430e-02" cType="1" res="4.5088618993759155e-02" rms="4.6155691146850586e-01" purity="6.4551091194152832e-01" nType="0">
          <Node pos="l" depth="2" NCoef="0" IVar="-1" Cut="0.0000000000000000e+00" cType="1" res="9.3891503638587892e-05" rms="4.7480222582817078e-01" purity="5.9448760747909546e-01" nType="-99"/>
          <Node pos="r" depth="2" NCoef="0" IVar="-1" Cut="0.0000000000000000e+00" cType="1" res="1.3014049036428332e-03" rms="4.3907868862152100e-01" purity="7.1046692132949829e-01" nType="-99"/>
        </Node>
      </Node>
    </BinaryTree>
    <BinaryTree type="DecisionTree" boostWeight="1.0000000000000000e+00" itree="374">
      <Node pos="s" depth="0" NCoef="0" IVar="1" Cut="9.8452526330947876e-01" cType="1" res="1.4019998721778393e-02" rms="4.6213206648826599e-01" purity="5.0582832098007202e-01" nType="0">
        <Node pos="l" depth="1" NCoef="0" IVar="3" Cut="1.5645888447761536e-01" cType="1" res="4.3240380473434925e-03" rms="4.6901929378509521e-01" purity="4.7018542885780334e-01" nType="0">
          <Node pos="l" depth="2" NCoef="0" IVar="-1" Cut="0.0000000000000000e+00" cType="1" res="-1.3631154433824122e-04" rms="4.6665978431701660e-01" purity="4.5620590448379517e-01" nType="-99"/>
          <Node pos="r" depth="2" NCoef="0" IVar="-1" Cut="0.0000000000000000e+00" cType="1" res="9.1413740301504731e-04" rms="4.7598755359649658e-01" purity="5.3062647581100464e-01" nType="-99"/>
        </Node>
        <Node pos="r" depth="1" NCoef="0" IVar="-1" Cut="0.0000000000000000e+00" cType="1" res="1.2782012345269322e-03" rms="3.9134469628334045e-01" purity="8.0135732889175415e-01" nType="-99"/>
      </Node>
    </BinaryTree>
    <BinaryTree type="DecisionTree" boostWeight="1.0000000000000000e+00" itree="375">
      <Node pos="s" depth="0" NCoef="0" IVar="5" Cut="2.4281382751464844e+02" cType="1" res="1.3312501832842827e-02" rms="4.6475118398666382e-01" purity="5.0301653146743774e-01" nType="0">
        <Node pos="l" depth="1" NCoef="0" IVar="3" Cut="7.6753735542297363e-02" cType="1" res="-3.5293418914079666e-02" rms="4.3942520022392273e-01" purity="3.0691298842430115e-01" nType="0">
          <Node pos="l" depth="2" NCoef="0" IVar="-1" Cut="0.0000000000000000e+00" cType="1" res="-1.6521021025255322e-03" rms="4.2439562082290649e-01" purity="2.7927491068840027e-01" nType="-99"/>
          <Node pos="r" depth="2" NCoef="0" IVar="-1" Cut="0.0000000000000000e+00" cType="1" res="-5.5539963796036318e-05" rms="4.6328368782997131e-01" purity="3.5638713836669922e-01" nType="-99"/>
        </Node>
        <Node pos="r" depth="1" NCoef="0" IVar="0" Cut="1.4916029572486877e-01" cType="1" res="2.7066612616181374e-02" rms="4.7076085209846497e-01" purity="5.5850839614868164e-01" nType="0">
          <Node pos="l" depth="2" NCoef="0" IVar="-1" Cut="0.0000000000000000e+00" cType="1" res="2.2155790065880865e-04" rms="4.7263458371162415e-01" purity="5.4470980167388916e-01" nType="-99"/>
          <Node pos="r" depth="2" NCoef="0" IVar="-1" Cut="0.0000000000000000e+00" cType="1" res="1.3801899040117860e-03" rms="4.5632100105285645e-01" purity="6.2257194519042969e-01" nType="-99"/>
        </Node>
      </Node>
    </BinaryTree>
    <BinaryTree type="DecisionTree" boostWeight="1.0000000000000000e+00" itree="376">
      <Node pos="s" depth="0" NCoef="0" IVar="2" Cut="7.4148364257812500e+02" cType="1" res="8.0198440700769424e-03" rms="4.6303102374076843e-01" purity="4.9873790144920349e-01" nType="0">
        <Node pos="l" depth="1" NCoef="0" IVar="1" Cut="9.2125368118286133e-01" cType="1" res="-4.9081976612797007e-05" rms="4.6418112516403198e-01" purity="4.7881305217742920e-01" nType="0">
          <Node pos="l" depth="2" NCoef="0" IVar="-1" Cut="0.0000000000000000e+00" cType="1" res="-1.8646852113306522e-03" rms="4.4232913851737976e-01" purity="2.9752898216247559e-01" nType="-99"/>
          <Node pos="r" depth="2" NCoef="0" IVar="-1" Cut="0.0000000000000000e+00" cType="1" res="1.9617995712906122e-04" rms="4.6674239635467529e-01" purity="5.0837993621826172e-01" nType="-99"/>
        </Node>
        <Node pos="r" depth="1" NCoef="0" IVar="-1" Cut="0.0000000000000000e+00" cType="1" res="1.3066579122096300e-03" rms="4.4156879186630249e-01" purity="7.1077740192413330e-01" nType="-99"/>
      </Node>
    </BinaryTree>
    <BinaryTree type="DecisionTree" boostWeight="1.0000000000000000e+00" itree="377">
      <Node pos="s" depth="0" NCoef="0" IVar="6" Cut="2.8161871433258057e+00" cType="1" res="1.3712409883737564e-02" rms="4.6376729011535645e-01" purity="5.0393372774124146e-01" nType="0">
        <Node pos="l" depth="1" NCoef="0" IVar="2" Cut="5.7994335937500000e+02" cType="1" res="1.9710995256900787e-02" rms="4.6530073881149292e-01" purity="5.1859766244888306e-01" nType="0">
          <Node pos="l" depth="2" NCoef="0" IVar="-1" Cut="0.0000000000000000e+00" cType="1" res="1.4854356413707137e-04" rms="4.6761059761047363e-01" purity="4.7378972172737122e-01" nType="-99"/>
          <Node pos="r" depth="2" NCoef="0" IVar="-1" Cut="0.0000000000000000e+00" cType="1" res="8.9929293608292937e-04" rms="4.5438972115516663e-01" purity="6.7898166179656982e-01" nType="-99"/>
        </Node>
        <Node pos="r" depth="1" NCoef="0" IVar="-1" Cut="0.0000000000000000e+00" cType="1" res="-2.3739580065011978e-03" rms="4.2978021502494812e-01" purity="2.8188693523406982e-01" nType="-99"/>
      </Node>
    </BinaryTree>
    <BinaryTree type="DecisionTree" boostWeight="1.0000000000000000e+00" itree="378">
      <Node pos="s" depth="0" NCoef="0" IVar="2" Cut="4.3615136718750000e+02" cType="1" res="1.0790622793138027e-02" rms="4.6240416169166565e-01" purity="5.0174605846405029e-01" nType="0">
        <Node pos="l" depth="1" NCoef="0" IVar="5" Cut="2.5810858154296875e+02" cType="1" res="-1.4371765777468681e-02" rms="4.5523643493652344e-01" purity="3.7864506244659424e-01" nType="0">
          <Node pos="l" depth="2" NCoef="0" IVar="-1" Cut="0.0000000000000000e+00" cType="1" res="-9.2932657571509480e-04" rms="4.4112804532051086e-01" purity="3.1788939237594604e-01" nType="-99"/>
          <Node pos="r" depth="2" NCoef="0" IVar="-1" Cut="0.0000000000000000e+00" cType="1" res="2.4873073562048376e-04" rms="4.7312021255493164e-01" purity="4.6452024579048157e-01" nType="-99"/>
        </Node>
        <Node pos="r" depth="1" NCoef="0" IVar="0" Cut="8.7310217320919037e-02" cType="1" res="3.3572047948837280e-02" rms="4.6763277053833008e-01" purity="6.1319875717163086e-01" nType="0">
          <Node pos="l" depth="2" NCoef="0" IVar="-1" Cut="0.0000000000000000e+00" cType="1" res="9.2119502369314432e-05" rms="4.7403627634048462e-01" purity="5.7967531681060791e-01" nType="-99"/>
          <Node pos="r" depth="2" NCoef="0" IVar="-1" Cut="0.0000000000000000e+00" cType="1" res="1.1693204287439585e-03" rms="4.5208501815795898e-01" purity="6.7188674211502075e-01" nType="-99"/>
        </Node>
      </Node>
    </BinaryTree>
    <BinaryTree type="DecisionTree" boostWeight="1.0000000000000000e+00" itree="379">
      <Node pos="s" depth="0" NCoef="0" IVar="2" Cut="6.0937701416015625e+02" cType="1" res="9.1768922284245491e-03" rms="4.6255126595497131e-01" purity="4.9964240193367004e-01" nType="0">
        <Node pos="l" depth="1" NCoef="0" IVar="1" Cut="9.2803066968917847e-01" cType="1" res="-3.0028966721147299e-03" rms="4.6362382173538208e-01" purity="4.6004971861839294e-01" nType="0">
          <Node pos="l" depth="2" NCoef="0" IVar="-1" Cut="0.0000000000000000e+00" cType="1" res="-1.5474772080779076e-03" rms="4.4040536880493164e-01" purity="2.9383829236030579e-01" nType="-99"/>
          <Node pos="r" depth="2" NCoef="0" IVar="-1" Cut="0.0000000000000000e+00" cType="1" res="1.7984498117584735e-04" rms="4.6824991703033447e-01" purity="5.0082606077194214e-01" nType="-99"/>
        </Node>
        <Node pos="r" depth="1" NCoef="0" IVar="0" Cut="4.1347809135913849e-02" cType="1" res="6.3925251364707947e-02" rms="4.5367848873138428e-01" purity="6.7761236429214478e-01" nType="0">
          <Node pos="l" depth="2" NCoef="0" IVar="-1" Cut="0.0000000000000000e+00" cType="1" res="2.7882025460712612e-04" rms="4.7222644090652466e-01" purity="6.1600941419601440e-01" nType="-99"/>
          <Node pos="r" depth="2" NCoef="0" IVar="-1" Cut="0.0000000000000000e+00" cType="1" res="1.3936778996139765e-03" rms="4.3432986736297607e-01" purity="7.2797805070877075e-01" nType="-99"/>
        </Node>
      </Node>
    </BinaryTree>
    <BinaryTree type="DecisionTree" boostWeight="1.0000000000000000e+00" itree="380">
      <Node pos="s" depth="0" NCoef="0" IVar="3" Cut="3.9581947028636932e-02" cType="1" res="9.4116292893886566e-03" rms="4.6406051516532898e-01" purity="4.9851113557815552e-01" nType="0">
        <Node pos="l" depth="1" NCoef="0" IVar="4" Cut="1.3585573434829712e-01" cType="1" res="-1.0646859183907509e-02" rms="4.6018403768539429e-01" purity="4.7097641229629517e-01" nType="0">
          <Node pos="l" depth="2" NCoef="0" IVar="-1" Cut="0.0000000000000000e+00" cType="1" res="-2.5510385967209004e-05" rms="4.6051415801048279e-01" purity="4.8182666301727295e-01" nType="-99"/>
          <Node pos="r" depth="2" NCoef="0" IVar="-1" Cut="0.0000000000000000e+00" cType="1" res="-2.5200110394507647e-03" rms="4.4668403267860413e-01" purity="3.6418426036834717e-01" nType="-99"/>
        </Node>
        <Node pos="r" depth="1" NCoef="0" IVar="3" Cut="2.3784875869750977e-01" cType="1" res="3.6516051739454269e-02" rms="4.6788373589515686e-01" purity="5.3571790456771851e-01" nType="0">
          <Node pos="l" depth="2" NCoef="0" IVar="-1" Cut="0.0000000000000000e+00" cType="1" res="4.8889237223193049e-04" rms="4.6827134490013123e-01" purity="5.2710300683975220e-01" nType="-99"/>
          <Node pos="r" depth="2" NCoef="0" IVar="-1" Cut="0.0000000000000000e+00" cType="1" res="1.4315037988126278e-03" rms="4.6207946538925171e-01" purity="5.8783555030822754e-01" nType="-99"/>
        </Node>
      </Node>
    </BinaryTree>
    <BinaryTree type="DecisionTree" boostWeight="1.0000000000000000e+00" itree="381">
      <Node pos="s" depth="0" NCoef="0" IVar="2" Cut="5.6825250244140625e+02" cType="1" res="1.0279365815222263e-02" rms="4.6223855018615723e-01" purity="5.0157362222671509e-01" nType="0">
        <Node pos="l" depth="1" NCoef="0" IVar="1" Cut="9.8112815618515015e-01" cType="1" res="-4.0928856469690800e-03" rms="4.6280533075332642e-01" purity="4.5048049092292786e-01" nType="0">
          <Node pos="l" depth="2" NCoef="0" IVar="-1" Cut="0.0000000000000000e+00" cType="1" res="-2.9508679290302098e-04" rms="4.6754562854766846e-01" purity="4.0559798479080200e-01" nType="-99"/>
          <Node pos="r" depth="2" NCoef="0" IVar="-1" Cut="0.0000000000000000e+00" cType="1" res="8.3261699182912707e-04" rms="4.2508456110954285e-01" purity="7.4404388666152954e-01" nType="-99"/>
        </Node>
        <Node pos="r" depth="1" NCoef="0" IVar="0" Cut="6.9301702082157135e-02" cType="1" res="5.7005275040864944e-02" rms="4.5728000998497009e-01" purity="6.6768336296081543e-01" nType="0">
          <Node pos="l" depth="2" NCoef="0" IVar="-1" Cut="0.0000000000000000e+00" cType="1" res="3.5323246265761554e-04" rms="4.7055557370185852e-01" purity="6.2294656038284302e-01" nType="-99"/>
          <Node pos="r" depth="2" NCoef="0" IVar="-1" Cut="0.0000000000000000e+00" cType="1" res="1.5699412906542420e-03" rms="4.2586869001388550e-01" purity="7.4754083156585693e-01" nType="-99"/>
        </Node>
      </Node>
    </BinaryTree>
    <BinaryTree type="DecisionTree" boostWeight="1.0000000000000000e+00" itree="382">
      <Node pos="s" depth="0" NCoef="0" IVar="1" Cut="9.8437088727951050e-01" cType="1" res="1.0894019156694412e-02" rms="4.6451628208160400e-01" purity="4.9941164255142212e-01" nType="0">
        <Node pos="l" depth="1" NCoef="0" IVar="3" Cut="-1.2573754787445068e-01" cType="1" res="3.0995823908597231e-03" rms="4.7063279151916504e-01" purity="4.6597090363502502e-01" nType="0">
          <Node pos="l" depth="2" NCoef="0" IVar="-1" Cut="0.0000000000000000e+00" cType="1" res="-1.8280198564752936e-03" rms="4.4804579019546509e-01" purity="3.7244817614555359e-01" nType="-99"/>
          <Node pos="r" depth="2" NCoef="0" IVar="-1" Cut="0.0000000000000000e+00" cType="1" res="1.6792029782664031e-04" rms="4.7168150544166565e-01" purity="4.7266122698783875e-01" nType="-99"/>
        </Node>
        <Node pos="r" depth="1" NCoef="0" IVar="-1" Cut="0.0000000000000000e+00" cType="1" res="1.0693983640521765e-03" rms="4.0248948335647583e-01" purity="7.8489995002746582e-01" nType="-99"/>
      </Node>
    </BinaryTree>
    <BinaryTree type="DecisionTree" boostWeight="1.0000000000000000e+00" itree="383">
      <Node pos="s" depth="0" NCoef="0" IVar="1" Cut="9.8430716991424561e-01" cType="1" res="1.2049574404954910e-02" rms="4.6190673112869263e-01" purity="5.0471764802932739e-01" nType="0">
        <Node pos="l" depth="1" NCoef="0" IVar="3" Cut="5.9975590556859970e-02" cType="1" res="2.5322258006781340e-03" rms="4.6880161762237549e-01" purity="4.6816119551658630e-01" nType="0">
          <Node pos="l" depth="2" NCoef="0" IVar="-1" Cut="0.0000000000000000e+00" cType="1" res="-3.5656907130032778e-04" rms="4.6487641334533691e-01" purity="4.4020709395408630e-01" nType="-99"/>
          <Node pos="r" depth="2" NCoef="0" IVar="-1" Cut="0.0000000000000000e+00" cType="1" res="6.1278132488951087e-04" rms="4.7318372130393982e-01" purity="5.1251929998397827e-01" nType="-99"/>
        </Node>
        <Node pos="r" depth="1" NCoef="0" IVar="-1" Cut="0.0000000000000000e+00" cType="1" res="1.2003292795270681e-03" rms="3.9428502321243286e-01" purity="7.9734498262405396e-01" nType="-99"/>
      </Node>
    </BinaryTree>
    <BinaryTree type="DecisionTree" boostWeight="1.0000000000000000e+00" itree="384">
      <Node pos="s" depth="0" NCoef="0" IVar="1" Cut="9.4268727302551270e-01" cType="1" res="8.4408447146415710e-03" rms="4.6203923225402832e-01" purity="4.9926820397377014e-01" nType="0">
        <Node pos="l" depth="1" NCoef="0" IVar="3" Cut="9.5955178141593933e-02" cType="1" res="-2.6449408382177353e-02" rms="4.5954462885856628e-01" purity="3.6653912067413330e-01" nType="0">
          <Node pos="l" depth="2" NCoef="0" IVar="-1" Cut="0.0000000000000000e+00" cType="1" res="-1.0835680877789855e-03" rms="4.5136231184005737e-01" purity="3.4186953306198120e-01" nType="-99"/>
          <Node pos="r" depth="2" NCoef="0" IVar="-1" Cut="0.0000000000000000e+00" cType="1" res="2.2011587861925364e-04" rms="4.7462528944015503e-01" purity="4.1986396908760071e-01" nType="-99"/>
        </Node>
        <Node pos="r" depth="1" NCoef="0" IVar="6" Cut="2.6564533710479736e+00" cType="1" res="2.8081739321351051e-02" rms="4.6228063106536865e-01" purity="5.7398593425750732e-01" nType="0">
          <Node pos="l" depth="2" NCoef="0" IVar="-1" Cut="0.0000000000000000e+00" cType="1" res="5.8323086705058813e-04" rms="4.6170717477798462e-01" purity="5.9606105089187622e-01" nType="-99"/>
          <Node pos="r" depth="2" NCoef="0" IVar="-1" Cut="0.0000000000000000e+00" cType="1" res="-1.0320461587980390e-03" rms="4.6088707447052002e-01" purity="3.8021501898765564e-01" nType="-99"/>
        </Node>
      </Node>
    </BinaryTree>
    <BinaryTree type="DecisionTree" boostWeight="1.0000000000000000e+00" itree="385">
      <Node pos="s" depth="0" NCoef="0" IVar="1" Cut="9.4265216588973999e-01" cType="1" res="6.7336289212107658e-03" rms="4.6250027418136597e-01" purity="4.9752748012542725e-01" nType="0">
        <Node pos="l" depth="1" NCoef="0" IVar="5" Cut="2.3750094604492188e+02" cType="1" res="-2.5985015556216240e-02" rms="4.5953819155693054e-01" purity="3.6826783418655396e-01" nType="0">
          <Node pos="l" depth="2" NCoef="0" IVar="-1" Cut="0.0000000000000000e+00" cType="1" res="-3.8320326711982489e-03" rms="3.7050044536590576e-01" purity="1.7154309153556824e-01" nType="-99"/>
          <Node pos="r" depth="2" NCoef="0" IVar="-1" Cut="0.0000000000000000e+00" cType="1" res="-2.1850943448953331e-04" rms="4.8036175966262817e-01" purity="4.2318561673164368e-01" nType="-99"/>
        </Node>
        <Node pos="r" depth="1" NCoef="0" IVar="3" Cut="-1.1476057767868042e-01" cType="1" res="2.5266062468290329e-02" rms="4.6314540505409241e-01" purity="5.7074254751205444e-01" nType="0">
          <Node pos="l" depth="2" NCoef="0" IVar="-1" Cut="0.0000000000000000e+00" cType="1" res="-1.0389586677774787e-03" rms="4.6181347966194153e-01" purity="4.7098720073699951e-01" nType="-99"/>
          <Node pos="r" depth="2" NCoef="0" IVar="-1" Cut="0.0000000000000000e+00" cType="1" res="5.5184651864692569e-04" rms="4.6249613165855408e-01" purity="5.8161342144012451e-01" nType="-99"/>
        </Node>
      </Node>
    </BinaryTree>
    <BinaryTree type="DecisionTree" boostWeight="1.0000000000000000e+00" itree="386">
      <Node pos="s" depth="0" NCoef="0" IVar="6" Cut="2.2349927425384521e+00" cType="1" res="1.3524431735277176e-02" rms="4.6280878782272339e-01" purity="5.0472438335418701e-01" nType="0">
        <Node pos="l" depth="1" NCoef="0" IVar="5" Cut="2.7049621582031250e+02" cType="1" res="3.5393048077821732e-02" rms="4.6401464939117432e-01" purity="5.5773806571960449e-01" nType="0">
          <Node pos="l" depth="2" NCoef="0" IVar="-1" Cut="0.0000000000000000e+00" cType="1" res="9.5266392463599914e-07" rms="4.6546852588653564e-01" purity="4.0284517407417297e-01" nType="-99"/>
          <Node pos="r" depth="2" NCoef="0" IVar="-1" Cut="0.0000000000000000e+00" cType="1" res="7.9617556184530258e-04" rms="4.6220743656158447e-01" purity="6.3762712478637695e-01" nType="-99"/>
        </Node>
        <Node pos="r" depth="1" NCoef="0" IVar="4" Cut="1.0615816712379456e-01" cType="1" res="-1.1827144771814346e-02" rms="4.6010786294937134e-01" purity="4.4326734542846680e-01" nType="0">
          <Node pos="l" depth="2" NCoef="0" IVar="-1" Cut="0.0000000000000000e+00" cType="1" res="7.3454233643133193e-05" rms="4.6078047156333923e-01" purity="4.6378096938133240e-01" nType="-99"/>
          <Node pos="r" depth="2" NCoef="0" IVar="-1" Cut="0.0000000000000000e+00" cType="1" res="-1.8036076799035072e-03" rms="4.5229247212409973e-01" purity="3.6268100142478943e-01" nType="-99"/>
        </Node>
      </Node>
    </BinaryTree>
    <BinaryTree type="DecisionTree" boostWeight="1.0000000000000000e+00" itree="387">
      <Node pos="s" depth="0" NCoef="0" IVar="2" Cut="3.3664035034179688e+02" cType="1" res="9.3714734539389610e-03" rms="4.6185341477394104e-01" purity="4.9936860799789429e-01" nType="0">
        <Node pos="l" depth="1" NCoef="0" IVar="6" Cut="2.1686985492706299e+00" cType="1" res="-4.7573737800121307e-02" rms="4.1496774554252625e-01" purity="2.6872748136520386e-01" nType="0">
          <Node pos="l" depth="2" NCoef="0" IVar="-1" Cut="0.0000000000000000e+00" cType="1" res="-1.1533431461430155e-05" rms="4.5028212666511536e-01" purity="3.4527361392974854e-01" nType="-99"/>
          <Node pos="r" depth="2" NCoef="0" IVar="-1" Cut="0.0000000000000000e+00" cType="1" res="-3.0853783246129751e-03" rms="3.8611009716987610e-01" purity="2.1709947288036346e-01" nType="-99"/>
        </Node>
        <Node pos="r" depth="1" NCoef="0" IVar="3" Cut="1.8199725449085236e-01" cType="1" res="1.9730158150196075e-02" rms="4.6913710236549377e-01" purity="5.4132366180419922e-01" nType="0">
          <Node pos="l" depth="2" NCoef="0" IVar="-1" Cut="0.0000000000000000e+00" cType="1" res="1.7422335804440081e-04" rms="4.6901801228523254e-01" purity="5.2997618913650513e-01" nType="-99"/>
          <Node pos="r" depth="2" NCoef="0" IVar="-1" Cut="0.0000000000000000e+00" cType="1" res="1.2054647086188197e-03" rms="4.6560397744178772e-01" purity="6.0933840274810791e-01" nType="-99"/>
        </Node>
      </Node>
    </BinaryTree>
    <BinaryTree type="DecisionTree" boostWeight="1.0000000000000000e+00" itree="388">
      <Node pos="s" depth="0" NCoef="0" IVar="4" Cut="2.6217415928840637e-02" cType="1" res="1.5181882306933403e-02" rms="4.6492782235145569e-01" purity="5.0502473115921021e-01" nType="0">
        <Node pos="l" depth="1" NCoef="0" IVar="5" Cut="2.8035348510742188e+02" cType="1" res="3.4424461424350739e-02" rms="4.6286991238594055e-01" purity="5.2884501218795776e-01" nType="0">
          <Node pos="l" depth="2" NCoef="0" IVar="-1" Cut="0.0000000000000000e+00" cType="1" res="4.7421104682143778e-05" rms="4.5898967981338501e-01" purity="3.9437928795814514e-01" nType="-99"/>
          <Node pos="r" depth="2" NCoef="0" IVar="-1" Cut="0.0000000000000000e+00" cType="1" res="8.7144970893859863e-04" rms="4.6426573395729065e-01" purity="6.2710118293762207e-01" nType="-99"/>
        </Node>
        <Node pos="r" depth="1" NCoef="0" IVar="3" Cut="1.7796798050403595e-01" cType="1" res="-9.7250966355204582e-03" rms="4.6640071272850037e-01" purity="4.7419244050979614e-01" nType="0">
          <Node pos="l" depth="2" NCoef="0" IVar="-1" Cut="0.0000000000000000e+00" cType="1" res="-7.6378078665584326e-04" rms="4.6363243460655212e-01" purity="4.3995270133018494e-01" nType="-99"/>
          <Node pos="r" depth="2" NCoef="0" IVar="-1" Cut="0.0000000000000000e+00" cType="1" res="8.8971707737073302e-04" rms="4.6672475337982178e-01" purity="5.5288863182067871e-01" nType="-99"/>
        </Node>
      </Node>
    </BinaryTree>
    <BinaryTree type="DecisionTree" boostWeight="1.0000000000000000e+00" itree="389">
      <Node pos="s" depth="0" NCoef="0" IVar="6" Cut="2.2978558540344238e+00" cType="1" res="8.2984594628214836e-03" rms="4.6416625380516052e-01" purity="4.9856147170066833e-01" nType="0">
        <Node pos="l" depth="1" NCoef="0" IVar="1" Cut="9.7547841072082520e-01" cType="1" res="2.6230376213788986e-02" rms="4.6519434452056885e-01" purity="5.4729360342025757e-01" nType="0">
          <Node pos="l" depth="2" NCoef="0" IVar="-1" Cut="0.0000000000000000e+00" cType="1" res="2.4270408903248608e-04" rms="4.7777479887008667e-01" purity="4.9056375026702881e-01" nType="-99"/>
          <Node pos="r" depth="2" NCoef="0" IVar="-1" Cut="0.0000000000000000e+00" cType="1" res="1.0905031813308597e-03" rms="4.0618166327476501e-01" purity="7.7725732326507568e-01" nType="-99"/>
        </Node>
        <Node pos="r" depth="1" NCoef="0" IVar="4" Cut="7.6460599899291992e-02" cType="1" res="-2.1223077550530434e-02" rms="4.6095162630081177e-01" purity="4.1833317279815674e-01" nType="0">
          <Node pos="l" depth="2" NCoef="0" IVar="-1" Cut="0.0000000000000000e+00" cType="1" res="-4.3419247958809137e-05" rms="4.6203374862670898e-01" purity="4.4530290365219116e-01" nType="-99"/>
          <Node pos="r" depth="2" NCoef="0" IVar="-1" Cut="0.0000000000000000e+00" cType="1" res="-1.5699475770816207e-03" rms="4.5560950040817261e-01" purity="3.5780540108680725e-01" nType="-99"/>
        </Node>
      </Node>
    </BinaryTree>
    <BinaryTree type="DecisionTree" boostWeight="1.0000000000000000e+00" itree="390">
      <Node pos="s" depth="0" NCoef="0" IVar="3" Cut="1.8541379272937775e-01" cType="1" res="1.2371568009257317e-02" rms="4.6385344862937927e-01" purity="5.0312221050262451e-01" nType="0">
        <Node pos="l" depth="1" NCoef="0" IVar="4" Cut="4.4448371976613998e-02" cType="1" res="3.1846456695348024e-03" rms="4.6312707662582397e-01" purity="4.9180221557617188e-01" nType="0">
          <Node pos="l" depth="2" NCoef="0" IVar="-1" Cut="0.0000000000000000e+00" cType="1" res="4.0958382305689156e-04" rms="4.6236130595207214e-01" purity="5.1706075668334961e-01" nType="-99"/>
          <Node pos="r" depth="2" NCoef="0" IVar="-1" Cut="0.0000000000000000e+00" cType="1" res="-9.6583273261785507e-04" rms="4.6143314242362976e-01" purity="4.2919358611106873e-01" nType="-99"/>
        </Node>
        <Node pos="r" depth="1" NCoef="0" IVar="3" Cut="2.3454082012176514e-01" cType="1" res="7.0242837071418762e-02" rms="4.6424210071563721e-01" purity="5.7443058490753174e-01" nType="0">
          <Node pos="l" depth="2" NCoef="0" IVar="-1" Cut="0.0000000000000000e+00" cType="1" res="7.7957997564226389e-04" rms="4.6844315528869629e-01" purity="5.5174070596694946e-01" nType="-99"/>
          <Node pos="r" depth="2" NCoef="0" IVar="-1" Cut="0.0000000000000000e+00" cType="1" res="1.5110071981325746e-03" rms="4.5826557278633118e-01" purity="5.9896236658096313e-01" nType="-99"/>
        </Node>
      </Node>
    </BinaryTree>
    <BinaryTree type="DecisionTree" boostWeight="1.0000000000000000e+00" itree="391">
      <Node pos="s" depth="0" NCoef="0" IVar="1" Cut="9.8436862230300903e-01" cType="1" res="1.3082974590361118e-02" rms="4.6260967850685120e-01" purity="5.0403320789337158e-01" nType="0">
        <Node pos="l" depth="1" NCoef="0" IVar="5" Cut="2.2647901916503906e+02" cType="1" res="4.8420527018606663e-03" rms="4.6910423040390015e-01" purity="4.6988752484321594e-01" nType="0">
          <Node pos="l" depth="2" NCoef="0" IVar="-1" Cut="0.0000000000000000e+00" cType="1" res="-1.4456826029345393e-03" rms="4.2691436409950256e-01" purity="2.6283943653106689e-01" nType="-99"/>
          <Node pos="r" depth="2" NCoef="0" IVar="-1" Cut="0.0000000000000000e+00" cType="1" res="2.5340993306599557e-04" rms="4.7629487514495850e-01" purity="5.1018291711807251e-01" nType="-99"/>
        </Node>
        <Node pos="r" depth="1" NCoef="0" IVar="-1" Cut="0.0000000000000000e+00" cType="1" res="1.1398585047572851e-03" rms="3.9681339263916016e-01" purity="7.9252761602401733e-01" nType="-99"/>
      </Node>
    </BinaryTree>
    <BinaryTree type="DecisionTree" boostWeight="1.0000000000000000e+00" itree="392">
      <Node pos="s" depth="0" NCoef="0" IVar="1" Cut="9.3370085954666138e-01" cType="1" res="8.8457465171813965e-03" rms="4.6190264821052551e-01" purity="4.9986872076988220e-01" nType="0">
        <Node pos="l" depth="1" NCoef="0" IVar="0" Cut="9.6450962126255035e-02" cType="1" res="-3.6315668374300003e-02" rms="4.5456084609031677e-01" purity="3.4562838077545166e-01" nType="0">
          <Node pos="l" depth="2" NCoef="0" IVar="-1" Cut="0.0000000000000000e+00" cType="1" res="-1.3148466823622584e-03" rms="4.5572996139526367e-01" purity="3.4287223219871521e-01" nType="-99"/>
          <Node pos="r" depth="2" NCoef="0" IVar="-1" Cut="0.0000000000000000e+00" cType="1" res="-2.2830530360806733e-04" rms="4.5141267776489258e-01" purity="3.4992542862892151e-01" nType="-99"/>
        </Node>
        <Node pos="r" depth="1" NCoef="0" IVar="2" Cut="5.6980273437500000e+02" cType="1" res="2.4043291807174683e-02" rms="4.6335837244987488e-01" purity="5.5177307128906250e-01" nType="0">
          <Node pos="l" depth="2" NCoef="0" IVar="-1" Cut="0.0000000000000000e+00" cType="1" res="1.8600113980937749e-04" rms="4.6898040175437927e-01" purity="5.0272989273071289e-01" nType="-99"/>
          <Node pos="r" depth="2" NCoef="0" IVar="-1" Cut="0.0000000000000000e+00" cType="1" res="9.7140611615031958e-04" rms="4.4209638237953186e-01" purity="7.0805799961090088e-01" nType="-99"/>
        </Node>
      </Node>
    </BinaryTree>
    <BinaryTree type="DecisionTree" boostWeight="1.0000000000000000e+00" itree="393">
      <Node pos="s" depth="0" NCoef="0" IVar="2" Cut="4.9446026611328125e+02" cType="1" res="9.7472136840224266e-03" rms="4.6352910995483398e-01" purity="5.0052523612976074e-01" nType="0">
        <Node pos="l" depth="1" NCoef="0" IVar="3" Cut="-1.0830935835838318e-01" cType="1" res="-5.4939649999141693e-03" rms="4.6299150586128235e-01" purity="4.2216324806213379e-01" nType="0">
          <Node pos="l" depth="2" NCoef="0" IVar="-1" Cut="0.0000000000000000e+00" cType="1" res="-1.6253903741016984e-03" rms="4.3941155076026917e-01" purity="3.3617535233497620e-01" nType="-99"/>
          <Node pos="r" depth="2" NCoef="0" IVar="-1" Cut="0.0000000000000000e+00" cType="1" res="4.6137793106026947e-05" rms="4.6554565429687500e-01" purity="4.3377739191055298e-01" nType="-99"/>
        </Node>
        <Node pos="r" depth="1" NCoef="0" IVar="0" Cut="5.7610351592302322e-02" cType="1" res="3.6048837006092072e-02" rms="4.6327763795852661e-01" purity="6.3575398921966553e-01" nType="0">
          <Node pos="l" depth="2" NCoef="0" IVar="-1" Cut="0.0000000000000000e+00" cType="1" res="-3.2771087717264891e-05" rms="4.7561752796173096e-01" purity="5.8372908830642700e-01" nType="-99"/>
          <Node pos="r" depth="2" NCoef="0" IVar="-1" Cut="0.0000000000000000e+00" cType="1" res="1.0316550033167005e-03" rms="4.4816753268241882e-01" purity="6.8544101715087891e-01" nType="-99"/>
        </Node>
      </Node>
    </BinaryTree>
    <BinaryTree type="DecisionTree" boostWeight="1.0000000000000000e+00" itree="394">
      <Node pos="s" depth="0" NCoef="0" IVar="3" Cut="2.0342864096164703e-01" cType="1" res="1.3492517173290253e-02" rms="4.6431943774223328e-01" purity="5.0295197963714600e-01" nType="0">
        <Node pos="l" depth="1" NCoef="0" IVar="4" Cut="2.8125893324613571e-02" cType="1" res="5.4533639922738075e-03" rms="4.6340656280517578e-01" purity="4.9360847473144531e-01" nType="0">
          <Node pos="l" depth="2" NCoef="0" IVar="-1" Cut="0.0000000000000000e+00" cType="1" res="5.0965655827894807e-04" rms="4.6169993281364441e-01" purity="5.2406156063079834e-01" nType="-99"/>
          <Node pos="r" depth="2" NCoef="0" IVar="-1" Cut="0.0000000000000000e+00" cType="1" res="-7.5165159069001675e-04" rms="4.6350386738777161e-01" purity="4.3890368938446045e-01" nType="-99"/>
        </Node>
        <Node pos="r" depth="1" NCoef="0" IVar="-1" Cut="0.0000000000000000e+00" cType="1" res="1.2775112409144640e-03" rms="4.6656370162963867e-01" purity="5.7888048887252808e-01" nType="-99"/>
      </Node>
    </BinaryTree>
    <BinaryTree type="DecisionTree" boostWeight="1.0000000000000000e+00" itree="395">
      <Node pos="s" depth="0" NCoef="0" IVar="2" Cut="5.9811975097656250e+02" cType="1" res="1.1294812895357609e-02" rms="4.6345674991607666e-01" purity="5.0255513191223145e-01" nType="0">
        <Node pos="l" depth="1" NCoef="0" IVar="0" Cut="1.2973082065582275e-01" cType="1" res="-5.7424267288297415e-04" rms="4.6469765901565552e-01" purity="4.6070033311843872e-01" nType="0">
          <Node pos="l" depth="2" NCoef="0" IVar="-1" Cut="0.0000000000000000e+00" cType="1" res="-3.1684778514318168e-04" rms="4.6388715505599976e-01" purity="4.4614043831825256e-01" nType="-99"/>
          <Node pos="r" depth="2" NCoef="0" IVar="-1" Cut="0.0000000000000000e+00" cType="1" res="6.2857847660779953e-04" rms="4.6469765901565552e-01" purity="4.9400055408477783e-01" nType="-99"/>
        </Node>
        <Node pos="r" depth="1" NCoef="0" IVar="0" Cut="5.7610351592302322e-02" cType="1" res="5.9914737939834595e-02" rms="4.5511883497238159e-01" purity="6.7400717735290527e-01" nType="0">
          <Node pos="l" depth="2" NCoef="0" IVar="-1" Cut="0.0000000000000000e+00" cType="1" res="4.5449694152921438e-04" rms="4.7093075513839722e-01" purity="6.2879592180252075e-01" nType="-99"/>
          <Node pos="r" depth="2" NCoef="0" IVar="-1" Cut="0.0000000000000000e+00" cType="1" res="1.4149311464279890e-03" rms="4.2723768949508667e-01" purity="7.3970121145248413e-01" nType="-99"/>
        </Node>
      </Node>
    </BinaryTree>
    <BinaryTree type="DecisionTree" boostWeight="1.0000000000000000e+00" itree="396">
      <Node pos="s" depth="0" NCoef="0" IVar="1" Cut="9.8418521881103516e-01" cType="1" res="7.2798188775777817e-03" rms="4.6279120445251465e-01" purity="4.9870541691780090e-01" nType="0">
        <Node pos="l" depth="1" NCoef="0" IVar="3" Cut="2.0958574116230011e-01" cType="1" res="-2.4413515347987413e-03" rms="4.6954798698425293e-01" purity="4.6224865317344666e-01" nType="0">
          <Node pos="l" depth="2" NCoef="0" IVar="-1" Cut="0.0000000000000000e+00" cType="1" res="-2.0572743960656226e-04" rms="4.6810179948806763e-01" purity="4.5263078808784485e-01" nType="-99"/>
          <Node pos="r" depth="2" NCoef="0" IVar="-1" Cut="0.0000000000000000e+00" cType="1" res="1.1476308573037386e-03" rms="4.7638031840324402e-01" purity="5.4832834005355835e-01" nType="-99"/>
        </Node>
        <Node pos="r" depth="1" NCoef="0" IVar="-1" Cut="0.0000000000000000e+00" cType="1" res="1.1869012378156185e-03" rms="3.9488601684570312e-01" purity="7.9514592885971069e-01" nType="-99"/>
      </Node>
    </BinaryTree>
    <BinaryTree type="DecisionTree" boostWeight="1.0000000000000000e+00" itree="397">
      <Node pos="s" depth="0" NCoef="0" IVar="1" Cut="9.8408466577529907e-01" cType="1" res="1.3610107824206352e-02" rms="4.6266579627990723e-01" purity="5.0449329614639282e-01" nType="0">
        <Node pos="l" depth="1" NCoef="0" IVar="3" Cut="1.7446106672286987e-01" cType="1" res="5.7431808672845364e-03" rms="4.6910154819488525e-01" purity="4.7041118144989014e-01" nType="0">
          <Node pos="l" depth="2" NCoef="0" IVar="-1" Cut="0.0000000000000000e+00" cType="1" res="-6.9949011958669871e-05" rms="4.6606096625328064e-01" purity="4.5930665731430054e-01" nType="-99"/>
          <Node pos="r" depth="2" NCoef="0" IVar="-1" Cut="0.0000000000000000e+00" cType="1" res="9.7998557612299919e-04" rms="4.8229131102561951e-01" purity="5.3163713216781616e-01" nType="-99"/>
        </Node>
        <Node pos="r" depth="1" NCoef="0" IVar="-1" Cut="0.0000000000000000e+00" cType="1" res="1.0982208186760545e-03" rms="3.9862033724784851e-01" purity="7.9031687974929810e-01" nType="-99"/>
      </Node>
    </BinaryTree>
    <BinaryTree type="DecisionTree" boostWeight="1.0000000000000000e+00" itree="398">
      <Node pos="s" depth="0" NCoef="0" IVar="3" Cut="1.8087458610534668e-01" cType="1" res="8.3071598783135414e-03" rms="4.6276086568832397e-01" purity="5.0018262863159180e-01" nType="0">
        <Node pos="l" depth="1" NCoef="0" IVar="4" Cut="6.0347043909132481e-03" cType="1" res="-1.3080182252451777e-03" rms="4.6179836988449097e-01" purity="4.8854532837867737e-01" nType="0">
          <Node pos="l" depth="2" NCoef="0" IVar="-1" Cut="0.0000000000000000e+00" cType="1" res="4.3491253745742142e-04" rms="4.5985564589500427e-01" purity="5.2242273092269897e-01" nType="-99"/>
          <Node pos="r" depth="2" NCoef="0" IVar="-1" Cut="0.0000000000000000e+00" cType="1" res="-6.5730838105082512e-04" rms="4.6220517158508301e-01" purity="4.4773787260055542e-01" nType="-99"/>
        </Node>
        <Node pos="r" depth="1" NCoef="0" IVar="1" Cut="9.4836449623107910e-01" cType="1" res="6.5283097326755524e-02" rms="4.6435624361038208e-01" purity="5.6914085149765015e-01" nType="0">
          <Node pos="l" depth="2" NCoef="0" IVar="-1" Cut="0.0000000000000000e+00" cType="1" res="9.0217328397557139e-04" rms="4.7993406653404236e-01" purity="4.6486291289329529e-01" nType="-99"/>
          <Node pos="r" depth="2" NCoef="0" IVar="-1" Cut="0.0000000000000000e+00" cType="1" res="1.2010332429781556e-03" rms="4.4969373941421509e-01" purity="6.6058534383773804e-01" nType="-99"/>
        </Node>
      </Node>
    </BinaryTree>
    <BinaryTree type="DecisionTree" boostWeight="1.0000000000000000e+00" itree="399">
      <Node pos="s" depth="0" NCoef="0" IVar="1" Cut="9.2146539688110352e-01" cType="1" res="6.7911595106124878e-03" rms="4.6241477131843567e-01" purity="4.9810415506362915e-01" nType="0">
        <Node pos="l" depth="1" NCoef="0" IVar="0" Cut="9.1310285031795502e-02" cType="1" res="-5.4302014410495758e-02" rms="4.4653287529945374e-01" purity="3.2113754749298096e-01" nType="0">
          <Node pos="l" depth="2" NCoef="0" IVar="-1" Cut="0.0000000000000000e+00" cType="1" res="-2.2514006122946739e-03" rms="4.4167229533195496e-01" purity="3.0680364370346069e-01" nType="-99"/>
          <Node pos="r" depth="2" NCoef="0" IVar="-1" Cut="0.0000000000000000e+00" cType="1" res="-4.0578830521553755e-04" rms="4.5023003220558167e-01" purity="3.4056118130683899e-01" nType="-99"/>
        </Node>
        <Node pos="r" depth="1" NCoef="0" IVar="6" Cut="2.2998347282409668e+00" cType="1" res="1.6782563179731369e-02" rms="4.6419614553451538e-01" purity="5.2704590559005737e-01" nType="0">
          <Node pos="l" depth="2" NCoef="0" IVar="-1" Cut="0.0000000000000000e+00" cType="1" res="5.6961586233228445e-04" rms="4.6390372514724731e-01" purity="5.7482165098190308e-01" nType="-99"/>
          <Node pos="r" depth="2" NCoef="0" IVar="-1" Cut="0.0000000000000000e+00" cType="1" res="-2.7754253824241459e-04" rms="4.6310764551162720e-01" purity="4.4642409682273865e-01" nType="-99"/>
        </Node>
      </Node>
    </BinaryTree>
    <BinaryTree type="DecisionTree" boostWeight="1.0000000000000000e+00" itree="400">
      <Node pos="s" depth="0" NCoef="0" IVar="1" Cut="9.7514885663986206e-01" cType="1" res="6.2358058057725430e-03" rms="4.6075817942619324e-01" purity="4.9889791011810303e-01" nType="0">
        <Node pos="l" depth="1" NCoef="0" IVar="2" Cut="5.6980273437500000e+02" cType="1" res="-7.1409121155738831e-03" rms="4.6808767318725586e-01" purity="4.4038993120193481e-01" nType="0">
          <Node pos="l" depth="2" NCoef="0" IVar="-1" Cut="0.0000000000000000e+00" cType="1" res="-4.1310541564598680e-04" rms="4.6508342027664185e-01" purity="3.8943126797676086e-01" nType="-99"/>
          <Node pos="r" depth="2" NCoef="0" IVar="-1" Cut="0.0000000000000000e+00" cType="1" res="4.9736100481823087e-04" rms="4.7619140148162842e-01" purity="6.1680322885513306e-01" nType="-99"/>
        </Node>
        <Node pos="r" depth="1" NCoef="0" IVar="1" Cut="9.8491197824478149e-01" cType="1" res="6.0862161219120026e-02" rms="4.2518439888954163e-01" purity="7.3782640695571899e-01" nType="0">
          <Node pos="l" depth="2" NCoef="0" IVar="-1" Cut="0.0000000000000000e+00" cType="1" res="5.3251499775797129e-04" rms="4.5287454128265381e-01" purity="6.7761176824569702e-01" nType="-99"/>
          <Node pos="r" depth="2" NCoef="0" IVar="-1" Cut="0.0000000000000000e+00" cType="1" res="1.1622867314144969e-03" rms="3.9567494392395020e-01" purity="7.9502481222152710e-01" nType="-99"/>
        </Node>
      </Node>
    </BinaryTree>
    <BinaryTree type="DecisionTree" boostWeight="1.0000000000000000e+00" itree="401">
      <Node pos="s" depth="0" NCoef="0" IVar="3" Cut="2.2463533282279968e-01" cType="1" res="3.5967433359473944e-03" rms="4.6245625615119934e-01" purity="4.9433898925781250e-01" nType="0">
        <Node pos="l" depth="1" NCoef="0" IVar="4" Cut="6.4072925597429276e-03" cType="1" res="-3.8394827861338854e-03" rms="4.6139210462570190e-01" purity="4.8616820573806763e-01" nType="0">
          <Node pos="l" depth="2" NCoef="0" IVar="-1" Cut="0.0000000000000000e+00" cType="1" res="3.6528104101307690e-04" rms="4.6092274785041809e-01" purity="5.1660984754562378e-01" nType="-99"/>
          <Node pos="r" depth="2" NCoef="0" IVar="-1" Cut="0.0000000000000000e+00" cType="1" res="-5.9238495305180550e-04" rms="4.6050623059272766e-01" purity="4.5391726493835449e-01" nType="-99"/>
        </Node>
        <Node pos="r" depth="1" NCoef="0" IVar="-1" Cut="0.0000000000000000e+00" cType="1" res="1.4424469554796815e-03" rms="4.6597912907600403e-01" purity="5.9027683734893799e-01" nType="-99"/>
      </Node>
    </BinaryTree>
    <BinaryTree type="DecisionTree" boostWeight="1.0000000000000000e+00" itree="402">
      <Node pos="s" depth="0" NCoef="0" IVar="3" Cut="1.7997679114341736e-01" cType="1" res="9.3135256320238113e-03" rms="4.6270883083343506e-01" purity="5.0001764297485352e-01" nType="0">
        <Node pos="l" depth="1" NCoef="0" IVar="4" Cut="6.0946676880121231e-02" cType="1" res="-6.9718091981485486e-04" rms="4.6164777874946594e-01" purity="4.8753556609153748e-01" nType="0">
          <Node pos="l" depth="2" NCoef="0" IVar="-1" Cut="0.0000000000000000e+00" cType="1" res="2.7594860875979066e-04" rms="4.6144273877143860e-01" purity="5.0861847400665283e-01" nType="-99"/>
          <Node pos="r" depth="2" NCoef="0" IVar="-1" Cut="0.0000000000000000e+00" cType="1" res="-1.1331454152241349e-03" rms="4.5853021740913391e-01" purity="4.1884383559226990e-01" nType="-99"/>
        </Node>
        <Node pos="r" depth="1" NCoef="0" IVar="5" Cut="2.9809933471679688e+02" cType="1" res="6.6406272351741791e-02" rms="4.6460953354835510e-01" purity="5.7120519876480103e-01" nType="0">
          <Node pos="l" depth="2" NCoef="0" IVar="-1" Cut="0.0000000000000000e+00" cType="1" res="8.6855696281418204e-04" rms="4.7429427504539490e-01" purity="4.6528804302215576e-01" nType="-99"/>
          <Node pos="r" depth="2" NCoef="0" IVar="-1" Cut="0.0000000000000000e+00" cType="1" res="1.2383424909785390e-03" rms="4.5415332913398743e-01" purity="6.7319273948669434e-01" nType="-99"/>
        </Node>
      </Node>
    </BinaryTree>
    <BinaryTree type="DecisionTree" boostWeight="1.0000000000000000e+00" itree="403">
      <Node pos="s" depth="0" NCoef="0" IVar="2" Cut="7.3783959960937500e+02" cType="1" res="7.7989101409912109e-03" rms="4.6257367730140686e-01" purity="4.9872803688049316e-01" nType="0">
        <Node pos="l" depth="1" NCoef="0" IVar="1" Cut="9.8457849025726318e-01" cType="1" res="7.4606889393180609e-04" rms="4.6340009570121765e-01" purity="4.7999897599220276e-01" nType="0">
          <Node pos="l" depth="2" NCoef="0" IVar="-1" Cut="0.0000000000000000e+00" cType="1" res="-1.3601544196717441e-04" rms="4.6880054473876953e-01" purity="4.4629985094070435e-01" nType="-99"/>
          <Node pos="r" depth="2" NCoef="0" IVar="-1" Cut="0.0000000000000000e+00" cType="1" res="9.5428491476923227e-04" rms="4.0663090348243713e-01" purity="7.7726268768310547e-01" nType="-99"/>
        </Node>
        <Node pos="r" depth="1" NCoef="0" IVar="-1" Cut="0.0000000000000000e+00" cType="1" res="1.1906963773071766e-03" rms="4.4657766819000244e-01" purity="7.0039790868759155e-01" nType="-99"/>
      </Node>
    </BinaryTree>
    <BinaryTree type="DecisionTree" boostWeight="1.0000000000000000e+00" itree="404">
      <Node pos="s" depth="0" NCoef="0" IVar="2" Cut="3.0619714355468750e+02" cType="1" res="8.2722129300236702e-03" rms="4.6260899305343628e-01" purity="4.9932265281677246e-01" nType="0">
        <Node pos="l" depth="1" NCoef="0" IVar="-1" Cut="0.0000000000000000e+00" cType="1" res="-2.8109292034059763e-03" rms="3.9702507853507996e-01" purity="2.2224095463752747e-01" nType="-99"/>
        <Node pos="r" depth="1" NCoef="0" IVar="3" Cut="-1.2870538234710693e-01" cType="1" res="1.4654082246124744e-02" rms="4.6661242842674255e-01" purity="5.2043318748474121e-01" nType="0">
          <Node pos="l" depth="2" NCoef="0" IVar="-1" Cut="0.0000000000000000e+00" cType="1" res="-1.7586784670129418e-03" rms="4.5150029659271240e-01" purity="4.0783539414405823e-01" nType="-99"/>
          <Node pos="r" depth="2" NCoef="0" IVar="-1" Cut="0.0000000000000000e+00" cType="1" res="3.5951018799096346e-04" rms="4.6692377328872681e-01" purity="5.2739423513412476e-01" nType="-99"/>
        </Node>
      </Node>
    </BinaryTree>
    <BinaryTree type="DecisionTree" boostWeight="1.0000000000000000e+00" itree="405">
      <Node pos="s" depth="0" NCoef="0" IVar="1" Cut="9.3131434917449951e-01" cType="1" res="7.8731728717684746e-03" rms="4.6080803871154785e-01" purity="4.9968737363815308e-01" nType="0">
        <Node pos="l" depth="1" NCoef="0" IVar="0" Cut="8.7723217904567719e-02" cType="1" res="-3.8920924067497253e-02" rms="4.5230567455291748e-01" purity="3.4144461154937744e-01" nType="0">
          <Node pos="l" depth="2" NCoef="0" IVar="-1" Cut="0.0000000000000000e+00" cType="1" res="-1.6047584358602762e-03" rms="4.5215746760368347e-01" purity="3.3174899220466614e-01" nType="-99"/>
          <Node pos="r" depth="2" NCoef="0" IVar="-1" Cut="0.0000000000000000e+00" cType="1" res="-1.9081436039414257e-04" rms="4.5059382915496826e-01" purity="3.5375607013702393e-01" nType="-99"/>
        </Node>
        <Node pos="r" depth="1" NCoef="0" IVar="6" Cut="1.8512884378433228e+00" cType="1" res="2.1702570840716362e-02" rms="4.6238523721694946e-01" purity="5.4645395278930664e-01" nType="0">
          <Node pos="l" depth="2" NCoef="0" IVar="-1" Cut="0.0000000000000000e+00" cType="1" res="1.1460187379270792e-03" rms="4.4858148694038391e-01" purity="6.3264775276184082e-01" nType="-99"/>
          <Node pos="r" depth="2" NCoef="0" IVar="-1" Cut="0.0000000000000000e+00" cType="1" res="1.8471824296284467e-04" rms="4.6437516808509827e-01" purity="5.2871274948120117e-01" nType="-99"/>
        </Node>
      </Node>
    </BinaryTree>
    <BinaryTree type="DecisionTree" boostWeight="1.0000000000000000e+00" itree="406">
      <Node pos="s" depth="0" NCoef="0" IVar="2" Cut="5.6825250244140625e+02" cType="1" res="4.1081821545958519e-03" rms="4.6144911646842957e-01" purity="4.9552905559539795e-01" nType="0">
        <Node pos="l" depth="1" NCoef="0" IVar="1" Cut="9.7840815782546997e-01" cType="1" res="-9.7002759575843811e-03" rms="4.6217948198318481e-01" purity="4.4432333111763000e-01" nType="0">
          <Node pos="l" depth="2" NCoef="0" IVar="-1" Cut="0.0000000000000000e+00" cType="1" res="-4.1796069126576185e-04" rms="4.6569651365280151e-01" purity="3.9378216862678528e-01" nType="-99"/>
          <Node pos="r" depth="2" NCoef="0" IVar="-1" Cut="0.0000000000000000e+00" cType="1" res="5.9257453540340066e-04" rms="4.3931606411933899e-01" purity="7.1663147211074829e-01" nType="-99"/>
        </Node>
        <Node pos="r" depth="1" NCoef="0" IVar="0" Cut="6.5864332020282745e-02" cType="1" res="4.9675315618515015e-02" rms="4.5607420802116394e-01" purity="6.6450512409210205e-01" nType="0">
          <Node pos="l" depth="2" NCoef="0" IVar="-1" Cut="0.0000000000000000e+00" cType="1" res="2.6810957933776081e-04" rms="4.6938976645469666e-01" purity="6.1993682384490967e-01" nType="-99"/>
          <Node pos="r" depth="2" NCoef="0" IVar="-1" Cut="0.0000000000000000e+00" cType="1" res="1.3967289123684168e-03" rms="4.2784526944160461e-01" purity="7.3809933662414551e-01" nType="-99"/>
        </Node>
      </Node>
    </BinaryTree>
    <BinaryTree type="DecisionTree" boostWeight="1.0000000000000000e+00" itree="407">
      <Node pos="s" depth="0" NCoef="0" IVar="2" Cut="6.4545660400390625e+02" cType="1" res="5.6089027784764767e-03" rms="4.6300140023231506e-01" purity="4.9691125750541687e-01" nType="0">
        <Node pos="l" depth="1" NCoef="0" IVar="3" Cut="1.8080256879329681e-01" cType="1" res="-4.2910911142826080e-03" rms="4.6426048874855042e-01" purity="4.6494668722152710e-01" nType="0">
          <Node pos="l" depth="2" NCoef="0" IVar="-1" Cut="0.0000000000000000e+00" cType="1" res="-2.8665069839917123e-04" rms="4.6243879199028015e-01" purity="4.5218840241432190e-01" nType="-99"/>
          <Node pos="r" depth="2" NCoef="0" IVar="-1" Cut="0.0000000000000000e+00" cType="1" res="9.1234641149640083e-04" rms="4.7050634026527405e-01" purity="5.3859162330627441e-01" nType="-99"/>
        </Node>
        <Node pos="r" depth="1" NCoef="0" IVar="0" Cut="3.6698535084724426e-02" cType="1" res="6.2776118516921997e-02" rms="4.5143598318099976e-01" purity="6.8148964643478394e-01" nType="0">
          <Node pos="l" depth="2" NCoef="0" IVar="-1" Cut="0.0000000000000000e+00" cType="1" res="2.9776152223348618e-04" rms="4.7164577245712280e-01" purity="6.1974996328353882e-01" nType="-99"/>
          <Node pos="r" depth="2" NCoef="0" IVar="-1" Cut="0.0000000000000000e+00" cType="1" res="1.3584411935880780e-03" rms="4.3130213022232056e-01" purity="7.3109436035156250e-01" nType="-99"/>
        </Node>
      </Node>
    </BinaryTree>
    <BinaryTree type="DecisionTree" boostWeight="1.0000000000000000e+00" itree="408">
      <Node pos="s" depth="0" NCoef="0" IVar="2" Cut="7.3783959960937500e+02" cType="1" res="1.0302697308361530e-02" rms="4.6157866716384888e-01" purity="5.0315457582473755e-01" nType="0">
        <Node pos="l" depth="1" NCoef="0" IVar="1" Cut="9.6617990732192993e-01" cType="1" res="3.1644436530768871e-03" rms="4.6242415904998779e-01" purity="4.8442518711090088e-01" nType="0">
          <Node pos="l" depth="2" NCoef="0" IVar="-1" Cut="0.0000000000000000e+00" cType="1" res="-2.6367386453785002e-04" rms="4.6783289313316345e-01" purity="4.0399757027626038e-01" nType="-99"/>
          <Node pos="r" depth="2" NCoef="0" IVar="-1" Cut="0.0000000000000000e+00" cType="1" res="5.8905727928504348e-04" rms="4.4739028811454773e-01" purity="6.7290854454040527e-01" nType="-99"/>
        </Node>
        <Node pos="r" depth="1" NCoef="0" IVar="-1" Cut="0.0000000000000000e+00" cType="1" res="1.2329373275861144e-03" rms="4.4515031576156616e-01" purity="7.0509260892868042e-01" nType="-99"/>
      </Node>
    </BinaryTree>
    <BinaryTree type="DecisionTree" boostWeight="1.0000000000000000e+00" itree="409">
      <Node pos="s" depth="0" NCoef="0" IVar="2" Cut="3.9579519653320312e+02" cType="1" res="1.4660585671663284e-02" rms="4.6177452802658081e-01" purity="5.0638085603713989e-01" nType="0">
        <Node pos="l" depth="1" NCoef="0" IVar="2" Cut="2.9636059570312500e+02" cType="1" res="-1.8244091421365738e-02" rms="4.4733941555023193e-01" purity="3.4034380316734314e-01" nType="0">
          <Node pos="l" depth="2" NCoef="0" IVar="-1" Cut="0.0000000000000000e+00" cType="1" res="-2.9900388326495886e-03" rms="3.8972651958465576e-01" purity="2.1418346464633942e-01" nType="-99"/>
          <Node pos="r" depth="2" NCoef="0" IVar="-1" Cut="0.0000000000000000e+00" cType="1" res="-1.8417974933981895e-04" rms="4.5591226220130920e-01" purity="3.6262071132659912e-01" nType="-99"/>
        </Node>
        <Node pos="r" depth="1" NCoef="0" IVar="0" Cut="1.2439958006143570e-01" cType="1" res="3.2124008983373642e-02" rms="4.6831712126731873e-01" purity="5.9450131654739380e-01" nType="0">
          <Node pos="l" depth="2" NCoef="0" IVar="-1" Cut="0.0000000000000000e+00" cType="1" res="2.6871773297898471e-04" rms="4.7058239579200745e-01" purity="5.7761418819427490e-01" nType="-99"/>
          <Node pos="r" depth="2" NCoef="0" IVar="-1" Cut="0.0000000000000000e+00" cType="1" res="1.2320399982854724e-03" rms="4.5667511224746704e-01" purity="6.5143597126007080e-01" nType="-99"/>
        </Node>
      </Node>
    </BinaryTree>
    <BinaryTree type="DecisionTree" boostWeight="1.0000000000000000e+00" itree="410">
      <Node pos="s" depth="0" NCoef="0" IVar="6" Cut="1.7862572669982910e+00" cType="1" res="7.1437014266848564e-03" rms="4.6295690536499023e-01" purity="4.9834546446800232e-01" nType="0">
        <Node pos="l" depth="1" NCoef="0" IVar="5" Cut="2.7796972656250000e+02" cType="1" res="6.1235450208187103e-02" rms="4.5194685459136963e-01" purity="5.9414541721343994e-01" nType="0">
          <Node pos="l" depth="2" NCoef="0" IVar="-1" Cut="0.0000000000000000e+00" cType="1" res="-3.1777450203662738e-05" rms="4.6503657102584839e-01" purity="4.3562808632850647e-01" nType="-99"/>
          <Node pos="r" depth="2" NCoef="0" IVar="-1" Cut="0.0000000000000000e+00" cType="1" res="1.4573885127902031e-03" rms="4.3607956171035767e-01" purity="7.1245324611663818e-01" nType="-99"/>
        </Node>
        <Node pos="r" depth="1" NCoef="0" IVar="4" Cut="2.5705583393573761e-02" cType="1" res="-1.4970635529607534e-03" rms="4.6410793066024780e-01" purity="4.8304212093353271e-01" nType="0">
          <Node pos="l" depth="2" NCoef="0" IVar="-1" Cut="0.0000000000000000e+00" cType="1" res="3.1461060279980302e-04" rms="4.6229821443557739e-01" purity="5.0877368450164795e-01" nType="-99"/>
          <Node pos="r" depth="2" NCoef="0" IVar="-1" Cut="0.0000000000000000e+00" cType="1" res="-5.0388253293931484e-04" rms="4.6529302000999451e-01" purity="4.5094230771064758e-01" nType="-99"/>
        </Node>
      </Node>
    </BinaryTree>
    <BinaryTree type="DecisionTree" boostWeight="1.0000000000000000e+00" itree="411">
      <Node pos="s" depth="0" NCoef="0" IVar="1" Cut="9.4591504335403442e-01" cType="1" res="1.1566950008273125e-02" rms="4.6195441484451294e-01" purity="5.0453203916549683e-01" nType="0">
        <Node pos="l" depth="1" NCoef="0" IVar="4" Cut="2.2467693313956261e-02" cType="1" res="-1.6192093491554260e-02" rms="4.6275681257247925e-01" purity="3.8162147998809814e-01" nType="0">
          <Node pos="l" depth="2" NCoef="0" IVar="-1" Cut="0.0000000000000000e+00" cType="1" res="1.2164866348030046e-04" rms="4.6606948971748352e-01" purity="4.0363201498985291e-01" nType="-99"/>
          <Node pos="r" depth="2" NCoef="0" IVar="-1" Cut="0.0000000000000000e+00" cType="1" res="-9.8256126511842012e-04" rms="4.5776423811912537e-01" purity="3.5691305994987488e-01" nType="-99"/>
        </Node>
        <Node pos="r" depth="1" NCoef="0" IVar="6" Cut="2.2276415824890137e+00" cType="1" res="3.0418366193771362e-02" rms="4.6045556664466858e-01" purity="5.8800166845321655e-01" nType="0">
          <Node pos="l" depth="2" NCoef="0" IVar="-1" Cut="0.0000000000000000e+00" cType="1" res="8.1009994028136134e-04" rms="4.5285406708717346e-01" purity="6.4143836498260498e-01" nType="-99"/>
          <Node pos="r" depth="2" NCoef="0" IVar="-1" Cut="0.0000000000000000e+00" cType="1" res="6.0526530432980508e-05" rms="4.6775722503662109e-01" purity="5.2544176578521729e-01" nType="-99"/>
        </Node>
      </Node>
    </BinaryTree>
    <BinaryTree type="DecisionTree" boostWeight="1.0000000000000000e+00" itree="412">
      <Node pos="s" depth="0" NCoef="0" IVar="1" Cut="9.3687731027603149e-01" cType="1" res="2.7510488871484995e-03" rms="4.6236163377761841e-01" purity="4.9477815628051758e-01" nType="0">
        <Node pos="l" depth="1" NCoef="0" IVar="4" Cut="-1.9490828737616539e-02" cType="1" res="-3.2975558191537857e-02" rms="4.5586490631103516e-01" purity="3.5180723667144775e-01" nType="0">
          <Node pos="l" depth="2" NCoef="0" IVar="-1" Cut="0.0000000000000000e+00" cType="1" res="4.0459053707309067e-05" rms="4.5981574058532715e-01" purity="3.8933676481246948e-01" nType="-99"/>
          <Node pos="r" depth="2" NCoef="0" IVar="-1" Cut="0.0000000000000000e+00" cType="1" res="-1.2853126972913742e-03" rms="4.5285698771476746e-01" purity="3.3293968439102173e-01" nType="-99"/>
        </Node>
        <Node pos="r" depth="1" NCoef="0" IVar="2" Cut="4.6482199096679688e+02" cType="1" res="1.7241295427083969e-02" rms="4.6418759226799011e-01" purity="5.5276530981063843e-01" nType="0">
          <Node pos="l" depth="2" NCoef="0" IVar="-1" Cut="0.0000000000000000e+00" cType="1" res="-1.0206986189587042e-04" rms="4.7003498673439026e-01" purity="4.5417907834053040e-01" nType="-99"/>
          <Node pos="r" depth="2" NCoef="0" IVar="-1" Cut="0.0000000000000000e+00" cType="1" res="6.4902135636657476e-04" rms="4.5561909675598145e-01" purity="6.7106467485427856e-01" nType="-99"/>
        </Node>
      </Node>
    </BinaryTree>
    <BinaryTree type="DecisionTree" boostWeight="1.0000000000000000e+00" itree="413">
      <Node pos="s" depth="0" NCoef="0" IVar="1" Cut="9.2428278923034668e-01" cType="1" res="9.0529583394527435e-03" rms="4.6203240752220154e-01" purity="5.0100392103195190e-01" nType="0">
        <Node pos="l" depth="1" NCoef="0" IVar="6" Cut="2.2196586132049561e+00" cType="1" res="-4.1757408529520035e-02" rms="4.4981503486633301e-01" purity="3.3432629704475403e-01" nType="0">
          <Node pos="l" depth="2" NCoef="0" IVar="-1" Cut="0.0000000000000000e+00" cType="1" res="-4.4362436165101826e-04" rms="4.6649760007858276e-01" purity="3.8876679539680481e-01" nType="-99"/>
          <Node pos="r" depth="2" NCoef="0" IVar="-1" Cut="0.0000000000000000e+00" cType="1" res="-1.8839974654838443e-03" rms="4.3161293864250183e-01" purity="2.8045222163200378e-01" nType="-99"/>
        </Node>
        <Node pos="r" depth="1" NCoef="0" IVar="2" Cut="3.0570053100585938e+02" cType="1" res="1.9063634797930717e-02" rms="4.6374559402465820e-01" purity="5.3384280204772949e-01" nType="0">
          <Node pos="l" depth="2" NCoef="0" IVar="-1" Cut="0.0000000000000000e+00" cType="1" res="-2.1836524829268456e-03" rms="4.1405376791954041e-01" purity="2.5490289926528931e-01" nType="-99"/>
          <Node pos="r" depth="2" NCoef="0" IVar="-1" Cut="0.0000000000000000e+00" cType="1" res="4.2680252227000892e-04" rms="4.6652200818061829e-01" purity="5.5395019054412842e-01" nType="-99"/>
        </Node>
      </Node>
    </BinaryTree>
    <BinaryTree type="DecisionTree" boostWeight="1.0000000000000000e+00" itree="414">
      <Node pos="s" depth="0" NCoef="0" IVar="6" Cut="2.1443972587585449e+00" cType="1" res="6.9542587734758854e-03" rms="4.6083819866180420e-01" purity="4.9964281916618347e-01" nType="0">
        <Node pos="l" depth="1" NCoef="0" IVar="1" Cut="9.4918102025985718e-01" cType="1" res="3.6800041794776917e-02" rms="4.5802059769630432e-01" purity="5.6555783748626709e-01" nType="0">
          <Node pos="l" depth="2" NCoef="0" IVar="-1" Cut="0.0000000000000000e+00" cType="1" res="1.0133544492418878e-05" rms="4.7281792759895325e-01" purity="4.3499192595481873e-01" nType="-99"/>
          <Node pos="r" depth="2" NCoef="0" IVar="-1" Cut="0.0000000000000000e+00" cType="1" res="9.5100351609289646e-04" rms="4.4444975256919861e-01" purity="6.6492658853530884e-01" nType="-99"/>
        </Node>
        <Node pos="r" depth="1" NCoef="0" IVar="0" Cut="3.6879889667034149e-02" cType="1" res="-1.2741129845380783e-02" rms="4.6163251996040344e-01" purity="4.5614519715309143e-01" nType="0">
          <Node pos="l" depth="2" NCoef="0" IVar="-1" Cut="0.0000000000000000e+00" cType="1" res="-1.2128971284255385e-03" rms="4.6447655558586121e-01" purity="4.2657312750816345e-01" nType="-99"/>
          <Node pos="r" depth="2" NCoef="0" IVar="-1" Cut="0.0000000000000000e+00" cType="1" res="5.3645926527678967e-06" rms="4.5998448133468628e-01" purity="4.6481508016586304e-01" nType="-99"/>
        </Node>
      </Node>
    </BinaryTree>
    <BinaryTree type="DecisionTree" boostWeight="1.0000000000000000e+00" itree="415">
      <Node pos="s" depth="0" NCoef="0" IVar="6" Cut="2.2978558540344238e+00" cType="1" res="7.4889040552079678e-03" rms="4.6265316009521484e-01" purity="4.9905806779861450e-01" nType="0">
        <Node pos="l" depth="1" NCoef="0" IVar="1" Cut="9.7834503650665283e-01" cType="1" res="2.7092743664979935e-02" rms="4.6425086259841919e-01" purity="5.5124998092651367e-01" nType="0">
          <Node pos="l" depth="2" NCoef="0" IVar="-1" Cut="0.0000000000000000e+00" cType="1" res="2.9850695864297450e-04" rms="4.7616726160049438e-01" purity="5.0144344568252563e-01" nType="-99"/>
          <Node pos="r" depth="2" NCoef="0" IVar="-1" Cut="0.0000000000000000e+00" cType="1" res="1.0701171122491360e-03" rms="3.9802324771881104e-01" purity="7.9193681478500366e-01" nType="-99"/>
        </Node>
        <Node pos="r" depth="1" NCoef="0" IVar="4" Cut="1.1002568900585175e-01" cType="1" res="-2.5087768211960793e-02" rms="4.5813438296318054e-01" purity="4.1232827305793762e-01" nType="0">
          <Node pos="l" depth="2" NCoef="0" IVar="-1" Cut="0.0000000000000000e+00" cType="1" res="-2.0636036060750484e-04" rms="4.6005135774612427e-01" purity="4.3257546424865723e-01" nType="-99"/>
          <Node pos="r" depth="2" NCoef="0" IVar="-1" Cut="0.0000000000000000e+00" cType="1" res="-2.2038861643522978e-03" rms="4.4598224759101868e-01" purity="3.3491995930671692e-01" nType="-99"/>
        </Node>
      </Node>
    </BinaryTree>
    <BinaryTree type="DecisionTree" boostWeight="1.0000000000000000e+00" itree="416">
      <Node pos="s" depth="0" NCoef="0" IVar="1" Cut="9.2250382900238037e-01" cType="1" res="6.8918280303478241e-03" rms="4.6224385499954224e-01" purity="4.9712833762168884e-01" nType="0">
        <Node pos="l" depth="1" NCoef="0" IVar="2" Cut="4.4943829345703125e+02" cType="1" res="-4.3410371989011765e-02" rms="4.4796735048294067e-01" purity="3.3212628960609436e-01" nType="0">
          <Node pos="l" depth="2" NCoef="0" IVar="-1" Cut="0.0000000000000000e+00" cType="1" res="-2.2576160263270140e-03" rms="4.0848851203918457e-01" purity="2.2438548505306244e-01" nType="-99"/>
          <Node pos="r" depth="2" NCoef="0" IVar="-1" Cut="0.0000000000000000e+00" cType="1" res="-3.9243785431608558e-04" rms="4.9056586623191833e-01" purity="4.6243485808372498e-01" nType="-99"/>
        </Node>
        <Node pos="r" depth="1" NCoef="0" IVar="2" Cut="3.0785302734375000e+02" cType="1" res="1.5880133956670761e-02" rms="4.6417498588562012e-01" purity="5.2661192417144775e-01" nType="0">
          <Node pos="l" depth="2" NCoef="0" IVar="-1" Cut="0.0000000000000000e+00" cType="1" res="-2.1273961756378412e-03" rms="4.1556879878044128e-01" purity="2.5089073181152344e-01" nType="-99"/>
          <Node pos="r" depth="2" NCoef="0" IVar="-1" Cut="0.0000000000000000e+00" cType="1" res="3.7446554051712155e-04" rms="4.6720165014266968e-01" purity="5.4809129238128662e-01" nType="-99"/>
        </Node>
      </Node>
    </BinaryTree>
    <BinaryTree type="DecisionTree" boostWeight="1.0000000000000000e+00" itree="417">
      <Node pos="s" depth="0" NCoef="0" IVar="6" Cut="2.6450285911560059e+00" cType="1" res="6.2993168830871582e-03" rms="4.6211236715316772e-01" purity="4.9785739183425903e-01" nType="0">
        <Node pos="l" depth="1" NCoef="0" IVar="1" Cut="9.5740914344787598e-01" cType="1" res="1.4144157990813255e-02" rms="4.6507647633552551e-01" purity="5.2223795652389526e-01" nType="0">
          <Node pos="l" depth="2" NCoef="0" IVar="-1" Cut="0.0000000000000000e+00" cType="1" res="-8.1468955613672733e-05" rms="4.7428131103515625e-01" purity="4.2416134476661682e-01" nType="-99"/>
          <Node pos="r" depth="2" NCoef="0" IVar="-1" Cut="0.0000000000000000e+00" cType="1" res="5.9099361533299088e-04" rms="4.5094808936119080e-01" purity="6.5690654516220093e-01" nType="-99"/>
        </Node>
        <Node pos="r" depth="1" NCoef="0" IVar="3" Cut="-5.9380792081356049e-02" cType="1" res="-5.2545767277479172e-02" rms="4.3475094437599182e-01" purity="3.1497597694396973e-01" nType="0">
          <Node pos="l" depth="2" NCoef="0" IVar="-1" Cut="0.0000000000000000e+00" cType="1" res="-2.6808758266270161e-03" rms="4.1211041808128357e-01" purity="2.7606031298637390e-01" nType="-99"/>
          <Node pos="r" depth="2" NCoef="0" IVar="-1" Cut="0.0000000000000000e+00" cType="1" res="-4.0917453588917851e-04" rms="4.5424422621726990e-01" purity="3.5540837049484253e-01" nType="-99"/>
        </Node>
      </Node>
    </BinaryTree>
    <BinaryTree type="DecisionTree" boostWeight="1.0000000000000000e+00" itree="418">
      <Node pos="s" depth="0" NCoef="0" IVar="2" Cut="6.0763183593750000e+02" cType="1" res="7.9856133088469505e-03" rms="4.6137356758117676e-01" purity="5.0121843814849854e-01" nType="0">
        <Node pos="l" depth="1" NCoef="0" IVar="3" Cut="8.6853362619876862e-02" cType="1" res="-3.1843630131334066e-03" rms="4.6279284358024597e-01" purity="4.6114039421081543e-01" nType="0">
          <Node pos="l" depth="2" NCoef="0" IVar="-1" Cut="0.0000000000000000e+00" cType="1" res="-4.0320216794498265e-04" rms="4.5781579613685608e-01" purity="4.3835297226905823e-01" nType="-99"/>
          <Node pos="r" depth="2" NCoef="0" IVar="-1" Cut="0.0000000000000000e+00" cType="1" res="5.5964238708838820e-04" rms="4.7112751007080078e-01" purity="5.0850701332092285e-01" nType="-99"/>
        </Node>
        <Node pos="r" depth="1" NCoef="0" IVar="0" Cut="3.8405343890190125e-02" cType="1" res="5.7366523891687393e-02" rms="4.5174863934516907e-01" purity="6.7839771509170532e-01" nType="0">
          <Node pos="l" depth="2" NCoef="0" IVar="-1" Cut="0.0000000000000000e+00" cType="1" res="1.9217605586163700e-04" rms="4.7272562980651855e-01" purity="6.1287075281143188e-01" nType="-99"/>
          <Node pos="r" depth="2" NCoef="0" IVar="-1" Cut="0.0000000000000000e+00" cType="1" res="1.2623248621821404e-03" rms="4.3307256698608398e-01" purity="7.2564810514450073e-01" nType="-99"/>
        </Node>
      </Node>
    </BinaryTree>
    <BinaryTree type="DecisionTree" boostWeight="1.0000000000000000e+00" itree="419">
      <Node pos="s" depth="0" NCoef="0" IVar="1" Cut="9.8424941301345825e-01" cType="1" res="8.8282348588109016e-03" rms="4.6271890401840210e-01" purity="4.9957612156867981e-01" nType="0">
        <Node pos="l" depth="1" NCoef="0" IVar="3" Cut="1.7640504240989685e-01" cType="1" res="9.1659254394471645e-04" rms="4.6896818280220032e-01" purity="4.6476176381111145e-01" nType="0">
          <Node pos="l" depth="2" NCoef="0" IVar="-1" Cut="0.0000000000000000e+00" cType="1" res="-1.6736917314119637e-04" rms="4.6754252910614014e-01" purity="4.5178958773612976e-01" nType="-99"/>
          <Node pos="r" depth="2" NCoef="0" IVar="-1" Cut="0.0000000000000000e+00" cType="1" res="8.9307804591953754e-04" rms="4.7341987490653992e-01" purity="5.3618937730789185e-01" nType="-99"/>
        </Node>
        <Node pos="r" depth="1" NCoef="0" IVar="-1" Cut="0.0000000000000000e+00" cType="1" res="1.0335301049053669e-03" rms="4.0153133869171143e-01" purity="7.8714740276336670e-01" nType="-99"/>
      </Node>
    </BinaryTree>
    <BinaryTree type="DecisionTree" boostWeight="1.0000000000000000e+00" itree="420">
      <Node pos="s" depth="0" NCoef="0" IVar="0" Cut="1.1630336195230484e-01" cType="1" res="7.0789968594908714e-03" rms="4.6074289083480835e-01" purity="4.9997982382774353e-01" nType="0">
        <Node pos="l" depth="1" NCoef="0" IVar="3" Cut="1.3130062818527222e-01" cType="1" res="-9.4688413664698601e-03" rms="4.6206766366958618e-01" purity="4.8951682448387146e-01" nType="0">
          <Node pos="l" depth="2" NCoef="0" IVar="-1" Cut="0.0000000000000000e+00" cType="1" res="-5.2840315038338304e-04" rms="4.5939296483993530e-01" purity="4.6774962544441223e-01" nType="-99"/>
          <Node pos="r" depth="2" NCoef="0" IVar="-1" Cut="0.0000000000000000e+00" cType="1" res="6.3041213434189558e-04" rms="4.6591824293136597e-01" purity="5.4723465442657471e-01" nType="-99"/>
        </Node>
        <Node pos="r" depth="1" NCoef="0" IVar="2" Cut="3.8127517700195312e+02" cType="1" res="4.2205855250358582e-02" rms="4.5593169331550598e-01" purity="5.2219003438949585e-01" nType="0">
          <Node pos="l" depth="2" NCoef="0" IVar="-1" Cut="0.0000000000000000e+00" cType="1" res="-5.7596602709963918e-04" rms="4.4487276673316956e-01" purity="3.3857229351997375e-01" nType="-99"/>
          <Node pos="r" depth="2" NCoef="0" IVar="-1" Cut="0.0000000000000000e+00" cType="1" res="1.2275084154680371e-03" rms="4.5815148949623108e-01" purity="6.3925743103027344e-01" nType="-99"/>
        </Node>
      </Node>
    </BinaryTree>
    <BinaryTree type="DecisionTree" boostWeight="1.0000000000000000e+00" itree="421">
      <Node pos="s" depth="0" NCoef="0" IVar="2" Cut="6.6848028564453125e+02" cType="1" res="1.0034901089966297e-02" rms="4.6229928731918335e-01" purity="5.0221574306488037e-01" nType="0">
        <Node pos="l" depth="1" NCoef="0" IVar="3" Cut="-1.0984195023775101e-01" cType="1" res="1.9474538275972009e-03" rms="4.6385607123374939e-01" purity="4.7545799612998962e-01" nType="0">
          <Node pos="l" depth="2" NCoef="0" IVar="-1" Cut="0.0000000000000000e+00" cType="1" res="-1.3231396442279220e-03" rms="4.5110312104225159e-01" purity="3.8474014401435852e-01" nType="-99"/>
          <Node pos="r" depth="2" NCoef="0" IVar="-1" Cut="0.0000000000000000e+00" cType="1" res="1.7743816715665162e-04" rms="4.6491342782974243e-01" purity="4.8701083660125732e-01" nType="-99"/>
        </Node>
        <Node pos="r" depth="1" NCoef="0" IVar="-1" Cut="0.0000000000000000e+00" cType="1" res="9.6718216082081199e-04" rms="4.4718000292778015e-01" purity="6.8946731090545654e-01" nType="-99"/>
      </Node>
    </BinaryTree>
    <BinaryTree type="DecisionTree" boostWeight="1.0000000000000000e+00" itree="422">
      <Node pos="s" depth="0" NCoef="0" IVar="1" Cut="9.7854638099670410e-01" cType="1" res="7.2797527536749840e-03" rms="4.6087676286697388e-01" purity="4.9909564852714539e-01" nType="0">
        <Node pos="l" depth="1" NCoef="0" IVar="2" Cut="5.7158850097656250e+02" cType="1" res="-2.7680746279656887e-03" rms="4.6825641393661499e-01" purity="4.5024827122688293e-01" nType="0">
          <Node pos="l" depth="2" NCoef="0" IVar="-1" Cut="0.0000000000000000e+00" cType="1" res="-3.1667749863117933e-04" rms="4.6630412340164185e-01" purity="3.9962717890739441e-01" nType="-99"/>
          <Node pos="r" depth="2" NCoef="0" IVar="-1" Cut="0.0000000000000000e+00" cType="1" res="5.9022550703957677e-04" rms="4.7267484664916992e-01" purity="6.2891876697540283e-01" nType="-99"/>
        </Node>
        <Node pos="r" depth="1" NCoef="0" IVar="-1" Cut="0.0000000000000000e+00" cType="1" res="8.6479273159056902e-04" rms="4.1572710871696472e-01" purity="7.5717669725418091e-01" nType="-99"/>
      </Node>
    </BinaryTree>
    <BinaryTree type="DecisionTree" boostWeight="1.0000000000000000e+00" itree="423">
      <Node pos="s" depth="0" NCoef="0" IVar="1" Cut="9.7552478313446045e-01" cType="1" res="1.1294042691588402e-02" rms="4.6132469177246094e-01" purity="5.0377166271209717e-01" nType="0">
        <Node pos="l" depth="1" NCoef="0" IVar="2" Cut="3.2789929199218750e+02" cType="1" res="-1.1929443644476123e-05" rms="4.6927800774574280e-01" purity="4.4785758852958679e-01" nType="0">
          <Node pos="l" depth="2" NCoef="0" IVar="-1" Cut="0.0000000000000000e+00" cType="1" res="-2.1203989163041115e-03" rms="4.0151000022888184e-01" purity="2.1255691349506378e-01" nType="-99"/>
          <Node pos="r" depth="2" NCoef="0" IVar="-1" Cut="0.0000000000000000e+00" cType="1" res="1.5048221393954009e-04" rms="4.7843864560127258e-01" purity="4.8447829484939575e-01" nType="-99"/>
        </Node>
        <Node pos="r" depth="1" NCoef="0" IVar="1" Cut="9.8519504070281982e-01" cType="1" res="5.9515759348869324e-02" rms="4.2235279083251953e-01" purity="7.4225383996963501e-01" nType="0">
          <Node pos="l" depth="2" NCoef="0" IVar="-1" Cut="0.0000000000000000e+00" cType="1" res="5.2965298527851701e-04" rms="4.4958201050758362e-01" purity="6.8384099006652832e-01" nType="-99"/>
          <Node pos="r" depth="2" NCoef="0" IVar="-1" Cut="0.0000000000000000e+00" cType="1" res="1.1236295104026794e-03" rms="3.9394333958625793e-01" purity="7.9689645767211914e-01" nType="-99"/>
        </Node>
      </Node>
    </BinaryTree>
    <BinaryTree type="DecisionTree" boostWeight="1.0000000000000000e+00" itree="424">
      <Node pos="s" depth="0" NCoef="0" IVar="2" Cut="7.1484948730468750e+02" cType="1" res="1.0267798788845539e-02" rms="4.6183696389198303e-01" purity="5.0220412015914917e-01" nType="0">
        <Node pos="l" depth="1" NCoef="0" IVar="3" Cut="2.0468346774578094e-01" cType="1" res="2.1852897480130196e-03" rms="4.6267643570899963e-01" purity="4.8048359155654907e-01" nType="0">
          <Node pos="l" depth="2" NCoef="0" IVar="-1" Cut="0.0000000000000000e+00" cType="1" res="-1.2854409578721970e-04" rms="4.6116614341735840e-01" purity="4.6955734491348267e-01" nType="-99"/>
          <Node pos="r" depth="2" NCoef="0" IVar="-1" Cut="0.0000000000000000e+00" cType="1" res="1.2095996644347906e-03" rms="4.6873033046722412e-01" purity="5.6963074207305908e-01" nType="-99"/>
        </Node>
        <Node pos="r" depth="1" NCoef="0" IVar="-1" Cut="0.0000000000000000e+00" cType="1" res="1.2014087988063693e-03" rms="4.4715115427970886e-01" purity="7.0287054777145386e-01" nType="-99"/>
      </Node>
    </BinaryTree>
    <BinaryTree type="DecisionTree" boostWeight="1.0000000000000000e+00" itree="425">
      <Node pos="s" depth="0" NCoef="0" IVar="6" Cut="1.9759408235549927e+00" cType="1" res="6.2693473882973194e-03" rms="4.6278187632560730e-01" purity="4.9677953124046326e-01" nType="0">
        <Node pos="l" depth="1" NCoef="0" IVar="5" Cut="2.9917932128906250e+02" cType="1" res="4.9987085163593292e-02" rms="4.5856314897537231e-01" purity="5.7473230361938477e-01" nType="0">
          <Node pos="l" depth="2" NCoef="0" IVar="-1" Cut="0.0000000000000000e+00" cType="1" res="3.1804121681489050e-04" rms="4.7123917937278748e-01" purity="4.5845511555671692e-01" nType="-99"/>
          <Node pos="r" depth="2" NCoef="0" IVar="-1" Cut="0.0000000000000000e+00" cType="1" res="1.1771921999752522e-03" rms="4.4184482097625732e-01" purity="6.9852668046951294e-01" nType="-99"/>
        </Node>
        <Node pos="r" depth="1" NCoef="0" IVar="4" Cut="2.2376496344804764e-02" cType="1" res="-6.6340067423880100e-03" rms="4.6323180198669434e-01" purity="4.7377169132232666e-01" nType="0">
          <Node pos="l" depth="2" NCoef="0" IVar="-1" Cut="0.0000000000000000e+00" cType="1" res="3.0008691828697920e-04" rms="4.6213829517364502e-01" purity="5.0541549921035767e-01" nType="-99"/>
          <Node pos="r" depth="2" NCoef="0" IVar="-1" Cut="0.0000000000000000e+00" cType="1" res="-6.9227215135470033e-04" rms="4.6308526396751404e-01" purity="4.3690156936645508e-01" nType="-99"/>
        </Node>
      </Node>
    </BinaryTree>
    <BinaryTree type="DecisionTree" boostWeight="1.0000000000000000e+00" itree="426">
      <Node pos="s" depth="0" NCoef="0" IVar="4" Cut="1.4017991721630096e-02" cType="1" res="9.2332893982529640e-03" rms="4.6059629321098328e-01" purity="5.0278586149215698e-01" nType="0">
        <Node pos="l" depth="1" NCoef="0" IVar="5" Cut="2.4595585632324219e+02" cType="1" res="3.3462475985288620e-02" rms="4.5941895246505737e-01" purity="5.3285658359527588e-01" nType="0">
          <Node pos="l" depth="2" NCoef="0" IVar="-1" Cut="0.0000000000000000e+00" cType="1" res="-4.4582987902686000e-04" rms="4.4694712758064270e-01" purity="3.4098362922668457e-01" nType="-99"/>
          <Node pos="r" depth="2" NCoef="0" IVar="-1" Cut="0.0000000000000000e+00" cType="1" res="8.1093149492517114e-04" rms="4.6240550279617310e-01" purity="6.0048413276672363e-01" nType="-99"/>
        </Node>
        <Node pos="r" depth="1" NCoef="0" IVar="3" Cut="1.7796798050403595e-01" cType="1" res="-1.6407938674092293e-02" rms="4.6045246720314026e-01" purity="4.7096264362335205e-01" nType="0">
          <Node pos="l" depth="2" NCoef="0" IVar="-1" Cut="0.0000000000000000e+00" cType="1" res="-7.8093836782500148e-04" rms="4.5797932147979736e-01" purity="4.4079411029815674e-01" nType="-99"/>
          <Node pos="r" depth="2" NCoef="0" IVar="-1" Cut="0.0000000000000000e+00" cType="1" res="6.4164574723690748e-04" rms="4.6228149533271790e-01" purity="5.4713493585586548e-01" nType="-99"/>
        </Node>
      </Node>
    </BinaryTree>
    <BinaryTree type="DecisionTree" boostWeight="1.0000000000000000e+00" itree="427">
      <Node pos="s" depth="0" NCoef="0" IVar="2" Cut="3.0785302734375000e+02" cType="1" res="1.1065257713198662e-02" rms="4.6253880858421326e-01" purity="5.0277239084243774e-01" nType="0">
        <Node pos="l" depth="1" NCoef="0" IVar="-1" Cut="0.0000000000000000e+00" cType="1" res="-2.5939231272786856e-03" rms="3.9890533685684204e-01" purity="2.2454167902469635e-01" nType="-99"/>
        <Node pos="r" depth="1" NCoef="0" IVar="5" Cut="5.3599755859375000e+02" cType="1" res="1.7347104847431183e-02" rms="4.6660807728767395e-01" purity="5.2470439672470093e-01" nType="0">
          <Node pos="l" depth="2" NCoef="0" IVar="-1" Cut="0.0000000000000000e+00" cType="1" res="1.9461975898593664e-04" rms="4.6816736459732056e-01" purity="5.0668317079544067e-01" nType="-99"/>
          <Node pos="r" depth="2" NCoef="0" IVar="-1" Cut="0.0000000000000000e+00" cType="1" res="1.1732639977708459e-03" rms="4.4588759541511536e-01" purity="7.0071482658386230e-01" nType="-99"/>
        </Node>
      </Node>
    </BinaryTree>
    <BinaryTree type="DecisionTree" boostWeight="1.0000000000000000e+00" itree="428">
      <Node pos="s" depth="0" NCoef="0" IVar="2" Cut="7.2414038085937500e+02" cType="1" res="9.4079235568642616e-03" rms="4.6296635270118713e-01" purity="5.0081890821456909e-01" nType="0">
        <Node pos="l" depth="1" NCoef="0" IVar="4" Cut="8.2288580015301704e-03" cType="1" res="2.1542874164879322e-03" rms="4.6409049630165100e-01" purity="4.8034492135047913e-01" nType="0">
          <Node pos="l" depth="2" NCoef="0" IVar="-1" Cut="0.0000000000000000e+00" cType="1" res="4.6189615386538208e-04" rms="4.6309196949005127e-01" purity="5.1416003704071045e-01" nType="-99"/>
          <Node pos="r" depth="2" NCoef="0" IVar="-1" Cut="0.0000000000000000e+00" cType="1" res="-4.3410246144048870e-04" rms="4.6389648318290710e-01" purity="4.4648393988609314e-01" nType="-99"/>
        </Node>
        <Node pos="r" depth="1" NCoef="0" IVar="-1" Cut="0.0000000000000000e+00" cType="1" res="1.1532726930454373e-03" rms="4.4549775123596191e-01" purity="7.0230633020401001e-01" nType="-99"/>
      </Node>
    </BinaryTree>
    <BinaryTree type="DecisionTree" boostWeight="1.0000000000000000e+00" itree="429">
      <Node pos="s" depth="0" NCoef="0" IVar="1" Cut="9.8411780595779419e-01" cType="1" res="1.4599869959056377e-02" rms="4.6252292394638062e-01" purity="5.0657975673675537e-01" nType="0">
        <Node pos="l" depth="1" NCoef="0" IVar="4" Cut="3.8109742105007172e-02" cType="1" res="7.5608845800161362e-03" rms="4.6905657649040222e-01" purity="4.7274053096771240e-01" nType="0">
          <Node pos="l" depth="2" NCoef="0" IVar="-1" Cut="0.0000000000000000e+00" cType="1" res="4.3227744754403830e-04" rms="4.6974983811378479e-01" purity="4.9204462766647339e-01" nType="-99"/>
          <Node pos="r" depth="2" NCoef="0" IVar="-1" Cut="0.0000000000000000e+00" cType="1" res="-3.5534880589693785e-04" rms="4.6686366200447083e-01" purity="4.4260793924331665e-01" nType="-99"/>
        </Node>
        <Node pos="r" depth="1" NCoef="0" IVar="-1" Cut="0.0000000000000000e+00" cType="1" res="1.0299864225089550e-03" rms="3.9917173981666565e-01" purity="7.8864145278930664e-01" nType="-99"/>
      </Node>
    </BinaryTree>
    <BinaryTree type="DecisionTree" boostWeight="1.0000000000000000e+00" itree="430">
      <Node pos="s" depth="0" NCoef="0" IVar="3" Cut="1.9254064559936523e-01" cType="1" res="8.4419772028923035e-03" rms="4.6311274170875549e-01" purity="4.9843320250511169e-01" nType="0">
        <Node pos="l" depth="1" NCoef="0" IVar="4" Cut="2.6411479339003563e-02" cType="1" res="5.6081078946590424e-04" rms="4.6187034249305725e-01" purity="4.8905810713768005e-01" nType="0">
          <Node pos="l" depth="2" NCoef="0" IVar="-1" Cut="0.0000000000000000e+00" cType="1" res="3.7793529918417335e-04" rms="4.6022340655326843e-01" purity="5.1798450946807861e-01" nType="-99"/>
          <Node pos="r" depth="2" NCoef="0" IVar="-1" Cut="0.0000000000000000e+00" cType="1" res="-7.4583315290510654e-04" rms="4.6255505084991455e-01" purity="4.3755224347114563e-01" nType="-99"/>
        </Node>
        <Node pos="r" depth="1" NCoef="0" IVar="1" Cut="9.4542706012725830e-01" cType="1" res="6.3794322311878204e-02" rms="4.6802186965942383e-01" purity="5.6427788734436035e-01" nType="0">
          <Node pos="l" depth="2" NCoef="0" IVar="-1" Cut="0.0000000000000000e+00" cType="1" res="9.0156088117510080e-04" rms="4.7795704007148743e-01" purity="4.6374467015266418e-01" nType="-99"/>
          <Node pos="r" depth="2" NCoef="0" IVar="-1" Cut="0.0000000000000000e+00" cType="1" res="1.1576319811865687e-03" rms="4.5967975258827209e-01" purity="6.4303034543991089e-01" nType="-99"/>
        </Node>
      </Node>
    </BinaryTree>
    <BinaryTree type="DecisionTree" boostWeight="1.0000000000000000e+00" itree="431">
      <Node pos="s" depth="0" NCoef="0" IVar="1" Cut="9.3038189411163330e-01" cType="1" res="4.7165635041892529e-03" rms="4.6206024289131165e-01" purity="4.9653422832489014e-01" nType="0">
        <Node pos="l" depth="1" NCoef="0" IVar="0" Cut="8.7608359754085541e-02" cType="1" res="-4.4521130621433258e-02" rms="4.5067396759986877e-01" purity="3.3315539360046387e-01" nType="0">
          <Node pos="l" depth="2" NCoef="0" IVar="-1" Cut="0.0000000000000000e+00" cType="1" res="-1.6556185437366366e-03" rms="4.5506846904754639e-01" purity="3.2660779356956482e-01" nType="-99"/>
          <Node pos="r" depth="2" NCoef="0" IVar="-1" Cut="0.0000000000000000e+00" cType="1" res="-4.8543669981881976e-04" rms="4.4371458888053894e-01" purity="3.4159249067306519e-01" nType="-99"/>
        </Node>
        <Node pos="r" depth="1" NCoef="0" IVar="1" Cut="9.8516601324081421e-01" cType="1" res="1.8482740968465805e-02" rms="4.6426069736480713e-01" purity="5.4221272468566895e-01" nType="0">
          <Node pos="l" depth="2" NCoef="0" IVar="-1" Cut="0.0000000000000000e+00" cType="1" res="1.8713464669417590e-04" rms="4.7272095084190369e-01" purity="5.0611835718154907e-01" nType="-99"/>
          <Node pos="r" depth="2" NCoef="0" IVar="-1" Cut="0.0000000000000000e+00" cType="1" res="1.0525316465646029e-03" rms="3.9632892608642578e-01" purity="7.9204744100570679e-01" nType="-99"/>
        </Node>
      </Node>
    </BinaryTree>
    <BinaryTree type="DecisionTree" boostWeight="1.0000000000000000e+00" itree="432">
      <Node pos="s" depth="0" NCoef="0" IVar="3" Cut="1.9170270860195160e-01" cType="1" res="6.3155214302241802e-03" rms="4.6304336190223694e-01" purity="4.9768465757369995e-01" nType="0">
        <Node pos="l" depth="1" NCoef="0" IVar="4" Cut="7.9801492393016815e-03" cType="1" res="-1.6981301596388221e-03" rms="4.6208015084266663e-01" purity="4.8720839619636536e-01" nType="0">
          <Node pos="l" depth="2" NCoef="0" IVar="-1" Cut="0.0000000000000000e+00" cType="1" res="4.3499658931978047e-04" rms="4.6096915006637573e-01" purity="5.2189642190933228e-01" nType="-99"/>
          <Node pos="r" depth="2" NCoef="0" IVar="-1" Cut="0.0000000000000000e+00" cType="1" res="-6.9116649683564901e-04" rms="4.6143469214439392e-01" purity="4.4451746344566345e-01" nType="-99"/>
        </Node>
        <Node pos="r" depth="1" NCoef="0" IVar="6" Cut="2.1202552318572998e+00" cType="1" res="6.2796905636787415e-02" rms="4.6588280797004700e-01" purity="5.7152271270751953e-01" nType="0">
          <Node pos="l" depth="2" NCoef="0" IVar="-1" Cut="0.0000000000000000e+00" cType="1" res="1.2293063336983323e-03" rms="4.6003276109695435e-01" purity="6.0218751430511475e-01" nType="-99"/>
          <Node pos="r" depth="2" NCoef="0" IVar="-1" Cut="0.0000000000000000e+00" cType="1" res="8.1111671170219779e-04" rms="4.7138041257858276e-01" purity="5.3946232795715332e-01" nType="-99"/>
        </Node>
      </Node>
    </BinaryTree>
    <BinaryTree type="DecisionTree" boostWeight="1.0000000000000000e+00" itree="433">
      <Node pos="s" depth="0" NCoef="0" IVar="1" Cut="9.3179756402969360e-01" cType="1" res="2.8995252214372158e-03" rms="4.6058923006057739e-01" purity="4.9518585205078125e-01" nType="0">
        <Node pos="l" depth="1" NCoef="0" IVar="6" Cut="2.1796565055847168e+00" cType="1" res="-4.2900282889604568e-02" rms="4.5283463597297668e-01" purity="3.3500373363494873e-01" nType="0">
          <Node pos="l" depth="2" NCoef="0" IVar="-1" Cut="0.0000000000000000e+00" cType="1" res="-3.3660401822999120e-04" rms="4.7236153483390808e-01" purity="3.9548513293266296e-01" nType="-99"/>
          <Node pos="r" depth="2" NCoef="0" IVar="-1" Cut="0.0000000000000000e+00" cType="1" res="-1.9055947195738554e-03" rms="4.3558329343795776e-01" purity="2.8721520304679871e-01" nType="-99"/>
        </Node>
        <Node pos="r" depth="1" NCoef="0" IVar="6" Cut="2.3111886978149414e+00" cType="1" res="1.6829192638397217e-02" rms="4.6202245354652405e-01" purity="5.4390400648117065e-01" nType="0">
          <Node pos="l" depth="2" NCoef="0" IVar="-1" Cut="0.0000000000000000e+00" cType="1" res="5.8566685765981674e-04" rms="4.6125054359436035e-01" purity="5.9409356117248535e-01" nType="-99"/>
          <Node pos="r" depth="2" NCoef="0" IVar="-1" Cut="0.0000000000000000e+00" cType="1" res="-3.8066846900619566e-04" rms="4.6128726005554199e-01" purity="4.5229527354240417e-01" nType="-99"/>
        </Node>
      </Node>
    </BinaryTree>
    <BinaryTree type="DecisionTree" boostWeight="1.0000000000000000e+00" itree="434">
      <Node pos="s" depth="0" NCoef="0" IVar="1" Cut="9.2446070909500122e-01" cType="1" res="5.4997559636831284e-03" rms="4.5964416861534119e-01" purity="4.9949195981025696e-01" nType="0">
        <Node pos="l" depth="1" NCoef="0" IVar="5" Cut="3.2068710327148438e+02" cType="1" res="-5.1508933305740356e-02" rms="4.4231501221656799e-01" purity="3.2399994134902954e-01" nType="0">
          <Node pos="l" depth="2" NCoef="0" IVar="-1" Cut="0.0000000000000000e+00" cType="1" res="-2.4623533245176077e-03" rms="4.0579685568809509e-01" purity="2.2879756987094879e-01" nType="-99"/>
          <Node pos="r" depth="2" NCoef="0" IVar="-1" Cut="0.0000000000000000e+00" cType="1" res="-5.1755760796368122e-04" rms="4.8697501420974731e-01" purity="4.5462149381637573e-01" nType="-99"/>
        </Node>
        <Node pos="r" depth="1" NCoef="0" IVar="6" Cut="2.7518699169158936e+00" cType="1" res="1.6600579023361206e-02" rms="4.6212577819824219e-01" purity="5.3366404771804810e-01" nType="0">
          <Node pos="l" depth="2" NCoef="0" IVar="-1" Cut="0.0000000000000000e+00" cType="1" res="3.9730488788336515e-04" rms="4.6329933404922485e-01" purity="5.5134290456771851e-01" nType="-99"/>
          <Node pos="r" depth="2" NCoef="0" IVar="-1" Cut="0.0000000000000000e+00" cType="1" res="-1.7913008341565728e-03" rms="4.3943944573402405e-01" purity="3.1638380885124207e-01" nType="-99"/>
        </Node>
      </Node>
    </BinaryTree>
    <BinaryTree type="DecisionTree" boostWeight="1.0000000000000000e+00" itree="435">
      <Node pos="s" depth="0" NCoef="0" IVar="5" Cut="4.7201605224609375e+02" cType="1" res="8.3478149026632309e-03" rms="4.6175694465637207e-01" purity="5.0083851814270020e-01" nType="0">
        <Node pos="l" depth="1" NCoef="0" IVar="1" Cut="9.8137164115905762e-01" cType="1" res="-1.2894604587927461e-03" rms="4.6299916505813599e-01" purity="4.7060549259185791e-01" nType="0">
          <Node pos="l" depth="2" NCoef="0" IVar="-1" Cut="0.0000000000000000e+00" cType="1" res="-1.9424151105340570e-04" rms="4.6867007017135620e-01" purity="4.2778849601745605e-01" nType="-99"/>
          <Node pos="r" depth="2" NCoef="0" IVar="-1" Cut="0.0000000000000000e+00" cType="1" res="7.6026789611205459e-04" rms="4.1984963417053223e-01" purity="7.5235313177108765e-01" nType="-99"/>
        </Node>
        <Node pos="r" depth="1" NCoef="0" IVar="0" Cut="3.5046961158514023e-02" cType="1" res="6.7055039107799530e-02" rms="4.4967696070671082e-01" purity="6.8500864505767822e-01" nType="0">
          <Node pos="l" depth="2" NCoef="0" IVar="-1" Cut="0.0000000000000000e+00" cType="1" res="5.0230557098984718e-04" rms="4.7035786509513855e-01" purity="6.2891322374343872e-01" nType="-99"/>
          <Node pos="r" depth="2" NCoef="0" IVar="-1" Cut="0.0000000000000000e+00" cType="1" res="1.3089356943964958e-03" rms="4.3111845850944519e-01" purity="7.2839528322219849e-01" nType="-99"/>
        </Node>
      </Node>
    </BinaryTree>
    <BinaryTree type="DecisionTree" boostWeight="1.0000000000000000e+00" itree="436">
      <Node pos="s" depth="0" NCoef="0" IVar="2" Cut="7.3978656005859375e+02" cType="1" res="9.7102764993906021e-03" rms="4.6136766672134399e-01" purity="5.0244694948196411e-01" nType="0">
        <Node pos="l" depth="1" NCoef="0" IVar="3" Cut="1.9832599163055420e-01" cType="1" res="2.8991927392780781e-03" rms="4.6254694461822510e-01" purity="4.8334956169128418e-01" nType="0">
          <Node pos="l" depth="2" NCoef="0" IVar="-1" Cut="0.0000000000000000e+00" cType="1" res="-9.6813688287511468e-05" rms="4.6133384108543396e-01" purity="4.7322636842727661e-01" nType="-99"/>
          <Node pos="r" depth="2" NCoef="0" IVar="-1" Cut="0.0000000000000000e+00" cType="1" res="1.0422973427921534e-03" rms="4.6733573079109192e-01" purity="5.6000214815139771e-01" nType="-99"/>
        </Node>
        <Node pos="r" depth="1" NCoef="0" IVar="-1" Cut="0.0000000000000000e+00" cType="1" res="1.1832574382424355e-03" rms="4.4175189733505249e-01" purity="7.0902192592620850e-01" nType="-99"/>
      </Node>
    </BinaryTree>
    <BinaryTree type="DecisionTree" boostWeight="1.0000000000000000e+00" itree="437">
      <Node pos="s" depth="0" NCoef="0" IVar="6" Cut="2.3594448566436768e+00" cType="1" res="1.3958650641143322e-02" rms="4.6325108408927917e-01" purity="5.0460493564605713e-01" nType="0">
        <Node pos="l" depth="1" NCoef="0" IVar="1" Cut="9.6642071008682251e-01" cType="1" res="2.7944507077336311e-02" rms="4.6437445282936096e-01" purity="5.4973626136779785e-01" nType="0">
          <Node pos="l" depth="2" NCoef="0" IVar="-1" Cut="0.0000000000000000e+00" cType="1" res="2.6257990975864232e-04" rms="4.7759974002838135e-01" purity="4.7416812181472778e-01" nType="-99"/>
          <Node pos="r" depth="2" NCoef="0" IVar="-1" Cut="0.0000000000000000e+00" cType="1" res="8.6711725452914834e-04" rms="4.2999404668807983e-01" purity="7.2715717554092407e-01" nType="-99"/>
        </Node>
        <Node pos="r" depth="1" NCoef="0" IVar="4" Cut="2.8720811009407043e-02" cType="1" res="-1.7089121043682098e-02" rms="4.5922765135765076e-01" purity="4.0441614389419556e-01" nType="0">
          <Node pos="l" depth="2" NCoef="0" IVar="-1" Cut="0.0000000000000000e+00" cType="1" res="2.3286331270355731e-04" rms="4.6298119425773621e-01" purity="4.4658368825912476e-01" nType="-99"/>
          <Node pos="r" depth="2" NCoef="0" IVar="-1" Cut="0.0000000000000000e+00" cType="1" res="-1.0619423119351268e-03" rms="4.5408764481544495e-01" purity="3.6500164866447449e-01" nType="-99"/>
        </Node>
      </Node>
    </BinaryTree>
    <BinaryTree type="DecisionTree" boostWeight="1.0000000000000000e+00" itree="438">
      <Node pos="s" depth="0" NCoef="0" IVar="6" Cut="2.6322326660156250e+00" cType="1" res="8.4780715405941010e-03" rms="4.6238416433334351e-01" purity="5.0046187639236450e-01" nType="0">
        <Node pos="l" depth="1" NCoef="0" IVar="2" Cut="7.3182867431640625e+02" cType="1" res="1.6567923128604889e-02" rms="4.6494406461715698e-01" purity="5.2592033147811890e-01" nType="0">
          <Node pos="l" depth="2" NCoef="0" IVar="-1" Cut="0.0000000000000000e+00" cType="1" res="1.8670354620553553e-04" rms="4.6639713644981384e-01" purity="5.0773376226425171e-01" nType="-99"/>
          <Node pos="r" depth="2" NCoef="0" IVar="-1" Cut="0.0000000000000000e+00" cType="1" res="1.1624756734818220e-03" rms="4.4472718238830566e-01" purity="7.1213346719741821e-01" nType="-99"/>
        </Node>
        <Node pos="r" depth="1" NCoef="0" IVar="3" Cut="-7.8859277069568634e-02" cType="1" res="-5.1542349159717560e-02" rms="4.3829083442687988e-01" purity="3.1157997250556946e-01" nType="0">
          <Node pos="l" depth="2" NCoef="0" IVar="-1" Cut="0.0000000000000000e+00" cType="1" res="-2.6083611883223057e-03" rms="4.1946491599082947e-01" purity="2.7319926023483276e-01" nType="-99"/>
          <Node pos="r" depth="2" NCoef="0" IVar="-1" Cut="0.0000000000000000e+00" cType="1" res="-7.4169680010527372e-04" rms="4.5040857791900635e-01" purity="3.4024479985237122e-01" nType="-99"/>
        </Node>
      </Node>
    </BinaryTree>
    <BinaryTree type="DecisionTree" boostWeight="1.0000000000000000e+00" itree="439">
      <Node pos="s" depth="0" NCoef="0" IVar="3" Cut="1.7941585183143616e-01" cType="1" res="7.2694276459515095e-03" rms="4.6170198917388916e-01" purity="4.9994021654129028e-01" nType="0">
        <Node pos="l" depth="1" NCoef="0" IVar="4" Cut="5.6249026209115982e-02" cType="1" res="-2.4602713529020548e-03" rms="4.5981705188751221e-01" purity="4.8814716935157776e-01" nType="0">
          <Node pos="l" depth="2" NCoef="0" IVar="-1" Cut="0.0000000000000000e+00" cType="1" res="2.3006160336080939e-04" rms="4.5984086394309998e-01" purity="5.0892686843872070e-01" nType="-99"/>
          <Node pos="r" depth="2" NCoef="0" IVar="-1" Cut="0.0000000000000000e+00" cType="1" res="-1.0167893487960100e-03" rms="4.5677593350410461e-01" purity="4.2568057775497437e-01" nType="-99"/>
        </Node>
        <Node pos="r" depth="1" NCoef="0" IVar="0" Cut="4.7487553209066391e-02" cType="1" res="6.3951455056667328e-02" rms="4.6853348612785339e-01" purity="5.6864267587661743e-01" nType="0">
          <Node pos="l" depth="2" NCoef="0" IVar="-1" Cut="0.0000000000000000e+00" cType="1" res="1.4133984223008156e-03" rms="4.6945071220397949e-01" purity="6.1382704973220825e-01" nType="-99"/>
          <Node pos="r" depth="2" NCoef="0" IVar="-1" Cut="0.0000000000000000e+00" cType="1" res="7.0158176822587848e-04" rms="4.6637237071990967e-01" purity="5.2962327003479004e-01" nType="-99"/>
        </Node>
      </Node>
    </BinaryTree>
    <BinaryTree type="DecisionTree" boostWeight="1.0000000000000000e+00" itree="440">
      <Node pos="s" depth="0" NCoef="0" IVar="3" Cut="2.8338951990008354e-02" cType="1" res="8.2399267703294754e-03" rms="4.6281939744949341e-01" purity="5.0054705142974854e-01" nType="0">
        <Node pos="l" depth="1" NCoef="0" IVar="4" Cut="8.1513822078704834e-03" cType="1" res="-1.1203646659851074e-02" rms="4.5979201793670654e-01" purity="4.7078227996826172e-01" nType="0">
          <Node pos="l" depth="2" NCoef="0" IVar="-1" Cut="0.0000000000000000e+00" cType="1" res="2.5424640625715256e-04" rms="4.6125182509422302e-01" purity="5.0237864255905151e-01" nType="-99"/>
          <Node pos="r" depth="2" NCoef="0" IVar="-1" Cut="0.0000000000000000e+00" cType="1" res="-7.9747842391952872e-04" rms="4.5669254660606384e-01" purity="4.3676617741584778e-01" nType="-99"/>
        </Node>
        <Node pos="r" depth="1" NCoef="0" IVar="1" Cut="9.2427521944046021e-01" cType="1" res="3.1402438879013062e-02" rms="4.6534097194671631e-01" purity="5.3600484132766724e-01" nType="0">
          <Node pos="l" depth="2" NCoef="0" IVar="-1" Cut="0.0000000000000000e+00" cType="1" res="-5.1022792467847466e-04" rms="4.6069741249084473e-01" purity="3.7093615531921387e-01" nType="-99"/>
          <Node pos="r" depth="2" NCoef="0" IVar="-1" Cut="0.0000000000000000e+00" cType="1" res="6.9908448494970798e-04" rms="4.6553659439086914e-01" purity="5.6965768337249756e-01" nType="-99"/>
        </Node>
      </Node>
    </BinaryTree>
    <BinaryTree type="DecisionTree" boostWeight="1.0000000000000000e+00" itree="441">
      <Node pos="s" depth="0" NCoef="0" IVar="1" Cut="9.2129492759704590e-01" cType="1" res="4.6081026084721088e-03" rms="4.6264842152595520e-01" purity="4.9603119492530823e-01" nType="0">
        <Node pos="l" depth="1" NCoef="0" IVar="4" Cut="3.7639372050762177e-02" cType="1" res="-4.9116175621747971e-02" rms="4.4794178009033203e-01" purity="3.2209411263465881e-01" nType="0">
          <Node pos="l" depth="2" NCoef="0" IVar="-1" Cut="0.0000000000000000e+00" cType="1" res="-7.9436361556872725e-04" rms="4.5266255736351013e-01" purity="3.4083616733551025e-01" nType="-99"/>
          <Node pos="r" depth="2" NCoef="0" IVar="-1" Cut="0.0000000000000000e+00" cType="1" res="-2.0750709809362888e-03" rms="4.4023814797401428e-01" purity="2.9613846540451050e-01" nType="-99"/>
        </Node>
        <Node pos="r" depth="1" NCoef="0" IVar="2" Cut="6.4697155761718750e+02" cType="1" res="1.3386324048042297e-02" rms="4.6441689133644104e-01" purity="5.2445143461227417e-01" nType="0">
          <Node pos="l" depth="2" NCoef="0" IVar="-1" Cut="0.0000000000000000e+00" cType="1" res="7.9879850090947002e-05" rms="4.6742171049118042e-01" purity="4.9350082874298096e-01" nType="-99"/>
          <Node pos="r" depth="2" NCoef="0" IVar="-1" Cut="0.0000000000000000e+00" cType="1" res="9.4752217410132289e-04" rms="4.4293594360351562e-01" purity="7.0373916625976562e-01" nType="-99"/>
        </Node>
      </Node>
    </BinaryTree>
    <BinaryTree type="DecisionTree" boostWeight="1.0000000000000000e+00" itree="442">
      <Node pos="s" depth="0" NCoef="0" IVar="6" Cut="2.2211265563964844e+00" cType="1" res="8.1684924662113190e-03" rms="4.6043363213539124e-01" purity="5.0209730863571167e-01" nType="0">
        <Node pos="l" depth="1" NCoef="0" IVar="2" Cut="6.1574755859375000e+02" cType="1" res="3.0754363164305687e-02" rms="4.6173498034477234e-01" purity="5.5963712930679321e-01" nType="0">
          <Node pos="l" depth="2" NCoef="0" IVar="-1" Cut="0.0000000000000000e+00" cType="1" res="3.0675166635774076e-04" rms="4.6725547313690186e-01" purity="5.1855957508087158e-01" nType="-99"/>
          <Node pos="r" depth="2" NCoef="0" IVar="-1" Cut="0.0000000000000000e+00" cType="1" res="1.2123888591304421e-03" rms="4.3328592181205750e-01" purity="7.3180794715881348e-01" nType="-99"/>
        </Node>
        <Node pos="r" depth="1" NCoef="0" IVar="4" Cut="1.3244466483592987e-01" cType="1" res="-1.6403920948505402e-02" rms="4.5774960517883301e-01" purity="4.3949663639068604e-01" nType="0">
          <Node pos="l" depth="2" NCoef="0" IVar="-1" Cut="0.0000000000000000e+00" cType="1" res="-1.2049623182974756e-04" rms="4.5805451273918152e-01" purity="4.5423996448516846e-01" nType="-99"/>
          <Node pos="r" depth="2" NCoef="0" IVar="-1" Cut="0.0000000000000000e+00" cType="1" res="-2.0064408890902996e-03" rms="4.5064991712570190e-01" purity="3.4916248917579651e-01" nType="-99"/>
        </Node>
      </Node>
    </BinaryTree>
    <BinaryTree type="DecisionTree" boostWeight="1.0000000000000000e+00" itree="443">
      <Node pos="s" depth="0" NCoef="0" IVar="6" Cut="1.8374799489974976e+00" cType="1" res="3.2679031137377024e-03" rms="4.6062678098678589e-01" purity="4.9606734514236450e-01" nType="0">
        <Node pos="l" depth="1" NCoef="0" IVar="5" Cut="2.8064184570312500e+02" cType="1" res="5.8741401880979538e-02" rms="4.4915664196014404e-01" purity="5.9473282098770142e-01" nType="0">
          <Node pos="l" depth="2" NCoef="0" IVar="-1" Cut="0.0000000000000000e+00" cType="1" res="1.6389337542932481e-04" rms="4.6437796950340271e-01" purity="4.4292587041854858e-01" nType="-99"/>
          <Node pos="r" depth="2" NCoef="0" IVar="-1" Cut="0.0000000000000000e+00" cType="1" res="1.3382878387346864e-03" rms="4.3267121911048889e-01" purity="7.1400028467178345e-01" nType="-99"/>
        </Node>
        <Node pos="r" depth="1" NCoef="0" IVar="2" Cut="6.7676428222656250e+02" cType="1" res="-7.4751800857484341e-03" rms="4.6204608678817749e-01" purity="4.7695961594581604e-01" nType="0">
          <Node pos="l" depth="2" NCoef="0" IVar="-1" Cut="0.0000000000000000e+00" cType="1" res="-3.1296312226913869e-04" rms="4.6194720268249512e-01" purity="4.5089322328567505e-01" nType="-99"/>
          <Node pos="r" depth="2" NCoef="0" IVar="-1" Cut="0.0000000000000000e+00" cType="1" res="7.6813256600871682e-04" rms="4.5850661396980286e-01" purity="6.6757977008819580e-01" nType="-99"/>
        </Node>
      </Node>
    </BinaryTree>
    <BinaryTree type="DecisionTree" boostWeight="1.0000000000000000e+00" itree="444">
      <Node pos="s" depth="0" NCoef="0" IVar="6" Cut="1.8878238201141357e+00" cType="1" res="5.3089228458702564e-03" rms="4.6085542440414429e-01" purity="4.9773836135864258e-01" nType="0">
        <Node pos="l" depth="1" NCoef="0" IVar="5" Cut="2.9172015380859375e+02" cType="1" res="5.2810590714216232e-02" rms="4.5371022820472717e-01" purity="5.8303683996200562e-01" nType="0">
          <Node pos="l" depth="2" NCoef="0" IVar="-1" Cut="0.0000000000000000e+00" cType="1" res="2.7710702852346003e-04" rms="4.6634164452552795e-01" purity="4.5783314108848572e-01" nType="-99"/>
          <Node pos="r" depth="2" NCoef="0" IVar="-1" Cut="0.0000000000000000e+00" cType="1" res="1.2536342255771160e-03" rms="4.3764415383338928e-01" purity="7.0598095655441284e-01" nType="-99"/>
        </Node>
        <Node pos="r" depth="1" NCoef="0" IVar="1" Cut="9.8137140274047852e-01" cType="1" res="-5.3104422986507416e-03" rms="4.6176984906196594e-01" purity="4.7866925597190857e-01" nType="0">
          <Node pos="l" depth="2" NCoef="0" IVar="-1" Cut="0.0000000000000000e+00" cType="1" res="-2.8062411001883447e-04" rms="4.6734985709190369e-01" purity="4.3765380978584290e-01" nType="-99"/>
          <Node pos="r" depth="2" NCoef="0" IVar="-1" Cut="0.0000000000000000e+00" cType="1" res="7.4904697248712182e-04" rms="4.1775941848754883e-01" purity="7.5486874580383301e-01" nType="-99"/>
        </Node>
      </Node>
    </BinaryTree>
    <BinaryTree type="DecisionTree" boostWeight="1.0000000000000000e+00" itree="445">
      <Node pos="s" depth="0" NCoef="0" IVar="6" Cut="1.8405146598815918e+00" cType="1" res="3.9075654931366444e-03" rms="4.6213430166244507e-01" purity="4.9595177173614502e-01" nType="0">
        <Node pos="l" depth="1" NCoef="0" IVar="5" Cut="2.9119866943359375e+02" cType="1" res="5.6004676967859268e-02" rms="4.5464882254600525e-01" purity="5.8714699745178223e-01" nType="0">
          <Node pos="l" depth="2" NCoef="0" IVar="-1" Cut="0.0000000000000000e+00" cType="1" res="2.6588802575133741e-04" rms="4.7061413526535034e-01" purity="4.5370414853096008e-01" nType="-99"/>
          <Node pos="r" depth="2" NCoef="0" IVar="-1" Cut="0.0000000000000000e+00" cType="1" res="1.3132821768522263e-03" rms="4.3521288037300110e-01" purity="7.1332436800003052e-01" nType="-99"/>
        </Node>
        <Node pos="r" depth="1" NCoef="0" IVar="4" Cut="2.5705583393573761e-02" cType="1" res="-6.2152422033250332e-03" rms="4.6289494633674622e-01" purity="4.7823193669319153e-01" nType="0">
          <Node pos="l" depth="2" NCoef="0" IVar="-1" Cut="0.0000000000000000e+00" cType="1" res="2.3297547886613756e-04" rms="4.6107903122901917e-01" purity="5.0660109519958496e-01" nType="-99"/>
          <Node pos="r" depth="2" NCoef="0" IVar="-1" Cut="0.0000000000000000e+00" cType="1" res="-6.1207998078316450e-04" rms="4.6406334638595581e-01" purity="4.4306513667106628e-01" nType="-99"/>
        </Node>
      </Node>
    </BinaryTree>
    <BinaryTree type="DecisionTree" boostWeight="1.0000000000000000e+00" itree="446">
      <Node pos="s" depth="0" NCoef="0" IVar="1" Cut="9.8404079675674438e-01" cType="1" res="8.8194459676742554e-03" rms="4.6080303192138672e-01" purity="5.0227749347686768e-01" nType="0">
        <Node pos="l" depth="1" NCoef="0" IVar="2" Cut="3.2789929199218750e+02" cType="1" res="7.7994627645239234e-04" rms="4.6766427159309387e-01" purity="4.6592152118682861e-01" nType="0">
          <Node pos="l" depth="2" NCoef="0" IVar="-1" Cut="0.0000000000000000e+00" cType="1" res="-1.9998608622699976e-03" rms="4.0767356753349304e-01" purity="2.2833371162414551e-01" nType="-99"/>
          <Node pos="r" depth="2" NCoef="0" IVar="-1" Cut="0.0000000000000000e+00" cType="1" res="1.5904671454336494e-04" rms="4.7550123929977417e-01" purity="5.0162994861602783e-01" nType="-99"/>
        </Node>
        <Node pos="r" depth="1" NCoef="0" IVar="-1" Cut="0.0000000000000000e+00" cType="1" res="1.0258626425638795e-03" rms="3.9619708061218262e-01" purity="7.9190939664840698e-01" nType="-99"/>
      </Node>
    </BinaryTree>
    <BinaryTree type="DecisionTree" boostWeight="1.0000000000000000e+00" itree="447">
      <Node pos="s" depth="0" NCoef="0" IVar="1" Cut="9.8129612207412720e-01" cType="1" res="4.9013122916221619e-03" rms="4.6140441298484802e-01" purity="4.9637788534164429e-01" nType="0">
        <Node pos="l" depth="1" NCoef="0" IVar="2" Cut="7.1484948730468750e+02" cType="1" res="-3.9607696235179901e-03" rms="4.6830576658248901e-01" purity="4.5435082912445068e-01" nType="0">
          <Node pos="l" depth="2" NCoef="0" IVar="-1" Cut="0.0000000000000000e+00" cType="1" res="-2.2947648540139198e-04" rms="4.6858793497085571e-01" purity="4.3165957927703857e-01" nType="-99"/>
          <Node pos="r" depth="2" NCoef="0" IVar="-1" Cut="0.0000000000000000e+00" cType="1" res="9.4499136321246624e-04" rms="4.5988702774047852e-01" purity="6.7037439346313477e-01" nType="-99"/>
        </Node>
        <Node pos="r" depth="1" NCoef="0" IVar="-1" Cut="0.0000000000000000e+00" cType="1" res="8.9774478692561388e-04" rms="4.0886539220809937e-01" purity="7.7061009407043457e-01" nType="-99"/>
      </Node>
    </BinaryTree>
    <BinaryTree type="DecisionTree" boostWeight="1.0000000000000000e+00" itree="448">
      <Node pos="s" depth="0" NCoef="0" IVar="2" Cut="7.3263525390625000e+02" cType="1" res="9.1278450563549995e-03" rms="4.6107435226440430e-01" purity="5.0249320268630981e-01" nType="0">
        <Node pos="l" depth="1" NCoef="0" IVar="3" Cut="1.5170869231224060e-01" cType="1" res="1.7636052798479795e-03" rms="4.6245047450065613e-01" purity="4.8185905814170837e-01" nType="0">
          <Node pos="l" depth="2" NCoef="0" IVar="-1" Cut="0.0000000000000000e+00" cType="1" res="-2.0472766482271254e-04" rms="4.6040976047515869e-01" purity="4.6537995338439941e-01" nType="-99"/>
          <Node pos="r" depth="2" NCoef="0" IVar="-1" Cut="0.0000000000000000e+00" cType="1" res="8.5758086061105132e-04" rms="4.6738532185554504e-01" purity="5.4780220985412598e-01" nType="-99"/>
        </Node>
        <Node pos="r" depth="1" NCoef="0" IVar="-1" Cut="0.0000000000000000e+00" cType="1" res="1.2029168428853154e-03" rms="4.3977704644203186e-01" purity="7.1319204568862915e-01" nType="-99"/>
      </Node>
    </BinaryTree>
    <BinaryTree type="DecisionTree" boostWeight="1.0000000000000000e+00" itree="449">
      <Node pos="s" depth="0" NCoef="0" IVar="3" Cut="2.9304292052984238e-02" cType="1" res="1.1531217023730278e-02" rms="4.6279671788215637e-01" purity="5.0314754247665405e-01" nType="0">
        <Node pos="l" depth="1" NCoef="0" IVar="4" Cut="8.1513822078704834e-03" cType="1" res="-5.3908457048237324e-03" rms="4.5881411433219910e-01" purity="4.7631362080574036e-01" nType="0">
          <Node pos="l" depth="2" NCoef="0" IVar="-1" Cut="0.0000000000000000e+00" cType="1" res="3.7909342790953815e-04" rms="4.5932123064994812e-01" purity="5.0815296173095703e-01" nType="-99"/>
          <Node pos="r" depth="2" NCoef="0" IVar="-1" Cut="0.0000000000000000e+00" cType="1" res="-6.9934339262545109e-04" rms="4.5657658576965332e-01" purity="4.4173660874366760e-01" nType="-99"/>
        </Node>
        <Node pos="r" depth="1" NCoef="0" IVar="1" Cut="9.2506802082061768e-01" cType="1" res="3.2048668712377548e-02" rms="4.6675783395767212e-01" purity="5.3568285703659058e-01" nType="0">
          <Node pos="l" depth="2" NCoef="0" IVar="-1" Cut="0.0000000000000000e+00" cType="1" res="-2.7782766846939921e-04" rms="4.6637904644012451e-01" purity="3.7834241986274719e-01" nType="-99"/>
          <Node pos="r" depth="2" NCoef="0" IVar="-1" Cut="0.0000000000000000e+00" cType="1" res="6.9015106419101357e-04" rms="4.6627768874168396e-01" purity="5.7020086050033569e-01" nType="-99"/>
        </Node>
      </Node>
    </BinaryTree>
    <BinaryTree type="DecisionTree" boostWeight="1.0000000000000000e+00" itree="450">
      <Node pos="s" depth="0" NCoef="0" IVar="5" Cut="5.2380987548828125e+02" cType="1" res="1.0764556936919689e-02" rms="4.6171683073043823e-01" purity="5.0326323509216309e-01" nType="0">
        <Node pos="l" depth="1" NCoef="0" IVar="0" Cut="1.7707265913486481e-01" cType="1" res="4.1916398331522942e-03" rms="4.6301165223121643e-01" purity="4.8330119252204895e-01" nType="0">
          <Node pos="l" depth="2" NCoef="0" IVar="-1" Cut="0.0000000000000000e+00" cType="1" res="-8.7546766735613346e-05" rms="4.6348363161087036e-01" purity="4.7640922665596008e-01" nType="-99"/>
          <Node pos="r" depth="2" NCoef="0" IVar="-1" Cut="0.0000000000000000e+00" cType="1" res="9.7529951017349958e-04" rms="4.5696753263473511e-01" purity="5.2336448431015015e-01" nType="-99"/>
        </Node>
        <Node pos="r" depth="1" NCoef="0" IVar="-1" Cut="0.0000000000000000e+00" cType="1" res="1.0862643830478191e-03" rms="4.4365066289901733e-01" purity="6.9936579465866089e-01" nType="-99"/>
      </Node>
    </BinaryTree>
    <BinaryTree type="DecisionTree" boostWeight="1.0000000000000000e+00" itree="451">
      <Node pos="s" depth="0" NCoef="0" IVar="1" Cut="9.8430716991424561e-01" cType="1" res="3.2582625281065702e-03" rms="4.6176651120185852e-01" purity="4.9518579244613647e-01" nType="0">
        <Node pos="l" depth="1" NCoef="0" IVar="5" Cut="4.7400799560546875e+02" cType="1" res="-3.6738850176334381e-03" rms="4.6758046746253967e-01" purity="4.6210414171218872e-01" nType="0">
          <Node pos="l" depth="2" NCoef="0" IVar="-1" Cut="0.0000000000000000e+00" cType="1" res="-2.4870267952792346e-04" rms="4.6791759133338928e-01" purity="4.3113893270492554e-01" nType="-99"/>
          <Node pos="r" depth="2" NCoef="0" IVar="-1" Cut="0.0000000000000000e+00" cType="1" res="7.4204395059496164e-04" rms="4.6187683939933777e-01" purity="6.5612041950225830e-01" nType="-99"/>
        </Node>
        <Node pos="r" depth="1" NCoef="0" IVar="-1" Cut="0.0000000000000000e+00" cType="1" res="9.1878452803939581e-04" rms="4.0276965498924255e-01" purity="7.8269070386886597e-01" nType="-99"/>
      </Node>
    </BinaryTree>
    <BinaryTree type="DecisionTree" boostWeight="1.0000000000000000e+00" itree="452">
      <Node pos="s" depth="0" NCoef="0" IVar="2" Cut="5.2728631591796875e+02" cType="1" res="2.5801630690693855e-03" rms="4.6125450730323792e-01" purity="4.9470818042755127e-01" nType="0">
        <Node pos="l" depth="1" NCoef="0" IVar="3" Cut="1.7177586257457733e-01" cType="1" res="-1.1202980764210224e-02" rms="4.6050935983657837e-01" purity="4.3065792322158813e-01" nType="0">
          <Node pos="l" depth="2" NCoef="0" IVar="-1" Cut="0.0000000000000000e+00" cType="1" res="-4.5367437996901572e-04" rms="4.5805215835571289e-01" purity="4.1658577322959900e-01" nType="-99"/>
          <Node pos="r" depth="2" NCoef="0" IVar="-1" Cut="0.0000000000000000e+00" cType="1" res="7.2553008794784546e-04" rms="4.6973440051078796e-01" purity="5.0384026765823364e-01" nType="-99"/>
        </Node>
        <Node pos="r" depth="1" NCoef="0" IVar="0" Cut="8.2115031778812408e-02" cType="1" res="3.5079654306173325e-02" rms="4.6137952804565430e-01" purity="6.4573317766189575e-01" nType="0">
          <Node pos="l" depth="2" NCoef="0" IVar="-1" Cut="0.0000000000000000e+00" cType="1" res="1.1492806515889242e-04" rms="4.7177267074584961e-01" purity="6.0857146978378296e-01" nType="-99"/>
          <Node pos="r" depth="2" NCoef="0" IVar="-1" Cut="0.0000000000000000e+00" cType="1" res="1.3332323869690299e-03" rms="4.3130317330360413e-01" purity="7.2759419679641724e-01" nType="-99"/>
        </Node>
      </Node>
    </BinaryTree>
    <BinaryTree type="DecisionTree" boostWeight="1.0000000000000000e+00" itree="453">
      <Node pos="s" depth="0" NCoef="0" IVar="6" Cut="2.0357542037963867e+00" cType="1" res="1.1966937221586704e-02" rms="4.6374520659446716e-01" purity="5.0253361463546753e-01" nType="0">
        <Node pos="l" depth="1" NCoef="0" IVar="5" Cut="3.3364971923828125e+02" cType="1" res="4.9225665628910065e-02" rms="4.6215555071830750e-01" purity="5.7195937633514404e-01" nType="0">
          <Node pos="l" depth="2" NCoef="0" IVar="-1" Cut="0.0000000000000000e+00" cType="1" res="6.1913981335237622e-04" rms="4.7375842928886414e-01" purity="4.9697405099868774e-01" nType="-99"/>
          <Node pos="r" depth="2" NCoef="0" IVar="-1" Cut="0.0000000000000000e+00" cType="1" res="1.0764562757685781e-03" rms="4.3914294242858887e-01" purity="7.0681464672088623e-01" nType="-99"/>
        </Node>
        <Node pos="r" depth="1" NCoef="0" IVar="2" Cut="3.9579519653320312e+02" cType="1" res="-1.6354817198589444e-03" rms="4.6357864141464233e-01" purity="4.7718769311904907e-01" nType="0">
          <Node pos="l" depth="2" NCoef="0" IVar="-1" Cut="0.0000000000000000e+00" cType="1" res="-7.7327352482825518e-04" rms="4.4043612480163574e-01" purity="3.1799989938735962e-01" nType="-99"/>
          <Node pos="r" depth="2" NCoef="0" IVar="-1" Cut="0.0000000000000000e+00" cType="1" res="2.0683235197793692e-04" rms="4.7494950890541077e-01" purity="5.6269413232803345e-01" nType="-99"/>
        </Node>
      </Node>
    </BinaryTree>
    <BinaryTree type="DecisionTree" boostWeight="1.0000000000000000e+00" itree="454">
      <Node pos="s" depth="0" NCoef="0" IVar="1" Cut="9.2176586389541626e-01" cType="1" res="7.7707613818347454e-03" rms="4.6231195330619812e-01" purity="5.0043433904647827e-01" nType="0">
        <Node pos="l" depth="1" NCoef="0" IVar="1" Cut="9.1056126356124878e-01" cType="1" res="-4.5145809650421143e-02" rms="4.4768175482749939e-01" purity="3.2627210021018982e-01" nType="0">
          <Node pos="l" depth="2" NCoef="0" IVar="-1" Cut="0.0000000000000000e+00" cType="1" res="-1.9212546758353710e-03" rms="4.4097599387168884e-01" purity="2.9777997732162476e-01" nType="-99"/>
          <Node pos="r" depth="2" NCoef="0" IVar="-1" Cut="0.0000000000000000e+00" cType="1" res="-4.9228424904868007e-04" rms="4.5310917496681213e-01" purity="3.5524237155914307e-01" nType="-99"/>
        </Node>
        <Node pos="r" depth="1" NCoef="0" IVar="3" Cut="2.7009623125195503e-02" cType="1" res="1.6677012667059898e-02" rms="4.6413624286651611e-01" purity="5.2974706888198853e-01" nType="0">
          <Node pos="l" depth="2" NCoef="0" IVar="-1" Cut="0.0000000000000000e+00" cType="1" res="-7.7167336712591350e-05" rms="4.6254906058311462e-01" purity="4.9695336818695068e-01" nType="-99"/>
          <Node pos="r" depth="2" NCoef="0" IVar="-1" Cut="0.0000000000000000e+00" cType="1" res="6.8193132756277919e-04" rms="4.6480691432952881e-01" purity="5.6833094358444214e-01" nType="-99"/>
        </Node>
      </Node>
    </BinaryTree>
    <BinaryTree type="DecisionTree" boostWeight="1.0000000000000000e+00" itree="455">
      <Node pos="s" depth="0" NCoef="0" IVar="1" Cut="9.6673953533172607e-01" cType="1" res="7.9840635880827904e-03" rms="4.6191173791885376e-01" purity="5.0104486942291260e-01" nType="0">
        <Node pos="l" depth="1" NCoef="0" IVar="6" Cut="2.7582318782806396e+00" cType="1" res="-4.6889446675777435e-03" rms="4.6892848610877991e-01" purity="4.2577061057090759e-01" nType="0">
          <Node pos="l" depth="2" NCoef="0" IVar="-1" Cut="0.0000000000000000e+00" cType="1" res="1.4511328117805533e-05" rms="4.7355580329895020e-01" purity="4.4273078441619873e-01" nType="-99"/>
          <Node pos="r" depth="2" NCoef="0" IVar="-1" Cut="0.0000000000000000e+00" cType="1" res="-2.4626816157251596e-03" rms="4.0799126029014587e-01" purity="2.3387970030307770e-01" nType="-99"/>
        </Node>
        <Node pos="r" depth="1" NCoef="0" IVar="2" Cut="4.6545907592773438e+02" cType="1" res="3.8844481110572815e-02" rms="4.4284760951995850e-01" purity="6.8434756994247437e-01" nType="0">
          <Node pos="l" depth="2" NCoef="0" IVar="-1" Cut="0.0000000000000000e+00" cType="1" res="2.0929398306179792e-04" rms="4.6615600585937500e-01" purity="6.0903602838516235e-01" nType="-99"/>
          <Node pos="r" depth="2" NCoef="0" IVar="-1" Cut="0.0000000000000000e+00" cType="1" res="9.6792052499949932e-04" rms="4.1290780901908875e-01" purity="7.6982825994491577e-01" nType="-99"/>
        </Node>
      </Node>
    </BinaryTree>
    <BinaryTree type="DecisionTree" boostWeight="1.0000000000000000e+00" itree="456">
      <Node pos="s" depth="0" NCoef="0" IVar="1" Cut="9.8436695337295532e-01" cType="1" res="5.6807915680110455e-03" rms="4.6177381277084351e-01" purity="4.9861827492713928e-01" nType="0">
        <Node pos="l" depth="1" NCoef="0" IVar="3" Cut="2.0862048864364624e-01" cType="1" res="-2.0201248116791248e-03" rms="4.6826475858688354e-01" purity="4.6380978822708130e-01" nType="0">
          <Node pos="l" depth="2" NCoef="0" IVar="-1" Cut="0.0000000000000000e+00" cType="1" res="-1.7201629816554487e-04" rms="4.6692088246345520e-01" purity="4.5483171939849854e-01" nType="-99"/>
          <Node pos="r" depth="2" NCoef="0" IVar="-1" Cut="0.0000000000000000e+00" cType="1" res="9.7536394605413079e-04" rms="4.7593608498573303e-01" purity="5.4373955726623535e-01" nType="-99"/>
        </Node>
        <Node pos="r" depth="1" NCoef="0" IVar="-1" Cut="0.0000000000000000e+00" cType="1" res="9.9212070927023888e-04" rms="3.9762523770332336e-01" purity="7.8971928358078003e-01" nType="-99"/>
      </Node>
    </BinaryTree>
    <BinaryTree type="DecisionTree" boostWeight="1.0000000000000000e+00" itree="457">
      <Node pos="s" depth="0" NCoef="0" IVar="1" Cut="9.8140251636505127e-01" cType="1" res="4.1285143233835697e-03" rms="4.6126648783683777e-01" purity="4.9742814898490906e-01" nType="0">
        <Node pos="l" depth="1" NCoef="0" IVar="3" Cut="2.1030397713184357e-01" cType="1" res="-4.2440742254257202e-03" rms="4.6807339787483215e-01" purity="4.5546737313270569e-01" nType="0">
          <Node pos="l" depth="2" NCoef="0" IVar="-1" Cut="0.0000000000000000e+00" cType="1" res="-2.2052128042560071e-04" rms="4.6685531735420227e-01" purity="4.4621643424034119e-01" nType="-99"/>
          <Node pos="r" depth="2" NCoef="0" IVar="-1" Cut="0.0000000000000000e+00" cType="1" res="9.8680076189339161e-04" rms="4.7448480129241943e-01" purity="5.3959345817565918e-01" nType="-99"/>
        </Node>
        <Node pos="r" depth="1" NCoef="0" IVar="-1" Cut="0.0000000000000000e+00" cType="1" res="8.3305721636861563e-04" rms="4.1048508882522583e-01" purity="7.6863807439804077e-01" nType="-99"/>
      </Node>
    </BinaryTree>
    <BinaryTree type="DecisionTree" boostWeight="1.0000000000000000e+00" itree="458">
      <Node pos="s" depth="0" NCoef="0" IVar="1" Cut="9.8437088727951050e-01" cType="1" res="6.4022783190011978e-03" rms="4.6207645535469055e-01" purity="4.9888172745704651e-01" nType="0">
        <Node pos="l" depth="1" NCoef="0" IVar="3" Cut="1.8937726318836212e-01" cType="1" res="-5.3912389557808638e-04" rms="4.6822264790534973e-01" purity="4.6540912985801697e-01" nType="0">
          <Node pos="l" depth="2" NCoef="0" IVar="-1" Cut="0.0000000000000000e+00" cType="1" res="-1.7445586854591966e-04" rms="4.6670785546302795e-01" purity="4.5366960763931274e-01" nType="-99"/>
          <Node pos="r" depth="2" NCoef="0" IVar="-1" Cut="0.0000000000000000e+00" cType="1" res="9.2689163284376264e-04" rms="4.7453445196151733e-01" purity="5.4379063844680786e-01" nType="-99"/>
        </Node>
        <Node pos="r" depth="1" NCoef="0" IVar="-1" Cut="0.0000000000000000e+00" cType="1" res="9.4670144608244300e-04" rms="4.0034207701683044e-01" purity="7.8720211982727051e-01" nType="-99"/>
      </Node>
    </BinaryTree>
    <BinaryTree type="DecisionTree" boostWeight="1.0000000000000000e+00" itree="459">
      <Node pos="s" depth="0" NCoef="0" IVar="6" Cut="2.2833211421966553e+00" cType="1" res="5.1968819461762905e-03" rms="4.6132969856262207e-01" purity="4.9743425846099854e-01" nType="0">
        <Node pos="l" depth="1" NCoef="0" IVar="1" Cut="9.3754887580871582e-01" cType="1" res="2.3227117955684662e-02" rms="4.6294033527374268e-01" purity="5.5018377304077148e-01" nType="0">
          <Node pos="l" depth="2" NCoef="0" IVar="-1" Cut="0.0000000000000000e+00" cType="1" res="-4.9238407518714666e-04" rms="4.7171989083290100e-01" purity="3.8983237743377686e-01" nType="-99"/>
          <Node pos="r" depth="2" NCoef="0" IVar="-1" Cut="0.0000000000000000e+00" cType="1" res="6.4392836065962911e-04" rms="4.5831033587455750e-01" purity="6.1187583208084106e-01" nType="-99"/>
        </Node>
        <Node pos="r" depth="1" NCoef="0" IVar="4" Cut="1.0457523912191391e-01" cType="1" res="-2.2603774443268776e-02" rms="4.5744463801383972e-01" purity="4.1610023379325867e-01" nType="0">
          <Node pos="l" depth="2" NCoef="0" IVar="-1" Cut="0.0000000000000000e+00" cType="1" res="-1.3769682846032083e-04" rms="4.5985394716262817e-01" purity="4.3828982114791870e-01" nType="-99"/>
          <Node pos="r" depth="2" NCoef="0" IVar="-1" Cut="0.0000000000000000e+00" cType="1" res="-2.0765278022736311e-03" rms="4.4398251175880432e-01" purity="3.3651912212371826e-01" nType="-99"/>
        </Node>
      </Node>
    </BinaryTree>
    <BinaryTree type="DecisionTree" boostWeight="1.0000000000000000e+00" itree="460">
      <Node pos="s" depth="0" NCoef="0" IVar="2" Cut="4.2179299926757812e+02" cType="1" res="5.4167746566236019e-03" rms="4.6103218197822571e-01" purity="4.9816316366195679e-01" nType="0">
        <Node pos="l" depth="1" NCoef="0" IVar="2" Cut="3.0506307983398438e+02" cType="1" res="-1.8877817317843437e-02" rms="4.5123147964477539e-01" purity="3.6167886853218079e-01" nType="0">
          <Node pos="l" depth="2" NCoef="0" IVar="-1" Cut="0.0000000000000000e+00" cType="1" res="-2.4912215303629637e-03" rms="3.9947339892387390e-01" purity="2.2176319360733032e-01" nType="-99"/>
          <Node pos="r" depth="2" NCoef="0" IVar="-1" Cut="0.0000000000000000e+00" cType="1" res="-2.3419654462486506e-04" rms="4.5973476767539978e-01" purity="3.8782006502151489e-01" nType="-99"/>
        </Node>
        <Node pos="r" depth="1" NCoef="0" IVar="0" Cut="7.2287544608116150e-02" cType="1" res="2.3973030969500542e-02" rms="4.6753025054931641e-01" purity="6.0241013765335083e-01" nType="0">
          <Node pos="l" depth="2" NCoef="0" IVar="-1" Cut="0.0000000000000000e+00" cType="1" res="-9.8924072517547756e-05" rms="4.7386422753334045e-01" purity="5.6394666433334351e-01" nType="-99"/>
          <Node pos="r" depth="2" NCoef="0" IVar="-1" Cut="0.0000000000000000e+00" cType="1" res="8.7030581198632717e-04" rms="4.5771336555480957e-01" purity="6.4671677350997925e-01" nType="-99"/>
        </Node>
      </Node>
    </BinaryTree>
    <BinaryTree type="DecisionTree" boostWeight="1.0000000000000000e+00" itree="461">
      <Node pos="s" depth="0" NCoef="0" IVar="6" Cut="2.1310737133026123e+00" cType="1" res="8.9742997661232948e-03" rms="4.6092525124549866e-01" purity="5.0226593017578125e-01" nType="0">
        <Node pos="l" depth="1" NCoef="0" IVar="5" Cut="2.3071102905273438e+02" cType="1" res="3.8392793387174606e-02" rms="4.6027269959449768e-01" purity="5.6943076848983765e-01" nType="0">
          <Node pos="l" depth="2" NCoef="0" IVar="-1" Cut="0.0000000000000000e+00" cType="1" res="-8.0183247337117791e-04" rms="4.5044538378715515e-01" purity="3.3871123194694519e-01" nType="-99"/>
          <Node pos="r" depth="2" NCoef="0" IVar="-1" Cut="0.0000000000000000e+00" cType="1" res="8.1903825048357248e-04" rms="4.6099174022674561e-01" purity="6.1962664127349854e-01" nType="-99"/>
        </Node>
        <Node pos="r" depth="1" NCoef="0" IVar="4" Cut="1.3683894276618958e-01" cType="1" res="-8.6767794564366341e-03" rms="4.6041497588157654e-01" purity="4.6196705102920532e-01" nType="0">
          <Node pos="l" depth="2" NCoef="0" IVar="-1" Cut="0.0000000000000000e+00" cType="1" res="-5.8976565924240276e-06" rms="4.6064454317092896e-01" purity="4.7384083271026611e-01" nType="-99"/>
          <Node pos="r" depth="2" NCoef="0" IVar="-1" Cut="0.0000000000000000e+00" cType="1" res="-1.6877375310286880e-03" rms="4.5392435789108276e-01" purity="3.7401109933853149e-01" nType="-99"/>
        </Node>
      </Node>
    </BinaryTree>
    <BinaryTree type="DecisionTree" boostWeight="1.0000000000000000e+00" itree="462">
      <Node pos="s" depth="0" NCoef="0" IVar="2" Cut="5.9811975097656250e+02" cType="1" res="1.2173122726380825e-02" rms="4.6241447329521179e-01" purity="5.0451558828353882e-01" nType="0">
        <Node pos="l" depth="1" NCoef="0" IVar="3" Cut="1.4502853155136108e-03" cType="1" res="1.7726196674630046e-03" rms="4.6471136808395386e-01" purity="4.6179890632629395e-01" nType="0">
          <Node pos="l" depth="2" NCoef="0" IVar="-1" Cut="0.0000000000000000e+00" cType="1" res="-4.6263827243819833e-04" rms="4.5781558752059937e-01" purity="4.2329084873199463e-01" nType="-99"/>
          <Node pos="r" depth="2" NCoef="0" IVar="-1" Cut="0.0000000000000000e+00" cType="1" res="4.2048102477565408e-04" rms="4.6979981660842896e-01" purity="4.9624931812286377e-01" nType="-99"/>
        </Node>
        <Node pos="r" depth="1" NCoef="0" IVar="0" Cut="3.2712001353502274e-02" cType="1" res="5.4828081279993057e-02" rms="4.5036706328392029e-01" purity="6.7970705032348633e-01" nType="0">
          <Node pos="l" depth="2" NCoef="0" IVar="-1" Cut="0.0000000000000000e+00" cType="1" res="1.7238924556295387e-05" rms="4.7198250889778137e-01" purity="6.0401588678359985e-01" nType="-99"/>
          <Node pos="r" depth="2" NCoef="0" IVar="-1" Cut="0.0000000000000000e+00" cType="1" res="1.1543208966031671e-03" rms="4.3603777885437012e-01" purity="7.1921265125274658e-01" nType="-99"/>
        </Node>
      </Node>
    </BinaryTree>
    <BinaryTree type="DecisionTree" boostWeight="1.0000000000000000e+00" itree="463">
      <Node pos="s" depth="0" NCoef="0" IVar="2" Cut="5.9811975097656250e+02" cType="1" res="5.1558623090386391e-03" rms="4.6250972151756287e-01" purity="4.9630323052406311e-01" nType="0">
        <Node pos="l" depth="1" NCoef="0" IVar="3" Cut="1.8142467737197876e-01" cType="1" res="-4.4993786141276360e-03" rms="4.6356302499771118e-01" purity="4.5489835739135742e-01" nType="0">
          <Node pos="l" depth="2" NCoef="0" IVar="-1" Cut="0.0000000000000000e+00" cType="1" res="-2.5760140852071345e-04" rms="4.6123197674751282e-01" purity="4.4313752651214600e-01" nType="-99"/>
          <Node pos="r" depth="2" NCoef="0" IVar="-1" Cut="0.0000000000000000e+00" cType="1" res="7.5422372901812196e-04" rms="4.7418868541717529e-01" purity="5.2361488342285156e-01" nType="-99"/>
        </Node>
        <Node pos="r" depth="1" NCoef="0" IVar="0" Cut="4.8986069858074188e-02" cType="1" res="4.5207511633634567e-02" rms="4.5593658089637756e-01" purity="6.6805797815322876e-01" nType="0">
          <Node pos="l" depth="2" NCoef="0" IVar="-1" Cut="0.0000000000000000e+00" cType="1" res="1.8141385226044804e-04" rms="4.7281259298324585e-01" purity="6.1592775583267212e-01" nType="-99"/>
          <Node pos="r" depth="2" NCoef="0" IVar="-1" Cut="0.0000000000000000e+00" cType="1" res="1.1633946560323238e-03" rms="4.3340212106704712e-01" purity="7.2587627172470093e-01" nType="-99"/>
        </Node>
      </Node>
    </BinaryTree>
    <BinaryTree type="DecisionTree" boostWeight="1.0000000000000000e+00" itree="464">
      <Node pos="s" depth="0" NCoef="0" IVar="4" Cut="-3.3212952315807343e-02" cType="1" res="4.9809473566710949e-03" rms="4.6025061607360840e-01" purity="4.9816253781318665e-01" nType="0">
        <Node pos="l" depth="1" NCoef="0" IVar="2" Cut="3.8518673706054688e+02" cType="1" res="3.9210133254528046e-02" rms="4.5779734849929810e-01" purity="5.4134130477905273e-01" nType="0">
          <Node pos="l" depth="2" NCoef="0" IVar="-1" Cut="0.0000000000000000e+00" cType="1" res="-3.0068249907344580e-04" rms="4.4978207349777222e-01" purity="3.5104936361312866e-01" nType="-99"/>
          <Node pos="r" depth="2" NCoef="0" IVar="-1" Cut="0.0000000000000000e+00" cType="1" res="9.7578123677521944e-04" rms="4.5966106653213501e-01" purity="6.4018636941909790e-01" nType="-99"/>
        </Node>
        <Node pos="r" depth="1" NCoef="0" IVar="3" Cut="1.9170270860195160e-01" cType="1" res="-8.2355616614222527e-03" rms="4.6051403880119324e-01" purity="4.8149043321609497e-01" nType="0">
          <Node pos="l" depth="2" NCoef="0" IVar="-1" Cut="0.0000000000000000e+00" cType="1" res="-4.2456202208995819e-04" rms="4.5751410722732544e-01" purity="4.6542033553123474e-01" nType="-99"/>
          <Node pos="r" depth="2" NCoef="0" IVar="-1" Cut="0.0000000000000000e+00" cType="1" res="9.2960160691291094e-04" rms="4.6954381465911865e-01" purity="5.5862039327621460e-01" nType="-99"/>
        </Node>
      </Node>
    </BinaryTree>
    <BinaryTree type="DecisionTree" boostWeight="1.0000000000000000e+00" itree="465">
      <Node pos="s" depth="0" NCoef="0" IVar="1" Cut="9.6314465999603271e-01" cType="1" res="9.6412757411599159e-03" rms="4.6173906326293945e-01" purity="5.0299006700515747e-01" nType="0">
        <Node pos="l" depth="1" NCoef="0" IVar="0" Cut="1.1712055653333664e-01" cType="1" res="-5.6209461763501167e-03" rms="4.6878093481063843e-01" purity="4.1808909177780151e-01" nType="0">
          <Node pos="l" depth="2" NCoef="0" IVar="-1" Cut="0.0000000000000000e+00" cType="1" res="-4.0037251892499626e-04" rms="4.6973472833633423e-01" purity="4.1485849022865295e-01" nType="-99"/>
          <Node pos="r" depth="2" NCoef="0" IVar="-1" Cut="0.0000000000000000e+00" cType="1" res="5.0258281407877803e-04" rms="4.6525797247886658e-01" purity="4.2534169554710388e-01" nType="-99"/>
        </Node>
        <Node pos="r" depth="1" NCoef="0" IVar="5" Cut="2.5283134460449219e+02" cType="1" res="3.9684910327196121e-02" rms="4.4603034853935242e-01" purity="6.7011725902557373e-01" nType="0">
          <Node pos="l" depth="2" NCoef="0" IVar="-1" Cut="0.0000000000000000e+00" cType="1" res="-2.6677674031816423e-04" rms="4.7990620136260986e-01" purity="5.0381529331207275e-01" nType="-99"/>
          <Node pos="r" depth="2" NCoef="0" IVar="-1" Cut="0.0000000000000000e+00" cType="1" res="8.0540945054963231e-04" rms="4.3413615226745605e-01" purity="7.1954113245010376e-01" nType="-99"/>
        </Node>
      </Node>
    </BinaryTree>
    <BinaryTree type="DecisionTree" boostWeight="1.0000000000000000e+00" itree="466">
      <Node pos="s" depth="0" NCoef="0" IVar="2" Cut="7.3978656005859375e+02" cType="1" res="1.0232274420559406e-02" rms="4.6218252182006836e-01" purity="5.0309622287750244e-01" nType="0">
        <Node pos="l" depth="1" NCoef="0" IVar="6" Cut="1.9874113798141479e+00" cType="1" res="4.0899724699556828e-03" rms="4.6327397227287292e-01" purity="4.8469024896621704e-01" nType="0">
          <Node pos="l" depth="2" NCoef="0" IVar="-1" Cut="0.0000000000000000e+00" cType="1" res="6.6524418070912361e-04" rms="4.6412780880928040e-01" purity="5.5337762832641602e-01" nType="-99"/>
          <Node pos="r" depth="2" NCoef="0" IVar="-1" Cut="0.0000000000000000e+00" cType="1" res="-1.2940405576955527e-04" rms="4.6248933672904968e-01" purity="4.6396824717521667e-01" nType="-99"/>
        </Node>
        <Node pos="r" depth="1" NCoef="0" IVar="-1" Cut="0.0000000000000000e+00" cType="1" res="1.1014848714694381e-03" rms="4.4454908370971680e-01" purity="7.0455944538116455e-01" nType="-99"/>
      </Node>
    </BinaryTree>
    <BinaryTree type="DecisionTree" boostWeight="1.0000000000000000e+00" itree="467">
      <Node pos="s" depth="0" NCoef="0" IVar="1" Cut="9.4235247373580933e-01" cType="1" res="5.7843918912112713e-03" rms="4.6217498183250427e-01" purity="4.9783495068550110e-01" nType="0">
        <Node pos="l" depth="1" NCoef="0" IVar="3" Cut="1.8142467737197876e-01" cType="1" res="-2.0801747217774391e-02" rms="4.6147733926773071e-01" purity="3.6732244491577148e-01" nType="0">
          <Node pos="l" depth="2" NCoef="0" IVar="-1" Cut="0.0000000000000000e+00" cType="1" res="-6.8881874904036522e-04" rms="4.5783460140228271e-01" purity="3.5501158237457275e-01" nType="-99"/>
          <Node pos="r" depth="2" NCoef="0" IVar="-1" Cut="0.0000000000000000e+00" cType="1" res="4.2610164382494986e-04" rms="4.7912755608558655e-01" purity="4.3583118915557861e-01" nType="-99"/>
        </Node>
        <Node pos="r" depth="1" NCoef="0" IVar="2" Cut="5.3921301269531250e+02" cType="1" res="2.0582422614097595e-02" rms="4.6190038323402405e-01" purity="5.7047915458679199e-01" nType="0">
          <Node pos="l" depth="2" NCoef="0" IVar="-1" Cut="0.0000000000000000e+00" cType="1" res="1.1009768059011549e-04" rms="4.6944761276245117e-01" purity="5.1353031396865845e-01" nType="-99"/>
          <Node pos="r" depth="2" NCoef="0" IVar="-1" Cut="0.0000000000000000e+00" cType="1" res="8.0928480019792914e-04" rms="4.4052127003669739e-01" purity="7.1213883161544800e-01" nType="-99"/>
        </Node>
      </Node>
    </BinaryTree>
    <BinaryTree type="DecisionTree" boostWeight="1.0000000000000000e+00" itree="468">
      <Node pos="s" depth="0" NCoef="0" IVar="1" Cut="9.8457849025726318e-01" cType="1" res="7.9437252134084702e-03" rms="4.6126821637153625e-01" purity="5.0061762332916260e-01" nType="0">
        <Node pos="l" depth="1" NCoef="0" IVar="6" Cut="1.5640738010406494e+00" cType="1" res="9.2307006707414985e-04" rms="4.6757596731185913e-01" purity="4.6691286563873291e-01" nType="0">
          <Node pos="l" depth="2" NCoef="0" IVar="-1" Cut="0.0000000000000000e+00" cType="1" res="1.1016513453796506e-03" rms="4.5234236121177673e-01" purity="5.9156572818756104e-01" nType="-99"/>
          <Node pos="r" depth="2" NCoef="0" IVar="-1" Cut="0.0000000000000000e+00" cType="1" res="-8.7659514974802732e-05" rms="4.6827629208564758e-01" purity="4.5743152499198914e-01" nType="-99"/>
        </Node>
        <Node pos="r" depth="1" NCoef="0" IVar="-1" Cut="0.0000000000000000e+00" cType="1" res="9.6902088262140751e-04" rms="3.9798817038536072e-01" purity="7.9006874561309814e-01" nType="-99"/>
      </Node>
    </BinaryTree>
    <BinaryTree type="DecisionTree" boostWeight="1.0000000000000000e+00" itree="469">
      <Node pos="s" depth="0" NCoef="0" IVar="2" Cut="7.4885620117187500e+02" cType="1" res="9.3467254191637039e-03" rms="4.6149390935897827e-01" purity="5.0290232896804810e-01" nType="0">
        <Node pos="l" depth="1" NCoef="0" IVar="0" Cut="8.3537422120571136e-02" cType="1" res="3.1762639991939068e-03" rms="4.6262773871421814e-01" purity="4.8486387729644775e-01" nType="0">
          <Node pos="l" depth="2" NCoef="0" IVar="-1" Cut="0.0000000000000000e+00" cType="1" res="-3.5711732925847173e-04" rms="4.6539837121963501e-01" purity="4.6488544344902039e-01" nType="-99"/>
          <Node pos="r" depth="2" NCoef="0" IVar="-1" Cut="0.0000000000000000e+00" cType="1" res="4.3828567140735686e-04" rms="4.5896929502487183e-01" purity="5.0432795286178589e-01" nType="-99"/>
        </Node>
        <Node pos="r" depth="1" NCoef="0" IVar="-1" Cut="0.0000000000000000e+00" cType="1" res="1.1203404283151031e-03" rms="4.4252672791481018e-01" purity="7.0687323808670044e-01" nType="-99"/>
      </Node>
    </BinaryTree>
    <BinaryTree type="DecisionTree" boostWeight="1.0000000000000000e+00" itree="470">
      <Node pos="s" depth="0" NCoef="0" IVar="4" Cut="5.1237199455499649e-02" cType="1" res="6.7611145786941051e-03" rms="4.6039715409278870e-01" purity="4.9957862496376038e-01" nType="0">
        <Node pos="l" depth="1" NCoef="0" IVar="5" Cut="2.4402841186523438e+02" cType="1" res="2.0827140659093857e-02" rms="4.5865565538406372e-01" purity="5.2065134048461914e-01" nType="0">
          <Node pos="l" depth="2" NCoef="0" IVar="-1" Cut="0.0000000000000000e+00" cType="1" res="-8.8773272000253201e-04" rms="4.3561121821403503e-01" purity="3.1860813498497009e-01" nType="-99"/>
          <Node pos="r" depth="2" NCoef="0" IVar="-1" Cut="0.0000000000000000e+00" cType="1" res="6.1716273194178939e-04" rms="4.6461540460586548e-01" purity="5.8653503656387329e-01" nType="-99"/>
        </Node>
        <Node pos="r" depth="1" NCoef="0" IVar="3" Cut="1.7941585183143616e-01" cType="1" res="-2.1339004859328270e-02" rms="4.6257764101028442e-01" purity="4.5748099684715271e-01" nType="0">
          <Node pos="l" depth="2" NCoef="0" IVar="-1" Cut="0.0000000000000000e+00" cType="1" res="-1.1041697580367327e-03" rms="4.5657354593276978e-01" purity="4.1488894820213318e-01" nType="-99"/>
          <Node pos="r" depth="2" NCoef="0" IVar="-1" Cut="0.0000000000000000e+00" cType="1" res="6.4032536465674639e-04" rms="4.6903273463249207e-01" purity="5.4288345575332642e-01" nType="-99"/>
        </Node>
      </Node>
    </BinaryTree>
    <BinaryTree type="DecisionTree" boostWeight="1.0000000000000000e+00" itree="471">
      <Node pos="s" depth="0" NCoef="0" IVar="0" Cut="1.2954126298427582e-01" cType="1" res="3.7117917090654373e-03" rms="4.6196174621582031e-01" purity="4.9610239267349243e-01" nType="0">
        <Node pos="l" depth="1" NCoef="0" IVar="2" Cut="7.3783959960937500e+02" cType="1" res="-8.8175516575574875e-03" rms="4.6323654055595398e-01" purity="4.8861077427864075e-01" nType="0">
          <Node pos="l" depth="2" NCoef="0" IVar="-1" Cut="0.0000000000000000e+00" cType="1" res="-3.4905766369774938e-04" rms="4.6425569057464600e-01" purity="4.6421858668327332e-01" nType="-99"/>
          <Node pos="r" depth="2" NCoef="0" IVar="-1" Cut="0.0000000000000000e+00" cType="1" res="9.3511608429253101e-04" rms="4.4817346334457397e-01" purity="6.9108480215072632e-01" nType="-99"/>
        </Node>
        <Node pos="r" depth="1" NCoef="0" IVar="2" Cut="3.8051193237304688e+02" cType="1" res="3.8149449974298477e-02" rms="4.5667219161987305e-01" purity="5.1669347286224365e-01" nType="0">
          <Node pos="l" depth="2" NCoef="0" IVar="-1" Cut="0.0000000000000000e+00" cType="1" res="-4.9239088548347354e-04" rms="4.4897368550300598e-01" purity="3.3610507845878601e-01" nType="-99"/>
          <Node pos="r" depth="2" NCoef="0" IVar="-1" Cut="0.0000000000000000e+00" cType="1" res="1.1286194203421474e-03" rms="4.5780134201049805e-01" purity="6.3724440336227417e-01" nType="-99"/>
        </Node>
      </Node>
    </BinaryTree>
    <BinaryTree type="DecisionTree" boostWeight="1.0000000000000000e+00" itree="472">
      <Node pos="s" depth="0" NCoef="0" IVar="1" Cut="9.3025857210159302e-01" cType="1" res="7.1529736742377281e-03" rms="4.6307370066642761e-01" purity="4.9875149130821228e-01" nType="0">
        <Node pos="l" depth="1" NCoef="0" IVar="0" Cut="8.7608359754085541e-02" cType="1" res="-2.6895157992839813e-02" rms="4.5627796649932861e-01" purity="3.4818255901336670e-01" nType="0">
          <Node pos="l" depth="2" NCoef="0" IVar="-1" Cut="0.0000000000000000e+00" cType="1" res="-1.1306271189823747e-03" rms="4.5643848180770874e-01" purity="3.4376385807991028e-01" nType="-99"/>
          <Node pos="r" depth="2" NCoef="0" IVar="-1" Cut="0.0000000000000000e+00" cType="1" res="-6.1770253523718566e-05" rms="4.5492038130760193e-01" purity="3.5400447249412537e-01" nType="-99"/>
        </Node>
        <Node pos="r" depth="1" NCoef="0" IVar="3" Cut="6.9837467744946480e-03" cType="1" res="1.6737811267375946e-02" rms="4.6451890468597412e-01" purity="5.4113787412643433e-01" nType="0">
          <Node pos="l" depth="2" NCoef="0" IVar="-1" Cut="0.0000000000000000e+00" cType="1" res="-2.6851806978811510e-05" rms="4.6077618002891541e-01" purity="5.1219534873962402e-01" nType="-99"/>
          <Node pos="r" depth="2" NCoef="0" IVar="-1" Cut="0.0000000000000000e+00" cType="1" res="5.7398085482418537e-04" rms="4.6744191646575928e-01" purity="5.6918835639953613e-01" nType="-99"/>
        </Node>
      </Node>
    </BinaryTree>
    <BinaryTree type="DecisionTree" boostWeight="1.0000000000000000e+00" itree="473">
      <Node pos="s" depth="0" NCoef="0" IVar="4" Cut="5.5697061121463776e-02" cType="1" res="5.6596077047288418e-03" rms="4.6222606301307678e-01" purity="4.9756568670272827e-01" nType="0">
        <Node pos="l" depth="1" NCoef="0" IVar="2" Cut="3.4563128662109375e+02" cType="1" res="1.9944781437516212e-02" rms="4.6222534775733948e-01" purity="5.1699250936508179e-01" nType="0">
          <Node pos="l" depth="2" NCoef="0" IVar="-1" Cut="0.0000000000000000e+00" cType="1" res="-8.4701413288712502e-04" rms="4.3169918656349182e-01" purity="2.9584416747093201e-01" nType="-99"/>
          <Node pos="r" depth="2" NCoef="0" IVar="-1" Cut="0.0000000000000000e+00" cType="1" res="5.2420259453356266e-04" rms="4.6854379773139954e-01" purity="5.7038903236389160e-01" nType="-99"/>
        </Node>
        <Node pos="r" depth="1" NCoef="0" IVar="3" Cut="1.9098617136478424e-01" cType="1" res="-2.4785753339529037e-02" rms="4.6075209975242615e-01" purity="4.5616209506988525e-01" nType="0">
          <Node pos="l" depth="2" NCoef="0" IVar="-1" Cut="0.0000000000000000e+00" cType="1" res="-1.3117470080032945e-03" rms="4.5595011115074158e-01" purity="4.0663820505142212e-01" nType="-99"/>
          <Node pos="r" depth="2" NCoef="0" IVar="-1" Cut="0.0000000000000000e+00" cType="1" res="7.3035637615248561e-04" rms="4.6292418241500854e-01" purity="5.5607825517654419e-01" nType="-99"/>
        </Node>
      </Node>
    </BinaryTree>
    <BinaryTree type="DecisionTree" boostWeight="1.0000000000000000e+00" itree="474">
      <Node pos="s" depth="0" NCoef="0" IVar="1" Cut="9.4833773374557495e-01" cType="1" res="8.7441597133874893e-03" rms="4.6057495474815369e-01" purity="5.0202190876007080e-01" nType="0">
        <Node pos="l" depth="1" NCoef="0" IVar="0" Cut="8.9470140635967255e-02" cType="1" res="-1.4133418910205364e-02" rms="4.6207794547080994e-01" purity="3.8437324762344360e-01" nType="0">
          <Node pos="l" depth="2" NCoef="0" IVar="-1" Cut="0.0000000000000000e+00" cType="1" res="-7.5896776979789138e-04" rms="4.6270138025283813e-01" purity="3.7923914194107056e-01" nType="-99"/>
          <Node pos="r" depth="2" NCoef="0" IVar="-1" Cut="0.0000000000000000e+00" cType="1" res="2.3768241226207465e-04" rms="4.6006616950035095e-01" purity="3.9113980531692505e-01" nType="-99"/>
        </Node>
        <Node pos="r" depth="1" NCoef="0" IVar="6" Cut="2.6283621788024902e+00" cType="1" res="2.6897858828306198e-02" rms="4.5856732130050659e-01" purity="5.9537786245346069e-01" nType="0">
          <Node pos="l" depth="2" NCoef="0" IVar="-1" Cut="0.0000000000000000e+00" cType="1" res="5.6120805675163865e-04" rms="4.5706427097320557e-01" purity="6.2099367380142212e-01" nType="-99"/>
          <Node pos="r" depth="2" NCoef="0" IVar="-1" Cut="0.0000000000000000e+00" cType="1" res="-9.2750391922891140e-04" rms="4.6434104442596436e-01" purity="3.9705857634544373e-01" nType="-99"/>
        </Node>
      </Node>
    </BinaryTree>
    <BinaryTree type="DecisionTree" boostWeight="1.0000000000000000e+00" itree="475">
      <Node pos="s" depth="0" NCoef="0" IVar="5" Cut="4.7547015380859375e+02" cType="1" res="4.3694204650819302e-03" rms="4.6222198009490967e-01" purity="4.9523481726646423e-01" nType="0">
        <Node pos="l" depth="1" NCoef="0" IVar="3" Cut="3.3708553761243820e-02" cType="1" res="-3.1180824153125286e-03" rms="4.6310037374496460e-01" purity="4.6794012188911438e-01" nType="0">
          <Node pos="l" depth="2" NCoef="0" IVar="-1" Cut="0.0000000000000000e+00" cType="1" res="-4.3425831245258451e-04" rms="4.5715010166168213e-01" purity="4.3614578247070312e-01" nType="-99"/>
          <Node pos="r" depth="2" NCoef="0" IVar="-1" Cut="0.0000000000000000e+00" cType="1" res="3.3656242885626853e-04" rms="4.6931892633438110e-01" purity="5.0653606653213501e-01" nType="-99"/>
        </Node>
        <Node pos="r" depth="1" NCoef="0" IVar="-1" Cut="0.0000000000000000e+00" cType="1" res="8.1498298095539212e-04" rms="4.5314264297485352e-01" purity="6.7765027284622192e-01" nType="-99"/>
      </Node>
    </BinaryTree>
    <BinaryTree type="DecisionTree" boostWeight="1.0000000000000000e+00" itree="476">
      <Node pos="s" depth="0" NCoef="0" IVar="2" Cut="3.2789929199218750e+02" cType="1" res="7.5840973295271397e-03" rms="4.6249192953109741e-01" purity="4.9951246380805969e-01" nType="0">
        <Node pos="l" depth="1" NCoef="0" IVar="5" Cut="2.1289619445800781e+02" cType="1" res="-4.2453411966562271e-02" rms="4.1234046220779419e-01" purity="2.6271340250968933e-01" nType="0">
          <Node pos="l" depth="2" NCoef="0" IVar="-1" Cut="0.0000000000000000e+00" cType="1" res="-2.6726122014224529e-03" rms="3.9312613010406494e-01" purity="2.2311796247959137e-01" nType="-99"/>
          <Node pos="r" depth="2" NCoef="0" IVar="-1" Cut="0.0000000000000000e+00" cType="1" res="-1.4785971143282950e-04" rms="4.3448558449745178e-01" purity="3.1681224703788757e-01" nType="-99"/>
        </Node>
        <Node pos="r" depth="1" NCoef="0" IVar="0" Cut="8.3320781588554382e-02" cType="1" res="1.4894863590598106e-02" rms="4.6892407536506653e-01" purity="5.3411012887954712e-01" nType="0">
          <Node pos="l" depth="2" NCoef="0" IVar="-1" Cut="0.0000000000000000e+00" cType="1" res="-5.7137844123644754e-05" rms="4.7158041596412659e-01" purity="5.1903593540191650e-01" nType="-99"/>
          <Node pos="r" depth="2" NCoef="0" IVar="-1" Cut="0.0000000000000000e+00" cType="1" res="6.1484164325520396e-04" rms="4.6489948034286499e-01" purity="5.5177491903305054e-01" nType="-99"/>
        </Node>
      </Node>
    </BinaryTree>
    <BinaryTree type="DecisionTree" boostWeight="1.0000000000000000e+00" itree="477">
      <Node pos="s" depth="0" NCoef="0" IVar="1" Cut="9.8406356573104858e-01" cType="1" res="8.8339671492576599e-03" rms="4.5989838242530823e-01" purity="5.0301980972290039e-01" nType="0">
        <Node pos="l" depth="1" NCoef="0" IVar="5" Cut="2.6588882446289062e+02" cType="1" res="8.2993623800575733e-04" rms="4.6657672524452209e-01" purity="4.6716028451919556e-01" nType="0">
          <Node pos="l" depth="2" NCoef="0" IVar="-1" Cut="0.0000000000000000e+00" cType="1" res="-8.5416337242349982e-04" rms="4.4275212287902832e-01" purity="3.0571097135543823e-01" nType="-99"/>
          <Node pos="r" depth="2" NCoef="0" IVar="-1" Cut="0.0000000000000000e+00" cType="1" res="2.7170276734977961e-04" rms="4.7719219326972961e-01" purity="5.4722595214843750e-01" nType="-99"/>
        </Node>
        <Node pos="r" depth="1" NCoef="0" IVar="-1" Cut="0.0000000000000000e+00" cType="1" res="1.0462329955771565e-03" rms="3.9543440937995911e-01" purity="7.9495114088058472e-01" nType="-99"/>
      </Node>
    </BinaryTree>
    <BinaryTree type="DecisionTree" boostWeight="1.0000000000000000e+00" itree="478">
      <Node pos="s" depth="0" NCoef="0" IVar="3" Cut="1.7842550575733185e-01" cType="1" res="7.0173447020351887e-03" rms="4.6217849850654602e-01" purity="4.9939832091331482e-01" nType="0">
        <Node pos="l" depth="1" NCoef="0" IVar="4" Cut="7.5562007725238800e-02" cType="1" res="-1.4850493753328919e-03" rms="4.6084010601043701e-01" purity="4.8769184947013855e-01" nType="0">
          <Node pos="l" depth="2" NCoef="0" IVar="-1" Cut="0.0000000000000000e+00" cType="1" res="2.0843234960921109e-04" rms="4.6018463373184204e-01" purity="5.0799179077148438e-01" nType="-99"/>
          <Node pos="r" depth="2" NCoef="0" IVar="-1" Cut="0.0000000000000000e+00" cType="1" res="-1.2594499858096242e-03" rms="4.5966133475303650e-01" purity="4.0180236101150513e-01" nType="-99"/>
        </Node>
        <Node pos="r" depth="1" NCoef="0" IVar="5" Cut="2.6858093261718750e+02" cType="1" res="5.6521609425544739e-02" rms="4.6682983636856079e-01" purity="5.6755793094635010e-01" nType="0">
          <Node pos="l" depth="2" NCoef="0" IVar="-1" Cut="0.0000000000000000e+00" cType="1" res="6.9613195955753326e-04" rms="4.7576504945755005e-01" purity="4.2941921949386597e-01" nType="-99"/>
          <Node pos="r" depth="2" NCoef="0" IVar="-1" Cut="0.0000000000000000e+00" cType="1" res="1.0438445024192333e-03" rms="4.6101763844490051e-01" purity="6.4812666177749634e-01" nType="-99"/>
        </Node>
      </Node>
    </BinaryTree>
    <BinaryTree type="DecisionTree" boostWeight="1.0000000000000000e+00" itree="479">
      <Node pos="s" depth="0" NCoef="0" IVar="1" Cut="9.8406356573104858e-01" cType="1" res="1.1162029579281807e-02" rms="4.6026200056076050e-01" purity="5.0527256727218628e-01" nType="0">
        <Node pos="l" depth="1" NCoef="0" IVar="6" Cut="1.6487830877304077e+00" cType="1" res="3.2046381384134293e-03" rms="4.6736890077590942e-01" purity="4.6919038891792297e-01" nType="0">
          <Node pos="l" depth="2" NCoef="0" IVar="-1" Cut="0.0000000000000000e+00" cType="1" res="9.9544588010758162e-04" rms="4.6027162671089172e-01" purity="5.7495719194412231e-01" nType="-99"/>
          <Node pos="r" depth="2" NCoef="0" IVar="-1" Cut="0.0000000000000000e+00" cType="1" res="-5.4462361731566489e-05" rms="4.6766096353530884e-01" purity="4.5852395892143250e-01" nType="-99"/>
        </Node>
        <Node pos="r" depth="1" NCoef="0" IVar="-1" Cut="0.0000000000000000e+00" cType="1" res="1.0663185967132449e-03" rms="3.9214161038398743e-01" purity="7.9753279685974121e-01" nType="-99"/>
      </Node>
    </BinaryTree>
    <BinaryTree type="DecisionTree" boostWeight="1.0000000000000000e+00" itree="480">
      <Node pos="s" depth="0" NCoef="0" IVar="1" Cut="9.2176586389541626e-01" cType="1" res="6.6487798467278481e-03" rms="4.6136754751205444e-01" purity="4.9965611100196838e-01" nType="0">
        <Node pos="l" depth="1" NCoef="0" IVar="0" Cut="9.6675805747509003e-02" cType="1" res="-4.2421326041221619e-02" rms="4.4683960080146790e-01" purity="3.2803070545196533e-01" nType="0">
          <Node pos="l" depth="2" NCoef="0" IVar="-1" Cut="0.0000000000000000e+00" cType="1" res="-1.5950414817780256e-03" rms="4.4653406739234924e-01" purity="3.2130044698715210e-01" nType="-99"/>
          <Node pos="r" depth="2" NCoef="0" IVar="-1" Cut="0.0000000000000000e+00" cType="1" res="-3.4090431290678680e-04" rms="4.4583258032798767e-01" purity="3.3884662389755249e-01" nType="-99"/>
        </Node>
        <Node pos="r" depth="1" NCoef="0" IVar="3" Cut="1.0593347996473312e-01" cType="1" res="1.4885892160236835e-02" rms="4.6325245499610901e-01" purity="5.2846580743789673e-01" nType="0">
          <Node pos="l" depth="2" NCoef="0" IVar="-1" Cut="0.0000000000000000e+00" cType="1" res="5.1406230340944603e-05" rms="4.6101537346839905e-01" purity="5.1138877868652344e-01" nType="-99"/>
          <Node pos="r" depth="2" NCoef="0" IVar="-1" Cut="0.0000000000000000e+00" cType="1" res="7.7347439946606755e-04" rms="4.6758750081062317e-01" purity="5.7327324151992798e-01" nType="-99"/>
        </Node>
      </Node>
    </BinaryTree>
    <BinaryTree type="DecisionTree" boostWeight="1.0000000000000000e+00" itree="481">
      <Node pos="s" depth="0" NCoef="0" IVar="2" Cut="7.4310711669921875e+02" cType="1" res="6.8065491504967213e-03" rms="4.6157008409500122e-01" purity="4.9980944395065308e-01" nType="0">
        <Node pos="l" depth="1" NCoef="0" IVar="1" Cut="9.3992310762405396e-01" cType="1" res="5.5400258861482143e-04" rms="4.6250098943710327e-01" purity="4.8117899894714355e-01" nType="0">
          <Node pos="l" depth="2" NCoef="0" IVar="-1" Cut="0.0000000000000000e+00" cType="1" res="-7.2076288051903248e-04" rms="4.5314389467239380e-01" purity="3.4269127249717712e-01" nType="-99"/>
          <Node pos="r" depth="2" NCoef="0" IVar="-1" Cut="0.0000000000000000e+00" cType="1" res="2.5168032152578235e-04" rms="4.6625301241874695e-01" purity="5.4740595817565918e-01" nType="-99"/>
        </Node>
        <Node pos="r" depth="1" NCoef="0" IVar="-1" Cut="0.0000000000000000e+00" cType="1" res="1.0817945003509521e-03" rms="4.4554987549781799e-01" purity="7.0378547906875610e-01" nType="-99"/>
      </Node>
    </BinaryTree>
    <BinaryTree type="DecisionTree" boostWeight="1.0000000000000000e+00" itree="482">
      <Node pos="s" depth="0" NCoef="0" IVar="2" Cut="3.2789929199218750e+02" cType="1" res="8.9632356539368629e-03" rms="4.6058824658393860e-01" purity="5.0457292795181274e-01" nType="0">
        <Node pos="l" depth="1" NCoef="0" IVar="5" Cut="2.0840385437011719e+02" cType="1" res="-4.4887047260999680e-02" rms="4.1559532284736633e-01" purity="2.5759002566337585e-01" nType="0">
          <Node pos="l" depth="2" NCoef="0" IVar="-1" Cut="0.0000000000000000e+00" cType="1" res="-2.9456876218318939e-03" rms="3.9327263832092285e-01" purity="2.1326053142547607e-01" nType="-99"/>
          <Node pos="r" depth="2" NCoef="0" IVar="-1" Cut="0.0000000000000000e+00" cType="1" res="-3.5956539795733988e-04" rms="4.3604129552841187e-01" purity="3.0538070201873779e-01" nType="-99"/>
        </Node>
        <Node pos="r" depth="1" NCoef="0" IVar="1" Cut="9.6933186054229736e-01" cType="1" res="1.6596486791968346e-02" rms="4.6611183881759644e-01" purity="5.3958261013031006e-01" nType="0">
          <Node pos="l" depth="2" NCoef="0" IVar="-1" Cut="0.0000000000000000e+00" cType="1" res="7.2060494858305901e-05" rms="4.7776442766189575e-01" purity="4.7091403603553772e-01" nType="-99"/>
          <Node pos="r" depth="2" NCoef="0" IVar="-1" Cut="0.0000000000000000e+00" cType="1" res="7.4759311974048615e-04" rms="4.3079707026481628e-01" purity="7.2700786590576172e-01" nType="-99"/>
        </Node>
      </Node>
    </BinaryTree>
    <BinaryTree type="DecisionTree" boostWeight="1.0000000000000000e+00" itree="483">
      <Node pos="s" depth="0" NCoef="0" IVar="3" Cut="2.0873481035232544e-01" cType="1" res="7.2477892972528934e-03" rms="4.6078902482986450e-01" purity="5.0060397386550903e-01" nType="0">
        <Node pos="l" depth="1" NCoef="0" IVar="4" Cut="1.1499508470296860e-01" cType="1" res="-5.6964316172525287e-04" rms="4.5996993780136108e-01" purity="4.9049574136734009e-01" nType="0">
          <Node pos="l" depth="2" NCoef="0" IVar="-1" Cut="0.0000000000000000e+00" cType="1" res="1.5636769239790738e-04" rms="4.5971134305000305e-01" purity="5.0424599647521973e-01" nType="-99"/>
          <Node pos="r" depth="2" NCoef="0" IVar="-1" Cut="0.0000000000000000e+00" cType="1" res="-1.7732968553900719e-03" rms="4.5538520812988281e-01" purity="3.7704166769981384e-01" nType="-99"/>
        </Node>
        <Node pos="r" depth="1" NCoef="0" IVar="-1" Cut="0.0000000000000000e+00" cType="1" res="1.2244023382663727e-03" rms="4.6226191520690918e-01" purity="5.8973419666290283e-01" nType="-99"/>
      </Node>
    </BinaryTree>
    <BinaryTree type="DecisionTree" boostWeight="1.0000000000000000e+00" itree="484">
      <Node pos="s" depth="0" NCoef="0" IVar="1" Cut="9.6920454502105713e-01" cType="1" res="3.1258107628673315e-03" rms="4.6002677083015442e-01" purity="4.9702894687652588e-01" nType="0">
        <Node pos="l" depth="1" NCoef="0" IVar="5" Cut="5.2181793212890625e+02" cType="1" res="-9.5349196344614029e-03" rms="4.6658238768577576e-01" purity="4.2667192220687866e-01" nType="0">
          <Node pos="l" depth="2" NCoef="0" IVar="-1" Cut="0.0000000000000000e+00" cType="1" res="-3.7056187284179032e-04" rms="4.6597129106521606e-01" purity="4.0314358472824097e-01" nType="-99"/>
          <Node pos="r" depth="2" NCoef="0" IVar="-1" Cut="0.0000000000000000e+00" cType="1" res="9.5643248641863465e-04" rms="4.6584257483482361e-01" purity="6.5665972232818604e-01" nType="-99"/>
        </Node>
        <Node pos="r" depth="1" NCoef="0" IVar="0" Cut="9.9586784839630127e-02" cType="1" res="3.9249707013368607e-02" rms="4.3878293037414551e-01" purity="6.9777321815490723e-01" nType="0">
          <Node pos="l" depth="2" NCoef="0" IVar="-1" Cut="0.0000000000000000e+00" cType="1" res="2.9866010299883783e-04" rms="4.4684121012687683e-01" purity="6.7875182628631592e-01" nType="-99"/>
          <Node pos="r" depth="2" NCoef="0" IVar="-1" Cut="0.0000000000000000e+00" cType="1" res="9.5334544312208891e-04" rms="4.2613890767097473e-01" purity="7.2354370355606079e-01" nType="-99"/>
        </Node>
      </Node>
    </BinaryTree>
    <BinaryTree type="DecisionTree" boostWeight="1.0000000000000000e+00" itree="485">
      <Node pos="s" depth="0" NCoef="0" IVar="0" Cut="7.3148429393768311e-02" cType="1" res="1.0693077929317951e-02" rms="4.6034958958625793e-01" purity="5.0513082742691040e-01" nType="0">
        <Node pos="l" depth="1" NCoef="0" IVar="6" Cut="2.5116922855377197e+00" cType="1" res="-1.2661098502576351e-02" rms="4.6351581811904907e-01" purity="4.9144375324249268e-01" nType="0">
          <Node pos="l" depth="2" NCoef="0" IVar="-1" Cut="0.0000000000000000e+00" cType="1" res="3.9820257370593026e-05" rms="4.6923351287841797e-01" purity="5.4235148429870605e-01" nType="-99"/>
          <Node pos="r" depth="2" NCoef="0" IVar="-1" Cut="0.0000000000000000e+00" cType="1" res="-1.5758636873215437e-03" rms="4.4201120734214783e-01" purity="3.3285740017890930e-01" nType="-99"/>
        </Node>
        <Node pos="r" depth="1" NCoef="0" IVar="2" Cut="3.7927474975585938e+02" cType="1" res="2.9997181147336960e-02" rms="4.5681548118591309e-01" purity="5.1644432544708252e-01" nType="0">
          <Node pos="l" depth="2" NCoef="0" IVar="-1" Cut="0.0000000000000000e+00" cType="1" res="-4.8245329526253045e-04" rms="4.4378325343132019e-01" purity="3.3182117342948914e-01" nType="-99"/>
          <Node pos="r" depth="2" NCoef="0" IVar="-1" Cut="0.0000000000000000e+00" cType="1" res="8.6397147970274091e-04" rms="4.6159550547599792e-01" purity="6.1559480428695679e-01" nType="-99"/>
        </Node>
      </Node>
    </BinaryTree>
    <BinaryTree type="DecisionTree" boostWeight="1.0000000000000000e+00" itree="486">
      <Node pos="s" depth="0" NCoef="0" IVar="1" Cut="9.1916197538375854e-01" cType="1" res="6.5978346392512321e-03" rms="4.6013244986534119e-01" purity="5.0068503618240356e-01" nType="0">
        <Node pos="l" depth="1" NCoef="0" IVar="0" Cut="8.7467066943645477e-02" cType="1" res="-4.9664683640003204e-02" rms="4.4327327609062195e-01" purity="3.1906375288963318e-01" nType="0">
          <Node pos="l" depth="2" NCoef="0" IVar="-1" Cut="0.0000000000000000e+00" cType="1" res="-1.7034454504027963e-03" rms="4.4211268424987793e-01" purity="3.2084792852401733e-01" nType="-99"/>
          <Node pos="r" depth="2" NCoef="0" IVar="-1" Cut="0.0000000000000000e+00" cType="1" res="-7.9671165440231562e-04" rms="4.4404932856559753e-01" purity="3.1670758128166199e-01" nType="-99"/>
        </Node>
        <Node pos="r" depth="1" NCoef="0" IVar="5" Cut="4.1130590820312500e+02" cType="1" res="1.4593135565519333e-02" rms="4.6192261576652527e-01" purity="5.2649468183517456e-01" nType="0">
          <Node pos="l" depth="2" NCoef="0" IVar="-1" Cut="0.0000000000000000e+00" cType="1" res="6.3876854255795479e-05" rms="4.6487149596214294e-01" purity="4.8151779174804688e-01" nType="-99"/>
          <Node pos="r" depth="2" NCoef="0" IVar="-1" Cut="0.0000000000000000e+00" cType="1" res="7.9293298767879605e-04" rms="4.4930654764175415e-01" purity="6.8319618701934814e-01" nType="-99"/>
        </Node>
      </Node>
    </BinaryTree>
    <BinaryTree type="DecisionTree" boostWeight="1.0000000000000000e+00" itree="487">
      <Node pos="s" depth="0" NCoef="0" IVar="4" Cut="6.9950358010828495e-03" cType="1" res="7.1803429163992405e-03" rms="4.6118971705436707e-01" purity="5.0165510177612305e-01" nType="0">
        <Node pos="l" depth="1" NCoef="0" IVar="5" Cut="3.1818218994140625e+02" cType="1" res="3.0200513079762459e-02" rms="4.5769158005714417e-01" purity="5.3618878126144409e-01" nType="0">
          <Node pos="l" depth="2" NCoef="0" IVar="-1" Cut="0.0000000000000000e+00" cType="1" res="1.7769083206076175e-04" rms="4.6278282999992371e-01" purity="4.3776828050613403e-01" nType="-99"/>
          <Node pos="r" depth="2" NCoef="0" IVar="-1" Cut="0.0000000000000000e+00" cType="1" res="8.7517406791448593e-04" rms="4.4904708862304688e-01" purity="6.6948300600051880e-01" nType="-99"/>
        </Node>
        <Node pos="r" depth="1" NCoef="0" IVar="6" Cut="1.8152059316635132e+00" cType="1" res="-1.4670356176793575e-02" rms="4.6342915296554565e-01" purity="4.6887582540512085e-01" nType="0">
          <Node pos="l" depth="2" NCoef="0" IVar="-1" Cut="0.0000000000000000e+00" cType="1" res="8.1527000293135643e-04" rms="4.5403379201889038e-01" purity="5.9051281213760376e-01" nType="-99"/>
          <Node pos="r" depth="2" NCoef="0" IVar="-1" Cut="0.0000000000000000e+00" cType="1" res="-5.1443552365526557e-04" rms="4.6405315399169922e-01" purity="4.4970047473907471e-01" nType="-99"/>
        </Node>
      </Node>
    </BinaryTree>
    <BinaryTree type="DecisionTree" boostWeight="1.0000000000000000e+00" itree="488">
      <Node pos="s" depth="0" NCoef="0" IVar="2" Cut="2.9745611572265625e+02" cType="1" res="6.4458339475095272e-03" rms="4.6184247732162476e-01" purity="4.9812632799148560e-01" nType="0">
        <Node pos="l" depth="1" NCoef="0" IVar="-1" Cut="0.0000000000000000e+00" cType="1" res="-2.9601957648992538e-03" rms="3.8629984855651855e-01" purity="2.1091584861278534e-01" nType="-99"/>
        <Node pos="r" depth="1" NCoef="0" IVar="1" Cut="9.8406356573104858e-01" cType="1" res="1.1034920811653137e-02" rms="4.6535605192184448e-01" purity="5.1448214054107666e-01" nType="0">
          <Node pos="l" depth="2" NCoef="0" IVar="-1" Cut="0.0000000000000000e+00" cType="1" res="8.2736398326233029e-05" rms="4.7283199429512024e-01" purity="4.8002031445503235e-01" nType="-99"/>
          <Node pos="r" depth="2" NCoef="0" IVar="-1" Cut="0.0000000000000000e+00" cType="1" res="9.3375751748681068e-04" rms="3.9577224850654602e-01" purity="7.9293519258499146e-01" nType="-99"/>
        </Node>
      </Node>
    </BinaryTree>
    <BinaryTree type="DecisionTree" boostWeight="1.0000000000000000e+00" itree="489">
      <Node pos="s" depth="0" NCoef="0" IVar="2" Cut="7.3263525390625000e+02" cType="1" res="3.3391371835023165e-03" rms="4.6244275569915771e-01" purity="4.9538436532020569e-01" nType="0">
        <Node pos="l" depth="1" NCoef="0" IVar="0" Cut="1.1878875643014908e-01" cType="1" res="-3.6323168314993382e-03" rms="4.6350613236427307e-01" purity="4.7508034110069275e-01" nType="0">
          <Node pos="l" depth="2" NCoef="0" IVar="-1" Cut="0.0000000000000000e+00" cType="1" res="-3.2775025465525687e-04" rms="4.6615681052207947e-01" purity="4.6297723054885864e-01" nType="-99"/>
          <Node pos="r" depth="2" NCoef="0" IVar="-1" Cut="0.0000000000000000e+00" cType="1" res="4.1768228402361274e-04" rms="4.5696997642517090e-01" purity="4.9964535236358643e-01" nType="-99"/>
        </Node>
        <Node pos="r" depth="1" NCoef="0" IVar="-1" Cut="0.0000000000000000e+00" cType="1" res="1.0830780956894159e-03" rms="4.4498938322067261e-01" purity="7.0490705966949463e-01" nType="-99"/>
      </Node>
    </BinaryTree>
    <BinaryTree type="DecisionTree" boostWeight="1.0000000000000000e+00" itree="490">
      <Node pos="s" depth="0" NCoef="0" IVar="6" Cut="2.0019416809082031e+00" cType="1" res="1.7445994308218360e-03" rms="4.6000742912292480e-01" purity="4.9607959389686584e-01" nType="0">
        <Node pos="l" depth="1" NCoef="0" IVar="5" Cut="2.9530718994140625e+02" cType="1" res="3.9381124079227448e-02" rms="4.5796117186546326e-01" purity="5.7320481538772583e-01" nType="0">
          <Node pos="l" depth="2" NCoef="0" IVar="-1" Cut="0.0000000000000000e+00" cType="1" res="2.2553344024345279e-05" rms="4.6982756257057190e-01" purity="4.4219985604286194e-01" nType="-99"/>
          <Node pos="r" depth="2" NCoef="0" IVar="-1" Cut="0.0000000000000000e+00" cType="1" res="1.0574879124760628e-03" rms="4.4361737370491028e-01" purity="6.9559174776077271e-01" nType="-99"/>
        </Node>
        <Node pos="r" depth="1" NCoef="0" IVar="0" Cut="1.2632353603839874e-01" cType="1" res="-1.0430412366986275e-02" rms="4.6000874042510986e-01" purity="4.7113043069839478e-01" nType="0">
          <Node pos="l" depth="2" NCoef="0" IVar="-1" Cut="0.0000000000000000e+00" cType="1" res="-4.8175439587794244e-04" rms="4.6130639314651489e-01" purity="4.5965531468391418e-01" nType="-99"/>
          <Node pos="r" depth="2" NCoef="0" IVar="-1" Cut="0.0000000000000000e+00" cType="1" res="4.9966003280133009e-04" rms="4.5429447293281555e-01" purity="5.0287055969238281e-01" nType="-99"/>
        </Node>
      </Node>
    </BinaryTree>
    <BinaryTree type="DecisionTree" boostWeight="1.0000000000000000e+00" itree="491">
      <Node pos="s" depth="0" NCoef="0" IVar="5" Cut="5.2181793212890625e+02" cType="1" res="8.9272763580083847e-03" rms="4.6153631806373596e-01" purity="5.0136679410934448e-01" nType="0">
        <Node pos="l" depth="1" NCoef="0" IVar="3" Cut="-1.2634293735027313e-01" cType="1" res="2.2489270195364952e-03" rms="4.6303218603134155e-01" purity="4.8023861646652222e-01" nType="0">
          <Node pos="l" depth="2" NCoef="0" IVar="-1" Cut="0.0000000000000000e+00" cType="1" res="-1.7408316489309072e-03" rms="4.3666940927505493e-01" purity="3.6524987220764160e-01" nType="-99"/>
          <Node pos="r" depth="2" NCoef="0" IVar="-1" Cut="0.0000000000000000e+00" cType="1" res="1.3054195733275265e-04" rms="4.6421626210212708e-01" purity="4.8733797669410706e-01" nType="-99"/>
        </Node>
        <Node pos="r" depth="1" NCoef="0" IVar="-1" Cut="0.0000000000000000e+00" cType="1" res="1.0555303888395429e-03" rms="4.4192042946815491e-01" purity="7.0333182811737061e-01" nType="-99"/>
      </Node>
    </BinaryTree>
    <BinaryTree type="DecisionTree" boostWeight="1.0000000000000000e+00" itree="492">
      <Node pos="s" depth="0" NCoef="0" IVar="1" Cut="9.3123656511306763e-01" cType="1" res="3.2791639678180218e-03" rms="4.6114966273307800e-01" purity="4.9681043624877930e-01" nType="0">
        <Node pos="l" depth="1" NCoef="0" IVar="0" Cut="4.3795488774776459e-02" cType="1" res="-4.1759140789508820e-02" rms="4.5022687315940857e-01" purity="3.3375278115272522e-01" nType="0">
          <Node pos="l" depth="2" NCoef="0" IVar="-1" Cut="0.0000000000000000e+00" cType="1" res="-1.7944279825314879e-03" rms="4.5527184009552002e-01" purity="3.3026251196861267e-01" nType="-99"/>
          <Node pos="r" depth="2" NCoef="0" IVar="-1" Cut="0.0000000000000000e+00" cType="1" res="-7.9053372610360384e-04" rms="4.4787433743476868e-01" purity="3.3505246043205261e-01" nType="-99"/>
        </Node>
        <Node pos="r" depth="1" NCoef="0" IVar="2" Cut="3.1019598388671875e+02" cType="1" res="1.6380744054913521e-02" rms="4.6345776319503784e-01" purity="5.4424369335174561e-01" nType="0">
          <Node pos="l" depth="2" NCoef="0" IVar="-1" Cut="0.0000000000000000e+00" cType="1" res="-1.7496570944786072e-03" rms="4.2300283908843994e-01" purity="2.7346596121788025e-01" nType="-99"/>
          <Node pos="r" depth="2" NCoef="0" IVar="-1" Cut="0.0000000000000000e+00" cType="1" res="3.7244113627821207e-04" rms="4.6612086892127991e-01" purity="5.6633275747299194e-01" nType="-99"/>
        </Node>
      </Node>
    </BinaryTree>
    <BinaryTree type="DecisionTree" boostWeight="1.0000000000000000e+00" itree="493">
      <Node pos="s" depth="0" NCoef="0" IVar="2" Cut="4.6640737915039062e+02" cType="1" res="5.4996022954583168e-03" rms="4.6061071753501892e-01" purity="4.9829694628715515e-01" nType="0">
        <Node pos="l" depth="1" NCoef="0" IVar="1" Cut="9.2234545946121216e-01" cType="1" res="-1.2455781921744347e-02" rms="4.5619973540306091e-01" purity="3.9936286211013794e-01" nType="0">
          <Node pos="l" depth="2" NCoef="0" IVar="-1" Cut="0.0000000000000000e+00" cType="1" res="-2.0434448961168528e-03" rms="4.1204568743705750e-01" purity="2.2896441817283630e-01" nType="-99"/>
          <Node pos="r" depth="2" NCoef="0" IVar="-1" Cut="0.0000000000000000e+00" cType="1" res="-9.4160124717745930e-05" rms="4.6343797445297241e-01" purity="4.3075954914093018e-01" nType="-99"/>
        </Node>
        <Node pos="r" depth="1" NCoef="0" IVar="0" Cut="5.8001872152090073e-02" cType="1" res="2.8494479134678841e-02" rms="4.6518778800964355e-01" purity="6.2499850988388062e-01" nType="0">
          <Node pos="l" depth="2" NCoef="0" IVar="-1" Cut="0.0000000000000000e+00" cType="1" res="-4.9430193030275404e-05" rms="4.7590962052345276e-01" purity="5.7758313417434692e-01" nType="-99"/>
          <Node pos="r" depth="2" NCoef="0" IVar="-1" Cut="0.0000000000000000e+00" cType="1" res="8.3418301073834300e-04" rms="4.5353856682777405e-01" purity="6.6740226745605469e-01" nType="-99"/>
        </Node>
      </Node>
    </BinaryTree>
    <BinaryTree type="DecisionTree" boostWeight="1.0000000000000000e+00" itree="494">
      <Node pos="s" depth="0" NCoef="0" IVar="1" Cut="9.8436695337295532e-01" cType="1" res="6.8146465346217155e-03" rms="4.6084243059158325e-01" purity="5.0039434432983398e-01" nType="0">
        <Node pos="l" depth="1" NCoef="0" IVar="4" Cut="-3.8977670483291149e-03" cType="1" res="-4.1517286445014179e-04" rms="4.6742177009582520e-01" purity="4.6536272764205933e-01" nType="0">
          <Node pos="l" depth="2" NCoef="0" IVar="-1" Cut="0.0000000000000000e+00" cType="1" res="4.3127578101120889e-04" rms="4.6769213676452637e-01" purity="4.9519246816635132e-01" nType="-99"/>
          <Node pos="r" depth="2" NCoef="0" IVar="-1" Cut="0.0000000000000000e+00" cType="1" res="-3.6745911347679794e-04" rms="4.6643742918968201e-01" purity="4.4337552785873413e-01" nType="-99"/>
        </Node>
        <Node pos="r" depth="1" NCoef="0" IVar="-1" Cut="0.0000000000000000e+00" cType="1" res="9.6079555805772543e-04" rms="3.9691460132598877e-01" purity="7.9169869422912598e-01" nType="-99"/>
      </Node>
    </BinaryTree>
    <BinaryTree type="DecisionTree" boostWeight="1.0000000000000000e+00" itree="495">
      <Node pos="s" depth="0" NCoef="0" IVar="6" Cut="2.1207804679870605e+00" cType="1" res="8.7729748338460922e-03" rms="4.6159934997558594e-01" purity="5.0205379724502563e-01" nType="0">
        <Node pos="l" depth="1" NCoef="0" IVar="5" Cut="2.7017324829101562e+02" cType="1" res="3.6624811589717865e-02" rms="4.6145486831665039e-01" purity="5.6803953647613525e-01" nType="0">
          <Node pos="l" depth="2" NCoef="0" IVar="-1" Cut="0.0000000000000000e+00" cType="1" res="1.3579586811829358e-04" rms="4.6684485673904419e-01" purity="4.1888967156410217e-01" nType="-99"/>
          <Node pos="r" depth="2" NCoef="0" IVar="-1" Cut="0.0000000000000000e+00" cType="1" res="7.9722661757841706e-04" rms="4.5740777254104614e-01" purity="6.5406244993209839e-01" nType="-99"/>
        </Node>
        <Node pos="r" depth="1" NCoef="0" IVar="4" Cut="2.7185989543795586e-02" cType="1" res="-6.6778333857655525e-03" rms="4.6095430850982666e-01" purity="4.6544814109802246e-01" nType="0">
          <Node pos="l" depth="2" NCoef="0" IVar="-1" Cut="0.0000000000000000e+00" cType="1" res="2.8399453731253743e-04" rms="4.6190431714057922e-01" purity="4.9873349070549011e-01" nType="-99"/>
          <Node pos="r" depth="2" NCoef="0" IVar="-1" Cut="0.0000000000000000e+00" cType="1" res="-7.0512777892872691e-04" rms="4.5843642950057983e-01" purity="4.2551478743553162e-01" nType="-99"/>
        </Node>
      </Node>
    </BinaryTree>
    <BinaryTree type="DecisionTree" boostWeight="1.0000000000000000e+00" itree="496">
      <Node pos="s" depth="0" NCoef="0" IVar="2" Cut="3.4385705566406250e+02" cType="1" res="7.6290629804134369e-03" rms="4.6105611324310303e-01" purity="5.0133019685745239e-01" nType="0">
        <Node pos="l" depth="1" NCoef="0" IVar="3" Cut="8.6653195321559906e-02" cType="1" res="-3.5512071102857590e-02" rms="4.2409226298332214e-01" purity="2.7859377861022949e-01" nType="0">
          <Node pos="l" depth="2" NCoef="0" IVar="-1" Cut="0.0000000000000000e+00" cType="1" res="-1.8942623864859343e-03" rms="4.1105860471725464e-01" purity="2.4857309460639954e-01" nType="-99"/>
          <Node pos="r" depth="2" NCoef="0" IVar="-1" Cut="0.0000000000000000e+00" cType="1" res="1.2621829228010029e-04" rms="4.4863435626029968e-01" purity="3.4422868490219116e-01" nType="-99"/>
        </Node>
        <Node pos="r" depth="1" NCoef="0" IVar="0" Cut="1.1209587007761002e-01" cType="1" res="1.6768164932727814e-02" rms="4.6800222992897034e-01" purity="5.4851514101028442e-01" nType="0">
          <Node pos="l" depth="2" NCoef="0" IVar="-1" Cut="0.0000000000000000e+00" cType="1" res="2.5633440600358881e-05" rms="4.6982428431510925e-01" purity="5.3363388776779175e-01" nType="-99"/>
          <Node pos="r" depth="2" NCoef="0" IVar="-1" Cut="0.0000000000000000e+00" cType="1" res="8.2500773714855313e-04" rms="4.6208956837654114e-01" purity="5.8169972896575928e-01" nType="-99"/>
        </Node>
      </Node>
    </BinaryTree>
    <BinaryTree type="DecisionTree" boostWeight="1.0000000000000000e+00" itree="497">
      <Node pos="s" depth="0" NCoef="0" IVar="3" Cut="2.1198588609695435e-01" cType="1" res="7.0329629816114902e-03" rms="4.6109205484390259e-01" purity="5.0113683938980103e-01" nType="0">
        <Node pos="l" depth="1" NCoef="0" IVar="4" Cut="1.5320697799324989e-02" cType="1" res="3.4454226261004806e-04" rms="4.6040731668472290e-01" purity="4.9210557341575623e-01" nType="0">
          <Node pos="l" depth="2" NCoef="0" IVar="-1" Cut="0.0000000000000000e+00" cType="1" res="3.6255372106097639e-04" rms="4.5889446139335632e-01" purity="5.2378392219543457e-01" nType="-99"/>
          <Node pos="r" depth="2" NCoef="0" IVar="-1" Cut="0.0000000000000000e+00" cType="1" res="-5.3300138097256422e-04" rms="4.6107903122901917e-01" purity="4.5015040040016174e-01" nType="-99"/>
        </Node>
        <Node pos="r" depth="1" NCoef="0" IVar="-1" Cut="0.0000000000000000e+00" cType="1" res="1.1361080687493086e-03" rms="4.6276319026947021e-01" purity="5.8652377128601074e-01" nType="-99"/>
      </Node>
    </BinaryTree>
    <BinaryTree type="DecisionTree" boostWeight="1.0000000000000000e+00" itree="498">
      <Node pos="s" depth="0" NCoef="0" IVar="6" Cut="2.4145643711090088e+00" cType="1" res="7.9246256500482559e-03" rms="4.6158581972122192e-01" purity="5.0175356864929199e-01" nType="0">
        <Node pos="l" depth="1" NCoef="0" IVar="1" Cut="9.7554534673690796e-01" cType="1" res="1.8740799278020859e-02" rms="4.6398511528968811e-01" purity="5.4221212863922119e-01" nType="0">
          <Node pos="l" depth="2" NCoef="0" IVar="-1" Cut="0.0000000000000000e+00" cType="1" res="1.5164593060035259e-04" rms="4.7617098689079285e-01" purity="4.8592129349708557e-01" nType="-99"/>
          <Node pos="r" depth="2" NCoef="0" IVar="-1" Cut="0.0000000000000000e+00" cType="1" res="8.9416495757177472e-04" rms="4.0717792510986328e-01" purity="7.7396303415298462e-01" nType="-99"/>
        </Node>
        <Node pos="r" depth="1" NCoef="0" IVar="3" Cut="6.0245567001402378e-03" cType="1" res="-2.3817511275410652e-02" rms="4.5298284292221069e-01" purity="3.8302016258239746e-01" nType="0">
          <Node pos="l" depth="2" NCoef="0" IVar="-1" Cut="0.0000000000000000e+00" cType="1" res="-1.0864362120628357e-03" rms="4.4702547788619995e-01" purity="3.5575121641159058e-01" nType="-99"/>
          <Node pos="r" depth="2" NCoef="0" IVar="-1" Cut="0.0000000000000000e+00" cType="1" res="2.0387652330100536e-04" rms="4.6116963028907776e-01" purity="4.3012002110481262e-01" nType="-99"/>
        </Node>
      </Node>
    </BinaryTree>
    <BinaryTree type="DecisionTree" boostWeight="1.0000000000000000e+00" itree="499">
      <Node pos="s" depth="0" NCoef="0" IVar="6" Cut="2.3741676807403564e+00" cType="1" res="1.4506886713206768e-02" rms="4.6272218227386475e-01" purity="5.0675290822982788e-01" nType="0">
        <Node pos="l" depth="1" NCoef="0" IVar="1" Cut="9.2738926410675049e-01" cType="1" res="2.5650791823863983e-02" rms="4.6417343616485596e-01" purity="5.4994112253189087e-01" nType="0">
          <Node pos="l" depth="2" NCoef="0" IVar="-1" Cut="0.0000000000000000e+00" cType="1" res="-2.4218081671278924e-04" rms="4.7077757120132446e-01" purity="3.9117944240570068e-01" nType="-99"/>
          <Node pos="r" depth="2" NCoef="0" IVar="-1" Cut="0.0000000000000000e+00" cType="1" res="5.5756379151716828e-04" rms="4.6222478151321411e-01" purity="5.8657193183898926e-01" nType="-99"/>
        </Node>
        <Node pos="r" depth="1" NCoef="0" IVar="4" Cut="1.1929215490818024e-01" cType="1" res="-1.2442830018699169e-02" rms="4.5807445049285889e-01" purity="4.0230917930603027e-01" nType="0">
          <Node pos="l" depth="2" NCoef="0" IVar="-1" Cut="0.0000000000000000e+00" cType="1" res="-1.9785673430305906e-05" rms="4.5956572890281677e-01" purity="4.2117032408714294e-01" nType="-99"/>
          <Node pos="r" depth="2" NCoef="0" IVar="-1" Cut="0.0000000000000000e+00" cType="1" res="-1.5626479871571064e-03" rms="4.4924685359001160e-01" purity="3.2778263092041016e-01" nType="-99"/>
        </Node>
      </Node>
    </BinaryTree>
    <BinaryTree type="DecisionTree" boostWeight="1.0000000000000000e+00" itree="500">
      <Node pos="s" depth="0" NCoef="0" IVar="1" Cut="9.8445212841033936e-01" cType="1" res="4.3585966341197491e-03" rms="4.6121823787689209e-01" purity="4.9713844060897827e-01" nType="0">
        <Node pos="l" depth="1" NCoef="0" IVar="3" Cut="8.6009889841079712e-02" cType="1" res="-2.0241006277501583e-03" rms="4.6724665164947510e-01" purity="4.6393340826034546e-01" nType="0">
          <Node pos="l" depth="2" NCoef="0" IVar="-1" Cut="0.0000000000000000e+00" cType="1" res="-3.1851488165557384e-04" rms="4.6307167410850525e-01" purity="4.4232466816902161e-01" nType="-99"/>
          <Node pos="r" depth="2" NCoef="0" IVar="-1" Cut="0.0000000000000000e+00" cType="1" res="4.8403532127849758e-04" rms="4.7468063235282898e-01" purity="5.0979930162429810e-01" nType="-99"/>
        </Node>
        <Node pos="r" depth="1" NCoef="0" IVar="-1" Cut="0.0000000000000000e+00" cType="1" res="8.6130329873412848e-04" rms="4.0109214186668396e-01" purity="7.8452605009078979e-01" nType="-99"/>
      </Node>
    </BinaryTree>
    <BinaryTree type="DecisionTree" boostWeight="1.0000000000000000e+00" itree="501">
      <Node pos="s" depth="0" NCoef="0" IVar="3" Cut="1.7796798050403595e-01" cType="1" res="5.9240423142910004e-03" rms="4.6058017015457153e-01" purity="5.0004696846008301e-01" nType="0">
        <Node pos="l" depth="1" NCoef="0" IVar="4" Cut="5.1389884203672409e-02" cType="1" res="-1.7802130896598101e-03" rms="4.5989996194839478e-01" purity="4.8849558830261230e-01" nType="0">
          <Node pos="l" depth="2" NCoef="0" IVar="-1" Cut="0.0000000000000000e+00" cType="1" res="2.7507540653459728e-04" rms="4.6099606156349182e-01" purity="5.1353877782821655e-01" nType="-99"/>
          <Node pos="r" depth="2" NCoef="0" IVar="-1" Cut="0.0000000000000000e+00" cType="1" res="-1.0892951395362616e-03" rms="4.5338878035545349e-01" purity="4.1767641901969910e-01" nType="-99"/>
        </Node>
        <Node pos="r" depth="1" NCoef="0" IVar="5" Cut="3.0565219116210938e+02" cType="1" res="5.0414089113473892e-02" rms="4.6198225021362305e-01" purity="5.6675297021865845e-01" nType="0">
          <Node pos="l" depth="2" NCoef="0" IVar="-1" Cut="0.0000000000000000e+00" cType="1" res="4.6861407463438809e-04" rms="4.7175079584121704e-01" purity="4.5622372627258301e-01" nType="-99"/>
          <Node pos="r" depth="2" NCoef="0" IVar="-1" Cut="0.0000000000000000e+00" cType="1" res="1.1348064290359616e-03" rms="4.4987457990646362e-01" purity="6.8222910165786743e-01" nType="-99"/>
        </Node>
      </Node>
    </BinaryTree>
    <BinaryTree type="DecisionTree" boostWeight="1.0000000000000000e+00" itree="502">
      <Node pos="s" depth="0" NCoef="0" IVar="5" Cut="2.2095112609863281e+02" cType="1" res="6.7564095370471478e-03" rms="4.6071028709411621e-01" purity="5.0015759468078613e-01" nType="0">
        <Node pos="l" depth="1" NCoef="0" IVar="2" Cut="3.1027749633789062e+02" cType="1" res="-4.4698510318994522e-02" rms="4.2160347104072571e-01" purity="2.7406424283981323e-01" nType="0">
          <Node pos="l" depth="2" NCoef="0" IVar="-1" Cut="0.0000000000000000e+00" cType="1" res="-2.8566475957632065e-03" rms="3.8885587453842163e-01" purity="2.1281780302524567e-01" nType="-99"/>
          <Node pos="r" depth="2" NCoef="0" IVar="-1" Cut="0.0000000000000000e+00" cType="1" res="-5.2843318553641438e-04" rms="4.4895812869071960e-01" purity="3.3195677399635315e-01" nType="-99"/>
        </Node>
        <Node pos="r" depth="1" NCoef="0" IVar="0" Cut="9.2776097357273102e-02" cType="1" res="1.4633025974035263e-02" rms="4.6590611338615417e-01" purity="5.3476756811141968e-01" nType="0">
          <Node pos="l" depth="2" NCoef="0" IVar="-1" Cut="0.0000000000000000e+00" cType="1" res="-1.2194940791232511e-04" rms="4.6762931346893311e-01" purity="5.1476180553436279e-01" nType="-99"/>
          <Node pos="r" depth="2" NCoef="0" IVar="-1" Cut="0.0000000000000000e+00" cType="1" res="7.5280887540429831e-04" rms="4.6171802282333374e-01" purity="5.6340211629867554e-01" nType="-99"/>
        </Node>
      </Node>
    </BinaryTree>
    <BinaryTree type="DecisionTree" boostWeight="1.0000000000000000e+00" itree="503">
      <Node pos="s" depth="0" NCoef="0" IVar="2" Cut="7.4007440185546875e+02" cType="1" res="4.9812784418463707e-03" rms="4.6044620871543884e-01" purity="4.9933239817619324e-01" nType="0">
        <Node pos="l" depth="1" NCoef="0" IVar="1" Cut="9.8412138223648071e-01" cType="1" res="-7.3540600715205073e-04" rms="4.6146968007087708e-01" purity="4.8078927397727966e-01" nType="0">
          <Node pos="l" depth="2" NCoef="0" IVar="-1" Cut="0.0000000000000000e+00" cType="1" res="-1.4786962128710002e-04" rms="4.6734786033630371e-01" purity="4.4460687041282654e-01" nType="-99"/>
          <Node pos="r" depth="2" NCoef="0" IVar="-1" Cut="0.0000000000000000e+00" cType="1" res="7.7747233444824815e-04" rms="4.0620034933090210e-01" purity="7.7665019035339355e-01" nType="-99"/>
        </Node>
        <Node pos="r" depth="1" NCoef="0" IVar="-1" Cut="0.0000000000000000e+00" cType="1" res="9.8389852792024612e-04" rms="4.4436225295066833e-01" purity="7.0177298784255981e-01" nType="-99"/>
      </Node>
    </BinaryTree>
    <BinaryTree type="DecisionTree" boostWeight="1.0000000000000000e+00" itree="504">
      <Node pos="s" depth="0" NCoef="0" IVar="2" Cut="6.4911511230468750e+02" cType="1" res="4.7670169733464718e-03" rms="4.6043357253074646e-01" purity="4.9835035204887390e-01" nType="0">
        <Node pos="l" depth="1" NCoef="0" IVar="0" Cut="1.5530101954936981e-01" cType="1" res="-4.2009344324469566e-03" rms="4.6197825670242310e-01" purity="4.6605485677719116e-01" nType="0">
          <Node pos="l" depth="2" NCoef="0" IVar="-1" Cut="0.0000000000000000e+00" cType="1" res="-2.7430901536718011e-04" rms="4.6270275115966797e-01" purity="4.5628705620765686e-01" nType="-99"/>
          <Node pos="r" depth="2" NCoef="0" IVar="-1" Cut="0.0000000000000000e+00" cType="1" res="5.9465074446052313e-04" rms="4.5736855268478394e-01" purity="5.0351649522781372e-01" nType="-99"/>
        </Node>
        <Node pos="r" depth="1" NCoef="0" IVar="4" Cut="5.0927244126796722e-02" cType="1" res="5.7623121887445450e-02" rms="4.4758629798889160e-01" purity="6.8869668245315552e-01" nType="0">
          <Node pos="l" depth="2" NCoef="0" IVar="-1" Cut="0.0000000000000000e+00" cType="1" res="1.1244836496189237e-03" rms="4.3324285745620728e-01" purity="7.2710436582565308e-01" nType="-99"/>
          <Node pos="r" depth="2" NCoef="0" IVar="-1" Cut="0.0000000000000000e+00" cType="1" res="4.8228350351564586e-04" rms="4.6309787034988403e-01" purity="6.4191782474517822e-01" nType="-99"/>
        </Node>
      </Node>
    </BinaryTree>
    <BinaryTree type="DecisionTree" boostWeight="1.0000000000000000e+00" itree="505">
      <Node pos="s" depth="0" NCoef="0" IVar="2" Cut="7.2414038085937500e+02" cType="1" res="8.4783686324954033e-03" rms="4.6112766861915588e-01" purity="5.0151634216308594e-01" nType="0">
        <Node pos="l" depth="1" NCoef="0" IVar="5" Cut="2.1936509704589844e+02" cType="1" res="2.3379779886454344e-03" rms="4.6219599246978760e-01" purity="4.8150834441184998e-01" nType="0">
          <Node pos="l" depth="2" NCoef="0" IVar="-1" Cut="0.0000000000000000e+00" cType="1" res="-1.5061279991641641e-03" rms="4.1915804147720337e-01" purity="2.7041953802108765e-01" nType="-99"/>
          <Node pos="r" depth="2" NCoef="0" IVar="-1" Cut="0.0000000000000000e+00" cType="1" res="1.8339559028390795e-04" rms="4.6827593445777893e-01" purity="5.1546633243560791e-01" nType="-99"/>
        </Node>
        <Node pos="r" depth="1" NCoef="0" IVar="-1" Cut="0.0000000000000000e+00" cType="1" res="1.0118245845660567e-03" rms="4.4569027423858643e-01" purity="7.0145261287689209e-01" nType="-99"/>
      </Node>
    </BinaryTree>
    <BinaryTree type="DecisionTree" boostWeight="1.0000000000000000e+00" itree="506">
      <Node pos="s" depth="0" NCoef="0" IVar="1" Cut="9.4265216588973999e-01" cType="1" res="1.0000711306929588e-02" rms="4.6299430727958679e-01" purity="5.0250422954559326e-01" nType="0">
        <Node pos="l" depth="1" NCoef="0" IVar="3" Cut="1.2288931012153625e-01" cType="1" res="-1.6613064333796501e-02" rms="4.6034356951713562e-01" purity="3.7211266160011292e-01" nType="0">
          <Node pos="l" depth="2" NCoef="0" IVar="-1" Cut="0.0000000000000000e+00" cType="1" res="-6.6514592617750168e-04" rms="4.5467606186866760e-01" purity="3.5224971175193787e-01" nType="-99"/>
          <Node pos="r" depth="2" NCoef="0" IVar="-1" Cut="0.0000000000000000e+00" cType="1" res="2.7830374892801046e-04" rms="4.7484353184700012e-01" purity="4.2884677648544312e-01" nType="-99"/>
        </Node>
        <Node pos="r" depth="1" NCoef="0" IVar="0" Cut="7.1103669703006744e-02" cType="1" res="2.4997051805257797e-02" rms="4.6380907297134399e-01" purity="5.7597732543945312e-01" nType="0">
          <Node pos="l" depth="2" NCoef="0" IVar="-1" Cut="0.0000000000000000e+00" cType="1" res="4.6311997721204534e-05" rms="4.6781113743782043e-01" purity="5.6053829193115234e-01" nType="-99"/>
          <Node pos="r" depth="2" NCoef="0" IVar="-1" Cut="0.0000000000000000e+00" cType="1" res="6.8341416772454977e-04" rms="4.6004039049148560e-01" purity="5.8765894174575806e-01" nType="-99"/>
        </Node>
      </Node>
    </BinaryTree>
    <BinaryTree type="DecisionTree" boostWeight="1.0000000000000000e+00" itree="507">
      <Node pos="s" depth="0" NCoef="0" IVar="2" Cut="7.2414038085937500e+02" cType="1" res="1.5642342623323202e-03" rms="4.6135857701301575e-01" purity="4.9351450800895691e-01" nType="0">
        <Node pos="l" depth="1" NCoef="0" IVar="1" Cut="9.4222575426101685e-01" cType="1" res="-4.1243210434913635e-03" rms="4.6207341551780701e-01" purity="4.7420200705528259e-01" nType="0">
          <Node pos="l" depth="2" NCoef="0" IVar="-1" Cut="0.0000000000000000e+00" cType="1" res="-7.8791315900161862e-04" rms="4.5420825481414795e-01" purity="3.3852455019950867e-01" nType="-99"/>
          <Node pos="r" depth="2" NCoef="0" IVar="-1" Cut="0.0000000000000000e+00" cType="1" res="1.8470150826033205e-04" rms="4.6566066145896912e-01" purity="5.4856729507446289e-01" nType="-99"/>
        </Node>
        <Node pos="r" depth="1" NCoef="0" IVar="-1" Cut="0.0000000000000000e+00" cType="1" res="8.6862419266253710e-04" rms="4.4995144009590149e-01" purity="6.9001024961471558e-01" nType="-99"/>
      </Node>
    </BinaryTree>
    <BinaryTree type="DecisionTree" boostWeight="1.0000000000000000e+00" itree="508">
      <Node pos="s" depth="0" NCoef="0" IVar="1" Cut="9.8137164115905762e-01" cType="1" res="9.5662465319037437e-03" rms="4.6064567565917969e-01" purity="5.0403249263763428e-01" nType="0">
        <Node pos="l" depth="1" NCoef="0" IVar="0" Cut="1.4549602568149567e-01" cType="1" res="2.0048774313181639e-03" rms="4.6793538331985474e-01" purity="4.6237576007843018e-01" nType="0">
          <Node pos="l" depth="2" NCoef="0" IVar="-1" Cut="0.0000000000000000e+00" cType="1" res="-1.4784945233259350e-04" rms="4.6906656026840210e-01" purity="4.5761939883232117e-01" nType="-99"/>
          <Node pos="r" depth="2" NCoef="0" IVar="-1" Cut="0.0000000000000000e+00" cType="1" res="7.0463318843394518e-04" rms="4.6191802620887756e-01" purity="4.8023015260696411e-01" nType="-99"/>
        </Node>
        <Node pos="r" depth="1" NCoef="0" IVar="-1" Cut="0.0000000000000000e+00" cType="1" res="8.4572884952649474e-04" rms="4.0699788928031921e-01" purity="7.7348482608795166e-01" nType="-99"/>
      </Node>
    </BinaryTree>
    <BinaryTree type="DecisionTree" boostWeight="1.0000000000000000e+00" itree="509">
      <Node pos="s" depth="0" NCoef="0" IVar="6" Cut="2.3594448566436768e+00" cType="1" res="5.1406701095402241e-03" rms="4.6046480536460876e-01" purity="4.9964058399200439e-01" nType="0">
        <Node pos="l" depth="1" NCoef="0" IVar="1" Cut="9.7227883338928223e-01" cType="1" res="1.8082648515701294e-02" rms="4.6300274133682251e-01" purity="5.4491621255874634e-01" nType="0">
          <Node pos="l" depth="2" NCoef="0" IVar="-1" Cut="0.0000000000000000e+00" cType="1" res="1.2571862316690385e-04" rms="4.7523838281631470e-01" purity="4.8108845949172974e-01" nType="-99"/>
          <Node pos="r" depth="2" NCoef="0" IVar="-1" Cut="0.0000000000000000e+00" cType="1" res="7.9857785021886230e-04" rms="4.1826373338699341e-01" purity="7.5417071580886841e-01" nType="-99"/>
        </Node>
        <Node pos="r" depth="1" NCoef="0" IVar="4" Cut="1.0204601287841797e-01" cType="1" res="-2.4038065224885941e-02" rms="4.5333731174468994e-01" purity="3.9756309986114502e-01" nType="0">
          <Node pos="l" depth="2" NCoef="0" IVar="-1" Cut="0.0000000000000000e+00" cType="1" res="-1.2355140643194318e-04" rms="4.5738828182220459e-01" purity="4.2461925745010376e-01" nType="-99"/>
          <Node pos="r" depth="2" NCoef="0" IVar="-1" Cut="0.0000000000000000e+00" cType="1" res="-2.2705360315740108e-03" rms="4.3537890911102295e-01" purity="3.1244930624961853e-01" nType="-99"/>
        </Node>
      </Node>
    </BinaryTree>
    <BinaryTree type="DecisionTree" boostWeight="1.0000000000000000e+00" itree="510">
      <Node pos="s" depth="0" NCoef="0" IVar="1" Cut="9.6664190292358398e-01" cType="1" res="6.5407166257500648e-03" rms="4.5993310213088989e-01" purity="5.0109088420867920e-01" nType="0">
        <Node pos="l" depth="1" NCoef="0" IVar="3" Cut="1.7801497876644135e-01" cType="1" res="-5.8611379936337471e-03" rms="4.6664506196975708e-01" purity="4.2556977272033691e-01" nType="0">
          <Node pos="l" depth="2" NCoef="0" IVar="-1" Cut="0.0000000000000000e+00" cType="1" res="-2.7854408835992217e-04" rms="4.6433261036872864e-01" purity="4.1339638829231262e-01" nType="-99"/>
          <Node pos="r" depth="2" NCoef="0" IVar="-1" Cut="0.0000000000000000e+00" cType="1" res="6.3012860482558608e-04" rms="4.7740152478218079e-01" purity="4.9405041337013245e-01" nType="-99"/>
        </Node>
        <Node pos="r" depth="1" NCoef="0" IVar="2" Cut="5.0588507080078125e+02" cType="1" res="3.6823663860559464e-02" rms="4.4165575504302979e-01" purity="6.8549901247024536e-01" nType="0">
          <Node pos="l" depth="2" NCoef="0" IVar="-1" Cut="0.0000000000000000e+00" cType="1" res="2.7727274573408067e-04" rms="4.6120214462280273e-01" purity="6.2779915332794189e-01" nType="-99"/>
          <Node pos="r" depth="2" NCoef="0" IVar="-1" Cut="0.0000000000000000e+00" cType="1" res="9.9216762464493513e-04" rms="4.0440934896469116e-01" purity="7.8307867050170898e-01" nType="-99"/>
        </Node>
      </Node>
    </BinaryTree>
    <BinaryTree type="DecisionTree" boostWeight="1.0000000000000000e+00" itree="511">
      <Node pos="s" depth="0" NCoef="0" IVar="1" Cut="9.8442471027374268e-01" cType="1" res="8.2610063254833221e-03" rms="4.6183338761329651e-01" purity="5.0159239768981934e-01" nType="0">
        <Node pos="l" depth="1" NCoef="0" IVar="3" Cut="1.7886576056480408e-01" cType="1" res="1.6804316546767950e-03" rms="4.6840462088584900e-01" purity="4.6766719222068787e-01" nType="0">
          <Node pos="l" depth="2" NCoef="0" IVar="-1" Cut="0.0000000000000000e+00" cType="1" res="-1.1241874744882807e-04" rms="4.6624484658241272e-01" purity="4.5645064115524292e-01" nType="-99"/>
          <Node pos="r" depth="2" NCoef="0" IVar="-1" Cut="0.0000000000000000e+00" cType="1" res="7.6243514195084572e-04" rms="4.7845321893692017e-01" purity="5.3220230340957642e-01" nType="-99"/>
        </Node>
        <Node pos="r" depth="1" NCoef="0" IVar="-1" Cut="0.0000000000000000e+00" cType="1" res="9.2654599575325847e-04" rms="3.9705035090446472e-01" purity="7.9086923599243164e-01" nType="-99"/>
      </Node>
    </BinaryTree>
    <BinaryTree type="DecisionTree" boostWeight="1.0000000000000000e+00" itree="512">
      <Node pos="s" depth="0" NCoef="0" IVar="3" Cut="1.5057207643985748e-01" cType="1" res="5.5354507640004158e-03" rms="4.6013686060905457e-01" purity="4.9977079033851624e-01" nType="0">
        <Node pos="l" depth="1" NCoef="0" IVar="0" Cut="7.4628651142120361e-02" cType="1" res="-4.8845084384083748e-03" rms="4.5946359634399414e-01" purity="4.8375421762466431e-01" nType="0">
          <Node pos="l" depth="2" NCoef="0" IVar="-1" Cut="0.0000000000000000e+00" cType="1" res="-7.0721044903621078e-04" rms="4.6195891499519348e-01" purity="4.5852482318878174e-01" nType="-99"/>
          <Node pos="r" depth="2" NCoef="0" IVar="-1" Cut="0.0000000000000000e+00" cType="1" res="3.1849520746618509e-04" rms="4.5636627078056335e-01" purity="5.0228923559188843e-01" nType="-99"/>
        </Node>
        <Node pos="r" depth="1" NCoef="0" IVar="1" Cut="9.4723236560821533e-01" cType="1" res="4.7438148409128189e-02" rms="4.6045985817909241e-01" purity="5.6417959928512573e-01" nType="0">
          <Node pos="l" depth="2" NCoef="0" IVar="-1" Cut="0.0000000000000000e+00" cType="1" res="4.6748813474550843e-04" rms="4.7736528515815735e-01" purity="4.4590768218040466e-01" nType="-99"/>
          <Node pos="r" depth="2" NCoef="0" IVar="-1" Cut="0.0000000000000000e+00" cType="1" res="9.9701830185949802e-04" rms="4.4598621129989624e-01" purity="6.5620726346969604e-01" nType="-99"/>
        </Node>
      </Node>
    </BinaryTree>
    <BinaryTree type="DecisionTree" boostWeight="1.0000000000000000e+00" itree="513">
      <Node pos="s" depth="0" NCoef="0" IVar="6" Cut="1.8374799489974976e+00" cType="1" res="7.6739136129617691e-03" rms="4.6060314774513245e-01" purity="5.0132882595062256e-01" nType="0">
        <Node pos="l" depth="1" NCoef="0" IVar="5" Cut="2.9172015380859375e+02" cType="1" res="5.5372629314661026e-02" rms="4.4907140731811523e-01" purity="5.9477287530899048e-01" nType="0">
          <Node pos="l" depth="2" NCoef="0" IVar="-1" Cut="0.0000000000000000e+00" cType="1" res="9.2768488684669137e-05" rms="4.6795520186424255e-01" purity="4.4631463289260864e-01" nType="-99"/>
          <Node pos="r" depth="2" NCoef="0" IVar="-1" Cut="0.0000000000000000e+00" cType="1" res="1.3637722004204988e-03" rms="4.2616015672683716e-01" purity="7.2873061895370483e-01" nType="-99"/>
        </Node>
        <Node pos="r" depth="1" NCoef="0" IVar="1" Cut="9.8162543773651123e-01" cType="1" res="-1.5492669772356749e-03" rms="4.6223223209381104e-01" purity="4.8326015472412109e-01" nType="0">
          <Node pos="l" depth="2" NCoef="0" IVar="-1" Cut="0.0000000000000000e+00" cType="1" res="-1.6222558042500168e-04" rms="4.6820637583732605e-01" purity="4.4373038411140442e-01" nType="-99"/>
          <Node pos="r" depth="2" NCoef="0" IVar="-1" Cut="0.0000000000000000e+00" cType="1" res="6.4449751516804099e-04" rms="4.1568595170974731e-01" purity="7.5729620456695557e-01" nType="-99"/>
        </Node>
      </Node>
    </BinaryTree>
    <BinaryTree type="DecisionTree" boostWeight="1.0000000000000000e+00" itree="514">
      <Node pos="s" depth="0" NCoef="0" IVar="3" Cut="2.0468346774578094e-01" cType="1" res="1.0576256550848484e-02" rms="4.6124818921089172e-01" purity="5.0455522537231445e-01" nType="0">
        <Node pos="l" depth="1" NCoef="0" IVar="4" Cut="7.5562007725238800e-02" cType="1" res="4.1469912976026535e-03" rms="4.6072393655776978e-01" purity="4.9539178609848022e-01" nType="0">
          <Node pos="l" depth="2" NCoef="0" IVar="-1" Cut="0.0000000000000000e+00" cType="1" res="3.1297738314606249e-04" rms="4.6035018563270569e-01" purity="5.1650041341781616e-01" nType="-99"/>
          <Node pos="r" depth="2" NCoef="0" IVar="-1" Cut="0.0000000000000000e+00" cType="1" res="-1.1184288887307048e-03" rms="4.5831757783889771e-01" purity="4.0779417753219604e-01" nType="-99"/>
        </Node>
        <Node pos="r" depth="1" NCoef="0" IVar="-1" Cut="0.0000000000000000e+00" cType="1" res="1.0493511799722910e-03" rms="4.6209743618965149e-01" purity="5.8196377754211426e-01" nType="-99"/>
      </Node>
    </BinaryTree>
    <BinaryTree type="DecisionTree" boostWeight="1.0000000000000000e+00" itree="515">
      <Node pos="s" depth="0" NCoef="0" IVar="2" Cut="4.9104846191406250e+02" cType="1" res="7.2158169932663441e-03" rms="4.5978656411170959e-01" purity="5.0218296051025391e-01" nType="0">
        <Node pos="l" depth="1" NCoef="0" IVar="3" Cut="2.4315789341926575e-02" cType="1" res="-9.1837532818317413e-03" rms="4.5876306295394897e-01" purity="4.1806557774543762e-01" nType="0">
          <Node pos="l" depth="2" NCoef="0" IVar="-1" Cut="0.0000000000000000e+00" cType="1" res="-6.3514610519632697e-04" rms="4.5178347826004028e-01" purity="3.8370627164840698e-01" nType="-99"/>
          <Node pos="r" depth="2" NCoef="0" IVar="-1" Cut="0.0000000000000000e+00" cType="1" res="2.2719793196301907e-04" rms="4.6576920151710510e-01" purity="4.5740666985511780e-01" nType="-99"/>
        </Node>
        <Node pos="r" depth="1" NCoef="0" IVar="0" Cut="1.0739422589540482e-01" cType="1" res="3.4290943294763565e-02" rms="4.6019425988197327e-01" purity="6.4105778932571411e-01" nType="0">
          <Node pos="l" depth="2" NCoef="0" IVar="-1" Cut="0.0000000000000000e+00" cType="1" res="2.4554782430641353e-04" rms="4.6668350696563721e-01" purity="6.1505550146102905e-01" nType="-99"/>
          <Node pos="r" depth="2" NCoef="0" IVar="-1" Cut="0.0000000000000000e+00" cType="1" res="1.3541112421080470e-03" rms="4.3130531907081604e-01" purity="7.2949242591857910e-01" nType="-99"/>
        </Node>
      </Node>
    </BinaryTree>
    <BinaryTree type="DecisionTree" boostWeight="1.0000000000000000e+00" itree="516">
      <Node pos="s" depth="0" NCoef="0" IVar="3" Cut="1.7485950887203217e-01" cType="1" res="9.8639288917183876e-03" rms="4.6118491888046265e-01" purity="5.0379198789596558e-01" nType="0">
        <Node pos="l" depth="1" NCoef="0" IVar="4" Cut="3.4236729145050049e-02" cType="1" res="1.3410096289590001e-03" rms="4.5963728427886963e-01" purity="4.9189269542694092e-01" nType="0">
          <Node pos="l" depth="2" NCoef="0" IVar="-1" Cut="0.0000000000000000e+00" cType="1" res="3.3108843490481377e-04" rms="4.6019572019577026e-01" purity="5.1858949661254883e-01" nType="-99"/>
          <Node pos="r" depth="2" NCoef="0" IVar="-1" Cut="0.0000000000000000e+00" cType="1" res="-7.1233371272683144e-04" rms="4.5646366477012634e-01" purity="4.3594262003898621e-01" nType="-99"/>
        </Node>
        <Node pos="r" depth="1" NCoef="0" IVar="3" Cut="2.2447060048580170e-01" cType="1" res="5.6962564587593079e-02" rms="4.6684798598289490e-01" purity="5.6954848766326904e-01" nType="0">
          <Node pos="l" depth="2" NCoef="0" IVar="-1" Cut="0.0000000000000000e+00" cType="1" res="6.1650277348235250e-04" rms="4.7162148356437683e-01" purity="5.4609745740890503e-01" nType="-99"/>
          <Node pos="r" depth="2" NCoef="0" IVar="-1" Cut="0.0000000000000000e+00" cType="1" res="1.2648631818592548e-03" rms="4.6103453636169434e-01" purity="5.9302413463592529e-01" nType="-99"/>
        </Node>
      </Node>
    </BinaryTree>
    <BinaryTree type="DecisionTree" boostWeight="1.0000000000000000e+00" itree="517">
      <Node pos="s" depth="0" NCoef="0" IVar="1" Cut="9.3337452411651611e-01" cType="1" res="6.4132618717849255e-03" rms="4.5986181497573853e-01" purity="5.0129848718643188e-01" nType="0">
        <Node pos="l" depth="1" NCoef="0" IVar="6" Cut="2.1055941581726074e+00" cType="1" res="-2.8367610648274422e-02" rms="4.5091167092323303e-01" purity="3.5054773092269897e-01" nType="0">
          <Node pos="l" depth="2" NCoef="0" IVar="-1" Cut="0.0000000000000000e+00" cType="1" res="4.3937667214777321e-05" rms="4.6643438935279846e-01" purity="4.1953778266906738e-01" nType="-99"/>
          <Node pos="r" depth="2" NCoef="0" IVar="-1" Cut="0.0000000000000000e+00" cType="1" res="-1.1506850132718682e-03" rms="4.4273313879966736e-01" purity="3.1824389100074768e-01" nType="-99"/>
        </Node>
        <Node pos="r" depth="1" NCoef="0" IVar="5" Cut="2.4581115722656250e+02" cType="1" res="1.7931604757905006e-02" rms="4.6221116185188293e-01" purity="5.5122244358062744e-01" nType="0">
          <Node pos="l" depth="2" NCoef="0" IVar="-1" Cut="0.0000000000000000e+00" cType="1" res="-4.3442359310574830e-04" rms="4.5672941207885742e-01" purity="3.6721491813659668e-01" nType="-99"/>
          <Node pos="r" depth="2" NCoef="0" IVar="-1" Cut="0.0000000000000000e+00" cType="1" res="4.5546627370640635e-04" rms="4.6328544616699219e-01" purity="6.0530143976211548e-01" nType="-99"/>
        </Node>
      </Node>
    </BinaryTree>
    <BinaryTree type="DecisionTree" boostWeight="1.0000000000000000e+00" itree="518">
      <Node pos="s" depth="0" NCoef="0" IVar="2" Cut="7.4007440185546875e+02" cType="1" res="4.4784611091017723e-03" rms="4.6146774291992188e-01" purity="4.9794515967369080e-01" nType="0">
        <Node pos="l" depth="1" NCoef="0" IVar="1" Cut="9.2458415031433105e-01" cType="1" res="-1.9019851461052895e-03" rms="4.6271023154258728e-01" purity="4.7875437140464783e-01" nType="0">
          <Node pos="l" depth="2" NCoef="0" IVar="-1" Cut="0.0000000000000000e+00" cType="1" res="-1.2228208361193538e-03" rms="4.4582843780517578e-01" purity="3.0755195021629333e-01" nType="-99"/>
          <Node pos="r" depth="2" NCoef="0" IVar="-1" Cut="0.0000000000000000e+00" cType="1" res="1.1979220289504156e-04" rms="4.6556442975997925e-01" purity="5.1310449838638306e-01" nType="-99"/>
        </Node>
        <Node pos="r" depth="1" NCoef="0" IVar="-1" Cut="0.0000000000000000e+00" cType="1" res="1.0815624846145511e-03" rms="4.4162791967391968e-01" purity="7.0823669433593750e-01" nType="-99"/>
      </Node>
    </BinaryTree>
    <BinaryTree type="DecisionTree" boostWeight="1.0000000000000000e+00" itree="519">
      <Node pos="s" depth="0" NCoef="0" IVar="3" Cut="1.7997679114341736e-01" cType="1" res="9.4314422458410263e-03" rms="4.6075862646102905e-01" purity="5.0380492210388184e-01" nType="0">
        <Node pos="l" depth="1" NCoef="0" IVar="4" Cut="7.2782948613166809e-02" cType="1" res="-2.7490974753163755e-04" rms="4.5947751402854919e-01" purity="4.9006780982017517e-01" nType="0">
          <Node pos="l" depth="2" NCoef="0" IVar="-1" Cut="0.0000000000000000e+00" cType="1" res="2.0056964422110468e-04" rms="4.5989498496055603e-01" purity="5.0905281305313110e-01" nType="-99"/>
          <Node pos="r" depth="2" NCoef="0" IVar="-1" Cut="0.0000000000000000e+00" cType="1" res="-9.9446321837604046e-04" rms="4.5505103468894958e-01" purity="4.1369187831878662e-01" nType="-99"/>
        </Node>
        <Node pos="r" depth="1" NCoef="0" IVar="0" Cut="4.8778459429740906e-02" cType="1" res="6.4875431358814240e-02" rms="4.6413415670394897e-01" purity="5.8227336406707764e-01" nType="0">
          <Node pos="l" depth="2" NCoef="0" IVar="-1" Cut="0.0000000000000000e+00" cType="1" res="1.3041843194514513e-03" rms="4.7204732894897461e-01" purity="6.0815840959548950e-01" nType="-99"/>
          <Node pos="r" depth="2" NCoef="0" IVar="-1" Cut="0.0000000000000000e+00" cType="1" res="8.4510282613337040e-04" rms="4.5680373907089233e-01" purity="5.6042188405990601e-01" nType="-99"/>
        </Node>
      </Node>
    </BinaryTree>
    <BinaryTree type="DecisionTree" boostWeight="1.0000000000000000e+00" itree="520">
      <Node pos="s" depth="0" NCoef="0" IVar="5" Cut="4.1447482299804688e+02" cType="1" res="8.4596462547779083e-03" rms="4.6323662996292114e-01" purity="5.0075745582580566e-01" nType="0">
        <Node pos="l" depth="1" NCoef="0" IVar="3" Cut="-1.2093959748744965e-01" cType="1" res="-1.6184797277674079e-04" rms="4.6392256021499634e-01" purity="4.5854797959327698e-01" nType="0">
          <Node pos="l" depth="2" NCoef="0" IVar="-1" Cut="0.0000000000000000e+00" cType="1" res="-1.8297026399523020e-03" rms="4.3536916375160217e-01" purity="3.3545538783073425e-01" nType="-99"/>
          <Node pos="r" depth="2" NCoef="0" IVar="-1" Cut="0.0000000000000000e+00" cType="1" res="9.5393355877604336e-05" rms="4.6554464101791382e-01" purity="4.6755883097648621e-01" nType="-99"/>
        </Node>
        <Node pos="r" depth="1" NCoef="0" IVar="0" Cut="5.8336455374956131e-02" cType="1" res="4.0087386965751648e-02" rms="4.5932784676551819e-01" purity="6.5560156106948853e-01" nType="0">
          <Node pos="l" depth="2" NCoef="0" IVar="-1" Cut="0.0000000000000000e+00" cType="1" res="2.1923512395005673e-04" rms="4.7455754876136780e-01" purity="6.1061054468154907e-01" nType="-99"/>
          <Node pos="r" depth="2" NCoef="0" IVar="-1" Cut="0.0000000000000000e+00" cType="1" res="1.1197867570444942e-03" rms="4.3390300869941711e-01" purity="7.1982324123382568e-01" nType="-99"/>
        </Node>
      </Node>
    </BinaryTree>
    <BinaryTree type="DecisionTree" boostWeight="1.0000000000000000e+00" itree="521">
      <Node pos="s" depth="0" NCoef="0" IVar="2" Cut="7.4472863769531250e+02" cType="1" res="5.1521705463528633e-03" rms="4.6143874526023865e-01" purity="4.9842897057533264e-01" nType="0">
        <Node pos="l" depth="1" NCoef="0" IVar="4" Cut="-5.8548259548842907e-03" cType="1" res="-2.2080108465161175e-04" rms="4.6217995882034302e-01" purity="4.8061394691467285e-01" nType="0">
          <Node pos="l" depth="2" NCoef="0" IVar="-1" Cut="0.0000000000000000e+00" cType="1" res="3.8412134745158255e-04" rms="4.6207147836685181e-01" purity="5.1437258720397949e-01" nType="-99"/>
          <Node pos="r" depth="2" NCoef="0" IVar="-1" Cut="0.0000000000000000e+00" cType="1" res="-3.3121320302598178e-04" rms="4.6160393953323364e-01" purity="4.5513442158699036e-01" nType="-99"/>
        </Node>
        <Node pos="r" depth="1" NCoef="0" IVar="-1" Cut="0.0000000000000000e+00" cType="1" res="9.5420866273343563e-04" rms="4.4869112968444824e-01" purity="6.9782489538192749e-01" nType="-99"/>
      </Node>
    </BinaryTree>
    <BinaryTree type="DecisionTree" boostWeight="1.0000000000000000e+00" itree="522">
      <Node pos="s" depth="0" NCoef="0" IVar="1" Cut="9.2766660451889038e-01" cType="1" res="8.5994256660342216e-03" rms="4.5947414636611938e-01" purity="5.0300371646881104e-01" nType="0">
        <Node pos="l" depth="1" NCoef="0" IVar="6" Cut="2.1300637722015381e+00" cType="1" res="-3.1446784734725952e-02" rms="4.4956821203231812e-01" purity="3.4014531970024109e-01" nType="0">
          <Node pos="l" depth="2" NCoef="0" IVar="-1" Cut="0.0000000000000000e+00" cType="1" res="1.0224881407339126e-05" rms="4.7116166353225708e-01" purity="4.1048216819763184e-01" nType="-99"/>
          <Node pos="r" depth="2" NCoef="0" IVar="-1" Cut="0.0000000000000000e+00" cType="1" res="-1.4270822284743190e-03" rms="4.3574783205986023e-01" purity="3.0008527636528015e-01" nType="-99"/>
        </Node>
        <Node pos="r" depth="1" NCoef="0" IVar="0" Cut="1.4931210875511169e-01" cType="1" res="1.8156070262193680e-02" rms="4.6129316091537476e-01" purity="5.4186832904815674e-01" nType="0">
          <Node pos="l" depth="2" NCoef="0" IVar="-1" Cut="0.0000000000000000e+00" cType="1" res="1.4694657875224948e-04" rms="4.6284645795822144e-01" purity="5.3526043891906738e-01" nType="-99"/>
          <Node pos="r" depth="2" NCoef="0" IVar="-1" Cut="0.0000000000000000e+00" cType="1" res="9.3538238434121013e-04" rms="4.5325842499732971e-01" purity="5.6727379560470581e-01" nType="-99"/>
        </Node>
      </Node>
    </BinaryTree>
    <BinaryTree type="DecisionTree" boostWeight="1.0000000000000000e+00" itree="523">
      <Node pos="s" depth="0" NCoef="0" IVar="1" Cut="9.8442471027374268e-01" cType="1" res="2.0882159005850554e-03" rms="4.6114435791969299e-01" purity="4.9470117688179016e-01" nType="0">
        <Node pos="l" depth="1" NCoef="0" IVar="5" Cut="4.7201605224609375e+02" cType="1" res="-4.5659798197448254e-03" rms="4.6741592884063721e-01" purity="4.6045663952827454e-01" nType="0">
          <Node pos="l" depth="2" NCoef="0" IVar="-1" Cut="0.0000000000000000e+00" cType="1" res="-2.3789734404999763e-04" rms="4.6696111559867859e-01" purity="4.3119397759437561e-01" nType="-99"/>
          <Node pos="r" depth="2" NCoef="0" IVar="-1" Cut="0.0000000000000000e+00" cType="1" res="6.0804572422057390e-04" rms="4.6783697605133057e-01" purity="6.4575535058975220e-01" nType="-99"/>
        </Node>
        <Node pos="r" depth="1" NCoef="0" IVar="-1" Cut="0.0000000000000000e+00" cType="1" res="8.5918261902406812e-04" rms="3.9904618263244629e-01" purity="7.8754293918609619e-01" nType="-99"/>
      </Node>
    </BinaryTree>
    <BinaryTree type="DecisionTree" boostWeight="1.0000000000000000e+00" itree="524">
      <Node pos="s" depth="0" NCoef="0" IVar="2" Cut="6.4545660400390625e+02" cType="1" res="4.6592303551733494e-03" rms="4.6039357781410217e-01" purity="4.9936756491661072e-01" nType="0">
        <Node pos="l" depth="1" NCoef="0" IVar="0" Cut="1.3071043789386749e-01" cType="1" res="-2.4875600356608629e-03" rms="4.6202167868614197e-01" purity="4.6845227479934692e-01" nType="0">
          <Node pos="l" depth="2" NCoef="0" IVar="-1" Cut="0.0000000000000000e+00" cType="1" res="-2.9539843671955168e-04" rms="4.6271041035652161e-01" purity="4.5525225996971130e-01" nType="-99"/>
          <Node pos="r" depth="2" NCoef="0" IVar="-1" Cut="0.0000000000000000e+00" cType="1" res="5.0173990894109011e-04" rms="4.5901909470558167e-01" purity="5.0041955709457397e-01" nType="-99"/>
        </Node>
        <Node pos="r" depth="1" NCoef="0" IVar="0" Cut="3.8405343890190125e-02" cType="1" res="4.6622142195701599e-02" rms="4.4842341542243958e-01" purity="6.8088889122009277e-01" nType="0">
          <Node pos="l" depth="2" NCoef="0" IVar="-1" Cut="0.0000000000000000e+00" cType="1" res="1.5973202243912965e-04" rms="4.6756124496459961e-01" purity="6.2320059537887573e-01" nType="-99"/>
          <Node pos="r" depth="2" NCoef="0" IVar="-1" Cut="0.0000000000000000e+00" cType="1" res="1.1098111281171441e-03" rms="4.2914563417434692e-01" purity="7.2971457242965698e-01" nType="-99"/>
        </Node>
      </Node>
    </BinaryTree>
    <BinaryTree type="DecisionTree" boostWeight="1.0000000000000000e+00" itree="525">
      <Node pos="s" depth="0" NCoef="0" IVar="1" Cut="9.8167264461517334e-01" cType="1" res="5.1701650954782963e-03" rms="4.6145322918891907e-01" purity="4.9904829263687134e-01" nType="0">
        <Node pos="l" depth="1" NCoef="0" IVar="6" Cut="1.9142093658447266e+00" cType="1" res="-2.1909440401941538e-03" rms="4.6865794062614441e-01" purity="4.5759966969490051e-01" nType="0">
          <Node pos="l" depth="2" NCoef="0" IVar="-1" Cut="0.0000000000000000e+00" cType="1" res="5.8857561089098454e-04" rms="4.6939486265182495e-01" purity="5.3544920682907104e-01" nType="-99"/>
          <Node pos="r" depth="2" NCoef="0" IVar="-1" Cut="0.0000000000000000e+00" cType="1" res="-2.2273410286288708e-04" rms="4.6806323528289795e-01" purity="4.3923413753509521e-01" nType="-99"/>
        </Node>
        <Node pos="r" depth="1" NCoef="0" IVar="-1" Cut="0.0000000000000000e+00" cType="1" res="7.8586046583950520e-04" rms="4.0750670433044434e-01" purity="7.7222943305969238e-01" nType="-99"/>
      </Node>
    </BinaryTree>
    <BinaryTree type="DecisionTree" boostWeight="1.0000000000000000e+00" itree="526">
      <Node pos="s" depth="0" NCoef="0" IVar="4" Cut="9.5426946878433228e-02" cType="1" res="1.0267633013427258e-02" rms="4.6190294623374939e-01" purity="5.0346523523330688e-01" nType="0">
        <Node pos="l" depth="1" NCoef="0" IVar="2" Cut="6.1929382324218750e+02" cType="1" res="1.9277406856417656e-02" rms="4.6156319975852966e-01" purity="5.1734495162963867e-01" nType="0">
          <Node pos="l" depth="2" NCoef="0" IVar="-1" Cut="0.0000000000000000e+00" cType="1" res="1.8037503468804061e-04" rms="4.6409255266189575e-01" purity="4.8238638043403625e-01" nType="-99"/>
          <Node pos="r" depth="2" NCoef="0" IVar="-1" Cut="0.0000000000000000e+00" cType="1" res="1.0424746433272958e-03" rms="4.4363886117935181e-01" purity="7.0877116918563843e-01" nType="-99"/>
        </Node>
        <Node pos="r" depth="1" NCoef="0" IVar="3" Cut="2.2288852930068970e-01" cType="1" res="-2.5719610974192619e-02" rms="4.6150636672973633e-01" purity="4.4802621006965637e-01" nType="0">
          <Node pos="l" depth="2" NCoef="0" IVar="-1" Cut="0.0000000000000000e+00" cType="1" res="-1.1573771480470896e-03" rms="4.5806592702865601e-01" purity="4.0425181388854980e-01" nType="-99"/>
          <Node pos="r" depth="2" NCoef="0" IVar="-1" Cut="0.0000000000000000e+00" cType="1" res="5.2635552128776908e-04" rms="4.6395355463027954e-01" purity="5.4251390695571899e-01" nType="-99"/>
        </Node>
      </Node>
    </BinaryTree>
    <BinaryTree type="DecisionTree" boostWeight="1.0000000000000000e+00" itree="527">
      <Node pos="s" depth="0" NCoef="0" IVar="2" Cut="5.4612988281250000e+02" cType="1" res="7.3506138287484646e-03" rms="4.6147233247756958e-01" purity="5.0068175792694092e-01" nType="0">
        <Node pos="l" depth="1" NCoef="0" IVar="3" Cut="1.5922056138515472e-01" cType="1" res="-4.2796228080987930e-03" rms="4.6281582117080688e-01" purity="4.4146737456321716e-01" nType="0">
          <Node pos="l" depth="2" NCoef="0" IVar="-1" Cut="0.0000000000000000e+00" cType="1" res="-2.8722395654767752e-04" rms="4.6003437042236328e-01" purity="4.2674139142036438e-01" nType="-99"/>
          <Node pos="r" depth="2" NCoef="0" IVar="-1" Cut="0.0000000000000000e+00" cType="1" res="6.6755514126271009e-04" rms="4.7285237908363342e-01" purity="5.0728136301040649e-01" nType="-99"/>
        </Node>
        <Node pos="r" depth="1" NCoef="0" IVar="0" Cut="6.5553575754165649e-02" cType="1" res="3.8566384464502335e-02" rms="4.5638400316238403e-01" purity="6.5961420536041260e-01" nType="0">
          <Node pos="l" depth="2" NCoef="0" IVar="-1" Cut="0.0000000000000000e+00" cType="1" res="1.9628650625236332e-04" rms="4.6903973817825317e-01" purity="6.1855119466781616e-01" nType="-99"/>
          <Node pos="r" depth="2" NCoef="0" IVar="-1" Cut="0.0000000000000000e+00" cType="1" res="1.1259018210694194e-03" rms="4.3269905447959900e-01" purity="7.2384530305862427e-01" nType="-99"/>
        </Node>
      </Node>
    </BinaryTree>
    <BinaryTree type="DecisionTree" boostWeight="1.0000000000000000e+00" itree="528">
      <Node pos="s" depth="0" NCoef="0" IVar="0" Cut="7.3148429393768311e-02" cType="1" res="6.8486928939819336e-03" rms="4.6161544322967529e-01" purity="5.0011050701141357e-01" nType="0">
        <Node pos="l" depth="1" NCoef="0" IVar="3" Cut="1.0796695202589035e-01" cType="1" res="-1.2888231314718723e-02" rms="4.6508023142814636e-01" purity="4.8720380663871765e-01" nType="0">
          <Node pos="l" depth="2" NCoef="0" IVar="-1" Cut="0.0000000000000000e+00" cType="1" res="-6.1485322657972574e-04" rms="4.6111807227134705e-01" purity="4.5998057723045349e-01" nType="-99"/>
          <Node pos="r" depth="2" NCoef="0" IVar="-1" Cut="0.0000000000000000e+00" cType="1" res="3.7108312244527042e-04" rms="4.7079265117645264e-01" purity="5.3992664813995361e-01" nType="-99"/>
        </Node>
        <Node pos="r" depth="1" NCoef="0" IVar="2" Cut="4.6437704467773438e+02" cType="1" res="2.3454874753952026e-02" rms="4.5802161097526550e-01" purity="5.1096987724304199e-01" nType="0">
          <Node pos="l" depth="2" NCoef="0" IVar="-1" Cut="0.0000000000000000e+00" cType="1" res="4.1662715375423431e-05" rms="4.6276572346687317e-01" purity="4.2019301652908325e-01" nType="-99"/>
          <Node pos="r" depth="2" NCoef="0" IVar="-1" Cut="0.0000000000000000e+00" cType="1" res="9.3044195091351867e-04" rms="4.4612893462181091e-01" purity="6.8209445476531982e-01" nType="-99"/>
        </Node>
      </Node>
    </BinaryTree>
    <BinaryTree type="DecisionTree" boostWeight="1.0000000000000000e+00" itree="529">
      <Node pos="s" depth="0" NCoef="0" IVar="1" Cut="9.8411780595779419e-01" cType="1" res="4.5827678404748440e-03" rms="4.6147781610488892e-01" purity="4.9903857707977295e-01" nType="0">
        <Node pos="l" depth="1" NCoef="0" IVar="5" Cut="5.4611895751953125e+02" cType="1" res="-1.7102685524150729e-03" rms="4.6801871061325073e-01" purity="4.6380415558815002e-01" nType="0">
          <Node pos="l" depth="2" NCoef="0" IVar="-1" Cut="0.0000000000000000e+00" cType="1" res="-1.2086928472854197e-04" rms="4.6828180551528931e-01" purity="4.4687274098396301e-01" nType="-99"/>
          <Node pos="r" depth="2" NCoef="0" IVar="-1" Cut="0.0000000000000000e+00" cType="1" res="7.4035447323694825e-04" rms="4.6180212497711182e-01" purity="6.6481059789657593e-01" nType="-99"/>
        </Node>
        <Node pos="r" depth="1" NCoef="0" IVar="-1" Cut="0.0000000000000000e+00" cType="1" res="8.1340631004422903e-04" rms="4.0101200342178345e-01" purity="7.8436517715454102e-01" nType="-99"/>
      </Node>
    </BinaryTree>
    <BinaryTree type="DecisionTree" boostWeight="1.0000000000000000e+00" itree="530">
      <Node pos="s" depth="0" NCoef="0" IVar="2" Cut="7.4885620117187500e+02" cType="1" res="4.5419814996421337e-03" rms="4.5984563231468201e-01" purity="4.9848762154579163e-01" nType="0">
        <Node pos="l" depth="1" NCoef="0" IVar="1" Cut="9.4842320680618286e-01" cType="1" res="-1.3877648161724210e-03" rms="4.6060281991958618e-01" purity="4.8067656159400940e-01" nType="0">
          <Node pos="l" depth="2" NCoef="0" IVar="-1" Cut="0.0000000000000000e+00" cType="1" res="-5.5130210239440203e-04" rms="4.5766332745552063e-01" purity="3.5999608039855957e-01" nType="-99"/>
          <Node pos="r" depth="2" NCoef="0" IVar="-1" Cut="0.0000000000000000e+00" cType="1" res="2.6761303888633847e-04" rms="4.6221876144409180e-01" purity="5.7780832052230835e-01" nType="-99"/>
        </Node>
        <Node pos="r" depth="1" NCoef="0" IVar="-1" Cut="0.0000000000000000e+00" cType="1" res="1.0557227069512010e-03" rms="4.4513654708862305e-01" purity="7.0610100030899048e-01" nType="-99"/>
      </Node>
    </BinaryTree>
    <BinaryTree type="DecisionTree" boostWeight="1.0000000000000000e+00" itree="531">
      <Node pos="s" depth="0" NCoef="0" IVar="0" Cut="1.4913338422775269e-01" cType="1" res="3.0247431714087725e-03" rms="4.6086969971656799e-01" purity="4.9593114852905273e-01" nType="0">
        <Node pos="l" depth="1" NCoef="0" IVar="3" Cut="1.4587637782096863e-01" cType="1" res="-7.6811560429632664e-03" rms="4.6067467331886292e-01" purity="4.8943850398063660e-01" nType="0">
          <Node pos="l" depth="2" NCoef="0" IVar="-1" Cut="0.0000000000000000e+00" cType="1" res="-4.0529994294047356e-04" rms="4.5877850055694580e-01" purity="4.7111016511917114e-01" nType="-99"/>
          <Node pos="r" depth="2" NCoef="0" IVar="-1" Cut="0.0000000000000000e+00" cType="1" res="5.8915617410093546e-04" rms="4.6435457468032837e-01" purity="5.4942774772644043e-01" nType="-99"/>
        </Node>
        <Node pos="r" depth="1" NCoef="0" IVar="2" Cut="4.2276205444335938e+02" cType="1" res="4.4439818710088730e-02" rms="4.5927941799163818e-01" purity="5.2104759216308594e-01" nType="0">
          <Node pos="l" depth="2" NCoef="0" IVar="-1" Cut="0.0000000000000000e+00" cType="1" res="3.9316675974987447e-04" rms="4.6603924036026001e-01" purity="4.1338366270065308e-01" nType="-99"/>
          <Node pos="r" depth="2" NCoef="0" IVar="-1" Cut="0.0000000000000000e+00" cType="1" res="1.2148326495662332e-03" rms="4.4570922851562500e-01" purity="6.8595695495605469e-01" nType="-99"/>
        </Node>
      </Node>
    </BinaryTree>
    <BinaryTree type="DecisionTree" boostWeight="1.0000000000000000e+00" itree="532">
      <Node pos="s" depth="0" NCoef="0" IVar="3" Cut="1.1303956806659698e-01" cType="1" res="5.6922873482108116e-03" rms="4.6058574318885803e-01" purity="4.9969142675399780e-01" nType="0">
        <Node pos="l" depth="1" NCoef="0" IVar="4" Cut="8.5494473576545715e-02" cType="1" res="-5.4349666461348534e-03" rms="4.5867794752120972e-01" purity="4.8176872730255127e-01" nType="0">
          <Node pos="l" depth="2" NCoef="0" IVar="-1" Cut="0.0000000000000000e+00" cType="1" res="1.1049417662434280e-04" rms="4.5921799540519714e-01" purity="5.0018900632858276e-01" nType="-99"/>
          <Node pos="r" depth="2" NCoef="0" IVar="-1" Cut="0.0000000000000000e+00" cType="1" res="-1.4009532751515508e-03" rms="4.5215049386024475e-01" purity="3.9335829019546509e-01" nType="-99"/>
        </Node>
        <Node pos="r" depth="1" NCoef="0" IVar="2" Cut="4.1803750610351562e+02" cType="1" res="3.6271423101425171e-02" rms="4.6441730856895447e-01" purity="5.4894524812698364e-01" nType="0">
          <Node pos="l" depth="2" NCoef="0" IVar="-1" Cut="0.0000000000000000e+00" cType="1" res="2.0988244796171784e-04" rms="4.6766597032546997e-01" purity="4.0861749649047852e-01" nType="-99"/>
          <Node pos="r" depth="2" NCoef="0" IVar="-1" Cut="0.0000000000000000e+00" cType="1" res="8.2549353828653693e-04" rms="4.6112298965454102e-01" purity="6.4972150325775146e-01" nType="-99"/>
        </Node>
      </Node>
    </BinaryTree>
    <BinaryTree type="DecisionTree" boostWeight="1.0000000000000000e+00" itree="533">
      <Node pos="s" depth="0" NCoef="0" IVar="2" Cut="4.9104846191406250e+02" cType="1" res="7.9862093552947044e-03" rms="4.6044030785560608e-01" purity="5.0277066230773926e-01" nType="0">
        <Node pos="l" depth="1" NCoef="0" IVar="3" Cut="-1.0867710411548615e-01" cType="1" res="-6.3492790795862675e-03" rms="4.5960736274719238e-01" purity="4.2000368237495422e-01" nType="0">
          <Node pos="l" depth="2" NCoef="0" IVar="-1" Cut="0.0000000000000000e+00" cType="1" res="-1.6418620944023132e-03" rms="4.2843940854072571e-01" purity="3.2634419202804565e-01" nType="-99"/>
          <Node pos="r" depth="2" NCoef="0" IVar="-1" Cut="0.0000000000000000e+00" cType="1" res="1.7569727788213640e-05" rms="4.6306157112121582e-01" purity="4.3229532241821289e-01" nType="-99"/>
        </Node>
        <Node pos="r" depth="1" NCoef="0" IVar="0" Cut="6.5443463623523712e-02" cType="1" res="3.1590729951858521e-02" rms="4.6083787083625793e-01" purity="6.3905310630798340e-01" nType="0">
          <Node pos="l" depth="2" NCoef="0" IVar="-1" Cut="0.0000000000000000e+00" cType="1" res="-1.4305907825473696e-05" rms="4.7184520959854126e-01" purity="5.9119307994842529e-01" nType="-99"/>
          <Node pos="r" depth="2" NCoef="0" IVar="-1" Cut="0.0000000000000000e+00" cType="1" res="1.0192976333200932e-03" rms="4.4382974505424500e-01" purity="6.9746708869934082e-01" nType="-99"/>
        </Node>
      </Node>
    </BinaryTree>
    <BinaryTree type="DecisionTree" boostWeight="1.0000000000000000e+00" itree="534">
      <Node pos="s" depth="0" NCoef="0" IVar="1" Cut="9.2222726345062256e-01" cType="1" res="6.4364266581833363e-03" rms="4.6059873700141907e-01" purity="5.0031119585037231e-01" nType="0">
        <Node pos="l" depth="1" NCoef="0" IVar="4" Cut="-6.2672048807144165e-03" cType="1" res="-4.0620364248752594e-02" rms="4.4711980223655701e-01" purity="3.2523900270462036e-01" nType="0">
          <Node pos="l" depth="2" NCoef="0" IVar="-1" Cut="0.0000000000000000e+00" cType="1" res="-4.3795554665848613e-04" rms="4.5938044786453247e-01" purity="3.4724918007850647e-01" nType="-99"/>
          <Node pos="r" depth="2" NCoef="0" IVar="-1" Cut="0.0000000000000000e+00" cType="1" res="-1.5185559168457985e-03" rms="4.3835705518722534e-01" purity="3.1099766492843628e-01" nType="-99"/>
        </Node>
        <Node pos="r" depth="1" NCoef="0" IVar="1" Cut="9.8507267236709595e-01" cType="1" res="1.4614458195865154e-02" rms="4.6241304278373718e-01" purity="5.3073710203170776e-01" nType="0">
          <Node pos="l" depth="2" NCoef="0" IVar="-1" Cut="0.0000000000000000e+00" cType="1" res="1.4877338253427297e-04" rms="4.7008079290390015e-01" purity="4.9620124697685242e-01" nType="-99"/>
          <Node pos="r" depth="2" NCoef="0" IVar="-1" Cut="0.0000000000000000e+00" cType="1" res="9.2820910504087806e-04" rms="3.9590901136398315e-01" purity="7.9308539628982544e-01" nType="-99"/>
        </Node>
      </Node>
    </BinaryTree>
    <BinaryTree type="DecisionTree" boostWeight="1.0000000000000000e+00" itree="535">
      <Node pos="s" depth="0" NCoef="0" IVar="6" Cut="1.5305627584457397e+00" cType="1" res="5.8280853554606438e-03" rms="4.6264871954917908e-01" purity="4.9774956703186035e-01" nType="0">
        <Node pos="l" depth="1" NCoef="0" IVar="-1" Cut="0.0000000000000000e+00" cType="1" res="1.2065070914104581e-03" rms="4.3753471970558167e-01" purity="6.3678115606307983e-01" nType="-99"/>
        <Node pos="r" depth="1" NCoef="0" IVar="2" Cut="3.4346337890625000e+02" cType="1" res="4.3391331564635038e-04" rms="4.6396085619926453e-01" purity="4.8763391375541687e-01" nType="0">
          <Node pos="l" depth="2" NCoef="0" IVar="-1" Cut="0.0000000000000000e+00" cType="1" res="-1.0258242255076766e-03" rms="4.2632865905761719e-01" purity="2.7494975924491882e-01" nType="-99"/>
          <Node pos="r" depth="2" NCoef="0" IVar="-1" Cut="0.0000000000000000e+00" cType="1" res="1.3174497871659696e-04" rms="4.7145092487335205e-01" purity="5.3387343883514404e-01" nType="-99"/>
        </Node>
      </Node>
    </BinaryTree>
    <BinaryTree type="DecisionTree" boostWeight="1.0000000000000000e+00" itree="536">
      <Node pos="s" depth="0" NCoef="0" IVar="3" Cut="7.5049966573715210e-02" cType="1" res="5.1501183770596981e-03" rms="4.6115517616271973e-01" purity="4.9746620655059814e-01" nType="0">
        <Node pos="l" depth="1" NCoef="0" IVar="4" Cut="5.3389086388051510e-03" cType="1" res="-7.2497380897402763e-03" rms="4.5851352810859680e-01" purity="4.7514510154724121e-01" nType="0">
          <Node pos="l" depth="2" NCoef="0" IVar="-1" Cut="0.0000000000000000e+00" cType="1" res="2.2499382612295449e-04" rms="4.5823216438293457e-01" purity="5.0726127624511719e-01" nType="-99"/>
          <Node pos="r" depth="2" NCoef="0" IVar="-1" Cut="0.0000000000000000e+00" cType="1" res="-6.2255357624962926e-04" rms="4.5781791210174561e-01" purity="4.3811294436454773e-01" nType="-99"/>
        </Node>
        <Node pos="r" depth="1" NCoef="0" IVar="1" Cut="9.5475918054580688e-01" cType="1" res="2.8358926996588707e-02" rms="4.6517184376716614e-01" purity="5.3924465179443359e-01" nType="0">
          <Node pos="l" depth="2" NCoef="0" IVar="-1" Cut="0.0000000000000000e+00" cType="1" res="2.0176387624815106e-04" rms="4.7700291872024536e-01" purity="4.3929365277290344e-01" nType="-99"/>
          <Node pos="r" depth="2" NCoef="0" IVar="-1" Cut="0.0000000000000000e+00" cType="1" res="7.8127364395186305e-04" rms="4.4866272807121277e-01" purity="6.6590523719787598e-01" nType="-99"/>
        </Node>
      </Node>
    </BinaryTree>
    <BinaryTree type="DecisionTree" boostWeight="1.0000000000000000e+00" itree="537">
      <Node pos="s" depth="0" NCoef="0" IVar="2" Cut="6.7676428222656250e+02" cType="1" res="5.8191511780023575e-03" rms="4.5921930670738220e-01" purity="5.0147414207458496e-01" nType="0">
        <Node pos="l" depth="1" NCoef="0" IVar="1" Cut="9.2163562774658203e-01" cType="1" res="-1.3167895376682281e-03" rms="4.6031144261360168e-01" purity="4.7519800066947937e-01" nType="0">
          <Node pos="l" depth="2" NCoef="0" IVar="-1" Cut="0.0000000000000000e+00" cType="1" res="-1.4276354340836406e-03" rms="4.3727007508277893e-01" purity="2.9458212852478027e-01" nType="-99"/>
          <Node pos="r" depth="2" NCoef="0" IVar="-1" Cut="0.0000000000000000e+00" cType="1" res="1.2700195657089353e-04" rms="4.6359747648239136e-01" purity="5.0576144456863403e-01" nType="-99"/>
        </Node>
        <Node pos="r" depth="1" NCoef="0" IVar="-1" Cut="0.0000000000000000e+00" cType="1" res="8.5189676610752940e-04" rms="4.4791406393051147e-01" purity="6.9093376398086548e-01" nType="-99"/>
      </Node>
    </BinaryTree>
    <BinaryTree type="DecisionTree" boostWeight="1.0000000000000000e+00" itree="538">
      <Node pos="s" depth="0" NCoef="0" IVar="2" Cut="4.8267938232421875e+02" cType="1" res="6.3371583819389343e-03" rms="4.5834329724311829e-01" purity="5.0215661525726318e-01" nType="0">
        <Node pos="l" depth="1" NCoef="0" IVar="3" Cut="-3.5496916621923447e-02" cType="1" res="-9.6168322488665581e-03" rms="4.5690706372261047e-01" purity="4.1225999593734741e-01" nType="0">
          <Node pos="l" depth="2" NCoef="0" IVar="-1" Cut="0.0000000000000000e+00" cType="1" res="-8.4874604362994432e-04" rms="4.4311136007308960e-01" purity="3.6643943190574646e-01" nType="-99"/>
          <Node pos="r" depth="2" NCoef="0" IVar="-1" Cut="0.0000000000000000e+00" cType="1" res="1.0624979768181220e-04" rms="4.6411582827568054e-01" purity="4.3895244598388672e-01" nType="-99"/>
        </Node>
        <Node pos="r" depth="1" NCoef="0" IVar="0" Cut="2.5098379701375961e-02" cType="1" res="3.0397692695260048e-02" rms="4.5945423841476440e-01" purity="6.3773155212402344e-01" nType="0">
          <Node pos="l" depth="2" NCoef="0" IVar="-1" Cut="0.0000000000000000e+00" cType="1" res="-5.7539402041584253e-04" rms="4.7836080193519592e-01" purity="5.4840373992919922e-01" nType="-99"/>
          <Node pos="r" depth="2" NCoef="0" IVar="-1" Cut="0.0000000000000000e+00" cType="1" res="6.7813234636560082e-04" rms="4.5377704501152039e-01" purity="6.5819793939590454e-01" nType="-99"/>
        </Node>
      </Node>
    </BinaryTree>
    <BinaryTree type="DecisionTree" boostWeight="1.0000000000000000e+00" itree="539">
      <Node pos="s" depth="0" NCoef="0" IVar="1" Cut="9.8436695337295532e-01" cType="1" res="4.9098441377282143e-03" rms="4.6150115132331848e-01" purity="4.9739256501197815e-01" nType="0">
        <Node pos="l" depth="1" NCoef="0" IVar="0" Cut="8.3941742777824402e-02" cType="1" res="-1.3788158539682627e-03" rms="4.6779394149780273e-01" purity="4.6324199438095093e-01" nType="0">
          <Node pos="l" depth="2" NCoef="0" IVar="-1" Cut="0.0000000000000000e+00" cType="1" res="-3.4107765532098711e-04" rms="4.6997937560081482e-01" purity="4.5611178874969482e-01" nType="-99"/>
          <Node pos="r" depth="2" NCoef="0" IVar="-1" Cut="0.0000000000000000e+00" cType="1" res="3.0826628790237010e-04" rms="4.6470656991004944e-01" purity="4.7122302651405334e-01" nType="-99"/>
        </Node>
        <Node pos="r" depth="1" NCoef="0" IVar="-1" Cut="0.0000000000000000e+00" cType="1" res="8.4903411334380507e-04" rms="4.0046015381813049e-01" purity="7.8618693351745605e-01" nType="-99"/>
      </Node>
    </BinaryTree>
    <BinaryTree type="DecisionTree" boostWeight="1.0000000000000000e+00" itree="540">
      <Node pos="s" depth="0" NCoef="0" IVar="3" Cut="1.8199725449085236e-01" cType="1" res="-8.8387657888233662e-04" rms="4.6040514111518860e-01" purity="4.9315780401229858e-01" nType="0">
        <Node pos="l" depth="1" NCoef="0" IVar="4" Cut="6.5727308392524719e-03" cType="1" res="-8.6159445345401764e-03" rms="4.5901712775230408e-01" purity="4.8182547092437744e-01" nType="0">
          <Node pos="l" depth="2" NCoef="0" IVar="-1" Cut="0.0000000000000000e+00" cType="1" res="2.1430250490084291e-04" rms="4.5802956819534302e-01" purity="5.1643562316894531e-01" nType="-99"/>
          <Node pos="r" depth="2" NCoef="0" IVar="-1" Cut="0.0000000000000000e+00" cType="1" res="-7.0490117650479078e-04" rms="4.5899745821952820e-01" purity="4.3953645229339600e-01" nType="-99"/>
        </Node>
        <Node pos="r" depth="1" NCoef="0" IVar="3" Cut="2.3522427678108215e-01" cType="1" res="4.6273797750473022e-02" rms="4.6601256728172302e-01" purity="5.6227344274520874e-01" nType="0">
          <Node pos="l" depth="2" NCoef="0" IVar="-1" Cut="0.0000000000000000e+00" cType="1" res="5.1809492288157344e-04" rms="4.6407702565193176e-01" purity="5.5159020423889160e-01" nType="-99"/>
          <Node pos="r" depth="2" NCoef="0" IVar="-1" Cut="0.0000000000000000e+00" cType="1" res="1.1013483162969351e-03" rms="4.6763259172439575e-01" purity="5.7556104660034180e-01" nType="-99"/>
        </Node>
      </Node>
    </BinaryTree>
    <BinaryTree type="DecisionTree" boostWeight="1.0000000000000000e+00" itree="541">
      <Node pos="s" depth="0" NCoef="0" IVar="3" Cut="2.2116115689277649e-01" cType="1" res="8.7827099487185478e-03" rms="4.6029958128929138e-01" purity="5.0395709276199341e-01" nType="0">
        <Node pos="l" depth="1" NCoef="0" IVar="4" Cut="9.5152974128723145e-02" cType="1" res="2.7525592595338821e-03" rms="4.5942613482475281e-01" purity="4.9592274427413940e-01" nType="0">
          <Node pos="l" depth="2" NCoef="0" IVar="-1" Cut="0.0000000000000000e+00" cType="1" res="2.4584890343248844e-04" rms="4.5936003327369690e-01" purity="5.1355791091918945e-01" nType="-99"/>
          <Node pos="r" depth="2" NCoef="0" IVar="-1" Cut="0.0000000000000000e+00" cType="1" res="-1.3793770922347903e-03" rms="4.5482382178306580e-01" purity="3.9269286394119263e-01" nType="-99"/>
        </Node>
        <Node pos="r" depth="1" NCoef="0" IVar="-1" Cut="0.0000000000000000e+00" cType="1" res="1.2130765244364738e-03" rms="4.6466171741485596e-01" purity="5.9279590845108032e-01" nType="-99"/>
      </Node>
    </BinaryTree>
    <BinaryTree type="DecisionTree" boostWeight="1.0000000000000000e+00" itree="542">
      <Node pos="s" depth="0" NCoef="0" IVar="2" Cut="6.4545660400390625e+02" cType="1" res="6.5686157904565334e-03" rms="4.6114447712898254e-01" purity="4.9949741363525391e-01" nType="0">
        <Node pos="l" depth="1" NCoef="0" IVar="3" Cut="1.7485950887203217e-01" cType="1" res="-4.0150151471607387e-04" rms="4.6241030097007751e-01" purity="4.6943727135658264e-01" nType="0">
          <Node pos="l" depth="2" NCoef="0" IVar="-1" Cut="0.0000000000000000e+00" cType="1" res="-1.7638593271840364e-04" rms="4.6056601405143738e-01" purity="4.5584437251091003e-01" nType="-99"/>
          <Node pos="r" depth="2" NCoef="0" IVar="-1" Cut="0.0000000000000000e+00" cType="1" res="7.7199982479214668e-04" rms="4.6967443823814392e-01" purity="5.4263311624526978e-01" nType="-99"/>
        </Node>
        <Node pos="r" depth="1" NCoef="0" IVar="0" Cut="3.4569818526506424e-02" cType="1" res="4.8243731260299683e-02" rms="4.5126163959503174e-01" purity="6.7923051118850708e-01" nType="0">
          <Node pos="l" depth="2" NCoef="0" IVar="-1" Cut="0.0000000000000000e+00" cType="1" res="5.8551780966809019e-05" rms="4.7454515099525452e-01" purity="6.1006891727447510e-01" nType="-99"/>
          <Node pos="r" depth="2" NCoef="0" IVar="-1" Cut="0.0000000000000000e+00" cType="1" res="1.1283167405053973e-03" rms="4.3154644966125488e-01" purity="7.2751688957214355e-01" nType="-99"/>
        </Node>
      </Node>
    </BinaryTree>
    <BinaryTree type="DecisionTree" boostWeight="1.0000000000000000e+00" itree="543">
      <Node pos="s" depth="0" NCoef="0" IVar="1" Cut="9.3138378858566284e-01" cType="1" res="6.7018135450780392e-03" rms="4.6101447939872742e-01" purity="5.0060498714447021e-01" nType="0">
        <Node pos="l" depth="1" NCoef="0" IVar="0" Cut="9.6486866474151611e-02" cType="1" res="-2.5211943313479424e-02" rms="4.5375734567642212e-01" purity="3.4678417444229126e-01" nType="0">
          <Node pos="l" depth="2" NCoef="0" IVar="-1" Cut="0.0000000000000000e+00" cType="1" res="-9.7192259272560477e-04" rms="4.5619627833366394e-01" purity="3.4311467409133911e-01" nType="-99"/>
          <Node pos="r" depth="2" NCoef="0" IVar="-1" Cut="0.0000000000000000e+00" cType="1" res="-1.0051384742837399e-04" rms="4.4912898540496826e-01" purity="3.5248488187789917e-01" nType="-99"/>
        </Node>
        <Node pos="r" depth="1" NCoef="0" IVar="2" Cut="5.9621557617187500e+02" cType="1" res="1.6258936375379562e-02" rms="4.6273756027221680e-01" purity="5.4666924476623535e-01" nType="0">
          <Node pos="l" depth="2" NCoef="0" IVar="-1" Cut="0.0000000000000000e+00" cType="1" res="1.1969468323513865e-04" rms="4.6796673536300659e-01" purity="5.0470298528671265e-01" nType="-99"/>
          <Node pos="r" depth="2" NCoef="0" IVar="-1" Cut="0.0000000000000000e+00" cType="1" res="7.9609436215832829e-04" rms="4.3965247273445129e-01" purity="7.1053886413574219e-01" nType="-99"/>
        </Node>
      </Node>
    </BinaryTree>
    <BinaryTree type="DecisionTree" boostWeight="1.0000000000000000e+00" itree="544">
      <Node pos="s" depth="0" NCoef="0" IVar="3" Cut="1.2254424393177032e-01" cType="1" res="3.3116643317043781e-03" rms="4.6044605970382690e-01" purity="4.9723374843597412e-01" nType="0">
        <Node pos="l" depth="1" NCoef="0" IVar="0" Cut="8.4174014627933502e-02" cType="1" res="-7.7622160315513611e-03" rms="4.5893037319183350e-01" purity="4.7924569249153137e-01" nType="0">
          <Node pos="l" depth="2" NCoef="0" IVar="-1" Cut="0.0000000000000000e+00" cType="1" res="-6.9600925780832767e-04" rms="4.5871049165725708e-01" purity="4.5791989564895630e-01" nType="-99"/>
          <Node pos="r" depth="2" NCoef="0" IVar="-1" Cut="0.0000000000000000e+00" cType="1" res="3.1293675419874489e-04" rms="4.5778402686119080e-01" purity="4.9893346428871155e-01" nType="-99"/>
        </Node>
        <Node pos="r" depth="1" NCoef="0" IVar="1" Cut="9.3433362245559692e-01" cType="1" res="3.6612100899219513e-02" rms="4.6338245272636414e-01" purity="5.5132597684860229e-01" nType="0">
          <Node pos="l" depth="2" NCoef="0" IVar="-1" Cut="0.0000000000000000e+00" cType="1" res="1.0745645704446360e-04" rms="4.6756163239479065e-01" purity="4.1131585836410522e-01" nType="-99"/>
          <Node pos="r" depth="2" NCoef="0" IVar="-1" Cut="0.0000000000000000e+00" cType="1" res="7.7852595131844282e-04" rms="4.6121442317962646e-01" purity="6.0468429327011108e-01" nType="-99"/>
        </Node>
      </Node>
    </BinaryTree>
    <BinaryTree type="DecisionTree" boostWeight="1.0000000000000000e+00" itree="545">
      <Node pos="s" depth="0" NCoef="0" IVar="2" Cut="7.3978656005859375e+02" cType="1" res="3.2864708919078112e-03" rms="4.6028235554695129e-01" purity="4.9754276871681213e-01" nType="0">
        <Node pos="l" depth="1" NCoef="0" IVar="3" Cut="1.8159557878971100e-01" cType="1" res="-2.5603624526411295e-03" rms="4.6146640181541443e-01" purity="4.7845137119293213e-01" nType="0">
          <Node pos="l" depth="2" NCoef="0" IVar="-1" Cut="0.0000000000000000e+00" cType="1" res="-1.9976677140221000e-04" rms="4.5974990725517273e-01" purity="4.6686634421348572e-01" nType="-99"/>
          <Node pos="r" depth="2" NCoef="0" IVar="-1" Cut="0.0000000000000000e+00" cType="1" res="7.2665471816435456e-04" rms="4.6908888220787048e-01" purity="5.4760456085205078e-01" nType="-99"/>
        </Node>
        <Node pos="r" depth="1" NCoef="0" IVar="-1" Cut="0.0000000000000000e+00" cType="1" res="9.6362270414829254e-04" rms="4.4239756464958191e-01" purity="7.0373409986495972e-01" nType="-99"/>
      </Node>
    </BinaryTree>
    <BinaryTree type="DecisionTree" boostWeight="1.0000000000000000e+00" itree="546">
      <Node pos="s" depth="0" NCoef="0" IVar="0" Cut="5.6235350668430328e-02" cType="1" res="4.8660649918019772e-03" rms="4.6232011914253235e-01" purity="4.9752822518348694e-01" nType="0">
        <Node pos="l" depth="1" NCoef="0" IVar="3" Cut="1.3039183616638184e-01" cType="1" res="-1.8753811717033386e-02" rms="4.7016128897666931e-01" purity="4.7995230555534363e-01" nType="0">
          <Node pos="l" depth="2" NCoef="0" IVar="-1" Cut="0.0000000000000000e+00" cType="1" res="-7.9277233453467488e-04" rms="4.6604102849960327e-01" purity="4.5178934931755066e-01" nType="-99"/>
          <Node pos="r" depth="2" NCoef="0" IVar="-1" Cut="0.0000000000000000e+00" cType="1" res="4.6977802412584424e-04" rms="4.7631067037582397e-01" purity="5.4438543319702148e-01" nType="-99"/>
        </Node>
        <Node pos="r" depth="1" NCoef="0" IVar="2" Cut="5.1217584228515625e+02" cType="1" res="1.7167355865240097e-02" rms="4.5770078897476196e-01" purity="5.0668185949325562e-01" nType="0">
          <Node pos="l" depth="2" NCoef="0" IVar="-1" Cut="0.0000000000000000e+00" cType="1" res="8.0257399531546980e-05" rms="4.6092751622200012e-01" purity="4.4743815064430237e-01" nType="-99"/>
          <Node pos="r" depth="2" NCoef="0" IVar="-1" Cut="0.0000000000000000e+00" cType="1" res="8.4564811550080776e-04" rms="4.4514527916908264e-01" purity="6.8931275606155396e-01" nType="-99"/>
        </Node>
      </Node>
    </BinaryTree>
    <BinaryTree type="DecisionTree" boostWeight="1.0000000000000000e+00" itree="547">
      <Node pos="s" depth="0" NCoef="0" IVar="1" Cut="9.8430716991424561e-01" cType="1" res="8.4161078557372093e-03" rms="4.6049478650093079e-01" purity="5.0387543439865112e-01" nType="0">
        <Node pos="l" depth="1" NCoef="0" IVar="2" Cut="7.4369458007812500e+02" cType="1" res="1.9023589557036757e-03" rms="4.6738037467002869e-01" purity="4.6871235966682434e-01" nType="0">
          <Node pos="l" depth="2" NCoef="0" IVar="-1" Cut="0.0000000000000000e+00" cType="1" res="-7.3298644565511495e-05" rms="4.6828997135162354e-01" purity="4.4925364851951599e-01" nType="-99"/>
          <Node pos="r" depth="2" NCoef="0" IVar="-1" Cut="0.0000000000000000e+00" cType="1" res="9.4417552463710308e-04" rms="4.5235595107078552e-01" purity="6.8684440851211548e-01" nType="-99"/>
        </Node>
        <Node pos="r" depth="1" NCoef="0" IVar="-1" Cut="0.0000000000000000e+00" cType="1" res="8.9667853899300098e-04" rms="3.9555695652961731e-01" purity="7.9221230745315552e-01" nType="-99"/>
      </Node>
    </BinaryTree>
    <BinaryTree type="DecisionTree" boostWeight="1.0000000000000000e+00" itree="548">
      <Node pos="s" depth="0" NCoef="0" IVar="2" Cut="7.2414038085937500e+02" cType="1" res="5.6112017482519150e-03" rms="4.6022278070449829e-01" purity="5.0065320730209351e-01" nType="0">
        <Node pos="l" depth="1" NCoef="0" IVar="1" Cut="9.8417556285858154e-01" cType="1" res="-3.6933730007149279e-04" rms="4.6134027838706970e-01" purity="4.8020088672637939e-01" nType="0">
          <Node pos="l" depth="2" NCoef="0" IVar="-1" Cut="0.0000000000000000e+00" cType="1" res="-1.4304141222964972e-04" rms="4.6731323003768921e-01" purity="4.4357752799987793e-01" nType="-99"/>
          <Node pos="r" depth="2" NCoef="0" IVar="-1" Cut="0.0000000000000000e+00" cType="1" res="7.9108023783192039e-04" rms="4.0537416934967041e-01" purity="7.7832728624343872e-01" nType="-99"/>
        </Node>
        <Node pos="r" depth="1" NCoef="0" IVar="-1" Cut="0.0000000000000000e+00" cType="1" res="9.5261930255219340e-04" rms="4.4475111365318298e-01" purity="7.0251131057739258e-01" nType="-99"/>
      </Node>
    </BinaryTree>
    <BinaryTree type="DecisionTree" boostWeight="1.0000000000000000e+00" itree="549">
      <Node pos="s" depth="0" NCoef="0" IVar="1" Cut="9.2196673154830933e-01" cType="1" res="6.8402728065848351e-03" rms="4.6105480194091797e-01" purity="5.0152158737182617e-01" nType="0">
        <Node pos="l" depth="1" NCoef="0" IVar="0" Cut="1.0338160395622253e-01" cType="1" res="-4.1464015841484070e-02" rms="4.4726231694221497e-01" purity="3.2279202342033386e-01" nType="0">
          <Node pos="l" depth="2" NCoef="0" IVar="-1" Cut="0.0000000000000000e+00" cType="1" res="-1.4374818420037627e-03" rms="4.4892624020576477e-01" purity="3.1920403242111206e-01" nType="-99"/>
          <Node pos="r" depth="2" NCoef="0" IVar="-1" Cut="0.0000000000000000e+00" cType="1" res="-4.8261674237437546e-04" rms="4.4334939122200012e-01" purity="3.2927766442298889e-01" nType="-99"/>
        </Node>
        <Node pos="r" depth="1" NCoef="0" IVar="3" Cut="7.4133835732936859e-02" cType="1" res="1.5018740668892860e-02" rms="4.6285066008567810e-01" purity="5.3178256750106812e-01" nType="0">
          <Node pos="l" depth="2" NCoef="0" IVar="-1" Cut="0.0000000000000000e+00" cType="1" res="3.6172859836369753e-05" rms="4.6198120713233948e-01" purity="5.0898963212966919e-01" nType="-99"/>
          <Node pos="r" depth="2" NCoef="0" IVar="-1" Cut="0.0000000000000000e+00" cType="1" res="6.6142855212092400e-04" rms="4.6348440647125244e-01" purity="5.7489538192749023e-01" nType="-99"/>
        </Node>
      </Node>
    </BinaryTree>
    <BinaryTree type="DecisionTree" boostWeight="1.0000000000000000e+00" itree="550">
      <Node pos="s" depth="0" NCoef="0" IVar="5" Cut="4.7660522460937500e+02" cType="1" res="4.1130417957901955e-03" rms="4.5977041125297546e-01" purity="4.9847206473350525e-01" nType="0">
        <Node pos="l" depth="1" NCoef="0" IVar="0" Cut="1.1208140850067139e-01" cType="1" res="-4.2516710236668587e-03" rms="4.6112906932830811e-01" purity="4.6915832161903381e-01" nType="0">
          <Node pos="l" depth="2" NCoef="0" IVar="-1" Cut="0.0000000000000000e+00" cType="1" res="-3.5822769859805703e-04" rms="4.6183279156684875e-01" purity="4.5483276247978210e-01" nType="-99"/>
          <Node pos="r" depth="2" NCoef="0" IVar="-1" Cut="0.0000000000000000e+00" cType="1" res="3.5110989119857550e-04" rms="4.5900714397430420e-01" purity="4.9370682239532471e-01" nType="-99"/>
        </Node>
        <Node pos="r" depth="1" NCoef="0" IVar="-1" Cut="0.0000000000000000e+00" cType="1" res="8.5801415843889117e-04" rms="4.4709432125091553e-01" purity="6.8837940692901611e-01" nType="-99"/>
      </Node>
    </BinaryTree>
    <BinaryTree type="DecisionTree" boostWeight="1.0000000000000000e+00" itree="551">
      <Node pos="s" depth="0" NCoef="0" IVar="1" Cut="9.7557532787322998e-01" cType="1" res="8.6626885458827019e-03" rms="4.5836681127548218e-01" purity="5.0569772720336914e-01" nType="0">
        <Node pos="l" depth="1" NCoef="0" IVar="0" Cut="1.1829210817813873e-01" cType="1" res="-2.2462627384811640e-03" rms="4.6725136041641235e-01" purity="4.4676300883293152e-01" nType="0">
          <Node pos="l" depth="2" NCoef="0" IVar="-1" Cut="0.0000000000000000e+00" cType="1" res="-3.3366947900503874e-04" rms="4.6626800298690796e-01" purity="4.4086712598800659e-01" nType="-99"/>
          <Node pos="r" depth="2" NCoef="0" IVar="-1" Cut="0.0000000000000000e+00" cType="1" res="5.8505730703473091e-04" rms="4.6786841750144958e-01" purity="4.6017622947692871e-01" nType="-99"/>
        </Node>
        <Node pos="r" depth="1" NCoef="0" IVar="5" Cut="2.8463760375976562e+02" cType="1" res="5.3756155073642731e-02" rms="4.1663065552711487e-01" purity="7.4931150674819946e-01" nType="0">
          <Node pos="l" depth="2" NCoef="0" IVar="-1" Cut="0.0000000000000000e+00" cType="1" res="2.6042287936434150e-04" rms="4.6107542514801025e-01" purity="6.5033024549484253e-01" nType="-99"/>
          <Node pos="r" depth="2" NCoef="0" IVar="-1" Cut="0.0000000000000000e+00" cType="1" res="1.0638837702572346e-03" rms="3.8874608278274536e-01" purity="8.0342733860015869e-01" nType="-99"/>
        </Node>
      </Node>
    </BinaryTree>
    <BinaryTree type="DecisionTree" boostWeight="1.0000000000000000e+00" itree="552">
      <Node pos="s" depth="0" NCoef="0" IVar="1" Cut="9.8419910669326782e-01" cType="1" res="6.3783242367208004e-03" rms="4.6052676439285278e-01" purity="5.0135612487792969e-01" nType="0">
        <Node pos="l" depth="1" NCoef="0" IVar="4" Cut="-3.3087380230426788e-02" cType="1" res="2.9033594182692468e-04" rms="4.6712955832481384e-01" purity="4.6691903471946716e-01" nType="0">
          <Node pos="l" depth="2" NCoef="0" IVar="-1" Cut="0.0000000000000000e+00" cType="1" res="5.2932795369997621e-04" rms="4.6929475665092468e-01" purity="5.0176221132278442e-01" nType="-99"/>
          <Node pos="r" depth="2" NCoef="0" IVar="-1" Cut="0.0000000000000000e+00" cType="1" res="-2.0990621123928577e-04" rms="4.6585234999656677e-01" purity="4.5380440354347229e-01" nType="-99"/>
        </Node>
        <Node pos="r" depth="1" NCoef="0" IVar="-1" Cut="0.0000000000000000e+00" cType="1" res="8.4039830835536122e-04" rms="3.9753505587577820e-01" purity="7.8896850347518921e-01" nType="-99"/>
      </Node>
    </BinaryTree>
    <BinaryTree type="DecisionTree" boostWeight="1.0000000000000000e+00" itree="553">
      <Node pos="s" depth="0" NCoef="0" IVar="6" Cut="1.8001922369003296e+00" cType="1" res="5.3613591007888317e-03" rms="4.6158158779144287e-01" purity="4.9777978658676147e-01" nType="0">
        <Node pos="l" depth="1" NCoef="0" IVar="5" Cut="2.5758905029296875e+02" cType="1" res="5.4439991712570190e-02" rms="4.5357468724250793e-01" purity="5.9164166450500488e-01" nType="0">
          <Node pos="l" depth="2" NCoef="0" IVar="-1" Cut="0.0000000000000000e+00" cType="1" res="2.6964518474414945e-04" rms="4.6664053201675415e-01" purity="4.2812049388885498e-01" nType="-99"/>
          <Node pos="r" depth="2" NCoef="0" IVar="-1" Cut="0.0000000000000000e+00" cType="1" res="1.1060382239520550e-03" rms="4.4448566436767578e-01" purity="6.8247568607330322e-01" nType="-99"/>
        </Node>
        <Node pos="r" depth="1" NCoef="0" IVar="5" Cut="4.5832357788085938e+02" cType="1" res="-2.8917791787534952e-03" rms="4.6240308880805969e-01" purity="4.8199582099914551e-01" nType="0">
          <Node pos="l" depth="2" NCoef="0" IVar="-1" Cut="0.0000000000000000e+00" cType="1" res="-1.9856261496897787e-04" rms="4.6208062767982483e-01" purity="4.5127096772193909e-01" nType="-99"/>
          <Node pos="r" depth="2" NCoef="0" IVar="-1" Cut="0.0000000000000000e+00" cType="1" res="5.5159989278763533e-04" rms="4.6229624748229980e-01" purity="6.5400475263595581e-01" nType="-99"/>
        </Node>
      </Node>
    </BinaryTree>
    <BinaryTree type="DecisionTree" boostWeight="1.0000000000000000e+00" itree="554">
      <Node pos="s" depth="0" NCoef="0" IVar="2" Cut="5.6006939697265625e+02" cType="1" res="7.2376858443021774e-03" rms="4.6103450655937195e-01" purity="5.0120383501052856e-01" nType="0">
        <Node pos="l" depth="1" NCoef="0" IVar="3" Cut="1.5461917221546173e-01" cType="1" res="-2.6692685205489397e-03" rms="4.6209540963172913e-01" purity="4.4891202449798584e-01" nType="0">
          <Node pos="l" depth="2" NCoef="0" IVar="-1" Cut="0.0000000000000000e+00" cType="1" res="-2.5560258654877543e-04" rms="4.5923659205436707e-01" purity="4.3346190452575684e-01" nType="-99"/>
          <Node pos="r" depth="2" NCoef="0" IVar="-1" Cut="0.0000000000000000e+00" cType="1" res="6.7842769203707576e-04" rms="4.7191146016120911e-01" purity="5.1458328962326050e-01" nType="-99"/>
        </Node>
        <Node pos="r" depth="1" NCoef="0" IVar="0" Cut="6.9726571440696716e-02" cType="1" res="3.7597510963678360e-02" rms="4.5643076300621033e-01" purity="6.6145211458206177e-01" nType="0">
          <Node pos="l" depth="2" NCoef="0" IVar="-1" Cut="0.0000000000000000e+00" cType="1" res="1.2430235801730305e-04" rms="4.7286760807037354e-01" purity="6.1434412002563477e-01" nType="-99"/>
          <Node pos="r" depth="2" NCoef="0" IVar="-1" Cut="0.0000000000000000e+00" cType="1" res="1.2574335560202599e-03" rms="4.2079746723175049e-01" purity="7.4449241161346436e-01" nType="-99"/>
        </Node>
      </Node>
    </BinaryTree>
    <BinaryTree type="DecisionTree" boostWeight="1.0000000000000000e+00" itree="555">
      <Node pos="s" depth="0" NCoef="0" IVar="1" Cut="9.8413527011871338e-01" cType="1" res="-2.1005270536988974e-03" rms="4.5962709188461304e-01" purity="4.9230504035949707e-01" nType="0">
        <Node pos="l" depth="1" NCoef="0" IVar="3" Cut="1.7886576056480408e-01" cType="1" res="-8.8328216224908829e-03" rms="4.6546071767807007e-01" purity="4.5774462819099426e-01" nType="0">
          <Node pos="l" depth="2" NCoef="0" IVar="-1" Cut="0.0000000000000000e+00" cType="1" res="-3.5004818346351385e-04" rms="4.6292555332183838e-01" purity="4.4415605068206787e-01" nType="-99"/>
          <Node pos="r" depth="2" NCoef="0" IVar="-1" Cut="0.0000000000000000e+00" cType="1" res="6.7314115585759282e-04" rms="4.7665408253669739e-01" purity="5.3412735462188721e-01" nType="-99"/>
        </Node>
        <Node pos="r" depth="1" NCoef="0" IVar="-1" Cut="0.0000000000000000e+00" cType="1" res="8.0190057633444667e-04" rms="4.0259546041488647e-01" purity="7.8408044576644897e-01" nType="-99"/>
      </Node>
    </BinaryTree>
    <BinaryTree type="DecisionTree" boostWeight="1.0000000000000000e+00" itree="556">
      <Node pos="s" depth="0" NCoef="0" IVar="6" Cut="1.8873533010482788e+00" cType="1" res="7.0624360814690590e-03" rms="4.6061298251152039e-01" purity="5.0087374448776245e-01" nType="0">
        <Node pos="l" depth="1" NCoef="0" IVar="5" Cut="2.5092755126953125e+02" cType="1" res="4.7831658273935318e-02" rms="4.5367586612701416e-01" purity="5.8682310581207275e-01" nType="0">
          <Node pos="l" depth="2" NCoef="0" IVar="-1" Cut="0.0000000000000000e+00" cType="1" res="-4.3624846148304641e-04" rms="4.5841416716575623e-01" purity="3.8042455911636353e-01" nType="-99"/>
          <Node pos="r" depth="2" NCoef="0" IVar="-1" Cut="0.0000000000000000e+00" cType="1" res="1.1034444905817509e-03" rms="4.4864612817764282e-01" purity="6.7448925971984863e-01" nType="-99"/>
        </Node>
        <Node pos="r" depth="1" NCoef="0" IVar="3" Cut="1.5872405469417572e-01" cType="1" res="-2.1577284205704927e-03" rms="4.6166849136352539e-01" purity="4.8143589496612549e-01" nType="0">
          <Node pos="l" depth="2" NCoef="0" IVar="-1" Cut="0.0000000000000000e+00" cType="1" res="-1.9262038404121995e-04" rms="4.6033358573913574e-01" purity="4.6908774971961975e-01" nType="-99"/>
          <Node pos="r" depth="2" NCoef="0" IVar="-1" Cut="0.0000000000000000e+00" cType="1" res="6.3514331122860312e-04" rms="4.6656394004821777e-01" purity="5.4495418071746826e-01" nType="-99"/>
        </Node>
      </Node>
    </BinaryTree>
    <BinaryTree type="DecisionTree" boostWeight="1.0000000000000000e+00" itree="557">
      <Node pos="s" depth="0" NCoef="0" IVar="3" Cut="1.8040962517261505e-01" cType="1" res="8.8651822879910469e-03" rms="4.6044060587882996e-01" purity="5.0290220975875854e-01" nType="0">
        <Node pos="l" depth="1" NCoef="0" IVar="4" Cut="8.5910342633724213e-02" cType="1" res="2.2663071285933256e-03" rms="4.5986783504486084e-01" purity="4.9130520224571228e-01" nType="0">
          <Node pos="l" depth="2" NCoef="0" IVar="-1" Cut="0.0000000000000000e+00" cType="1" res="2.2499899205286056e-04" rms="4.6015942096710205e-01" purity="5.0878787040710449e-01" nType="-99"/>
          <Node pos="r" depth="2" NCoef="0" IVar="-1" Cut="0.0000000000000000e+00" cType="1" res="-1.0666174348443747e-03" rms="4.5518699288368225e-01" purity="4.0390515327453613e-01" nType="-99"/>
        </Node>
        <Node pos="r" depth="1" NCoef="0" IVar="5" Cut="2.7110498046875000e+02" cType="1" res="4.7932486981153488e-02" rms="4.6188989281654358e-01" purity="5.7155972719192505e-01" nType="0">
          <Node pos="l" depth="2" NCoef="0" IVar="-1" Cut="0.0000000000000000e+00" cType="1" res="4.4260811409913003e-04" rms="4.6897006034851074e-01" purity="4.3222939968109131e-01" nType="-99"/>
          <Node pos="r" depth="2" NCoef="0" IVar="-1" Cut="0.0000000000000000e+00" cType="1" res="9.5926225185394287e-04" rms="4.5683988928794861e-01" purity="6.5549266338348389e-01" nType="-99"/>
        </Node>
      </Node>
    </BinaryTree>
    <BinaryTree type="DecisionTree" boostWeight="1.0000000000000000e+00" itree="558">
      <Node pos="s" depth="0" NCoef="0" IVar="1" Cut="9.8457849025726318e-01" cType="1" res="1.1146398028358817e-03" rms="4.5915645360946655e-01" purity="4.9569720029830933e-01" nType="0">
        <Node pos="l" depth="1" NCoef="0" IVar="6" Cut="1.8690861463546753e+00" cType="1" res="-4.9900379963219166e-03" rms="4.6498420834541321e-01" purity="4.6274214982986450e-01" nType="0">
          <Node pos="l" depth="2" NCoef="0" IVar="-1" Cut="0.0000000000000000e+00" cType="1" res="5.6354695698246360e-04" rms="4.6189671754837036e-01" purity="5.4617482423782349e-01" nType="-99"/>
          <Node pos="r" depth="2" NCoef="0" IVar="-1" Cut="0.0000000000000000e+00" cType="1" res="-2.6075032656081021e-04" rms="4.6522414684295654e-01" purity="4.4553163647651672e-01" nType="-99"/>
        </Node>
        <Node pos="r" depth="1" NCoef="0" IVar="-1" Cut="0.0000000000000000e+00" cType="1" res="8.0156570766121149e-04" rms="4.0029689669609070e-01" purity="7.8558951616287231e-01" nType="-99"/>
      </Node>
    </BinaryTree>
    <BinaryTree type="DecisionTree" boostWeight="1.0000000000000000e+00" itree="559">
      <Node pos="s" depth="0" NCoef="0" IVar="2" Cut="3.1371685791015625e+02" cType="1" res="6.5101827494800091e-03" rms="4.6229898929595947e-01" purity="4.9957624077796936e-01" nType="0">
        <Node pos="l" depth="1" NCoef="0" IVar="-1" Cut="0.0000000000000000e+00" cType="1" res="-1.9012135453522205e-03" rms="4.0231758356094360e-01" purity="2.4040670692920685e-01" nType="-99"/>
        <Node pos="r" depth="1" NCoef="0" IVar="0" Cut="9.2596679925918579e-02" cType="1" res="1.2175866402685642e-02" rms="4.6736097335815430e-01" purity="5.2489602565765381e-01" nType="0">
          <Node pos="l" depth="2" NCoef="0" IVar="-1" Cut="0.0000000000000000e+00" cType="1" res="-9.2153124569449574e-05" rms="4.6787145733833313e-01" purity="5.1103192567825317e-01" nType="-99"/>
          <Node pos="r" depth="2" NCoef="0" IVar="-1" Cut="0.0000000000000000e+00" cType="1" res="6.2483723741024733e-04" rms="4.6559149026870728e-01" purity="5.4422795772552490e-01" nType="-99"/>
        </Node>
      </Node>
    </BinaryTree>
    <BinaryTree type="DecisionTree" boostWeight="1.0000000000000000e+00" itree="560">
      <Node pos="s" depth="0" NCoef="0" IVar="1" Cut="9.8441046476364136e-01" cType="1" res="1.8376766238361597e-03" rms="4.6113070845603943e-01" purity="4.9529385566711426e-01" nType="0">
        <Node pos="l" depth="1" NCoef="0" IVar="0" Cut="3.7100300192832947e-02" cType="1" res="-4.7190394252538681e-03" rms="4.6788015961647034e-01" purity="4.6007943153381348e-01" nType="0">
          <Node pos="l" depth="2" NCoef="0" IVar="-1" Cut="0.0000000000000000e+00" cType="1" res="-6.9873395841568708e-04" rms="4.7349750995635986e-01" purity="4.4923740625381470e-01" nType="-99"/>
          <Node pos="r" depth="2" NCoef="0" IVar="-1" Cut="0.0000000000000000e+00" cType="1" res="5.7496727094985545e-05" rms="4.6611964702606201e-01" purity="4.6286222338676453e-01" nType="-99"/>
        </Node>
        <Node pos="r" depth="1" NCoef="0" IVar="-1" Cut="0.0000000000000000e+00" cType="1" res="8.3556678146123886e-04" rms="3.9585790038108826e-01" purity="7.9045814275741577e-01" nType="-99"/>
      </Node>
    </BinaryTree>
    <BinaryTree type="DecisionTree" boostWeight="1.0000000000000000e+00" itree="561">
      <Node pos="s" depth="0" NCoef="0" IVar="2" Cut="3.8561947631835938e+02" cType="1" res="7.0996908470988274e-03" rms="4.5962342619895935e-01" purity="5.0422537326812744e-01" nType="0">
        <Node pos="l" depth="1" NCoef="0" IVar="5" Cut="2.6780862426757812e+02" cType="1" res="-1.9160969182848930e-02" rms="4.4204795360565186e-01" purity="3.2913458347320557e-01" nType="0">
          <Node pos="l" depth="2" NCoef="0" IVar="-1" Cut="0.0000000000000000e+00" cType="1" res="-8.9576886966824532e-04" rms="4.3553107976913452e-01" purity="3.0431371927261353e-01" nType="-99"/>
          <Node pos="r" depth="2" NCoef="0" IVar="-1" Cut="0.0000000000000000e+00" cType="1" res="8.2464737351983786e-04" rms="4.6891328692436218e-01" purity="4.5403608679771423e-01" nType="-99"/>
        </Node>
        <Node pos="r" depth="1" NCoef="0" IVar="0" Cut="3.5411100834608078e-02" cType="1" res="1.8911767750978470e-02" rms="4.6683201193809509e-01" purity="5.8298140764236450e-01" nType="0">
          <Node pos="l" depth="2" NCoef="0" IVar="-1" Cut="0.0000000000000000e+00" cType="1" res="-5.6734349345788360e-04" rms="4.7497418522834778e-01" purity="5.2082246541976929e-01" nType="-99"/>
          <Node pos="r" depth="2" NCoef="0" IVar="-1" Cut="0.0000000000000000e+00" cType="1" res="5.3057208424434066e-04" rms="4.6351119875907898e-01" purity="6.0060107707977295e-01" nType="-99"/>
        </Node>
      </Node>
    </BinaryTree>
    <BinaryTree type="DecisionTree" boostWeight="1.0000000000000000e+00" itree="562">
      <Node pos="s" depth="0" NCoef="0" IVar="2" Cut="7.2825067138671875e+02" cType="1" res="3.7255850620567799e-03" rms="4.5968759059906006e-01" purity="4.9959027767181396e-01" nType="0">
        <Node pos="l" depth="1" NCoef="0" IVar="0" Cut="2.7508107945322990e-02" cType="1" res="-2.6279126759618521e-03" rms="4.6083831787109375e-01" purity="4.7915014624595642e-01" nType="0">
          <Node pos="l" depth="2" NCoef="0" IVar="-1" Cut="0.0000000000000000e+00" cType="1" res="-1.2603893410414457e-03" rms="4.6364995837211609e-01" purity="4.1912612318992615e-01" nType="-99"/>
          <Node pos="r" depth="2" NCoef="0" IVar="-1" Cut="0.0000000000000000e+00" cType="1" res="7.5770898547489196e-05" rms="4.6006068587303162e-01" purity="4.8622035980224609e-01" nType="-99"/>
        </Node>
        <Node pos="r" depth="1" NCoef="0" IVar="-1" Cut="0.0000000000000000e+00" cType="1" res="9.9764752667397261e-04" rms="4.4260293245315552e-01" purity="7.0807051658630371e-01" nType="-99"/>
      </Node>
    </BinaryTree>
    <BinaryTree type="DecisionTree" boostWeight="1.0000000000000000e+00" itree="563">
      <Node pos="s" depth="0" NCoef="0" IVar="2" Cut="5.5387561035156250e+02" cType="1" res="1.3028321554884315e-03" rms="4.5853388309478760e-01" purity="4.9753183126449585e-01" nType="0">
        <Node pos="l" depth="1" NCoef="0" IVar="2" Cut="2.9744375610351562e+02" cType="1" res="-1.0866917669773102e-02" rms="4.5968714356422424e-01" purity="4.4033741950988770e-01" nType="0">
          <Node pos="l" depth="2" NCoef="0" IVar="-1" Cut="0.0000000000000000e+00" cType="1" res="-3.0903422739356756e-03" rms="3.7403821945190430e-01" purity="2.0836573839187622e-01" nType="-99"/>
          <Node pos="r" depth="2" NCoef="0" IVar="-1" Cut="0.0000000000000000e+00" cType="1" res="-1.1013053153874353e-04" rms="4.6531277894973755e-01" purity="4.5850458741188049e-01" nType="-99"/>
        </Node>
        <Node pos="r" depth="1" NCoef="0" IVar="0" Cut="5.7235371321439743e-02" cType="1" res="3.6371197551488876e-02" rms="4.5337101817131042e-01" purity="6.6234344244003296e-01" nType="0">
          <Node pos="l" depth="2" NCoef="0" IVar="-1" Cut="0.0000000000000000e+00" cType="1" res="2.6057350623887032e-05" rms="4.6753969788551331e-01" purity="6.0980397462844849e-01" nType="-99"/>
          <Node pos="r" depth="2" NCoef="0" IVar="-1" Cut="0.0000000000000000e+00" cType="1" res="1.1132458457723260e-03" rms="4.3198364973068237e-01" purity="7.2566795349121094e-01" nType="-99"/>
        </Node>
      </Node>
    </BinaryTree>
    <BinaryTree type="DecisionTree" boostWeight="1.0000000000000000e+00" itree="564">
      <Node pos="s" depth="0" NCoef="0" IVar="2" Cut="3.0735641479492188e+02" cType="1" res="5.5343485437333584e-03" rms="4.5969751477241516e-01" purity="5.0058013200759888e-01" nType="0">
        <Node pos="l" depth="1" NCoef="0" IVar="-1" Cut="0.0000000000000000e+00" cType="1" res="-2.3346177767962217e-03" rms="3.9138895273208618e-01" purity="2.2267174720764160e-01" nType="-99"/>
        <Node pos="r" depth="1" NCoef="0" IVar="4" Cut="7.1662683039903641e-03" cType="1" res="1.0701595805585384e-02" rms="4.6421781182289124e-01" purity="5.2230471372604370e-01" nType="0">
          <Node pos="l" depth="2" NCoef="0" IVar="-1" Cut="0.0000000000000000e+00" cType="1" res="5.0801527686417103e-04" rms="4.6247828006744385e-01" purity="5.5334395170211792e-01" nType="-99"/>
          <Node pos="r" depth="2" NCoef="0" IVar="-1" Cut="0.0000000000000000e+00" cType="1" res="-1.2520418385975063e-04" rms="4.6513149142265320e-01" purity="4.9389994144439697e-01" nType="-99"/>
        </Node>
      </Node>
    </BinaryTree>
    <BinaryTree type="DecisionTree" boostWeight="1.0000000000000000e+00" itree="565">
      <Node pos="s" depth="0" NCoef="0" IVar="3" Cut="1.7941585183143616e-01" cType="1" res="4.9277138896286488e-03" rms="4.6092903614044189e-01" purity="4.9957290291786194e-01" nType="0">
        <Node pos="l" depth="1" NCoef="0" IVar="4" Cut="7.4647124856710434e-03" cType="1" res="-2.9337254818528891e-03" rms="4.5912712812423706e-01" purity="4.8809203505516052e-01" nType="0">
          <Node pos="l" depth="2" NCoef="0" IVar="-1" Cut="0.0000000000000000e+00" cType="1" res="2.8051098342984915e-04" rms="4.5899543166160583e-01" purity="5.2174198627471924e-01" nType="-99"/>
          <Node pos="r" depth="2" NCoef="0" IVar="-1" Cut="0.0000000000000000e+00" cType="1" res="-5.3424970246851444e-04" rms="4.5826387405395508e-01" purity="4.4633033871650696e-01" nType="-99"/>
        </Node>
        <Node pos="r" depth="1" NCoef="0" IVar="3" Cut="2.3608835041522980e-01" cType="1" res="5.1389731466770172e-02" rms="4.6875336766242981e-01" purity="5.6742650270462036e-01" nType="0">
          <Node pos="l" depth="2" NCoef="0" IVar="-1" Cut="0.0000000000000000e+00" cType="1" res="6.9041398819535971e-04" rms="4.6986028552055359e-01" purity="5.5550974607467651e-01" nType="-99"/>
          <Node pos="r" depth="2" NCoef="0" IVar="-1" Cut="0.0000000000000000e+00" cType="1" res="1.1041284305974841e-03" rms="4.6681499481201172e-01" purity="5.8321243524551392e-01" nType="-99"/>
        </Node>
      </Node>
    </BinaryTree>
    <BinaryTree type="DecisionTree" boostWeight="1.0000000000000000e+00" itree="566">
      <Node pos="s" depth="0" NCoef="0" IVar="5" Cut="4.7456893920898438e+02" cType="1" res="7.5361877679824829e-03" rms="4.6009340882301331e-01" purity="5.0253617763519287e-01" nType="0">
        <Node pos="l" depth="1" NCoef="0" IVar="3" Cut="1.7541791498661041e-01" cType="1" res="2.8292162460274994e-04" rms="4.6133482456207275e-01" purity="4.7408148646354675e-01" nType="0">
          <Node pos="l" depth="2" NCoef="0" IVar="-1" Cut="0.0000000000000000e+00" cType="1" res="-1.6400293679907918e-04" rms="4.5927953720092773e-01" purity="4.5971530675888062e-01" nType="-99"/>
          <Node pos="r" depth="2" NCoef="0" IVar="-1" Cut="0.0000000000000000e+00" cType="1" res="7.6222175266593695e-04" rms="4.6950280666351318e-01" purity="5.4984295368194580e-01" nType="-99"/>
        </Node>
        <Node pos="r" depth="1" NCoef="0" IVar="-1" Cut="0.0000000000000000e+00" cType="1" res="8.1253284588456154e-04" rms="4.4925168156623840e-01" purity="6.8535178899765015e-01" nType="-99"/>
      </Node>
    </BinaryTree>
    <BinaryTree type="DecisionTree" boostWeight="1.0000000000000000e+00" itree="567">
      <Node pos="s" depth="0" NCoef="0" IVar="1" Cut="9.8137164115905762e-01" cType="1" res="1.0503771714866161e-02" rms="4.6216833591461182e-01" purity="5.0429129600524902e-01" nType="0">
        <Node pos="l" depth="1" NCoef="0" IVar="0" Cut="1.0256792604923248e-01" cType="1" res="3.8104166742414236e-03" rms="4.7021380066871643e-01" purity="4.6170875430107117e-01" nType="0">
          <Node pos="l" depth="2" NCoef="0" IVar="-1" Cut="0.0000000000000000e+00" cType="1" res="-1.6320293070748448e-04" rms="4.7252577543258667e-01" purity="4.5662251114845276e-01" nType="-99"/>
          <Node pos="r" depth="2" NCoef="0" IVar="-1" Cut="0.0000000000000000e+00" cType="1" res="4.5421166578307748e-04" rms="4.6564748883247375e-01" purity="4.7018417716026306e-01" nType="-99"/>
        </Node>
        <Node pos="r" depth="1" NCoef="0" IVar="-1" Cut="0.0000000000000000e+00" cType="1" res="7.8699860023334622e-04" rms="4.0475535392761230e-01" purity="7.7493959665298462e-01" nType="-99"/>
      </Node>
    </BinaryTree>
    <BinaryTree type="DecisionTree" boostWeight="1.0000000000000000e+00" itree="568">
      <Node pos="s" depth="0" NCoef="0" IVar="6" Cut="1.5305627584457397e+00" cType="1" res="8.0054532736539841e-03" rms="4.6221658587455750e-01" purity="5.0073295831680298e-01" nType="0">
        <Node pos="l" depth="1" NCoef="0" IVar="-1" Cut="0.0000000000000000e+00" cType="1" res="1.1033647460862994e-03" rms="4.4417011737823486e-01" purity="6.2546068429946899e-01" nType="-99"/>
        <Node pos="r" depth="1" NCoef="0" IVar="4" Cut="6.0347043909132481e-03" cType="1" res="3.5217236727476120e-03" rms="4.6313914656639099e-01" purity="4.9190428853034973e-01" nType="0">
          <Node pos="l" depth="2" NCoef="0" IVar="-1" Cut="0.0000000000000000e+00" cType="1" res="4.2849019519053400e-04" rms="4.6207880973815918e-01" purity="5.2545440196990967e-01" nType="-99"/>
          <Node pos="r" depth="2" NCoef="0" IVar="-1" Cut="0.0000000000000000e+00" cType="1" res="-3.0086646438576281e-04" rms="4.6333780884742737e-01" purity="4.6108630299568176e-01" nType="-99"/>
        </Node>
      </Node>
    </BinaryTree>
    <BinaryTree type="DecisionTree" boostWeight="1.0000000000000000e+00" itree="569">
      <Node pos="s" depth="0" NCoef="0" IVar="6" Cut="1.9788264036178589e+00" cType="1" res="3.4502709750086069e-03" rms="4.6091130375862122e-01" purity="4.9667587876319885e-01" nType="0">
        <Node pos="l" depth="1" NCoef="0" IVar="5" Cut="2.4872912597656250e+02" cType="1" res="3.6378279328346252e-02" rms="4.6037602424621582e-01" purity="5.6888192892074585e-01" nType="0">
          <Node pos="l" depth="2" NCoef="0" IVar="-1" Cut="0.0000000000000000e+00" cType="1" res="-1.1081169213866815e-04" rms="4.6626880764961243e-01" purity="3.8441103696823120e-01" nType="-99"/>
          <Node pos="r" depth="2" NCoef="0" IVar="-1" Cut="0.0000000000000000e+00" cType="1" res="8.0982199870049953e-04" rms="4.5679095387458801e-01" purity="6.4607703685760498e-01" nType="-99"/>
        </Node>
        <Node pos="r" depth="1" NCoef="0" IVar="4" Cut="4.5764591544866562e-02" cType="1" res="-6.3377241604030132e-03" rms="4.6061664819717407e-01" purity="4.7521230578422546e-01" nType="0">
          <Node pos="l" depth="2" NCoef="0" IVar="-1" Cut="0.0000000000000000e+00" cType="1" res="1.7534870130475610e-04" rms="4.5952323079109192e-01" purity="5.0251406431198120e-01" nType="-99"/>
          <Node pos="r" depth="2" NCoef="0" IVar="-1" Cut="0.0000000000000000e+00" cType="1" res="-7.2323769563809037e-04" rms="4.6123981475830078e-01" purity="4.2801296710968018e-01" nType="-99"/>
        </Node>
      </Node>
    </BinaryTree>
    <BinaryTree type="DecisionTree" boostWeight="1.0000000000000000e+00" itree="570">
      <Node pos="s" depth="0" NCoef="0" IVar="1" Cut="9.3946844339370728e-01" cType="1" res="1.3425020733848214e-03" rms="4.5861378312110901e-01" purity="4.9779218435287476e-01" nType="0">
        <Node pos="l" depth="1" NCoef="0" IVar="2" Cut="3.5097799682617188e+02" cType="1" res="-2.5669673457741737e-02" rms="4.5432975888252258e-01" purity="3.5708278417587280e-01" nType="0">
          <Node pos="l" depth="2" NCoef="0" IVar="-1" Cut="0.0000000000000000e+00" cType="1" res="-3.1038795132189989e-03" rms="3.6305126547813416e-01" purity="1.6043914854526520e-01" nType="-99"/>
          <Node pos="r" depth="2" NCoef="0" IVar="-1" Cut="0.0000000000000000e+00" cType="1" res="-3.4808943746611476e-04" rms="4.7674673795700073e-01" purity="4.1308164596557617e-01" nType="-99"/>
        </Node>
        <Node pos="r" depth="1" NCoef="0" IVar="6" Cut="2.2735171318054199e+00" cType="1" res="1.3890400528907776e-02" rms="4.6005111932754517e-01" purity="5.6315559148788452e-01" nType="0">
          <Node pos="l" depth="2" NCoef="0" IVar="-1" Cut="0.0000000000000000e+00" cType="1" res="4.9361970741301775e-04" rms="4.5710402727127075e-01" purity="6.1558961868286133e-01" nType="-99"/>
          <Node pos="r" depth="2" NCoef="0" IVar="-1" Cut="0.0000000000000000e+00" cType="1" res="-2.3042333486955613e-04" rms="4.6331903338432312e-01" purity="4.8327606916427612e-01" nType="-99"/>
        </Node>
      </Node>
    </BinaryTree>
    <BinaryTree type="DecisionTree" boostWeight="1.0000000000000000e+00" itree="571">
      <Node pos="s" depth="0" NCoef="0" IVar="0" Cut="1.1829210817813873e-01" cType="1" res="9.9109336733818054e-03" rms="4.5983389019966125e-01" purity="5.0609725713729858e-01" nType="0">
        <Node pos="l" depth="1" NCoef="0" IVar="5" Cut="5.3041754150390625e+02" cType="1" res="-2.8649289160966873e-03" rms="4.6161690354347229e-01" purity="4.9721693992614746e-01" nType="0">
          <Node pos="l" depth="2" NCoef="0" IVar="-1" Cut="0.0000000000000000e+00" cType="1" res="-2.1791832114104182e-04" rms="4.6264389157295227e-01" purity="4.7151997685432434e-01" nType="-99"/>
          <Node pos="r" depth="2" NCoef="0" IVar="-1" Cut="0.0000000000000000e+00" cType="1" res="8.6260022362694144e-04" rms="4.4932526350021362e-01" purity="6.8740129470825195e-01" nType="-99"/>
        </Node>
        <Node pos="r" depth="1" NCoef="0" IVar="2" Cut="4.6725997924804688e+02" cType="1" res="3.8073670119047165e-02" rms="4.5461261272430420e-01" purity="5.2567279338836670e-01" nType="0">
          <Node pos="l" depth="2" NCoef="0" IVar="-1" Cut="0.0000000000000000e+00" cType="1" res="2.9793975409120321e-04" rms="4.6206825971603394e-01" purity="4.4237560033798218e-01" nType="-99"/>
          <Node pos="r" depth="2" NCoef="0" IVar="-1" Cut="0.0000000000000000e+00" cType="1" res="1.3130790321156383e-03" rms="4.3088102340698242e-01" purity="7.2656011581420898e-01" nType="-99"/>
        </Node>
      </Node>
    </BinaryTree>
    <BinaryTree type="DecisionTree" boostWeight="1.0000000000000000e+00" itree="572">
      <Node pos="s" depth="0" NCoef="0" IVar="0" Cut="1.3982029259204865e-01" cType="1" res="7.0713628083467484e-03" rms="4.6036666631698608e-01" purity="5.0388765335083008e-01" nType="0">
        <Node pos="l" depth="1" NCoef="0" IVar="1" Cut="9.7859799861907959e-01" cType="1" res="-2.2794683463871479e-03" rms="4.6063750982284546e-01" purity="4.9858281016349792e-01" nType="0">
          <Node pos="l" depth="2" NCoef="0" IVar="-1" Cut="0.0000000000000000e+00" cType="1" res="-2.0548082829918712e-04" rms="4.6797910332679749e-01" purity="4.5088642835617065e-01" nType="-99"/>
          <Node pos="r" depth="2" NCoef="0" IVar="-1" Cut="0.0000000000000000e+00" cType="1" res="6.0525099979713559e-04" rms="4.1676166653633118e-01" purity="7.5268584489822388e-01" nType="-99"/>
        </Node>
        <Node pos="r" depth="1" NCoef="0" IVar="2" Cut="3.8807894897460938e+02" cType="1" res="3.8164000958204269e-02" rms="4.5809441804885864e-01" purity="5.2152705192565918e-01" nType="0">
          <Node pos="l" depth="2" NCoef="0" IVar="-1" Cut="0.0000000000000000e+00" cType="1" res="2.2523890947923064e-05" rms="4.5634829998016357e-01" purity="3.6567759513854980e-01" nType="-99"/>
          <Node pos="r" depth="2" NCoef="0" IVar="-1" Cut="0.0000000000000000e+00" cType="1" res="1.0127151617780328e-03" rms="4.5730531215667725e-01" purity="6.4643186330795288e-01" nType="-99"/>
        </Node>
      </Node>
    </BinaryTree>
    <BinaryTree type="DecisionTree" boostWeight="1.0000000000000000e+00" itree="573">
      <Node pos="s" depth="0" NCoef="0" IVar="3" Cut="-1.2096932530403137e-01" cType="1" res="4.3526077643036842e-03" rms="4.6096229553222656e-01" purity="4.9911960959434509e-01" nType="0">
        <Node pos="l" depth="1" NCoef="0" IVar="-1" Cut="0.0000000000000000e+00" cType="1" res="-1.2295629130676389e-03" rms="4.4437220692634583e-01" purity="4.0937077999114990e-01" nType="-99"/>
        <Node pos="r" depth="1" NCoef="0" IVar="1" Cut="9.8430716991424561e-01" cType="1" res="9.5754247158765793e-03" rms="4.6203750371932983e-01" purity="5.0705599784851074e-01" nType="0">
          <Node pos="l" depth="2" NCoef="0" IVar="-1" Cut="0.0000000000000000e+00" cType="1" res="7.4626434070523828e-05" rms="4.6937176585197449e-01" purity="4.7210136055946350e-01" nType="-99"/>
          <Node pos="r" depth="2" NCoef="0" IVar="-1" Cut="0.0000000000000000e+00" cType="1" res="8.3271414041519165e-04" rms="3.9340907335281372e-01" purity="7.9484057426452637e-01" nType="-99"/>
        </Node>
      </Node>
    </BinaryTree>
    <BinaryTree type="DecisionTree" boostWeight="1.0000000000000000e+00" itree="574">
      <Node pos="s" depth="0" NCoef="0" IVar="2" Cut="7.6205651855468750e+02" cType="1" res="-4.2344909161329269e-04" rms="4.6007040143013000e-01" purity="4.9325412511825562e-01" nType="0">
        <Node pos="l" depth="1" NCoef="0" IVar="1" Cut="9.8424941301345825e-01" cType="1" res="-5.3893350996077061e-03" rms="4.6070340275764465e-01" purity="4.7665569186210632e-01" nType="0">
          <Node pos="l" depth="2" NCoef="0" IVar="-1" Cut="0.0000000000000000e+00" cType="1" res="-2.4333504552487284e-04" rms="4.6637830138206482e-01" purity="4.4089326262474060e-01" nType="-99"/>
          <Node pos="r" depth="2" NCoef="0" IVar="-1" Cut="0.0000000000000000e+00" cType="1" res="7.3866127058863640e-04" rms="4.0531244874000549e-01" purity="7.7932810783386230e-01" nType="-99"/>
        </Node>
        <Node pos="r" depth="1" NCoef="0" IVar="-1" Cut="0.0000000000000000e+00" cType="1" res="8.8555604452267289e-04" rms="4.4779646396636963e-01" purity="6.9659590721130371e-01" nType="-99"/>
      </Node>
    </BinaryTree>
    <BinaryTree type="DecisionTree" boostWeight="1.0000000000000000e+00" itree="575">
      <Node pos="s" depth="0" NCoef="0" IVar="2" Cut="7.4310711669921875e+02" cType="1" res="2.3750739637762308e-03" rms="4.5918661355972290e-01" purity="4.9887883663177490e-01" nType="0">
        <Node pos="l" depth="1" NCoef="0" IVar="5" Cut="2.1920155334472656e+02" cType="1" res="-2.8046560473740101e-03" rms="4.6013852953910828e-01" purity="4.8086842894554138e-01" nType="0">
          <Node pos="l" depth="2" NCoef="0" IVar="-1" Cut="0.0000000000000000e+00" cType="1" res="-1.4683875488117337e-03" rms="4.1595476865768433e-01" purity="2.7258393168449402e-01" nType="-99"/>
          <Node pos="r" depth="2" NCoef="0" IVar="-1" Cut="0.0000000000000000e+00" cType="1" res="7.4855648563243449e-05" rms="4.6651566028594971e-01" purity="5.1451987028121948e-01" nType="-99"/>
        </Node>
        <Node pos="r" depth="1" NCoef="0" IVar="-1" Cut="0.0000000000000000e+00" cType="1" res="9.1047689784318209e-04" rms="4.4406980276107788e-01" purity="7.0283329486846924e-01" nType="-99"/>
      </Node>
    </BinaryTree>
    <BinaryTree type="DecisionTree" boostWeight="1.0000000000000000e+00" itree="576">
      <Node pos="s" depth="0" NCoef="0" IVar="2" Cut="6.7921398925781250e+02" cType="1" res="3.1482486519962549e-03" rms="4.6062538027763367e-01" purity="4.9732828140258789e-01" nType="0">
        <Node pos="l" depth="1" NCoef="0" IVar="0" Cut="1.1139623075723648e-01" cType="1" res="-3.5195690579712391e-03" rms="4.6238201856613159e-01" purity="4.7099027037620544e-01" nType="0">
          <Node pos="l" depth="2" NCoef="0" IVar="-1" Cut="0.0000000000000000e+00" cType="1" res="-3.3569885999895632e-04" rms="4.6430200338363647e-01" purity="4.5527282357215881e-01" nType="-99"/>
          <Node pos="r" depth="2" NCoef="0" IVar="-1" Cut="0.0000000000000000e+00" cType="1" res="3.5218626726418734e-04" rms="4.5822772383689880e-01" purity="4.9780583381652832e-01" nType="-99"/>
        </Node>
        <Node pos="r" depth="1" NCoef="0" IVar="-1" Cut="0.0000000000000000e+00" cType="1" res="7.7086873352527618e-04" rms="4.4441568851470947e-01" purity="6.9119048118591309e-01" nType="-99"/>
      </Node>
    </BinaryTree>
    <BinaryTree type="DecisionTree" boostWeight="1.0000000000000000e+00" itree="577">
      <Node pos="s" depth="0" NCoef="0" IVar="6" Cut="2.0064046382904053e+00" cType="1" res="5.7102390564978123e-03" rms="4.5951631665229797e-01" purity="5.0130927562713623e-01" nType="0">
        <Node pos="l" depth="1" NCoef="0" IVar="5" Cut="2.6502392578125000e+02" cType="1" res="3.9485894143581390e-02" rms="4.5680272579193115e-01" purity="5.7725155353546143e-01" nType="0">
          <Node pos="l" depth="2" NCoef="0" IVar="-1" Cut="0.0000000000000000e+00" cType="1" res="-8.6340020061470568e-05" rms="4.6324807405471802e-01" purity="4.0803006291389465e-01" nType="-99"/>
          <Node pos="r" depth="2" NCoef="0" IVar="-1" Cut="0.0000000000000000e+00" cType="1" res="9.2333881184458733e-04" rms="4.5140790939331055e-01" purity="6.7082506418228149e-01" nType="-99"/>
        </Node>
        <Node pos="r" depth="1" NCoef="0" IVar="4" Cut="4.1527722030878067e-02" cType="1" res="-5.4365713149309158e-03" rms="4.5986422896385193e-01" purity="4.7624644637107849e-01" nType="0">
          <Node pos="l" depth="2" NCoef="0" IVar="-1" Cut="0.0000000000000000e+00" cType="1" res="1.8391170306131244e-04" rms="4.5907330513000488e-01" purity="5.0322520732879639e-01" nType="-99"/>
          <Node pos="r" depth="2" NCoef="0" IVar="-1" Cut="0.0000000000000000e+00" cType="1" res="-6.3613662496209145e-04" rms="4.6007686853408813e-01" purity="4.3287315964698792e-01" nType="-99"/>
        </Node>
      </Node>
    </BinaryTree>
    <BinaryTree type="DecisionTree" boostWeight="1.0000000000000000e+00" itree="578">
      <Node pos="s" depth="0" NCoef="0" IVar="6" Cut="1.5976550579071045e+00" cType="1" res="1.7391641158610582e-03" rms="4.6199819445610046e-01" purity="4.9410721659660339e-01" nType="0">
        <Node pos="l" depth="1" NCoef="0" IVar="-1" Cut="0.0000000000000000e+00" cType="1" res="1.0048925178125501e-03" rms="4.4307601451873779e-01" purity="6.1508917808532715e-01" nType="-99"/>
        <Node pos="r" depth="1" NCoef="0" IVar="2" Cut="3.0785302734375000e+02" cType="1" res="-3.6689466796815395e-03" rms="4.6320801973342896e-01" purity="4.8361179232597351e-01" nType="0">
          <Node pos="l" depth="2" NCoef="0" IVar="-1" Cut="0.0000000000000000e+00" cType="1" res="-2.4000401608645916e-03" rms="3.8814765214920044e-01" purity="2.2171130776405334e-01" nType="-99"/>
          <Node pos="r" depth="2" NCoef="0" IVar="-1" Cut="0.0000000000000000e+00" cType="1" res="2.1536880012718029e-05" rms="4.6855181455612183e-01" purity="5.0526738166809082e-01" nType="-99"/>
        </Node>
      </Node>
    </BinaryTree>
    <BinaryTree type="DecisionTree" boostWeight="1.0000000000000000e+00" itree="579">
      <Node pos="s" depth="0" NCoef="0" IVar="3" Cut="1.8727286159992218e-01" cType="1" res="6.1085722409188747e-03" rms="4.6092653274536133e-01" purity="5.0013256072998047e-01" nType="0">
        <Node pos="l" depth="1" NCoef="0" IVar="0" Cut="7.4314765632152557e-02" cType="1" res="-7.5958477100357413e-04" rms="4.5993292331695557e-01" purity="4.8926028609275818e-01" nType="0">
          <Node pos="l" depth="2" NCoef="0" IVar="-1" Cut="0.0000000000000000e+00" cType="1" res="-4.6280454262159765e-04" rms="4.6202740073204041e-01" purity="4.7095265984535217e-01" nType="-99"/>
          <Node pos="r" depth="2" NCoef="0" IVar="-1" Cut="0.0000000000000000e+00" cType="1" res="3.1243130797520280e-04" rms="4.5753708481788635e-01" purity="5.0346487760543823e-01" nType="-99"/>
        </Node>
        <Node pos="r" depth="1" NCoef="0" IVar="3" Cut="2.3662805557250977e-01" cType="1" res="5.0261050462722778e-02" rms="4.6484684944152832e-01" purity="5.7002586126327515e-01" nType="0">
          <Node pos="l" depth="2" NCoef="0" IVar="-1" Cut="0.0000000000000000e+00" cType="1" res="6.2721967697143555e-04" rms="4.6704903244972229e-01" purity="5.5522716045379639e-01" nType="-99"/>
          <Node pos="r" depth="2" NCoef="0" IVar="-1" Cut="0.0000000000000000e+00" cType="1" res="1.0816376889124513e-03" rms="4.6181884407997131e-01" purity="5.8685624599456787e-01" nType="-99"/>
        </Node>
      </Node>
    </BinaryTree>
    <BinaryTree type="DecisionTree" boostWeight="1.0000000000000000e+00" itree="580">
      <Node pos="s" depth="0" NCoef="0" IVar="4" Cut="-4.0575838647782803e-03" cType="1" res="9.6564283594489098e-03" rms="4.6139639616012573e-01" purity="5.0420439243316650e-01" nType="0">
        <Node pos="l" depth="1" NCoef="0" IVar="2" Cut="3.2235015869140625e+02" cType="1" res="2.9196014627814293e-02" rms="4.5821762084960938e-01" purity="5.3781169652938843e-01" nType="0">
          <Node pos="l" depth="2" NCoef="0" IVar="-1" Cut="0.0000000000000000e+00" cType="1" res="-1.0360478190705180e-03" rms="4.2160868644714355e-01" purity="2.7373921871185303e-01" nType="-99"/>
          <Node pos="r" depth="2" NCoef="0" IVar="-1" Cut="0.0000000000000000e+00" cType="1" res="6.2395603163167834e-04" rms="4.6232339739799500e-01" purity="5.7353937625885010e-01" nType="-99"/>
        </Node>
        <Node pos="r" depth="1" NCoef="0" IVar="3" Cut="1.7785292863845825e-01" cType="1" res="-5.2518979646265507e-03" rms="4.6325314044952393e-01" purity="4.7856265306472778e-01" nType="0">
          <Node pos="l" depth="2" NCoef="0" IVar="-1" Cut="0.0000000000000000e+00" cType="1" res="-4.4048641575500369e-04" rms="4.6089616417884827e-01" purity="4.5072522759437561e-01" nType="-99"/>
          <Node pos="r" depth="2" NCoef="0" IVar="-1" Cut="0.0000000000000000e+00" cType="1" res="7.2730210376903415e-04" rms="4.6688982844352722e-01" purity="5.6099832057952881e-01" nType="-99"/>
        </Node>
      </Node>
    </BinaryTree>
    <BinaryTree type="DecisionTree" boostWeight="1.0000000000000000e+00" itree="581">
      <Node pos="s" depth="0" NCoef="0" IVar="6" Cut="2.6274759769439697e+00" cType="1" res="4.0328605100512505e-03" rms="4.6161794662475586e-01" purity="4.9653238058090210e-01" nType="0">
        <Node pos="l" depth="1" NCoef="0" IVar="5" Cut="4.7757299804687500e+02" cType="1" res="1.0496827773749828e-02" rms="4.6498662233352661e-01" purity="5.2212196588516235e-01" nType="0">
          <Node pos="l" depth="2" NCoef="0" IVar="-1" Cut="0.0000000000000000e+00" cType="1" res="8.8018219685181975e-05" rms="4.6719074249267578e-01" purity="4.9590715765953064e-01" nType="-99"/>
          <Node pos="r" depth="2" NCoef="0" IVar="-1" Cut="0.0000000000000000e+00" cType="1" res="7.2683289181441069e-04" rms="4.4849470257759094e-01" purity="6.9330948591232300e-01" nType="-99"/>
        </Node>
        <Node pos="r" depth="1" NCoef="0" IVar="3" Cut="-5.9729684144258499e-02" cType="1" res="-4.2209770530462265e-02" rms="4.3396261334419250e-01" purity="3.1346690654754639e-01" nType="0">
          <Node pos="l" depth="2" NCoef="0" IVar="-1" Cut="0.0000000000000000e+00" cType="1" res="-2.2199391387403011e-03" rms="4.2041444778442383e-01" purity="2.7635252475738525e-01" nType="-99"/>
          <Node pos="r" depth="2" NCoef="0" IVar="-1" Cut="0.0000000000000000e+00" cType="1" res="-3.6437512608245015e-04" rms="4.4552353024482727e-01" purity="3.5105744004249573e-01" nType="-99"/>
        </Node>
      </Node>
    </BinaryTree>
    <BinaryTree type="DecisionTree" boostWeight="1.0000000000000000e+00" itree="582">
      <Node pos="s" depth="0" NCoef="0" IVar="6" Cut="1.9381216764450073e+00" cType="1" res="3.6350730806589127e-03" rms="4.5948034524917603e-01" purity="4.9804657697677612e-01" nType="0">
        <Node pos="l" depth="1" NCoef="0" IVar="5" Cut="2.9172015380859375e+02" cType="1" res="3.8447272032499313e-02" rms="4.5517644286155701e-01" purity="5.7626223564147949e-01" nType="0">
          <Node pos="l" depth="2" NCoef="0" IVar="-1" Cut="0.0000000000000000e+00" cType="1" res="5.2202922233846039e-05" rms="4.7021400928497314e-01" purity="4.4329804182052612e-01" nType="-99"/>
          <Node pos="r" depth="2" NCoef="0" IVar="-1" Cut="0.0000000000000000e+00" cType="1" res="1.0275135282427073e-03" rms="4.3759003281593323e-01" purity="7.0328956842422485e-01" nType="-99"/>
        </Node>
        <Node pos="r" depth="1" NCoef="0" IVar="0" Cut="1.1807183921337128e-01" cType="1" res="-5.5040293373167515e-03" rms="4.6016731858253479e-01" purity="4.7751292586326599e-01" nType="0">
          <Node pos="l" depth="2" NCoef="0" IVar="-1" Cut="0.0000000000000000e+00" cType="1" res="-3.2759396708570421e-04" rms="4.6136400103569031e-01" purity="4.6848043799400330e-01" nType="-99"/>
          <Node pos="r" depth="2" NCoef="0" IVar="-1" Cut="0.0000000000000000e+00" cType="1" res="3.8476925692521036e-04" rms="4.5625990629196167e-01" purity="4.9893456697463989e-01" nType="-99"/>
        </Node>
      </Node>
    </BinaryTree>
    <BinaryTree type="DecisionTree" boostWeight="1.0000000000000000e+00" itree="583">
      <Node pos="s" depth="0" NCoef="0" IVar="1" Cut="9.3644195795059204e-01" cType="1" res="6.4846081659197807e-03" rms="4.5936760306358337e-01" purity="5.0240921974182129e-01" nType="0">
        <Node pos="l" depth="1" NCoef="0" IVar="3" Cut="4.1602760553359985e-02" cType="1" res="-2.0623367279767990e-02" rms="4.5425295829772949e-01" purity="3.5787269473075867e-01" nType="0">
          <Node pos="l" depth="2" NCoef="0" IVar="-1" Cut="0.0000000000000000e+00" cType="1" res="-9.5717638032510877e-04" rms="4.4514876604080200e-01" purity="3.2413548231124878e-01" nType="-99"/>
          <Node pos="r" depth="2" NCoef="0" IVar="-1" Cut="0.0000000000000000e+00" cType="1" res="-8.4262301243143156e-06" rms="4.6503314375877380e-01" purity="4.0168988704681396e-01" nType="-99"/>
        </Node>
        <Node pos="r" depth="1" NCoef="0" IVar="5" Cut="2.4563290405273438e+02" cType="1" res="1.7021859064698219e-02" rms="4.6091032028198242e-01" purity="5.5859261751174927e-01" nType="0">
          <Node pos="l" depth="2" NCoef="0" IVar="-1" Cut="0.0000000000000000e+00" cType="1" res="-4.3932558037340641e-04" rms="4.5602849125862122e-01" purity="3.7233841419219971e-01" nType="-99"/>
          <Node pos="r" depth="2" NCoef="0" IVar="-1" Cut="0.0000000000000000e+00" cType="1" res="4.3673664913512766e-04" rms="4.6181610226631165e-01" purity="6.1302977800369263e-01" nType="-99"/>
        </Node>
      </Node>
    </BinaryTree>
    <BinaryTree type="DecisionTree" boostWeight="1.0000000000000000e+00" itree="584">
      <Node pos="s" depth="0" NCoef="0" IVar="6" Cut="1.6343927383422852e+00" cType="1" res="1.2929678196087480e-03" rms="4.6006542444229126e-01" purity="4.9627584218978882e-01" nType="0">
        <Node pos="l" depth="1" NCoef="0" IVar="-1" Cut="0.0000000000000000e+00" cType="1" res="9.1489066835492849e-04" rms="4.4105088710784912e-01" purity="6.1604195833206177e-01" nType="-99"/>
        <Node pos="r" depth="1" NCoef="0" IVar="2" Cut="7.4885620117187500e+02" cType="1" res="-4.3774568475782871e-03" rms="4.6154183149337769e-01" purity="4.8429378867149353e-01" nType="0">
          <Node pos="l" depth="2" NCoef="0" IVar="-1" Cut="0.0000000000000000e+00" cType="1" res="-1.7434819892514497e-04" rms="4.6190983057022095e-01" purity="4.6820569038391113e-01" nType="-99"/>
          <Node pos="r" depth="2" NCoef="0" IVar="-1" Cut="0.0000000000000000e+00" cType="1" res="7.4415805283933878e-04" rms="4.5348474383354187e-01" purity="6.8201380968093872e-01" nType="-99"/>
        </Node>
      </Node>
    </BinaryTree>
    <BinaryTree type="DecisionTree" boostWeight="1.0000000000000000e+00" itree="585">
      <Node pos="s" depth="0" NCoef="0" IVar="2" Cut="7.2414038085937500e+02" cType="1" res="4.1668070480227470e-03" rms="4.5994266867637634e-01" purity="4.9971339106559753e-01" nType="0">
        <Node pos="l" depth="1" NCoef="0" IVar="3" Cut="3.3064067363739014e-02" cType="1" res="-2.2695679217576981e-03" rms="4.6129992604255676e-01" purity="4.7827041149139404e-01" nType="0">
          <Node pos="l" depth="2" NCoef="0" IVar="-1" Cut="0.0000000000000000e+00" cType="1" res="-4.9601023783907294e-04" rms="4.5569869875907898e-01" purity="4.4154888391494751e-01" nType="-99"/>
          <Node pos="r" depth="2" NCoef="0" IVar="-1" Cut="0.0000000000000000e+00" cType="1" res="4.3387152254581451e-04" rms="4.6673697233200073e-01" purity="5.2340978384017944e-01" nType="-99"/>
        </Node>
        <Node pos="r" depth="1" NCoef="0" IVar="-1" Cut="0.0000000000000000e+00" cType="1" res="9.8003807943314314e-04" rms="4.4171103835105896e-01" purity="7.0781689882278442e-01" nType="-99"/>
      </Node>
    </BinaryTree>
    <BinaryTree type="DecisionTree" boostWeight="1.0000000000000000e+00" itree="586">
      <Node pos="s" depth="0" NCoef="0" IVar="3" Cut="9.4758711755275726e-02" cType="1" res="5.0483322702348232e-03" rms="4.6046656370162964e-01" purity="4.9943640828132629e-01" nType="0">
        <Node pos="l" depth="1" NCoef="0" IVar="4" Cut="5.6160908192396164e-02" cType="1" res="-6.6812979057431221e-03" rms="4.5798966288566589e-01" purity="4.7990998625755310e-01" nType="0">
          <Node pos="l" depth="2" NCoef="0" IVar="-1" Cut="0.0000000000000000e+00" cType="1" res="1.5722900570835918e-04" rms="4.5901924371719360e-01" purity="5.0546073913574219e-01" nType="-99"/>
          <Node pos="r" depth="2" NCoef="0" IVar="-1" Cut="0.0000000000000000e+00" cType="1" res="-1.1296374723315239e-03" rms="4.5214575529098511e-01" purity="4.0572744607925415e-01" nType="-99"/>
        </Node>
        <Node pos="r" depth="1" NCoef="0" IVar="1" Cut="9.3075823783874512e-01" cType="1" res="3.1718529760837555e-02" rms="4.6494936943054199e-01" purity="5.4383456707000732e-01" nType="0">
          <Node pos="l" depth="2" NCoef="0" IVar="-1" Cut="0.0000000000000000e+00" cType="1" res="-3.9119058055803180e-04" rms="4.6175938844680786e-01" purity="3.8288050889968872e-01" nType="-99"/>
          <Node pos="r" depth="2" NCoef="0" IVar="-1" Cut="0.0000000000000000e+00" cType="1" res="7.6351198367774487e-04" rms="4.6489122509956360e-01" purity="5.9317785501480103e-01" nType="-99"/>
        </Node>
      </Node>
    </BinaryTree>
    <BinaryTree type="DecisionTree" boostWeight="1.0000000000000000e+00" itree="587">
      <Node pos="s" depth="0" NCoef="0" IVar="6" Cut="1.5960437059402466e+00" cType="1" res="4.2550563812255859e-03" rms="4.6221861243247986e-01" purity="4.9822735786437988e-01" nType="0">
        <Node pos="l" depth="1" NCoef="0" IVar="-1" Cut="0.0000000000000000e+00" cType="1" res="9.1247988166287541e-04" rms="4.4762882590293884e-01" purity="6.0874253511428833e-01" nType="-99"/>
        <Node pos="r" depth="1" NCoef="0" IVar="4" Cut="-8.1157073378562927e-02" cType="1" res="-2.8792081866413355e-04" rms="4.6317496895790100e-01" purity="4.8869535326957703e-01" nType="0">
          <Node pos="l" depth="2" NCoef="0" IVar="-1" Cut="0.0000000000000000e+00" cType="1" res="8.9679897064343095e-04" rms="4.5586562156677246e-01" purity="5.6024521589279175e-01" nType="-99"/>
          <Node pos="r" depth="2" NCoef="0" IVar="-1" Cut="0.0000000000000000e+00" cType="1" res="-9.2844369646627456e-05" rms="4.6350926160812378e-01" purity="4.8263716697692871e-01" nType="-99"/>
        </Node>
      </Node>
    </BinaryTree>
    <BinaryTree type="DecisionTree" boostWeight="1.0000000000000000e+00" itree="588">
      <Node pos="s" depth="0" NCoef="0" IVar="1" Cut="9.5137590169906616e-01" cType="1" res="5.4682437330484390e-03" rms="4.5953270792961121e-01" purity="5.0040793418884277e-01" nType="0">
        <Node pos="l" depth="1" NCoef="0" IVar="3" Cut="9.0505294501781464e-02" cType="1" res="-1.1616733856499195e-02" rms="4.6130543947219849e-01" purity="3.9176836609840393e-01" nType="0">
          <Node pos="l" depth="2" NCoef="0" IVar="-1" Cut="0.0000000000000000e+00" cType="1" res="-6.2161934329196811e-04" rms="4.5423805713653564e-01" purity="3.6421725153923035e-01" nType="-99"/>
          <Node pos="r" depth="2" NCoef="0" IVar="-1" Cut="0.0000000000000000e+00" cType="1" res="3.7372193764895201e-04" rms="4.7415536642074585e-01" purity="4.4881254434585571e-01" nType="-99"/>
        </Node>
        <Node pos="r" depth="1" NCoef="0" IVar="2" Cut="5.4388647460937500e+02" cType="1" res="2.2427253425121307e-02" rms="4.5713520050048828e-01" purity="6.0824650526046753e-01" nType="0">
          <Node pos="l" depth="2" NCoef="0" IVar="-1" Cut="0.0000000000000000e+00" cType="1" res="1.9366428023204207e-04" rms="4.6810176968574524e-01" purity="5.5725145339965820e-01" nType="-99"/>
          <Node pos="r" depth="2" NCoef="0" IVar="-1" Cut="0.0000000000000000e+00" cType="1" res="7.3904165765270591e-04" rms="4.2692196369171143e-01" purity="7.3702353239059448e-01" nType="-99"/>
        </Node>
      </Node>
    </BinaryTree>
    <BinaryTree type="DecisionTree" boostWeight="1.0000000000000000e+00" itree="589">
      <Node pos="s" depth="0" NCoef="0" IVar="2" Cut="5.7158850097656250e+02" cType="1" res="4.3691140599548817e-03" rms="4.5794302225112915e-01" purity="5.0162726640701294e-01" nType="0">
        <Node pos="l" depth="1" NCoef="0" IVar="6" Cut="2.4080736637115479e+00" cType="1" res="-5.7266908697783947e-03" rms="4.5888456702232361e-01" purity="4.5258527994155884e-01" nType="0">
          <Node pos="l" depth="2" NCoef="0" IVar="-1" Cut="0.0000000000000000e+00" cType="1" res="1.0467645915923640e-04" rms="4.6488350629806519e-01" purity="4.9695914983749390e-01" nType="-99"/>
          <Node pos="r" depth="2" NCoef="0" IVar="-1" Cut="0.0000000000000000e+00" cType="1" res="-9.7344763344153762e-04" rms="4.4081863760948181e-01" purity="3.3270978927612305e-01" nType="-99"/>
        </Node>
        <Node pos="r" depth="1" NCoef="0" IVar="0" Cut="6.7731633782386780e-02" cType="1" res="3.8593888282775879e-02" rms="4.5306566357612610e-01" purity="6.6787946224212646e-01" nType="0">
          <Node pos="l" depth="2" NCoef="0" IVar="-1" Cut="0.0000000000000000e+00" cType="1" res="2.8119058697484434e-04" rms="4.6741595864295959e-01" purity="6.2912344932556152e-01" nType="-99"/>
          <Node pos="r" depth="2" NCoef="0" IVar="-1" Cut="0.0000000000000000e+00" cType="1" res="1.0932044824585319e-03" rms="4.2281487584114075e-01" purity="7.3905384540557861e-01" nType="-99"/>
        </Node>
      </Node>
    </BinaryTree>
    <BinaryTree type="DecisionTree" boostWeight="1.0000000000000000e+00" itree="590">
      <Node pos="s" depth="0" NCoef="0" IVar="5" Cut="4.1447482299804688e+02" cType="1" res="5.2932933904230595e-03" rms="4.6034139394760132e-01" purity="4.9946561455726624e-01" nType="0">
        <Node pos="l" depth="1" NCoef="0" IVar="0" Cut="9.3566171824932098e-02" cType="1" res="-3.8743931800127029e-03" rms="4.6105390787124634e-01" purity="4.5563125610351562e-01" nType="0">
          <Node pos="l" depth="2" NCoef="0" IVar="-1" Cut="0.0000000000000000e+00" cType="1" res="-4.2646945803426206e-04" rms="4.6059525012969971e-01" purity="4.3276128172874451e-01" nType="-99"/>
          <Node pos="r" depth="2" NCoef="0" IVar="-1" Cut="0.0000000000000000e+00" cType="1" res="2.5699185789562762e-04" rms="4.6091222763061523e-01" purity="4.7997057437896729e-01" nType="-99"/>
        </Node>
        <Node pos="r" depth="1" NCoef="0" IVar="0" Cut="4.5266423374414444e-02" cType="1" res="3.8709029555320740e-02" rms="4.5617800951004028e-01" purity="6.5923947095870972e-01" nType="0">
          <Node pos="l" depth="2" NCoef="0" IVar="-1" Cut="0.0000000000000000e+00" cType="1" res="1.9581937522161752e-04" rms="4.6858873963356018e-01" purity="6.1322504281997681e-01" nType="-99"/>
          <Node pos="r" depth="2" NCoef="0" IVar="-1" Cut="0.0000000000000000e+00" cType="1" res="9.3165086582303047e-04" rms="4.4272872805595398e-01" purity="7.0257896184921265e-01" nType="-99"/>
        </Node>
      </Node>
    </BinaryTree>
    <BinaryTree type="DecisionTree" boostWeight="1.0000000000000000e+00" itree="591">
      <Node pos="s" depth="0" NCoef="0" IVar="2" Cut="7.4741174316406250e+02" cType="1" res="4.8075793310999870e-03" rms="4.6173536777496338e-01" purity="4.9683287739753723e-01" nType="0">
        <Node pos="l" depth="1" NCoef="0" IVar="0" Cut="1.1188101768493652e-01" cType="1" res="-3.8510269951075315e-04" rms="4.6277061104774475e-01" purity="4.7873345017433167e-01" nType="0">
          <Node pos="l" depth="2" NCoef="0" IVar="-1" Cut="0.0000000000000000e+00" cType="1" res="-2.8542024665512145e-04" rms="4.6476605534553528e-01" purity="4.6300783753395081e-01" nType="-99"/>
          <Node pos="r" depth="2" NCoef="0" IVar="-1" Cut="0.0000000000000000e+00" cType="1" res="4.4862795039080083e-04" rms="4.5815879106521606e-01" purity="5.0670343637466431e-01" nType="-99"/>
        </Node>
        <Node pos="r" depth="1" NCoef="0" IVar="-1" Cut="0.0000000000000000e+00" cType="1" res="9.3285582261160016e-04" rms="4.4562020897865295e-01" purity="7.0202964544296265e-01" nType="-99"/>
      </Node>
    </BinaryTree>
    <BinaryTree type="DecisionTree" boostWeight="1.0000000000000000e+00" itree="592">
      <Node pos="s" depth="0" NCoef="0" IVar="4" Cut="8.2692526280879974e-02" cType="1" res="7.4969610432162881e-04" rms="4.5976337790489197e-01" purity="4.9474969506263733e-01" nType="0">
        <Node pos="l" depth="1" NCoef="0" IVar="2" Cut="5.6980273437500000e+02" cType="1" res="1.0837113484740257e-02" rms="4.6010339260101318e-01" purity="5.1057994365692139e-01" nType="0">
          <Node pos="l" depth="2" NCoef="0" IVar="-1" Cut="0.0000000000000000e+00" cType="1" res="4.5669894461752847e-05" rms="4.6293899416923523e-01" purity="4.6513387560844421e-01" nType="-99"/>
          <Node pos="r" depth="2" NCoef="0" IVar="-1" Cut="0.0000000000000000e+00" cType="1" res="6.5962231019511819e-04" rms="4.4733944535255432e-01" purity="6.8765556812286377e-01" nType="-99"/>
        </Node>
        <Node pos="r" depth="1" NCoef="0" IVar="3" Cut="2.1296849846839905e-01" cType="1" res="-3.1787477433681488e-02" rms="4.5715066790580750e-01" purity="4.4368880987167358e-01" nType="0">
          <Node pos="l" depth="2" NCoef="0" IVar="-1" Cut="0.0000000000000000e+00" cType="1" res="-1.2517017312347889e-03" rms="4.5235764980316162e-01" purity="3.9975789189338684e-01" nType="-99"/>
          <Node pos="r" depth="2" NCoef="0" IVar="-1" Cut="0.0000000000000000e+00" cType="1" res="3.4281553234905005e-04" rms="4.6339708566665649e-01" purity="5.4006373882293701e-01" nType="-99"/>
        </Node>
      </Node>
    </BinaryTree>
    <BinaryTree type="DecisionTree" boostWeight="1.0000000000000000e+00" itree="593">
      <Node pos="s" depth="0" NCoef="0" IVar="1" Cut="9.6666228771209717e-01" cType="1" res="-7.2939350502565503e-04" rms="4.5796498656272888e-01" purity="4.9653038382530212e-01" nType="0">
        <Node pos="l" depth="1" NCoef="0" IVar="3" Cut="2.1515455842018127e-01" cType="1" res="-1.3884746469557285e-02" rms="4.6478819847106934e-01" purity="4.1697278618812561e-01" nType="0">
          <Node pos="l" depth="2" NCoef="0" IVar="-1" Cut="0.0000000000000000e+00" cType="1" res="-4.2958470294252038e-04" rms="4.6290606260299683e-01" purity="4.0737357735633850e-01" nType="-99"/>
          <Node pos="r" depth="2" NCoef="0" IVar="-1" Cut="0.0000000000000000e+00" cType="1" res="8.1105617573484778e-04" rms="4.7892326116561890e-01" purity="5.1208645105361938e-01" nType="-99"/>
        </Node>
        <Node pos="r" depth="1" NCoef="0" IVar="2" Cut="4.5875659179687500e+02" cType="1" res="3.0568126589059830e-02" rms="4.3972912430763245e-01" purity="6.8580365180969238e-01" nType="0">
          <Node pos="l" depth="2" NCoef="0" IVar="-1" Cut="0.0000000000000000e+00" cType="1" res="7.0043068262748420e-05" rms="4.6697449684143066e-01" purity="5.9980094432830811e-01" nType="-99"/>
          <Node pos="r" depth="2" NCoef="0" IVar="-1" Cut="0.0000000000000000e+00" cType="1" res="8.3824724424630404e-04" rms="4.0821358561515808e-01" purity="7.7387177944183350e-01" nType="-99"/>
        </Node>
      </Node>
    </BinaryTree>
    <BinaryTree type="DecisionTree" boostWeight="1.0000000000000000e+00" itree="594">
      <Node pos="s" depth="0" NCoef="0" IVar="4" Cut="-3.9952844381332397e-02" cType="1" res="-1.3019503967370838e-04" rms="4.5896577835083008e-01" purity="4.9694174528121948e-01" nType="0">
        <Node pos="l" depth="1" NCoef="0" IVar="5" Cut="2.6447235107421875e+02" cType="1" res="3.1931988894939423e-02" rms="4.5503702759742737e-01" purity="5.4649603366851807e-01" nType="0">
          <Node pos="l" depth="2" NCoef="0" IVar="-1" Cut="0.0000000000000000e+00" cType="1" res="-1.0099260543938726e-04" rms="4.5277476310729980e-01" purity="3.7731167674064636e-01" nType="-99"/>
          <Node pos="r" depth="2" NCoef="0" IVar="-1" Cut="0.0000000000000000e+00" cType="1" res="7.9084082972258329e-04" rms="4.5506227016448975e-01" purity="6.3713330030441284e-01" nType="-99"/>
        </Node>
        <Node pos="r" depth="1" NCoef="0" IVar="5" Cut="4.7456893920898438e+02" cType="1" res="-1.0792750865221024e-02" rms="4.5976972579956055e-01" purity="4.8046204447746277e-01" nType="0">
          <Node pos="l" depth="2" NCoef="0" IVar="-1" Cut="0.0000000000000000e+00" cType="1" res="-3.7991206045262516e-04" rms="4.6003046631813049e-01" purity="4.4987621903419495e-01" nType="-99"/>
          <Node pos="r" depth="2" NCoef="0" IVar="-1" Cut="0.0000000000000000e+00" cType="1" res="5.5575621081516147e-04" rms="4.5540830492973328e-01" purity="6.6293925046920776e-01" nType="-99"/>
        </Node>
      </Node>
    </BinaryTree>
    <BinaryTree type="DecisionTree" boostWeight="1.0000000000000000e+00" itree="595">
      <Node pos="s" depth="0" NCoef="0" IVar="3" Cut="-9.9701873958110809e-02" cType="1" res="5.1568644121289253e-03" rms="4.5988073945045471e-01" purity="4.9974569678306580e-01" nType="0">
        <Node pos="l" depth="1" NCoef="0" IVar="2" Cut="5.0947326660156250e+02" cType="1" res="-3.1818982213735580e-02" rms="4.5074558258056641e-01" purity="4.2830789089202881e-01" nType="0">
          <Node pos="l" depth="2" NCoef="0" IVar="-1" Cut="0.0000000000000000e+00" cType="1" res="-1.3573789037764072e-03" rms="4.3429589271545410e-01" purity="3.4312671422958374e-01" nType="-99"/>
          <Node pos="r" depth="2" NCoef="0" IVar="-1" Cut="0.0000000000000000e+00" cType="1" res="7.8228193160612136e-05" rms="4.7637006640434265e-01" purity="5.7948577404022217e-01" nType="-99"/>
        </Node>
        <Node pos="r" depth="1" NCoef="0" IVar="2" Cut="4.2179299926757812e+02" cType="1" res="1.1936411261558533e-02" rms="4.6121457219123840e-01" purity="5.1284384727478027e-01" nType="0">
          <Node pos="l" depth="2" NCoef="0" IVar="-1" Cut="0.0000000000000000e+00" cType="1" res="-1.0909256525337696e-04" rms="4.5678433775901794e-01" purity="3.8223460316658020e-01" nType="-99"/>
          <Node pos="r" depth="2" NCoef="0" IVar="-1" Cut="0.0000000000000000e+00" cType="1" res="3.9570438093505800e-04" rms="4.6428510546684265e-01" purity="6.1668145656585693e-01" nType="-99"/>
        </Node>
      </Node>
    </BinaryTree>
    <BinaryTree type="DecisionTree" boostWeight="1.0000000000000000e+00" itree="596">
      <Node pos="s" depth="0" NCoef="0" IVar="3" Cut="2.0130164921283722e-01" cType="1" res="3.9411638863384724e-03" rms="4.6059396862983704e-01" purity="4.9821114540100098e-01" nType="0">
        <Node pos="l" depth="1" NCoef="0" IVar="4" Cut="1.1427703499794006e-01" cType="1" res="-1.6864276258274913e-03" rms="4.5998555421829224e-01" purity="4.8887923359870911e-01" nType="0">
          <Node pos="l" depth="2" NCoef="0" IVar="-1" Cut="0.0000000000000000e+00" cType="1" res="9.7866235591936857e-05" rms="4.5998278260231018e-01" purity="5.0226366519927979e-01" nType="-99"/>
          <Node pos="r" depth="2" NCoef="0" IVar="-1" Cut="0.0000000000000000e+00" cType="1" res="-1.3870822731405497e-03" rms="4.5617049932479858e-01" purity="3.8024711608886719e-01" nType="-99"/>
        </Node>
        <Node pos="r" depth="1" NCoef="0" IVar="-1" Cut="0.0000000000000000e+00" cType="1" res="8.2171108806505799e-04" rms="4.6297565102577209e-01" purity="5.7243722677230835e-01" nType="-99"/>
      </Node>
    </BinaryTree>
    <BinaryTree type="DecisionTree" boostWeight="1.0000000000000000e+00" itree="597">
      <Node pos="s" depth="0" NCoef="0" IVar="3" Cut="2.0255647599697113e-01" cType="1" res="5.7255541905760765e-03" rms="4.6068963408470154e-01" purity="5.0039714574813843e-01" nType="0">
        <Node pos="l" depth="1" NCoef="0" IVar="4" Cut="1.1617208272218704e-01" cType="1" res="-7.6192565029487014e-04" rms="4.5950368046760559e-01" purity="4.9042692780494690e-01" nType="0">
          <Node pos="l" depth="2" NCoef="0" IVar="-1" Cut="0.0000000000000000e+00" cType="1" res="1.1475104838609695e-04" rms="4.6003624796867371e-01" purity="5.0287276506423950e-01" nType="-99"/>
          <Node pos="r" depth="2" NCoef="0" IVar="-1" Cut="0.0000000000000000e+00" cType="1" res="-1.3629859313368797e-03" rms="4.5100986957550049e-01" purity="3.8719812035560608e-01" nType="-99"/>
        </Node>
        <Node pos="r" depth="1" NCoef="0" IVar="-1" Cut="0.0000000000000000e+00" cType="1" res="9.5328630413860083e-04" rms="4.6682003140449524e-01" purity="5.7978320121765137e-01" nType="-99"/>
      </Node>
    </BinaryTree>
    <BinaryTree type="DecisionTree" boostWeight="1.0000000000000000e+00" itree="598">
      <Node pos="s" depth="0" NCoef="0" IVar="3" Cut="8.4046483039855957e-02" cType="1" res="9.1288434341549873e-03" rms="4.6150347590446472e-01" purity="5.0257813930511475e-01" nType="0">
        <Node pos="l" depth="1" NCoef="0" IVar="0" Cut="4.6966716647148132e-02" cType="1" res="-2.1055475808680058e-03" rms="4.5939949154853821e-01" purity="4.8161330819129944e-01" nType="0">
          <Node pos="l" depth="2" NCoef="0" IVar="-1" Cut="0.0000000000000000e+00" cType="1" res="-8.4439519559964538e-04" rms="4.6471253037452698e-01" purity="4.4535315036773682e-01" nType="-99"/>
          <Node pos="r" depth="2" NCoef="0" IVar="-1" Cut="0.0000000000000000e+00" cType="1" res="1.9385512860026211e-04" rms="4.5699945092201233e-01" purity="4.9329036474227905e-01" nType="-99"/>
        </Node>
        <Node pos="r" depth="1" NCoef="0" IVar="1" Cut="9.2363494634628296e-01" cType="1" res="3.2528813928365707e-02" rms="4.6498468518257141e-01" purity="5.4624545574188232e-01" nType="0">
          <Node pos="l" depth="2" NCoef="0" IVar="-1" Cut="0.0000000000000000e+00" cType="1" res="-7.5436767656356096e-04" rms="4.5601662993431091e-01" purity="3.5771736502647400e-01" nType="-99"/>
          <Node pos="r" depth="2" NCoef="0" IVar="-1" Cut="0.0000000000000000e+00" cType="1" res="7.4292940553277731e-04" rms="4.6567261219024658e-01" purity="5.8176982402801514e-01" nType="-99"/>
        </Node>
      </Node>
    </BinaryTree>
    <BinaryTree type="DecisionTree" boostWeight="1.0000000000000000e+00" itree="599">
      <Node pos="s" depth="0" NCoef="0" IVar="5" Cut="5.0732577514648438e+02" cType="1" res="6.1473064124584198e-03" rms="4.5965522527694702e-01" purity="5.0077152252197266e-01" nType="0">
        <Node pos="l" depth="1" NCoef="0" IVar="3" Cut="1.8142467737197876e-01" cType="1" res="3.7860180600546300e-04" rms="4.6081727743148804e-01" purity="4.7842228412628174e-01" nType="0">
          <Node pos="l" depth="2" NCoef="0" IVar="-1" Cut="0.0000000000000000e+00" cType="1" res="-1.3510773715097457e-04" rms="4.5903140306472778e-01" purity="4.6557584404945374e-01" nType="-99"/>
          <Node pos="r" depth="2" NCoef="0" IVar="-1" Cut="0.0000000000000000e+00" cType="1" res="7.1676541119813919e-04" rms="4.6890601515769958e-01" purity="5.5303728580474854e-01" nType="-99"/>
        </Node>
        <Node pos="r" depth="1" NCoef="0" IVar="-1" Cut="0.0000000000000000e+00" cType="1" res="8.2666717935353518e-04" rms="4.4649755954742432e-01" purity="6.9266086816787720e-01" nType="-99"/>
      </Node>
    </BinaryTree>
    <BinaryTree type="DecisionTree" boostWeight="1.0000000000000000e+00" itree="600">
      <Node pos="s" depth="0" NCoef="0" IVar="0" Cut="1.2974449992179871e-01" cType="1" res="6.8692150525748730e-03" rms="4.6089220046997070e-01" purity="5.0113123655319214e-01" nType="0">
        <Node pos="l" depth="1" NCoef="0" IVar="5" Cut="4.7660723876953125e+02" cType="1" res="-3.7614279426634312e-03" rms="4.6231076121330261e-01" purity="4.9343803524971008e-01" nType="0">
          <Node pos="l" depth="2" NCoef="0" IVar="-1" Cut="0.0000000000000000e+00" cType="1" res="-2.5907024974003434e-04" rms="4.6344247460365295e-01" purity="4.5810884237289429e-01" nType="-99"/>
          <Node pos="r" depth="2" NCoef="0" IVar="-1" Cut="0.0000000000000000e+00" cType="1" res="6.4111931715160608e-04" rms="4.5380538702011108e-01" purity="6.7150890827178955e-01" nType="-99"/>
        </Node>
        <Node pos="r" depth="1" NCoef="0" IVar="2" Cut="4.5953961181640625e+02" cType="1" res="3.6359846591949463e-02" rms="4.5563730597496033e-01" purity="5.2247315645217896e-01" nType="0">
          <Node pos="l" depth="2" NCoef="0" IVar="-1" Cut="0.0000000000000000e+00" cType="1" res="2.6738477754406631e-04" rms="4.6297857165336609e-01" purity="4.3751630187034607e-01" nType="-99"/>
          <Node pos="r" depth="2" NCoef="0" IVar="-1" Cut="0.0000000000000000e+00" cType="1" res="1.2848522746935487e-03" rms="4.3290680646896362e-01" purity="7.2251409292221069e-01" nType="-99"/>
        </Node>
      </Node>
    </BinaryTree>
    <BinaryTree type="DecisionTree" boostWeight="1.0000000000000000e+00" itree="601">
      <Node pos="s" depth="0" NCoef="0" IVar="1" Cut="9.3374836444854736e-01" cType="1" res="2.0152821671217680e-03" rms="4.5952332019805908e-01" purity="4.9788960814476013e-01" nType="0">
        <Node pos="l" depth="1" NCoef="0" IVar="0" Cut="4.5166395604610443e-02" cType="1" res="-2.7940446510910988e-02" rms="4.5358127355575562e-01" purity="3.4515628218650818e-01" nType="0">
          <Node pos="l" depth="2" NCoef="0" IVar="-1" Cut="0.0000000000000000e+00" cType="1" res="-1.6233681235462427e-03" rms="4.5782768726348877e-01" purity="3.2886692881584167e-01" nType="-99"/>
          <Node pos="r" depth="2" NCoef="0" IVar="-1" Cut="0.0000000000000000e+00" cType="1" res="-3.6448455648496747e-04" rms="4.5123547315597534e-01" purity="3.5143205523490906e-01" nType="-99"/>
        </Node>
        <Node pos="r" depth="1" NCoef="0" IVar="3" Cut="1.7997679114341736e-01" cType="1" res="1.2052945792675018e-02" rms="4.6106213331222534e-01" purity="5.4906803369522095e-01" nType="0">
          <Node pos="l" depth="2" NCoef="0" IVar="-1" Cut="0.0000000000000000e+00" cType="1" res="7.9609919339418411e-05" rms="4.6140828728675842e-01" purity="5.3629434108734131e-01" nType="-99"/>
          <Node pos="r" depth="2" NCoef="0" IVar="-1" Cut="0.0000000000000000e+00" cType="1" res="9.0142956469208002e-04" rms="4.5637875795364380e-01" purity="6.2527114152908325e-01" nType="-99"/>
        </Node>
      </Node>
    </BinaryTree>
    <BinaryTree type="DecisionTree" boostWeight="1.0000000000000000e+00" itree="602">
      <Node pos="s" depth="0" NCoef="0" IVar="1" Cut="9.8452526330947876e-01" cType="1" res="1.1350966989994049e-02" rms="4.6078565716743469e-01" purity="5.0573891401290894e-01" nType="0">
        <Node pos="l" depth="1" NCoef="0" IVar="5" Cut="1.9632876586914062e+02" cType="1" res="5.6749004870653152e-03" rms="4.6778798103332520e-01" purity="4.7201007604598999e-01" nType="0">
          <Node pos="l" depth="2" NCoef="0" IVar="-1" Cut="0.0000000000000000e+00" cType="1" res="-2.0559013355523348e-03" rms="4.0415966510772705e-01" purity="2.1780917048454285e-01" nType="-99"/>
          <Node pos="r" depth="2" NCoef="0" IVar="-1" Cut="0.0000000000000000e+00" cType="1" res="1.7111966735683382e-04" rms="4.7115564346313477e-01" purity="4.8747161030769348e-01" nType="-99"/>
        </Node>
        <Node pos="r" depth="1" NCoef="0" IVar="-1" Cut="0.0000000000000000e+00" cType="1" res="8.8883220450952649e-04" rms="3.9177128672599792e-01" purity="7.9704391956329346e-01" nType="-99"/>
      </Node>
    </BinaryTree>
    <BinaryTree type="DecisionTree" boostWeight="1.0000000000000000e+00" itree="603">
      <Node pos="s" depth="0" NCoef="0" IVar="1" Cut="9.2731446027755737e-01" cType="1" res="2.5665678549557924e-03" rms="4.6127647161483765e-01" purity="4.9638637900352478e-01" nType="0">
        <Node pos="l" depth="1" NCoef="0" IVar="0" Cut="9.6675805747509003e-02" cType="1" res="-3.6128863692283630e-02" rms="4.4781294465065002e-01" purity="3.2968568801879883e-01" nType="0">
          <Node pos="l" depth="2" NCoef="0" IVar="-1" Cut="0.0000000000000000e+00" cType="1" res="-1.3181011890992522e-03" rms="4.4942179322242737e-01" purity="3.2469248771667480e-01" nType="-99"/>
          <Node pos="r" depth="2" NCoef="0" IVar="-1" Cut="0.0000000000000000e+00" cType="1" res="-3.7414731923490763e-04" rms="4.4445914030075073e-01" purity="3.3747345209121704e-01" nType="-99"/>
        </Node>
        <Node pos="r" depth="1" NCoef="0" IVar="0" Cut="1.2614883482456207e-01" cType="1" res="1.1668024584650993e-02" rms="4.6391788125038147e-01" purity="5.3559571504592896e-01" nType="0">
          <Node pos="l" depth="2" NCoef="0" IVar="-1" Cut="0.0000000000000000e+00" cType="1" res="-3.8069185848144116e-06" rms="4.6482902765274048e-01" purity="5.2673804759979248e-01" nType="-99"/>
          <Node pos="r" depth="2" NCoef="0" IVar="-1" Cut="0.0000000000000000e+00" cType="1" res="7.0521037559956312e-04" rms="4.6035569906234741e-01" purity="5.5743622779846191e-01" nType="-99"/>
        </Node>
      </Node>
    </BinaryTree>
    <BinaryTree type="DecisionTree" boostWeight="1.0000000000000000e+00" itree="604">
      <Node pos="s" depth="0" NCoef="0" IVar="6" Cut="1.8421081304550171e+00" cType="1" res="7.5079509988427162e-03" rms="4.6174395084381104e-01" purity="5.0250929594039917e-01" nType="0">
        <Node pos="l" depth="1" NCoef="0" IVar="5" Cut="2.7796972656250000e+02" cType="1" res="4.9251034855842590e-02" rms="4.5328056812286377e-01" purity="5.9107947349548340e-01" nType="0">
          <Node pos="l" depth="2" NCoef="0" IVar="-1" Cut="0.0000000000000000e+00" cType="1" res="3.2164447475224733e-04" rms="4.6980810165405273e-01" purity="4.5098069310188293e-01" nType="-99"/>
          <Node pos="r" depth="2" NCoef="0" IVar="-1" Cut="0.0000000000000000e+00" cType="1" res="1.0644810972735286e-03" rms="4.3798747658729553e-01" purity="7.0182001590728760e-01" nType="-99"/>
        </Node>
        <Node pos="r" depth="1" NCoef="0" IVar="4" Cut="2.5548432022333145e-02" cType="1" res="-5.5608729599043727e-04" rms="4.6292752027511597e-01" purity="4.8539897799491882e-01" nType="0">
          <Node pos="l" depth="2" NCoef="0" IVar="-1" Cut="0.0000000000000000e+00" cType="1" res="2.8997441404499114e-04" rms="4.6203115582466125e-01" purity="5.1467412710189819e-01" nType="-99"/>
          <Node pos="r" depth="2" NCoef="0" IVar="-1" Cut="0.0000000000000000e+00" cType="1" res="-4.3769250623881817e-04" rms="4.6323746442794800e-01" purity="4.4864583015441895e-01" nType="-99"/>
        </Node>
      </Node>
    </BinaryTree>
    <BinaryTree type="DecisionTree" boostWeight="1.0000000000000000e+00" itree="605">
      <Node pos="s" depth="0" NCoef="0" IVar="1" Cut="9.2193841934204102e-01" cType="1" res="1.9003234046977013e-04" rms="4.5948901772499084e-01" purity="4.9536061286926270e-01" nType="0">
        <Node pos="l" depth="1" NCoef="0" IVar="1" Cut="9.0663260221481323e-01" cType="1" res="-4.7506492584943771e-02" rms="4.4391372799873352e-01" purity="3.1199544668197632e-01" nType="0">
          <Node pos="l" depth="2" NCoef="0" IVar="-1" Cut="0.0000000000000000e+00" cType="1" res="-1.8100809538736939e-03" rms="4.3390220403671265e-01" purity="2.9727473855018616e-01" nType="-99"/>
          <Node pos="r" depth="2" NCoef="0" IVar="-1" Cut="0.0000000000000000e+00" cType="1" res="-1.0162974940612912e-03" rms="4.4978326559066772e-01" purity="3.2120013236999512e-01" nType="-99"/>
        </Node>
        <Node pos="r" depth="1" NCoef="0" IVar="4" Cut="-4.5076299458742142e-02" cType="1" res="8.1681460142135620e-03" rms="4.6156209707260132e-01" purity="5.2603179216384888e-01" nType="0">
          <Node pos="l" depth="2" NCoef="0" IVar="-1" Cut="0.0000000000000000e+00" cType="1" res="6.5056997118517756e-04" rms="4.5626071095466614e-01" purity="5.6974387168884277e-01" nType="-99"/>
          <Node pos="r" depth="2" NCoef="0" IVar="-1" Cut="0.0000000000000000e+00" cType="1" res="-1.3818719708069693e-05" rms="4.6271318197250366e-01" purity="5.1330834627151489e-01" nType="-99"/>
        </Node>
      </Node>
    </BinaryTree>
    <BinaryTree type="DecisionTree" boostWeight="1.0000000000000000e+00" itree="606">
      <Node pos="s" depth="0" NCoef="0" IVar="3" Cut="2.0420671999454498e-01" cType="1" res="6.2937526963651180e-03" rms="4.5916002988815308e-01" purity="5.0244498252868652e-01" nType="0">
        <Node pos="l" depth="1" NCoef="0" IVar="2" Cut="5.7158850097656250e+02" cType="1" res="-1.1045905994251370e-03" rms="4.5791125297546387e-01" purity="4.9155923724174500e-01" nType="0">
          <Node pos="l" depth="2" NCoef="0" IVar="-1" Cut="0.0000000000000000e+00" cType="1" res="-2.4779030354693532e-04" rms="4.5793142914772034e-01" purity="4.4037455320358276e-01" nType="-99"/>
          <Node pos="r" depth="2" NCoef="0" IVar="-1" Cut="0.0000000000000000e+00" cType="1" res="5.3104304242879152e-04" rms="4.5601016283035278e-01" purity="6.6141527891159058e-01" nType="-99"/>
        </Node>
        <Node pos="r" depth="1" NCoef="0" IVar="-1" Cut="0.0000000000000000e+00" cType="1" res="1.0735412361100316e-03" rms="4.6482229232788086e-01" purity="5.9008824825286865e-01" nType="-99"/>
      </Node>
    </BinaryTree>
    <BinaryTree type="DecisionTree" boostWeight="1.0000000000000000e+00" itree="607">
      <Node pos="s" depth="0" NCoef="0" IVar="2" Cut="6.4545660400390625e+02" cType="1" res="3.7140450440347195e-03" rms="4.5897993445396423e-01" purity="4.9992945790290833e-01" nType="0">
        <Node pos="l" depth="1" NCoef="0" IVar="3" Cut="2.1631285548210144e-01" cType="1" res="-4.7487872652709484e-03" rms="4.6049949526786804e-01" purity="4.6717962622642517e-01" nType="0">
          <Node pos="l" depth="2" NCoef="0" IVar="-1" Cut="0.0000000000000000e+00" cType="1" res="-2.0621623843908310e-04" rms="4.5916166901588440e-01" purity="4.5855638384819031e-01" nType="-99"/>
          <Node pos="r" depth="2" NCoef="0" IVar="-1" Cut="0.0000000000000000e+00" cType="1" res="8.5209304234012961e-04" rms="4.7013080120086670e-01" purity="5.5275762081146240e-01" nType="-99"/>
        </Node>
        <Node pos="r" depth="1" NCoef="0" IVar="4" Cut="3.9818912744522095e-02" cType="1" res="5.2945006638765335e-02" rms="4.4687163829803467e-01" purity="6.9044578075408936e-01" nType="0">
          <Node pos="l" depth="2" NCoef="0" IVar="-1" Cut="0.0000000000000000e+00" cType="1" res="1.0744736064225435e-03" rms="4.3068554997444153e-01" purity="7.3365461826324463e-01" nType="-99"/>
          <Node pos="r" depth="2" NCoef="0" IVar="-1" Cut="0.0000000000000000e+00" cType="1" res="4.4179122778587043e-04" rms="4.6281120181083679e-01" purity="6.4276677370071411e-01" nType="-99"/>
        </Node>
      </Node>
    </BinaryTree>
    <BinaryTree type="DecisionTree" boostWeight="1.0000000000000000e+00" itree="608">
      <Node pos="s" depth="0" NCoef="0" IVar="2" Cut="3.5097799682617188e+02" cType="1" res="6.8110860884189606e-03" rms="4.5948249101638794e-01" purity="5.0185489654541016e-01" nType="0">
        <Node pos="l" depth="1" NCoef="0" IVar="5" Cut="2.1237937927246094e+02" cType="1" res="-3.0880155041813850e-02" rms="4.2266270518302917e-01" purity="2.8892046213150024e-01" nType="0">
          <Node pos="l" depth="2" NCoef="0" IVar="-1" Cut="0.0000000000000000e+00" cType="1" res="-2.2015529684722424e-03" rms="3.9903089404106140e-01" purity="2.3534703254699707e-01" nType="-99"/>
          <Node pos="r" depth="2" NCoef="0" IVar="-1" Cut="0.0000000000000000e+00" cType="1" res="-2.3412720474880189e-04" rms="4.3913316726684570e-01" purity="3.3117574453353882e-01" nType="-99"/>
        </Node>
        <Node pos="r" depth="1" NCoef="0" IVar="0" Cut="9.3286633491516113e-02" cType="1" res="1.6119616106152534e-02" rms="4.6766257286071777e-01" purity="5.5444288253784180e-01" nType="0">
          <Node pos="l" depth="2" NCoef="0" IVar="-1" Cut="0.0000000000000000e+00" cType="1" res="-4.6070294047240168e-05" rms="4.7077396512031555e-01" purity="5.3236365318298340e-01" nType="-99"/>
          <Node pos="r" depth="2" NCoef="0" IVar="-1" Cut="0.0000000000000000e+00" cType="1" res="7.2040839586406946e-04" rms="4.6149706840515137e-01" purity="5.8774209022521973e-01" nType="-99"/>
        </Node>
      </Node>
    </BinaryTree>
    <BinaryTree type="DecisionTree" boostWeight="1.0000000000000000e+00" itree="609">
      <Node pos="s" depth="0" NCoef="0" IVar="0" Cut="1.1717303097248077e-01" cType="1" res="2.6277371216565371e-03" rms="4.6087929606437683e-01" purity="4.9657198786735535e-01" nType="0">
        <Node pos="l" depth="1" NCoef="0" IVar="3" Cut="1.8142467737197876e-01" cType="1" res="-9.9766263738274574e-03" rms="4.6220913529396057e-01" purity="4.8669335246086121e-01" nType="0">
          <Node pos="l" depth="2" NCoef="0" IVar="-1" Cut="0.0000000000000000e+00" cType="1" res="-3.8100915844552219e-04" rms="4.6093308925628662e-01" purity="4.7128769755363464e-01" nType="-99"/>
          <Node pos="r" depth="2" NCoef="0" IVar="-1" Cut="0.0000000000000000e+00" cType="1" res="5.6665466399863362e-04" rms="4.6568444371223450e-01" purity="5.5774575471878052e-01" nType="-99"/>
        </Node>
        <Node pos="r" depth="1" NCoef="0" IVar="5" Cut="2.8008544921875000e+02" cType="1" res="2.9784960672259331e-02" rms="4.5682054758071899e-01" purity="5.1785629987716675e-01" nType="0">
          <Node pos="l" depth="2" NCoef="0" IVar="-1" Cut="0.0000000000000000e+00" cType="1" res="-1.7657373973634094e-04" rms="4.5657494664192200e-01" purity="3.8797417283058167e-01" nType="-99"/>
          <Node pos="r" depth="2" NCoef="0" IVar="-1" Cut="0.0000000000000000e+00" cType="1" res="1.0605065617710352e-03" rms="4.5354810357093811e-01" purity="6.5999442338943481e-01" nType="-99"/>
        </Node>
      </Node>
    </BinaryTree>
    <BinaryTree type="DecisionTree" boostWeight="1.0000000000000000e+00" itree="610">
      <Node pos="s" depth="0" NCoef="0" IVar="1" Cut="9.8411780595779419e-01" cType="1" res="5.0206067971885204e-03" rms="4.6030899882316589e-01" purity="4.9942654371261597e-01" nType="0">
        <Node pos="l" depth="1" NCoef="0" IVar="3" Cut="2.3450939357280731e-01" cType="1" res="-9.5780065748840570e-04" rms="4.6715825796127319e-01" purity="4.6363568305969238e-01" nType="0">
          <Node pos="l" depth="2" NCoef="0" IVar="-1" Cut="0.0000000000000000e+00" cType="1" res="-9.7877302323468029e-05" rms="4.6621263027191162e-01" purity="4.5717748999595642e-01" nType="-99"/>
          <Node pos="r" depth="2" NCoef="0" IVar="-1" Cut="0.0000000000000000e+00" cType="1" res="9.2667218996211886e-04" rms="4.7675430774688721e-01" purity="5.5480962991714478e-01" nType="-99"/>
        </Node>
        <Node pos="r" depth="1" NCoef="0" IVar="-1" Cut="0.0000000000000000e+00" cType="1" res="7.9070898937061429e-04" rms="3.9727857708930969e-01" purity="7.8915077447891235e-01" nType="-99"/>
      </Node>
    </BinaryTree>
    <BinaryTree type="DecisionTree" boostWeight="1.0000000000000000e+00" itree="611">
      <Node pos="s" depth="0" NCoef="0" IVar="3" Cut="1.7450143396854401e-01" cType="1" res="4.0340414270758629e-03" rms="4.5949414372444153e-01" purity="4.9836984276771545e-01" nType="0">
        <Node pos="l" depth="1" NCoef="0" IVar="4" Cut="2.6413366198539734e-02" cType="1" res="-3.7618328351527452e-03" rms="4.5856499671936035e-01" purity="4.8540657758712769e-01" nType="0">
          <Node pos="l" depth="2" NCoef="0" IVar="-1" Cut="0.0000000000000000e+00" cType="1" res="2.7185841463506222e-04" rms="4.6026980876922607e-01" purity="5.1718360185623169e-01" nType="-99"/>
          <Node pos="r" depth="2" NCoef="0" IVar="-1" Cut="0.0000000000000000e+00" cType="1" res="-8.3452335093170404e-04" rms="4.5333009958267212e-01" purity="4.2611780762672424e-01" nType="-99"/>
        </Node>
        <Node pos="r" depth="1" NCoef="0" IVar="5" Cut="2.9029705810546875e+02" cType="1" res="4.6887777745723724e-02" rms="4.6222639083862305e-01" purity="5.6962871551513672e-01" nType="0">
          <Node pos="l" depth="2" NCoef="0" IVar="-1" Cut="0.0000000000000000e+00" cType="1" res="5.1433080807328224e-04" rms="4.7433444857597351e-01" purity="4.4719010591506958e-01" nType="-99"/>
          <Node pos="r" depth="2" NCoef="0" IVar="-1" Cut="0.0000000000000000e+00" cType="1" res="9.5890177180990577e-04" rms="4.5106348395347595e-01" purity="6.7218554019927979e-01" nType="-99"/>
        </Node>
      </Node>
    </BinaryTree>
    <BinaryTree type="DecisionTree" boostWeight="1.0000000000000000e+00" itree="612">
      <Node pos="s" depth="0" NCoef="0" IVar="6" Cut="1.8374799489974976e+00" cType="1" res="5.0005130469799042e-03" rms="4.6109488606452942e-01" purity="4.9925184249877930e-01" nType="0">
        <Node pos="l" depth="1" NCoef="0" IVar="5" Cut="2.8904806518554688e+02" cType="1" res="4.1435778141021729e-02" rms="4.5480343699455261e-01" purity="5.8451318740844727e-01" nType="0">
          <Node pos="l" depth="2" NCoef="0" IVar="-1" Cut="0.0000000000000000e+00" cType="1" res="3.2810977427288890e-04" rms="4.7063618898391724e-01" purity="4.6243792772293091e-01" nType="-99"/>
          <Node pos="r" depth="2" NCoef="0" IVar="-1" Cut="0.0000000000000000e+00" cType="1" res="9.3631452182307839e-04" rms="4.3784463405609131e-01" purity="7.0120400190353394e-01" nType="-99"/>
        </Node>
        <Node pos="r" depth="1" NCoef="0" IVar="1" Cut="9.3751257658004761e-01" cType="1" res="-1.8069734796881676e-03" rms="4.6194237470626831e-01" purity="4.8332178592681885e-01" nType="0">
          <Node pos="l" depth="2" NCoef="0" IVar="-1" Cut="0.0000000000000000e+00" cType="1" res="-6.4108159858733416e-04" rms="4.5270210504531860e-01" purity="3.4415197372436523e-01" nType="-99"/>
          <Node pos="r" depth="2" NCoef="0" IVar="-1" Cut="0.0000000000000000e+00" cType="1" res="1.4364720846060663e-04" rms="4.6544378995895386e-01" purity="5.4227024316787720e-01" nType="-99"/>
        </Node>
      </Node>
    </BinaryTree>
    <BinaryTree type="DecisionTree" boostWeight="1.0000000000000000e+00" itree="613">
      <Node pos="s" depth="0" NCoef="0" IVar="4" Cut="5.5697061121463776e-02" cType="1" res="5.3273118101060390e-03" rms="4.6131494641304016e-01" purity="4.9938291311264038e-01" nType="0">
        <Node pos="l" depth="1" NCoef="0" IVar="5" Cut="2.4595585632324219e+02" cType="1" res="1.6733927652239799e-02" rms="4.6187227964401245e-01" purity="5.1792734861373901e-01" nType="0">
          <Node pos="l" depth="2" NCoef="0" IVar="-1" Cut="0.0000000000000000e+00" cType="1" res="-3.5466093686409295e-04" rms="4.4460561871528625e-01" purity="3.3476063609123230e-01" nType="-99"/>
          <Node pos="r" depth="2" NCoef="0" IVar="-1" Cut="0.0000000000000000e+00" cType="1" res="4.4912737212143838e-04" rms="4.6727481484413147e-01" purity="5.8160752058029175e-01" nType="-99"/>
        </Node>
        <Node pos="r" depth="1" NCoef="0" IVar="3" Cut="2.1198588609695435e-01" cType="1" res="-1.8526295199990273e-02" rms="4.5923236012458801e-01" purity="4.6060252189636230e-01" nType="0">
          <Node pos="l" depth="2" NCoef="0" IVar="-1" Cut="0.0000000000000000e+00" cType="1" res="-8.4467965643852949e-04" rms="4.5566636323928833e-01" purity="4.2182624340057373e-01" nType="-99"/>
          <Node pos="r" depth="2" NCoef="0" IVar="-1" Cut="0.0000000000000000e+00" cType="1" res="5.8512768009677529e-04" rms="4.6426650881767273e-01" purity="5.6162786483764648e-01" nType="-99"/>
        </Node>
      </Node>
    </BinaryTree>
    <BinaryTree type="DecisionTree" boostWeight="1.0000000000000000e+00" itree="614">
      <Node pos="s" depth="0" NCoef="0" IVar="1" Cut="9.8412138223648071e-01" cType="1" res="5.0172992050647736e-03" rms="4.6011313796043396e-01" purity="4.9996349215507507e-01" nType="0">
        <Node pos="l" depth="1" NCoef="0" IVar="2" Cut="7.4148364257812500e+02" cType="1" res="-8.9302123524248600e-04" rms="4.6661975979804993e-01" purity="4.6481060981750488e-01" nType="0">
          <Node pos="l" depth="2" NCoef="0" IVar="-1" Cut="0.0000000000000000e+00" cType="1" res="-1.2449754285626113e-04" rms="4.6722590923309326e-01" purity="4.4506707787513733e-01" nType="-99"/>
          <Node pos="r" depth="2" NCoef="0" IVar="-1" Cut="0.0000000000000000e+00" cType="1" res="8.4493105532601476e-04" rms="4.5581820607185364e-01" purity="6.8269777297973633e-01" nType="-99"/>
        </Node>
        <Node pos="r" depth="1" NCoef="0" IVar="-1" Cut="0.0000000000000000e+00" cType="1" res="7.9405121505260468e-04" rms="3.9983111619949341e-01" purity="7.8693830966949463e-01" nType="-99"/>
      </Node>
    </BinaryTree>
    <BinaryTree type="DecisionTree" boostWeight="1.0000000000000000e+00" itree="615">
      <Node pos="s" depth="0" NCoef="0" IVar="0" Cut="1.1188101768493652e-01" cType="1" res="3.3509624190628529e-03" rms="4.6158996224403381e-01" purity="4.9665805697441101e-01" nType="0">
        <Node pos="l" depth="1" NCoef="0" IVar="3" Cut="1.7997679114341736e-01" cType="1" res="-9.0246861800551414e-03" rms="4.6499013900756836e-01" purity="4.8592135310173035e-01" nType="0">
          <Node pos="l" depth="2" NCoef="0" IVar="-1" Cut="0.0000000000000000e+00" cType="1" res="-3.8854603189975023e-04" rms="4.6395567059516907e-01" purity="4.6855768561363220e-01" nType="-99"/>
          <Node pos="r" depth="2" NCoef="0" IVar="-1" Cut="0.0000000000000000e+00" cType="1" res="6.2532234005630016e-04" rms="4.6675270795822144e-01" purity="5.6147283315658569e-01" nType="-99"/>
        </Node>
        <Node pos="r" depth="1" NCoef="0" IVar="2" Cut="3.8479537963867188e+02" cType="1" res="2.7229819446802139e-02" rms="4.5400509238243103e-01" purity="5.1737451553344727e-01" nType="0">
          <Node pos="l" depth="2" NCoef="0" IVar="-1" Cut="0.0000000000000000e+00" cType="1" res="-4.0755572263151407e-04" rms="4.4699305295944214e-01" purity="3.4275659918785095e-01" nType="-99"/>
          <Node pos="r" depth="2" NCoef="0" IVar="-1" Cut="0.0000000000000000e+00" cType="1" res="8.5843296255916357e-04" rms="4.5641082525253296e-01" purity="6.3552051782608032e-01" nType="-99"/>
        </Node>
      </Node>
    </BinaryTree>
    <BinaryTree type="DecisionTree" boostWeight="1.0000000000000000e+00" itree="616">
      <Node pos="s" depth="0" NCoef="0" IVar="1" Cut="9.1242605447769165e-01" cType="1" res="5.0528291612863541e-03" rms="4.6046146750450134e-01" purity="5.0013077259063721e-01" nType="0">
        <Node pos="l" depth="1" NCoef="0" IVar="-1" Cut="0.0000000000000000e+00" cType="1" res="-1.2179219629615545e-03" rms="4.4035318493843079e-01" purity="3.1173327565193176e-01" nType="-99"/>
        <Node pos="r" depth="1" NCoef="0" IVar="2" Cut="4.9104846191406250e+02" cType="1" res="9.5700891688466072e-03" rms="4.6197977662086487e-01" purity="5.1724588871002197e-01" nType="0">
          <Node pos="l" depth="2" NCoef="0" IVar="-1" Cut="0.0000000000000000e+00" cType="1" res="-3.8694299291819334e-05" rms="4.6387845277786255e-01" purity="4.3622201681137085e-01" nType="-99"/>
          <Node pos="r" depth="2" NCoef="0" IVar="-1" Cut="0.0000000000000000e+00" cType="1" res="4.3557010940276086e-04" rms="4.5823085308074951e-01" purity="6.5018790960311890e-01" nType="-99"/>
        </Node>
      </Node>
    </BinaryTree>
    <BinaryTree type="DecisionTree" boostWeight="1.0000000000000000e+00" itree="617">
      <Node pos="s" depth="0" NCoef="0" IVar="3" Cut="-1.2489712983369827e-01" cType="1" res="9.6826665103435516e-03" rms="4.6118381619453430e-01" purity="5.0439786911010742e-01" nType="0">
        <Node pos="l" depth="1" NCoef="0" IVar="-1" Cut="0.0000000000000000e+00" cType="1" res="-9.9899841006845236e-04" rms="4.5097693800926208e-01" purity="4.1173058748245239e-01" nType="-99"/>
        <Node pos="r" depth="1" NCoef="0" IVar="1" Cut="9.8417556285858154e-01" cType="1" res="1.3721351511776447e-02" rms="4.6167919039726257e-01" purity="5.1129257678985596e-01" nType="0">
          <Node pos="l" depth="2" NCoef="0" IVar="-1" Cut="0.0000000000000000e+00" cType="1" res="1.5647552208974957e-04" rms="4.6866035461425781e-01" purity="4.7670081257820129e-01" nType="-99"/>
          <Node pos="r" depth="2" NCoef="0" IVar="-1" Cut="0.0000000000000000e+00" cType="1" res="8.7206659372895956e-04" rms="3.9720591902732849e-01" purity="7.9379367828369141e-01" nType="-99"/>
        </Node>
      </Node>
    </BinaryTree>
    <BinaryTree type="DecisionTree" boostWeight="1.0000000000000000e+00" itree="618">
      <Node pos="s" depth="0" NCoef="0" IVar="5" Cut="5.2181793212890625e+02" cType="1" res="2.3224747274070978e-03" rms="4.5899224281311035e-01" purity="4.9775066971778870e-01" nType="0">
        <Node pos="l" depth="1" NCoef="0" IVar="1" Cut="9.8411780595779419e-01" cType="1" res="-3.8993931375443935e-03" rms="4.6023830771446228e-01" purity="4.7596502304077148e-01" nType="0">
          <Node pos="l" depth="2" NCoef="0" IVar="-1" Cut="0.0000000000000000e+00" cType="1" res="-1.9823355250991881e-04" rms="4.6613195538520813e-01" purity="4.3938955664634705e-01" nType="-99"/>
          <Node pos="r" depth="2" NCoef="0" IVar="-1" Cut="0.0000000000000000e+00" cType="1" res="6.4895063405856490e-04" rms="4.0573266148567200e-01" purity="7.7528959512710571e-01" nType="-99"/>
        </Node>
        <Node pos="r" depth="1" NCoef="0" IVar="-1" Cut="0.0000000000000000e+00" cType="1" res="8.8151695672422647e-04" rms="4.4321700930595398e-01" purity="6.9889205694198608e-01" nType="-99"/>
      </Node>
    </BinaryTree>
    <BinaryTree type="DecisionTree" boostWeight="1.0000000000000000e+00" itree="619">
      <Node pos="s" depth="0" NCoef="0" IVar="4" Cut="9.6670366823673248e-02" cType="1" res="4.5359227806329727e-03" rms="4.6196278929710388e-01" purity="4.9878177046775818e-01" nType="0">
        <Node pos="l" depth="1" NCoef="0" IVar="1" Cut="9.1247946023941040e-01" cType="1" res="1.1587833985686302e-02" rms="4.6119874715805054e-01" purity="5.1204973459243774e-01" nType="0">
          <Node pos="l" depth="2" NCoef="0" IVar="-1" Cut="0.0000000000000000e+00" cType="1" res="-1.2780799297615886e-03" rms="4.4193506240844727e-01" purity="3.1379768252372742e-01" nType="-99"/>
          <Node pos="r" depth="2" NCoef="0" IVar="-1" Cut="0.0000000000000000e+00" cType="1" res="2.9833664302714169e-04" rms="4.6244084835052490e-01" purity="5.2869856357574463e-01" nType="-99"/>
        </Node>
        <Node pos="r" depth="1" NCoef="0" IVar="3" Cut="1.7796798050403595e-01" cType="1" res="-2.4513553828001022e-02" rms="4.6396815776824951e-01" purity="4.4412595033645630e-01" nType="0">
          <Node pos="l" depth="2" NCoef="0" IVar="-1" Cut="0.0000000000000000e+00" cType="1" res="-1.3578088255599141e-03" rms="4.5785862207412720e-01" purity="3.7994232773780823e-01" nType="-99"/>
          <Node pos="r" depth="2" NCoef="0" IVar="-1" Cut="0.0000000000000000e+00" cType="1" res="4.2482907883822918e-04" rms="4.6896544098854065e-01" purity="5.4213994741439819e-01" nType="-99"/>
        </Node>
      </Node>
    </BinaryTree>
    <BinaryTree type="DecisionTree" boostWeight="1.0000000000000000e+00" itree="620">
      <Node pos="s" depth="0" NCoef="0" IVar="0" Cut="1.7576174437999725e-01" cType="1" res="9.2745544388890266e-03" rms="4.5937073230743408e-01" purity="5.0527983903884888e-01" nType="0">
        <Node pos="l" depth="1" NCoef="0" IVar="5" Cut="4.1798880004882812e+02" cType="1" res="3.1084748916327953e-03" rms="4.6020221710205078e-01" purity="5.0111633539199829e-01" nType="0">
          <Node pos="l" depth="2" NCoef="0" IVar="-1" Cut="0.0000000000000000e+00" cType="1" res="-1.1783390073105693e-04" rms="4.6131750941276550e-01" purity="4.5457255840301514e-01" nType="-99"/>
          <Node pos="r" depth="2" NCoef="0" IVar="-1" Cut="0.0000000000000000e+00" cType="1" res="5.0652166828513145e-04" rms="4.5518857240676880e-01" purity="6.5659403800964355e-01" nType="-99"/>
        </Node>
        <Node pos="r" depth="1" NCoef="0" IVar="2" Cut="3.8994332885742188e+02" cType="1" res="4.8106838017702103e-02" rms="4.5217117667198181e-01" purity="5.3150016069412231e-01" nType="0">
          <Node pos="l" depth="2" NCoef="0" IVar="-1" Cut="0.0000000000000000e+00" cType="1" res="6.7015047534368932e-05" rms="4.5622557401657104e-01" purity="3.7303748726844788e-01" nType="-99"/>
          <Node pos="r" depth="2" NCoef="0" IVar="-1" Cut="0.0000000000000000e+00" cType="1" res="1.3013309799134731e-03" rms="4.4420474767684937e-01" purity="6.7935425043106079e-01" nType="-99"/>
        </Node>
      </Node>
    </BinaryTree>
    <BinaryTree type="DecisionTree" boostWeight="1.0000000000000000e+00" itree="621">
      <Node pos="s" depth="0" NCoef="0" IVar="1" Cut="9.8436695337295532e-01" cType="1" res="7.9004550352692604e-03" rms="4.5854339003562927e-01" purity="5.0482869148254395e-01" nType="0">
        <Node pos="l" depth="1" NCoef="0" IVar="6" Cut="1.5738303661346436e+00" cType="1" res="2.0266973879188299e-03" rms="4.6546512842178345e-01" purity="4.6982997655868530e-01" nType="0">
          <Node pos="l" depth="2" NCoef="0" IVar="-1" Cut="0.0000000000000000e+00" cType="1" res="9.2436606064438820e-04" rms="4.5565387606620789e-01" purity="5.8774578571319580e-01" nType="-99"/>
          <Node pos="r" depth="2" NCoef="0" IVar="-1" Cut="0.0000000000000000e+00" cType="1" res="-5.0465467211324722e-05" rms="4.6593916416168213e-01" purity="4.6037647128105164e-01" nType="-99"/>
        </Node>
        <Node pos="r" depth="1" NCoef="0" IVar="-1" Cut="0.0000000000000000e+00" cType="1" res="8.3900266326963902e-04" rms="3.9350271224975586e-01" purity="7.9366791248321533e-01" nType="-99"/>
      </Node>
    </BinaryTree>
    <BinaryTree type="DecisionTree" boostWeight="1.0000000000000000e+00" itree="622">
      <Node pos="s" depth="0" NCoef="0" IVar="2" Cut="7.4741174316406250e+02" cType="1" res="6.8667400628328323e-03" rms="4.5995509624481201e-01" purity="5.0310623645782471e-01" nType="0">
        <Node pos="l" depth="1" NCoef="0" IVar="4" Cut="7.1662683039903641e-03" cType="1" res="1.7427946440875530e-03" rms="4.6115204691886902e-01" purity="4.8511436581611633e-01" nType="0">
          <Node pos="l" depth="2" NCoef="0" IVar="-1" Cut="0.0000000000000000e+00" cType="1" res="3.4574689925648272e-04" rms="4.6071815490722656e-01" purity="5.1699060201644897e-01" nType="-99"/>
          <Node pos="r" depth="2" NCoef="0" IVar="-1" Cut="0.0000000000000000e+00" cType="1" res="-3.0212473939172924e-04" rms="4.6096432209014893e-01" purity="4.5437052845954895e-01" nType="-99"/>
        </Node>
        <Node pos="r" depth="1" NCoef="0" IVar="-1" Cut="0.0000000000000000e+00" cType="1" res="9.6469343407079577e-04" rms="4.4167175889015198e-01" purity="7.1034038066864014e-01" nType="-99"/>
      </Node>
    </BinaryTree>
    <BinaryTree type="DecisionTree" boostWeight="1.0000000000000000e+00" itree="623">
      <Node pos="s" depth="0" NCoef="0" IVar="2" Cut="7.1484948730468750e+02" cType="1" res="1.3397810980677605e-03" rms="4.5910507440567017e-01" purity="4.9751663208007812e-01" nType="0">
        <Node pos="l" depth="1" NCoef="0" IVar="3" Cut="1.5652495622634888e-01" cType="1" res="-4.1967579163610935e-03" rms="4.6040621399879456e-01" purity="4.7548961639404297e-01" nType="0">
          <Node pos="l" depth="2" NCoef="0" IVar="-1" Cut="0.0000000000000000e+00" cType="1" res="-2.5201056268997490e-04" rms="4.5843058824539185e-01" purity="4.6114385128021240e-01" nType="-99"/>
          <Node pos="r" depth="2" NCoef="0" IVar="-1" Cut="0.0000000000000000e+00" cType="1" res="5.7060230756178498e-04" rms="4.6720224618911743e-01" purity="5.3819841146469116e-01" nType="-99"/>
        </Node>
        <Node pos="r" depth="1" NCoef="0" IVar="-1" Cut="0.0000000000000000e+00" cType="1" res="7.7048962702974677e-04" rms="4.4402998685836792e-01" purity="6.9684976339340210e-01" nType="-99"/>
      </Node>
    </BinaryTree>
    <BinaryTree type="DecisionTree" boostWeight="1.0000000000000000e+00" itree="624">
      <Node pos="s" depth="0" NCoef="0" IVar="2" Cut="5.3701959228515625e+02" cType="1" res="8.1672510132193565e-03" rms="4.5978167653083801e-01" purity="5.0314676761627197e-01" nType="0">
        <Node pos="l" depth="1" NCoef="0" IVar="1" Cut="9.2731446027755737e-01" cType="1" res="-2.4407468736171722e-03" rms="4.6119040250778198e-01" purity="4.4147336483001709e-01" nType="0">
          <Node pos="l" depth="2" NCoef="0" IVar="-1" Cut="0.0000000000000000e+00" cType="1" res="-1.0406710207462311e-03" rms="4.3404355645179749e-01" purity="2.7876737713813782e-01" nType="-99"/>
          <Node pos="r" depth="2" NCoef="0" IVar="-1" Cut="0.0000000000000000e+00" cType="1" res="1.0093681339640170e-04" rms="4.6722233295440674e-01" purity="4.8100027441978455e-01" nType="-99"/>
        </Node>
        <Node pos="r" depth="1" NCoef="0" IVar="0" Cut="8.2095667719841003e-02" cType="1" res="3.4941133111715317e-02" rms="4.5510849356651306e-01" purity="6.5880626440048218e-01" nType="0">
          <Node pos="l" depth="2" NCoef="0" IVar="-1" Cut="0.0000000000000000e+00" cType="1" res="1.5633522707503289e-04" rms="4.6627989411354065e-01" purity="6.2054353952407837e-01" nType="-99"/>
          <Node pos="r" depth="2" NCoef="0" IVar="-1" Cut="0.0000000000000000e+00" cType="1" res="1.2733073672279716e-03" rms="4.2388504743576050e-01" purity="7.4392235279083252e-01" nType="-99"/>
        </Node>
      </Node>
    </BinaryTree>
    <BinaryTree type="DecisionTree" boostWeight="1.0000000000000000e+00" itree="625">
      <Node pos="s" depth="0" NCoef="0" IVar="6" Cut="2.5397765636444092e+00" cType="1" res="6.0155079700052738e-03" rms="4.6017101407051086e-01" purity="5.0076776742935181e-01" nType="0">
        <Node pos="l" depth="1" NCoef="0" IVar="5" Cut="2.6964236450195312e+02" cType="1" res="1.3583265244960785e-02" rms="4.6339878439903259e-01" purity="5.3388553857803345e-01" nType="0">
          <Node pos="l" depth="2" NCoef="0" IVar="-1" Cut="0.0000000000000000e+00" cType="1" res="-2.9374021687544882e-04" rms="4.5610707998275757e-01" purity="3.8035538792610168e-01" nType="-99"/>
          <Node pos="r" depth="2" NCoef="0" IVar="-1" Cut="0.0000000000000000e+00" cType="1" res="4.2138891876675189e-04" rms="4.6644487977027893e-01" purity="6.1043578386306763e-01" nType="-99"/>
        </Node>
        <Node pos="r" depth="1" NCoef="0" IVar="4" Cut="2.8914874419569969e-02" cType="1" res="-3.1686365604400635e-02" rms="4.4181349873542786e-01" purity="3.3577772974967957e-01" nType="0">
          <Node pos="l" depth="2" NCoef="0" IVar="-1" Cut="0.0000000000000000e+00" cType="1" res="-1.1650728265522048e-04" rms="4.5318153500556946e-01" purity="3.9502090215682983e-01" nType="-99"/>
          <Node pos="r" depth="2" NCoef="0" IVar="-1" Cut="0.0000000000000000e+00" cType="1" res="-1.6017223242670298e-03" rms="4.3208712339401245e-01" purity="2.9165104031562805e-01" nType="-99"/>
        </Node>
      </Node>
    </BinaryTree>
    <BinaryTree type="DecisionTree" boostWeight="1.0000000000000000e+00" itree="626">
      <Node pos="s" depth="0" NCoef="0" IVar="3" Cut="2.0517970621585846e-01" cType="1" res="7.8956261277198792e-03" rms="4.6072667837142944e-01" purity="5.0236928462982178e-01" nType="0">
        <Node pos="l" depth="1" NCoef="0" IVar="4" Cut="6.4072925597429276e-03" cType="1" res="2.0523937419056892e-03" rms="4.5990151166915894e-01" purity="4.9303013086318970e-01" nType="0">
          <Node pos="l" depth="2" NCoef="0" IVar="-1" Cut="0.0000000000000000e+00" cType="1" res="3.7523129140026867e-04" rms="4.5965960621833801e-01" purity="5.2814811468124390e-01" nType="-99"/>
          <Node pos="r" depth="2" NCoef="0" IVar="-1" Cut="0.0000000000000000e+00" cType="1" res="-3.9568566717207432e-04" rms="4.5924112200737000e-01" purity="4.5280724763870239e-01" nType="-99"/>
        </Node>
        <Node pos="r" depth="1" NCoef="0" IVar="-1" Cut="0.0000000000000000e+00" cType="1" res="9.2813139781355858e-04" rms="4.6468642354011536e-01" purity="5.7956653833389282e-01" nType="-99"/>
      </Node>
    </BinaryTree>
    <BinaryTree type="DecisionTree" boostWeight="1.0000000000000000e+00" itree="627">
      <Node pos="s" depth="0" NCoef="0" IVar="2" Cut="5.9811975097656250e+02" cType="1" res="3.6718621850013733e-03" rms="4.5916235446929932e-01" purity="4.9906054139137268e-01" nType="0">
        <Node pos="l" depth="1" NCoef="0" IVar="0" Cut="3.7376284599304199e-02" cType="1" res="-4.2924615554511547e-03" rms="4.6026158332824707e-01" purity="4.5751953125000000e-01" nType="0">
          <Node pos="l" depth="2" NCoef="0" IVar="-1" Cut="0.0000000000000000e+00" cType="1" res="-1.1339191114529967e-03" rms="4.6077951788902283e-01" purity="3.9030948281288147e-01" nType="-99"/>
          <Node pos="r" depth="2" NCoef="0" IVar="-1" Cut="0.0000000000000000e+00" cType="1" res="7.8942801337689161e-05" rms="4.5968466997146606e-01" purity="4.6993380784988403e-01" nType="-99"/>
        </Node>
        <Node pos="r" depth="1" NCoef="0" IVar="0" Cut="4.5289956033229828e-02" cType="1" res="3.6818958818912506e-02" rms="4.5305746793746948e-01" purity="6.7195188999176025e-01" nType="0">
          <Node pos="l" depth="2" NCoef="0" IVar="-1" Cut="0.0000000000000000e+00" cType="1" res="1.7706738435663283e-04" rms="4.6944063901901245e-01" purity="6.2497162818908691e-01" nType="-99"/>
          <Node pos="r" depth="2" NCoef="0" IVar="-1" Cut="0.0000000000000000e+00" cType="1" res="9.2462962493300438e-04" rms="4.3466696143150330e-01" purity="7.1864449977874756e-01" nType="-99"/>
        </Node>
      </Node>
    </BinaryTree>
    <BinaryTree type="DecisionTree" boostWeight="1.0000000000000000e+00" itree="628">
      <Node pos="s" depth="0" NCoef="0" IVar="1" Cut="9.2176586389541626e-01" cType="1" res="8.2448916509747505e-03" rms="4.6044450998306274e-01" purity="5.0369334220886230e-01" nType="0">
        <Node pos="l" depth="1" NCoef="0" IVar="6" Cut="2.3060848712921143e+00" cType="1" res="-3.4447744488716125e-02" rms="4.5024225115776062e-01" purity="3.2457804679870605e-01" nType="0">
          <Node pos="l" depth="2" NCoef="0" IVar="-1" Cut="0.0000000000000000e+00" cType="1" res="-1.3327253982424736e-03" rms="4.5752552151679993e-01" purity="3.4180253744125366e-01" nType="-99"/>
          <Node pos="r" depth="2" NCoef="0" IVar="-1" Cut="0.0000000000000000e+00" cType="1" res="-2.5257375091314316e-04" rms="4.3848943710327148e-01" purity="3.0036497116088867e-01" nType="-99"/>
        </Node>
        <Node pos="r" depth="1" NCoef="0" IVar="2" Cut="3.0785302734375000e+02" cType="1" res="1.5272202901542187e-02" rms="4.6172404289245605e-01" purity="5.3317618370056152e-01" nType="0">
          <Node pos="l" depth="2" NCoef="0" IVar="-1" Cut="0.0000000000000000e+00" cType="1" res="-1.7747755628079176e-03" rms="4.0978977084159851e-01" purity="2.4829185009002686e-01" nType="-99"/>
          <Node pos="r" depth="2" NCoef="0" IVar="-1" Cut="0.0000000000000000e+00" cType="1" res="3.5104763810522854e-04" rms="4.6504595875740051e-01" purity="5.5482143163681030e-01" nType="-99"/>
        </Node>
      </Node>
    </BinaryTree>
    <BinaryTree type="DecisionTree" boostWeight="1.0000000000000000e+00" itree="629">
      <Node pos="s" depth="0" NCoef="0" IVar="6" Cut="1.9302086830139160e+00" cType="1" res="-1.2676801998168230e-03" rms="4.5897608995437622e-01" purity="4.9434477090835571e-01" nType="0">
        <Node pos="l" depth="1" NCoef="0" IVar="5" Cut="2.9933682250976562e+02" cType="1" res="3.4136276692152023e-02" rms="4.5313677191734314e-01" purity="5.7781946659088135e-01" nType="0">
          <Node pos="l" depth="2" NCoef="0" IVar="-1" Cut="0.0000000000000000e+00" cType="1" res="1.1097625974798575e-04" rms="4.6656921505928040e-01" purity="4.6188989281654358e-01" nType="-99"/>
          <Node pos="r" depth="2" NCoef="0" IVar="-1" Cut="0.0000000000000000e+00" cType="1" res="9.3355093849822879e-04" rms="4.3575125932693481e-01" purity="7.0517951250076294e-01" nType="-99"/>
        </Node>
        <Node pos="r" depth="1" NCoef="0" IVar="2" Cut="3.2789929199218750e+02" cType="1" res="-1.0221006348729134e-02" rms="4.6000957489013672e-01" purity="4.7323477268218994e-01" nType="0">
          <Node pos="l" depth="2" NCoef="0" IVar="-1" Cut="0.0000000000000000e+00" cType="1" res="-1.7967262538149953e-03" rms="4.0267488360404968e-01" purity="2.3759399354457855e-01" nType="-99"/>
          <Node pos="r" depth="2" NCoef="0" IVar="-1" Cut="0.0000000000000000e+00" cType="1" res="-8.2842838310170919e-05" rms="4.6769100427627563e-01" purity="5.0839966535568237e-01" nType="-99"/>
        </Node>
      </Node>
    </BinaryTree>
    <BinaryTree type="DecisionTree" boostWeight="1.0000000000000000e+00" itree="630">
      <Node pos="s" depth="0" NCoef="0" IVar="6" Cut="1.5305627584457397e+00" cType="1" res="5.8203688822686672e-03" rms="4.6042445302009583e-01" purity="5.0151735544204712e-01" nType="0">
        <Node pos="l" depth="1" NCoef="0" IVar="-1" Cut="0.0000000000000000e+00" cType="1" res="9.8786095622926950e-04" rms="4.4117051362991333e-01" purity="6.2683981657028198e-01" nType="-99"/>
        <Node pos="r" depth="1" NCoef="0" IVar="0" Cut="2.2696842253208160e-01" cType="1" res="1.8332006875425577e-03" rms="4.6147251129150391e-01" purity="4.9278089404106140e-01" nType="0">
          <Node pos="l" depth="2" NCoef="0" IVar="-1" Cut="0.0000000000000000e+00" cType="1" res="-3.4354481613263488e-05" rms="4.6165388822555542e-01" purity="4.9037450551986694e-01" nType="-99"/>
          <Node pos="r" depth="2" NCoef="0" IVar="-1" Cut="0.0000000000000000e+00" cType="1" res="1.0673317592591047e-03" rms="4.5452243089675903e-01" purity="5.3180623054504395e-01" nType="-99"/>
        </Node>
      </Node>
    </BinaryTree>
    <BinaryTree type="DecisionTree" boostWeight="1.0000000000000000e+00" itree="631">
      <Node pos="s" depth="0" NCoef="0" IVar="1" Cut="9.4243258237838745e-01" cType="1" res="7.0788036100566387e-03" rms="4.5973309874534607e-01" purity="5.0338214635848999e-01" nType="0">
        <Node pos="l" depth="1" NCoef="0" IVar="3" Cut="1.8607844412326813e-01" cType="1" res="-1.6975525766611099e-02" rms="4.5566043257713318e-01" purity="3.7014907598495483e-01" nType="0">
          <Node pos="l" depth="2" NCoef="0" IVar="-1" Cut="0.0000000000000000e+00" cType="1" res="-6.3166843028739095e-04" rms="4.5131343603134155e-01" purity="3.5449126362800598e-01" nType="-99"/>
          <Node pos="r" depth="2" NCoef="0" IVar="-1" Cut="0.0000000000000000e+00" cType="1" res="6.1866681789979339e-04" rms="4.7664672136306763e-01" purity="4.5930200815200806e-01" nType="-99"/>
        </Node>
        <Node pos="r" depth="1" NCoef="0" IVar="4" Cut="1.3515684008598328e-01" cType="1" res="2.0250977948307991e-02" rms="4.6141701936721802e-01" purity="5.7634061574935913e-01" nType="0">
          <Node pos="l" depth="2" NCoef="0" IVar="-1" Cut="0.0000000000000000e+00" cType="1" res="4.4051997247152030e-04" rms="4.6142542362213135e-01" purity="5.8442854881286621e-01" nType="-99"/>
          <Node pos="r" depth="2" NCoef="0" IVar="-1" Cut="0.0000000000000000e+00" cType="1" res="-5.4892373736947775e-04" rms="4.5837801694869995e-01" purity="5.1017981767654419e-01" nType="-99"/>
        </Node>
      </Node>
    </BinaryTree>
    <BinaryTree type="DecisionTree" boostWeight="1.0000000000000000e+00" itree="632">
      <Node pos="s" depth="0" NCoef="0" IVar="2" Cut="6.0611688232421875e+02" cType="1" res="4.4256001710891724e-03" rms="4.5932516455650330e-01" purity="5.0086224079132080e-01" nType="0">
        <Node pos="l" depth="1" NCoef="0" IVar="1" Cut="9.4542789459228516e-01" cType="1" res="-3.4134050365537405e-03" rms="4.6089595556259155e-01" purity="4.6112397313117981e-01" nType="0">
          <Node pos="l" depth="2" NCoef="0" IVar="-1" Cut="0.0000000000000000e+00" cType="1" res="-5.9091346338391304e-04" rms="4.5305860042572021e-01" purity="3.3060809969902039e-01" nType="-99"/>
          <Node pos="r" depth="2" NCoef="0" IVar="-1" Cut="0.0000000000000000e+00" cType="1" res="1.6479413898196071e-04" rms="4.6558406949043274e-01" purity="5.4782003164291382e-01" nType="-99"/>
        </Node>
        <Node pos="r" depth="1" NCoef="0" IVar="0" Cut="5.2810970693826675e-02" cType="1" res="3.9120189845561981e-02" rms="4.5067319273948669e-01" purity="6.7673951387405396e-01" nType="0">
          <Node pos="l" depth="2" NCoef="0" IVar="-1" Cut="0.0000000000000000e+00" cType="1" res="1.3156722707208246e-04" rms="4.6766516566276550e-01" purity="6.2538743019104004e-01" nType="-99"/>
          <Node pos="r" depth="2" NCoef="0" IVar="-1" Cut="0.0000000000000000e+00" cType="1" res="1.1330612469464540e-03" rms="4.2512497305870056e-01" purity="7.4145096540451050e-01" nType="-99"/>
        </Node>
      </Node>
    </BinaryTree>
    <BinaryTree type="DecisionTree" boostWeight="1.0000000000000000e+00" itree="633">
      <Node pos="s" depth="0" NCoef="0" IVar="4" Cut="-8.2657389342784882e-02" cType="1" res="6.2061771750450134e-03" rms="4.6107387542724609e-01" purity="5.0083053112030029e-01" nType="0">
        <Node pos="l" depth="1" NCoef="0" IVar="-1" Cut="0.0000000000000000e+00" cType="1" res="1.0593930492177606e-03" rms="4.5035523176193237e-01" purity="5.7457464933395386e-01" nType="-99"/>
        <Node pos="r" depth="1" NCoef="0" IVar="3" Cut="2.2688047587871552e-01" cType="1" res="1.8425947055220604e-03" rms="4.6160003542900085e-01" purity="4.9515470862388611e-01" nType="0">
          <Node pos="l" depth="2" NCoef="0" IVar="-1" Cut="0.0000000000000000e+00" cType="1" res="-5.1867740694433451e-05" rms="4.6103945374488831e-01" purity="4.8760518431663513e-01" nType="-99"/>
          <Node pos="r" depth="2" NCoef="0" IVar="-1" Cut="0.0000000000000000e+00" cType="1" res="9.0789020759984851e-04" rms="4.6486052870750427e-01" purity="5.8293151855468750e-01" nType="-99"/>
        </Node>
      </Node>
    </BinaryTree>
    <BinaryTree type="DecisionTree" boostWeight="1.0000000000000000e+00" itree="634">
      <Node pos="s" depth="0" NCoef="0" IVar="3" Cut="1.3105876743793488e-01" cType="1" res="7.5163347646594048e-03" rms="4.6051865816116333e-01" purity="5.0238490104675293e-01" nType="0">
        <Node pos="l" depth="1" NCoef="0" IVar="2" Cut="6.5223089599609375e+02" cType="1" res="-2.8256145305931568e-03" rms="4.5903563499450684e-01" purity="4.8509401082992554e-01" nType="0">
          <Node pos="l" depth="2" NCoef="0" IVar="-1" Cut="0.0000000000000000e+00" cType="1" res="-2.0428802235983312e-04" rms="4.5997694134712219e-01" purity="4.5378416776657104e-01" nType="-99"/>
          <Node pos="r" depth="2" NCoef="0" IVar="-1" Cut="0.0000000000000000e+00" cType="1" res="6.2808726215735078e-04" rms="4.5075696706771851e-01" purity="6.7619353532791138e-01" nType="-99"/>
        </Node>
        <Node pos="r" depth="1" NCoef="0" IVar="1" Cut="9.3101632595062256e-01" cType="1" res="4.1505508124828339e-02" rms="4.6373760700225830e-01" purity="5.5921185016632080e-01" nType="0">
          <Node pos="l" depth="2" NCoef="0" IVar="-1" Cut="0.0000000000000000e+00" cType="1" res="3.1921395566314459e-04" rms="4.7555699944496155e-01" purity="4.1084212064743042e-01" nType="-99"/>
          <Node pos="r" depth="2" NCoef="0" IVar="-1" Cut="0.0000000000000000e+00" cType="1" res="8.0483773490414023e-04" rms="4.5958319306373596e-01" purity="6.0651022195816040e-01" nType="-99"/>
        </Node>
      </Node>
    </BinaryTree>
    <BinaryTree type="DecisionTree" boostWeight="1.0000000000000000e+00" itree="635">
      <Node pos="s" depth="0" NCoef="0" IVar="3" Cut="-1.2408167123794556e-01" cType="1" res="4.9932552501559258e-03" rms="4.6036702394485474e-01" purity="4.9952080845832825e-01" nType="0">
        <Node pos="l" depth="1" NCoef="0" IVar="-1" Cut="0.0000000000000000e+00" cType="1" res="-1.1708423262462020e-03" rms="4.4428029656410217e-01" purity="4.0408429503440857e-01" nType="-99"/>
        <Node pos="r" depth="1" NCoef="0" IVar="5" Cut="5.2357684326171875e+02" cType="1" res="9.3100778758525848e-03" rms="4.6128290891647339e-01" purity="5.0678437948226929e-01" nType="0">
          <Node pos="l" depth="2" NCoef="0" IVar="-1" Cut="0.0000000000000000e+00" cType="1" res="8.6326283053494990e-05" rms="4.6273046731948853e-01" purity="4.8830989003181458e-01" nType="-99"/>
          <Node pos="r" depth="2" NCoef="0" IVar="-1" Cut="0.0000000000000000e+00" cType="1" res="9.1263279318809509e-04" rms="4.4169300794601440e-01" purity="7.0918083190917969e-01" nType="-99"/>
        </Node>
      </Node>
    </BinaryTree>
    <BinaryTree type="DecisionTree" boostWeight="1.0000000000000000e+00" itree="636">
      <Node pos="s" depth="0" NCoef="0" IVar="1" Cut="9.8412138223648071e-01" cType="1" res="6.8624103441834450e-03" rms="4.6024999022483826e-01" purity="5.0177592039108276e-01" nType="0">
        <Node pos="l" depth="1" NCoef="0" IVar="2" Cut="7.4885620117187500e+02" cType="1" res="1.5752830076962709e-03" rms="4.6727612614631653e-01" purity="4.6674937009811401e-01" nType="0">
          <Node pos="l" depth="2" NCoef="0" IVar="-1" Cut="0.0000000000000000e+00" cType="1" res="-6.0785241657868028e-05" rms="4.6808028221130371e-01" purity="4.4797632098197937e-01" nType="-99"/>
          <Node pos="r" depth="2" NCoef="0" IVar="-1" Cut="0.0000000000000000e+00" cType="1" res="8.0698006786406040e-04" rms="4.5452466607093811e-01" purity="6.8363928794860840e-01" nType="-99"/>
        </Node>
        <Node pos="r" depth="1" NCoef="0" IVar="-1" Cut="0.0000000000000000e+00" cType="1" res="7.5299874879419804e-04" rms="3.9497986435890198e-01" purity="7.9036062955856323e-01" nType="-99"/>
      </Node>
    </BinaryTree>
    <BinaryTree type="DecisionTree" boostWeight="1.0000000000000000e+00" itree="637">
      <Node pos="s" depth="0" NCoef="0" IVar="4" Cut="7.2351090610027313e-02" cType="1" res="5.7358816266059875e-03" rms="4.5952966809272766e-01" purity="5.0199627876281738e-01" nType="0">
        <Node pos="l" depth="1" NCoef="0" IVar="1" Cut="9.6030646562576294e-01" cType="1" res="1.5327886678278446e-02" rms="4.6083128452301025e-01" purity="5.1741331815719604e-01" nType="0">
          <Node pos="l" depth="2" NCoef="0" IVar="-1" Cut="0.0000000000000000e+00" cType="1" res="4.0843748138286173e-05" rms="4.6716156601905823e-01" purity="4.2338618636131287e-01" nType="-99"/>
          <Node pos="r" depth="2" NCoef="0" IVar="-1" Cut="0.0000000000000000e+00" cType="1" res="5.6293926900252700e-04" rms="4.4981268048286438e-01" purity="6.6632509231567383e-01" nType="-99"/>
        </Node>
        <Node pos="r" depth="1" NCoef="0" IVar="3" Cut="1.5463431179523468e-01" cType="1" res="-2.0325301215052605e-02" rms="4.5495441555976868e-01" purity="4.6010869741439819e-01" nType="0">
          <Node pos="l" depth="2" NCoef="0" IVar="-1" Cut="0.0000000000000000e+00" cType="1" res="-1.3460114132612944e-03" rms="4.4406050443649292e-01" purity="3.9435893297195435e-01" nType="-99"/>
          <Node pos="r" depth="2" NCoef="0" IVar="-1" Cut="0.0000000000000000e+00" cType="1" res="6.0885510174557567e-04" rms="4.6485331654548645e-01" purity="5.5605036020278931e-01" nType="-99"/>
        </Node>
      </Node>
    </BinaryTree>
    <BinaryTree type="DecisionTree" boostWeight="1.0000000000000000e+00" itree="638">
      <Node pos="s" depth="0" NCoef="0" IVar="2" Cut="3.0619714355468750e+02" cType="1" res="1.3734491076320410e-03" rms="4.5987659692764282e-01" purity="4.9625495076179504e-01" nType="0">
        <Node pos="l" depth="1" NCoef="0" IVar="-1" Cut="0.0000000000000000e+00" cType="1" res="-2.1396889351308346e-03" rms="3.9276632666587830e-01" purity="2.2361272573471069e-01" nType="-99"/>
        <Node pos="r" depth="1" NCoef="0" IVar="6" Cut="2.2997856140136719e+00" cType="1" res="5.7547301985323429e-03" rms="4.6437299251556396e-01" purity="5.1733070611953735e-01" nType="0">
          <Node pos="l" depth="2" NCoef="0" IVar="-1" Cut="0.0000000000000000e+00" cType="1" res="2.9052584432065487e-04" rms="4.6621289849281311e-01" purity="5.6433296203613281e-01" nType="-99"/>
          <Node pos="r" depth="2" NCoef="0" IVar="-1" Cut="0.0000000000000000e+00" cType="1" res="-2.7392184711061418e-04" rms="4.6065899729728699e-01" purity="4.3863323330879211e-01" nType="-99"/>
        </Node>
      </Node>
    </BinaryTree>
    <BinaryTree type="DecisionTree" boostWeight="1.0000000000000000e+00" itree="639">
      <Node pos="s" depth="0" NCoef="0" IVar="2" Cut="3.6058273315429688e+02" cType="1" res="4.0357680991292000e-03" rms="4.5869675278663635e-01" purity="5.0032001733779907e-01" nType="0">
        <Node pos="l" depth="1" NCoef="0" IVar="3" Cut="-6.2904678285121918e-02" cType="1" res="-2.7582341805100441e-02" rms="4.2780950665473938e-01" purity="2.9692336916923523e-01" nType="0">
          <Node pos="l" depth="2" NCoef="0" IVar="-1" Cut="0.0000000000000000e+00" cType="1" res="-2.4522775784134865e-03" rms="3.9087024331092834e-01" purity="2.3287120461463928e-01" nType="-99"/>
          <Node pos="r" depth="2" NCoef="0" IVar="-1" Cut="0.0000000000000000e+00" cType="1" res="-3.4204573603346944e-04" rms="4.4059637188911438e-01" purity="3.2216319441795349e-01" nType="-99"/>
        </Node>
        <Node pos="r" depth="1" NCoef="0" IVar="0" Cut="1.7122015357017517e-01" cType="1" res="1.3481309637427330e-02" rms="4.6711328625679016e-01" purity="5.6108248233795166e-01" nType="0">
          <Node pos="l" depth="2" NCoef="0" IVar="-1" Cut="0.0000000000000000e+00" cType="1" res="1.1268277012277395e-04" rms="4.6817493438720703e-01" purity="5.5311119556427002e-01" nType="-99"/>
          <Node pos="r" depth="2" NCoef="0" IVar="-1" Cut="0.0000000000000000e+00" cType="1" res="9.7502325661480427e-04" rms="4.5646461844444275e-01" purity="6.1768037080764771e-01" nType="-99"/>
        </Node>
      </Node>
    </BinaryTree>
    <BinaryTree type="DecisionTree" boostWeight="1.0000000000000000e+00" itree="640">
      <Node pos="s" depth="0" NCoef="0" IVar="0" Cut="9.0861722826957703e-02" cType="1" res="3.1073258724063635e-03" rms="4.5957240462303162e-01" purity="4.9940079450607300e-01" nType="0">
        <Node pos="l" depth="1" NCoef="0" IVar="2" Cut="7.2414038085937500e+02" cType="1" res="-1.1088535189628601e-02" rms="4.6166160702705383e-01" purity="4.8979279398918152e-01" nType="0">
          <Node pos="l" depth="2" NCoef="0" IVar="-1" Cut="0.0000000000000000e+00" cType="1" res="-3.8975075585767627e-04" rms="4.6198534965515137e-01" purity="4.5973566174507141e-01" nType="-99"/>
          <Node pos="r" depth="2" NCoef="0" IVar="-1" Cut="0.0000000000000000e+00" cType="1" res="5.8563228230923414e-04" rms="4.5653107762336731e-01" purity="6.7273181676864624e-01" nType="-99"/>
        </Node>
        <Node pos="r" depth="1" NCoef="0" IVar="2" Cut="3.7494110107421875e+02" cType="1" res="2.1315125748515129e-02" rms="4.5623266696929932e-01" purity="5.1172423362731934e-01" nType="0">
          <Node pos="l" depth="2" NCoef="0" IVar="-1" Cut="0.0000000000000000e+00" cType="1" res="-5.3567579016089439e-04" rms="4.4016367197036743e-01" purity="3.3147755265235901e-01" nType="-99"/>
          <Node pos="r" depth="2" NCoef="0" IVar="-1" Cut="0.0000000000000000e+00" cType="1" res="6.9019099464640021e-04" rms="4.6317923069000244e-01" purity="6.0950458049774170e-01" nType="-99"/>
        </Node>
      </Node>
    </BinaryTree>
    <BinaryTree type="DecisionTree" boostWeight="1.0000000000000000e+00" itree="641">
      <Node pos="s" depth="0" NCoef="0" IVar="1" Cut="9.8430716991424561e-01" cType="1" res="2.2815720876678824e-04" rms="4.5976743102073669e-01" purity="4.9527201056480408e-01" nType="0">
        <Node pos="l" depth="1" NCoef="0" IVar="0" Cut="7.4345976114273071e-02" cType="1" res="-5.2481279708445072e-03" rms="4.6606424450874329e-01" purity="4.6059948205947876e-01" nType="0">
          <Node pos="l" depth="2" NCoef="0" IVar="-1" Cut="0.0000000000000000e+00" cType="1" res="-4.1283917380496860e-04" rms="4.6875074505805969e-01" purity="4.5396125316619873e-01" nType="-99"/>
          <Node pos="r" depth="2" NCoef="0" IVar="-1" Cut="0.0000000000000000e+00" cType="1" res="1.6330447397194803e-04" rms="4.6323627233505249e-01" purity="4.6650597453117371e-01" nType="-99"/>
        </Node>
        <Node pos="r" depth="1" NCoef="0" IVar="-1" Cut="0.0000000000000000e+00" cType="1" res="6.8733206717297435e-04" rms="4.0082579851150513e-01" purity="7.8317695856094360e-01" nType="-99"/>
      </Node>
    </BinaryTree>
    <BinaryTree type="DecisionTree" boostWeight="1.0000000000000000e+00" itree="642">
      <Node pos="s" depth="0" NCoef="0" IVar="2" Cut="7.2946685791015625e+02" cType="1" res="5.2954712882637978e-03" rms="4.5876279473304749e-01" purity="5.0328600406646729e-01" nType="0">
        <Node pos="l" depth="1" NCoef="0" IVar="1" Cut="9.6929717063903809e-01" cType="1" res="7.7123673690948635e-05" rms="4.6003773808479309e-01" purity="4.8346802592277527e-01" nType="0">
          <Node pos="l" depth="2" NCoef="0" IVar="-1" Cut="0.0000000000000000e+00" cType="1" res="-2.0237732678651810e-04" rms="4.6611022949218750e-01" purity="4.1159361600875854e-01" nType="-99"/>
          <Node pos="r" depth="2" NCoef="0" IVar="-1" Cut="0.0000000000000000e+00" cType="1" res="4.2067695176228881e-04" rms="4.4110301136970520e-01" purity="6.8864440917968750e-01" nType="-99"/>
        </Node>
        <Node pos="r" depth="1" NCoef="0" IVar="-1" Cut="0.0000000000000000e+00" cType="1" res="8.8070315541699529e-04" rms="4.4192993640899658e-01" purity="7.0657867193222046e-01" nType="-99"/>
      </Node>
    </BinaryTree>
    <BinaryTree type="DecisionTree" boostWeight="1.0000000000000000e+00" itree="643">
      <Node pos="s" depth="0" NCoef="0" IVar="1" Cut="9.8398810625076294e-01" cType="1" res="2.8606455307453871e-03" rms="4.5943120121955872e-01" purity="4.9890583753585815e-01" nType="0">
        <Node pos="l" depth="1" NCoef="0" IVar="3" Cut="1.9170270860195160e-01" cType="1" res="-2.9083332046866417e-03" rms="4.6609434485435486e-01" purity="4.6354025602340698e-01" nType="0">
          <Node pos="l" depth="2" NCoef="0" IVar="-1" Cut="0.0000000000000000e+00" cType="1" res="-1.7329122056253254e-04" rms="4.6479997038841248e-01" purity="4.5245835185050964e-01" nType="-99"/>
          <Node pos="r" depth="2" NCoef="0" IVar="-1" Cut="0.0000000000000000e+00" cType="1" res="6.2904634978622198e-04" rms="4.7305288910865784e-01" purity="5.3978294134140015e-01" nType="-99"/>
        </Node>
        <Node pos="r" depth="1" NCoef="0" IVar="-1" Cut="0.0000000000000000e+00" cType="1" res="7.4763689190149307e-04" rms="3.9786824584007263e-01" purity="7.8732228279113770e-01" nType="-99"/>
      </Node>
    </BinaryTree>
    <BinaryTree type="DecisionTree" boostWeight="1.0000000000000000e+00" itree="644">
      <Node pos="s" depth="0" NCoef="0" IVar="2" Cut="7.5286865234375000e+02" cType="1" res="9.0370951220393181e-03" rms="4.5967549085617065e-01" purity="5.0497651100158691e-01" nType="0">
        <Node pos="l" depth="1" NCoef="0" IVar="4" Cut="-2.8927389066666365e-03" cType="1" res="4.7139069065451622e-03" rms="4.6105983853340149e-01" purity="4.8772972822189331e-01" nType="0">
          <Node pos="l" depth="2" NCoef="0" IVar="-1" Cut="0.0000000000000000e+00" cType="1" res="3.9377287612296641e-04" rms="4.5884153246879578e-01" purity="5.2209627628326416e-01" nType="-99"/>
          <Node pos="r" depth="2" NCoef="0" IVar="-1" Cut="0.0000000000000000e+00" cType="1" res="-1.8117114086635411e-04" rms="4.6238040924072266e-01" purity="4.6012613177299500e-01" nType="-99"/>
        </Node>
        <Node pos="r" depth="1" NCoef="0" IVar="-1" Cut="0.0000000000000000e+00" cType="1" res="8.8756316108629107e-04" rms="4.3981453776359558e-01" purity="7.0849967002868652e-01" nType="-99"/>
      </Node>
    </BinaryTree>
    <BinaryTree type="DecisionTree" boostWeight="1.0000000000000000e+00" itree="645">
      <Node pos="s" depth="0" NCoef="0" IVar="3" Cut="8.6009889841079712e-02" cType="1" res="5.7760444469749928e-03" rms="4.5965707302093506e-01" purity="5.0071871280670166e-01" nType="0">
        <Node pos="l" depth="1" NCoef="0" IVar="0" Cut="1.6778483986854553e-01" cType="1" res="-5.8808056637644768e-03" rms="4.5716282725334167e-01" purity="4.7950553894042969e-01" nType="0">
          <Node pos="l" depth="2" NCoef="0" IVar="-1" Cut="0.0000000000000000e+00" cType="1" res="-3.3566050115041435e-04" rms="4.5712673664093018e-01" purity="4.6989890933036804e-01" nType="-99"/>
          <Node pos="r" depth="2" NCoef="0" IVar="-1" Cut="0.0000000000000000e+00" cType="1" res="7.7076849993318319e-04" rms="4.5420828461647034e-01" purity="5.2197349071502686e-01" nType="-99"/>
        </Node>
        <Node pos="r" depth="1" NCoef="0" IVar="5" Cut="2.6389971923828125e+02" cType="1" res="3.0279034748673439e-02" rms="4.6390244364738464e-01" purity="5.4530930519104004e-01" nType="0">
          <Node pos="l" depth="2" NCoef="0" IVar="-1" Cut="0.0000000000000000e+00" cType="1" res="8.5028674220666289e-05" rms="4.6443337202072144e-01" purity="3.8945683836936951e-01" nType="-99"/>
          <Node pos="r" depth="2" NCoef="0" IVar="-1" Cut="0.0000000000000000e+00" cType="1" res="6.8693561479449272e-04" rms="4.6305248141288757e-01" purity="6.2402147054672241e-01" nType="-99"/>
        </Node>
      </Node>
    </BinaryTree>
    <BinaryTree type="DecisionTree" boostWeight="1.0000000000000000e+00" itree="646">
      <Node pos="s" depth="0" NCoef="0" IVar="4" Cut="-5.3560122847557068e-02" cType="1" res="9.5633575692772865e-03" rms="4.6146741509437561e-01" purity="5.0409394502639771e-01" nType="0">
        <Node pos="l" depth="1" NCoef="0" IVar="5" Cut="2.8548538208007812e+02" cType="1" res="4.4249139726161957e-02" rms="4.5438179373741150e-01" purity="5.5795413255691528e-01" nType="0">
          <Node pos="l" depth="2" NCoef="0" IVar="-1" Cut="0.0000000000000000e+00" cType="1" res="3.0571938259527087e-04" rms="4.5979541540145874e-01" purity="4.2229294776916504e-01" nType="-99"/>
          <Node pos="r" depth="2" NCoef="0" IVar="-1" Cut="0.0000000000000000e+00" cType="1" res="1.0289401980116963e-03" rms="4.4816029071807861e-01" purity="6.7317795753479004e-01" nType="-99"/>
        </Node>
        <Node pos="r" depth="1" NCoef="0" IVar="3" Cut="1.9113741815090179e-01" cType="1" res="1.7633377574384212e-03" rms="4.6268787980079651e-01" purity="4.9198210239410400e-01" nType="0">
          <Node pos="l" depth="2" NCoef="0" IVar="-1" Cut="0.0000000000000000e+00" cType="1" res="-9.0884277597069740e-05" rms="4.6139332652091980e-01" purity="4.7914835810661316e-01" nType="-99"/>
          <Node pos="r" depth="2" NCoef="0" IVar="-1" Cut="0.0000000000000000e+00" cType="1" res="6.4387364545837045e-04" rms="4.6824082732200623e-01" purity="5.6345558166503906e-01" nType="-99"/>
        </Node>
      </Node>
    </BinaryTree>
    <BinaryTree type="DecisionTree" boostWeight="1.0000000000000000e+00" itree="647">
      <Node pos="s" depth="0" NCoef="0" IVar="3" Cut="1.5645888447761536e-01" cType="1" res="4.7301091253757477e-03" rms="4.5831617712974548e-01" purity="5.0162255764007568e-01" nType="0">
        <Node pos="l" depth="1" NCoef="0" IVar="1" Cut="9.6035081148147583e-01" cType="1" res="-3.7258351221680641e-03" rms="4.5663478970527649e-01" purity="4.8687508702278137e-01" nType="0">
          <Node pos="l" depth="2" NCoef="0" IVar="-1" Cut="0.0000000000000000e+00" cType="1" res="-4.3555826414376497e-04" rms="4.6016407012939453e-01" purity="3.8996705412864685e-01" nType="-99"/>
          <Node pos="r" depth="2" NCoef="0" IVar="-1" Cut="0.0000000000000000e+00" cType="1" res="3.4410555963404477e-04" rms="4.4967925548553467e-01" purity="6.4458453655242920e-01" nType="-99"/>
        </Node>
        <Node pos="r" depth="1" NCoef="0" IVar="1" Cut="9.3695211410522461e-01" cType="1" res="4.1392404586076736e-02" rms="4.6375593543052673e-01" purity="5.6556296348571777e-01" nType="0">
          <Node pos="l" depth="2" NCoef="0" IVar="-1" Cut="0.0000000000000000e+00" cType="1" res="4.0589008131064475e-04" rms="4.7931900620460510e-01" purity="4.2751577496528625e-01" nType="-99"/>
          <Node pos="r" depth="2" NCoef="0" IVar="-1" Cut="0.0000000000000000e+00" cType="1" res="8.1005773972719908e-04" rms="4.5657357573509216e-01" purity="6.2501263618469238e-01" nType="-99"/>
        </Node>
      </Node>
    </BinaryTree>
    <BinaryTree type="DecisionTree" boostWeight="1.0000000000000000e+00" itree="648">
      <Node pos="s" depth="0" NCoef="0" IVar="2" Cut="7.3978656005859375e+02" cType="1" res="3.4312063362449408e-03" rms="4.5788839459419250e-01" purity="5.0121390819549561e-01" nType="0">
        <Node pos="l" depth="1" NCoef="0" IVar="1" Cut="9.8442471027374268e-01" cType="1" res="-1.8376210937276483e-03" rms="4.5904505252838135e-01" purity="4.8201969265937805e-01" nType="0">
          <Node pos="l" depth="2" NCoef="0" IVar="-1" Cut="0.0000000000000000e+00" cType="1" res="-1.5607759996782988e-04" rms="4.6497824788093567e-01" purity="4.4667381048202515e-01" nType="-99"/>
          <Node pos="r" depth="2" NCoef="0" IVar="-1" Cut="0.0000000000000000e+00" cType="1" res="7.2190747596323490e-04" rms="4.0152052044868469e-01" purity="7.8307998180389404e-01" nType="-99"/>
        </Node>
        <Node pos="r" depth="1" NCoef="0" IVar="-1" Cut="0.0000000000000000e+00" cType="1" res="8.8174355914816260e-04" rms="4.4141063094139099e-01" purity="7.0653259754180908e-01" nType="-99"/>
      </Node>
    </BinaryTree>
    <BinaryTree type="DecisionTree" boostWeight="1.0000000000000000e+00" itree="649">
      <Node pos="s" depth="0" NCoef="0" IVar="3" Cut="6.1116125434637070e-03" cType="1" res="4.0016034618020058e-03" rms="4.5942300558090210e-01" purity="4.9972033500671387e-01" nType="0">
        <Node pos="l" depth="1" NCoef="0" IVar="5" Cut="3.8975747680664062e+02" cType="1" res="-1.2059059925377369e-02" rms="4.5429879426956177e-01" purity="4.6561390161514282e-01" nType="0">
          <Node pos="l" depth="2" NCoef="0" IVar="-1" Cut="0.0000000000000000e+00" cType="1" res="-5.7377450866624713e-04" rms="4.5160061120986938e-01" purity="3.9932706952095032e-01" nType="-99"/>
          <Node pos="r" depth="2" NCoef="0" IVar="-1" Cut="0.0000000000000000e+00" cType="1" res="3.2120360992848873e-04" rms="4.5922681689262390e-01" purity="6.2709003686904907e-01" nType="-99"/>
        </Node>
        <Node pos="r" depth="1" NCoef="0" IVar="1" Cut="9.2745602130889893e-01" cType="1" res="1.8927549943327904e-02" rms="4.6363595128059387e-01" purity="5.3141713142395020e-01" nType="0">
          <Node pos="l" depth="2" NCoef="0" IVar="-1" Cut="0.0000000000000000e+00" cType="1" res="-1.7140725685749203e-04" rms="4.6772775053977966e-01" purity="3.7648615241050720e-01" nType="-99"/>
          <Node pos="r" depth="2" NCoef="0" IVar="-1" Cut="0.0000000000000000e+00" cType="1" res="4.3344422010704875e-04" rms="4.6240004897117615e-01" purity="5.6933200359344482e-01" nType="-99"/>
        </Node>
      </Node>
    </BinaryTree>
    <BinaryTree type="DecisionTree" boostWeight="1.0000000000000000e+00" itree="650">
      <Node pos="s" depth="0" NCoef="0" IVar="0" Cut="2.2845551371574402e-01" cType="1" res="7.8160325065255165e-03" rms="4.5852002501487732e-01" purity="5.0408869981765747e-01" nType="0">
        <Node pos="l" depth="1" NCoef="0" IVar="2" Cut="7.3924884033203125e+02" cType="1" res="3.4516034647822380e-03" rms="4.5866665244102478e-01" purity="5.0069862604141235e-01" nType="0">
          <Node pos="l" depth="2" NCoef="0" IVar="-1" Cut="0.0000000000000000e+00" cType="1" res="-4.1345010686200112e-05" rms="4.6029695868492126e-01" purity="4.7998848557472229e-01" nType="-99"/>
          <Node pos="r" depth="2" NCoef="0" IVar="-1" Cut="0.0000000000000000e+00" cType="1" res="8.7344099301844835e-04" rms="4.3793427944183350e-01" purity="7.0963186025619507e-01" nType="-99"/>
        </Node>
        <Node pos="r" depth="1" NCoef="0" IVar="-1" Cut="0.0000000000000000e+00" cType="1" res="1.3595935888588428e-03" rms="4.5010042190551758e-01" purity="5.5972552299499512e-01" nType="-99"/>
      </Node>
    </BinaryTree>
    <BinaryTree type="DecisionTree" boostWeight="1.0000000000000000e+00" itree="651">
      <Node pos="s" depth="0" NCoef="0" IVar="2" Cut="5.1436920166015625e+02" cType="1" res="1.9166239071637392e-03" rms="4.5981746912002563e-01" purity="4.9617350101470947e-01" nType="0">
        <Node pos="l" depth="1" NCoef="0" IVar="4" Cut="7.7746077440679073e-03" cType="1" res="-9.4903279095888138e-03" rms="4.6011605858802795e-01" purity="4.2506033182144165e-01" nType="0">
          <Node pos="l" depth="2" NCoef="0" IVar="-1" Cut="0.0000000000000000e+00" cType="1" res="5.1463790441630408e-05" rms="4.6140331029891968e-01" purity="4.5880231261253357e-01" nType="-99"/>
          <Node pos="r" depth="2" NCoef="0" IVar="-1" Cut="0.0000000000000000e+00" cType="1" res="-5.2050623344257474e-04" rms="4.5838028192520142e-01" purity="3.8889271020889282e-01" nType="-99"/>
        </Node>
        <Node pos="r" depth="1" NCoef="0" IVar="0" Cut="7.3926948010921478e-02" cType="1" res="2.5821050629019737e-02" rms="4.5827114582061768e-01" purity="6.4519828557968140e-01" nType="0">
          <Node pos="l" depth="2" NCoef="0" IVar="-1" Cut="0.0000000000000000e+00" cType="1" res="6.0339239098539110e-06" rms="4.6855428814888000e-01" purity="6.0416311025619507e-01" nType="-99"/>
          <Node pos="r" depth="2" NCoef="0" IVar="-1" Cut="0.0000000000000000e+00" cType="1" res="1.0002468479797244e-03" rms="4.3685927987098694e-01" purity="7.1492737531661987e-01" nType="-99"/>
        </Node>
      </Node>
    </BinaryTree>
    <BinaryTree type="DecisionTree" boostWeight="1.0000000000000000e+00" itree="652">
      <Node pos="s" depth="0" NCoef="0" IVar="2" Cut="7.4007440185546875e+02" cType="1" res="9.1321840882301331e-03" rms="4.6026140451431274e-01" purity="5.0566935539245605e-01" nType="0">
        <Node pos="l" depth="1" NCoef="0" IVar="3" Cut="2.2463533282279968e-01" cType="1" res="4.2766411788761616e-03" rms="4.6163851022720337e-01" purity="4.8671513795852661e-01" nType="0">
          <Node pos="l" depth="2" NCoef="0" IVar="-1" Cut="0.0000000000000000e+00" cType="1" res="-1.4036448192200623e-05" rms="4.6081784367561340e-01" purity="4.7843039035797119e-01" nType="-99"/>
          <Node pos="r" depth="2" NCoef="0" IVar="-1" Cut="0.0000000000000000e+00" cType="1" res="1.0099249193444848e-03" rms="4.6714332699775696e-01" purity="5.8175694942474365e-01" nType="-99"/>
        </Node>
        <Node pos="r" depth="1" NCoef="0" IVar="-1" Cut="0.0000000000000000e+00" cType="1" res="9.1659493045881391e-04" rms="4.4177713990211487e-01" purity="7.0992970466613770e-01" nType="-99"/>
      </Node>
    </BinaryTree>
    <BinaryTree type="DecisionTree" boostWeight="1.0000000000000000e+00" itree="653">
      <Node pos="s" depth="0" NCoef="0" IVar="1" Cut="9.4586515426635742e-01" cType="1" res="-1.4402216766029596e-04" rms="4.6095114946365356e-01" purity="4.9445983767509460e-01" nType="0">
        <Node pos="l" depth="1" NCoef="0" IVar="3" Cut="1.4470492303371429e-01" cType="1" res="-2.0366622135043144e-02" rms="4.5936501026153564e-01" purity="3.6964547634124756e-01" nType="0">
          <Node pos="l" depth="2" NCoef="0" IVar="-1" Cut="0.0000000000000000e+00" cType="1" res="-6.9613027153536677e-04" rms="4.5423486828804016e-01" purity="3.5284247994422913e-01" nType="-99"/>
          <Node pos="r" depth="2" NCoef="0" IVar="-1" Cut="0.0000000000000000e+00" cType="1" res="1.5826214803382754e-04" rms="4.7666874527931213e-01" purity="4.3132990598678589e-01" nType="-99"/>
        </Node>
        <Node pos="r" depth="1" NCoef="0" IVar="6" Cut="1.9970611333847046e+00" cType="1" res="1.3666206039488316e-02" rms="4.6152231097221375e-01" purity="5.7969683408737183e-01" nType="0">
          <Node pos="l" depth="2" NCoef="0" IVar="-1" Cut="0.0000000000000000e+00" cType="1" res="7.4826960917562246e-04" rms="4.4634059071540833e-01" purity="6.6003376245498657e-01" nType="-99"/>
          <Node pos="r" depth="2" NCoef="0" IVar="-1" Cut="0.0000000000000000e+00" cType="1" res="3.3667580282781273e-05" rms="4.6590200066566467e-01" purity="5.5281370878219604e-01" nType="-99"/>
        </Node>
      </Node>
    </BinaryTree>
    <BinaryTree type="DecisionTree" boostWeight="1.0000000000000000e+00" itree="654">
      <Node pos="s" depth="0" NCoef="0" IVar="1" Cut="9.8411780595779419e-01" cType="1" res="4.5673758722841740e-03" rms="4.5830333232879639e-01" purity="5.0227826833724976e-01" nType="0">
        <Node pos="l" depth="1" NCoef="0" IVar="2" Cut="4.8267938232421875e+02" cType="1" res="-1.3072350993752480e-03" rms="4.6513807773590088e-01" purity="4.6688187122344971e-01" nType="0">
          <Node pos="l" depth="2" NCoef="0" IVar="-1" Cut="0.0000000000000000e+00" cType="1" res="-3.4167888225056231e-04" rms="4.6070864796638489e-01" purity="3.7317460775375366e-01" nType="-99"/>
          <Node pos="r" depth="2" NCoef="0" IVar="-1" Cut="0.0000000000000000e+00" cType="1" res="2.9608397744596004e-04" rms="4.7106152772903442e-01" purity="6.0901182889938354e-01" nType="-99"/>
        </Node>
        <Node pos="r" depth="1" NCoef="0" IVar="-1" Cut="0.0000000000000000e+00" cType="1" res="7.9078000271692872e-04" rms="3.9451089501380920e-01" purity="7.9276090860366821e-01" nType="-99"/>
      </Node>
    </BinaryTree>
    <BinaryTree type="DecisionTree" boostWeight="1.0000000000000000e+00" itree="655">
      <Node pos="s" depth="0" NCoef="0" IVar="5" Cut="4.1019665527343750e+02" cType="1" res="2.9727849178016186e-03" rms="4.5815020799636841e-01" purity="5.0096666812896729e-01" nType="0">
        <Node pos="l" depth="1" NCoef="0" IVar="3" Cut="-1.2093959748744965e-01" cType="1" res="-7.3032691143453121e-03" rms="4.5961353182792664e-01" purity="4.5237663388252258e-01" nType="0">
          <Node pos="l" depth="2" NCoef="0" IVar="-1" Cut="0.0000000000000000e+00" cType="1" res="-1.6154339537024498e-03" rms="4.2964723706245422e-01" purity="3.2758781313896179e-01" nType="-99"/>
          <Node pos="r" depth="2" NCoef="0" IVar="-1" Cut="0.0000000000000000e+00" cType="1" res="-6.6862441599369049e-05" rms="4.6148917078971863e-01" purity="4.6153590083122253e-01" nType="-99"/>
        </Node>
        <Node pos="r" depth="1" NCoef="0" IVar="0" Cut="4.1234858334064484e-02" cType="1" res="3.8030568510293961e-02" rms="4.5136517286300659e-01" purity="6.6673636436462402e-01" nType="0">
          <Node pos="l" depth="2" NCoef="0" IVar="-1" Cut="0.0000000000000000e+00" cType="1" res="1.6179381054826081e-04" rms="4.6678808331489563e-01" purity="6.1509364843368530e-01" nType="-99"/>
          <Node pos="r" depth="2" NCoef="0" IVar="-1" Cut="0.0000000000000000e+00" cType="1" res="8.9020049199461937e-04" rms="4.3777969479560852e-01" purity="7.0683401823043823e-01" nType="-99"/>
        </Node>
      </Node>
    </BinaryTree>
    <BinaryTree type="DecisionTree" boostWeight="1.0000000000000000e+00" itree="656">
      <Node pos="s" depth="0" NCoef="0" IVar="6" Cut="1.8135366439819336e+00" cType="1" res="3.7177696358412504e-03" rms="4.6045112609863281e-01" purity="4.9951472878456116e-01" nType="0">
        <Node pos="l" depth="1" NCoef="0" IVar="5" Cut="2.6180023193359375e+02" cType="1" res="4.4931493699550629e-02" rms="4.5181253552436829e-01" purity="5.9412169456481934e-01" nType="0">
          <Node pos="l" depth="2" NCoef="0" IVar="-1" Cut="0.0000000000000000e+00" cType="1" res="-5.5942255130503327e-05" rms="4.6908402442932129e-01" purity="4.1451042890548706e-01" nType="-99"/>
          <Node pos="r" depth="2" NCoef="0" IVar="-1" Cut="0.0000000000000000e+00" cType="1" res="1.0300555732101202e-03" rms="4.3968152999877930e-01" purity="6.9414120912551880e-01" nType="-99"/>
        </Node>
        <Node pos="r" depth="1" NCoef="0" IVar="4" Cut="7.1662683039903641e-03" cType="1" res="-3.4412785898894072e-03" rms="4.6156024932861328e-01" purity="4.8308098316192627e-01" nType="0">
          <Node pos="l" depth="2" NCoef="0" IVar="-1" Cut="0.0000000000000000e+00" cType="1" res="2.5118273333646357e-04" rms="4.5932164788246155e-01" purity="5.1647979021072388e-01" nType="-99"/>
          <Node pos="r" depth="2" NCoef="0" IVar="-1" Cut="0.0000000000000000e+00" cType="1" res="-3.8714174297638237e-04" rms="4.6303230524063110e-01" purity="4.5293042063713074e-01" nType="-99"/>
        </Node>
      </Node>
    </BinaryTree>
    <BinaryTree type="DecisionTree" boostWeight="1.0000000000000000e+00" itree="657">
      <Node pos="s" depth="0" NCoef="0" IVar="5" Cut="4.1019665527343750e+02" cType="1" res="4.7913612797856331e-03" rms="4.5869243144989014e-01" purity="5.0094121694564819e-01" nType="0">
        <Node pos="l" depth="1" NCoef="0" IVar="3" Cut="7.9178571701049805e-02" cType="1" res="-3.6803036928176880e-03" rms="4.5922097563743591e-01" purity="4.5607995986938477e-01" nType="0">
          <Node pos="l" depth="2" NCoef="0" IVar="-1" Cut="0.0000000000000000e+00" cType="1" res="-3.8840770139358938e-04" rms="4.5372307300567627e-01" purity="4.2621564865112305e-01" nType="-99"/>
          <Node pos="r" depth="2" NCoef="0" IVar="-1" Cut="0.0000000000000000e+00" cType="1" res="4.2358617065474391e-04" rms="4.6809336543083191e-01" purity="5.1155370473861694e-01" nType="-99"/>
        </Node>
        <Node pos="r" depth="1" NCoef="0" IVar="0" Cut="4.1234858334064484e-02" cType="1" res="3.4713886678218842e-02" rms="4.5556154847145081e-01" purity="6.5939444303512573e-01" nType="0">
          <Node pos="l" depth="2" NCoef="0" IVar="-1" Cut="0.0000000000000000e+00" cType="1" res="-1.9436391085037030e-05" rms="4.7196096181869507e-01" purity="6.0040223598480225e-01" nType="-99"/>
          <Node pos="r" depth="2" NCoef="0" IVar="-1" Cut="0.0000000000000000e+00" cType="1" res="9.2130654957145452e-04" rms="4.4062435626983643e-01" purity="7.0455557107925415e-01" nType="-99"/>
        </Node>
      </Node>
    </BinaryTree>
    <BinaryTree type="DecisionTree" boostWeight="1.0000000000000000e+00" itree="658">
      <Node pos="s" depth="0" NCoef="0" IVar="2" Cut="7.3783959960937500e+02" cType="1" res="4.8799291253089905e-03" rms="4.6030813455581665e-01" purity="4.9966251850128174e-01" nType="0">
        <Node pos="l" depth="1" NCoef="0" IVar="0" Cut="7.2121851146221161e-02" cType="1" res="2.3317423256230541e-05" rms="4.6183925867080688e-01" purity="4.8023647069931030e-01" nType="0">
          <Node pos="l" depth="2" NCoef="0" IVar="-1" Cut="0.0000000000000000e+00" cType="1" res="-4.2360415682196617e-04" rms="4.6597751975059509e-01" purity="4.5359075069427490e-01" nType="-99"/>
          <Node pos="r" depth="2" NCoef="0" IVar="-1" Cut="0.0000000000000000e+00" cType="1" res="2.8137641493231058e-04" rms="4.5826116204261780e-01" purity="4.9940973520278931e-01" nType="-99"/>
        </Node>
        <Node pos="r" depth="1" NCoef="0" IVar="-1" Cut="0.0000000000000000e+00" cType="1" res="8.5287797264754772e-04" rms="4.4015052914619446e-01" purity="7.0842725038528442e-01" nType="-99"/>
      </Node>
    </BinaryTree>
    <BinaryTree type="DecisionTree" boostWeight="1.0000000000000000e+00" itree="659">
      <Node pos="s" depth="0" NCoef="0" IVar="6" Cut="2.0064046382904053e+00" cType="1" res="3.3167011570185423e-03" rms="4.6146970987319946e-01" purity="4.9757868051528931e-01" nType="0">
        <Node pos="l" depth="1" NCoef="0" IVar="6" Cut="1.5398764610290527e+00" cType="1" res="3.0021775513887405e-02" rms="4.5919501781463623e-01" purity="5.7070821523666382e-01" nType="0">
          <Node pos="l" depth="2" NCoef="0" IVar="-1" Cut="0.0000000000000000e+00" cType="1" res="9.3936221674084663e-04" rms="4.4221484661102295e-01" purity="6.2499266862869263e-01" nType="-99"/>
          <Node pos="r" depth="2" NCoef="0" IVar="-1" Cut="0.0000000000000000e+00" cType="1" res="3.2598496181890368e-04" rms="4.6502670645713806e-01" purity="5.4993450641632080e-01" nType="-99"/>
        </Node>
        <Node pos="r" depth="1" NCoef="0" IVar="4" Cut="4.5764591544866562e-02" cType="1" res="-5.3351512178778648e-03" rms="4.6187323331832886e-01" purity="4.7388634085655212e-01" nType="0">
          <Node pos="l" depth="2" NCoef="0" IVar="-1" Cut="0.0000000000000000e+00" cType="1" res="1.5560770407319069e-04" rms="4.6173602342605591e-01" purity="5.0088083744049072e-01" nType="-99"/>
          <Node pos="r" depth="2" NCoef="0" IVar="-1" Cut="0.0000000000000000e+00" cType="1" res="-6.1871908837929368e-04" rms="4.6118071675300598e-01" purity="4.2745730280876160e-01" nType="-99"/>
        </Node>
      </Node>
    </BinaryTree>
    <BinaryTree type="DecisionTree" boostWeight="1.0000000000000000e+00" itree="660">
      <Node pos="s" depth="0" NCoef="0" IVar="5" Cut="2.6588882446289062e+02" cType="1" res="3.9364062249660492e-03" rms="4.5944291353225708e-01" purity="4.9953523278236389e-01" nType="0">
        <Node pos="l" depth="1" NCoef="0" IVar="2" Cut="3.5319430541992188e+02" cType="1" res="-1.8286187201738358e-02" rms="4.4286730885505676e-01" purity="3.4516146779060364e-01" nType="0">
          <Node pos="l" depth="2" NCoef="0" IVar="-1" Cut="0.0000000000000000e+00" cType="1" res="-1.1097005335614085e-03" rms="4.2123699188232422e-01" purity="2.7761220932006836e-01" nType="-99"/>
          <Node pos="r" depth="2" NCoef="0" IVar="-1" Cut="0.0000000000000000e+00" cType="1" res="9.8642638477031142e-05" rms="4.7016286849975586e-01" purity="4.3854704499244690e-01" nType="-99"/>
        </Node>
        <Node pos="r" depth="1" NCoef="0" IVar="0" Cut="1.6878375411033630e-01" cType="1" res="1.4818319119513035e-02" rms="4.6695971488952637e-01" purity="5.7512867450714111e-01" nType="0">
          <Node pos="l" depth="2" NCoef="0" IVar="-1" Cut="0.0000000000000000e+00" cType="1" res="1.0545120312599465e-04" rms="4.6826216578483582e-01" purity="5.6374460458755493e-01" nType="-99"/>
          <Node pos="r" depth="2" NCoef="0" IVar="-1" Cut="0.0000000000000000e+00" cType="1" res="1.1888453736901283e-03" rms="4.5155611634254456e-01" purity="6.6154879331588745e-01" nType="-99"/>
        </Node>
      </Node>
    </BinaryTree>
    <BinaryTree type="DecisionTree" boostWeight="1.0000000000000000e+00" itree="661">
      <Node pos="s" depth="0" NCoef="0" IVar="2" Cut="5.5412701416015625e+02" cType="1" res="4.8641758039593697e-03" rms="4.5852470397949219e-01" purity="5.0152605772018433e-01" nType="0">
        <Node pos="l" depth="1" NCoef="0" IVar="2" Cut="3.1125674438476562e+02" cType="1" res="-5.4680285975337029e-03" rms="4.6036547422409058e-01" purity="4.4423854351043701e-01" nType="0">
          <Node pos="l" depth="2" NCoef="0" IVar="-1" Cut="0.0000000000000000e+00" cType="1" res="-2.1272557787597179e-03" rms="3.9655137062072754e-01" purity="2.2267781198024750e-01" nType="-99"/>
          <Node pos="r" depth="2" NCoef="0" IVar="-1" Cut="0.0000000000000000e+00" cType="1" res="9.6456242317799479e-06" rms="4.6722021698951721e-01" purity="4.7132343053817749e-01" nType="-99"/>
        </Node>
        <Node pos="r" depth="1" NCoef="0" IVar="0" Cut="6.8998523056507111e-02" cType="1" res="3.4617342054843903e-02" rms="4.5186436176300049e-01" purity="6.6649419069290161e-01" nType="0">
          <Node pos="l" depth="2" NCoef="0" IVar="-1" Cut="0.0000000000000000e+00" cType="1" res="7.8895543992985040e-05" rms="4.6657571196556091e-01" purity="6.1867535114288330e-01" nType="-99"/>
          <Node pos="r" depth="2" NCoef="0" IVar="-1" Cut="0.0000000000000000e+00" cType="1" res="1.1980837443843484e-03" rms="4.2126330733299255e-01" purity="7.4696350097656250e-01" nType="-99"/>
        </Node>
      </Node>
    </BinaryTree>
    <BinaryTree type="DecisionTree" boostWeight="1.0000000000000000e+00" itree="662">
      <Node pos="s" depth="0" NCoef="0" IVar="3" Cut="8.7546043097972870e-02" cType="1" res="6.5461765043437481e-03" rms="4.6102452278137207e-01" purity="5.0137406587600708e-01" nType="0">
        <Node pos="l" depth="1" NCoef="0" IVar="0" Cut="9.0372912585735321e-02" cType="1" res="-3.7758043035864830e-03" rms="4.5934045314788818e-01" purity="4.8012498021125793e-01" nType="0">
          <Node pos="l" depth="2" NCoef="0" IVar="-1" Cut="0.0000000000000000e+00" cType="1" res="-5.0255388487130404e-04" rms="4.5944368839263916e-01" purity="4.5989769697189331e-01" nType="-99"/>
          <Node pos="r" depth="2" NCoef="0" IVar="-1" Cut="0.0000000000000000e+00" cType="1" res="3.4528048126958311e-04" rms="4.5820221304893494e-01" purity="5.0159811973571777e-01" nType="-99"/>
        </Node>
        <Node pos="r" depth="1" NCoef="0" IVar="1" Cut="9.2547422647476196e-01" cType="1" res="2.8375893831253052e-02" rms="4.6381005644798279e-01" purity="5.4631334543228149e-01" nType="0">
          <Node pos="l" depth="2" NCoef="0" IVar="-1" Cut="0.0000000000000000e+00" cType="1" res="-2.3339883773587644e-04" rms="4.6218639612197876e-01" purity="3.8506931066513062e-01" nType="-99"/>
          <Node pos="r" depth="2" NCoef="0" IVar="-1" Cut="0.0000000000000000e+00" cType="1" res="6.1862234724685550e-04" rms="4.6372720599174500e-01" purity="5.8221280574798584e-01" nType="-99"/>
        </Node>
      </Node>
    </BinaryTree>
    <BinaryTree type="DecisionTree" boostWeight="1.0000000000000000e+00" itree="663">
      <Node pos="s" depth="0" NCoef="0" IVar="3" Cut="-1.0203611850738525e-01" cType="1" res="4.3168063275516033e-03" rms="4.5929476618766785e-01" purity="5.0005918741226196e-01" nType="0">
        <Node pos="l" depth="1" NCoef="0" IVar="6" Cut="2.4516985416412354e+00" cType="1" res="-3.1701624393463135e-02" rms="4.4812560081481934e-01" purity="4.2350137233734131e-01" nType="0">
          <Node pos="l" depth="2" NCoef="0" IVar="-1" Cut="0.0000000000000000e+00" cType="1" res="-2.3618359409738332e-04" rms="4.6155712008476257e-01" purity="5.0124847888946533e-01" nType="-99"/>
          <Node pos="r" depth="2" NCoef="0" IVar="-1" Cut="0.0000000000000000e+00" cType="1" res="-1.7635653493925929e-03" rms="4.2551529407501221e-01" purity="3.0649051070213318e-01" nType="-99"/>
        </Node>
        <Node pos="r" depth="1" NCoef="0" IVar="1" Cut="9.7837632894515991e-01" cType="1" res="1.0436964221298695e-02" rms="4.6088603138923645e-01" purity="5.1306766271591187e-01" nType="0">
          <Node pos="l" depth="2" NCoef="0" IVar="-1" Cut="0.0000000000000000e+00" cType="1" res="7.9548066423740238e-05" rms="4.6972984075546265e-01" purity="4.6489495038986206e-01" nType="-99"/>
          <Node pos="r" depth="2" NCoef="0" IVar="-1" Cut="0.0000000000000000e+00" cType="1" res="6.6313944989815354e-04" rms="4.0982064604759216e-01" purity="7.6561921834945679e-01" nType="-99"/>
        </Node>
      </Node>
    </BinaryTree>
    <BinaryTree type="DecisionTree" boostWeight="1.0000000000000000e+00" itree="664">
      <Node pos="s" depth="0" NCoef="0" IVar="6" Cut="1.5220841169357300e+00" cType="1" res="5.8496920391917229e-03" rms="4.5984789729118347e-01" purity="5.0124555826187134e-01" nType="0">
        <Node pos="l" depth="1" NCoef="0" IVar="-1" Cut="0.0000000000000000e+00" cType="1" res="9.6970394952222705e-04" rms="4.4083440303802490e-01" purity="6.2924468517303467e-01" nType="-99"/>
        <Node pos="r" depth="1" NCoef="0" IVar="4" Cut="1.6495002433657646e-02" cType="1" res="1.8089798977598548e-03" rms="4.6089750528335571e-01" purity="4.9217742681503296e-01" nType="0">
          <Node pos="l" depth="2" NCoef="0" IVar="-1" Cut="0.0000000000000000e+00" cType="1" res="2.8859218582510948e-04" rms="4.5916724205017090e-01" purity="5.2019989490509033e-01" nType="-99"/>
          <Node pos="r" depth="2" NCoef="0" IVar="-1" Cut="0.0000000000000000e+00" cType="1" res="-2.7428800240159035e-04" rms="4.6231403946876526e-01" purity="4.6126145124435425e-01" nType="-99"/>
        </Node>
      </Node>
    </BinaryTree>
    <BinaryTree type="DecisionTree" boostWeight="1.0000000000000000e+00" itree="665">
      <Node pos="s" depth="0" NCoef="0" IVar="5" Cut="5.2411175537109375e+02" cType="1" res="2.3218309506773949e-03" rms="4.5988327264785767e-01" purity="4.9822533130645752e-01" nType="0">
        <Node pos="l" depth="1" NCoef="0" IVar="3" Cut="1.5334960818290710e-01" cType="1" res="-2.8963633812963963e-03" rms="4.6098077297210693e-01" purity="4.7763514518737793e-01" nType="0">
          <Node pos="l" depth="2" NCoef="0" IVar="-1" Cut="0.0000000000000000e+00" cType="1" res="-1.9972330483142287e-04" rms="4.5859602093696594e-01" purity="4.6327921748161316e-01" nType="-99"/>
          <Node pos="r" depth="2" NCoef="0" IVar="-1" Cut="0.0000000000000000e+00" cType="1" res="4.5825366396456957e-04" rms="4.6961966156959534e-01" purity="5.3711295127868652e-01" nType="-99"/>
        </Node>
        <Node pos="r" depth="1" NCoef="0" IVar="-1" Cut="0.0000000000000000e+00" cType="1" res="7.8435760224238038e-04" rms="4.4623437523841858e-01" purity="6.9449651241302490e-01" nType="-99"/>
      </Node>
    </BinaryTree>
    <BinaryTree type="DecisionTree" boostWeight="1.0000000000000000e+00" itree="666">
      <Node pos="s" depth="0" NCoef="0" IVar="1" Cut="9.8424941301345825e-01" cType="1" res="-3.9204454515129328e-04" rms="4.5860400795936584e-01" purity="4.9655202031135559e-01" nType="0">
        <Node pos="l" depth="1" NCoef="0" IVar="0" Cut="1.1188101768493652e-01" cType="1" res="-6.2397336587309837e-03" rms="4.6491938829421997e-01" purity="4.6125209331512451e-01" nType="0">
          <Node pos="l" depth="2" NCoef="0" IVar="-1" Cut="0.0000000000000000e+00" cType="1" res="-3.3721944782882929e-04" rms="4.6566778421401978e-01" purity="4.5591044425964355e-01" nType="-99"/>
          <Node pos="r" depth="2" NCoef="0" IVar="-1" Cut="0.0000000000000000e+00" cType="1" res="2.8102626674808562e-04" rms="4.6272790431976318e-01" purity="4.7182983160018921e-01" nType="-99"/>
        </Node>
        <Node pos="r" depth="1" NCoef="0" IVar="-1" Cut="0.0000000000000000e+00" cType="1" res="7.1667769225314260e-04" rms="3.9994412660598755e-01" purity="7.8577381372451782e-01" nType="-99"/>
      </Node>
    </BinaryTree>
    <BinaryTree type="DecisionTree" boostWeight="1.0000000000000000e+00" itree="667">
      <Node pos="s" depth="0" NCoef="0" IVar="1" Cut="9.5133036375045776e-01" cType="1" res="1.7587415641173720e-03" rms="4.5884817838668823e-01" purity="4.9651515483856201e-01" nType="0">
        <Node pos="l" depth="1" NCoef="0" IVar="4" Cut="-6.8304143846035004e-02" cType="1" res="-1.6624838113784790e-02" rms="4.6061414480209351e-01" purity="3.8347020745277405e-01" nType="0">
          <Node pos="l" depth="2" NCoef="0" IVar="-1" Cut="0.0000000000000000e+00" cType="1" res="4.4795963913202286e-04" rms="4.6963468194007874e-01" purity="4.3058109283447266e-01" nType="-99"/>
          <Node pos="r" depth="2" NCoef="0" IVar="-1" Cut="0.0000000000000000e+00" cType="1" res="-5.0047895638272166e-04" rms="4.5920446515083313e-01" purity="3.7740567326545715e-01" nType="-99"/>
        </Node>
        <Node pos="r" depth="1" NCoef="0" IVar="2" Cut="4.9590567016601562e+02" cType="1" res="1.9742755219340324e-02" rms="4.5639804005622864e-01" purity="6.0710310935974121e-01" nType="0">
          <Node pos="l" depth="2" NCoef="0" IVar="-1" Cut="0.0000000000000000e+00" cType="1" res="6.3721032347530127e-05" rms="4.7101840376853943e-01" purity="5.3004038333892822e-01" nType="-99"/>
          <Node pos="r" depth="2" NCoef="0" IVar="-1" Cut="0.0000000000000000e+00" cType="1" res="6.8038352765142918e-04" rms="4.3081161379814148e-01" purity="7.2998249530792236e-01" nType="-99"/>
        </Node>
      </Node>
    </BinaryTree>
    <BinaryTree type="DecisionTree" boostWeight="1.0000000000000000e+00" itree="668">
      <Node pos="s" depth="0" NCoef="0" IVar="3" Cut="8.6169436573982239e-02" cType="1" res="3.3118375577032566e-03" rms="4.5887815952301025e-01" purity="4.9917462468147278e-01" nType="0">
        <Node pos="l" depth="1" NCoef="0" IVar="1" Cut="9.6020060777664185e-01" cType="1" res="-9.2894174158573151e-03" rms="4.5518040657043457e-01" purity="4.7599750757217407e-01" nType="0">
          <Node pos="l" depth="2" NCoef="0" IVar="-1" Cut="0.0000000000000000e+00" cType="1" res="-6.0484569985419512e-04" rms="4.5619294047355652e-01" purity="3.7612187862396240e-01" nType="-99"/>
          <Node pos="r" depth="2" NCoef="0" IVar="-1" Cut="0.0000000000000000e+00" cType="1" res="2.7918783598579466e-04" rms="4.5228224992752075e-01" purity="6.3591623306274414e-01" nType="-99"/>
        </Node>
        <Node pos="r" depth="1" NCoef="0" IVar="1" Cut="9.3162864446640015e-01" cType="1" res="2.9270280152559280e-02" rms="4.6532875299453735e-01" purity="5.4691922664642334e-01" nType="0">
          <Node pos="l" depth="2" NCoef="0" IVar="-1" Cut="0.0000000000000000e+00" cType="1" res="-8.4530707681551576e-05" rms="4.6640717983245850e-01" purity="3.9509788155555725e-01" nType="-99"/>
          <Node pos="r" depth="2" NCoef="0" IVar="-1" Cut="0.0000000000000000e+00" cType="1" res="6.5513997105881572e-04" rms="4.6448618173599243e-01" purity="5.9538477659225464e-01" nType="-99"/>
        </Node>
      </Node>
    </BinaryTree>
    <BinaryTree type="DecisionTree" boostWeight="1.0000000000000000e+00" itree="669">
      <Node pos="s" depth="0" NCoef="0" IVar="1" Cut="9.6664190292358398e-01" cType="1" res="1.3101827353239059e-03" rms="4.5877516269683838e-01" purity="4.9765112996101379e-01" nType="0">
        <Node pos="l" depth="1" NCoef="0" IVar="0" Cut="1.2442811578512192e-01" cType="1" res="-8.5734920576214790e-03" rms="4.6553841233253479e-01" purity="4.2170566320419312e-01" nType="0">
          <Node pos="l" depth="2" NCoef="0" IVar="-1" Cut="0.0000000000000000e+00" cType="1" res="-3.9288404514081776e-04" rms="4.6637964248657227e-01" purity="4.1706129908561707e-01" nType="-99"/>
          <Node pos="r" depth="2" NCoef="0" IVar="-1" Cut="0.0000000000000000e+00" cType="1" res="3.4914872958324850e-04" rms="4.6237596869468689e-01" purity="4.3365460634231567e-01" nType="-99"/>
        </Node>
        <Node pos="r" depth="1" NCoef="0" IVar="2" Cut="5.0588507080078125e+02" cType="1" res="2.5337604805827141e-02" rms="4.4097915291786194e-01" purity="6.8227618932723999e-01" nType="0">
          <Node pos="l" depth="2" NCoef="0" IVar="-1" Cut="0.0000000000000000e+00" cType="1" res="6.3573148509021848e-05" rms="4.6429449319839478e-01" purity="6.1685627698898315e-01" nType="-99"/>
          <Node pos="r" depth="2" NCoef="0" IVar="-1" Cut="0.0000000000000000e+00" cType="1" res="8.9950428809970617e-04" rms="3.9686855673789978e-01" purity="7.9059243202209473e-01" nType="-99"/>
        </Node>
      </Node>
    </BinaryTree>
    <BinaryTree type="DecisionTree" boostWeight="1.0000000000000000e+00" itree="670">
      <Node pos="s" depth="0" NCoef="0" IVar="2" Cut="7.4472863769531250e+02" cType="1" res="1.1309592518955469e-03" rms="4.5907920598983765e-01" purity="4.9647617340087891e-01" nType="0">
        <Node pos="l" depth="1" NCoef="0" IVar="0" Cut="9.2564880847930908e-02" cType="1" res="-3.7649602163583040e-03" rms="4.6020486950874329e-01" purity="4.7795057296752930e-01" nType="0">
          <Node pos="l" depth="2" NCoef="0" IVar="-1" Cut="0.0000000000000000e+00" cType="1" res="-3.7091595004312694e-04" rms="4.6208986639976501e-01" purity="4.6045154333114624e-01" nType="-99"/>
          <Node pos="r" depth="2" NCoef="0" IVar="-1" Cut="0.0000000000000000e+00" cType="1" res="2.5726508465595543e-04" rms="4.5734614133834839e-01" purity="4.9880629777908325e-01" nType="-99"/>
        </Node>
        <Node pos="r" depth="1" NCoef="0" IVar="-1" Cut="0.0000000000000000e+00" cType="1" res="8.4307033102959394e-04" rms="4.4236829876899719e-01" purity="7.0626980066299438e-01" nType="-99"/>
      </Node>
    </BinaryTree>
    <BinaryTree type="DecisionTree" boostWeight="1.0000000000000000e+00" itree="671">
      <Node pos="s" depth="0" NCoef="0" IVar="3" Cut="8.6009889841079712e-02" cType="1" res="3.0992724932730198e-03" rms="4.5910203456878662e-01" purity="4.9899670481681824e-01" nType="0">
        <Node pos="l" depth="1" NCoef="0" IVar="4" Cut="4.5764591544866562e-02" cType="1" res="-9.0111158788204193e-03" rms="4.5571574568748474e-01" purity="4.7641679644584656e-01" nType="0">
          <Node pos="l" depth="2" NCoef="0" IVar="-1" Cut="0.0000000000000000e+00" cType="1" res="1.2679642532020807e-04" rms="4.5790037512779236e-01" purity="5.0554674863815308e-01" nType="-99"/>
          <Node pos="r" depth="2" NCoef="0" IVar="-1" Cut="0.0000000000000000e+00" cType="1" res="-1.0878202738240361e-03" rms="4.4796767830848694e-01" purity="4.0490758419036865e-01" nType="-99"/>
        </Node>
        <Node pos="r" depth="1" NCoef="0" IVar="3" Cut="1.7863920331001282e-01" cType="1" res="2.8445500880479813e-02" rms="4.6509015560150146e-01" purity="5.4625499248504639e-01" nType="0">
          <Node pos="l" depth="2" NCoef="0" IVar="-1" Cut="0.0000000000000000e+00" cType="1" res="2.8754543745890260e-04" rms="4.6562671661376953e-01" purity="5.2561771869659424e-01" nType="-99"/>
          <Node pos="r" depth="2" NCoef="0" IVar="-1" Cut="0.0000000000000000e+00" cType="1" res="7.4093724833801389e-04" rms="4.6402615308761597e-01" purity="5.7046097517013550e-01" nType="-99"/>
        </Node>
      </Node>
    </BinaryTree>
    <BinaryTree type="DecisionTree" boostWeight="1.0000000000000000e+00" itree="672">
      <Node pos="s" depth="0" NCoef="0" IVar="6" Cut="2.0064046382904053e+00" cType="1" res="1.1707406491041183e-02" rms="4.6053993701934814e-01" purity="5.0663721561431885e-01" nType="0">
        <Node pos="l" depth="1" NCoef="0" IVar="0" Cut="1.1811241507530212e-01" cType="1" res="3.8312837481498718e-02" rms="4.5834943652153015e-01" purity="5.7785451412200928e-01" nType="0">
          <Node pos="l" depth="2" NCoef="0" IVar="-1" Cut="0.0000000000000000e+00" cType="1" res="3.9570833905600011e-04" rms="4.5736476778984070e-01" purity="5.7869058847427368e-01" nType="-99"/>
          <Node pos="r" depth="2" NCoef="0" IVar="-1" Cut="0.0000000000000000e+00" cType="1" res="1.0525502730160952e-03" rms="4.5891091227531433e-01" purity="5.7644546031951904e-01" nType="-99"/>
        </Node>
        <Node pos="r" depth="1" NCoef="0" IVar="4" Cut="2.4483490735292435e-02" cType="1" res="3.1249697785824537e-03" rms="4.6091684699058533e-01" purity="4.8366376757621765e-01" nType="0">
          <Node pos="l" depth="2" NCoef="0" IVar="-1" Cut="0.0000000000000000e+00" cType="1" res="3.5078354994766414e-04" rms="4.6032056212425232e-01" purity="5.1556378602981567e-01" nType="-99"/>
          <Node pos="r" depth="2" NCoef="0" IVar="-1" Cut="0.0000000000000000e+00" cType="1" res="-3.3218896714970469e-04" rms="4.6092376112937927e-01" purity="4.4531077146530151e-01" nType="-99"/>
        </Node>
      </Node>
    </BinaryTree>
    <BinaryTree type="DecisionTree" boostWeight="1.0000000000000000e+00" itree="673">
      <Node pos="s" depth="0" NCoef="0" IVar="4" Cut="1.2526802718639374e-01" cType="1" res="3.6641219630837440e-03" rms="4.6063390374183655e-01" purity="4.9793857336044312e-01" nType="0">
        <Node pos="l" depth="1" NCoef="0" IVar="2" Cut="6.4697155761718750e+02" cType="1" res="8.7906494736671448e-03" rms="4.6106961369514465e-01" purity="5.0661933422088623e-01" nType="0">
          <Node pos="l" depth="2" NCoef="0" IVar="-1" Cut="0.0000000000000000e+00" cType="1" res="4.9351510824635625e-05" rms="4.6315270662307739e-01" purity="4.7711801528930664e-01" nType="-99"/>
          <Node pos="r" depth="2" NCoef="0" IVar="-1" Cut="0.0000000000000000e+00" cType="1" res="7.5356697198003531e-04" rms="4.4476506114006042e-01" purity="7.0236462354660034e-01" nType="-99"/>
        </Node>
        <Node pos="r" depth="1" NCoef="0" IVar="3" Cut="1.7886576056480408e-01" cType="1" res="-2.8472393751144409e-02" rms="4.5658355951309204e-01" purity="4.4352167844772339e-01" nType="0">
          <Node pos="l" depth="2" NCoef="0" IVar="-1" Cut="0.0000000000000000e+00" cType="1" res="-1.5187136596068740e-03" rms="4.4549912214279175e-01" purity="3.7292885780334473e-01" nType="-99"/>
          <Node pos="r" depth="2" NCoef="0" IVar="-1" Cut="0.0000000000000000e+00" cType="1" res="3.7062831688672304e-04" rms="4.6801105141639709e-01" purity="5.4694581031799316e-01" nType="-99"/>
        </Node>
      </Node>
    </BinaryTree>
    <BinaryTree type="DecisionTree" boostWeight="1.0000000000000000e+00" itree="674">
      <Node pos="s" depth="0" NCoef="0" IVar="1" Cut="9.2446070909500122e-01" cType="1" res="3.5333740524947643e-03" rms="4.5788165926933289e-01" purity="5.0064003467559814e-01" nType="0">
        <Node pos="l" depth="1" NCoef="0" IVar="0" Cut="9.2857882380485535e-02" cType="1" res="-3.9813917130231857e-02" rms="4.4309279322624207e-01" purity="3.2256582379341125e-01" nType="0">
          <Node pos="l" depth="2" NCoef="0" IVar="-1" Cut="0.0000000000000000e+00" cType="1" res="-1.4239925658330321e-03" rms="4.4373577833175659e-01" purity="3.1763646006584167e-01" nType="-99"/>
          <Node pos="r" depth="2" NCoef="0" IVar="-1" Cut="0.0000000000000000e+00" cType="1" res="-5.3025019587948918e-04" rms="4.4143790006637573e-01" purity="3.2991835474967957e-01" nType="-99"/>
        </Node>
        <Node pos="r" depth="1" NCoef="0" IVar="3" Cut="8.7546043097972870e-02" cType="1" res="1.2038478627800941e-02" rms="4.6024879813194275e-01" purity="5.3557974100112915e-01" nType="0">
          <Node pos="l" depth="2" NCoef="0" IVar="-1" Cut="0.0000000000000000e+00" cType="1" res="-2.0253761249477975e-05" rms="4.5775857567787170e-01" purity="5.1255112886428833e-01" nType="-99"/>
          <Node pos="r" depth="2" NCoef="0" IVar="-1" Cut="0.0000000000000000e+00" cType="1" res="6.6954706562682986e-04" rms="4.6427032351493835e-01" purity="5.8457928895950317e-01" nType="-99"/>
        </Node>
      </Node>
    </BinaryTree>
    <BinaryTree type="DecisionTree" boostWeight="1.0000000000000000e+00" itree="675">
      <Node pos="s" depth="0" NCoef="0" IVar="5" Cut="5.4412896728515625e+02" cType="1" res="3.5862282384186983e-03" rms="4.5959669351577759e-01" purity="4.9937218427658081e-01" nType="0">
        <Node pos="l" depth="1" NCoef="0" IVar="3" Cut="-1.1822330951690674e-01" cType="1" res="-1.0548277059569955e-03" rms="4.6074330806732178e-01" purity="4.8102042078971863e-01" nType="0">
          <Node pos="l" depth="2" NCoef="0" IVar="-1" Cut="0.0000000000000000e+00" cType="1" res="-1.2980673927813768e-03" rms="4.3809974193572998e-01" purity="3.7249851226806641e-01" nType="-99"/>
          <Node pos="r" depth="2" NCoef="0" IVar="-1" Cut="0.0000000000000000e+00" cType="1" res="7.0433576183859259e-05" rms="4.6242514252662659e-01" purity="4.9074685573577881e-01" nType="-99"/>
        </Node>
        <Node pos="r" depth="1" NCoef="0" IVar="-1" Cut="0.0000000000000000e+00" cType="1" res="8.3799893036484718e-04" rms="4.4348683953285217e-01" purity="7.0239013433456421e-01" nType="-99"/>
      </Node>
    </BinaryTree>
    <BinaryTree type="DecisionTree" boostWeight="1.0000000000000000e+00" itree="676">
      <Node pos="s" depth="0" NCoef="0" IVar="5" Cut="5.4412896728515625e+02" cType="1" res="4.6849595382809639e-03" rms="4.5849803090095520e-01" purity="5.0267136096954346e-01" nType="0">
        <Node pos="l" depth="1" NCoef="0" IVar="5" Cut="2.2046145629882812e+02" cType="1" res="-5.1848375005647540e-04" rms="4.5979395508766174e-01" purity="4.8435473442077637e-01" nType="0">
          <Node pos="l" depth="2" NCoef="0" IVar="-1" Cut="0.0000000000000000e+00" cType="1" res="-1.3555408222600818e-03" rms="4.1931515932083130e-01" purity="2.6986330747604370e-01" nType="-99"/>
          <Node pos="r" depth="2" NCoef="0" IVar="-1" Cut="0.0000000000000000e+00" cType="1" res="1.1263608757872134e-04" rms="4.6577823162078857e-01" purity="5.1967424154281616e-01" nType="-99"/>
        </Node>
        <Node pos="r" depth="1" NCoef="0" IVar="-1" Cut="0.0000000000000000e+00" cType="1" res="9.3803065828979015e-04" rms="4.3928769230842590e-01" purity="7.1001088619232178e-01" nType="-99"/>
      </Node>
    </BinaryTree>
    <BinaryTree type="DecisionTree" boostWeight="1.0000000000000000e+00" itree="677">
      <Node pos="s" depth="0" NCoef="0" IVar="6" Cut="2.0019416809082031e+00" cType="1" res="5.3635267540812492e-03" rms="4.6017435193061829e-01" purity="5.0103431940078735e-01" nType="0">
        <Node pos="l" depth="1" NCoef="0" IVar="5" Cut="2.4261880493164062e+02" cType="1" res="3.1598232686519623e-02" rms="4.5599305629730225e-01" purity="5.7476836442947388e-01" nType="0">
          <Node pos="l" depth="2" NCoef="0" IVar="-1" Cut="0.0000000000000000e+00" cType="1" res="-1.3962709635961801e-04" rms="4.5628416538238525e-01" purity="3.8684689998626709e-01" nType="-99"/>
          <Node pos="r" depth="2" NCoef="0" IVar="-1" Cut="0.0000000000000000e+00" cType="1" res="6.9435039767995477e-04" rms="4.5510989427566528e-01" purity="6.4348059892654419e-01" nType="-99"/>
        </Node>
        <Node pos="r" depth="1" NCoef="0" IVar="4" Cut="4.5372057706117630e-02" cType="1" res="-3.1446397770196199e-03" rms="4.6120190620422363e-01" purity="4.7712168097496033e-01" nType="0">
          <Node pos="l" depth="2" NCoef="0" IVar="-1" Cut="0.0000000000000000e+00" cType="1" res="1.6022317868191749e-04" rms="4.6109095215797424e-01" purity="5.0162333250045776e-01" nType="-99"/>
          <Node pos="r" depth="2" NCoef="0" IVar="-1" Cut="0.0000000000000000e+00" cType="1" res="-4.8462729318998754e-04" rms="4.6073254942893982e-01" purity="4.3598189949989319e-01" nType="-99"/>
        </Node>
      </Node>
    </BinaryTree>
    <BinaryTree type="DecisionTree" boostWeight="1.0000000000000000e+00" itree="678">
      <Node pos="s" depth="0" NCoef="0" IVar="4" Cut="3.6658361554145813e-02" cType="1" res="9.5929607050493360e-04" rms="4.5866253972053528e-01" purity="4.9832087755203247e-01" nType="0">
        <Node pos="l" depth="1" NCoef="0" IVar="2" Cut="4.9834085083007812e+02" cType="1" res="1.3592721894383430e-02" rms="4.5830088853836060e-01" purity="5.2129930257797241e-01" nType="0">
          <Node pos="l" depth="2" NCoef="0" IVar="-1" Cut="0.0000000000000000e+00" cType="1" res="5.3849157666263636e-06" rms="4.6181359887123108e-01" purity="4.4566354155540466e-01" nType="-99"/>
          <Node pos="r" depth="2" NCoef="0" IVar="-1" Cut="0.0000000000000000e+00" cType="1" res="6.2436243752017617e-04" rms="4.4959941506385803e-01" purity="6.7932879924774170e-01" nType="-99"/>
        </Node>
        <Node pos="r" depth="1" NCoef="0" IVar="3" Cut="1.5353326499462128e-01" cType="1" res="-1.8795620650053024e-02" rms="4.5853024721145630e-01" purity="4.6238943934440613e-01" nType="0">
          <Node pos="l" depth="2" NCoef="0" IVar="-1" Cut="0.0000000000000000e+00" cType="1" res="-7.9720886424183846e-04" rms="4.5193824172019958e-01" purity="4.2226871848106384e-01" nType="-99"/>
          <Node pos="r" depth="2" NCoef="0" IVar="-1" Cut="0.0000000000000000e+00" cType="1" res="2.2933012223802507e-04" rms="4.6852749586105347e-01" purity="5.3464353084564209e-01" nType="-99"/>
        </Node>
      </Node>
    </BinaryTree>
    <BinaryTree type="DecisionTree" boostWeight="1.0000000000000000e+00" itree="679">
      <Node pos="s" depth="0" NCoef="0" IVar="1" Cut="9.8430716991424561e-01" cType="1" res="-9.0356095461174846e-04" rms="4.5953088998794556e-01" purity="4.9380880594253540e-01" nType="0">
        <Node pos="l" depth="1" NCoef="0" IVar="0" Cut="1.1191118508577347e-01" cType="1" res="-6.7609511315822601e-03" rms="4.6592247486114502e-01" purity="4.5897942781448364e-01" nType="0">
          <Node pos="l" depth="2" NCoef="0" IVar="-1" Cut="0.0000000000000000e+00" cType="1" res="-3.6798630026169121e-04" rms="4.6798700094223022e-01" purity="4.5058220624923706e-01" nType="-99"/>
          <Node pos="r" depth="2" NCoef="0" IVar="-1" Cut="0.0000000000000000e+00" cType="1" res="2.9870154685340822e-04" rms="4.6101465821266174e-01" purity="4.7549882531166077e-01" nType="-99"/>
        </Node>
        <Node pos="r" depth="1" NCoef="0" IVar="-1" Cut="0.0000000000000000e+00" cType="1" res="7.3788920417428017e-04" rms="3.9776110649108887e-01" purity="7.8935587406158447e-01" nType="-99"/>
      </Node>
    </BinaryTree>
    <BinaryTree type="DecisionTree" boostWeight="1.0000000000000000e+00" itree="680">
      <Node pos="s" depth="0" NCoef="0" IVar="1" Cut="9.4303423166275024e-01" cType="1" res="6.0251466929912567e-03" rms="4.5962303876876831e-01" purity="5.0087010860443115e-01" nType="0">
        <Node pos="l" depth="1" NCoef="0" IVar="1" Cut="9.1218733787536621e-01" cType="1" res="-1.4389528892934322e-02" rms="4.5666849613189697e-01" purity="3.7092354893684387e-01" nType="0">
          <Node pos="l" depth="2" NCoef="0" IVar="-1" Cut="0.0000000000000000e+00" cType="1" res="-1.2909678043797612e-03" rms="4.4059678912162781e-01" purity="3.0576089024543762e-01" nType="-99"/>
          <Node pos="r" depth="2" NCoef="0" IVar="-1" Cut="0.0000000000000000e+00" cType="1" res="-1.1373157030902803e-04" rms="4.6082559227943420e-01" purity="3.8990578055381775e-01" nType="-99"/>
        </Node>
        <Node pos="r" depth="1" NCoef="0" IVar="3" Cut="1.1351598054170609e-01" cType="1" res="1.7759401351213455e-02" rms="4.6090367436408997e-01" purity="5.7556265592575073e-01" nType="0">
          <Node pos="l" depth="2" NCoef="0" IVar="-1" Cut="0.0000000000000000e+00" cType="1" res="1.5040185826364905e-04" rms="4.6150109171867371e-01" purity="5.5777508020401001e-01" nType="-99"/>
          <Node pos="r" depth="2" NCoef="0" IVar="-1" Cut="0.0000000000000000e+00" cType="1" res="6.9713970879092813e-04" rms="4.5818331837654114e-01" purity="6.2658780813217163e-01" nType="-99"/>
        </Node>
      </Node>
    </BinaryTree>
    <BinaryTree type="DecisionTree" boostWeight="1.0000000000000000e+00" itree="681">
      <Node pos="s" depth="0" NCoef="0" IVar="6" Cut="1.5407500267028809e+00" cType="1" res="5.9941043145954609e-03" rms="4.6017301082611084e-01" purity="5.0238949060440063e-01" nType="0">
        <Node pos="l" depth="1" NCoef="0" IVar="-1" Cut="0.0000000000000000e+00" cType="1" res="9.4258907483890653e-04" rms="4.3645787239074707e-01" purity="6.2899219989776611e-01" nType="-99"/>
        <Node pos="r" depth="1" NCoef="0" IVar="0" Cut="9.3254834413528442e-02" cType="1" res="2.1536871790885925e-03" rms="4.6159514784812927e-01" purity="4.9327674508094788e-01" nType="0">
          <Node pos="l" depth="2" NCoef="0" IVar="-1" Cut="0.0000000000000000e+00" cType="1" res="-1.7478752124588937e-04" rms="4.6415060758590698e-01" purity="4.8450472950935364e-01" nType="-99"/>
          <Node pos="r" depth="2" NCoef="0" IVar="-1" Cut="0.0000000000000000e+00" cType="1" res="3.2359693432226777e-04" rms="4.5766150951385498e-01" purity="5.0522631406784058e-01" nType="-99"/>
        </Node>
      </Node>
    </BinaryTree>
    <BinaryTree type="DecisionTree" boostWeight="1.0000000000000000e+00" itree="682">
      <Node pos="s" depth="0" NCoef="0" IVar="6" Cut="1.9142093658447266e+00" cType="1" res="6.6229416988790035e-03" rms="4.5943129062652588e-01" purity="5.0377279520034790e-01" nType="0">
        <Node pos="l" depth="1" NCoef="0" IVar="5" Cut="2.8904806518554688e+02" cType="1" res="3.8739640265703201e-02" rms="4.5616942644119263e-01" purity="5.8408683538436890e-01" nType="0">
          <Node pos="l" depth="2" NCoef="0" IVar="-1" Cut="0.0000000000000000e+00" cType="1" res="3.7912352127023041e-04" rms="4.7484958171844482e-01" purity="4.6148571372032166e-01" nType="-99"/>
          <Node pos="r" depth="2" NCoef="0" IVar="-1" Cut="0.0000000000000000e+00" cType="1" res="8.3146058022975922e-04" rms="4.3708640336990356e-01" purity="6.9932311773300171e-01" nType="-99"/>
        </Node>
        <Node pos="r" depth="1" NCoef="0" IVar="4" Cut="1.5967175364494324e-02" cType="1" res="-1.1830559233203530e-03" rms="4.5988190174102783e-01" purity="4.8425242304801941e-01" nType="0">
          <Node pos="l" depth="2" NCoef="0" IVar="-1" Cut="0.0000000000000000e+00" cType="1" res="2.2206293942872435e-04" rms="4.5729917287826538e-01" purity="5.1409620046615601e-01" nType="-99"/>
          <Node pos="r" depth="2" NCoef="0" IVar="-1" Cut="0.0000000000000000e+00" cType="1" res="-3.0359579250216484e-04" rms="4.6213901042938232e-01" purity="4.5348370075225830e-01" nType="-99"/>
        </Node>
      </Node>
    </BinaryTree>
    <BinaryTree type="DecisionTree" boostWeight="1.0000000000000000e+00" itree="683">
      <Node pos="s" depth="0" NCoef="0" IVar="1" Cut="9.8412138223648071e-01" cType="1" res="6.3843379030004144e-04" rms="4.5944491028785706e-01" purity="4.9665349721908569e-01" nType="0">
        <Node pos="l" depth="1" NCoef="0" IVar="2" Cut="7.3978656005859375e+02" cType="1" res="-4.2169350199401379e-03" rms="4.6528813242912292e-01" purity="4.6295851469039917e-01" nType="0">
          <Node pos="l" depth="2" NCoef="0" IVar="-1" Cut="0.0000000000000000e+00" cType="1" res="-1.7009051225613803e-04" rms="4.6572256088256836e-01" purity="4.4356510043144226e-01" nType="-99"/>
          <Node pos="r" depth="2" NCoef="0" IVar="-1" Cut="0.0000000000000000e+00" cType="1" res="6.1828031903132796e-04" rms="4.5807930827140808e-01" purity="6.7470526695251465e-01" nType="-99"/>
        </Node>
        <Node pos="r" depth="1" NCoef="0" IVar="-1" Cut="0.0000000000000000e+00" cType="1" res="6.3135998789221048e-04" rms="4.0464448928833008e-01" purity="7.8028452396392822e-01" nType="-99"/>
      </Node>
    </BinaryTree>
    <BinaryTree type="DecisionTree" boostWeight="1.0000000000000000e+00" itree="684">
      <Node pos="s" depth="0" NCoef="0" IVar="2" Cut="3.2789929199218750e+02" cType="1" res="5.3704530000686646e-03" rms="4.5942309498786926e-01" purity="5.0162321329116821e-01" nType="0">
        <Node pos="l" depth="1" NCoef="0" IVar="5" Cut="2.0949226379394531e+02" cType="1" res="-3.7253376096487045e-02" rms="4.1072204709053040e-01" purity="2.5280508399009705e-01" nType="0">
          <Node pos="l" depth="2" NCoef="0" IVar="-1" Cut="0.0000000000000000e+00" cType="1" res="-2.3163114674389362e-03" rms="3.9827385544776917e-01" purity="2.1589125692844391e-01" nType="-99"/>
          <Node pos="r" depth="2" NCoef="0" IVar="-1" Cut="0.0000000000000000e+00" cType="1" res="-4.8069955664686859e-04" rms="4.2337054014205933e-01" purity="2.9466909170150757e-01" nType="-99"/>
        </Node>
        <Node pos="r" depth="1" NCoef="0" IVar="0" Cut="1.1881810426712036e-01" cType="1" res="1.1453070677816868e-02" rms="4.6564012765884399e-01" purity="5.3713071346282959e-01" nType="0">
          <Node pos="l" depth="2" NCoef="0" IVar="-1" Cut="0.0000000000000000e+00" cType="1" res="-4.2229335122101475e-06" rms="4.6650204062461853e-01" purity="5.2468931674957275e-01" nType="-99"/>
          <Node pos="r" depth="2" NCoef="0" IVar="-1" Cut="0.0000000000000000e+00" cType="1" res="6.6718313610181212e-04" rms="4.6237161755561829e-01" purity="5.6691819429397583e-01" nType="-99"/>
        </Node>
      </Node>
    </BinaryTree>
    <BinaryTree type="DecisionTree" boostWeight="1.0000000000000000e+00" itree="685">
      <Node pos="s" depth="0" NCoef="0" IVar="1" Cut="9.8151737451553345e-01" cType="1" res="3.9804819971323013e-03" rms="4.5896857976913452e-01" purity="5.0038027763366699e-01" nType="0">
        <Node pos="l" depth="1" NCoef="0" IVar="5" Cut="5.4500970458984375e+02" cType="1" res="-2.8514412697404623e-03" rms="4.6648132801055908e-01" purity="4.5762351155281067e-01" nType="0">
          <Node pos="l" depth="2" NCoef="0" IVar="-1" Cut="0.0000000000000000e+00" cType="1" res="-1.3563557877205312e-04" rms="4.6676951646804810e-01" purity="4.3968591094017029e-01" nType="-99"/>
          <Node pos="r" depth="2" NCoef="0" IVar="-1" Cut="0.0000000000000000e+00" cType="1" res="6.2591658206656575e-04" rms="4.6083003282546997e-01" purity="6.6513830423355103e-01" nType="-99"/>
        </Node>
        <Node pos="r" depth="1" NCoef="0" IVar="-1" Cut="0.0000000000000000e+00" cType="1" res="7.2415254544466734e-04" rms="4.0425679087638855e-01" purity="7.7695399522781372e-01" nType="-99"/>
      </Node>
    </BinaryTree>
    <BinaryTree type="DecisionTree" boostWeight="1.0000000000000000e+00" itree="686">
      <Node pos="s" depth="0" NCoef="0" IVar="5" Cut="4.7660522460937500e+02" cType="1" res="5.3570526652038097e-03" rms="4.5802348852157593e-01" purity="5.0192481279373169e-01" nType="0">
        <Node pos="l" depth="1" NCoef="0" IVar="0" Cut="5.5588494986295700e-02" cType="1" res="-6.6411640727892518e-04" rms="4.5942160487174988e-01" purity="4.7411823272705078e-01" nType="0">
          <Node pos="l" depth="2" NCoef="0" IVar="-1" Cut="0.0000000000000000e+00" cType="1" res="-5.2386673633009195e-04" rms="4.6494728326797485e-01" purity="4.3507254123687744e-01" nType="-99"/>
          <Node pos="r" depth="2" NCoef="0" IVar="-1" Cut="0.0000000000000000e+00" cType="1" res="1.7785058298613876e-04" rms="4.5675596594810486e-01" purity="4.9018719792366028e-01" nType="-99"/>
        </Node>
        <Node pos="r" depth="1" NCoef="0" IVar="-1" Cut="0.0000000000000000e+00" cType="1" res="6.8116816692054272e-04" rms="4.4665175676345825e-01" purity="6.8550014495849609e-01" nType="-99"/>
      </Node>
    </BinaryTree>
    <BinaryTree type="DecisionTree" boostWeight="1.0000000000000000e+00" itree="687">
      <Node pos="s" depth="0" NCoef="0" IVar="1" Cut="9.3695211410522461e-01" cType="1" res="5.8125336654484272e-03" rms="4.6056425571441650e-01" purity="5.0011414289474487e-01" nType="0">
        <Node pos="l" depth="1" NCoef="0" IVar="1" Cut="9.0639287233352661e-01" cType="1" res="-1.5358347445726395e-02" rms="4.5623344182968140e-01" purity="3.5867404937744141e-01" nType="0">
          <Node pos="l" depth="2" NCoef="0" IVar="-1" Cut="0.0000000000000000e+00" cType="1" res="-1.3581390958279371e-03" rms="4.3828898668289185e-01" purity="3.0242139101028442e-01" nType="-99"/>
          <Node pos="r" depth="2" NCoef="0" IVar="-1" Cut="0.0000000000000000e+00" cType="1" res="-1.8677009211387485e-04" rms="4.5993158221244812e-01" purity="3.7158653140068054e-01" nType="-99"/>
        </Node>
        <Node pos="r" depth="1" NCoef="0" IVar="3" Cut="2.0933872461318970e-01" cType="1" res="1.4437999576330185e-02" rms="4.6203905344009399e-01" purity="5.5773979425430298e-01" nType="0">
          <Node pos="l" depth="2" NCoef="0" IVar="-1" Cut="0.0000000000000000e+00" cType="1" res="1.7214099352713674e-04" rms="4.6215313673019409e-01" purity="5.4962813854217529e-01" nType="-99"/>
          <Node pos="r" depth="2" NCoef="0" IVar="-1" Cut="0.0000000000000000e+00" cType="1" res="9.3191856285557151e-04" rms="4.5845273137092590e-01" purity="6.3665384054183960e-01" nType="-99"/>
        </Node>
      </Node>
    </BinaryTree>
    <BinaryTree type="DecisionTree" boostWeight="1.0000000000000000e+00" itree="688">
      <Node pos="s" depth="0" NCoef="0" IVar="5" Cut="4.7201605224609375e+02" cType="1" res="9.3494849279522896e-03" rms="4.6112957596778870e-01" purity="5.0430607795715332e-01" nType="0">
        <Node pos="l" depth="1" NCoef="0" IVar="3" Cut="6.9837467744946480e-03" cType="1" res="3.9476747624576092e-03" rms="4.6322268247604370e-01" purity="4.7559031844139099e-01" nType="0">
          <Node pos="l" depth="2" NCoef="0" IVar="-1" Cut="0.0000000000000000e+00" cType="1" res="-2.2837071446701884e-04" rms="4.5774763822555542e-01" purity="4.3673652410507202e-01" nType="-99"/>
          <Node pos="r" depth="2" NCoef="0" IVar="-1" Cut="0.0000000000000000e+00" cType="1" res="3.1416385900229216e-04" rms="4.6769306063652039e-01" purity="5.1049536466598511e-01" nType="-99"/>
        </Node>
        <Node pos="r" depth="1" NCoef="0" IVar="6" Cut="2.2495205402374268e+00" cType="1" res="4.3387264013290405e-02" rms="4.4621363282203674e-01" purity="6.8524920940399170e-01" nType="0">
          <Node pos="l" depth="2" NCoef="0" IVar="-1" Cut="0.0000000000000000e+00" cType="1" res="8.2454289076849818e-04" rms="4.2967432737350464e-01" purity="7.2940772771835327e-01" nType="-99"/>
          <Node pos="r" depth="2" NCoef="0" IVar="-1" Cut="0.0000000000000000e+00" cType="1" res="4.3091934639960527e-04" rms="4.6713954210281372e-01" purity="6.2550991773605347e-01" nType="-99"/>
        </Node>
      </Node>
    </BinaryTree>
    <BinaryTree type="DecisionTree" boostWeight="1.0000000000000000e+00" itree="689">
      <Node pos="s" depth="0" NCoef="0" IVar="1" Cut="9.2745602130889893e-01" cType="1" res="3.6508848425000906e-03" rms="4.5895013213157654e-01" purity="5.0148075819015503e-01" nType="0">
        <Node pos="l" depth="1" NCoef="0" IVar="0" Cut="8.6614266037940979e-02" cType="1" res="-2.7031196281313896e-02" rms="4.4980168342590332e-01" purity="3.3534121513366699e-01" nType="0">
          <Node pos="l" depth="2" NCoef="0" IVar="-1" Cut="0.0000000000000000e+00" cType="1" res="-1.0774031979963183e-03" rms="4.5180273056030273e-01" purity="3.2941147685050964e-01" nType="-99"/>
          <Node pos="r" depth="2" NCoef="0" IVar="-1" Cut="0.0000000000000000e+00" cType="1" res="-2.5628562434576452e-04" rms="4.4673100113868713e-01" purity="3.4267878532409668e-01" nType="-99"/>
        </Node>
        <Node pos="r" depth="1" NCoef="0" IVar="5" Cut="2.6062689208984375e+02" cType="1" res="1.0829050093889236e-02" rms="4.6076944470405579e-01" purity="5.4034960269927979e-01" nType="0">
          <Node pos="l" depth="2" NCoef="0" IVar="-1" Cut="0.0000000000000000e+00" cType="1" res="-3.3110010554082692e-04" rms="4.5603501796722412e-01" purity="3.7596458196640015e-01" nType="-99"/>
          <Node pos="r" depth="2" NCoef="0" IVar="-1" Cut="0.0000000000000000e+00" cType="1" res="3.4255068749189377e-04" rms="4.6233698725700378e-01" purity="6.0872799158096313e-01" nType="-99"/>
        </Node>
      </Node>
    </BinaryTree>
    <BinaryTree type="DecisionTree" boostWeight="1.0000000000000000e+00" itree="690">
      <Node pos="s" depth="0" NCoef="0" IVar="5" Cut="5.4412896728515625e+02" cType="1" res="-7.5514626223593950e-04" rms="4.5965313911437988e-01" purity="4.9427649378776550e-01" nType="0">
        <Node pos="l" depth="1" NCoef="0" IVar="0" Cut="1.4931210875511169e-01" cType="1" res="-5.1937950775027275e-03" rms="4.6069428324699402e-01" purity="4.7672781348228455e-01" nType="0">
          <Node pos="l" depth="2" NCoef="0" IVar="-1" Cut="0.0000000000000000e+00" cType="1" res="-2.5535834720358253e-04" rms="4.6106782555580139e-01" purity="4.6908229589462280e-01" nType="-99"/>
          <Node pos="r" depth="2" NCoef="0" IVar="-1" Cut="0.0000000000000000e+00" cType="1" res="4.1924964170902967e-04" rms="4.5826196670532227e-01" purity="5.0471478700637817e-01" nType="-99"/>
        </Node>
        <Node pos="r" depth="1" NCoef="0" IVar="-1" Cut="0.0000000000000000e+00" cType="1" res="7.6494424138218164e-04" rms="4.4420608878135681e-01" purity="6.9743788242340088e-01" nType="-99"/>
      </Node>
    </BinaryTree>
    <BinaryTree type="DecisionTree" boostWeight="1.0000000000000000e+00" itree="691">
      <Node pos="s" depth="0" NCoef="0" IVar="3" Cut="1.3421031832695007e-01" cType="1" res="3.2267095521092415e-03" rms="4.5957571268081665e-01" purity="4.9833378195762634e-01" nType="0">
        <Node pos="l" depth="1" NCoef="0" IVar="4" Cut="6.6077388823032379e-02" cType="1" res="-4.9768090248107910e-03" rms="4.5837321877479553e-01" purity="4.8198717832565308e-01" nType="0">
          <Node pos="l" depth="2" NCoef="0" IVar="-1" Cut="0.0000000000000000e+00" cType="1" res="6.1675418692175299e-05" rms="4.5998352766036987e-01" purity="5.0128304958343506e-01" nType="-99"/>
          <Node pos="r" depth="2" NCoef="0" IVar="-1" Cut="0.0000000000000000e+00" cType="1" res="-7.5850717257708311e-04" rms="4.5142623782157898e-01" purity="4.1366732120513916e-01" nType="-99"/>
        </Node>
        <Node pos="r" depth="1" NCoef="0" IVar="1" Cut="9.3433362245559692e-01" cType="1" res="3.1405951827764511e-02" rms="4.6257570385932922e-01" purity="5.5448460578918457e-01" nType="0">
          <Node pos="l" depth="2" NCoef="0" IVar="-1" Cut="0.0000000000000000e+00" cType="1" res="-2.7105154003947973e-04" rms="4.6623942255973816e-01" purity="3.9325687289237976e-01" nType="-99"/>
          <Node pos="r" depth="2" NCoef="0" IVar="-1" Cut="0.0000000000000000e+00" cType="1" res="7.6052395161241293e-04" rms="4.6017277240753174e-01" purity="6.1407560110092163e-01" nType="-99"/>
        </Node>
      </Node>
    </BinaryTree>
    <BinaryTree type="DecisionTree" boostWeight="1.0000000000000000e+00" itree="692">
      <Node pos="s" depth="0" NCoef="0" IVar="6" Cut="2.5116922855377197e+00" cType="1" res="4.7799763269722462e-03" rms="4.5961067080497742e-01" purity="5.0035363435745239e-01" nType="0">
        <Node pos="l" depth="1" NCoef="0" IVar="1" Cut="9.8144674301147461e-01" cType="1" res="1.0907037183642387e-02" rms="4.6325090527534485e-01" purity="5.3444558382034302e-01" nType="0">
          <Node pos="l" depth="2" NCoef="0" IVar="-1" Cut="0.0000000000000000e+00" cType="1" res="1.0807095532072708e-04" rms="4.7260668873786926e-01" purity="4.9433034658432007e-01" nType="-99"/>
          <Node pos="r" depth="2" NCoef="0" IVar="-1" Cut="0.0000000000000000e+00" cType="1" res="6.6175393294543028e-04" rms="3.9641353487968445e-01" purity="7.9212200641632080e-01" nType="-99"/>
        </Node>
        <Node pos="r" depth="1" NCoef="0" IVar="4" Cut="-5.9986329870298505e-04" cType="1" res="-2.1849449723958969e-02" rms="4.4245773553848267e-01" purity="3.5218319296836853e-01" nType="0">
          <Node pos="l" depth="2" NCoef="0" IVar="-1" Cut="0.0000000000000000e+00" cType="1" res="3.7381748552434146e-04" rms="4.6036615967750549e-01" purity="4.2792579531669617e-01" nType="-99"/>
          <Node pos="r" depth="2" NCoef="0" IVar="-1" Cut="0.0000000000000000e+00" cType="1" res="-1.1195248225703835e-03" rms="4.3312740325927734e-01" purity="3.1846949458122253e-01" nType="-99"/>
        </Node>
      </Node>
    </BinaryTree>
    <BinaryTree type="DecisionTree" boostWeight="1.0000000000000000e+00" itree="693">
      <Node pos="s" depth="0" NCoef="0" IVar="1" Cut="9.2160725593566895e-01" cType="1" res="7.4210129678249359e-03" rms="4.5929449796676636e-01" purity="5.0483626127243042e-01" nType="0">
        <Node pos="l" depth="1" NCoef="0" IVar="1" Cut="9.1042846441268921e-01" cType="1" res="-3.0811540782451630e-02" rms="4.4888797402381897e-01" purity="3.2747173309326172e-01" nType="0">
          <Node pos="l" depth="2" NCoef="0" IVar="-1" Cut="0.0000000000000000e+00" cType="1" res="-1.4744354411959648e-03" rms="4.3835729360580444e-01" purity="2.9950296878814697e-01" nType="-99"/>
          <Node pos="r" depth="2" NCoef="0" IVar="-1" Cut="0.0000000000000000e+00" cType="1" res="-2.1538612782023847e-04" rms="4.5834261178970337e-01" purity="3.5606285929679871e-01" nType="-99"/>
        </Node>
        <Node pos="r" depth="1" NCoef="0" IVar="3" Cut="5.7695753872394562e-02" cType="1" res="1.3707742094993591e-02" rms="4.6067950129508972e-01" purity="5.3400099277496338e-01" nType="0">
          <Node pos="l" depth="2" NCoef="0" IVar="-1" Cut="0.0000000000000000e+00" cType="1" res="4.2635747377062216e-05" rms="4.5781886577606201e-01" purity="5.0960987806320190e-01" nType="-99"/>
          <Node pos="r" depth="2" NCoef="0" IVar="-1" Cut="0.0000000000000000e+00" cType="1" res="5.4268096573650837e-04" rms="4.6467947959899902e-01" purity="5.7351350784301758e-01" nType="-99"/>
        </Node>
      </Node>
    </BinaryTree>
    <BinaryTree type="DecisionTree" boostWeight="1.0000000000000000e+00" itree="694">
      <Node pos="s" depth="0" NCoef="0" IVar="1" Cut="9.8448842763900757e-01" cType="1" res="6.0306387022137642e-03" rms="4.5967364311218262e-01" purity="5.0307810306549072e-01" nType="0">
        <Node pos="l" depth="1" NCoef="0" IVar="2" Cut="7.2568414306640625e+02" cType="1" res="9.2920422321185470e-04" rms="4.6663150191307068e-01" purity="4.6860352158546448e-01" nType="0">
          <Node pos="l" depth="2" NCoef="0" IVar="-1" Cut="0.0000000000000000e+00" cType="1" res="-7.3507049819454551e-05" rms="4.6775040030479431e-01" purity="4.4669720530509949e-01" nType="-99"/>
          <Node pos="r" depth="2" NCoef="0" IVar="-1" Cut="0.0000000000000000e+00" cType="1" res="6.8207492586225271e-04" rms="4.5316940546035767e-01" purity="6.8218821287155151e-01" nType="-99"/>
        </Node>
        <Node pos="r" depth="1" NCoef="0" IVar="-1" Cut="0.0000000000000000e+00" cType="1" res="7.4057641904801130e-04" rms="3.9377173781394958e-01" purity="7.9291284084320068e-01" nType="-99"/>
      </Node>
    </BinaryTree>
    <BinaryTree type="DecisionTree" boostWeight="1.0000000000000000e+00" itree="695">
      <Node pos="s" depth="0" NCoef="0" IVar="2" Cut="7.1484948730468750e+02" cType="1" res="4.7321552410721779e-03" rms="4.5852240920066833e-01" purity="5.0157243013381958e-01" nType="0">
        <Node pos="l" depth="1" NCoef="0" IVar="1" Cut="9.6939039230346680e-01" cType="1" res="-1.6112178855109960e-04" rms="4.5981407165527344e-01" purity="4.8028412461280823e-01" nType="0">
          <Node pos="l" depth="2" NCoef="0" IVar="-1" Cut="0.0000000000000000e+00" cType="1" res="-2.0075867359992117e-04" rms="4.6582859754562378e-01" purity="4.0928414463996887e-01" nType="-99"/>
          <Node pos="r" depth="2" NCoef="0" IVar="-1" Cut="0.0000000000000000e+00" cType="1" res="4.1162312845699489e-04" rms="4.4064348936080933e-01" purity="6.8810170888900757e-01" nType="-99"/>
        </Node>
        <Node pos="r" depth="1" NCoef="0" IVar="-1" Cut="0.0000000000000000e+00" cType="1" res="7.6107296627014875e-04" rms="4.4356971979141235e-01" purity="7.0165491104125977e-01" nType="-99"/>
      </Node>
    </BinaryTree>
    <BinaryTree type="DecisionTree" boostWeight="1.0000000000000000e+00" itree="696">
      <Node pos="s" depth="0" NCoef="0" IVar="1" Cut="9.6617990732192993e-01" cType="1" res="3.6581892054527998e-03" rms="4.5850181579589844e-01" purity="5.0167733430862427e-01" nType="0">
        <Node pos="l" depth="1" NCoef="0" IVar="0" Cut="1.8612107262015343e-02" cType="1" res="-6.1266771517693996e-03" rms="4.6623241901397705e-01" purity="4.2348545789718628e-01" nType="0">
          <Node pos="l" depth="2" NCoef="0" IVar="-1" Cut="0.0000000000000000e+00" cType="1" res="-1.0062761139124632e-03" rms="4.7172713279724121e-01" purity="4.2652964591979980e-01" nType="-99"/>
          <Node pos="r" depth="2" NCoef="0" IVar="-1" Cut="0.0000000000000000e+00" cType="1" res="-5.8164914662484080e-05" rms="4.6562606096267700e-01" purity="4.2324021458625793e-01" nType="-99"/>
        </Node>
        <Node pos="r" depth="1" NCoef="0" IVar="2" Cut="4.6545907592773438e+02" cType="1" res="2.6619546115398407e-02" rms="4.3897226452827454e-01" purity="6.8516385555267334e-01" nType="0">
          <Node pos="l" depth="2" NCoef="0" IVar="-1" Cut="0.0000000000000000e+00" cType="1" res="8.4309322119224817e-05" rms="4.6550518274307251e-01" purity="6.0421246290206909e-01" nType="-99"/>
          <Node pos="r" depth="2" NCoef="0" IVar="-1" Cut="0.0000000000000000e+00" cType="1" res="7.4799207504838705e-04" rms="4.0639913082122803e-01" purity="7.7446913719177246e-01" nType="-99"/>
        </Node>
      </Node>
    </BinaryTree>
    <BinaryTree type="DecisionTree" boostWeight="1.0000000000000000e+00" itree="697">
      <Node pos="s" depth="0" NCoef="0" IVar="3" Cut="2.3920491337776184e-01" cType="1" res="5.5670747533440590e-03" rms="4.6040937304496765e-01" purity="5.0084173679351807e-01" nType="0">
        <Node pos="l" depth="1" NCoef="0" IVar="0" Cut="9.9966481328010559e-02" cType="1" res="1.4567488105967641e-03" rms="4.5998099446296692e-01" purity="4.9432316422462463e-01" nType="0">
          <Node pos="l" depth="2" NCoef="0" IVar="-1" Cut="0.0000000000000000e+00" cType="1" res="-1.9105314277112484e-04" rms="4.6191158890724182e-01" purity="4.8528650403022766e-01" nType="-99"/>
          <Node pos="r" depth="2" NCoef="0" IVar="-1" Cut="0.0000000000000000e+00" cType="1" res="3.3559117582626641e-04" rms="4.5663344860076904e-01" purity="5.0758433341979980e-01" nType="-99"/>
        </Node>
        <Node pos="r" depth="1" NCoef="0" IVar="-1" Cut="0.0000000000000000e+00" cType="1" res="1.1058228556066751e-03" rms="4.6239641308784485e-01" purity="5.9989994764328003e-01" nType="-99"/>
      </Node>
    </BinaryTree>
    <BinaryTree type="DecisionTree" boostWeight="1.0000000000000000e+00" itree="698">
      <Node pos="s" depth="0" NCoef="0" IVar="5" Cut="2.2095112609863281e+02" cType="1" res="7.4335974641144276e-03" rms="4.5920294523239136e-01" purity="5.0328952074050903e-01" nType="0">
        <Node pos="l" depth="1" NCoef="0" IVar="2" Cut="3.0412820434570312e+02" cType="1" res="-2.8605427592992783e-02" rms="4.2268836498260498e-01" purity="2.8520023822784424e-01" nType="0">
          <Node pos="l" depth="2" NCoef="0" IVar="-1" Cut="0.0000000000000000e+00" cType="1" res="-2.3061712272465229e-03" rms="3.8559460639953613e-01" purity="2.0983906090259552e-01" nType="-99"/>
          <Node pos="r" depth="2" NCoef="0" IVar="-1" Cut="0.0000000000000000e+00" cType="1" res="-2.3409545246977359e-04" rms="4.4646978378295898e-01" purity="3.3951121568679810e-01" nType="-99"/>
        </Node>
        <Node pos="r" depth="1" NCoef="0" IVar="0" Cut="6.5349802374839783e-02" cType="1" res="1.3046524487435818e-02" rms="4.6438008546829224e-01" purity="5.3725594282150269e-01" nType="0">
          <Node pos="l" depth="2" NCoef="0" IVar="-1" Cut="0.0000000000000000e+00" cType="1" res="-1.2812072236556560e-04" rms="4.7140806913375854e-01" purity="5.0970196723937988e-01" nType="-99"/>
          <Node pos="r" depth="2" NCoef="0" IVar="-1" Cut="0.0000000000000000e+00" cType="1" res="4.7943662502802908e-04" rms="4.5855849981307983e-01" purity="5.5763566493988037e-01" nType="-99"/>
        </Node>
      </Node>
    </BinaryTree>
    <BinaryTree type="DecisionTree" boostWeight="1.0000000000000000e+00" itree="699">
      <Node pos="s" depth="0" NCoef="0" IVar="2" Cut="5.5564196777343750e+02" cType="1" res="4.9047144129872322e-03" rms="4.5923373103141785e-01" purity="5.0152933597564697e-01" nType="0">
        <Node pos="l" depth="1" NCoef="0" IVar="3" Cut="2.0090161263942719e-01" cType="1" res="-3.7730766925960779e-03" rms="4.6129858493804932e-01" purity="4.4713127613067627e-01" nType="0">
          <Node pos="l" depth="2" NCoef="0" IVar="-1" Cut="0.0000000000000000e+00" cType="1" res="-1.8817788804881275e-04" rms="4.5970198512077332e-01" purity="4.3730542063713074e-01" nType="-99"/>
          <Node pos="r" depth="2" NCoef="0" IVar="-1" Cut="0.0000000000000000e+00" cType="1" res="6.3649506773799658e-04" rms="4.7157767415046692e-01" purity="5.2324467897415161e-01" nType="-99"/>
        </Node>
        <Node pos="r" depth="1" NCoef="0" IVar="0" Cut="7.3809415102005005e-02" cType="1" res="3.0844900757074356e-02" rms="4.5201295614242554e-01" purity="6.6413921117782593e-01" nType="0">
          <Node pos="l" depth="2" NCoef="0" IVar="-1" Cut="0.0000000000000000e+00" cType="1" res="1.2412194337230176e-04" rms="4.6627977490425110e-01" purity="6.2186175584793091e-01" nType="-99"/>
          <Node pos="r" depth="2" NCoef="0" IVar="-1" Cut="0.0000000000000000e+00" cType="1" res="1.0938111227005720e-03" rms="4.1897866129875183e-01" purity="7.4702280759811401e-01" nType="-99"/>
        </Node>
      </Node>
    </BinaryTree>
    <BinaryTree type="DecisionTree" boostWeight="1.0000000000000000e+00" itree="700">
      <Node pos="s" depth="0" NCoef="0" IVar="0" Cut="2.0349404215812683e-01" cType="1" res="3.1953244470059872e-03" rms="4.5909860730171204e-01" purity="4.9981608986854553e-01" nType="0">
        <Node pos="l" depth="1" NCoef="0" IVar="5" Cut="4.5640713500976562e+02" cType="1" res="-2.5209533050656319e-03" rms="4.5952412486076355e-01" purity="4.9497708678245544e-01" nType="0">
          <Node pos="l" depth="2" NCoef="0" IVar="-1" Cut="0.0000000000000000e+00" cType="1" res="-2.0142112043686211e-04" rms="4.6078979969024658e-01" purity="4.5948752760887146e-01" nType="-99"/>
          <Node pos="r" depth="2" NCoef="0" IVar="-1" Cut="0.0000000000000000e+00" cType="1" res="5.3146440768614411e-04" rms="4.5131564140319824e-01" purity="6.7271113395690918e-01" nType="-99"/>
        </Node>
        <Node pos="r" depth="1" NCoef="0" IVar="-1" Cut="0.0000000000000000e+00" cType="1" res="1.0668484028428793e-03" rms="4.5056423544883728e-01" purity="5.4936683177947998e-01" nType="-99"/>
      </Node>
    </BinaryTree>
    <BinaryTree type="DecisionTree" boostWeight="1.0000000000000000e+00" itree="701">
      <Node pos="s" depth="0" NCoef="0" IVar="4" Cut="-2.3899696767330170e-02" cType="1" res="6.1964001506567001e-03" rms="4.5989552140235901e-01" purity="5.0199735164642334e-01" nType="0">
        <Node pos="l" depth="1" NCoef="0" IVar="5" Cut="3.1818218994140625e+02" cType="1" res="2.6995012536644936e-02" rms="4.5498248934745789e-01" purity="5.4154247045516968e-01" nType="0">
          <Node pos="l" depth="2" NCoef="0" IVar="-1" Cut="0.0000000000000000e+00" cType="1" res="7.8318902524188161e-05" rms="4.5835748314857483e-01" purity="4.3969064950942993e-01" nType="-99"/>
          <Node pos="r" depth="2" NCoef="0" IVar="-1" Cut="0.0000000000000000e+00" cType="1" res="8.8104023598134518e-04" rms="4.4835418462753296e-01" purity="6.8125855922698975e-01" nType="-99"/>
        </Node>
        <Node pos="r" depth="1" NCoef="0" IVar="3" Cut="8.1577926874160767e-02" cType="1" res="-3.9677917957305908e-03" rms="4.6193698048591614e-01" purity="4.8267182707786560e-01" nType="0">
          <Node pos="l" depth="2" NCoef="0" IVar="-1" Cut="0.0000000000000000e+00" cType="1" res="-4.1321900789625943e-04" rms="4.5906132459640503e-01" purity="4.4795015454292297e-01" nType="-99"/>
          <Node pos="r" depth="2" NCoef="0" IVar="-1" Cut="0.0000000000000000e+00" cType="1" res="3.4803093876689672e-04" rms="4.6520614624023438e-01" purity="5.3443711996078491e-01" nType="-99"/>
        </Node>
      </Node>
    </BinaryTree>
    <BinaryTree type="DecisionTree" boostWeight="1.0000000000000000e+00" itree="702">
      <Node pos="s" depth="0" NCoef="0" IVar="2" Cut="4.6482199096679688e+02" cType="1" res="-9.6868741093203425e-04" rms="4.5972421765327454e-01" purity="4.9441757798194885e-01" nType="0">
        <Node pos="l" depth="1" NCoef="0" IVar="3" Cut="2.0723982155323029e-01" cType="1" res="-1.5699140727519989e-02" rms="4.5627418160438538e-01" purity="3.9200133085250854e-01" nType="0">
          <Node pos="l" depth="2" NCoef="0" IVar="-1" Cut="0.0000000000000000e+00" cType="1" res="-5.2711303578689694e-04" rms="4.5325219631195068e-01" purity="3.8080242276191711e-01" nType="-99"/>
          <Node pos="r" depth="2" NCoef="0" IVar="-1" Cut="0.0000000000000000e+00" cType="1" res="7.4971799040213227e-04" rms="4.7766172885894775e-01" purity="4.8777875304222107e-01" nType="-99"/>
        </Node>
        <Node pos="r" depth="1" NCoef="0" IVar="0" Cut="1.1319606751203537e-01" cType="1" res="1.7656415700912476e-02" rms="4.6337983012199402e-01" purity="6.2391215562820435e-01" nType="0">
          <Node pos="l" depth="2" NCoef="0" IVar="-1" Cut="0.0000000000000000e+00" cType="1" res="2.8220532840350643e-05" rms="4.6879687905311584e-01" purity="5.9893548488616943e-01" nType="-99"/>
          <Node pos="r" depth="2" NCoef="0" IVar="-1" Cut="0.0000000000000000e+00" cType="1" res="1.0376427089795470e-03" rms="4.4016587734222412e-01" purity="7.0884865522384644e-01" nType="-99"/>
        </Node>
      </Node>
    </BinaryTree>
    <BinaryTree type="DecisionTree" boostWeight="1.0000000000000000e+00" itree="703">
      <Node pos="s" depth="0" NCoef="0" IVar="0" Cut="1.9004644826054573e-02" cType="1" res="2.8365235775709152e-03" rms="4.5932412147521973e-01" purity="4.9912053346633911e-01" nType="0">
        <Node pos="l" depth="1" NCoef="0" IVar="-1" Cut="0.0000000000000000e+00" cType="1" res="-1.1055419454351068e-03" rms="4.6716824173927307e-01" purity="4.6231335401535034e-01" nType="-99"/>
        <Node pos="r" depth="1" NCoef="0" IVar="1" Cut="9.8436695337295532e-01" cType="1" res="7.2178896516561508e-03" rms="4.5842316746711731e-01" purity="5.0194317102432251e-01" nType="0">
          <Node pos="l" depth="2" NCoef="0" IVar="-1" Cut="0.0000000000000000e+00" cType="1" res="4.2571318772388622e-05" rms="4.6509107947349548e-01" purity="4.6670892834663391e-01" nType="-99"/>
          <Node pos="r" depth="2" NCoef="0" IVar="-1" Cut="0.0000000000000000e+00" cType="1" res="7.4157712515443563e-04" rms="3.9698639512062073e-01" purity="7.9159480333328247e-01" nType="-99"/>
        </Node>
      </Node>
    </BinaryTree>
    <BinaryTree type="DecisionTree" boostWeight="1.0000000000000000e+00" itree="704">
      <Node pos="s" depth="0" NCoef="0" IVar="1" Cut="9.8422193527221680e-01" cType="1" res="3.2260583247989416e-03" rms="4.5966541767120361e-01" purity="4.9965167045593262e-01" nType="0">
        <Node pos="l" depth="1" NCoef="0" IVar="2" Cut="7.2584497070312500e+02" cType="1" res="-1.9145421683788300e-03" rms="4.6633043885231018e-01" purity="4.6439948678016663e-01" nType="0">
          <Node pos="l" depth="2" NCoef="0" IVar="-1" Cut="0.0000000000000000e+00" cType="1" res="-1.2955794227309525e-04" rms="4.6702179312705994e-01" purity="4.4318249821662903e-01" nType="-99"/>
          <Node pos="r" depth="2" NCoef="0" IVar="-1" Cut="0.0000000000000000e+00" cType="1" res="6.4711616141721606e-04" rms="4.5692968368530273e-01" purity="6.7742913961410522e-01" nType="-99"/>
        </Node>
        <Node pos="r" depth="1" NCoef="0" IVar="-1" Cut="0.0000000000000000e+00" cType="1" res="6.8455399014055729e-04" rms="3.9875763654708862e-01" purity="7.8703135251998901e-01" nType="-99"/>
      </Node>
    </BinaryTree>
    <BinaryTree type="DecisionTree" boostWeight="1.0000000000000000e+00" itree="705">
      <Node pos="s" depth="0" NCoef="0" IVar="0" Cut="7.2578608989715576e-02" cType="1" res="7.3266406543552876e-03" rms="4.6006289124488831e-01" purity="5.0204652547836304e-01" nType="0">
        <Node pos="l" depth="1" NCoef="0" IVar="5" Cut="5.3676623535156250e+02" cType="1" res="-1.1477543972432613e-02" rms="4.6551826596260071e-01" purity="4.8427841067314148e-01" nType="0">
          <Node pos="l" depth="2" NCoef="0" IVar="-1" Cut="0.0000000000000000e+00" cType="1" res="-4.0285513387061656e-04" rms="4.6606507897377014e-01" purity="4.5282438397407532e-01" nType="-99"/>
          <Node pos="r" depth="2" NCoef="0" IVar="-1" Cut="0.0000000000000000e+00" cType="1" res="5.3972448222339153e-04" rms="4.5959791541099548e-01" purity="6.6532123088836670e-01" nType="-99"/>
        </Node>
        <Node pos="r" depth="1" NCoef="0" IVar="2" Cut="3.7053723144531250e+02" cType="1" res="2.2663788869976997e-02" rms="4.5498993992805481e-01" purity="5.1653861999511719e-01" nType="0">
          <Node pos="l" depth="2" NCoef="0" IVar="-1" Cut="0.0000000000000000e+00" cType="1" res="-5.8926834026351571e-04" rms="4.3619561195373535e-01" purity="3.2118216156959534e-01" nType="-99"/>
          <Node pos="r" depth="2" NCoef="0" IVar="-1" Cut="0.0000000000000000e+00" cType="1" res="6.9118343526497483e-04" rms="4.6214157342910767e-01" purity="6.0869562625885010e-01" nType="-99"/>
        </Node>
      </Node>
    </BinaryTree>
    <BinaryTree type="DecisionTree" boostWeight="1.0000000000000000e+00" itree="706">
      <Node pos="s" depth="0" NCoef="0" IVar="1" Cut="9.6950596570968628e-01" cType="1" res="3.3625564537942410e-03" rms="4.5880493521690369e-01" purity="4.9975648522377014e-01" nType="0">
        <Node pos="l" depth="1" NCoef="0" IVar="0" Cut="3.7376284599304199e-02" cType="1" res="-5.2365879528224468e-03" rms="4.6581700444221497e-01" purity="4.3048584461212158e-01" nType="0">
          <Node pos="l" depth="2" NCoef="0" IVar="-1" Cut="0.0000000000000000e+00" cType="1" res="-7.4031378608196974e-04" rms="4.7027787566184998e-01" purity="4.2340442538261414e-01" nType="-99"/>
          <Node pos="r" depth="2" NCoef="0" IVar="-1" Cut="0.0000000000000000e+00" cType="1" res="5.4147541959537193e-05" rms="4.6430355310440063e-01" purity="4.3237641453742981e-01" nType="-99"/>
        </Node>
        <Node pos="r" depth="1" NCoef="0" IVar="2" Cut="5.0057571411132812e+02" cType="1" res="2.8218861669301987e-02" rms="4.3695476651191711e-01" purity="6.9998717308044434e-01" nType="0">
          <Node pos="l" depth="2" NCoef="0" IVar="-1" Cut="0.0000000000000000e+00" cType="1" res="2.3965361469890922e-04" rms="4.5911830663681030e-01" purity="6.4479327201843262e-01" nType="-99"/>
          <Node pos="r" depth="2" NCoef="0" IVar="-1" Cut="0.0000000000000000e+00" cType="1" res="7.5492687756195664e-04" rms="3.9707383513450623e-01" purity="7.9042488336563110e-01" nType="-99"/>
        </Node>
      </Node>
    </BinaryTree>
    <BinaryTree type="DecisionTree" boostWeight="1.0000000000000000e+00" itree="707">
      <Node pos="s" depth="0" NCoef="0" IVar="6" Cut="2.3177828788757324e+00" cType="1" res="6.2734680250287056e-03" rms="4.5988842844963074e-01" purity="5.0332623720169067e-01" nType="0">
        <Node pos="l" depth="1" NCoef="0" IVar="5" Cut="2.6160726928710938e+02" cType="1" res="1.5855994075536728e-02" rms="4.6159133315086365e-01" purity="5.5172270536422729e-01" nType="0">
          <Node pos="l" depth="2" NCoef="0" IVar="-1" Cut="0.0000000000000000e+00" cType="1" res="-2.0314319408498704e-04" rms="4.5897254347801208e-01" purity="3.8540035486221313e-01" nType="-99"/>
          <Node pos="r" depth="2" NCoef="0" IVar="-1" Cut="0.0000000000000000e+00" cType="1" res="4.1552711627446115e-04" rms="4.6229794621467590e-01" purity="6.2173050642013550e-01" nType="-99"/>
        </Node>
        <Node pos="r" depth="1" NCoef="0" IVar="4" Cut="1.8080344423651695e-02" cType="1" res="-1.1301490478217602e-02" rms="4.5622584223747253e-01" purity="4.1456401348114014e-01" nType="0">
          <Node pos="l" depth="2" NCoef="0" IVar="-1" Cut="0.0000000000000000e+00" cType="1" res="2.2759515559300780e-04" rms="4.6292591094970703e-01" purity="4.6187442541122437e-01" nType="-99"/>
          <Node pos="r" depth="2" NCoef="0" IVar="-1" Cut="0.0000000000000000e+00" cType="1" res="-7.4365333421155810e-04" rms="4.4960585236549377e-01" purity="3.7461563944816589e-01" nType="-99"/>
        </Node>
      </Node>
    </BinaryTree>
    <BinaryTree type="DecisionTree" boostWeight="1.0000000000000000e+00" itree="708">
      <Node pos="s" depth="0" NCoef="0" IVar="6" Cut="1.6483289003372192e+00" cType="1" res="5.2459351718425751e-03" rms="4.5903888344764709e-01" purity="5.0120306015014648e-01" nType="0">
        <Node pos="l" depth="1" NCoef="0" IVar="-1" Cut="0.0000000000000000e+00" cType="1" res="8.3991431165486574e-04" rms="4.4493505358695984e-01" purity="6.1280637979507446e-01" nType="-99"/>
        <Node pos="r" depth="1" NCoef="0" IVar="0" Cut="1.8908357247710228e-02" cType="1" res="4.9154541920870543e-04" rms="4.6017661690711975e-01" purity="4.8989737033843994e-01" nType="0">
          <Node pos="l" depth="2" NCoef="0" IVar="-1" Cut="0.0000000000000000e+00" cType="1" res="-1.1476820800453424e-03" rms="4.7108480334281921e-01" purity="4.4564971327781677e-01" nType="-99"/>
          <Node pos="r" depth="2" NCoef="0" IVar="-1" Cut="0.0000000000000000e+00" cType="1" res="8.9894900156650692e-05" rms="4.5907032489776611e-01" purity="4.9323984980583191e-01" nType="-99"/>
        </Node>
      </Node>
    </BinaryTree>
    <BinaryTree type="DecisionTree" boostWeight="1.0000000000000000e+00" itree="709">
      <Node pos="s" depth="0" NCoef="0" IVar="5" Cut="5.2955725097656250e+02" cType="1" res="-2.4210650008171797e-03" rms="4.5951411128044128e-01" purity="4.9315327405929565e-01" nType="0">
        <Node pos="l" depth="1" NCoef="0" IVar="1" Cut="9.8448842763900757e-01" cType="1" res="-7.2630778886377811e-03" rms="4.6040651202201843e-01" purity="4.7364982962608337e-01" nType="0">
          <Node pos="l" depth="2" NCoef="0" IVar="-1" Cut="0.0000000000000000e+00" cType="1" res="-2.4152916739694774e-04" rms="4.6586772799491882e-01" purity="4.3988347053527832e-01" nType="-99"/>
          <Node pos="r" depth="2" NCoef="0" IVar="-1" Cut="0.0000000000000000e+00" cType="1" res="5.0755159463733435e-04" rms="4.0650466084480286e-01" purity="7.7365690469741821e-01" nType="-99"/>
        </Node>
        <Node pos="r" depth="1" NCoef="0" IVar="-1" Cut="0.0000000000000000e+00" cType="1" res="7.1208307053893805e-04" rms="4.4741523265838623e-01" purity="6.9092106819152832e-01" nType="-99"/>
      </Node>
    </BinaryTree>
    <BinaryTree type="DecisionTree" boostWeight="1.0000000000000000e+00" itree="710">
      <Node pos="s" depth="0" NCoef="0" IVar="4" Cut="-3.8977670483291149e-03" cType="1" res="6.2851314432919025e-03" rms="4.5984360575675964e-01" purity="5.0187009572982788e-01" nType="0">
        <Node pos="l" depth="1" NCoef="0" IVar="5" Cut="2.8449765014648438e+02" cType="1" res="2.3474376648664474e-02" rms="4.5676419138908386e-01" purity="5.3622454404830933e-01" nType="0">
          <Node pos="l" depth="2" NCoef="0" IVar="-1" Cut="0.0000000000000000e+00" cType="1" res="-6.7837805545423180e-05" rms="4.5511958003044128e-01" purity="3.9995962381362915e-01" nType="-99"/>
          <Node pos="r" depth="2" NCoef="0" IVar="-1" Cut="0.0000000000000000e+00" cType="1" res="6.8685406586155295e-04" rms="4.5696723461151123e-01" purity="6.4679962396621704e-01" nType="-99"/>
        </Node>
        <Node pos="r" depth="1" NCoef="0" IVar="3" Cut="1.5754245221614838e-01" cType="1" res="-6.6569675691425800e-03" rms="4.6172651648521423e-01" purity="4.7600406408309937e-01" nType="0">
          <Node pos="l" depth="2" NCoef="0" IVar="-1" Cut="0.0000000000000000e+00" cType="1" res="-4.4882914517074823e-04" rms="4.5740941166877747e-01" purity="4.4536712765693665e-01" nType="-99"/>
          <Node pos="r" depth="2" NCoef="0" IVar="-1" Cut="0.0000000000000000e+00" cType="1" res="4.9574108561500907e-04" rms="4.7003665566444397e-01" purity="5.4911673069000244e-01" nType="-99"/>
        </Node>
      </Node>
    </BinaryTree>
    <BinaryTree type="DecisionTree" boostWeight="1.0000000000000000e+00" itree="711">
      <Node pos="s" depth="0" NCoef="0" IVar="2" Cut="6.7046679687500000e+02" cType="1" res="5.0704013556241989e-03" rms="4.6009257435798645e-01" purity="5.0131511688232422e-01" nType="0">
        <Node pos="l" depth="1" NCoef="0" IVar="3" Cut="2.0857085287570953e-01" cType="1" res="3.8159367977641523e-04" rms="4.6166643500328064e-01" purity="4.7506794333457947e-01" nType="0">
          <Node pos="l" depth="2" NCoef="0" IVar="-1" Cut="0.0000000000000000e+00" cType="1" res="-8.3698439993895590e-05" rms="4.6090331673622131e-01" purity="4.6557494997978210e-01" nType="-99"/>
          <Node pos="r" depth="2" NCoef="0" IVar="-1" Cut="0.0000000000000000e+00" cType="1" res="6.9127819733694196e-04" rms="4.6635505557060242e-01" purity="5.5729097127914429e-01" nType="-99"/>
        </Node>
        <Node pos="r" depth="1" NCoef="0" IVar="-1" Cut="0.0000000000000000e+00" cType="1" res="5.8624194934964180e-04" rms="4.4745680689811707e-01" purity="6.8624413013458252e-01" nType="-99"/>
      </Node>
    </BinaryTree>
    <BinaryTree type="DecisionTree" boostWeight="1.0000000000000000e+00" itree="712">
      <Node pos="s" depth="0" NCoef="0" IVar="3" Cut="1.6725878417491913e-01" cType="1" res="2.7541499584913254e-03" rms="4.6040508151054382e-01" purity="4.9843463301658630e-01" nType="0">
        <Node pos="l" depth="1" NCoef="0" IVar="4" Cut="1.3107022643089294e-01" cType="1" res="-4.1010077111423016e-03" rms="4.5906916260719299e-01" purity="4.8507919907569885e-01" nType="0">
          <Node pos="l" depth="2" NCoef="0" IVar="-1" Cut="0.0000000000000000e+00" cType="1" res="1.3561709238274489e-05" rms="4.5961543917655945e-01" purity="4.9559155106544495e-01" nType="-99"/>
          <Node pos="r" depth="2" NCoef="0" IVar="-1" Cut="0.0000000000000000e+00" cType="1" res="-1.3541504740715027e-03" rms="4.5012640953063965e-01" purity="3.7395909428596497e-01" nType="-99"/>
        </Node>
        <Node pos="r" depth="1" NCoef="0" IVar="1" Cut="9.4561636447906494e-01" cType="1" res="3.6981590092182159e-02" rms="4.6551027894020081e-01" purity="5.6511747837066650e-01" nType="0">
          <Node pos="l" depth="2" NCoef="0" IVar="-1" Cut="0.0000000000000000e+00" cType="1" res="4.2192274122498930e-04" rms="4.8178687691688538e-01" purity="4.4947317242622375e-01" nType="-99"/>
          <Node pos="r" depth="2" NCoef="0" IVar="-1" Cut="0.0000000000000000e+00" cType="1" res="7.6151086250320077e-04" rms="4.5287990570068359e-01" purity="6.4973378181457520e-01" nType="-99"/>
        </Node>
      </Node>
    </BinaryTree>
    <BinaryTree type="DecisionTree" boostWeight="1.0000000000000000e+00" itree="713">
      <Node pos="s" depth="0" NCoef="0" IVar="1" Cut="9.4861966371536255e-01" cType="1" res="2.8166137635707855e-03" rms="4.5977619290351868e-01" purity="4.9759539961814880e-01" nType="0">
        <Node pos="l" depth="1" NCoef="0" IVar="3" Cut="1.9047275185585022e-01" cType="1" res="-1.1233462952077389e-02" rms="4.6028071641921997e-01" purity="3.8241967558860779e-01" nType="0">
          <Node pos="l" depth="2" NCoef="0" IVar="-1" Cut="0.0000000000000000e+00" cType="1" res="-3.9627746446058154e-04" rms="4.5748883485794067e-01" purity="3.6995124816894531e-01" nType="-99"/>
          <Node pos="r" depth="2" NCoef="0" IVar="-1" Cut="0.0000000000000000e+00" cType="1" res="4.4614964281208813e-04" rms="4.7650364041328430e-01" purity="4.6312806010246277e-01" nType="-99"/>
        </Node>
        <Node pos="r" depth="1" NCoef="0" IVar="2" Cut="5.3546942138671875e+02" cType="1" res="1.4217470772564411e-02" rms="4.5905047655105591e-01" purity="5.9105408191680908e-01" nType="0">
          <Node pos="l" depth="2" NCoef="0" IVar="-1" Cut="0.0000000000000000e+00" cType="1" res="8.5775616753380746e-05" rms="4.6890532970428467e-01" purity="5.3619831800460815e-01" nType="-99"/>
          <Node pos="r" depth="2" NCoef="0" IVar="-1" Cut="0.0000000000000000e+00" cType="1" res="5.5929092923179269e-04" rms="4.3318128585815430e-01" purity="7.2505986690521240e-01" nType="-99"/>
        </Node>
      </Node>
    </BinaryTree>
    <BinaryTree type="DecisionTree" boostWeight="1.0000000000000000e+00" itree="714">
      <Node pos="s" depth="0" NCoef="0" IVar="5" Cut="2.4185116577148438e+02" cType="1" res="1.5629880363121629e-03" rms="4.6015140414237976e-01" purity="4.9606549739837646e-01" nType="0">
        <Node pos="l" depth="1" NCoef="0" IVar="5" Cut="2.1836439514160156e+02" cType="1" res="-2.4722574278712273e-02" rms="4.3739527463912964e-01" purity="3.0626735091209412e-01" nType="0">
          <Node pos="l" depth="2" NCoef="0" IVar="-1" Cut="0.0000000000000000e+00" cType="1" res="-1.2873319210484624e-03" rms="4.1942071914672852e-01" purity="2.6953998208045959e-01" nType="-99"/>
          <Node pos="r" depth="2" NCoef="0" IVar="-1" Cut="0.0000000000000000e+00" cType="1" res="-1.7237386782653630e-04" rms="4.5814406871795654e-01" purity="3.5196229815483093e-01" nType="-99"/>
        </Node>
        <Node pos="r" depth="1" NCoef="0" IVar="0" Cut="6.5315559506416321e-02" cType="1" res="9.1029573231935501e-03" rms="4.6620064973831177e-01" purity="5.5050879716873169e-01" nType="0">
          <Node pos="l" depth="2" NCoef="0" IVar="-1" Cut="0.0000000000000000e+00" cType="1" res="-1.8841832934413105e-04" rms="4.7135910391807556e-01" purity="5.1970255374908447e-01" nType="-99"/>
          <Node pos="r" depth="2" NCoef="0" IVar="-1" Cut="0.0000000000000000e+00" cType="1" res="4.1084398981183767e-04" rms="4.6147927641868591e-01" purity="5.7500183582305908e-01" nType="-99"/>
        </Node>
      </Node>
    </BinaryTree>
    <BinaryTree type="DecisionTree" boostWeight="1.0000000000000000e+00" itree="715">
      <Node pos="s" depth="0" NCoef="0" IVar="3" Cut="1.4587637782096863e-01" cType="1" res="4.6418821439146996e-03" rms="4.5989832282066345e-01" purity="5.0051146745681763e-01" nType="0">
        <Node pos="l" depth="1" NCoef="0" IVar="4" Cut="5.6160908192396164e-02" cType="1" res="-4.2033549398183823e-03" rms="4.5743742585182190e-01" purity="4.8459479212760925e-01" nType="0">
          <Node pos="l" depth="2" NCoef="0" IVar="-1" Cut="0.0000000000000000e+00" cType="1" res="1.1702634947141632e-04" rms="4.5848700404167175e-01" purity="5.0772255659103394e-01" nType="-99"/>
          <Node pos="r" depth="2" NCoef="0" IVar="-1" Cut="0.0000000000000000e+00" cType="1" res="-7.9881335841491818e-04" rms="4.5275545120239258e-01" purity="4.1422393918037415e-01" nType="-99"/>
        </Node>
        <Node pos="r" depth="1" NCoef="0" IVar="3" Cut="2.1015903353691101e-01" cType="1" res="3.8195434957742691e-02" rms="4.6759748458862305e-01" purity="5.6088989973068237e-01" nType="0">
          <Node pos="l" depth="2" NCoef="0" IVar="-1" Cut="0.0000000000000000e+00" cType="1" res="4.1102306568063796e-04" rms="4.7207143902778625e-01" purity="5.3728240728378296e-01" nType="-99"/>
          <Node pos="r" depth="2" NCoef="0" IVar="-1" Cut="0.0000000000000000e+00" cType="1" res="9.1634131968021393e-04" rms="4.6211808919906616e-01" purity="5.8647972345352173e-01" nType="-99"/>
        </Node>
      </Node>
    </BinaryTree>
    <BinaryTree type="DecisionTree" boostWeight="1.0000000000000000e+00" itree="716">
      <Node pos="s" depth="0" NCoef="0" IVar="1" Cut="9.8430716991424561e-01" cType="1" res="4.2900550179183483e-03" rms="4.5868447422981262e-01" purity="5.0136983394622803e-01" nType="0">
        <Node pos="l" depth="1" NCoef="0" IVar="2" Cut="7.5291339111328125e+02" cType="1" res="-1.4392174780368805e-03" rms="4.6536174416542053e-01" purity="4.6615198254585266e-01" nType="0">
          <Node pos="l" depth="2" NCoef="0" IVar="-1" Cut="0.0000000000000000e+00" cType="1" res="-1.1626277409959584e-04" rms="4.6611642837524414e-01" purity="4.4764950871467590e-01" nType="-99"/>
          <Node pos="r" depth="2" NCoef="0" IVar="-1" Cut="0.0000000000000000e+00" cType="1" res="7.3830602923408151e-04" rms="4.5302993059158325e-01" purity="6.8842160701751709e-01" nType="-99"/>
        </Node>
        <Node pos="r" depth="1" NCoef="0" IVar="-1" Cut="0.0000000000000000e+00" cType="1" res="7.8736664727330208e-04" rms="3.9587965607643127e-01" purity="7.9328757524490356e-01" nType="-99"/>
      </Node>
    </BinaryTree>
    <BinaryTree type="DecisionTree" boostWeight="1.0000000000000000e+00" itree="717">
      <Node pos="s" depth="0" NCoef="0" IVar="1" Cut="9.6666228771209717e-01" cType="1" res="4.7098710201680660e-03" rms="4.5985609292984009e-01" purity="5.0148767232894897e-01" nType="0">
        <Node pos="l" depth="1" NCoef="0" IVar="3" Cut="1.3594934344291687e-01" cType="1" res="-4.1078603826463223e-03" rms="4.6723574399948120e-01" purity="4.2534101009368896e-01" nType="0">
          <Node pos="l" depth="2" NCoef="0" IVar="-1" Cut="0.0000000000000000e+00" cType="1" res="-2.0341674098744988e-04" rms="4.6390512585639954e-01" purity="4.1022041440010071e-01" nType="-99"/>
          <Node pos="r" depth="2" NCoef="0" IVar="-1" Cut="0.0000000000000000e+00" cType="1" res="2.6243450702168047e-04" rms="4.7807297110557556e-01" purity="4.7736176848411560e-01" nType="-99"/>
        </Node>
        <Node pos="r" depth="1" NCoef="0" IVar="6" Cut="2.4516458511352539e+00" cType="1" res="2.6176407933235168e-02" rms="4.4063800573348999e-01" purity="6.8686473369598389e-01" nType="0">
          <Node pos="l" depth="2" NCoef="0" IVar="-1" Cut="0.0000000000000000e+00" cType="1" res="5.4524949518963695e-04" rms="4.3023523688316345e-01" purity="7.2225469350814819e-01" nType="-99"/>
          <Node pos="r" depth="2" NCoef="0" IVar="-1" Cut="0.0000000000000000e+00" cType="1" res="-1.8968788208439946e-04" rms="4.7757184505462646e-01" purity="5.4758948087692261e-01" nType="-99"/>
        </Node>
      </Node>
    </BinaryTree>
    <BinaryTree type="DecisionTree" boostWeight="1.0000000000000000e+00" itree="718">
      <Node pos="s" depth="0" NCoef="0" IVar="6" Cut="1.5386719703674316e+00" cType="1" res="3.6228357348591089e-03" rms="4.5888599753379822e-01" purity="5.0009524822235107e-01" nType="0">
        <Node pos="l" depth="1" NCoef="0" IVar="-1" Cut="0.0000000000000000e+00" cType="1" res="9.6752546960487962e-04" rms="4.3557476997375488e-01" purity="6.3604062795639038e-01" nType="-99"/>
        <Node pos="r" depth="1" NCoef="0" IVar="0" Cut="1.2812004983425140e-01" cType="1" res="-6.4168107928708196e-04" rms="4.6025842428207397e-01" purity="4.9013382196426392e-01" nType="0">
          <Node pos="l" depth="2" NCoef="0" IVar="-1" Cut="0.0000000000000000e+00" cType="1" res="-1.7780695634428412e-04" rms="4.6122997999191284e-01" purity="4.8344773054122925e-01" nType="-99"/>
          <Node pos="r" depth="2" NCoef="0" IVar="-1" Cut="0.0000000000000000e+00" cType="1" res="4.1028609848581254e-04" rms="4.5687824487686157e-01" purity="5.0806272029876709e-01" nType="-99"/>
        </Node>
      </Node>
    </BinaryTree>
    <BinaryTree type="DecisionTree" boostWeight="1.0000000000000000e+00" itree="719">
      <Node pos="s" depth="0" NCoef="0" IVar="1" Cut="9.8436695337295532e-01" cType="1" res="4.3080239556729794e-03" rms="4.6027097105979919e-01" purity="5.0019115209579468e-01" nType="0">
        <Node pos="l" depth="1" NCoef="0" IVar="4" Cut="-8.2657389342784882e-02" cType="1" res="-4.2370645678602159e-04" rms="4.6687194705009460e-01" purity="4.6622151136398315e-01" nType="0">
          <Node pos="l" depth="2" NCoef="0" IVar="-1" Cut="0.0000000000000000e+00" cType="1" res="8.7396008893847466e-04" rms="4.6265569329261780e-01" purity="5.3530555963516235e-01" nType="-99"/>
          <Node pos="r" depth="2" NCoef="0" IVar="-1" Cut="0.0000000000000000e+00" cType="1" res="-8.5953593952581286e-05" rms="4.6696487069129944e-01" purity="4.6091485023498535e-01" nType="-99"/>
        </Node>
        <Node pos="r" depth="1" NCoef="0" IVar="-1" Cut="0.0000000000000000e+00" cType="1" res="6.8199128145352006e-04" rms="3.9757233858108521e-01" purity="7.8871095180511475e-01" nType="-99"/>
      </Node>
    </BinaryTree>
    <BinaryTree type="DecisionTree" boostWeight="1.0000000000000000e+00" itree="720">
      <Node pos="s" depth="0" NCoef="0" IVar="3" Cut="1.8937726318836212e-01" cType="1" res="1.1563522275537252e-03" rms="4.6060538291931152e-01" purity="4.9554511904716492e-01" nType="0">
        <Node pos="l" depth="1" NCoef="0" IVar="5" Cut="5.4612097167968750e+02" cType="1" res="-4.8582493327558041e-03" rms="4.5925354957580566e-01" purity="4.8450908064842224e-01" nType="0">
          <Node pos="l" depth="2" NCoef="0" IVar="-1" Cut="0.0000000000000000e+00" cType="1" res="-1.8429657211527228e-04" rms="4.6005845069885254e-01" purity="4.6587729454040527e-01" nType="-99"/>
          <Node pos="r" depth="2" NCoef="0" IVar="-1" Cut="0.0000000000000000e+00" cType="1" res="6.5308361081406474e-04" rms="4.4757527112960815e-01" purity="6.8945926427841187e-01" nType="-99"/>
        </Node>
        <Node pos="r" depth="1" NCoef="0" IVar="4" Cut="1.1875326931476593e-01" cType="1" res="4.1626237332820892e-02" rms="4.6759292483329773e-01" purity="5.6980228424072266e-01" nType="0">
          <Node pos="l" depth="2" NCoef="0" IVar="-1" Cut="0.0000000000000000e+00" cType="1" res="4.3727920274250209e-04" rms="4.6685934066772461e-01" purity="5.5756556987762451e-01" nType="-99"/>
          <Node pos="r" depth="2" NCoef="0" IVar="-1" Cut="0.0000000000000000e+00" cType="1" res="9.8977133166044950e-04" rms="4.6771016716957092e-01" purity="5.8301883935928345e-01" nType="-99"/>
        </Node>
      </Node>
    </BinaryTree>
    <BinaryTree type="DecisionTree" boostWeight="1.0000000000000000e+00" itree="721">
      <Node pos="s" depth="0" NCoef="0" IVar="2" Cut="6.4545660400390625e+02" cType="1" res="-1.4768955297768116e-03" rms="4.5831295847892761e-01" purity="4.9597296118736267e-01" nType="0">
        <Node pos="l" depth="1" NCoef="0" IVar="5" Cut="2.1372433471679688e+02" cType="1" res="-8.0913659185171127e-03" rms="4.5974683761596680e-01" purity="4.6389594674110413e-01" nType="0">
          <Node pos="l" depth="2" NCoef="0" IVar="-1" Cut="0.0000000000000000e+00" cType="1" res="-1.4356069732457399e-03" rms="4.1233852505683899e-01" purity="2.6134151220321655e-01" nType="-99"/>
          <Node pos="r" depth="2" NCoef="0" IVar="-1" Cut="0.0000000000000000e+00" cType="1" res="-6.3033752667251974e-05" rms="4.6590211987495422e-01" purity="4.9271133542060852e-01" nType="-99"/>
        </Node>
        <Node pos="r" depth="1" NCoef="0" IVar="0" Cut="3.8741860538721085e-02" cType="1" res="3.7098526954650879e-02" rms="4.4791799783706665e-01" purity="6.8304538726806641e-01" nType="0">
          <Node pos="l" depth="2" NCoef="0" IVar="-1" Cut="0.0000000000000000e+00" cType="1" res="1.1822785745607689e-04" rms="4.6952998638153076e-01" purity="6.2650460004806519e-01" nType="-99"/>
          <Node pos="r" depth="2" NCoef="0" IVar="-1" Cut="0.0000000000000000e+00" cType="1" res="9.1946061002090573e-04" rms="4.2702591419219971e-01" purity="7.3119878768920898e-01" nType="-99"/>
        </Node>
      </Node>
    </BinaryTree>
    <BinaryTree type="DecisionTree" boostWeight="1.0000000000000000e+00" itree="722">
      <Node pos="s" depth="0" NCoef="0" IVar="1" Cut="9.2754805088043213e-01" cType="1" res="-3.5729134106077254e-04" rms="4.5783591270446777e-01" purity="4.9734589457511902e-01" nType="0">
        <Node pos="l" depth="1" NCoef="0" IVar="3" Cut="1.0343762487173080e-01" cType="1" res="-3.2687209546566010e-02" rms="4.4534605741500854e-01" purity="3.3087998628616333e-01" nType="0">
          <Node pos="l" depth="2" NCoef="0" IVar="-1" Cut="0.0000000000000000e+00" cType="1" res="-1.1715653818100691e-03" rms="4.3756541609764099e-01" purity="3.0685973167419434e-01" nType="-99"/>
          <Node pos="r" depth="2" NCoef="0" IVar="-1" Cut="0.0000000000000000e+00" cType="1" res="-2.5091157294809818e-04" rms="4.6207571029663086e-01" purity="3.8626888394355774e-01" nType="-99"/>
        </Node>
        <Node pos="r" depth="1" NCoef="0" IVar="5" Cut="4.7799530029296875e+02" cType="1" res="7.2767455130815506e-03" rms="4.6040451526641846e-01" purity="5.3665333986282349e-01" nType="0">
          <Node pos="l" depth="2" NCoef="0" IVar="-1" Cut="0.0000000000000000e+00" cType="1" res="1.6589685401413590e-05" rms="4.6366751194000244e-01" purity="5.0890046358108521e-01" nType="-99"/>
          <Node pos="r" depth="2" NCoef="0" IVar="-1" Cut="0.0000000000000000e+00" cType="1" res="7.2908442234620452e-04" rms="4.3674212694168091e-01" purity="7.1425598859786987e-01" nType="-99"/>
        </Node>
      </Node>
    </BinaryTree>
    <BinaryTree type="DecisionTree" boostWeight="1.0000000000000000e+00" itree="723">
      <Node pos="s" depth="0" NCoef="0" IVar="1" Cut="9.2427521944046021e-01" cType="1" res="1.5149790560826659e-03" rms="4.5789885520935059e-01" purity="4.9978429079055786e-01" nType="0">
        <Node pos="l" depth="1" NCoef="0" IVar="0" Cut="5.2614580839872360e-02" cType="1" res="-3.4143108874559402e-02" rms="4.4540897011756897e-01" purity="3.2620662450790405e-01" nType="0">
          <Node pos="l" depth="2" NCoef="0" IVar="-1" Cut="0.0000000000000000e+00" cType="1" res="-3.3469972549937665e-04" rms="4.6364891529083252e-01" purity="3.6599561572074890e-01" nType="-99"/>
          <Node pos="r" depth="2" NCoef="0" IVar="-1" Cut="0.0000000000000000e+00" cType="1" res="-1.2880020076408982e-03" rms="4.3461045622825623e-01" purity="3.0425471067428589e-01" nType="-99"/>
        </Node>
        <Node pos="r" depth="1" NCoef="0" IVar="3" Cut="6.0196358710527420e-02" cType="1" res="8.4031289443373680e-03" rms="4.5995402336120605e-01" purity="5.3331470489501953e-01" nType="0">
          <Node pos="l" depth="2" NCoef="0" IVar="-1" Cut="0.0000000000000000e+00" cType="1" res="-5.0565693527460098e-05" rms="4.5899176597595215e-01" purity="5.0724625587463379e-01" nType="-99"/>
          <Node pos="r" depth="2" NCoef="0" IVar="-1" Cut="0.0000000000000000e+00" cType="1" res="4.5240035979077220e-04" rms="4.6094599366188049e-01" purity="5.7572323083877563e-01" nType="-99"/>
        </Node>
      </Node>
    </BinaryTree>
    <BinaryTree type="DecisionTree" boostWeight="1.0000000000000000e+00" itree="724">
      <Node pos="s" depth="0" NCoef="0" IVar="2" Cut="6.0656018066406250e+02" cType="1" res="4.0634502656757832e-03" rms="4.5968416333198547e-01" purity="5.0028198957443237e-01" nType="0">
        <Node pos="l" depth="1" NCoef="0" IVar="0" Cut="1.2710918486118317e-01" cType="1" res="-2.7077959384769201e-03" rms="4.6178901195526123e-01" purity="4.5950236916542053e-01" nType="0">
          <Node pos="l" depth="2" NCoef="0" IVar="-1" Cut="0.0000000000000000e+00" cType="1" res="-2.5307896430604160e-04" rms="4.6168333292007446e-01" purity="4.4493001699447632e-01" nType="-99"/>
          <Node pos="r" depth="2" NCoef="0" IVar="-1" Cut="0.0000000000000000e+00" cType="1" res="3.4937201417051256e-04" rms="4.6133032441139221e-01" purity="4.9183851480484009e-01" nType="-99"/>
        </Node>
        <Node pos="r" depth="1" NCoef="0" IVar="0" Cut="4.9442123621702194e-02" cType="1" res="3.3484317362308502e-02" rms="4.4924083352088928e-01" purity="6.7746829986572266e-01" nType="0">
          <Node pos="l" depth="2" NCoef="0" IVar="-1" Cut="0.0000000000000000e+00" cType="1" res="1.2421263090800494e-04" rms="4.6563169360160828e-01" purity="6.2789994478225708e-01" nType="-99"/>
          <Node pos="r" depth="2" NCoef="0" IVar="-1" Cut="0.0000000000000000e+00" cType="1" res="9.3181413831189275e-04" rms="4.2778447270393372e-01" purity="7.3431396484375000e-01" nType="-99"/>
        </Node>
      </Node>
    </BinaryTree>
    <BinaryTree type="DecisionTree" boostWeight="1.0000000000000000e+00" itree="725">
      <Node pos="s" depth="0" NCoef="0" IVar="4" Cut="-2.3899696767330170e-02" cType="1" res="5.8282813988626003e-03" rms="4.5853653550148010e-01" purity="5.0334185361862183e-01" nType="0">
        <Node pos="l" depth="1" NCoef="0" IVar="5" Cut="2.8600686645507812e+02" cType="1" res="2.5509150698781013e-02" rms="4.5677271485328674e-01" purity="5.3864985704421997e-01" nType="0">
          <Node pos="l" depth="2" NCoef="0" IVar="-1" Cut="0.0000000000000000e+00" cType="1" res="2.5393406758666970e-05" rms="4.5879808068275452e-01" purity="4.0478375554084778e-01" nType="-99"/>
          <Node pos="r" depth="2" NCoef="0" IVar="-1" Cut="0.0000000000000000e+00" cType="1" res="7.0365628926083446e-04" rms="4.5406576991081238e-01" purity="6.5073841810226440e-01" nType="-99"/>
        </Node>
        <Node pos="r" depth="1" NCoef="0" IVar="6" Cut="1.6919307708740234e+00" cType="1" res="-3.6326716654002666e-03" rms="4.5908185839653015e-01" purity="4.8636868596076965e-01" nType="0">
          <Node pos="l" depth="2" NCoef="0" IVar="-1" Cut="0.0000000000000000e+00" cType="1" res="8.3057442680001259e-04" rms="4.4781202077865601e-01" purity="6.1172616481781006e-01" nType="-99"/>
          <Node pos="r" depth="2" NCoef="0" IVar="-1" Cut="0.0000000000000000e+00" cType="1" res="-1.9926160166505724e-04" rms="4.5992437005043030e-01" purity="4.7205513715744019e-01" nType="-99"/>
        </Node>
      </Node>
    </BinaryTree>
    <BinaryTree type="DecisionTree" boostWeight="1.0000000000000000e+00" itree="726">
      <Node pos="s" depth="0" NCoef="0" IVar="1" Cut="9.7826415300369263e-01" cType="1" res="1.5076251002028584e-03" rms="4.5808467268943787e-01" purity="4.9935206770896912e-01" nType="0">
        <Node pos="l" depth="1" NCoef="0" IVar="4" Cut="4.8531524837017059e-02" cType="1" res="-4.6574603766202927e-03" rms="4.6553263068199158e-01" purity="4.4966596364974976e-01" nType="0">
          <Node pos="l" depth="2" NCoef="0" IVar="-1" Cut="0.0000000000000000e+00" cType="1" res="1.0422281047794968e-04" rms="4.6564954519271851e-01" purity="4.6849405765533447e-01" nType="-99"/>
          <Node pos="r" depth="2" NCoef="0" IVar="-1" Cut="0.0000000000000000e+00" cType="1" res="-5.0342251779511571e-04" rms="4.6474316716194153e-01" purity="4.1485100984573364e-01" nType="-99"/>
        </Node>
        <Node pos="r" depth="1" NCoef="0" IVar="-1" Cut="0.0000000000000000e+00" cType="1" res="5.0739519065245986e-04" rms="4.1665491461753845e-01" purity="7.5257843732833862e-01" nType="-99"/>
      </Node>
    </BinaryTree>
    <BinaryTree type="DecisionTree" boostWeight="1.0000000000000000e+00" itree="727">
      <Node pos="s" depth="0" NCoef="0" IVar="1" Cut="9.8422193527221680e-01" cType="1" res="2.0934825297445059e-03" rms="4.5997440814971924e-01" purity="4.9745449423789978e-01" nType="0">
        <Node pos="l" depth="1" NCoef="0" IVar="6" Cut="1.9459652900695801e+00" cType="1" res="-3.1087959650903940e-03" rms="4.6684318780899048e-01" purity="4.6194577217102051e-01" nType="0">
          <Node pos="l" depth="2" NCoef="0" IVar="-1" Cut="0.0000000000000000e+00" cType="1" res="4.0412382804788649e-04" rms="4.6706205606460571e-01" purity="5.3697919845581055e-01" nType="-99"/>
          <Node pos="r" depth="2" NCoef="0" IVar="-1" Cut="0.0000000000000000e+00" cType="1" res="-2.0669458899646997e-04" rms="4.6653857827186584e-01" purity="4.4231402873992920e-01" nType="-99"/>
        </Node>
        <Node pos="r" depth="1" NCoef="0" IVar="-1" Cut="0.0000000000000000e+00" cType="1" res="6.8446417571976781e-04" rms="3.9642953872680664e-01" purity="7.8954184055328369e-01" nType="-99"/>
      </Node>
    </BinaryTree>
    <BinaryTree type="DecisionTree" boostWeight="1.0000000000000000e+00" itree="728">
      <Node pos="s" depth="0" NCoef="0" IVar="6" Cut="1.5860899686813354e+00" cType="1" res="4.3993390863761306e-04" rms="4.5907416939735413e-01" purity="4.9589163064956665e-01" nType="0">
        <Node pos="l" depth="1" NCoef="0" IVar="-1" Cut="0.0000000000000000e+00" cType="1" res="8.1961328396573663e-04" rms="4.3897032737731934e-01" purity="6.1887997388839722e-01" nType="-99"/>
        <Node pos="r" depth="1" NCoef="0" IVar="0" Cut="1.9004644826054573e-02" cType="1" res="-3.8818356115370989e-03" rms="4.6046483516693115e-01" purity="4.8554125428199768e-01" nType="0">
          <Node pos="l" depth="2" NCoef="0" IVar="-1" Cut="0.0000000000000000e+00" cType="1" res="-1.3131952146068215e-03" rms="4.7323858737945557e-01" purity="4.3775597214698792e-01" nType="-99"/>
          <Node pos="r" depth="2" NCoef="0" IVar="-1" Cut="0.0000000000000000e+00" cType="1" res="1.0731369911809452e-05" rms="4.5917710661888123e-01" purity="4.8917073011398315e-01" nType="-99"/>
        </Node>
      </Node>
    </BinaryTree>
    <BinaryTree type="DecisionTree" boostWeight="1.0000000000000000e+00" itree="729">
      <Node pos="s" depth="0" NCoef="0" IVar="2" Cut="6.8235430908203125e+02" cType="1" res="4.0196962654590607e-03" rms="4.5875141024589539e-01" purity="5.0105959177017212e-01" nType="0">
        <Node pos="l" depth="1" NCoef="0" IVar="6" Cut="2.7967295646667480e+00" cType="1" res="-7.4728694744408131e-04" rms="4.6000480651855469e-01" purity="4.7591015696525574e-01" nType="0">
          <Node pos="l" depth="2" NCoef="0" IVar="-1" Cut="0.0000000000000000e+00" cType="1" res="5.7233180996263400e-05" rms="4.6267643570899963e-01" purity="4.9194365739822388e-01" nType="-99"/>
          <Node pos="r" depth="2" NCoef="0" IVar="-1" Cut="0.0000000000000000e+00" cType="1" res="-1.7551444470882416e-03" rms="4.1969215869903564e-01" purity="2.6261478662490845e-01" nType="-99"/>
        </Node>
        <Node pos="r" depth="1" NCoef="0" IVar="-1" Cut="0.0000000000000000e+00" cType="1" res="6.1159406322985888e-04" rms="4.4761270284652710e-01" purity="6.8985158205032349e-01" nType="-99"/>
      </Node>
    </BinaryTree>
    <BinaryTree type="DecisionTree" boostWeight="1.0000000000000000e+00" itree="730">
      <Node pos="s" depth="0" NCoef="0" IVar="5" Cut="2.6904431152343750e+02" cType="1" res="9.6757488790899515e-04" rms="4.5838189125061035e-01" purity="4.9820515513420105e-01" nType="0">
        <Node pos="l" depth="1" NCoef="0" IVar="2" Cut="3.0242358398437500e+02" cType="1" res="-2.0984027534723282e-02" rms="4.4346368312835693e-01" purity="3.4250378608703613e-01" nType="0">
          <Node pos="l" depth="2" NCoef="0" IVar="-1" Cut="0.0000000000000000e+00" cType="1" res="-2.2151935845613480e-03" rms="3.8568192720413208e-01" purity="2.1417051553726196e-01" nType="-99"/>
          <Node pos="r" depth="2" NCoef="0" IVar="-1" Cut="0.0000000000000000e+00" cType="1" res="-3.1844555633142591e-04" rms="4.5512029528617859e-01" purity="3.7146195769309998e-01" nType="-99"/>
        </Node>
        <Node pos="r" depth="1" NCoef="0" IVar="0" Cut="1.7108786106109619e-01" cType="1" res="1.2216095812618732e-02" rms="4.6544021368026733e-01" purity="5.7799023389816284e-01" nType="0">
          <Node pos="l" depth="2" NCoef="0" IVar="-1" Cut="0.0000000000000000e+00" cType="1" res="6.5423308114986867e-05" rms="4.6740254759788513e-01" purity="5.6596636772155762e-01" nType="-99"/>
          <Node pos="r" depth="2" NCoef="0" IVar="-1" Cut="0.0000000000000000e+00" cType="1" res="1.1524633737280965e-03" rms="4.4381847977638245e-01" purity="6.7403030395507812e-01" nType="-99"/>
        </Node>
      </Node>
    </BinaryTree>
    <BinaryTree type="DecisionTree" boostWeight="1.0000000000000000e+00" itree="731">
      <Node pos="s" depth="0" NCoef="0" IVar="1" Cut="9.3703210353851318e-01" cType="1" res="5.3786006756126881e-03" rms="4.5926150679588318e-01" purity="5.0151193141937256e-01" nType="0">
        <Node pos="l" depth="1" NCoef="0" IVar="4" Cut="8.2022756338119507e-02" cType="1" res="-1.6851270571351051e-02" rms="4.5481681823730469e-01" purity="3.5600453615188599e-01" nType="0">
          <Node pos="l" depth="2" NCoef="0" IVar="-1" Cut="0.0000000000000000e+00" cType="1" res="-1.9260104454588145e-04" rms="4.5761579275131226e-01" purity="3.6835500597953796e-01" nType="-99"/>
          <Node pos="r" depth="2" NCoef="0" IVar="-1" Cut="0.0000000000000000e+00" cType="1" res="-1.1219003936275840e-03" rms="4.4618362188339233e-01" purity="3.2217818498611450e-01" nType="-99"/>
        </Node>
        <Node pos="r" depth="1" NCoef="0" IVar="5" Cut="2.5080146789550781e+02" cType="1" res="1.4361529611051083e-02" rms="4.6074125170707703e-01" purity="5.6031036376953125e-01" nType="0">
          <Node pos="l" depth="2" NCoef="0" IVar="-1" Cut="0.0000000000000000e+00" cType="1" res="-2.7296118787489831e-04" rms="4.5864427089691162e-01" purity="3.8448676466941833e-01" nType="-99"/>
          <Node pos="r" depth="2" NCoef="0" IVar="-1" Cut="0.0000000000000000e+00" cType="1" res="3.6937970435246825e-04" rms="4.6110996603965759e-01" purity="6.1835658550262451e-01" nType="-99"/>
        </Node>
      </Node>
    </BinaryTree>
    <BinaryTree type="DecisionTree" boostWeight="1.0000000000000000e+00" itree="732">
      <Node pos="s" depth="0" NCoef="0" IVar="2" Cut="3.4063916015625000e+02" cType="1" res="5.6404890492558479e-03" rms="4.5850592851638794e-01" purity="5.0296986103057861e-01" nType="0">
        <Node pos="l" depth="1" NCoef="0" IVar="5" Cut="2.1781097412109375e+02" cType="1" res="-2.7018766850233078e-02" rms="4.2057293653488159e-01" purity="2.7246049046516418e-01" nType="0">
          <Node pos="l" depth="2" NCoef="0" IVar="-1" Cut="0.0000000000000000e+00" cType="1" res="-1.8880190327763557e-03" rms="4.0186291933059692e-01" purity="2.3072783648967743e-01" nType="-99"/>
          <Node pos="r" depth="2" NCoef="0" IVar="-1" Cut="0.0000000000000000e+00" cType="1" res="1.8366719814366661e-05" rms="4.4202521443367004e-01" purity="3.2633534073829651e-01" nType="-99"/>
        </Node>
        <Node pos="r" depth="1" NCoef="0" IVar="0" Cut="1.8750099465250969e-02" cType="1" res="1.2044303119182587e-02" rms="4.6531280875205994e-01" purity="5.4816806316375732e-01" nType="0">
          <Node pos="l" depth="2" NCoef="0" IVar="-1" Cut="0.0000000000000000e+00" cType="1" res="-6.4471492078155279e-04" rms="4.7194433212280273e-01" purity="5.0208377838134766e-01" nType="-99"/>
          <Node pos="r" depth="2" NCoef="0" IVar="-1" Cut="0.0000000000000000e+00" cType="1" res="2.8080822085030377e-04" rms="4.6450310945510864e-01" purity="5.5222141742706299e-01" nType="-99"/>
        </Node>
      </Node>
    </BinaryTree>
    <BinaryTree type="DecisionTree" boostWeight="1.0000000000000000e+00" itree="733">
      <Node pos="s" depth="0" NCoef="0" IVar="2" Cut="3.4346337890625000e+02" cType="1" res="3.5564468707889318e-03" rms="4.5981082320213318e-01" purity="4.9910938739776611e-01" nType="0">
        <Node pos="l" depth="1" NCoef="0" IVar="3" Cut="3.4241463989019394e-02" cType="1" res="-3.0498310923576355e-02" rms="4.1789680719375610e-01" purity="2.7108469605445862e-01" nType="0">
          <Node pos="l" depth="2" NCoef="0" IVar="-1" Cut="0.0000000000000000e+00" cType="1" res="-2.0765357185155153e-03" rms="3.9753425121307373e-01" purity="2.2892132401466370e-01" nType="-99"/>
          <Node pos="r" depth="2" NCoef="0" IVar="-1" Cut="0.0000000000000000e+00" cType="1" res="-1.4871669918647967e-05" rms="4.4109460711479187e-01" purity="3.2572099566459656e-01" nType="-99"/>
        </Node>
        <Node pos="r" depth="1" NCoef="0" IVar="0" Cut="3.7136990576982498e-02" cType="1" res="1.0637076571583748e-02" rms="4.6774321794509888e-01" purity="5.4652005434036255e-01" nType="0">
          <Node pos="l" depth="2" NCoef="0" IVar="-1" Cut="0.0000000000000000e+00" cType="1" res="-5.0456123426556587e-04" rms="4.7007361054420471e-01" purity="5.0411033630371094e-01" nType="-99"/>
          <Node pos="r" depth="2" NCoef="0" IVar="-1" Cut="0.0000000000000000e+00" cType="1" res="3.6554332473315299e-04" rms="4.6653378009796143e-01" purity="5.5854624509811401e-01" nType="-99"/>
        </Node>
      </Node>
    </BinaryTree>
    <BinaryTree type="DecisionTree" boostWeight="1.0000000000000000e+00" itree="734">
      <Node pos="s" depth="0" NCoef="0" IVar="6" Cut="1.5387301445007324e+00" cType="1" res="6.9057168730068952e-05" rms="4.5904344320297241e-01" purity="4.9706137180328369e-01" nType="0">
        <Node pos="l" depth="1" NCoef="0" IVar="-1" Cut="0.0000000000000000e+00" cType="1" res="8.3620817167684436e-04" rms="4.3718579411506653e-01" purity="6.2696141004562378e-01" nType="-99"/>
        <Node pos="r" depth="1" NCoef="0" IVar="0" Cut="1.8866654485464096e-02" cType="1" res="-3.7734233774244785e-03" rms="4.6039158105850220e-01" purity="4.8742428421974182e-01" nType="0">
          <Node pos="l" depth="2" NCoef="0" IVar="-1" Cut="0.0000000000000000e+00" cType="1" res="-1.1577239492908120e-03" rms="4.7352397441864014e-01" purity="4.4776210188865662e-01" nType="-99"/>
          <Node pos="r" depth="2" NCoef="0" IVar="-1" Cut="0.0000000000000000e+00" cType="1" res="2.1138048396096565e-06" rms="4.5915156602859497e-01" purity="4.9041670560836792e-01" nType="-99"/>
        </Node>
      </Node>
    </BinaryTree>
    <BinaryTree type="DecisionTree" boostWeight="1.0000000000000000e+00" itree="735">
      <Node pos="s" depth="0" NCoef="0" IVar="6" Cut="1.9909386634826660e+00" cType="1" res="4.8395455814898014e-03" rms="4.6013098955154419e-01" purity="5.0171267986297607e-01" nType="0">
        <Node pos="l" depth="1" NCoef="0" IVar="1" Cut="9.4617456197738647e-01" cType="1" res="2.9414294287562370e-02" rms="4.5495924353599548e-01" purity="5.7653743028640747e-01" nType="0">
          <Node pos="l" depth="2" NCoef="0" IVar="-1" Cut="0.0000000000000000e+00" cType="1" res="3.5471533919917420e-05" rms="4.6806505322456360e-01" purity="4.4267508387565613e-01" nType="-99"/>
          <Node pos="r" depth="2" NCoef="0" IVar="-1" Cut="0.0000000000000000e+00" cType="1" res="7.2177767287939787e-04" rms="4.4565889239311218e-01" purity="6.6060703992843628e-01" nType="-99"/>
        </Node>
        <Node pos="r" depth="1" NCoef="0" IVar="4" Cut="2.4340471252799034e-02" cType="1" res="-2.8887684457004070e-03" rms="4.6147504448890686e-01" purity="4.7818163037300110e-01" nType="0">
          <Node pos="l" depth="2" NCoef="0" IVar="-1" Cut="0.0000000000000000e+00" cType="1" res="1.5882655861787498e-04" rms="4.6048828959465027e-01" purity="5.0628590583801270e-01" nType="-99"/>
          <Node pos="r" depth="2" NCoef="0" IVar="-1" Cut="0.0000000000000000e+00" cType="1" res="-3.4365628380328417e-04" rms="4.6229064464569092e-01" purity="4.4472950696945190e-01" nType="-99"/>
        </Node>
      </Node>
    </BinaryTree>
    <BinaryTree type="DecisionTree" boostWeight="1.0000000000000000e+00" itree="736">
      <Node pos="s" depth="0" NCoef="0" IVar="1" Cut="9.7547346353530884e-01" cType="1" res="6.1079464330759947e-07" rms="4.5811969041824341e-01" purity="4.9685084819793701e-01" nType="0">
        <Node pos="l" depth="1" NCoef="0" IVar="0" Cut="9.9341735243797302e-02" cType="1" res="-7.3322635143995285e-03" rms="4.6598386764526367e-01" purity="4.4017001986503601e-01" nType="0">
          <Node pos="l" depth="2" NCoef="0" IVar="-1" Cut="0.0000000000000000e+00" cType="1" res="-3.9927827310748398e-04" rms="4.6736502647399902e-01" purity="4.3319484591484070e-01" nType="-99"/>
          <Node pos="r" depth="2" NCoef="0" IVar="-1" Cut="0.0000000000000000e+00" cType="1" res="2.0956067601218820e-04" rms="4.6328955888748169e-01" purity="4.5086804032325745e-01" nType="-99"/>
        </Node>
        <Node pos="r" depth="1" NCoef="0" IVar="5" Cut="3.0752917480468750e+02" cType="1" res="3.1037557870149612e-02" rms="4.2180943489074707e-01" purity="7.3675686120986938e-01" nType="0">
          <Node pos="l" depth="2" NCoef="0" IVar="-1" Cut="0.0000000000000000e+00" cType="1" res="1.2194368173368275e-04" rms="4.5601880550384521e-01" purity="6.6066449880599976e-01" nType="-99"/>
          <Node pos="r" depth="2" NCoef="0" IVar="-1" Cut="0.0000000000000000e+00" cType="1" res="7.6568353688344359e-04" rms="3.9093261957168579e-01" purity="7.9835987091064453e-01" nType="-99"/>
        </Node>
      </Node>
    </BinaryTree>
    <BinaryTree type="DecisionTree" boostWeight="1.0000000000000000e+00" itree="737">
      <Node pos="s" depth="0" NCoef="0" IVar="1" Cut="9.2842900753021240e-01" cType="1" res="5.1410333253443241e-03" rms="4.5826551318168640e-01" purity="5.0145596265792847e-01" nType="0">
        <Node pos="l" depth="1" NCoef="0" IVar="2" Cut="4.7264413452148438e+02" cType="1" res="-2.8485199436545372e-02" rms="4.4928312301635742e-01" purity="3.3143556118011475e-01" nType="0">
          <Node pos="l" depth="2" NCoef="0" IVar="-1" Cut="0.0000000000000000e+00" cType="1" res="-7.1004370693117380e-04" rms="4.2627468705177307e-01" purity="2.5890812277793884e-01" nType="-99"/>
          <Node pos="r" depth="2" NCoef="0" IVar="-1" Cut="0.0000000000000000e+00" cType="1" res="-7.9810200259089470e-04" rms="4.8481398820877075e-01" purity="4.5181989669799805e-01" nType="-99"/>
        </Node>
        <Node pos="r" depth="1" NCoef="0" IVar="4" Cut="7.7746077440679073e-03" cType="1" res="1.3434911146759987e-02" rms="4.6007639169692993e-01" purity="5.4339128732681274e-01" nType="0">
          <Node pos="l" depth="2" NCoef="0" IVar="-1" Cut="0.0000000000000000e+00" cType="1" res="4.8967060865834355e-04" rms="4.5808431506156921e-01" purity="5.7328170537948608e-01" nType="-99"/>
          <Node pos="r" depth="2" NCoef="0" IVar="-1" Cut="0.0000000000000000e+00" cType="1" res="-2.9404936867649667e-05" rms="4.6155276894569397e-01" purity="5.1375812292098999e-01" nType="-99"/>
        </Node>
      </Node>
    </BinaryTree>
    <BinaryTree type="DecisionTree" boostWeight="1.0000000000000000e+00" itree="738">
      <Node pos="s" depth="0" NCoef="0" IVar="1" Cut="9.1281455755233765e-01" cType="1" res="7.1694706566631794e-03" rms="4.5833438634872437e-01" purity="5.0552415847778320e-01" nType="0">
        <Node pos="l" depth="1" NCoef="0" IVar="-1" Cut="0.0000000000000000e+00" cType="1" res="-1.2960867024958134e-03" rms="4.4363689422607422e-01" purity="3.0323308706283569e-01" nType="-99"/>
        <Node pos="r" depth="1" NCoef="0" IVar="0" Cut="1.4932501316070557e-01" cType="1" res="1.1877300217747688e-02" rms="4.5934700965881348e-01" purity="5.2378851175308228e-01" nType="0">
          <Node pos="l" depth="2" NCoef="0" IVar="-1" Cut="0.0000000000000000e+00" cType="1" res="7.3079172580037266e-05" rms="4.6092388033866882e-01" purity="5.1643621921539307e-01" nType="-99"/>
          <Node pos="r" depth="2" NCoef="0" IVar="-1" Cut="0.0000000000000000e+00" cType="1" res="7.4174057226628065e-04" rms="4.5184686779975891e-01" purity="5.5233126878738403e-01" nType="-99"/>
        </Node>
      </Node>
    </BinaryTree>
    <BinaryTree type="DecisionTree" boostWeight="1.0000000000000000e+00" itree="739">
      <Node pos="s" depth="0" NCoef="0" IVar="3" Cut="2.0342864096164703e-01" cType="1" res="2.4965815246105194e-03" rms="4.5900565385818481e-01" purity="4.9877402186393738e-01" nType="0">
        <Node pos="l" depth="1" NCoef="0" IVar="4" Cut="1.4508929848670959e-01" cType="1" res="-2.4067484773695469e-03" rms="4.5804533362388611e-01" purity="4.8944234848022461e-01" nType="0">
          <Node pos="l" depth="2" NCoef="0" IVar="-1" Cut="0.0000000000000000e+00" cType="1" res="4.1308652726002038e-05" rms="4.5860540866851807e-01" purity="4.9841833114624023e-01" nType="-99"/>
          <Node pos="r" depth="2" NCoef="0" IVar="-1" Cut="0.0000000000000000e+00" cType="1" res="-1.6999001381918788e-03" rms="4.4519969820976257e-01" purity="3.6350414156913757e-01" nType="-99"/>
        </Node>
        <Node pos="r" depth="1" NCoef="0" IVar="-1" Cut="0.0000000000000000e+00" cType="1" res="7.2530098259449005e-04" rms="4.6488031744956970e-01" purity="5.7569384574890137e-01" nType="-99"/>
      </Node>
    </BinaryTree>
    <BinaryTree type="DecisionTree" boostWeight="1.0000000000000000e+00" itree="740">
      <Node pos="s" depth="0" NCoef="0" IVar="2" Cut="7.4432171630859375e+02" cType="1" res="7.6214927248656750e-03" rms="4.6035873889923096e-01" purity="5.0187128782272339e-01" nType="0">
        <Node pos="l" depth="1" NCoef="0" IVar="1" Cut="9.4839900732040405e-01" cType="1" res="3.5504950210452080e-03" rms="4.6127447485923767e-01" purity="4.8443523049354553e-01" nType="0">
          <Node pos="l" depth="2" NCoef="0" IVar="-1" Cut="0.0000000000000000e+00" cType="1" res="-2.8723175637423992e-04" rms="4.6053192019462585e-01" purity="3.6270463466644287e-01" nType="-99"/>
          <Node pos="r" depth="2" NCoef="0" IVar="-1" Cut="0.0000000000000000e+00" cType="1" res="2.6830963906832039e-04" rms="4.6149319410324097e-01" purity="5.8125430345535278e-01" nType="-99"/>
        </Node>
        <Node pos="r" depth="1" NCoef="0" IVar="-1" Cut="0.0000000000000000e+00" cType="1" res="8.1248715287074447e-04" rms="4.4709593057632446e-01" purity="7.0164430141448975e-01" nType="-99"/>
      </Node>
    </BinaryTree>
    <BinaryTree type="DecisionTree" boostWeight="1.0000000000000000e+00" itree="741">
      <Node pos="s" depth="0" NCoef="0" IVar="1" Cut="9.8436695337295532e-01" cType="1" res="-4.1851322748698294e-05" rms="4.5716604590415955e-01" purity="4.9696320295333862e-01" nType="0">
        <Node pos="l" depth="1" NCoef="0" IVar="2" Cut="6.4697155761718750e+02" cType="1" res="-5.3323805332183838e-03" rms="4.6348601579666138e-01" purity="4.6196591854095459e-01" nType="0">
          <Node pos="l" depth="2" NCoef="0" IVar="-1" Cut="0.0000000000000000e+00" cType="1" res="-2.3668349604122341e-04" rms="4.6371757984161377e-01" purity="4.2931076884269714e-01" nType="-99"/>
          <Node pos="r" depth="2" NCoef="0" IVar="-1" Cut="0.0000000000000000e+00" cType="1" res="4.7956957132555544e-04" rms="4.6039184927940369e-01" purity="6.5963691473007202e-01" nType="-99"/>
        </Node>
        <Node pos="r" depth="1" NCoef="0" IVar="-1" Cut="0.0000000000000000e+00" cType="1" res="6.7564734490588307e-04" rms="3.9777216315269470e-01" purity="7.8923761844635010e-01" nType="-99"/>
      </Node>
    </BinaryTree>
    <BinaryTree type="DecisionTree" boostWeight="1.0000000000000000e+00" itree="742">
      <Node pos="s" depth="0" NCoef="0" IVar="5" Cut="5.2181793212890625e+02" cType="1" res="3.1008389778435230e-03" rms="4.5871070027351379e-01" purity="4.9979999661445618e-01" nType="0">
        <Node pos="l" depth="1" NCoef="0" IVar="0" Cut="1.1227197945117950e-01" cType="1" res="-2.8236701618880033e-03" rms="4.6064740419387817e-01" purity="4.7678309679031372e-01" nType="0">
          <Node pos="l" depth="2" NCoef="0" IVar="-1" Cut="0.0000000000000000e+00" cType="1" res="-2.5539053604006767e-04" rms="4.6194142103195190e-01" purity="4.6349003911018372e-01" nType="-99"/>
          <Node pos="r" depth="2" NCoef="0" IVar="-1" Cut="0.0000000000000000e+00" cType="1" res="2.7546452474780381e-04" rms="4.5781415700912476e-01" purity="5.0050246715545654e-01" nType="-99"/>
        </Node>
        <Node pos="r" depth="1" NCoef="0" IVar="-1" Cut="0.0000000000000000e+00" cType="1" res="8.5438985843211412e-04" rms="4.3713656067848206e-01" purity="7.0830029249191284e-01" nType="-99"/>
      </Node>
    </BinaryTree>
    <BinaryTree type="DecisionTree" boostWeight="1.0000000000000000e+00" itree="743">
      <Node pos="s" depth="0" NCoef="0" IVar="2" Cut="7.4124285888671875e+02" cType="1" res="2.8541092760860920e-03" rms="4.5810070633888245e-01" purity="4.9939611554145813e-01" nType="0">
        <Node pos="l" depth="1" NCoef="0" IVar="3" Cut="1.6979527473449707e-01" cType="1" res="-1.2421363499015570e-03" rms="4.5939254760742188e-01" purity="4.8059496283531189e-01" nType="0">
          <Node pos="l" depth="2" NCoef="0" IVar="-1" Cut="0.0000000000000000e+00" cType="1" res="-1.4625370386056602e-04" rms="4.5751926302909851e-01" purity="4.6768569946289062e-01" nType="-99"/>
          <Node pos="r" depth="2" NCoef="0" IVar="-1" Cut="0.0000000000000000e+00" cType="1" res="5.1553634693846107e-04" rms="4.6770524978637695e-01" purity="5.4703074693679810e-01" nType="-99"/>
        </Node>
        <Node pos="r" depth="1" NCoef="0" IVar="-1" Cut="0.0000000000000000e+00" cType="1" res="7.1434839628636837e-04" rms="4.4126111268997192e-01" purity="7.0491927862167358e-01" nType="-99"/>
      </Node>
    </BinaryTree>
    <BinaryTree type="DecisionTree" boostWeight="1.0000000000000000e+00" itree="744">
      <Node pos="s" depth="0" NCoef="0" IVar="3" Cut="2.0886445045471191e-01" cType="1" res="2.0330434199422598e-03" rms="4.5967125892639160e-01" purity="4.9761006236076355e-01" nType="0">
        <Node pos="l" depth="1" NCoef="0" IVar="4" Cut="9.3335203826427460e-02" cType="1" res="-2.9055529739707708e-03" rms="4.5859977602958679e-01" purity="4.8901569843292236e-01" nType="0">
          <Node pos="l" depth="2" NCoef="0" IVar="-1" Cut="0.0000000000000000e+00" cType="1" res="7.8331991971936077e-05" rms="4.5900785923004150e-01" purity="5.0551283359527588e-01" nType="-99"/>
          <Node pos="r" depth="2" NCoef="0" IVar="-1" Cut="0.0000000000000000e+00" cType="1" res="-9.9588569719344378e-04" rms="4.5431426167488098e-01" purity="3.9704549312591553e-01" nType="-99"/>
        </Node>
        <Node pos="r" depth="1" NCoef="0" IVar="-1" Cut="0.0000000000000000e+00" cType="1" res="7.7736080856993794e-04" rms="4.6680346131324768e-01" purity="5.7410031557083130e-01" nType="-99"/>
      </Node>
    </BinaryTree>
    <BinaryTree type="DecisionTree" boostWeight="1.0000000000000000e+00" itree="745">
      <Node pos="s" depth="0" NCoef="0" IVar="1" Cut="9.7825682163238525e-01" cType="1" res="3.1379344873130322e-03" rms="4.5646923780441284e-01" purity="5.0219726562500000e-01" nType="0">
        <Node pos="l" depth="1" NCoef="0" IVar="3" Cut="1.8241843581199646e-01" cType="1" res="-4.4532432220876217e-03" rms="4.6517905592918396e-01" purity="4.4883114099502563e-01" nType="0">
          <Node pos="l" depth="2" NCoef="0" IVar="-1" Cut="0.0000000000000000e+00" cType="1" res="-2.3197806149255484e-04" rms="4.6275508403778076e-01" purity="4.3523526191711426e-01" nType="-99"/>
          <Node pos="r" depth="2" NCoef="0" IVar="-1" Cut="0.0000000000000000e+00" cType="1" res="6.1999796889722347e-04" rms="4.7735038399696350e-01" purity="5.2943813800811768e-01" nType="-99"/>
        </Node>
        <Node pos="r" depth="1" NCoef="0" IVar="-1" Cut="0.0000000000000000e+00" cType="1" res="6.1631621792912483e-04" rms="4.0921223163604736e-01" purity="7.6313251256942749e-01" nType="-99"/>
      </Node>
    </BinaryTree>
    <BinaryTree type="DecisionTree" boostWeight="1.0000000000000000e+00" itree="746">
      <Node pos="s" depth="0" NCoef="0" IVar="0" Cut="3.6995407193899155e-02" cType="1" res="4.4076279737055302e-03" rms="4.6005439758300781e-01" purity="4.9915626645088196e-01" nType="0">
        <Node pos="l" depth="1" NCoef="0" IVar="5" Cut="4.7882968139648438e+02" cType="1" res="-2.5742771103978157e-02" rms="4.6558573842048645e-01" purity="4.7699555754661560e-01" nType="0">
          <Node pos="l" depth="2" NCoef="0" IVar="-1" Cut="0.0000000000000000e+00" cType="1" res="-9.3596009537577629e-04" rms="4.6234935522079468e-01" purity="4.1151872277259827e-01" nType="-99"/>
          <Node pos="r" depth="2" NCoef="0" IVar="-1" Cut="0.0000000000000000e+00" cType="1" res="2.0441456581465900e-04" rms="4.7067987918853760e-01" purity="6.2737518548965454e-01" nType="-99"/>
        </Node>
        <Node pos="r" depth="1" NCoef="0" IVar="5" Cut="2.4350198364257812e+02" cType="1" res="1.2043049558997154e-02" rms="4.5832839608192444e-01" purity="5.0476837158203125e-01" nType="0">
          <Node pos="l" depth="2" NCoef="0" IVar="-1" Cut="0.0000000000000000e+00" cType="1" res="-3.8116457290016115e-04" rms="4.3992483615875244e-01" purity="3.2197201251983643e-01" nType="-99"/>
          <Node pos="r" depth="2" NCoef="0" IVar="-1" Cut="0.0000000000000000e+00" cType="1" res="3.5748200025409460e-04" rms="4.6419081091880798e-01" purity="5.6796729564666748e-01" nType="-99"/>
        </Node>
      </Node>
    </BinaryTree>
    <BinaryTree type="DecisionTree" boostWeight="1.0000000000000000e+00" itree="747">
      <Node pos="s" depth="0" NCoef="0" IVar="5" Cut="3.3544885253906250e+02" cType="1" res="3.4960077609866858e-03" rms="4.5917105674743652e-01" purity="4.9920359253883362e-01" nType="0">
        <Node pos="l" depth="1" NCoef="0" IVar="1" Cut="9.4226270914077759e-01" cType="1" res="-8.9856740087270737e-03" rms="4.5706441998481750e-01" purity="4.1487294435501099e-01" nType="0">
          <Node pos="l" depth="2" NCoef="0" IVar="-1" Cut="0.0000000000000000e+00" cType="1" res="-7.5421674409881234e-04" rms="4.3438565731048584e-01" purity="2.8526356816291809e-01" nType="-99"/>
          <Node pos="r" depth="2" NCoef="0" IVar="-1" Cut="0.0000000000000000e+00" cType="1" res="5.5138875723059755e-06" rms="4.6953994035720825e-01" purity="4.9047949910163879e-01" nType="-99"/>
        </Node>
        <Node pos="r" depth="1" NCoef="0" IVar="0" Cut="1.0721453279256821e-01" cType="1" res="2.1929722279310226e-02" rms="4.6164783835411072e-01" purity="6.2374830245971680e-01" nType="0">
          <Node pos="l" depth="2" NCoef="0" IVar="-1" Cut="0.0000000000000000e+00" cType="1" res="1.1668039223877713e-04" rms="4.6750089526176453e-01" purity="5.9783583879470825e-01" nType="-99"/>
          <Node pos="r" depth="2" NCoef="0" IVar="-1" Cut="0.0000000000000000e+00" cType="1" res="1.0418883757665753e-03" rms="4.3769973516464233e-01" purity="7.1097034215927124e-01" nType="-99"/>
        </Node>
      </Node>
    </BinaryTree>
    <BinaryTree type="DecisionTree" boostWeight="1.0000000000000000e+00" itree="748">
      <Node pos="s" depth="0" NCoef="0" IVar="5" Cut="4.1447482299804688e+02" cType="1" res="3.1768062617629766e-03" rms="4.5740088820457458e-01" purity="5.0082111358642578e-01" nType="0">
        <Node pos="l" depth="1" NCoef="0" IVar="1" Cut="9.8137164115905762e-01" cType="1" res="-4.4805472716689110e-03" rms="4.5859852433204651e-01" purity="4.5618665218353271e-01" nType="0">
          <Node pos="l" depth="2" NCoef="0" IVar="-1" Cut="0.0000000000000000e+00" cType="1" res="-2.0814011804759502e-04" rms="4.6398365497589111e-01" purity="4.1216292977333069e-01" nType="-99"/>
          <Node pos="r" depth="2" NCoef="0" IVar="-1" Cut="0.0000000000000000e+00" cType="1" res="4.5396512723527849e-04" rms="4.1958552598953247e-01" purity="7.4784761667251587e-01" nType="-99"/>
        </Node>
        <Node pos="r" depth="1" NCoef="0" IVar="0" Cut="4.9360517412424088e-02" cType="1" res="3.1019268557429314e-02" rms="4.5192733407020569e-01" purity="6.6311365365982056e-01" nType="0">
          <Node pos="l" depth="2" NCoef="0" IVar="-1" Cut="0.0000000000000000e+00" cType="1" res="1.3942553778178990e-04" rms="4.6513998508453369e-01" purity="6.1816799640655518e-01" nType="-99"/>
          <Node pos="r" depth="2" NCoef="0" IVar="-1" Cut="0.0000000000000000e+00" cType="1" res="8.3050987450405955e-04" rms="4.3581080436706543e-01" purity="7.1195083856582642e-01" nType="-99"/>
        </Node>
      </Node>
    </BinaryTree>
    <BinaryTree type="DecisionTree" boostWeight="1.0000000000000000e+00" itree="749">
      <Node pos="s" depth="0" NCoef="0" IVar="6" Cut="1.5982078313827515e+00" cType="1" res="7.2546880692243576e-03" rms="4.6093091368675232e-01" purity="5.0168251991271973e-01" nType="0">
        <Node pos="l" depth="1" NCoef="0" IVar="-1" Cut="0.0000000000000000e+00" cType="1" res="8.1022887025028467e-04" rms="4.4787600636482239e-01" purity="6.0858732461929321e-01" nType="-99"/>
        <Node pos="r" depth="1" NCoef="0" IVar="1" Cut="9.1230708360671997e-01" cType="1" res="3.5998136736452579e-03" rms="4.6183243393898010e-01" purity="4.9264279007911682e-01" nType="0">
          <Node pos="l" depth="2" NCoef="0" IVar="-1" Cut="0.0000000000000000e+00" cType="1" res="-9.8099233582615852e-04" rms="4.4330781698226929e-01" purity="3.1001070141792297e-01" nType="-99"/>
          <Node pos="r" depth="2" NCoef="0" IVar="-1" Cut="0.0000000000000000e+00" cType="1" res="1.3600908278021961e-04" rms="4.6333929896354675e-01" purity="5.0953263044357300e-01" nType="-99"/>
        </Node>
      </Node>
    </BinaryTree>
    <BinaryTree type="DecisionTree" boostWeight="1.0000000000000000e+00" itree="750">
      <Node pos="s" depth="0" NCoef="0" IVar="6" Cut="1.5479620695114136e+00" cType="1" res="1.3189458986744285e-03" rms="4.5764890313148499e-01" purity="4.9881613254547119e-01" nType="0">
        <Node pos="l" depth="1" NCoef="0" IVar="-1" Cut="0.0000000000000000e+00" cType="1" res="9.5706502906978130e-04" rms="4.4199994206428528e-01" purity="6.2939965724945068e-01" nType="-99"/>
        <Node pos="r" depth="1" NCoef="0" IVar="0" Cut="2.2217005491256714e-01" cType="1" res="-3.2985291909426451e-03" rms="4.5851776003837585e-01" purity="4.8868575692176819e-01" nType="0">
          <Node pos="l" depth="2" NCoef="0" IVar="-1" Cut="0.0000000000000000e+00" cType="1" res="-1.4533688954543322e-04" rms="4.5876160264015198e-01" purity="4.8499518632888794e-01" nType="-99"/>
          <Node pos="r" depth="2" NCoef="0" IVar="-1" Cut="0.0000000000000000e+00" cType="1" res="9.9719827994704247e-04" rms="4.5060169696807861e-01" purity="5.4305559396743774e-01" nType="-99"/>
        </Node>
      </Node>
    </BinaryTree>
    <BinaryTree type="DecisionTree" boostWeight="1.0000000000000000e+00" itree="751">
      <Node pos="s" depth="0" NCoef="0" IVar="3" Cut="9.2397488653659821e-02" cType="1" res="3.9613028056919575e-03" rms="4.5941951870918274e-01" purity="4.9975186586380005e-01" nType="0">
        <Node pos="l" depth="1" NCoef="0" IVar="4" Cut="1.3483719527721405e-01" cType="1" res="-6.8459152244031429e-03" rms="4.5748725533485413e-01" purity="4.7708606719970703e-01" nType="0">
          <Node pos="l" depth="2" NCoef="0" IVar="-1" Cut="0.0000000000000000e+00" cType="1" res="-4.2248844692949206e-05" rms="4.5823645591735840e-01" purity="4.8739409446716309e-01" nType="-99"/>
          <Node pos="r" depth="2" NCoef="0" IVar="-1" Cut="0.0000000000000000e+00" cType="1" res="-1.3411247637122869e-03" rms="4.4700047373771667e-01" purity="3.7214663624763489e-01" nType="-99"/>
        </Node>
        <Node pos="r" depth="1" NCoef="0" IVar="6" Cut="1.8429769277572632e+00" cType="1" res="2.7604931965470314e-02" rms="4.6273949742317200e-01" purity="5.4933923482894897e-01" nType="0">
          <Node pos="l" depth="2" NCoef="0" IVar="-1" Cut="0.0000000000000000e+00" cType="1" res="9.3781412579119205e-04" rms="4.4754663109779358e-01" purity="6.1748135089874268e-01" nType="-99"/>
          <Node pos="r" depth="2" NCoef="0" IVar="-1" Cut="0.0000000000000000e+00" cType="1" res="3.4058108576573431e-04" rms="4.6674725413322449e-01" purity="5.2926915884017944e-01" nType="-99"/>
        </Node>
      </Node>
    </BinaryTree>
    <BinaryTree type="DecisionTree" boostWeight="1.0000000000000000e+00" itree="752">
      <Node pos="s" depth="0" NCoef="0" IVar="0" Cut="2.0094133913516998e-01" cType="1" res="9.1557571431621909e-04" rms="4.5842444896697998e-01" purity="4.9702453613281250e-01" nType="0">
        <Node pos="l" depth="1" NCoef="0" IVar="2" Cut="7.3978656005859375e+02" cType="1" res="-3.4252712503075600e-03" rms="4.5884114503860474e-01" purity="4.9355408549308777e-01" nType="0">
          <Node pos="l" depth="2" NCoef="0" IVar="-1" Cut="0.0000000000000000e+00" cType="1" res="-1.5459755377378315e-04" rms="4.5988953113555908e-01" purity="4.7345215082168579e-01" nType="-99"/>
          <Node pos="r" depth="2" NCoef="0" IVar="-1" Cut="0.0000000000000000e+00" cType="1" res="6.2456092564389110e-04" rms="4.4572138786315918e-01" purity="6.9669026136398315e-01" nType="-99"/>
        </Node>
        <Node pos="r" depth="1" NCoef="0" IVar="-1" Cut="0.0000000000000000e+00" cType="1" res="7.9961336450651288e-04" rms="4.5205163955688477e-01" purity="5.3131526708602905e-01" nType="-99"/>
      </Node>
    </BinaryTree>
    <BinaryTree type="DecisionTree" boostWeight="1.0000000000000000e+00" itree="753">
      <Node pos="s" depth="0" NCoef="0" IVar="3" Cut="1.5652495622634888e-01" cType="1" res="2.8082884382456541e-03" rms="4.5960846543312073e-01" purity="4.9914464354515076e-01" nType="0">
        <Node pos="l" depth="1" NCoef="0" IVar="4" Cut="1.4508929848670959e-01" cType="1" res="-3.4915735013782978e-03" rms="4.5855966210365295e-01" purity="4.8579779267311096e-01" nType="0">
          <Node pos="l" depth="2" NCoef="0" IVar="-1" Cut="0.0000000000000000e+00" cType="1" res="3.1316729291575029e-05" rms="4.5956489443778992e-01" purity="4.9582144618034363e-01" nType="-99"/>
          <Node pos="r" depth="2" NCoef="0" IVar="-1" Cut="0.0000000000000000e+00" cType="1" res="-1.9278720719739795e-03" rms="4.3841904401779175e-01" purity="3.4755605459213257e-01" nType="-99"/>
        </Node>
        <Node pos="r" depth="1" NCoef="0" IVar="1" Cut="9.3358308076858521e-01" cType="1" res="3.0519159510731697e-02" rms="4.6317741274833679e-01" purity="5.5785268545150757e-01" nType="0">
          <Node pos="l" depth="2" NCoef="0" IVar="-1" Cut="0.0000000000000000e+00" cType="1" res="2.9619623092003167e-04" rms="4.7328484058380127e-01" purity="4.2367962002754211e-01" nType="-99"/>
          <Node pos="r" depth="2" NCoef="0" IVar="-1" Cut="0.0000000000000000e+00" cType="1" res="6.0128193581476808e-04" rms="4.5913261175155640e-01" purity="6.0874330997467041e-01" nType="-99"/>
        </Node>
      </Node>
    </BinaryTree>
    <BinaryTree type="DecisionTree" boostWeight="1.0000000000000000e+00" itree="754">
      <Node pos="s" depth="0" NCoef="0" IVar="3" Cut="1.0922385752201080e-01" cType="1" res="5.5340491235256195e-03" rms="4.5975792407989502e-01" purity="5.0209546089172363e-01" nType="0">
        <Node pos="l" depth="1" NCoef="0" IVar="4" Cut="5.5697061121463776e-02" cType="1" res="-3.2441159710288048e-03" rms="4.5850136876106262e-01" purity="4.8314195871353149e-01" nType="0">
          <Node pos="l" depth="2" NCoef="0" IVar="-1" Cut="0.0000000000000000e+00" cType="1" res="1.3344442413654178e-04" rms="4.6001005172729492e-01" purity="5.0694578886032104e-01" nType="-99"/>
          <Node pos="r" depth="2" NCoef="0" IVar="-1" Cut="0.0000000000000000e+00" cType="1" res="-7.4772222433239222e-04" rms="4.5272269845008850e-01" purity="4.1360187530517578e-01" nType="-99"/>
        </Node>
        <Node pos="r" depth="1" NCoef="0" IVar="1" Cut="9.4857931137084961e-01" cType="1" res="2.8824225068092346e-02" rms="4.6226811408996582e-01" purity="5.5238288640975952e-01" nType="0">
          <Node pos="l" depth="2" NCoef="0" IVar="-1" Cut="0.0000000000000000e+00" cType="1" res="2.1807958546560258e-04" rms="4.7552001476287842e-01" purity="4.3495893478393555e-01" nType="-99"/>
          <Node pos="r" depth="2" NCoef="0" IVar="-1" Cut="0.0000000000000000e+00" cType="1" res="6.9554580841213465e-04" rms="4.5024514198303223e-01" purity="6.5121358633041382e-01" nType="-99"/>
        </Node>
      </Node>
    </BinaryTree>
    <BinaryTree type="DecisionTree" boostWeight="1.0000000000000000e+00" itree="755">
      <Node pos="s" depth="0" NCoef="0" IVar="1" Cut="9.2439657449722290e-01" cType="1" res="2.0376322790980339e-03" rms="4.5981839299201965e-01" purity="4.9699530005455017e-01" nType="0">
        <Node pos="l" depth="1" NCoef="0" IVar="3" Cut="-1.8717610510066152e-03" cType="1" res="-3.0835293233394623e-02" rms="4.4594302773475647e-01" purity="3.2592621445655823e-01" nType="0">
          <Node pos="l" depth="2" NCoef="0" IVar="-1" Cut="0.0000000000000000e+00" cType="1" res="-4.5870046596974134e-04" rms="4.4177222251892090e-01" purity="3.1658515334129333e-01" nType="-99"/>
          <Node pos="r" depth="2" NCoef="0" IVar="-1" Cut="0.0000000000000000e+00" cType="1" res="-1.1177059495821595e-03" rms="4.4915333390235901e-01" purity="3.3406490087509155e-01" nType="-99"/>
        </Node>
        <Node pos="r" depth="1" NCoef="0" IVar="3" Cut="1.7801497876644135e-01" cType="1" res="8.5140895098447800e-03" rms="4.6222737431526184e-01" purity="5.3069847822189331e-01" nType="0">
          <Node pos="l" depth="2" NCoef="0" IVar="-1" Cut="0.0000000000000000e+00" cType="1" res="3.4934157156385481e-05" rms="4.6139982342720032e-01" purity="5.1812458038330078e-01" nType="-99"/>
          <Node pos="r" depth="2" NCoef="0" IVar="-1" Cut="0.0000000000000000e+00" cType="1" res="7.6957879355177283e-04" rms="4.6513491868972778e-01" purity="6.0349291563034058e-01" nType="-99"/>
        </Node>
      </Node>
    </BinaryTree>
    <BinaryTree type="DecisionTree" boostWeight="1.0000000000000000e+00" itree="756">
      <Node pos="s" depth="0" NCoef="0" IVar="2" Cut="5.6006939697265625e+02" cType="1" res="3.3763961400836706e-03" rms="4.6069598197937012e-01" purity="4.9840682744979858e-01" nType="0">
        <Node pos="l" depth="1" NCoef="0" IVar="3" Cut="-1.2093959748744965e-01" cType="1" res="-4.7741113230586052e-03" rms="4.6272760629653931e-01" purity="4.4423204660415649e-01" nType="0">
          <Node pos="l" depth="2" NCoef="0" IVar="-1" Cut="0.0000000000000000e+00" cType="1" res="-1.5320555539801717e-03" rms="4.2806217074394226e-01" purity="3.3243778347969055e-01" nType="-99"/>
          <Node pos="r" depth="2" NCoef="0" IVar="-1" Cut="0.0000000000000000e+00" cType="1" res="-1.0225557161902543e-05" rms="4.6518102288246155e-01" purity="4.5335033535957336e-01" nType="-99"/>
        </Node>
        <Node pos="r" depth="1" NCoef="0" IVar="0" Cut="6.5867148339748383e-02" cType="1" res="2.8058316558599472e-02" rms="4.5359584689140320e-01" purity="6.6246253252029419e-01" nType="0">
          <Node pos="l" depth="2" NCoef="0" IVar="-1" Cut="0.0000000000000000e+00" cType="1" res="1.0786727943923324e-04" rms="4.6938842535018921e-01" purity="6.1764669418334961e-01" nType="-99"/>
          <Node pos="r" depth="2" NCoef="0" IVar="-1" Cut="0.0000000000000000e+00" cType="1" res="9.2504796339198947e-04" rms="4.2414480447769165e-01" purity="7.3586589097976685e-01" nType="-99"/>
        </Node>
      </Node>
    </BinaryTree>
    <BinaryTree type="DecisionTree" boostWeight="1.0000000000000000e+00" itree="757">
      <Node pos="s" depth="0" NCoef="0" IVar="0" Cut="4.5764237642288208e-02" cType="1" res="1.6464425716549158e-03" rms="4.6031132340431213e-01" purity="4.9627614021301270e-01" nType="0">
        <Node pos="l" depth="1" NCoef="0" IVar="5" Cut="2.8078857421875000e+02" cType="1" res="-2.4608539417386055e-02" rms="4.6814092993736267e-01" purity="4.7152239084243774e-01" nType="0">
          <Node pos="l" depth="2" NCoef="0" IVar="-1" Cut="0.0000000000000000e+00" cType="1" res="5.7700648903846741e-04" rms="4.5608648657798767e-01" purity="3.6386734247207642e-01" nType="-99"/>
          <Node pos="r" depth="2" NCoef="0" IVar="-1" Cut="0.0000000000000000e+00" cType="1" res="-7.6598819578066468e-04" rms="4.7119906544685364e-01" purity="5.0940287113189697e-01" nType="-99"/>
        </Node>
        <Node pos="r" depth="1" NCoef="0" IVar="5" Cut="2.8757449340820312e+02" cType="1" res="1.1073058471083641e-02" rms="4.5709970593452454e-01" purity="5.0516372919082642e-01" nType="0">
          <Node pos="l" depth="2" NCoef="0" IVar="-1" Cut="0.0000000000000000e+00" cType="1" res="-2.5630916934460402e-04" rms="4.5125648379325867e-01" purity="3.8112542033195496e-01" nType="-99"/>
          <Node pos="r" depth="2" NCoef="0" IVar="-1" Cut="0.0000000000000000e+00" cType="1" res="4.9870356451719999e-04" rms="4.6149837970733643e-01" purity="6.1927497386932373e-01" nType="-99"/>
        </Node>
      </Node>
    </BinaryTree>
    <BinaryTree type="DecisionTree" boostWeight="1.0000000000000000e+00" itree="758">
      <Node pos="s" depth="0" NCoef="0" IVar="6" Cut="1.6840213537216187e+00" cType="1" res="-1.4458755031228065e-03" rms="4.5827057957649231e-01" purity="4.9537515640258789e-01" nType="0">
        <Node pos="l" depth="1" NCoef="0" IVar="-1" Cut="0.0000000000000000e+00" cType="1" res="6.8084016675129533e-04" rms="4.5151713490486145e-01" purity="5.9731954336166382e-01" nType="-99"/>
        <Node pos="r" depth="1" NCoef="0" IVar="1" Cut="9.1247946023941040e-01" cType="1" res="-6.4199692569673061e-03" rms="4.5879480242729187e-01" purity="4.8347243666648865e-01" nType="0">
          <Node pos="l" depth="2" NCoef="0" IVar="-1" Cut="0.0000000000000000e+00" cType="1" res="-1.6553751192986965e-03" rms="4.3323418498039246e-01" purity="2.8695759177207947e-01" nType="-99"/>
          <Node pos="r" depth="2" NCoef="0" IVar="-1" Cut="0.0000000000000000e+00" cType="1" res="-3.7061039620311931e-05" rms="4.6077406406402588e-01" purity="5.0123530626296997e-01" nType="-99"/>
        </Node>
      </Node>
    </BinaryTree>
    <BinaryTree type="DecisionTree" boostWeight="1.0000000000000000e+00" itree="759">
      <Node pos="s" depth="0" NCoef="0" IVar="3" Cut="-1.2630990147590637e-01" cType="1" res="5.4374430328607559e-03" rms="4.6048763394355774e-01" purity="5.0068581104278564e-01" nType="0">
        <Node pos="l" depth="1" NCoef="0" IVar="-1" Cut="0.0000000000000000e+00" cType="1" res="-1.3375036651268601e-03" rms="4.4304895401000977e-01" purity="3.9270931482315063e-01" nType="-99"/>
        <Node pos="r" depth="1" NCoef="0" IVar="1" Cut="9.8456621170043945e-01" cType="1" res="9.6923317760229111e-03" rms="4.6134430170059204e-01" purity="5.0804245471954346e-01" nType="0">
          <Node pos="l" depth="2" NCoef="0" IVar="-1" Cut="0.0000000000000000e+00" cType="1" res="1.0544141696300358e-04" rms="4.6832212805747986e-01" purity="4.7484603524208069e-01" nType="-99"/>
          <Node pos="r" depth="2" NCoef="0" IVar="-1" Cut="0.0000000000000000e+00" cType="1" res="7.0657616015523672e-04" rms="3.9398565888404846e-01" purity="7.9516237974166870e-01" nType="-99"/>
        </Node>
      </Node>
    </BinaryTree>
    <BinaryTree type="DecisionTree" boostWeight="1.0000000000000000e+00" itree="760">
      <Node pos="s" depth="0" NCoef="0" IVar="1" Cut="9.1847008466720581e-01" cType="1" res="1.7046717694029212e-03" rms="4.5905795693397522e-01" purity="4.9838480353355408e-01" nType="0">
        <Node pos="l" depth="1" NCoef="0" IVar="2" Cut="4.1128979492187500e+02" cType="1" res="-3.7152908742427826e-02" rms="4.4513681530952454e-01" purity="3.1252190470695496e-01" nType="0">
          <Node pos="l" depth="2" NCoef="0" IVar="-1" Cut="0.0000000000000000e+00" cType="1" res="-5.0950382137671113e-04" rms="4.0460258722305298e-01" purity="2.2095644474029541e-01" nType="-99"/>
          <Node pos="r" depth="2" NCoef="0" IVar="-1" Cut="0.0000000000000000e+00" cType="1" res="-1.2739938683807850e-03" rms="4.7539618611335754e-01" purity="3.8909217715263367e-01" nType="-99"/>
        </Node>
        <Node pos="r" depth="1" NCoef="0" IVar="3" Cut="1.2793301045894623e-01" cType="1" res="6.8832845427095890e-03" rms="4.6063402295112610e-01" purity="5.2315503358840942e-01" nType="0">
          <Node pos="l" depth="2" NCoef="0" IVar="-1" Cut="0.0000000000000000e+00" cType="1" res="-1.1942674063902814e-05" rms="4.5937338471412659e-01" purity="5.0741046667098999e-01" nType="-99"/>
          <Node pos="r" depth="2" NCoef="0" IVar="-1" Cut="0.0000000000000000e+00" cType="1" res="5.2950897952541709e-04" rms="4.6386438608169556e-01" purity="5.7426434755325317e-01" nType="-99"/>
        </Node>
      </Node>
    </BinaryTree>
    <BinaryTree type="DecisionTree" boostWeight="1.0000000000000000e+00" itree="761">
      <Node pos="s" depth="0" NCoef="0" IVar="6" Cut="1.6475373506546021e+00" cType="1" res="2.7924817986786366e-03" rms="4.5743477344512939e-01" purity="4.9981597065925598e-01" nType="0">
        <Node pos="l" depth="1" NCoef="0" IVar="-1" Cut="0.0000000000000000e+00" cType="1" res="7.9686660319566727e-04" rms="4.4517064094543457e-01" purity="6.1264282464981079e-01" nType="-99"/>
        <Node pos="r" depth="1" NCoef="0" IVar="1" Cut="9.6928620338439941e-01" cType="1" res="-2.0369486883282661e-03" rms="4.5841744542121887e-01" purity="4.8811334371566772e-01" nType="0">
          <Node pos="l" depth="2" NCoef="0" IVar="-1" Cut="0.0000000000000000e+00" cType="1" res="-2.1930737420916557e-04" rms="4.6479067206382751e-01" purity="4.1840574145317078e-01" nType="-99"/>
          <Node pos="r" depth="2" NCoef="0" IVar="-1" Cut="0.0000000000000000e+00" cType="1" res="3.4741443232633173e-04" rms="4.3837580084800720e-01" purity="6.9180184602737427e-01" nType="-99"/>
        </Node>
      </Node>
    </BinaryTree>
    <BinaryTree type="DecisionTree" boostWeight="1.0000000000000000e+00" itree="762">
      <Node pos="s" depth="0" NCoef="0" IVar="6" Cut="1.5305627584457397e+00" cType="1" res="-1.4175011310726404e-03" rms="4.6013626456260681e-01" purity="4.9334147572517395e-01" nType="0">
        <Node pos="l" depth="1" NCoef="0" IVar="-1" Cut="0.0000000000000000e+00" cType="1" res="7.9507601913064718e-04" rms="4.3880721926689148e-01" purity="6.2548935413360596e-01" nType="-99"/>
        <Node pos="r" depth="1" NCoef="0" IVar="0" Cut="1.9125297665596008e-02" cType="1" res="-5.0716726109385490e-03" rms="4.6140748262405396e-01" purity="4.8388892412185669e-01" nType="0">
          <Node pos="l" depth="2" NCoef="0" IVar="-1" Cut="0.0000000000000000e+00" cType="1" res="-9.8330457694828510e-04" rms="4.7117394208908081e-01" purity="4.5449328422546387e-01" nType="-99"/>
          <Node pos="r" depth="2" NCoef="0" IVar="-1" Cut="0.0000000000000000e+00" cType="1" res="-3.3804797567427158e-05" rms="4.6046304702758789e-01" purity="4.8620355129241943e-01" nType="-99"/>
        </Node>
      </Node>
    </BinaryTree>
    <BinaryTree type="DecisionTree" boostWeight="1.0000000000000000e+00" itree="763">
      <Node pos="s" depth="0" NCoef="0" IVar="6" Cut="1.5220841169357300e+00" cType="1" res="4.0301480330526829e-03" rms="4.6002355217933655e-01" purity="4.9938929080963135e-01" nType="0">
        <Node pos="l" depth="1" NCoef="0" IVar="-1" Cut="0.0000000000000000e+00" cType="1" res="9.0805900981649756e-04" rms="4.3827140331268311e-01" purity="6.3492572307586670e-01" nType="-99"/>
        <Node pos="r" depth="1" NCoef="0" IVar="1" Cut="9.8424941301345825e-01" cType="1" res="3.2446239492855966e-04" rms="4.6127074956893921e-01" purity="4.8995539546012878e-01" nType="0">
          <Node pos="l" depth="2" NCoef="0" IVar="-1" Cut="0.0000000000000000e+00" cType="1" res="-8.2060818385798484e-05" rms="4.6768045425415039e-01" purity="4.5519971847534180e-01" nType="-99"/>
          <Node pos="r" depth="2" NCoef="0" IVar="-1" Cut="0.0000000000000000e+00" cType="1" res="5.7472975458949804e-04" rms="4.0158930420875549e-01" purity="7.8162717819213867e-01" nType="-99"/>
        </Node>
      </Node>
    </BinaryTree>
    <BinaryTree type="DecisionTree" boostWeight="1.0000000000000000e+00" itree="764">
      <Node pos="s" depth="0" NCoef="0" IVar="0" Cut="3.6139026284217834e-02" cType="1" res="6.0720671899616718e-03" rms="4.6068161725997925e-01" purity="5.0095719099044800e-01" nType="0">
        <Node pos="l" depth="1" NCoef="0" IVar="4" Cut="1.0458637773990631e-01" cType="1" res="-2.4193149060010910e-02" rms="4.6978285908699036e-01" purity="4.7437545657157898e-01" nType="0">
          <Node pos="l" depth="2" NCoef="0" IVar="-1" Cut="0.0000000000000000e+00" cType="1" res="-1.7827730334829539e-04" rms="4.7673690319061279e-01" purity="5.0370383262634277e-01" nType="-99"/>
          <Node pos="r" depth="2" NCoef="0" IVar="-1" Cut="0.0000000000000000e+00" cType="1" res="-1.0586460120975971e-03" rms="4.5716756582260132e-01" purity="4.2645016312599182e-01" nType="-99"/>
        </Node>
        <Node pos="r" depth="1" NCoef="0" IVar="2" Cut="3.6817962646484375e+02" cType="1" res="1.3248733244836330e-02" rms="4.5820388197898865e-01" purity="5.0726038217544556e-01" nType="0">
          <Node pos="l" depth="2" NCoef="0" IVar="-1" Cut="0.0000000000000000e+00" cType="1" res="-4.8595454427413642e-04" rms="4.3548092246055603e-01" purity="3.1270554661750793e-01" nType="-99"/>
          <Node pos="r" depth="2" NCoef="0" IVar="-1" Cut="0.0000000000000000e+00" cType="1" res="4.1896189213730395e-04" rms="4.6623143553733826e-01" purity="5.8306819200515747e-01" nType="-99"/>
        </Node>
      </Node>
    </BinaryTree>
    <BinaryTree type="DecisionTree" boostWeight="1.0000000000000000e+00" itree="765">
      <Node pos="s" depth="0" NCoef="0" IVar="1" Cut="9.8402881622314453e-01" cType="1" res="6.5583442337810993e-03" rms="4.5849630236625671e-01" purity="5.0384688377380371e-01" nType="0">
        <Node pos="l" depth="1" NCoef="0" IVar="2" Cut="5.7410870361328125e+02" cType="1" res="1.7550196498632431e-03" rms="4.6586927771568298e-01" purity="4.6765807271003723e-01" nType="0">
          <Node pos="l" depth="2" NCoef="0" IVar="-1" Cut="0.0000000000000000e+00" cType="1" res="-9.1168898507021368e-05" rms="4.6582904458045959e-01" purity="4.1844299435615540e-01" nType="-99"/>
          <Node pos="r" depth="2" NCoef="0" IVar="-1" Cut="0.0000000000000000e+00" cType="1" res="3.5602916614152491e-04" rms="4.6539258956909180e-01" purity="6.4019113779067993e-01" nType="-99"/>
        </Node>
        <Node pos="r" depth="1" NCoef="0" IVar="-1" Cut="0.0000000000000000e+00" cType="1" res="6.9498526863753796e-04" rms="3.9244651794433594e-01" purity="7.9346263408660889e-01" nType="-99"/>
      </Node>
    </BinaryTree>
    <BinaryTree type="DecisionTree" boostWeight="1.0000000000000000e+00" itree="766">
      <Node pos="s" depth="0" NCoef="0" IVar="2" Cut="7.3978656005859375e+02" cType="1" res="5.9985800180584192e-04" rms="4.5961573719978333e-01" purity="4.9648675322532654e-01" nType="0">
        <Node pos="l" depth="1" NCoef="0" IVar="0" Cut="1.0256792604923248e-01" cType="1" res="-3.3905222080647945e-03" rms="4.6099278330802917e-01" purity="4.7734674811363220e-01" nType="0">
          <Node pos="l" depth="2" NCoef="0" IVar="-1" Cut="0.0000000000000000e+00" cType="1" res="-3.1609335565008223e-04" rms="4.6258008480072021e-01" purity="4.6116700768470764e-01" nType="-99"/>
          <Node pos="r" depth="2" NCoef="0" IVar="-1" Cut="0.0000000000000000e+00" cType="1" res="2.7201030752621591e-04" rms="4.5807537436485291e-01" purity="5.0106555223464966e-01" nType="-99"/>
        </Node>
        <Node pos="r" depth="1" NCoef="0" IVar="-1" Cut="0.0000000000000000e+00" cType="1" res="6.6071579931303859e-04" rms="4.4240757822990417e-01" purity="7.0086050033569336e-01" nType="-99"/>
      </Node>
    </BinaryTree>
    <BinaryTree type="DecisionTree" boostWeight="1.0000000000000000e+00" itree="767">
      <Node pos="s" depth="0" NCoef="0" IVar="5" Cut="5.0349832153320312e+02" cType="1" res="4.2491620406508446e-03" rms="4.6087336540222168e-01" purity="4.9911531805992126e-01" nType="0">
        <Node pos="l" depth="1" NCoef="0" IVar="3" Cut="1.5593050420284271e-01" cType="1" res="-8.5179018788039684e-04" rms="4.6269646286964417e-01" purity="4.7498023509979248e-01" nType="0">
          <Node pos="l" depth="2" NCoef="0" IVar="-1" Cut="0.0000000000000000e+00" cType="1" res="-1.4177054981701076e-04" rms="4.6064037084579468e-01" purity="4.5970872044563293e-01" nType="-99"/>
          <Node pos="r" depth="2" NCoef="0" IVar="-1" Cut="0.0000000000000000e+00" cType="1" res="4.3538029422052205e-04" rms="4.7026032209396362e-01" purity="5.3810423612594604e-01" nType="-99"/>
        </Node>
        <Node pos="r" depth="1" NCoef="0" IVar="-1" Cut="0.0000000000000000e+00" cType="1" res="6.9815199822187424e-04" rms="4.4356080889701843e-01" purity="6.9576066732406616e-01" nType="-99"/>
      </Node>
    </BinaryTree>
    <BinaryTree type="DecisionTree" boostWeight="1.0000000000000000e+00" itree="768">
      <Node pos="s" depth="0" NCoef="0" IVar="6" Cut="1.5785125494003296e+00" cType="1" res="7.5155245140194893e-03" rms="4.5866587758064270e-01" purity="5.0520998239517212e-01" nType="0">
        <Node pos="l" depth="1" NCoef="0" IVar="-1" Cut="0.0000000000000000e+00" cType="1" res="9.1380008962005377e-04" rms="4.3862637877464294e-01" purity="6.2917143106460571e-01" nType="-99"/>
        <Node pos="r" depth="1" NCoef="0" IVar="4" Cut="-6.4494766294956207e-02" cType="1" res="3.3119153231382370e-03" rms="4.6006190776824951e-01" purity="4.9479624629020691e-01" nType="0">
          <Node pos="l" depth="2" NCoef="0" IVar="-1" Cut="0.0000000000000000e+00" cType="1" res="7.0163293275982141e-04" rms="4.5718571543693542e-01" purity="5.5189979076385498e-01" nType="-99"/>
          <Node pos="r" depth="2" NCoef="0" IVar="-1" Cut="0.0000000000000000e+00" cType="1" res="-4.8374786274507642e-05" rms="4.6025073528289795e-01" purity="4.8575240373611450e-01" nType="-99"/>
        </Node>
      </Node>
    </BinaryTree>
    <BinaryTree type="DecisionTree" boostWeight="1.0000000000000000e+00" itree="769">
      <Node pos="s" depth="0" NCoef="0" IVar="2" Cut="7.5052026367187500e+02" cType="1" res="3.9483131840825081e-03" rms="4.5976367592811584e-01" purity="5.0000852346420288e-01" nType="0">
        <Node pos="l" depth="1" NCoef="0" IVar="0" Cut="2.2834509611129761e-01" cType="1" res="-1.2941425666213036e-04" rms="4.6108463406562805e-01" purity="4.8197239637374878e-01" nType="0">
          <Node pos="l" depth="2" NCoef="0" IVar="-1" Cut="0.0000000000000000e+00" cType="1" res="-7.5624739110935479e-05" rms="4.6117919683456421e-01" purity="4.7858721017837524e-01" nType="-99"/>
          <Node pos="r" depth="2" NCoef="0" IVar="-1" Cut="0.0000000000000000e+00" cType="1" res="1.0178316151723266e-03" rms="4.5583468675613403e-01" purity="5.3418654203414917e-01" nType="-99"/>
        </Node>
        <Node pos="r" depth="1" NCoef="0" IVar="-1" Cut="0.0000000000000000e+00" cType="1" res="7.7487481757998466e-04" rms="4.4137451052665710e-01" purity="7.0956903696060181e-01" nType="-99"/>
      </Node>
    </BinaryTree>
    <BinaryTree type="DecisionTree" boostWeight="1.0000000000000000e+00" itree="770">
      <Node pos="s" depth="0" NCoef="0" IVar="4" Cut="2.5548432022333145e-02" cType="1" res="6.6753674764186144e-04" rms="4.5917192101478577e-01" purity="4.9728274345397949e-01" nType="0">
        <Node pos="l" depth="1" NCoef="0" IVar="5" Cut="2.6062902832031250e+02" cType="1" res="1.2814694084227085e-02" rms="4.5964491367340088e-01" purity="5.2154803276062012e-01" nType="0">
          <Node pos="l" depth="2" NCoef="0" IVar="-1" Cut="0.0000000000000000e+00" cType="1" res="-2.4867834872566164e-04" rms="4.5116081833839417e-01" purity="3.5723918676376343e-01" nType="-99"/>
          <Node pos="r" depth="2" NCoef="0" IVar="-1" Cut="0.0000000000000000e+00" cType="1" res="3.9320814539678395e-04" rms="4.6337956190109253e-01" purity="6.0297197103500366e-01" nType="-99"/>
        </Node>
        <Node pos="r" depth="1" NCoef="0" IVar="3" Cut="2.0130164921283722e-01" cType="1" res="-1.4926480129361153e-02" rms="4.5809206366539001e-01" purity="4.6613195538520813e-01" nType="0">
          <Node pos="l" depth="2" NCoef="0" IVar="-1" Cut="0.0000000000000000e+00" cType="1" res="-6.8399088922888041e-04" rms="4.5438495278358459e-01" purity="4.3180203437805176e-01" nType="-99"/>
          <Node pos="r" depth="2" NCoef="0" IVar="-1" Cut="0.0000000000000000e+00" cType="1" res="5.8643257943913341e-04" rms="4.6539023518562317e-01" purity="5.6752073764801025e-01" nType="-99"/>
        </Node>
      </Node>
    </BinaryTree>
    <BinaryTree type="DecisionTree" boostWeight="1.0000000000000000e+00" itree="771">
      <Node pos="s" depth="0" NCoef="0" IVar="1" Cut="9.8430716991424561e-01" cType="1" res="7.8701674938201904e-03" rms="4.5893707871437073e-01" purity="5.0527948141098022e-01" nType="0">
        <Node pos="l" depth="1" NCoef="0" IVar="4" Cut="5.5932600051164627e-02" cType="1" res="3.5424404777586460e-03" rms="4.6561002731323242e-01" purity="4.7071895003318787e-01" nType="0">
          <Node pos="l" depth="2" NCoef="0" IVar="-1" Cut="0.0000000000000000e+00" cType="1" res="2.3376342142000794e-04" rms="4.6569725871086121e-01" purity="4.8830166459083557e-01" nType="-99"/>
          <Node pos="r" depth="2" NCoef="0" IVar="-1" Cut="0.0000000000000000e+00" cType="1" res="-3.1530225533060730e-04" rms="4.6489250659942627e-01" purity="4.3411830067634583e-01" nType="-99"/>
        </Node>
        <Node pos="r" depth="1" NCoef="0" IVar="-1" Cut="0.0000000000000000e+00" cType="1" res="6.6565198358148336e-04" rms="3.9824387431144714e-01" purity="7.8879499435424805e-01" nType="-99"/>
      </Node>
    </BinaryTree>
    <BinaryTree type="DecisionTree" boostWeight="1.0000000000000000e+00" itree="772">
      <Node pos="s" depth="0" NCoef="0" IVar="0" Cut="2.2211763262748718e-01" cType="1" res="2.4041710421442986e-03" rms="4.5903179049491882e-01" purity="4.9979400634765625e-01" nType="0">
        <Node pos="l" depth="1" NCoef="0" IVar="2" Cut="7.3978656005859375e+02" cType="1" res="-8.4205955499783158e-04" rms="4.5959883928298950e-01" purity="4.9741506576538086e-01" nType="0">
          <Node pos="l" depth="2" NCoef="0" IVar="-1" Cut="0.0000000000000000e+00" cType="1" res="-9.6489959105383605e-05" rms="4.6086055040359497e-01" purity="4.7773540019989014e-01" nType="-99"/>
          <Node pos="r" depth="2" NCoef="0" IVar="-1" Cut="0.0000000000000000e+00" cType="1" res="6.1688787536695600e-04" rms="4.4441226124763489e-01" purity="6.9851660728454590e-01" nType="-99"/>
        </Node>
        <Node pos="r" depth="1" NCoef="0" IVar="-1" Cut="0.0000000000000000e+00" cType="1" res="9.0514530893415213e-04" rms="4.4794586300849915e-01" purity="5.3466695547103882e-01" nType="-99"/>
      </Node>
    </BinaryTree>
    <BinaryTree type="DecisionTree" boostWeight="1.0000000000000000e+00" itree="773">
      <Node pos="s" depth="0" NCoef="0" IVar="5" Cut="4.7547015380859375e+02" cType="1" res="2.2995872423052788e-03" rms="4.5910713076591492e-01" purity="4.9775961041450500e-01" nType="0">
        <Node pos="l" depth="1" NCoef="0" IVar="0" Cut="2.1446584165096283e-01" cType="1" res="-3.9803870022296906e-03" rms="4.6086034178733826e-01" purity="4.6798098087310791e-01" nType="0">
          <Node pos="l" depth="2" NCoef="0" IVar="-1" Cut="0.0000000000000000e+00" cType="1" res="-1.5021712169982493e-04" rms="4.6151009202003479e-01" purity="4.6392300724983215e-01" nType="-99"/>
          <Node pos="r" depth="2" NCoef="0" IVar="-1" Cut="0.0000000000000000e+00" cType="1" res="6.5802218159660697e-04" rms="4.5139858126640320e-01" purity="5.1479142904281616e-01" nType="-99"/>
        </Node>
        <Node pos="r" depth="1" NCoef="0" IVar="-1" Cut="0.0000000000000000e+00" cType="1" res="6.4696534536778927e-04" rms="4.4577163457870483e-01" purity="6.8663871288299561e-01" nType="-99"/>
      </Node>
    </BinaryTree>
    <BinaryTree type="DecisionTree" boostWeight="1.0000000000000000e+00" itree="774">
      <Node pos="s" depth="0" NCoef="0" IVar="3" Cut="1.8087458610534668e-01" cType="1" res="4.4593447819352150e-03" rms="4.5969125628471375e-01" purity="5.0076699256896973e-01" nType="0">
        <Node pos="l" depth="1" NCoef="0" IVar="4" Cut="1.0574328899383545e-01" cType="1" res="-4.2172861867584288e-04" rms="4.5815256237983704e-01" purity="4.9045464396476746e-01" nType="0">
          <Node pos="l" depth="2" NCoef="0" IVar="-1" Cut="0.0000000000000000e+00" cType="1" res="1.1702350457198918e-04" rms="4.5852461457252502e-01" purity="5.0626087188720703e-01" nType="-99"/>
          <Node pos="r" depth="2" NCoef="0" IVar="-1" Cut="0.0000000000000000e+00" cType="1" res="-1.1508236639201641e-03" rms="4.5280906558036804e-01" purity="3.7941914796829224e-01" nType="-99"/>
        </Node>
        <Node pos="r" depth="1" NCoef="0" IVar="3" Cut="2.3801487684249878e-01" cType="1" res="3.3536888659000397e-02" rms="4.6769848465919495e-01" purity="5.6219953298568726e-01" nType="0">
          <Node pos="l" depth="2" NCoef="0" IVar="-1" Cut="0.0000000000000000e+00" cType="1" res="3.9895213558338583e-04" rms="4.7080475091934204e-01" purity="5.4724538326263428e-01" nType="-99"/>
          <Node pos="r" depth="2" NCoef="0" IVar="-1" Cut="0.0000000000000000e+00" cType="1" res="8.1347959348931909e-04" rms="4.6304410696029663e-01" purity="5.8248525857925415e-01" nType="-99"/>
        </Node>
      </Node>
    </BinaryTree>
    <BinaryTree type="DecisionTree" boostWeight="1.0000000000000000e+00" itree="775">
      <Node pos="s" depth="0" NCoef="0" IVar="1" Cut="9.8436695337295532e-01" cType="1" res="-2.9355196747928858e-03" rms="4.5732387900352478e-01" purity="4.9410396814346313e-01" nType="0">
        <Node pos="l" depth="1" NCoef="0" IVar="3" Cut="2.5282350834459066e-03" cType="1" res="-7.7626104466617107e-03" rms="4.6349063515663147e-01" purity="4.5953470468521118e-01" nType="0">
          <Node pos="l" depth="2" NCoef="0" IVar="-1" Cut="0.0000000000000000e+00" cType="1" res="-4.6495971037074924e-04" rms="4.5722234249114990e-01" purity="4.2118534445762634e-01" nType="-99"/>
          <Node pos="r" depth="2" NCoef="0" IVar="-1" Cut="0.0000000000000000e+00" cType="1" res="8.5291845607571304e-05" rms="4.6867936849594116e-01" purity="4.9381256103515625e-01" nType="-99"/>
        </Node>
        <Node pos="r" depth="1" NCoef="0" IVar="-1" Cut="0.0000000000000000e+00" cType="1" res="5.8642833027988672e-04" rms="3.9909839630126953e-01" purity="7.8633964061737061e-01" nType="-99"/>
      </Node>
    </BinaryTree>
    <BinaryTree type="DecisionTree" boostWeight="1.0000000000000000e+00" itree="776">
      <Node pos="s" depth="0" NCoef="0" IVar="0" Cut="1.8380044028162956e-02" cType="1" res="1.4383605448529124e-03" rms="4.5963868498802185e-01" purity="4.9564716219902039e-01" nType="0">
        <Node pos="l" depth="1" NCoef="0" IVar="-1" Cut="0.0000000000000000e+00" cType="1" res="-8.4145285654813051e-04" rms="4.7613039612770081e-01" purity="4.6345171332359314e-01" nType="-99"/>
        <Node pos="r" depth="1" NCoef="0" IVar="5" Cut="4.1537603759765625e+02" cType="1" res="4.5058387331664562e-03" rms="4.5827031135559082e-01" purity="4.9797657132148743e-01" nType="0">
          <Node pos="l" depth="2" NCoef="0" IVar="-1" Cut="0.0000000000000000e+00" cType="1" res="-4.9499045417178422e-05" rms="4.5971816778182983e-01" purity="4.5783478021621704e-01" nType="-99"/>
          <Node pos="r" depth="2" NCoef="0" IVar="-1" Cut="0.0000000000000000e+00" cType="1" res="5.4023304255679250e-04" rms="4.5061060786247253e-01" purity="6.7392510175704956e-01" nType="-99"/>
        </Node>
      </Node>
    </BinaryTree>
    <BinaryTree type="DecisionTree" boostWeight="1.0000000000000000e+00" itree="777">
      <Node pos="s" depth="0" NCoef="0" IVar="3" Cut="1.7796798050403595e-01" cType="1" res="1.0712849907577038e-03" rms="4.5835253596305847e-01" purity="4.9835750460624695e-01" nType="0">
        <Node pos="l" depth="1" NCoef="0" IVar="4" Cut="4.5764591544866562e-02" cType="1" res="-5.3891865536570549e-03" rms="4.5723304152488708e-01" purity="4.8554161190986633e-01" nType="0">
          <Node pos="l" depth="2" NCoef="0" IVar="-1" Cut="0.0000000000000000e+00" cType="1" res="1.3465876691043377e-04" rms="4.5751470327377319e-01" purity="5.1516443490982056e-01" nType="-99"/>
          <Node pos="r" depth="2" NCoef="0" IVar="-1" Cut="0.0000000000000000e+00" cType="1" res="-8.6788105545565486e-04" rms="4.5485365390777588e-01" purity="4.0797314047813416e-01" nType="-99"/>
        </Node>
        <Node pos="r" depth="1" NCoef="0" IVar="5" Cut="2.6450753784179688e+02" cType="1" res="3.7446960806846619e-02" rms="4.6292558312416077e-01" purity="5.7051759958267212e-01" nType="0">
          <Node pos="l" depth="2" NCoef="0" IVar="-1" Cut="0.0000000000000000e+00" cType="1" res="3.6085632746107876e-04" rms="4.6634942293167114e-01" purity="4.2732837796211243e-01" nType="-99"/>
          <Node pos="r" depth="2" NCoef="0" IVar="-1" Cut="0.0000000000000000e+00" cType="1" res="7.4709771433845162e-04" rms="4.6069571375846863e-01" purity="6.4799118041992188e-01" nType="-99"/>
        </Node>
      </Node>
    </BinaryTree>
    <BinaryTree type="DecisionTree" boostWeight="1.0000000000000000e+00" itree="778">
      <Node pos="s" depth="0" NCoef="0" IVar="2" Cut="7.6205651855468750e+02" cType="1" res="3.5598562099039555e-03" rms="4.5897224545478821e-01" purity="4.9922111630439758e-01" nType="0">
        <Node pos="l" depth="1" NCoef="0" IVar="0" Cut="7.4628651142120361e-02" cType="1" res="-7.3052977677434683e-04" rms="4.6042406558990479e-01" purity="4.8150438070297241e-01" nType="0">
          <Node pos="l" depth="2" NCoef="0" IVar="-1" Cut="0.0000000000000000e+00" cType="1" res="-3.5038750502280891e-04" rms="4.6370488405227661e-01" purity="4.5602625608444214e-01" nType="-99"/>
          <Node pos="r" depth="2" NCoef="0" IVar="-1" Cut="0.0000000000000000e+00" cType="1" res="2.3264225455932319e-04" rms="4.5741432905197144e-01" purity="5.0151574611663818e-01" nType="-99"/>
        </Node>
        <Node pos="r" depth="1" NCoef="0" IVar="-1" Cut="0.0000000000000000e+00" cType="1" res="8.4259262075647712e-04" rms="4.3757990002632141e-01" purity="7.1468079090118408e-01" nType="-99"/>
      </Node>
    </BinaryTree>
    <BinaryTree type="DecisionTree" boostWeight="1.0000000000000000e+00" itree="779">
      <Node pos="s" depth="0" NCoef="0" IVar="1" Cut="9.6319025754928589e-01" cType="1" res="7.0766196586191654e-04" rms="4.5897805690765381e-01" purity="4.9677190184593201e-01" nType="0">
        <Node pos="l" depth="1" NCoef="0" IVar="5" Cut="4.0593060302734375e+02" cType="1" res="-9.0407077223062515e-03" rms="4.6476379036903381e-01" purity="4.1276407241821289e-01" nType="0">
          <Node pos="l" depth="2" NCoef="0" IVar="-1" Cut="0.0000000000000000e+00" cType="1" res="-3.6529565113596618e-04" rms="4.5990526676177979e-01" purity="3.6279693245887756e-01" nType="-99"/>
          <Node pos="r" depth="2" NCoef="0" IVar="-1" Cut="0.0000000000000000e+00" cType="1" res="2.0768948888871819e-04" rms="4.8070797324180603e-01" purity="5.8733588457107544e-01" nType="-99"/>
        </Node>
        <Node pos="r" depth="1" NCoef="0" IVar="2" Cut="5.0675128173828125e+02" cType="1" res="2.0281482487916946e-02" rms="4.4649252295494080e-01" purity="6.6545182466506958e-01" nType="0">
          <Node pos="l" depth="2" NCoef="0" IVar="-1" Cut="0.0000000000000000e+00" cType="1" res="1.2653552403207868e-04" rms="4.6600463986396790e-01" purity="6.0566794872283936e-01" nType="-99"/>
          <Node pos="r" depth="2" NCoef="0" IVar="-1" Cut="0.0000000000000000e+00" cType="1" res="6.4249197021126747e-04" rms="4.0977746248245239e-01" purity="7.6853686571121216e-01" nType="-99"/>
        </Node>
      </Node>
    </BinaryTree>
    <BinaryTree type="DecisionTree" boostWeight="1.0000000000000000e+00" itree="780">
      <Node pos="s" depth="0" NCoef="0" IVar="1" Cut="9.7813850641250610e-01" cType="1" res="6.5188803710043430e-03" rms="4.5898735523223877e-01" purity="5.0214636325836182e-01" nType="0">
        <Node pos="l" depth="1" NCoef="0" IVar="2" Cut="3.4346337890625000e+02" cType="1" res="1.1661874596029520e-03" rms="4.6693089604377747e-01" purity="4.5296677947044373e-01" nType="0">
          <Node pos="l" depth="2" NCoef="0" IVar="-1" Cut="0.0000000000000000e+00" cType="1" res="-7.8112742630764842e-04" rms="4.1768971085548401e-01" purity="2.3697856068611145e-01" nType="-99"/>
          <Node pos="r" depth="2" NCoef="0" IVar="-1" Cut="0.0000000000000000e+00" cType="1" res="1.1046371218981221e-04" rms="4.7714281082153320e-01" purity="5.0142490863800049e-01" nType="-99"/>
        </Node>
        <Node pos="r" depth="1" NCoef="0" IVar="-1" Cut="0.0000000000000000e+00" cType="1" res="5.2483071340247989e-04" rms="4.1475442051887512e-01" purity="7.5453746318817139e-01" nType="-99"/>
      </Node>
    </BinaryTree>
    <BinaryTree type="DecisionTree" boostWeight="1.0000000000000000e+00" itree="781">
      <Node pos="s" depth="0" NCoef="0" IVar="6" Cut="1.5220841169357300e+00" cType="1" res="5.5773989297449589e-03" rms="4.5923480391502380e-01" purity="5.0189310312271118e-01" nType="0">
        <Node pos="l" depth="1" NCoef="0" IVar="-1" Cut="0.0000000000000000e+00" cType="1" res="9.6597336232662201e-04" rms="4.3939736485481262e-01" purity="6.3622051477432251e-01" nType="-99"/>
        <Node pos="r" depth="1" NCoef="0" IVar="4" Cut="-4.3861813843250275e-02" cType="1" res="1.5536763239651918e-03" rms="4.6035745739936829e-01" purity="4.9228608608245850e-01" nType="0">
          <Node pos="l" depth="2" NCoef="0" IVar="-1" Cut="0.0000000000000000e+00" cType="1" res="4.2257399763911963e-04" rms="4.5398449897766113e-01" purity="5.3990924358367920e-01" nType="-99"/>
          <Node pos="r" depth="2" NCoef="0" IVar="-1" Cut="0.0000000000000000e+00" cType="1" res="-9.7802141681313515e-05" rms="4.6202090382575989e-01" purity="4.7824171185493469e-01" nType="-99"/>
        </Node>
      </Node>
    </BinaryTree>
    <BinaryTree type="DecisionTree" boostWeight="1.0000000000000000e+00" itree="782">
      <Node pos="s" depth="0" NCoef="0" IVar="1" Cut="9.2890971899032593e-01" cType="1" res="7.3503837920725346e-03" rms="4.6007472276687622e-01" purity="5.0365185737609863e-01" nType="0">
        <Node pos="l" depth="1" NCoef="0" IVar="3" Cut="-2.7545688673853874e-02" cType="1" res="-1.6259480267763138e-02" rms="4.5215481519699097e-01" purity="3.4550145268440247e-01" nType="0">
          <Node pos="l" depth="2" NCoef="0" IVar="-1" Cut="0.0000000000000000e+00" cType="1" res="1.7796119209378958e-04" rms="4.4580399990081787e-01" purity="3.4316685795783997e-01" nType="-99"/>
          <Node pos="r" depth="2" NCoef="0" IVar="-1" Cut="0.0000000000000000e+00" cType="1" res="-7.9408712917938828e-04" rms="4.5570272207260132e-01" purity="3.4706345200538635e-01" nType="-99"/>
        </Node>
        <Node pos="r" depth="1" NCoef="0" IVar="3" Cut="5.4708223789930344e-02" cType="1" res="1.3352832756936550e-02" rms="4.6187421679496765e-01" purity="5.4385918378829956e-01" nType="0">
          <Node pos="l" depth="2" NCoef="0" IVar="-1" Cut="0.0000000000000000e+00" cType="1" res="-8.6579284470644780e-06" rms="4.6035575866699219e-01" purity="5.1501250267028809e-01" nType="-99"/>
          <Node pos="r" depth="2" NCoef="0" IVar="-1" Cut="0.0000000000000000e+00" cType="1" res="5.8519147569313645e-04" rms="4.6339932084083557e-01" purity="5.8833289146423340e-01" nType="-99"/>
        </Node>
      </Node>
    </BinaryTree>
    <BinaryTree type="DecisionTree" boostWeight="1.0000000000000000e+00" itree="783">
      <Node pos="s" depth="0" NCoef="0" IVar="4" Cut="1.6313808038830757e-02" cType="1" res="1.7554610967636108e-03" rms="4.5984813570976257e-01" purity="4.9771660566329956e-01" nType="0">
        <Node pos="l" depth="1" NCoef="0" IVar="5" Cut="2.6166067504882812e+02" cType="1" res="1.4604369178414345e-02" rms="4.5764380693435669e-01" purity="5.2826124429702759e-01" nType="0">
          <Node pos="l" depth="2" NCoef="0" IVar="-1" Cut="0.0000000000000000e+00" cType="1" res="-3.2656799885444343e-04" rms="4.4929775595664978e-01" purity="3.5793152451515198e-01" nType="-99"/>
          <Node pos="r" depth="2" NCoef="0" IVar="-1" Cut="0.0000000000000000e+00" cType="1" res="4.5668554957956076e-04" rms="4.6111544966697693e-01" purity="6.1261409521102905e-01" nType="-99"/>
        </Node>
        <Node pos="r" depth="1" NCoef="0" IVar="3" Cut="1.7997679114341736e-01" cType="1" res="-1.2558607384562492e-02" rms="4.6187072992324829e-01" purity="4.6368893980979919e-01" nType="0">
          <Node pos="l" depth="2" NCoef="0" IVar="-1" Cut="0.0000000000000000e+00" cType="1" res="-5.9623917331919074e-04" rms="4.5811167359352112e-01" purity="4.2869433760643005e-01" nType="-99"/>
          <Node pos="r" depth="2" NCoef="0" IVar="-1" Cut="0.0000000000000000e+00" cType="1" res="4.4196707312949002e-04" rms="4.6905767917633057e-01" purity="5.5111509561538696e-01" nType="-99"/>
        </Node>
      </Node>
    </BinaryTree>
    <BinaryTree type="DecisionTree" boostWeight="1.0000000000000000e+00" itree="784">
      <Node pos="s" depth="0" NCoef="0" IVar="2" Cut="7.3978656005859375e+02" cType="1" res="3.8110769819468260e-03" rms="4.5958539843559265e-01" purity="4.9974584579467773e-01" nType="0">
        <Node pos="l" depth="1" NCoef="0" IVar="4" Cut="-4.0575838647782803e-03" cType="1" res="-8.8087894255295396e-05" rms="4.6124508976936340e-01" purity="4.8071235418319702e-01" nType="0">
          <Node pos="l" depth="2" NCoef="0" IVar="-1" Cut="0.0000000000000000e+00" cType="1" res="2.8272470808587968e-04" rms="4.6266272664070129e-01" purity="5.1476997137069702e-01" nType="-99"/>
          <Node pos="r" depth="2" NCoef="0" IVar="-1" Cut="0.0000000000000000e+00" cType="1" res="-2.4837075034156442e-04" rms="4.5978376269340515e-01" purity="4.5420813560485840e-01" nType="-99"/>
        </Node>
        <Node pos="r" depth="1" NCoef="0" IVar="-1" Cut="0.0000000000000000e+00" cType="1" res="7.1008753729984164e-04" rms="4.3876254558563232e-01" purity="7.0797973871231079e-01" nType="-99"/>
      </Node>
    </BinaryTree>
    <BinaryTree type="DecisionTree" boostWeight="1.0000000000000000e+00" itree="785">
      <Node pos="s" depth="0" NCoef="0" IVar="2" Cut="3.2789929199218750e+02" cType="1" res="2.6133721694350243e-03" rms="4.5900189876556396e-01" purity="4.9877065420150757e-01" nType="0">
        <Node pos="l" depth="1" NCoef="0" IVar="5" Cut="2.0840385437011719e+02" cType="1" res="-3.3076360821723938e-02" rms="4.1000327467918396e-01" purity="2.5434294342994690e-01" nType="0">
          <Node pos="l" depth="2" NCoef="0" IVar="-1" Cut="0.0000000000000000e+00" cType="1" res="-2.3219911381602287e-03" rms="3.9319059252738953e-01" purity="2.1276545524597168e-01" nType="-99"/>
          <Node pos="r" depth="2" NCoef="0" IVar="-1" Cut="0.0000000000000000e+00" cType="1" res="-2.7486152248457074e-04" rms="4.2566037178039551e-01" purity="2.9811638593673706e-01" nType="-99"/>
        </Node>
        <Node pos="r" depth="1" NCoef="0" IVar="0" Cut="1.8612107262015343e-02" cType="1" res="7.7897692099213600e-03" rms="4.6545350551605225e-01" purity="5.3422212600708008e-01" nType="0">
          <Node pos="l" depth="2" NCoef="0" IVar="-1" Cut="0.0000000000000000e+00" cType="1" res="-8.3016627468168736e-04" rms="4.7577691078186035e-01" purity="4.8097082972526550e-01" nType="-99"/>
          <Node pos="r" depth="2" NCoef="0" IVar="-1" Cut="0.0000000000000000e+00" cType="1" res="2.1078273130115122e-04" rms="4.6438735723495483e-01" purity="5.3846859931945801e-01" nType="-99"/>
        </Node>
      </Node>
    </BinaryTree>
    <BinaryTree type="DecisionTree" boostWeight="1.0000000000000000e+00" itree="786">
      <Node pos="s" depth="0" NCoef="0" IVar="6" Cut="1.8374799489974976e+00" cType="1" res="7.7327159233391285e-03" rms="4.5843195915222168e-01" purity="5.0543457269668579e-01" nType="0">
        <Node pos="l" depth="1" NCoef="0" IVar="5" Cut="2.6365051269531250e+02" cType="1" res="3.9116676896810532e-02" rms="4.5029759407043457e-01" purity="5.9326022863388062e-01" nType="0">
          <Node pos="l" depth="2" NCoef="0" IVar="-1" Cut="0.0000000000000000e+00" cType="1" res="2.5862239999696612e-04" rms="4.7371950745582581e-01" purity="4.3033522367477417e-01" nType="-99"/>
          <Node pos="r" depth="2" NCoef="0" IVar="-1" Cut="0.0000000000000000e+00" cType="1" res="8.2897784886881709e-04" rms="4.3460083007812500e-01" purity="6.9248986244201660e-01" nType="-99"/>
        </Node>
        <Node pos="r" depth="1" NCoef="0" IVar="5" Cut="5.2181793212890625e+02" cType="1" res="1.7961440607905388e-03" rms="4.5971357822418213e-01" purity="4.8882150650024414e-01" nType="0">
          <Node pos="l" depth="2" NCoef="0" IVar="-1" Cut="0.0000000000000000e+00" cType="1" res="-4.7376401198562235e-05" rms="4.6067613363265991e-01" purity="4.6810430288314819e-01" nType="-99"/>
          <Node pos="r" depth="2" NCoef="0" IVar="-1" Cut="0.0000000000000000e+00" cType="1" res="6.3694256823509932e-04" rms="4.4865012168884277e-01" purity="6.8407446146011353e-01" nType="-99"/>
        </Node>
      </Node>
    </BinaryTree>
    <BinaryTree type="DecisionTree" boostWeight="1.0000000000000000e+00" itree="787">
      <Node pos="s" depth="0" NCoef="0" IVar="6" Cut="1.5220841169357300e+00" cType="1" res="3.6385047715157270e-03" rms="4.6028494834899902e-01" purity="4.9826467037200928e-01" nType="0">
        <Node pos="l" depth="1" NCoef="0" IVar="-1" Cut="0.0000000000000000e+00" cType="1" res="7.4769591446965933e-04" rms="4.3982806801795959e-01" purity="6.2298095226287842e-01" nType="-99"/>
        <Node pos="r" depth="1" NCoef="0" IVar="5" Cut="5.4412896728515625e+02" cType="1" res="6.5940245985984802e-04" rms="4.6150532364845276e-01" purity="4.8970896005630493e-01" nType="0">
          <Node pos="l" depth="2" NCoef="0" IVar="-1" Cut="0.0000000000000000e+00" cType="1" res="-4.9737365770852193e-05" rms="4.6233326196670532e-01" purity="4.7336721420288086e-01" nType="-99"/>
          <Node pos="r" depth="2" NCoef="0" IVar="-1" Cut="0.0000000000000000e+00" cType="1" res="5.9734453679993749e-04" rms="4.4966059923171997e-01" purity="6.8686294555664062e-01" nType="-99"/>
        </Node>
      </Node>
    </BinaryTree>
    <BinaryTree type="DecisionTree" boostWeight="1.0000000000000000e+00" itree="788">
      <Node pos="s" depth="0" NCoef="0" IVar="6" Cut="1.5407500267028809e+00" cType="1" res="2.6039413642138243e-03" rms="4.5956650376319885e-01" purity="4.9919891357421875e-01" nType="0">
        <Node pos="l" depth="1" NCoef="0" IVar="-1" Cut="0.0000000000000000e+00" cType="1" res="9.3165622092783451e-04" rms="4.4265589118003845e-01" purity="6.3210958242416382e-01" nType="-99"/>
        <Node pos="r" depth="1" NCoef="0" IVar="4" Cut="-3.3090647310018539e-02" cType="1" res="-1.6154082259163260e-03" rms="4.6051421761512756e-01" purity="4.8935398459434509e-01" nType="0">
          <Node pos="l" depth="2" NCoef="0" IVar="-1" Cut="0.0000000000000000e+00" cType="1" res="4.5511874486692250e-04" rms="4.5521467924118042e-01" purity="5.3963643312454224e-01" nType="-99"/>
          <Node pos="r" depth="2" NCoef="0" IVar="-1" Cut="0.0000000000000000e+00" cType="1" res="-2.4568516528233886e-04" rms="4.6215224266052246e-01" purity="4.6960172057151794e-01" nType="-99"/>
        </Node>
      </Node>
    </BinaryTree>
    <BinaryTree type="DecisionTree" boostWeight="1.0000000000000000e+00" itree="789">
      <Node pos="s" depth="0" NCoef="0" IVar="2" Cut="5.7158850097656250e+02" cType="1" res="2.7443987783044577e-03" rms="4.5944049954414368e-01" purity="4.9804329872131348e-01" nType="0">
        <Node pos="l" depth="1" NCoef="0" IVar="3" Cut="8.4476292133331299e-02" cType="1" res="-4.3071685358881950e-03" rms="4.6159777045249939e-01" purity="4.4888493418693542e-01" nType="0">
          <Node pos="l" depth="2" NCoef="0" IVar="-1" Cut="0.0000000000000000e+00" cType="1" res="-2.5628908770158887e-04" rms="4.5648822188377380e-01" purity="4.2934587597846985e-01" nType="-99"/>
          <Node pos="r" depth="2" NCoef="0" IVar="-1" Cut="0.0000000000000000e+00" cType="1" res="2.2420455934479833e-04" rms="4.7178286314010620e-01" purity="4.9007308483123779e-01" nType="-99"/>
        </Node>
        <Node pos="r" depth="1" NCoef="0" IVar="0" Cut="6.5260142087936401e-02" cType="1" res="2.6898061856627464e-02" rms="4.5113867521286011e-01" purity="6.6642516851425171e-01" nType="0">
          <Node pos="l" depth="2" NCoef="0" IVar="-1" Cut="0.0000000000000000e+00" cType="1" res="5.5506388889625669e-05" rms="4.6590524911880493e-01" purity="6.2139922380447388e-01" nType="-99"/>
          <Node pos="r" depth="2" NCoef="0" IVar="-1" Cut="0.0000000000000000e+00" cType="1" res="9.9354749545454979e-04" rms="4.2192575335502625e-01" purity="7.4282294511795044e-01" nType="-99"/>
        </Node>
      </Node>
    </BinaryTree>
    <BinaryTree type="DecisionTree" boostWeight="1.0000000000000000e+00" itree="790">
      <Node pos="s" depth="0" NCoef="0" IVar="3" Cut="1.7998844385147095e-01" cType="1" res="4.3628737330436707e-03" rms="4.5750799775123596e-01" purity="5.0169986486434937e-01" nType="0">
        <Node pos="l" depth="1" NCoef="0" IVar="1" Cut="9.6040445566177368e-01" cType="1" res="-1.4116343809291720e-03" rms="4.5663389563560486e-01" purity="4.8943451046943665e-01" nType="0">
          <Node pos="l" depth="2" NCoef="0" IVar="-1" Cut="0.0000000000000000e+00" cType="1" res="-3.0013450304977596e-04" rms="4.6008986234664917e-01" purity="3.9458575844764709e-01" nType="-99"/>
          <Node pos="r" depth="2" NCoef="0" IVar="-1" Cut="0.0000000000000000e+00" cType="1" res="2.9707740759477019e-04" rms="4.5018652081489563e-01" purity="6.4570713043212891e-01" nType="-99"/>
        </Node>
        <Node pos="r" depth="1" NCoef="0" IVar="1" Cut="9.4838392734527588e-01" cType="1" res="3.7801045924425125e-02" rms="4.6111747622489929e-01" purity="5.7272392511367798e-01" nType="0">
          <Node pos="l" depth="2" NCoef="0" IVar="-1" Cut="0.0000000000000000e+00" cType="1" res="4.9592781579121947e-04" rms="4.7699144482612610e-01" purity="4.6557775139808655e-01" nType="-99"/>
          <Node pos="r" depth="2" NCoef="0" IVar="-1" Cut="0.0000000000000000e+00" cType="1" res="7.5223523890599608e-04" rms="4.4636166095733643e-01" purity="6.6741764545440674e-01" nType="-99"/>
        </Node>
      </Node>
    </BinaryTree>
    <BinaryTree type="DecisionTree" boostWeight="1.0000000000000000e+00" itree="791">
      <Node pos="s" depth="0" NCoef="0" IVar="0" Cut="2.2698800265789032e-01" cType="1" res="5.7426798157393932e-03" rms="4.5977509021759033e-01" purity="5.0202393531799316e-01" nType="0">
        <Node pos="l" depth="1" NCoef="0" IVar="0" Cut="9.7359217703342438e-02" cType="1" res="1.6553145833313465e-03" rms="4.5972308516502380e-01" purity="4.9871179461479187e-01" nType="0">
          <Node pos="l" depth="2" NCoef="0" IVar="-1" Cut="0.0000000000000000e+00" cType="1" res="-1.4950404874980450e-04" rms="4.6169242262840271e-01" purity="4.8980310559272766e-01" nType="-99"/>
          <Node pos="r" depth="2" NCoef="0" IVar="-1" Cut="0.0000000000000000e+00" cType="1" res="3.2812240533530712e-04" rms="4.5591494441032410e-01" purity="5.1387840509414673e-01" nType="-99"/>
        </Node>
        <Node pos="r" depth="1" NCoef="0" IVar="-1" Cut="0.0000000000000000e+00" cType="1" res="1.2387274764478207e-03" rms="4.5559778809547424e-01" purity="5.5531358718872070e-01" nType="-99"/>
      </Node>
    </BinaryTree>
    <BinaryTree type="DecisionTree" boostWeight="1.0000000000000000e+00" itree="792">
      <Node pos="s" depth="0" NCoef="0" IVar="2" Cut="3.4796514892578125e+02" cType="1" res="7.7868173830211163e-03" rms="4.5704564452171326e-01" purity="5.0643187761306763e-01" nType="0">
        <Node pos="l" depth="1" NCoef="0" IVar="5" Cut="2.1411172485351562e+02" cType="1" res="-2.3761305958032608e-02" rms="4.2237997055053711e-01" purity="2.8230786323547363e-01" nType="0">
          <Node pos="l" depth="2" NCoef="0" IVar="-1" Cut="0.0000000000000000e+00" cType="1" res="-2.3622424341738224e-03" rms="3.9261457324028015e-01" purity="2.1959353983402252e-01" nType="-99"/>
          <Node pos="r" depth="2" NCoef="0" IVar="-1" Cut="0.0000000000000000e+00" cType="1" res="2.2919841285329312e-04" rms="4.4485783576965332e-01" purity="3.3838775753974915e-01" nType="-99"/>
        </Node>
        <Node pos="r" depth="1" NCoef="0" IVar="0" Cut="1.8638575077056885e-01" cType="1" res="1.4992840588092804e-02" rms="4.6430039405822754e-01" purity="5.5762487649917603e-01" nType="0">
          <Node pos="l" depth="2" NCoef="0" IVar="-1" Cut="0.0000000000000000e+00" cType="1" res="1.6909309488255531e-04" rms="4.6607437729835510e-01" purity="5.4995214939117432e-01" nType="-99"/>
          <Node pos="r" depth="2" NCoef="0" IVar="-1" Cut="0.0000000000000000e+00" cType="1" res="9.7693677525967360e-04" rms="4.4580850005149841e-01" purity="6.2449997663497925e-01" nType="-99"/>
        </Node>
      </Node>
    </BinaryTree>
    <BinaryTree type="DecisionTree" boostWeight="1.0000000000000000e+00" itree="793">
      <Node pos="s" depth="0" NCoef="0" IVar="5" Cut="5.4500970458984375e+02" cType="1" res="9.3631483614444733e-03" rms="4.5920521020889282e-01" purity="5.0670266151428223e-01" nType="0">
        <Node pos="l" depth="1" NCoef="0" IVar="6" Cut="1.5993437767028809e+00" cType="1" res="5.4061086848378181e-03" rms="4.6068030595779419e-01" purity="4.8899516463279724e-01" nType="0">
          <Node pos="l" depth="2" NCoef="0" IVar="-1" Cut="0.0000000000000000e+00" cType="1" res="7.0668174885213375e-04" rms="4.3925288319587708e-01" purity="6.0747933387756348e-01" nType="-99"/>
          <Node pos="r" depth="2" NCoef="0" IVar="-1" Cut="0.0000000000000000e+00" cType="1" res="4.2399959056638181e-05" rms="4.6235856413841248e-01" purity="4.7866356372833252e-01" nType="-99"/>
        </Node>
        <Node pos="r" depth="1" NCoef="0" IVar="-1" Cut="0.0000000000000000e+00" cType="1" res="8.2689151167869568e-04" rms="4.3948861956596375e-01" purity="7.0894503593444824e-01" nType="-99"/>
      </Node>
    </BinaryTree>
    <BinaryTree type="DecisionTree" boostWeight="1.0000000000000000e+00" itree="794">
      <Node pos="s" depth="0" NCoef="0" IVar="0" Cut="1.8380044028162956e-02" cType="1" res="3.3507321495562792e-03" rms="4.6026217937469482e-01" purity="4.9921026825904846e-01" nType="0">
        <Node pos="l" depth="1" NCoef="0" IVar="-1" Cut="0.0000000000000000e+00" cType="1" res="-1.0914033045992255e-03" rms="4.6661126613616943e-01" purity="4.5936822891235352e-01" nType="-99"/>
        <Node pos="r" depth="1" NCoef="0" IVar="5" Cut="4.7400604248046875e+02" cType="1" res="7.4154264293611050e-03" rms="4.5953434705734253e-01" purity="5.0207537412643433e-01" nType="0">
          <Node pos="l" depth="2" NCoef="0" IVar="-1" Cut="0.0000000000000000e+00" cType="1" res="5.4125906899571419e-05" rms="4.6167448163032532e-01" purity="4.7649684548377991e-01" nType="-99"/>
          <Node pos="r" depth="2" NCoef="0" IVar="-1" Cut="0.0000000000000000e+00" cType="1" res="6.6935096401721239e-04" rms="4.4087344408035278e-01" purity="7.0073854923248291e-01" nType="-99"/>
        </Node>
      </Node>
    </BinaryTree>
    <BinaryTree type="DecisionTree" boostWeight="1.0000000000000000e+00" itree="795">
      <Node pos="s" depth="0" NCoef="0" IVar="6" Cut="1.9142093658447266e+00" cType="1" res="3.5144065623171628e-04" rms="4.5879015326499939e-01" purity="4.9689260125160217e-01" nType="0">
        <Node pos="l" depth="1" NCoef="0" IVar="5" Cut="2.6963174438476562e+02" cType="1" res="2.6076074689626694e-02" rms="4.5098558068275452e-01" purity="5.7822626829147339e-01" nType="0">
          <Node pos="l" depth="2" NCoef="0" IVar="-1" Cut="0.0000000000000000e+00" cType="1" res="-1.9464895012788475e-04" rms="4.6352642774581909e-01" purity="4.1634309291839600e-01" nType="-99"/>
          <Node pos="r" depth="2" NCoef="0" IVar="-1" Cut="0.0000000000000000e+00" cType="1" res="7.3176715523004532e-04" rms="4.4112989306449890e-01" purity="6.8380969762802124e-01" nType="-99"/>
        </Node>
        <Node pos="r" depth="1" NCoef="0" IVar="4" Cut="1.2522436678409576e-01" cType="1" res="-5.9685492888092995e-03" rms="4.6046745777130127e-01" purity="4.7691071033477783e-01" nType="0">
          <Node pos="l" depth="2" NCoef="0" IVar="-1" Cut="0.0000000000000000e+00" cType="1" res="-2.8907077648909763e-05" rms="4.6120238304138184e-01" purity="4.8721435666084290e-01" nType="-99"/>
          <Node pos="r" depth="2" NCoef="0" IVar="-1" Cut="0.0000000000000000e+00" cType="1" res="-7.6399306999519467e-04" rms="4.5487231016159058e-01" purity="4.1283214092254639e-01" nType="-99"/>
        </Node>
      </Node>
    </BinaryTree>
    <BinaryTree type="DecisionTree" boostWeight="1.0000000000000000e+00" itree="796">
      <Node pos="s" depth="0" NCoef="0" IVar="6" Cut="1.6505836248397827e+00" cType="1" res="4.1914037428796291e-03" rms="4.5888233184814453e-01" purity="5.0096380710601807e-01" nType="0">
        <Node pos="l" depth="1" NCoef="0" IVar="-1" Cut="0.0000000000000000e+00" cType="1" res="7.0172414416447282e-04" rms="4.4849833846092224e-01" purity="6.0681766271591187e-01" nType="-99"/>
        <Node pos="r" depth="1" NCoef="0" IVar="3" Cut="2.2688047587871552e-01" cType="1" res="1.4447806461248547e-04" rms="4.5975923538208008e-01" purity="4.8995992541313171e-01" nType="0">
          <Node pos="l" depth="2" NCoef="0" IVar="-1" Cut="0.0000000000000000e+00" cType="1" res="-6.4081570599228144e-05" rms="4.5939752459526062e-01" purity="4.8334473371505737e-01" nType="-99"/>
          <Node pos="r" depth="2" NCoef="0" IVar="-1" Cut="0.0000000000000000e+00" cType="1" res="7.5701222522184253e-04" rms="4.6217298507690430e-01" purity="5.7780724763870239e-01" nType="-99"/>
        </Node>
      </Node>
    </BinaryTree>
    <BinaryTree type="DecisionTree" boostWeight="1.0000000000000000e+00" itree="797">
      <Node pos="s" depth="0" NCoef="0" IVar="6" Cut="2.3183684349060059e+00" cType="1" res="-7.0485402829945087e-04" rms="4.5769912004470825e-01" purity="4.9576720595359802e-01" nType="0">
        <Node pos="l" depth="1" NCoef="0" IVar="1" Cut="9.2158806324005127e-01" cType="1" res="1.0350855998694897e-02" rms="4.6096512675285339e-01" purity="5.4655724763870239e-01" nType="0">
          <Node pos="l" depth="2" NCoef="0" IVar="-1" Cut="0.0000000000000000e+00" cType="1" res="-8.5864664288237691e-04" rms="4.5745989680290222e-01" purity="3.5801953077316284e-01" nType="-99"/>
          <Node pos="r" depth="2" NCoef="0" IVar="-1" Cut="0.0000000000000000e+00" cType="1" res="2.9975399957038462e-04" rms="4.6110188961029053e-01" purity="5.7622325420379639e-01" nType="-99"/>
        </Node>
        <Node pos="r" depth="1" NCoef="0" IVar="0" Cut="5.6235350668430328e-02" cType="1" res="-2.1198522299528122e-02" rms="4.5086604356765747e-01" purity="4.0161904692649841e-01" nType="0">
          <Node pos="l" depth="2" NCoef="0" IVar="-1" Cut="0.0000000000000000e+00" cType="1" res="-9.9478510674089193e-04" rms="4.4943302869796753e-01" purity="3.8926613330841064e-01" nType="-99"/>
          <Node pos="r" depth="2" NCoef="0" IVar="-1" Cut="0.0000000000000000e+00" cType="1" res="-1.1582907609408721e-04" rms="4.5129212737083435e-01" purity="4.1102442145347595e-01" nType="-99"/>
        </Node>
      </Node>
    </BinaryTree>
    <BinaryTree type="DecisionTree" boostWeight="1.0000000000000000e+00" itree="798">
      <Node pos="s" depth="0" NCoef="0" IVar="1" Cut="9.7557532787322998e-01" cType="1" res="1.4050925383344293e-03" rms="4.5758882164955139e-01" purity="4.9867632985115051e-01" nType="0">
        <Node pos="l" depth="1" NCoef="0" IVar="5" Cut="4.0709143066406250e+02" cType="1" res="-5.0175273790955544e-03" rms="4.6521368622779846e-01" purity="4.4322609901428223e-01" nType="0">
          <Node pos="l" depth="2" NCoef="0" IVar="-1" Cut="0.0000000000000000e+00" cType="1" res="-2.5516859022900462e-04" rms="4.6294537186622620e-01" purity="3.9432156085968018e-01" nType="-99"/>
          <Node pos="r" depth="2" NCoef="0" IVar="-1" Cut="0.0000000000000000e+00" cType="1" res="2.7513378881849349e-04" rms="4.7232756018638611e-01" purity="6.1314386129379272e-01" nType="-99"/>
        </Node>
        <Node pos="r" depth="1" NCoef="0" IVar="5" Cut="2.9869534301757812e+02" cType="1" res="2.8993748128414154e-02" rms="4.2216667532920837e-01" purity="7.3686534166336060e-01" nType="0">
          <Node pos="l" depth="2" NCoef="0" IVar="-1" Cut="0.0000000000000000e+00" cType="1" res="1.1854524927912280e-04" rms="4.5682659745216370e-01" purity="6.5942698717117310e-01" nType="-99"/>
          <Node pos="r" depth="2" NCoef="0" IVar="-1" Cut="0.0000000000000000e+00" cType="1" res="6.8934389855712652e-04" rms="3.9392569661140442e-01" purity="7.9395800828933716e-01" nType="-99"/>
        </Node>
      </Node>
    </BinaryTree>
    <BinaryTree type="DecisionTree" boostWeight="1.0000000000000000e+00" itree="799">
      <Node pos="s" depth="0" NCoef="0" IVar="5" Cut="3.9221740722656250e+02" cType="1" res="7.1465955115854740e-03" rms="4.5882335305213928e-01" purity="5.0376456975936890e-01" nType="0">
        <Node pos="l" depth="1" NCoef="0" IVar="0" Cut="9.1816656291484833e-02" cType="1" res="2.4590647080913186e-04" rms="4.6009409427642822e-01" purity="4.5209124684333801e-01" nType="0">
          <Node pos="l" depth="2" NCoef="0" IVar="-1" Cut="0.0000000000000000e+00" cType="1" res="-2.7464929735288024e-04" rms="4.5759585499763489e-01" purity="4.2606526613235474e-01" nType="-99"/>
          <Node pos="r" depth="2" NCoef="0" IVar="-1" Cut="0.0000000000000000e+00" cType="1" res="2.5770018692128360e-04" rms="4.6221110224723816e-01" purity="4.7805136442184448e-01" nType="-99"/>
        </Node>
        <Node pos="r" depth="1" NCoef="0" IVar="0" Cut="4.9771502614021301e-02" cType="1" res="2.7293696999549866e-02" rms="4.5449388027191162e-01" purity="6.5462899208068848e-01" nType="0">
          <Node pos="l" depth="2" NCoef="0" IVar="-1" Cut="0.0000000000000000e+00" cType="1" res="-6.2315943978319410e-06" rms="4.7011244297027588e-01" purity="5.9901666641235352e-01" nType="-99"/>
          <Node pos="r" depth="2" NCoef="0" IVar="-1" Cut="0.0000000000000000e+00" cType="1" res="8.1116904038935900e-04" rms="4.3747979402542114e-01" purity="7.0759046077728271e-01" nType="-99"/>
        </Node>
      </Node>
    </BinaryTree>
    <BinaryTree type="DecisionTree" boostWeight="1.0000000000000000e+00" itree="800">
      <Node pos="s" depth="0" NCoef="0" IVar="0" Cut="1.8750099465250969e-02" cType="1" res="4.7694626264274120e-03" rms="4.6035030484199524e-01" purity="5.0029349327087402e-01" nType="0">
        <Node pos="l" depth="1" NCoef="0" IVar="-1" Cut="0.0000000000000000e+00" cType="1" res="-7.6935713877901435e-04" rms="4.6693286299705505e-01" purity="4.7462591528892517e-01" nType="-99"/>
        <Node pos="r" depth="1" NCoef="0" IVar="2" Cut="6.5679071044921875e+02" cType="1" res="8.0071240663528442e-03" rms="4.5968726277351379e-01" purity="5.0223046541213989e-01" nType="0">
          <Node pos="l" depth="2" NCoef="0" IVar="-1" Cut="0.0000000000000000e+00" cType="1" res="6.5858854213729501e-05" rms="4.6220698952674866e-01" purity="4.7618547081947327e-01" nType="-99"/>
          <Node pos="r" depth="2" NCoef="0" IVar="-1" Cut="0.0000000000000000e+00" cType="1" res="6.8029115209355950e-04" rms="4.3759489059448242e-01" purity="7.0734041929244995e-01" nType="-99"/>
        </Node>
      </Node>
    </BinaryTree>
    <BinaryTree type="DecisionTree" boostWeight="1.0000000000000000e+00" itree="801">
      <Node pos="s" depth="0" NCoef="0" IVar="0" Cut="1.1808305978775024e-01" cType="1" res="3.9491229690611362e-03" rms="4.6037748456001282e-01" purity="4.9969989061355591e-01" nType="0">
        <Node pos="l" depth="1" NCoef="0" IVar="3" Cut="1.7796798050403595e-01" cType="1" res="-5.7026380673050880e-03" rms="4.6173593401908875e-01" purity="4.9080875515937805e-01" nType="0">
          <Node pos="l" depth="2" NCoef="0" IVar="-1" Cut="0.0000000000000000e+00" cType="1" res="-2.9922265093773603e-04" rms="4.6015211939811707e-01" purity="4.7338578104972839e-01" nType="-99"/>
          <Node pos="r" depth="2" NCoef="0" IVar="-1" Cut="0.0000000000000000e+00" cType="1" res="5.9453473659232259e-04" rms="4.6652194857597351e-01" purity="5.6742364168167114e-01" nType="-99"/>
        </Node>
        <Node pos="r" depth="1" NCoef="0" IVar="5" Cut="2.6854986572265625e+02" cType="1" res="2.5109143927693367e-02" rms="4.5667186379432678e-01" purity="5.1919227838516235e-01" nType="0">
          <Node pos="l" depth="2" NCoef="0" IVar="-1" Cut="0.0000000000000000e+00" cType="1" res="-1.3940213830210268e-04" rms="4.5484572649002075e-01" purity="3.7471994757652283e-01" nType="-99"/>
          <Node pos="r" depth="2" NCoef="0" IVar="-1" Cut="0.0000000000000000e+00" cType="1" res="8.0197968054562807e-04" rms="4.5656242966651917e-01" purity="6.4372080564498901e-01" nType="-99"/>
        </Node>
      </Node>
    </BinaryTree>
    <BinaryTree type="DecisionTree" boostWeight="1.0000000000000000e+00" itree="802">
      <Node pos="s" depth="0" NCoef="0" IVar="1" Cut="9.8452526330947876e-01" cType="1" res="4.9587356625124812e-04" rms="4.5754733681678772e-01" purity="4.9742028117179871e-01" nType="0">
        <Node pos="l" depth="1" NCoef="0" IVar="5" Cut="4.0771383666992188e+02" cType="1" res="-4.4171097688376904e-03" rms="4.6415343880653381e-01" purity="4.6303057670593262e-01" nType="0">
          <Node pos="l" depth="2" NCoef="0" IVar="-1" Cut="0.0000000000000000e+00" cType="1" res="-2.5552592705935240e-04" rms="4.6282532811164856e-01" purity="4.1514050960540771e-01" nType="-99"/>
          <Node pos="r" depth="2" NCoef="0" IVar="-1" Cut="0.0000000000000000e+00" cType="1" res="3.4057578886859119e-04" rms="4.6783035993576050e-01" purity="6.3032424449920654e-01" nType="-99"/>
        </Node>
        <Node pos="r" depth="1" NCoef="0" IVar="-1" Cut="0.0000000000000000e+00" cType="1" res="6.6441955277696252e-04" rms="3.9368531107902527e-01" purity="7.9319638013839722e-01" nType="-99"/>
      </Node>
    </BinaryTree>
    <BinaryTree type="DecisionTree" boostWeight="1.0000000000000000e+00" itree="803">
      <Node pos="s" depth="0" NCoef="0" IVar="2" Cut="7.5286865234375000e+02" cType="1" res="2.2809489164501429e-03" rms="4.5953968167304993e-01" purity="4.9837639927864075e-01" nType="0">
        <Node pos="l" depth="1" NCoef="0" IVar="0" Cut="1.6793958842754364e-01" cType="1" res="-1.5631322748959064e-03" rms="4.6058827638626099e-01" purity="4.8086255788803101e-01" nType="0">
          <Node pos="l" depth="2" NCoef="0" IVar="-1" Cut="0.0000000000000000e+00" cType="1" res="-1.4792935689911246e-04" rms="4.6134382486343384e-01" purity="4.7439727187156677e-01" nType="-99"/>
          <Node pos="r" depth="2" NCoef="0" IVar="-1" Cut="0.0000000000000000e+00" cType="1" res="5.1483802963048220e-04" rms="4.5562598109245300e-01" purity="5.1341187953948975e-01" nType="-99"/>
        </Node>
        <Node pos="r" depth="1" NCoef="0" IVar="-1" Cut="0.0000000000000000e+00" cType="1" res="7.2730978718027472e-04" rms="4.4438186287879944e-01" purity="7.0615482330322266e-01" nType="-99"/>
      </Node>
    </BinaryTree>
    <BinaryTree type="DecisionTree" boostWeight="1.0000000000000000e+00" itree="804">
      <Node pos="s" depth="0" NCoef="0" IVar="2" Cut="7.2825067138671875e+02" cType="1" res="9.5682317623868585e-04" rms="4.5916685461997986e-01" purity="4.9848097562789917e-01" nType="0">
        <Node pos="l" depth="1" NCoef="0" IVar="0" Cut="2.0503395795822144e-01" cType="1" res="-4.0757721289992332e-03" rms="4.6089968085289001e-01" purity="4.7640487551689148e-01" nType="0">
          <Node pos="l" depth="2" NCoef="0" IVar="-1" Cut="0.0000000000000000e+00" cType="1" res="-1.6213534399867058e-04" rms="4.6192225813865662e-01" purity="4.7112548351287842e-01" nType="-99"/>
          <Node pos="r" depth="2" NCoef="0" IVar="-1" Cut="0.0000000000000000e+00" cType="1" res="6.3435162883251905e-04" rms="4.4896814227104187e-01" purity="5.2776587009429932e-01" nType="-99"/>
        </Node>
        <Node pos="r" depth="1" NCoef="0" IVar="-1" Cut="0.0000000000000000e+00" cType="1" res="7.5788196409121156e-04" rms="4.3921208381652832e-01" purity="7.1087509393692017e-01" nType="-99"/>
      </Node>
    </BinaryTree>
    <BinaryTree type="DecisionTree" boostWeight="1.0000000000000000e+00" itree="805">
      <Node pos="s" depth="0" NCoef="0" IVar="2" Cut="3.9579519653320312e+02" cType="1" res="2.4300999939441681e-03" rms="4.5810493826866150e-01" purity="5.0066608190536499e-01" nType="0">
        <Node pos="l" depth="1" NCoef="0" IVar="3" Cut="-8.2570359110832214e-02" cType="1" res="-1.8791703507304192e-02" rms="4.4296187162399292e-01" purity="3.3109298348426819e-01" nType="0">
          <Node pos="l" depth="2" NCoef="0" IVar="-1" Cut="0.0000000000000000e+00" cType="1" res="-1.9954375457018614e-03" rms="4.1329661011695862e-01" purity="2.4986116588115692e-01" nType="-99"/>
          <Node pos="r" depth="2" NCoef="0" IVar="-1" Cut="0.0000000000000000e+00" cType="1" res="-2.2954287123866379e-04" rms="4.5002049207687378e-01" purity="3.5271176695823669e-01" nType="-99"/>
        </Node>
        <Node pos="r" depth="1" NCoef="0" IVar="4" Cut="5.5747713893651962e-02" cType="1" res="1.3588054105639458e-02" rms="4.6548151969909668e-01" purity="5.8982384204864502e-01" nType="0">
          <Node pos="l" depth="2" NCoef="0" IVar="-1" Cut="0.0000000000000000e+00" cType="1" res="4.1570072062313557e-04" rms="4.6356603503227234e-01" purity="6.1871123313903809e-01" nType="-99"/>
          <Node pos="r" depth="2" NCoef="0" IVar="-1" Cut="0.0000000000000000e+00" cType="1" res="-1.8439373525325209e-04" rms="4.6820375323295593e-01" purity="5.3445088863372803e-01" nType="-99"/>
        </Node>
      </Node>
    </BinaryTree>
    <BinaryTree type="DecisionTree" boostWeight="1.0000000000000000e+00" itree="806">
      <Node pos="s" depth="0" NCoef="0" IVar="4" Cut="-4.5076299458742142e-02" cType="1" res="1.6992675373330712e-03" rms="4.5825171470642090e-01" purity="4.9758446216583252e-01" nType="0">
        <Node pos="l" depth="1" NCoef="0" IVar="5" Cut="2.7473364257812500e+02" cType="1" res="2.6560809463262558e-02" rms="4.5693498849868774e-01" purity="5.4209560155868530e-01" nType="0">
          <Node pos="l" depth="2" NCoef="0" IVar="-1" Cut="0.0000000000000000e+00" cType="1" res="-2.8964618104510009e-04" rms="4.5746293663978577e-01" purity="3.7525174021720886e-01" nType="-99"/>
          <Node pos="r" depth="2" NCoef="0" IVar="-1" Cut="0.0000000000000000e+00" cType="1" res="8.1530795432627201e-04" rms="4.5470038056373596e-01" purity="6.5616995096206665e-01" nType="-99"/>
        </Node>
        <Node pos="r" depth="1" NCoef="0" IVar="1" Cut="9.2474961280822754e-01" cType="1" res="-5.3648515604436398e-03" rms="4.5837920904159546e-01" purity="4.8493710160255432e-01" nType="0">
          <Node pos="l" depth="2" NCoef="0" IVar="-1" Cut="0.0000000000000000e+00" cType="1" res="-1.0175773641094565e-03" rms="4.4294649362564087e-01" purity="3.1299054622650146e-01" nType="-99"/>
          <Node pos="r" depth="2" NCoef="0" IVar="-1" Cut="0.0000000000000000e+00" cType="1" res="2.0774508811882697e-05" rms="4.6123829483985901e-01" purity="5.2047377824783325e-01" nType="-99"/>
        </Node>
      </Node>
    </BinaryTree>
    <BinaryTree type="DecisionTree" boostWeight="1.0000000000000000e+00" itree="807">
      <Node pos="s" depth="0" NCoef="0" IVar="3" Cut="1.0962127149105072e-01" cType="1" res="6.2792068347334862e-03" rms="4.5959651470184326e-01" purity="5.0269275903701782e-01" nType="0">
        <Node pos="l" depth="1" NCoef="0" IVar="0" Cut="7.4866726994514465e-02" cType="1" res="-7.5732980621978641e-04" rms="4.5845746994018555e-01" purity="4.8454681038856506e-01" nType="0">
          <Node pos="l" depth="2" NCoef="0" IVar="-1" Cut="0.0000000000000000e+00" cType="1" res="-3.0570078524760902e-04" rms="4.6299690008163452e-01" purity="4.6618047356605530e-01" nType="-99"/>
          <Node pos="r" depth="2" NCoef="0" IVar="-1" Cut="0.0000000000000000e+00" cType="1" res="1.9214468193240464e-04" rms="4.5469495654106140e-01" purity="4.9845796823501587e-01" nType="-99"/>
        </Node>
        <Node pos="r" depth="1" NCoef="0" IVar="1" Cut="9.3144321441650391e-01" cType="1" res="2.4846578016877174e-02" rms="4.6207451820373535e-01" purity="5.5057466030120850e-01" nType="0">
          <Node pos="l" depth="2" NCoef="0" IVar="-1" Cut="0.0000000000000000e+00" cType="1" res="5.1186576456530020e-05" rms="4.6954786777496338e-01" purity="4.0067461133003235e-01" nType="-99"/>
          <Node pos="r" depth="2" NCoef="0" IVar="-1" Cut="0.0000000000000000e+00" cType="1" res="5.3419329924508929e-04" rms="4.5942974090576172e-01" purity="5.9845340251922607e-01" nType="-99"/>
        </Node>
      </Node>
    </BinaryTree>
    <BinaryTree type="DecisionTree" boostWeight="1.0000000000000000e+00" itree="808">
      <Node pos="s" depth="0" NCoef="0" IVar="2" Cut="7.2414038085937500e+02" cType="1" res="5.9605431742966175e-03" rms="4.5995128154754639e-01" purity="5.0317132472991943e-01" nType="0">
        <Node pos="l" depth="1" NCoef="0" IVar="3" Cut="3.0242536216974258e-02" cType="1" res="1.8636541208252311e-03" rms="4.6164453029632568e-01" purity="4.8251545429229736e-01" nType="0">
          <Node pos="l" depth="2" NCoef="0" IVar="-1" Cut="0.0000000000000000e+00" cType="1" res="-1.9946978136431426e-04" rms="4.5702713727951050e-01" purity="4.5265135169029236e-01" nType="-99"/>
          <Node pos="r" depth="2" NCoef="0" IVar="-1" Cut="0.0000000000000000e+00" cType="1" res="2.9093885677866638e-04" rms="4.6682018041610718e-01" purity="5.1884377002716064e-01" nType="-99"/>
        </Node>
        <Node pos="r" depth="1" NCoef="0" IVar="-1" Cut="0.0000000000000000e+00" cType="1" res="7.0144038181751966e-04" rms="4.4094944000244141e-01" purity="7.0613390207290649e-01" nType="-99"/>
      </Node>
    </BinaryTree>
    <BinaryTree type="DecisionTree" boostWeight="1.0000000000000000e+00" itree="809">
      <Node pos="s" depth="0" NCoef="0" IVar="0" Cut="9.3254834413528442e-02" cType="1" res="3.6244727671146393e-03" rms="4.6057164669036865e-01" purity="4.9900510907173157e-01" nType="0">
        <Node pos="l" depth="1" NCoef="0" IVar="5" Cut="5.3150292968750000e+02" cType="1" res="-6.3384603708982468e-03" rms="4.6327123045921326e-01" purity="4.8981970548629761e-01" nType="0">
          <Node pos="l" depth="2" NCoef="0" IVar="-1" Cut="0.0000000000000000e+00" cType="1" res="-2.3331918055191636e-04" rms="4.6480059623718262e-01" purity="4.6064320206642151e-01" nType="-99"/>
          <Node pos="r" depth="2" NCoef="0" IVar="-1" Cut="0.0000000000000000e+00" cType="1" res="4.0794943924993277e-04" rms="4.5208984613418579e-01" purity="6.7514258623123169e-01" nType="-99"/>
        </Node>
        <Node pos="r" depth="1" NCoef="0" IVar="5" Cut="2.3401976013183594e+02" cType="1" res="1.7039133235812187e-02" rms="4.5656827092170715e-01" purity="5.1137286424636841e-01" nType="0">
          <Node pos="l" depth="2" NCoef="0" IVar="-1" Cut="0.0000000000000000e+00" cType="1" res="-7.1444164495915174e-04" rms="4.3573808670043945e-01" purity="3.1186550855636597e-01" nType="-99"/>
          <Node pos="r" depth="2" NCoef="0" IVar="-1" Cut="0.0000000000000000e+00" cType="1" res="5.2513997070491314e-04" rms="4.6247532963752747e-01" purity="5.7814735174179077e-01" nType="-99"/>
        </Node>
      </Node>
    </BinaryTree>
    <BinaryTree type="DecisionTree" boostWeight="1.0000000000000000e+00" itree="810">
      <Node pos="s" depth="0" NCoef="0" IVar="0" Cut="9.2564880847930908e-02" cType="1" res="4.0896963328123093e-03" rms="4.5920151472091675e-01" purity="5.0096362829208374e-01" nType="0">
        <Node pos="l" depth="1" NCoef="0" IVar="3" Cut="1.7997679114341736e-01" cType="1" res="-6.4730895683169365e-03" rms="4.6117964386940002e-01" purity="4.9082905054092407e-01" nType="0">
          <Node pos="l" depth="2" NCoef="0" IVar="-1" Cut="0.0000000000000000e+00" cType="1" res="-2.9658325365744531e-04" rms="4.5972421765327454e-01" purity="4.7358590364456177e-01" nType="-99"/>
          <Node pos="r" depth="2" NCoef="0" IVar="-1" Cut="0.0000000000000000e+00" cType="1" res="4.8941100249066949e-04" rms="4.6567088365554810e-01" purity="5.6327509880065918e-01" nType="-99"/>
        </Node>
        <Node pos="r" depth="1" NCoef="0" IVar="5" Cut="3.2132415771484375e+02" cType="1" res="1.7968170344829559e-02" rms="4.5621782541275024e-01" purity="5.1427954435348511e-01" nType="0">
          <Node pos="l" depth="2" NCoef="0" IVar="-1" Cut="0.0000000000000000e+00" cType="1" res="-2.9465134502970614e-05" rms="4.6155577898025513e-01" purity="4.2915460467338562e-01" nType="-99"/>
          <Node pos="r" depth="2" NCoef="0" IVar="-1" Cut="0.0000000000000000e+00" cType="1" res="8.6940289475023746e-04" rms="4.4222784042358398e-01" purity="6.9111239910125732e-01" nType="-99"/>
        </Node>
      </Node>
    </BinaryTree>
    <BinaryTree type="DecisionTree" boostWeight="1.0000000000000000e+00" itree="811">
      <Node pos="s" depth="0" NCoef="0" IVar="3" Cut="2.2794225811958313e-01" cType="1" res="5.5776261724531651e-03" rms="4.6005907654762268e-01" purity="5.0151491165161133e-01" nType="0">
        <Node pos="l" depth="1" NCoef="0" IVar="4" Cut="1.2522436678409576e-01" cType="1" res="2.0094995852559805e-03" rms="4.5933276414871216e-01" purity="4.9529904127120972e-01" nType="0">
          <Node pos="l" depth="2" NCoef="0" IVar="-1" Cut="0.0000000000000000e+00" cType="1" res="1.3267804752103984e-04" rms="4.5922642946243286e-01" purity="5.0748401880264282e-01" nType="-99"/>
          <Node pos="r" depth="2" NCoef="0" IVar="-1" Cut="0.0000000000000000e+00" cType="1" res="-1.1103438446298242e-03" rms="4.5763623714447021e-01" purity="3.7950548529624939e-01" nType="-99"/>
        </Node>
        <Node pos="r" depth="1" NCoef="0" IVar="-1" Cut="0.0000000000000000e+00" cType="1" res="8.7446934776380658e-04" rms="4.6685841679573059e-01" purity="5.8115351200103760e-01" nType="-99"/>
      </Node>
    </BinaryTree>
    <BinaryTree type="DecisionTree" boostWeight="1.0000000000000000e+00" itree="812">
      <Node pos="s" depth="0" NCoef="0" IVar="3" Cut="1.3698945939540863e-01" cType="1" res="6.8767764605581760e-03" rms="4.5899266004562378e-01" purity="5.0343364477157593e-01" nType="0">
        <Node pos="l" depth="1" NCoef="0" IVar="4" Cut="6.5609328448772430e-03" cType="1" res="4.6064349589869380e-04" rms="4.5772063732147217e-01" purity="4.8836916685104370e-01" nType="0">
          <Node pos="l" depth="2" NCoef="0" IVar="-1" Cut="0.0000000000000000e+00" cType="1" res="2.6841758517548442e-04" rms="4.5902937650680542e-01" purity="5.2428787946701050e-01" nType="-99"/>
          <Node pos="r" depth="2" NCoef="0" IVar="-1" Cut="0.0000000000000000e+00" cType="1" res="-3.7668182631023228e-04" rms="4.5538032054901123e-01" purity="4.4195589423179626e-01" nType="-99"/>
        </Node>
        <Node pos="r" depth="1" NCoef="0" IVar="5" Cut="3.1639831542968750e+02" cType="1" res="2.9409162700176239e-02" rms="4.6272784471511841e-01" purity="5.5633741617202759e-01" nType="0">
          <Node pos="l" depth="2" NCoef="0" IVar="-1" Cut="0.0000000000000000e+00" cType="1" res="3.5904810647480190e-04" rms="4.7228696942329407e-01" purity="4.6629270911216736e-01" nType="-99"/>
          <Node pos="r" depth="2" NCoef="0" IVar="-1" Cut="0.0000000000000000e+00" cType="1" res="6.7478412529453635e-04" rms="4.4943782687187195e-01" purity="6.7476892471313477e-01" nType="-99"/>
        </Node>
      </Node>
    </BinaryTree>
    <BinaryTree type="DecisionTree" boostWeight="1.0000000000000000e+00" itree="813">
      <Node pos="s" depth="0" NCoef="0" IVar="4" Cut="7.1662683039903641e-03" cType="1" res="6.8396085407584906e-04" rms="4.5785364508628845e-01" purity="4.9935057759284973e-01" nType="0">
        <Node pos="l" depth="1" NCoef="0" IVar="5" Cut="2.6460156250000000e+02" cType="1" res="1.5021898783743382e-02" rms="4.5778787136077881e-01" purity="5.3046929836273193e-01" nType="0">
          <Node pos="l" depth="2" NCoef="0" IVar="-1" Cut="0.0000000000000000e+00" cType="1" res="-2.9710831586271524e-04" rms="4.4960612058639526e-01" purity="3.6329564452171326e-01" nType="-99"/>
          <Node pos="r" depth="2" NCoef="0" IVar="-1" Cut="0.0000000000000000e+00" cType="1" res="4.6937883598729968e-04" rms="4.6138134598731995e-01" purity="6.1789482831954956e-01" nType="-99"/>
        </Node>
        <Node pos="r" depth="1" NCoef="0" IVar="3" Cut="2.3333509266376495e-01" cType="1" res="-1.2793270871043205e-02" rms="4.5750591158866882e-01" purity="4.7009989619255066e-01" nType="0">
          <Node pos="l" depth="2" NCoef="0" IVar="-1" Cut="0.0000000000000000e+00" cType="1" res="-4.0014871046878397e-04" rms="4.5584693551063538e-01" purity="4.5636311173439026e-01" nType="-99"/>
          <Node pos="r" depth="2" NCoef="0" IVar="-1" Cut="0.0000000000000000e+00" cType="1" res="5.5476161651313305e-04" rms="4.6635216474533081e-01" purity="5.6482249498367310e-01" nType="-99"/>
        </Node>
      </Node>
    </BinaryTree>
    <BinaryTree type="DecisionTree" boostWeight="1.0000000000000000e+00" itree="814">
      <Node pos="s" depth="0" NCoef="0" IVar="1" Cut="9.4222575426101685e-01" cType="1" res="2.7139117009937763e-03" rms="4.5858469605445862e-01" purity="4.9969893693923950e-01" nType="0">
        <Node pos="l" depth="1" NCoef="0" IVar="0" Cut="3.5862404853105545e-02" cType="1" res="-1.5224188566207886e-02" rms="4.5660918951034546e-01" purity="3.6606481671333313e-01" nType="0">
          <Node pos="l" depth="2" NCoef="0" IVar="-1" Cut="0.0000000000000000e+00" cType="1" res="-1.0605558054521680e-03" rms="4.6101897954940796e-01" purity="3.6108636856079102e-01" nType="-99"/>
          <Node pos="r" depth="2" NCoef="0" IVar="-1" Cut="0.0000000000000000e+00" cType="1" res="-1.9026205700356513e-04" rms="4.5518732070922852e-01" purity="3.6734214425086975e-01" nType="-99"/>
        </Node>
        <Node pos="r" depth="1" NCoef="0" IVar="6" Cut="2.6776502132415771e+00" cType="1" res="1.2596867978572845e-02" rms="4.5937031507492065e-01" purity="5.7332432270050049e-01" nType="0">
          <Node pos="l" depth="2" NCoef="0" IVar="-1" Cut="0.0000000000000000e+00" cType="1" res="2.9133912175893784e-04" rms="4.5990926027297974e-01" purity="5.9467309713363647e-01" nType="-99"/>
          <Node pos="r" depth="2" NCoef="0" IVar="-1" Cut="0.0000000000000000e+00" cType="1" res="-7.8537303488701582e-04" rms="4.5176759362220764e-01" purity="3.7085279822349548e-01" nType="-99"/>
        </Node>
      </Node>
    </BinaryTree>
    <BinaryTree type="DecisionTree" boostWeight="1.0000000000000000e+00" itree="815">
      <Node pos="s" depth="0" NCoef="0" IVar="2" Cut="5.7158850097656250e+02" cType="1" res="3.5532496403902769e-03" rms="4.5758742094039917e-01" purity="5.0134253501892090e-01" nType="0">
        <Node pos="l" depth="1" NCoef="0" IVar="3" Cut="1.8127265572547913e-01" cType="1" res="-3.5019374918192625e-03" rms="4.5895579457283020e-01" purity="4.5255464315414429e-01" nType="0">
          <Node pos="l" depth="2" NCoef="0" IVar="-1" Cut="0.0000000000000000e+00" cType="1" res="-1.8921167065855116e-04" rms="4.5693644881248474e-01" purity="4.3982467055320740e-01" nType="-99"/>
          <Node pos="r" depth="2" NCoef="0" IVar="-1" Cut="0.0000000000000000e+00" cType="1" res="5.0927622942253947e-04" rms="4.6924525499343872e-01" purity="5.2645808458328247e-01" nType="-99"/>
        </Node>
        <Node pos="r" depth="1" NCoef="0" IVar="0" Cut="6.5260142087936401e-02" cType="1" res="2.7495715767145157e-02" rms="4.5209285616874695e-01" purity="6.6690909862518311e-01" nType="0">
          <Node pos="l" depth="2" NCoef="0" IVar="-1" Cut="0.0000000000000000e+00" cType="1" res="7.0702313678339124e-05" rms="4.7153350710868835e-01" purity="6.1747246980667114e-01" nType="-99"/>
          <Node pos="r" depth="2" NCoef="0" IVar="-1" Cut="0.0000000000000000e+00" cType="1" res="9.4889121828600764e-04" rms="4.1600555181503296e-01" purity="7.4691230058670044e-01" nType="-99"/>
        </Node>
      </Node>
    </BinaryTree>
    <BinaryTree type="DecisionTree" boostWeight="1.0000000000000000e+00" itree="816">
      <Node pos="s" depth="0" NCoef="0" IVar="2" Cut="2.9695947265625000e+02" cType="1" res="2.4039824493229389e-03" rms="4.5973736047744751e-01" purity="4.9901446700096130e-01" nType="0">
        <Node pos="l" depth="1" NCoef="0" IVar="-1" Cut="0.0000000000000000e+00" cType="1" res="-1.8914972897619009e-03" rms="3.8620609045028687e-01" purity="2.1945323050022125e-01" nType="-99"/>
        <Node pos="r" depth="1" NCoef="0" IVar="3" Cut="1.2810157239437103e-01" cType="1" res="5.1668845117092133e-03" rms="4.6337890625000000e-01" purity="5.1476556062698364e-01" nType="0">
          <Node pos="l" depth="2" NCoef="0" IVar="-1" Cut="0.0000000000000000e+00" cType="1" res="-3.2598931284155697e-05" rms="4.6242100000381470e-01" purity="4.9843981862068176e-01" nType="-99"/>
          <Node pos="r" depth="2" NCoef="0" IVar="-1" Cut="0.0000000000000000e+00" cType="1" res="4.7084086691029370e-04" rms="4.6577593684196472e-01" purity="5.6768548488616943e-01" nType="-99"/>
        </Node>
      </Node>
    </BinaryTree>
    <BinaryTree type="DecisionTree" boostWeight="1.0000000000000000e+00" itree="817">
      <Node pos="s" depth="0" NCoef="0" IVar="3" Cut="-1.2653562426567078e-01" cType="1" res="3.8111412432044744e-03" rms="4.5878404378890991e-01" purity="5.0057673454284668e-01" nType="0">
        <Node pos="l" depth="1" NCoef="0" IVar="-1" Cut="0.0000000000000000e+00" cType="1" res="-8.2188739906996489e-04" rms="4.4990152120590210e-01" purity="4.0706697106361389e-01" nType="-99"/>
        <Node pos="r" depth="1" NCoef="0" IVar="1" Cut="9.6652221679687500e-01" cType="1" res="6.5669235773384571e-03" rms="4.5926076173782349e-01" purity="5.0701326131820679e-01" nType="0">
          <Node pos="l" depth="2" NCoef="0" IVar="-1" Cut="0.0000000000000000e+00" cType="1" res="-3.5451216717774514e-06" rms="4.6742805838584900e-01" purity="4.3191242218017578e-01" nType="-99"/>
          <Node pos="r" depth="2" NCoef="0" IVar="-1" Cut="0.0000000000000000e+00" cType="1" res="3.6138342693448067e-04" rms="4.3850362300872803e-01" purity="6.8821406364440918e-01" nType="-99"/>
        </Node>
      </Node>
    </BinaryTree>
    <BinaryTree type="DecisionTree" boostWeight="1.0000000000000000e+00" itree="818">
      <Node pos="s" depth="0" NCoef="0" IVar="3" Cut="-1.2489712983369827e-01" cType="1" res="4.9350550398230553e-03" rms="4.5926421880722046e-01" purity="5.0175023078918457e-01" nType="0">
        <Node pos="l" depth="1" NCoef="0" IVar="-1" Cut="0.0000000000000000e+00" cType="1" res="-1.0045968228951097e-03" rms="4.4031456112861633e-01" purity="4.0353354811668396e-01" nType="-99"/>
        <Node pos="r" depth="1" NCoef="0" IVar="4" Cut="-3.6573696881532669e-02" cType="1" res="8.5669029504060745e-03" rms="4.6044522523880005e-01" purity="5.0909996032714844e-01" nType="0">
          <Node pos="l" depth="2" NCoef="0" IVar="-1" Cut="0.0000000000000000e+00" cType="1" res="4.8085002345032990e-04" rms="4.5602691173553467e-01" purity="5.4643046855926514e-01" nType="-99"/>
          <Node pos="r" depth="2" NCoef="0" IVar="-1" Cut="0.0000000000000000e+00" cType="1" res="2.9093716875649989e-05" rms="4.6195077896118164e-01" purity="4.9464869499206543e-01" nType="-99"/>
        </Node>
      </Node>
    </BinaryTree>
    <BinaryTree type="DecisionTree" boostWeight="1.0000000000000000e+00" itree="819">
      <Node pos="s" depth="0" NCoef="0" IVar="2" Cut="3.4020376586914062e+02" cType="1" res="3.8078858051449060e-04" rms="4.5823812484741211e-01" purity="4.9779871106147766e-01" nType="0">
        <Node pos="l" depth="1" NCoef="0" IVar="3" Cut="4.8885256052017212e-02" cType="1" res="-2.6701860129833221e-02" rms="4.2103427648544312e-01" purity="2.7033954858779907e-01" nType="0">
          <Node pos="l" depth="2" NCoef="0" IVar="-1" Cut="0.0000000000000000e+00" cType="1" res="-1.6149579314514995e-03" rms="4.0412944555282593e-01" purity="2.3458568751811981e-01" nType="-99"/>
          <Node pos="r" depth="2" NCoef="0" IVar="-1" Cut="0.0000000000000000e+00" cType="1" res="-9.5936484285630286e-05" rms="4.4388583302497864e-01" purity="3.2331833243370056e-01" nType="-99"/>
        </Node>
        <Node pos="r" depth="1" NCoef="0" IVar="0" Cut="1.8650427460670471e-02" cType="1" res="5.6737209670245647e-03" rms="4.6497741341590881e-01" purity="5.4225248098373413e-01" nType="0">
          <Node pos="l" depth="2" NCoef="0" IVar="-1" Cut="0.0000000000000000e+00" cType="1" res="-8.0940010957419872e-04" rms="4.7024592757225037e-01" purity="4.8977482318878174e-01" nType="-99"/>
          <Node pos="r" depth="2" NCoef="0" IVar="-1" Cut="0.0000000000000000e+00" cType="1" res="1.7291166295763105e-04" rms="4.6429565548896790e-01" purity="5.4673635959625244e-01" nType="-99"/>
        </Node>
      </Node>
    </BinaryTree>
    <BinaryTree type="DecisionTree" boostWeight="1.0000000000000000e+00" itree="820">
      <Node pos="s" depth="0" NCoef="0" IVar="1" Cut="9.5797669887542725e-01" cType="1" res="6.6617904230952263e-03" rms="4.5990410447120667e-01" purity="5.0244855880737305e-01" nType="0">
        <Node pos="l" depth="1" NCoef="0" IVar="5" Cut="3.7604449462890625e+02" cType="1" res="-2.8602506499737501e-03" rms="4.6591287851333618e-01" purity="4.0725690126419067e-01" nType="0">
          <Node pos="l" depth="2" NCoef="0" IVar="-1" Cut="0.0000000000000000e+00" cType="1" res="-2.2327280021272600e-04" rms="4.5820719003677368e-01" purity="3.4695583581924438e-01" nType="-99"/>
          <Node pos="r" depth="2" NCoef="0" IVar="-1" Cut="0.0000000000000000e+00" cType="1" res="2.1202878269832581e-04" rms="4.8511713743209839e-01" purity="5.6484335660934448e-01" nType="-99"/>
        </Node>
        <Node pos="r" depth="1" NCoef="0" IVar="4" Cut="-4.4248715043067932e-02" cType="1" res="2.0719382911920547e-02" rms="4.5051911473274231e-01" purity="6.4298194646835327e-01" nType="0">
          <Node pos="l" depth="2" NCoef="0" IVar="-1" Cut="0.0000000000000000e+00" cType="1" res="8.1351445987820625e-04" rms="4.3256968259811401e-01" purity="6.9719171524047852e-01" nType="-99"/>
          <Node pos="r" depth="2" NCoef="0" IVar="-1" Cut="0.0000000000000000e+00" cType="1" res="1.7049217422027141e-04" rms="4.5559012889862061e-01" purity="6.2574607133865356e-01" nType="-99"/>
        </Node>
      </Node>
    </BinaryTree>
    <BinaryTree type="DecisionTree" boostWeight="1.0000000000000000e+00" itree="821">
      <Node pos="s" depth="0" NCoef="0" IVar="3" Cut="-1.3137933611869812e-01" cType="1" res="4.6332399360835552e-03" rms="4.5939278602600098e-01" purity="5.0121694803237915e-01" nType="0">
        <Node pos="l" depth="1" NCoef="0" IVar="-1" Cut="0.0000000000000000e+00" cType="1" res="-1.0646585142239928e-03" rms="4.4023445248603821e-01" purity="3.9600762724876404e-01" nType="-99"/>
        <Node pos="r" depth="1" NCoef="0" IVar="0" Cut="2.1288911998271942e-01" cType="1" res="7.3530999943614006e-03" rms="4.6025010943412781e-01" purity="5.0690948963165283e-01" nType="0">
          <Node pos="l" depth="2" NCoef="0" IVar="-1" Cut="0.0000000000000000e+00" cType="1" res="7.7164346294011921e-05" rms="4.6133258938789368e-01" purity="5.0398665666580200e-01" nType="-99"/>
          <Node pos="r" depth="2" NCoef="0" IVar="-1" Cut="0.0000000000000000e+00" cType="1" res="8.2043150905519724e-04" rms="4.4568669795989990e-01" purity="5.4086750745773315e-01" nType="-99"/>
        </Node>
      </Node>
    </BinaryTree>
    <BinaryTree type="DecisionTree" boostWeight="1.0000000000000000e+00" itree="822">
      <Node pos="s" depth="0" NCoef="0" IVar="6" Cut="1.5735620260238647e+00" cType="1" res="2.4159250315278769e-03" rms="4.5925670862197876e-01" purity="4.9894014000892639e-01" nType="0">
        <Node pos="l" depth="1" NCoef="0" IVar="-1" Cut="0.0000000000000000e+00" cType="1" res="6.8714522058144212e-04" rms="4.4285812973976135e-01" purity="6.1502069234848022e-01" nType="-99"/>
        <Node pos="r" depth="1" NCoef="0" IVar="1" Cut="9.8417210578918457e-01" cType="1" res="-7.7953480649739504e-04" rms="4.6039283275604248e-01" purity="4.8965921998023987e-01" nType="0">
          <Node pos="l" depth="2" NCoef="0" IVar="-1" Cut="0.0000000000000000e+00" cType="1" res="-9.1603200417011976e-05" rms="4.6589586138725281e-01" purity="4.5655232667922974e-01" nType="-99"/>
          <Node pos="r" depth="2" NCoef="0" IVar="-1" Cut="0.0000000000000000e+00" cType="1" res="4.8428628360852599e-04" rms="4.0888196229934692e-01" purity="7.7299469709396362e-01" nType="-99"/>
        </Node>
      </Node>
    </BinaryTree>
    <BinaryTree type="DecisionTree" boostWeight="1.0000000000000000e+00" itree="823">
      <Node pos="s" depth="0" NCoef="0" IVar="6" Cut="1.8431116342544556e+00" cType="1" res="3.3369504380971193e-03" rms="4.5867231488227844e-01" purity="5.0059127807617188e-01" nType="0">
        <Node pos="l" depth="1" NCoef="0" IVar="5" Cut="2.8904806518554688e+02" cType="1" res="3.1723089516162872e-02" rms="4.4857510924339294e-01" purity="5.9153175354003906e-01" nType="0">
          <Node pos="l" depth="2" NCoef="0" IVar="-1" Cut="0.0000000000000000e+00" cType="1" res="-2.0018931536469609e-04" rms="4.6630728244781494e-01" purity="4.4593793153762817e-01" nType="-99"/>
          <Node pos="r" depth="2" NCoef="0" IVar="-1" Cut="0.0000000000000000e+00" cType="1" res="9.9184503778815269e-04" rms="4.2884752154350281e-01" purity="7.2099721431732178e-01" nType="-99"/>
        </Node>
        <Node pos="r" depth="1" NCoef="0" IVar="1" Cut="9.3138378858566284e-01" cType="1" res="-2.1224212832748890e-03" rms="4.6038827300071716e-01" purity="4.8310115933418274e-01" nType="0">
          <Node pos="l" depth="2" NCoef="0" IVar="-1" Cut="0.0000000000000000e+00" cType="1" res="-6.7479227436706424e-04" rms="4.5092219114303589e-01" purity="3.2740116119384766e-01" nType="-99"/>
          <Node pos="r" depth="2" NCoef="0" IVar="-1" Cut="0.0000000000000000e+00" cType="1" res="8.7343265477102250e-05" rms="4.6296447515487671e-01" purity="5.2975600957870483e-01" nType="-99"/>
        </Node>
      </Node>
    </BinaryTree>
    <BinaryTree type="DecisionTree" boostWeight="1.0000000000000000e+00" itree="824">
      <Node pos="s" depth="0" NCoef="0" IVar="6" Cut="1.5492286682128906e+00" cType="1" res="6.8210503086447716e-03" rms="4.5924821496009827e-01" purity="5.0393092632293701e-01" nType="0">
        <Node pos="l" depth="1" NCoef="0" IVar="-1" Cut="0.0000000000000000e+00" cType="1" res="9.5898227300494909e-04" rms="4.3949204683303833e-01" purity="6.3596725463867188e-01" nType="-99"/>
        <Node pos="r" depth="1" NCoef="0" IVar="4" Cut="3.5956081002950668e-02" cType="1" res="2.6520786341279745e-03" rms="4.6048414707183838e-01" purity="4.9368336796760559e-01" nType="0">
          <Node pos="l" depth="2" NCoef="0" IVar="-1" Cut="0.0000000000000000e+00" cType="1" res="2.6080524548888206e-04" rms="4.6086448431015015e-01" purity="5.1819860935211182e-01" nType="-99"/>
          <Node pos="r" depth="2" NCoef="0" IVar="-1" Cut="0.0000000000000000e+00" cType="1" res="-3.1164355459623039e-04" rms="4.5933780074119568e-01" purity="4.5576730370521545e-01" nType="-99"/>
        </Node>
      </Node>
    </BinaryTree>
    <BinaryTree type="DecisionTree" boostWeight="1.0000000000000000e+00" itree="825">
      <Node pos="s" depth="0" NCoef="0" IVar="1" Cut="9.1004192829132080e-01" cType="1" res="2.9165630694478750e-03" rms="4.5745056867599487e-01" purity="5.0139272212982178e-01" nType="0">
        <Node pos="l" depth="1" NCoef="0" IVar="-1" Cut="0.0000000000000000e+00" cType="1" res="-1.4340417692437768e-03" rms="4.3627235293388367e-01" purity="2.9607942700386047e-01" nType="-99"/>
        <Node pos="r" depth="1" NCoef="0" IVar="3" Cut="2.7539832517504692e-02" cType="1" res="6.7420224659144878e-03" rms="4.5873585343360901e-01" purity="5.1648467779159546e-01" nType="0">
          <Node pos="l" depth="2" NCoef="0" IVar="-1" Cut="0.0000000000000000e+00" cType="1" res="-1.0544191172812134e-04" rms="4.5638579130172729e-01" purity="4.8481950163841248e-01" nType="-99"/>
          <Node pos="r" depth="2" NCoef="0" IVar="-1" Cut="0.0000000000000000e+00" cType="1" res="3.7159485509619117e-04" rms="4.6108573675155640e-01" purity="5.5382287502288818e-01" nType="-99"/>
        </Node>
      </Node>
    </BinaryTree>
    <BinaryTree type="DecisionTree" boostWeight="1.0000000000000000e+00" itree="826">
      <Node pos="s" depth="0" NCoef="0" IVar="2" Cut="4.9104846191406250e+02" cType="1" res="-1.1200851295143366e-03" rms="4.5862284302711487e-01" purity="4.9508303403854370e-01" nType="0">
        <Node pos="l" depth="1" NCoef="0" IVar="3" Cut="2.7668111026287079e-02" cType="1" res="-1.0133405216038227e-02" rms="4.5745337009429932e-01" purity="4.1242888569831848e-01" nType="0">
          <Node pos="l" depth="2" NCoef="0" IVar="-1" Cut="0.0000000000000000e+00" cType="1" res="-4.8399521620012820e-04" rms="4.4856947660446167e-01" purity="3.8383033871650696e-01" nType="-99"/>
          <Node pos="r" depth="2" NCoef="0" IVar="-1" Cut="0.0000000000000000e+00" cType="1" res="4.2635390855139121e-05" rms="4.6770390868186951e-01" purity="4.4708946347236633e-01" nType="-99"/>
        </Node>
        <Node pos="r" depth="1" NCoef="0" IVar="0" Cut="6.5495632588863373e-02" cType="1" res="1.3904233463108540e-02" rms="4.6017339825630188e-01" purity="6.3285946846008301e-01" nType="0">
          <Node pos="l" depth="2" NCoef="0" IVar="-1" Cut="0.0000000000000000e+00" cType="1" res="-1.8834933871403337e-04" rms="4.7110158205032349e-01" purity="5.8576953411102295e-01" nType="-99"/>
          <Node pos="r" depth="2" NCoef="0" IVar="-1" Cut="0.0000000000000000e+00" cType="1" res="6.7199213663116097e-04" rms="4.4455933570861816e-01" purity="6.9035720825195312e-01" nType="-99"/>
        </Node>
      </Node>
    </BinaryTree>
    <BinaryTree type="DecisionTree" boostWeight="1.0000000000000000e+00" itree="827">
      <Node pos="s" depth="0" NCoef="0" IVar="0" Cut="9.3566171824932098e-02" cType="1" res="6.0547464527189732e-03" rms="4.6055138111114502e-01" purity="5.0042849779129028e-01" nType="0">
        <Node pos="l" depth="1" NCoef="0" IVar="3" Cut="1.7485950887203217e-01" cType="1" res="-4.1316193528473377e-03" rms="4.6171796321868896e-01" purity="4.9219053983688354e-01" nType="0">
          <Node pos="l" depth="2" NCoef="0" IVar="-1" Cut="0.0000000000000000e+00" cType="1" res="-2.5867827935144305e-04" rms="4.5993059873580933e-01" purity="4.7415971755981445e-01" nType="-99"/>
          <Node pos="r" depth="2" NCoef="0" IVar="-1" Cut="0.0000000000000000e+00" cType="1" res="5.1270757103338838e-04" rms="4.6702858805656433e-01" purity="5.6201487779617310e-01" nType="-99"/>
        </Node>
        <Node pos="r" depth="1" NCoef="0" IVar="2" Cut="4.2914047241210938e+02" cType="1" res="1.9826551899313927e-02" rms="4.5860984921455383e-01" purity="5.1156610250473022e-01" nType="0">
          <Node pos="l" depth="2" NCoef="0" IVar="-1" Cut="0.0000000000000000e+00" cType="1" res="-1.4174707985148416e-06" rms="4.6419295668601990e-01" purity="3.9444997906684875e-01" nType="-99"/>
          <Node pos="r" depth="2" NCoef="0" IVar="-1" Cut="0.0000000000000000e+00" cType="1" res="7.0036284159868956e-04" rms="4.4971939921379089e-01" purity="6.6728651523590088e-01" nType="-99"/>
        </Node>
      </Node>
    </BinaryTree>
    <BinaryTree type="DecisionTree" boostWeight="1.0000000000000000e+00" itree="828">
      <Node pos="s" depth="0" NCoef="0" IVar="0" Cut="1.6793958842754364e-01" cType="1" res="8.4812933346256614e-04" rms="4.5765292644500732e-01" purity="4.9896848201751709e-01" nType="0">
        <Node pos="l" depth="1" NCoef="0" IVar="6" Cut="1.8374799489974976e+00" cType="1" res="-4.7616045922040939e-03" rms="4.5819255709648132e-01" purity="4.9452707171440125e-01" nType="0">
          <Node pos="l" depth="2" NCoef="0" IVar="-1" Cut="0.0000000000000000e+00" cType="1" res="4.5855419011786580e-04" rms="4.5131462812423706e-01" purity="5.9126561880111694e-01" nType="-99"/>
          <Node pos="r" depth="2" NCoef="0" IVar="-1" Cut="0.0000000000000000e+00" cType="1" res="-2.1132970869075507e-04" rms="4.5918121933937073e-01" purity="4.7717884182929993e-01" nType="-99"/>
        </Node>
        <Node pos="r" depth="1" NCoef="0" IVar="5" Cut="2.5129234313964844e+02" cType="1" res="3.1902357935905457e-02" rms="4.5340028405189514e-01" purity="5.2355515956878662e-01" nType="0">
          <Node pos="l" depth="2" NCoef="0" IVar="-1" Cut="0.0000000000000000e+00" cType="1" res="-2.5484443176537752e-04" rms="4.5094284415245056e-01" purity="3.5204818844795227e-01" nType="-99"/>
          <Node pos="r" depth="2" NCoef="0" IVar="-1" Cut="0.0000000000000000e+00" cType="1" res="9.1910391347482800e-04" rms="4.5291614532470703e-01" purity="6.3568872213363647e-01" nType="-99"/>
        </Node>
      </Node>
    </BinaryTree>
    <BinaryTree type="DecisionTree" boostWeight="1.0000000000000000e+00" itree="829">
      <Node pos="s" depth="0" NCoef="0" IVar="4" Cut="1.3179095461964607e-02" cType="1" res="3.8602503482252359e-03" rms="4.5691531896591187e-01" purity="5.0264102220535278e-01" nType="0">
        <Node pos="l" depth="1" NCoef="0" IVar="2" Cut="3.2777664184570312e+02" cType="1" res="1.7905676737427711e-02" rms="4.5552149415016174e-01" purity="5.3283858299255371e-01" nType="0">
          <Node pos="l" depth="2" NCoef="0" IVar="-1" Cut="0.0000000000000000e+00" cType="1" res="-1.1643026955425739e-03" rms="4.2017233371734619e-01" purity="2.6036831736564636e-01" nType="-99"/>
          <Node pos="r" depth="2" NCoef="0" IVar="-1" Cut="0.0000000000000000e+00" cType="1" res="4.4468167470768094e-04" rms="4.6020805835723877e-01" purity="5.7491075992584229e-01" nType="-99"/>
        </Node>
        <Node pos="r" depth="1" NCoef="0" IVar="3" Cut="2.0207974314689636e-01" cType="1" res="-1.0962243191897869e-02" rms="4.5791471004486084e-01" purity="4.7077277302742004e-01" nType="0">
          <Node pos="l" depth="2" NCoef="0" IVar="-1" Cut="0.0000000000000000e+00" cType="1" res="-4.6546355588361621e-04" rms="4.5671039819717407e-01" purity="4.4250521063804626e-01" nType="-99"/>
          <Node pos="r" depth="2" NCoef="0" IVar="-1" Cut="0.0000000000000000e+00" cType="1" res="4.7847806126810610e-04" rms="4.6010047197341919e-01" purity="5.7160282135009766e-01" nType="-99"/>
        </Node>
      </Node>
    </BinaryTree>
    <BinaryTree type="DecisionTree" boostWeight="1.0000000000000000e+00" itree="830">
      <Node pos="s" depth="0" NCoef="0" IVar="1" Cut="9.8464417457580566e-01" cType="1" res="4.5457910164259374e-04" rms="4.5939198136329651e-01" purity="4.9629056453704834e-01" nType="0">
        <Node pos="l" depth="1" NCoef="0" IVar="3" Cut="1.5652495622634888e-01" cType="1" res="-3.5606531891971827e-03" rms="4.6552756428718567e-01" purity="4.6345204114913940e-01" nType="0">
          <Node pos="l" depth="2" NCoef="0" IVar="-1" Cut="0.0000000000000000e+00" cType="1" res="-1.9760675786528736e-04" rms="4.6299001574516296e-01" purity="4.4905295968055725e-01" nType="-99"/>
          <Node pos="r" depth="2" NCoef="0" IVar="-1" Cut="0.0000000000000000e+00" cType="1" res="4.0622669621370733e-04" rms="4.7544279694557190e-01" purity="5.2565455436706543e-01" nType="-99"/>
        </Node>
        <Node pos="r" depth="1" NCoef="0" IVar="-1" Cut="0.0000000000000000e+00" cType="1" res="5.5450003128498793e-04" rms="3.9962598681449890e-01" purity="7.8532648086547852e-01" nType="-99"/>
      </Node>
    </BinaryTree>
    <BinaryTree type="DecisionTree" boostWeight="1.0000000000000000e+00" itree="831">
      <Node pos="s" depth="0" NCoef="0" IVar="5" Cut="4.7456893920898438e+02" cType="1" res="2.2001380566507578e-03" rms="4.5888990163803101e-01" purity="4.9903613328933716e-01" nType="0">
        <Node pos="l" depth="1" NCoef="0" IVar="1" Cut="9.1562980413436890e-01" cType="1" res="-3.4402275923639536e-03" rms="4.6056663990020752e-01" purity="4.6980756521224976e-01" nType="0">
          <Node pos="l" depth="2" NCoef="0" IVar="-1" Cut="0.0000000000000000e+00" cType="1" res="-1.2262056116014719e-03" rms="4.3226343393325806e-01" purity="2.8202098608016968e-01" nType="-99"/>
          <Node pos="r" depth="2" NCoef="0" IVar="-1" Cut="0.0000000000000000e+00" cType="1" res="1.3640236829814967e-05" rms="4.6347653865814209e-01" purity="4.9104630947113037e-01" nType="-99"/>
        </Node>
        <Node pos="r" depth="1" NCoef="0" IVar="-1" Cut="0.0000000000000000e+00" cType="1" res="5.9856718871742487e-04" rms="4.4634258747100830e-01" purity="6.8587654829025269e-01" nType="-99"/>
      </Node>
    </BinaryTree>
    <BinaryTree type="DecisionTree" boostWeight="1.0000000000000000e+00" itree="832">
      <Node pos="s" depth="0" NCoef="0" IVar="2" Cut="5.2728631591796875e+02" cType="1" res="-1.7169604543596506e-03" rms="4.5505931973457336e-01" purity="4.9822539091110229e-01" nType="0">
        <Node pos="l" depth="1" NCoef="0" IVar="3" Cut="9.0180963277816772e-02" cType="1" res="-1.1594930663704872e-02" rms="4.5536717772483826e-01" purity="4.3114155530929565e-01" nType="0">
          <Node pos="l" depth="2" NCoef="0" IVar="-1" Cut="0.0000000000000000e+00" cType="1" res="-5.0581095274537802e-04" rms="4.5035806298255920e-01" purity="4.0544012188911438e-01" nType="-99"/>
          <Node pos="r" depth="2" NCoef="0" IVar="-1" Cut="0.0000000000000000e+00" cType="1" res="2.2099284979049116e-04" rms="4.6515443921089172e-01" purity="4.8660099506378174e-01" nType="-99"/>
        </Node>
        <Node pos="r" depth="1" NCoef="0" IVar="0" Cut="4.1282035410404205e-02" cType="1" res="2.0920747891068459e-02" rms="4.5354229211807251e-01" purity="6.5196382999420166e-01" nType="0">
          <Node pos="l" depth="2" NCoef="0" IVar="-1" Cut="0.0000000000000000e+00" cType="1" res="-1.7306543304584920e-04" rms="4.6950095891952515e-01" purity="5.9109532833099365e-01" nType="-99"/>
          <Node pos="r" depth="2" NCoef="0" IVar="-1" Cut="0.0000000000000000e+00" cType="1" res="6.1318953521549702e-04" rms="4.4239902496337891e-01" purity="6.8925255537033081e-01" nType="-99"/>
        </Node>
      </Node>
    </BinaryTree>
    <BinaryTree type="DecisionTree" boostWeight="1.0000000000000000e+00" itree="833">
      <Node pos="s" depth="0" NCoef="0" IVar="1" Cut="9.8424941301345825e-01" cType="1" res="1.0832041880348697e-04" rms="4.5759853720664978e-01" purity="4.9822336435317993e-01" nType="0">
        <Node pos="l" depth="1" NCoef="0" IVar="2" Cut="7.4472863769531250e+02" cType="1" res="-4.3662516400218010e-03" rms="4.6435141563415527e-01" purity="4.6328869462013245e-01" nType="0">
          <Node pos="l" depth="2" NCoef="0" IVar="-1" Cut="0.0000000000000000e+00" cType="1" res="-1.6641784168314189e-04" rms="4.6495738625526428e-01" purity="4.4379928708076477e-01" nType="-99"/>
          <Node pos="r" depth="2" NCoef="0" IVar="-1" Cut="0.0000000000000000e+00" cType="1" res="5.6128989672288299e-04" rms="4.5550957322120667e-01" purity="6.8071866035461426e-01" nType="-99"/>
        </Node>
        <Node pos="r" depth="1" NCoef="0" IVar="-1" Cut="0.0000000000000000e+00" cType="1" res="5.8390037156641483e-04" rms="3.9494681358337402e-01" purity="7.8920912742614746e-01" nType="-99"/>
      </Node>
    </BinaryTree>
    <BinaryTree type="DecisionTree" boostWeight="1.0000000000000000e+00" itree="834">
      <Node pos="s" depth="0" NCoef="0" IVar="0" Cut="1.9144652411341667e-02" cType="1" res="2.9505589045584202e-03" rms="4.5876574516296387e-01" purity="4.9912929534912109e-01" nType="0">
        <Node pos="l" depth="1" NCoef="0" IVar="-1" Cut="0.0000000000000000e+00" cType="1" res="-8.1946019781753421e-04" rms="4.7151538729667664e-01" purity="4.6532928943634033e-01" nType="-99"/>
        <Node pos="r" depth="1" NCoef="0" IVar="2" Cut="3.6058273315429688e+02" cType="1" res="6.4044673927128315e-03" rms="4.5756080746650696e-01" purity="5.0181365013122559e-01" nType="0">
          <Node pos="l" depth="2" NCoef="0" IVar="-1" Cut="0.0000000000000000e+00" cType="1" res="-5.4323335643857718e-04" rms="4.3020442128181458e-01" purity="2.9926872253417969e-01" nType="-99"/>
          <Node pos="r" depth="2" NCoef="0" IVar="-1" Cut="0.0000000000000000e+00" cType="1" res="2.4230203416664153e-04" rms="4.6564310789108276e-01" purity="5.6609648466110229e-01" nType="-99"/>
        </Node>
      </Node>
    </BinaryTree>
    <BinaryTree type="DecisionTree" boostWeight="1.0000000000000000e+00" itree="835">
      <Node pos="s" depth="0" NCoef="0" IVar="4" Cut="1.6431379318237305e-01" cType="1" res="2.9052442405372858e-03" rms="4.5919722318649292e-01" purity="4.9988120794296265e-01" nType="0">
        <Node pos="l" depth="1" NCoef="0" IVar="3" Cut="2.0826956629753113e-01" cType="1" res="6.1716004274785519e-03" rms="4.5929154753684998e-01" purity="5.0572484731674194e-01" nType="0">
          <Node pos="l" depth="2" NCoef="0" IVar="-1" Cut="0.0000000000000000e+00" cType="1" res="5.0958889914909378e-05" rms="4.5890429615974426e-01" purity="4.9890285730361938e-01" nType="-99"/>
          <Node pos="r" depth="2" NCoef="0" IVar="-1" Cut="0.0000000000000000e+00" cType="1" res="8.1027968553826213e-04" rms="4.6179968118667603e-01" purity="5.8736526966094971e-01" nType="-99"/>
        </Node>
        <Node pos="r" depth="1" NCoef="0" IVar="-1" Cut="0.0000000000000000e+00" cType="1" res="-9.1469695325940847e-04" rms="4.5566281676292419e-01" purity="4.2136922478675842e-01" nType="-99"/>
      </Node>
    </BinaryTree>
    <BinaryTree type="DecisionTree" boostWeight="1.0000000000000000e+00" itree="836">
      <Node pos="s" depth="0" NCoef="0" IVar="3" Cut="2.1126765012741089e-01" cType="1" res="2.8206370770931244e-03" rms="4.5945510268211365e-01" purity="5.0022810697555542e-01" nType="0">
        <Node pos="l" depth="1" NCoef="0" IVar="4" Cut="1.4611278474330902e-01" cType="1" res="-8.3257851656526327e-04" rms="4.5873147249221802e-01" purity="4.9252009391784668e-01" nType="0">
          <Node pos="l" depth="2" NCoef="0" IVar="-1" Cut="0.0000000000000000e+00" cType="1" res="6.3708168454468250e-05" rms="4.5958900451660156e-01" purity="5.0153732299804688e-01" nType="-99"/>
          <Node pos="r" depth="2" NCoef="0" IVar="-1" Cut="0.0000000000000000e+00" cType="1" res="-1.5077482676133513e-03" rms="4.4238990545272827e-01" purity="3.6574620008468628e-01" nType="-99"/>
        </Node>
        <Node pos="r" depth="1" NCoef="0" IVar="-1" Cut="0.0000000000000000e+00" cType="1" res="6.4130657119676471e-04" rms="4.6478170156478882e-01" purity="5.7234036922454834e-01" nType="-99"/>
      </Node>
    </BinaryTree>
    <BinaryTree type="DecisionTree" boostWeight="1.0000000000000000e+00" itree="837">
      <Node pos="s" depth="0" NCoef="0" IVar="5" Cut="5.4612097167968750e+02" cType="1" res="6.6565209999680519e-04" rms="4.5984584093093872e-01" purity="4.9614951014518738e-01" nType="0">
        <Node pos="l" depth="1" NCoef="0" IVar="2" Cut="3.1152673339843750e+02" cType="1" res="-2.8822429012507200e-03" rms="4.6096694469451904e-01" purity="4.7861766815185547e-01" nType="0">
          <Node pos="l" depth="2" NCoef="0" IVar="-1" Cut="0.0000000000000000e+00" cType="1" res="-1.5115344431251287e-03" rms="3.9757782220840454e-01" purity="2.3005768656730652e-01" nType="-99"/>
          <Node pos="r" depth="2" NCoef="0" IVar="-1" Cut="0.0000000000000000e+00" cType="1" res="1.3170803867978975e-05" rms="4.6668940782546997e-01" purity="5.0350528955459595e-01" nType="-99"/>
        </Node>
        <Node pos="r" depth="1" NCoef="0" IVar="-1" Cut="0.0000000000000000e+00" cType="1" res="6.4160092733800411e-04" rms="4.4466912746429443e-01" purity="6.9837397336959839e-01" nType="-99"/>
      </Node>
    </BinaryTree>
    <BinaryTree type="DecisionTree" boostWeight="1.0000000000000000e+00" itree="838">
      <Node pos="s" depth="0" NCoef="0" IVar="3" Cut="1.9170270860195160e-01" cType="1" res="5.8434777893126011e-03" rms="4.5852389931678772e-01" purity="5.0223904848098755e-01" nType="0">
        <Node pos="l" depth="1" NCoef="0" IVar="4" Cut="5.6160908192396164e-02" cType="1" res="7.9581397585570812e-04" rms="4.5753660798072815e-01" purity="4.9161088466644287e-01" nType="0">
          <Node pos="l" depth="2" NCoef="0" IVar="-1" Cut="0.0000000000000000e+00" cType="1" res="1.6906946257222444e-04" rms="4.5838245749473572e-01" purity="5.1430463790893555e-01" nType="-99"/>
          <Node pos="r" depth="2" NCoef="0" IVar="-1" Cut="0.0000000000000000e+00" cType="1" res="-5.2180985221639276e-04" rms="4.5410937070846558e-01" purity="4.2360457777976990e-01" nType="-99"/>
        </Node>
        <Node pos="r" depth="1" NCoef="0" IVar="6" Cut="2.1248540878295898e+00" cType="1" res="4.0993668138980865e-02" rms="4.6382024884223938e-01" purity="5.7625001668930054e-01" nType="0">
          <Node pos="l" depth="2" NCoef="0" IVar="-1" Cut="0.0000000000000000e+00" cType="1" res="9.0820417972281575e-04" rms="4.5764833688735962e-01" purity="6.1176401376724243e-01" nType="-99"/>
          <Node pos="r" depth="2" NCoef="0" IVar="-1" Cut="0.0000000000000000e+00" cType="1" res="4.5174983097240329e-04" rms="4.7019675374031067e-01" purity="5.3609389066696167e-01" nType="-99"/>
        </Node>
      </Node>
    </BinaryTree>
    <BinaryTree type="DecisionTree" boostWeight="1.0000000000000000e+00" itree="839">
      <Node pos="s" depth="0" NCoef="0" IVar="5" Cut="5.0349832153320312e+02" cType="1" res="2.8178498614579439e-03" rms="4.5921114087104797e-01" purity="4.9953562021255493e-01" nType="0">
        <Node pos="l" depth="1" NCoef="0" IVar="4" Cut="5.5492158979177475e-02" cType="1" res="-1.3463180512189865e-03" rms="4.6024850010871887e-01" purity="4.7688478231430054e-01" nType="0">
          <Node pos="l" depth="2" NCoef="0" IVar="-1" Cut="0.0000000000000000e+00" cType="1" res="1.3801841123495251e-04" rms="4.5971971750259399e-01" purity="4.9929305911064148e-01" nType="-99"/>
          <Node pos="r" depth="2" NCoef="0" IVar="-1" Cut="0.0000000000000000e+00" cType="1" res="-4.4739499571733177e-04" rms="4.6084675192832947e-01" purity="4.2727148532867432e-01" nType="-99"/>
        </Node>
        <Node pos="r" depth="1" NCoef="0" IVar="-1" Cut="0.0000000000000000e+00" cType="1" res="5.7486217701807618e-04" rms="4.4912219047546387e-01" purity="6.8589836359024048e-01" nType="-99"/>
      </Node>
    </BinaryTree>
    <BinaryTree type="DecisionTree" boostWeight="1.0000000000000000e+00" itree="840">
      <Node pos="s" depth="0" NCoef="0" IVar="6" Cut="2.7582318782806396e+00" cType="1" res="3.0627623200416565e-03" rms="4.5907580852508545e-01" purity="5.0042486190795898e-01" nType="0">
        <Node pos="l" depth="1" NCoef="0" IVar="1" Cut="9.8119747638702393e-01" cType="1" res="6.3982554711401463e-03" rms="4.6101826429367065e-01" purity="5.1844233274459839e-01" nType="0">
          <Node pos="l" depth="2" NCoef="0" IVar="-1" Cut="0.0000000000000000e+00" cType="1" res="3.4650871384656057e-05" rms="4.6929347515106201e-01" purity="4.7719928622245789e-01" nType="-99"/>
          <Node pos="r" depth="2" NCoef="0" IVar="-1" Cut="0.0000000000000000e+00" cType="1" res="5.5387808242812753e-04" rms="4.0321162343025208e-01" purity="7.8079134225845337e-01" nType="-99"/>
        </Node>
        <Node pos="r" depth="1" NCoef="0" IVar="-1" Cut="0.0000000000000000e+00" cType="1" res="-1.1714010033756495e-03" rms="4.3333959579467773e-01" purity="2.8609052300453186e-01" nType="-99"/>
      </Node>
    </BinaryTree>
    <BinaryTree type="DecisionTree" boostWeight="1.0000000000000000e+00" itree="841">
      <Node pos="s" depth="0" NCoef="0" IVar="0" Cut="2.0723201334476471e-01" cType="1" res="4.5168790966272354e-03" rms="4.5953068137168884e-01" purity="5.0233024358749390e-01" nType="0">
        <Node pos="l" depth="1" NCoef="0" IVar="1" Cut="9.8437088727951050e-01" cType="1" res="4.9550674157217145e-04" rms="4.6008342504501343e-01" purity="4.9880945682525635e-01" nType="0">
          <Node pos="l" depth="2" NCoef="0" IVar="-1" Cut="0.0000000000000000e+00" cType="1" res="-7.0361638790927827e-05" rms="4.6662250161170959e-01" purity="4.6515053510665894e-01" nType="-99"/>
          <Node pos="r" depth="2" NCoef="0" IVar="-1" Cut="0.0000000000000000e+00" cType="1" res="5.5004109162837267e-04" rms="3.9818984270095825e-01" purity="7.8652107715606689e-01" nType="-99"/>
        </Node>
        <Node pos="r" depth="1" NCoef="0" IVar="-1" Cut="0.0000000000000000e+00" cType="1" res="8.8556873379275203e-04" rms="4.5104214549064636e-01" purity="5.4107320308685303e-01" nType="-99"/>
      </Node>
    </BinaryTree>
    <BinaryTree type="DecisionTree" boostWeight="1.0000000000000000e+00" itree="842">
      <Node pos="s" depth="0" NCoef="0" IVar="6" Cut="2.7508795261383057e+00" cType="1" res="4.9269460141658783e-03" rms="4.5989236235618591e-01" purity="5.0102305412292480e-01" nType="0">
        <Node pos="l" depth="1" NCoef="0" IVar="6" Cut="1.9223169088363647e+00" cType="1" res="8.6129251867532730e-03" rms="4.6254068613052368e-01" purity="5.1902329921722412e-01" nType="0">
          <Node pos="l" depth="2" NCoef="0" IVar="-1" Cut="0.0000000000000000e+00" cType="1" res="4.6765289152972400e-04" rms="4.5306962728500366e-01" purity="5.8104562759399414e-01" nType="-99"/>
          <Node pos="r" depth="2" NCoef="0" IVar="-1" Cut="0.0000000000000000e+00" cType="1" res="6.5084219386335462e-05" rms="4.6500676870346069e-01" purity="5.0177252292633057e-01" nType="-99"/>
        </Node>
        <Node pos="r" depth="1" NCoef="0" IVar="-1" Cut="0.0000000000000000e+00" cType="1" res="-1.1824133107438684e-03" rms="4.2538151144981384e-01" purity="2.9073768854141235e-01" nType="-99"/>
      </Node>
    </BinaryTree>
    <BinaryTree type="DecisionTree" boostWeight="1.0000000000000000e+00" itree="843">
      <Node pos="s" depth="0" NCoef="0" IVar="1" Cut="9.8137164115905762e-01" cType="1" res="5.3091025911271572e-03" rms="4.5839619636535645e-01" purity="5.0411599874496460e-01" nType="0">
        <Node pos="l" depth="1" NCoef="0" IVar="6" Cut="1.5743547677993774e+00" cType="1" res="9.3606475275009871e-04" rms="4.6546927094459534e-01" purity="4.6283653378486633e-01" nType="0">
          <Node pos="l" depth="2" NCoef="0" IVar="-1" Cut="0.0000000000000000e+00" cType="1" res="7.1491190465167165e-04" rms="4.4826126098632812e-01" purity="5.8509951829910278e-01" nType="-99"/>
          <Node pos="r" depth="2" NCoef="0" IVar="-1" Cut="0.0000000000000000e+00" cType="1" res="-5.0931175792356953e-05" rms="4.6666017174720764e-01" purity="4.5296466350555420e-01" nType="-99"/>
        </Node>
        <Node pos="r" depth="1" NCoef="0" IVar="-1" Cut="0.0000000000000000e+00" cType="1" res="5.2698439685627818e-04" rms="4.0880122780799866e-01" purity="7.7001452445983887e-01" nType="-99"/>
      </Node>
    </BinaryTree>
    <BinaryTree type="DecisionTree" boostWeight="1.0000000000000000e+00" itree="844">
      <Node pos="s" depth="0" NCoef="0" IVar="0" Cut="2.0351605117321014e-01" cType="1" res="6.5849288366734982e-03" rms="4.5927786827087402e-01" purity="5.0333762168884277e-01" nType="0">
        <Node pos="l" depth="1" NCoef="0" IVar="3" Cut="2.3860639333724976e-01" cType="1" res="3.1919034663587809e-03" rms="4.5964264869689941e-01" purity="5.0052636861801147e-01" nType="0">
          <Node pos="l" depth="2" NCoef="0" IVar="-1" Cut="0.0000000000000000e+00" cType="1" res="8.2326459960313514e-06" rms="4.5885840058326721e-01" purity="4.9566921591758728e-01" nType="-99"/>
          <Node pos="r" depth="2" NCoef="0" IVar="-1" Cut="0.0000000000000000e+00" cType="1" res="7.4196158675476909e-04" rms="4.6907737851142883e-01" purity="5.7133460044860840e-01" nType="-99"/>
        </Node>
        <Node pos="r" depth="1" NCoef="0" IVar="-1" Cut="0.0000000000000000e+00" cType="1" res="7.7357015106827021e-04" rms="4.5387548208236694e-01" purity="5.3296822309494019e-01" nType="-99"/>
      </Node>
    </BinaryTree>
    <BinaryTree type="DecisionTree" boostWeight="1.0000000000000000e+00" itree="845">
      <Node pos="s" depth="0" NCoef="0" IVar="3" Cut="2.3630216717720032e-01" cType="1" res="4.5654727146029472e-03" rms="4.6001097559928894e-01" purity="5.0048446655273438e-01" nType="0">
        <Node pos="l" depth="1" NCoef="0" IVar="4" Cut="1.4508929848670959e-01" cType="1" res="1.3923405203968287e-03" rms="4.5941349864006042e-01" purity="4.9462321400642395e-01" nType="0">
          <Node pos="l" depth="2" NCoef="0" IVar="-1" Cut="0.0000000000000000e+00" cType="1" res="1.1669602099573240e-04" rms="4.6022814512252808e-01" purity="5.0401484966278076e-01" nType="-99"/>
          <Node pos="r" depth="2" NCoef="0" IVar="-1" Cut="0.0000000000000000e+00" cType="1" res="-1.6491871792823076e-03" rms="4.4251042604446411e-01" purity="3.6253041028976440e-01" nType="-99"/>
        </Node>
        <Node pos="r" depth="1" NCoef="0" IVar="-1" Cut="0.0000000000000000e+00" cType="1" res="8.6501520127058029e-04" rms="4.6626654267311096e-01" purity="5.8768039941787720e-01" nType="-99"/>
      </Node>
    </BinaryTree>
    <BinaryTree type="DecisionTree" boostWeight="1.0000000000000000e+00" itree="846">
      <Node pos="s" depth="0" NCoef="0" IVar="2" Cut="7.4741174316406250e+02" cType="1" res="2.0522584673017263e-03" rms="4.5844280719757080e-01" purity="5.0036859512329102e-01" nType="0">
        <Node pos="l" depth="1" NCoef="0" IVar="0" Cut="2.1762339770793915e-01" cType="1" res="-2.2729660850018263e-03" rms="4.6023821830749512e-01" purity="4.8088550567626953e-01" nType="0">
          <Node pos="l" depth="2" NCoef="0" IVar="-1" Cut="0.0000000000000000e+00" cType="1" res="-1.0159778321394697e-04" rms="4.6085441112518311e-01" purity="4.7782677412033081e-01" nType="-99"/>
          <Node pos="r" depth="2" NCoef="0" IVar="-1" Cut="0.0000000000000000e+00" cType="1" res="6.4803054556250572e-04" rms="4.5039793848991394e-01" purity="5.2106994390487671e-01" nType="-99"/>
        </Node>
        <Node pos="r" depth="1" NCoef="0" IVar="-1" Cut="0.0000000000000000e+00" cType="1" res="7.6709990389645100e-04" rms="4.3525889515876770e-01" purity="7.1568048000335693e-01" nType="-99"/>
      </Node>
    </BinaryTree>
    <BinaryTree type="DecisionTree" boostWeight="1.0000000000000000e+00" itree="847">
      <Node pos="s" depth="0" NCoef="0" IVar="1" Cut="9.7843420505523682e-01" cType="1" res="3.9451788179576397e-03" rms="4.5786386728286743e-01" purity="5.0084531307220459e-01" nType="0">
        <Node pos="l" depth="1" NCoef="0" IVar="0" Cut="1.6654293239116669e-01" cType="1" res="-1.8098042346537113e-03" rms="4.6566894650459290e-01" purity="4.5119521021842957e-01" nType="0">
          <Node pos="l" depth="2" NCoef="0" IVar="-1" Cut="0.0000000000000000e+00" cType="1" res="-1.3350626977626234e-04" rms="4.6615856885910034e-01" purity="4.4865190982818604e-01" nType="-99"/>
          <Node pos="r" depth="2" NCoef="0" IVar="-1" Cut="0.0000000000000000e+00" cType="1" res="4.7108810395002365e-04" rms="4.6209692955017090e-01" purity="4.6518659591674805e-01" nType="-99"/>
        </Node>
        <Node pos="r" depth="1" NCoef="0" IVar="-1" Cut="0.0000000000000000e+00" cType="1" res="5.2420474821701646e-04" rms="4.1380274295806885e-01" purity="7.5808215141296387e-01" nType="-99"/>
      </Node>
    </BinaryTree>
    <BinaryTree type="DecisionTree" boostWeight="1.0000000000000000e+00" itree="848">
      <Node pos="s" depth="0" NCoef="0" IVar="2" Cut="7.3263525390625000e+02" cType="1" res="4.1849073022603989e-03" rms="4.5872679352760315e-01" purity="5.0191223621368408e-01" nType="0">
        <Node pos="l" depth="1" NCoef="0" IVar="3" Cut="2.1416972577571869e-01" cType="1" res="3.4696533111855388e-04" rms="4.6044191718101501e-01" purity="4.8194339871406555e-01" nType="0">
          <Node pos="l" depth="2" NCoef="0" IVar="-1" Cut="0.0000000000000000e+00" cType="1" res="-6.7441695136949420e-05" rms="4.5927146077156067e-01" purity="4.7420987486839294e-01" nType="-99"/>
          <Node pos="r" depth="2" NCoef="0" IVar="-1" Cut="0.0000000000000000e+00" cType="1" res="6.3192477682605386e-04" rms="4.7018659114837646e-01" purity="5.5754214525222778e-01" nType="-99"/>
        </Node>
        <Node pos="r" depth="1" NCoef="0" IVar="-1" Cut="0.0000000000000000e+00" cType="1" res="6.8246782757341862e-04" rms="4.3854144215583801e-01" purity="7.0927190780639648e-01" nType="-99"/>
      </Node>
    </BinaryTree>
    <BinaryTree type="DecisionTree" boostWeight="1.0000000000000000e+00" itree="849">
      <Node pos="s" depth="0" NCoef="0" IVar="3" Cut="-1.2049666047096252e-01" cType="1" res="4.5612799003720284e-03" rms="4.5998060703277588e-01" purity="5.0014567375183105e-01" nType="0">
        <Node pos="l" depth="1" NCoef="0" IVar="-1" Cut="0.0000000000000000e+00" cType="1" res="-7.3240813799202442e-04" rms="4.4499030709266663e-01" purity="4.1360336542129517e-01" nType="-99"/>
        <Node pos="r" depth="1" NCoef="0" IVar="2" Cut="5.7594958496093750e+02" cType="1" res="7.8895259648561478e-03" rms="4.6115937829017639e-01" purity="5.0792890787124634e-01" nType="0">
          <Node pos="l" depth="2" NCoef="0" IVar="-1" Cut="0.0000000000000000e+00" cType="1" res="4.4460262870416045e-05" rms="4.6352818608283997e-01" purity="4.6204337477684021e-01" nType="-99"/>
          <Node pos="r" depth="2" NCoef="0" IVar="-1" Cut="0.0000000000000000e+00" cType="1" res="4.4416394666768610e-04" rms="4.5181986689567566e-01" purity="6.7510330677032471e-01" nType="-99"/>
        </Node>
      </Node>
    </BinaryTree>
    <BinaryTree type="DecisionTree" boostWeight="1.0000000000000000e+00" itree="850">
      <Node pos="s" depth="0" NCoef="0" IVar="0" Cut="1.8788419663906097e-02" cType="1" res="1.9046826055273414e-03" rms="4.5890644192695618e-01" purity="4.9789643287658691e-01" nType="0">
        <Node pos="l" depth="1" NCoef="0" IVar="-1" Cut="0.0000000000000000e+00" cType="1" res="-9.6266734180971980e-04" rms="4.6808689832687378e-01" purity="4.5855566859245300e-01" nType="-99"/>
        <Node pos="r" depth="1" NCoef="0" IVar="2" Cut="7.0416174316406250e+02" cType="1" res="5.5444752797484398e-03" rms="4.5800182223320007e-01" purity="5.0085526704788208e-01" nType="0">
          <Node pos="l" depth="2" NCoef="0" IVar="-1" Cut="0.0000000000000000e+00" cType="1" res="2.0562863937811926e-05" rms="4.6026757359504700e-01" purity="4.8017629981040955e-01" nType="-99"/>
          <Node pos="r" depth="2" NCoef="0" IVar="-1" Cut="0.0000000000000000e+00" cType="1" res="8.2013342762365937e-04" rms="4.2944946885108948e-01" purity="7.2652643918991089e-01" nType="-99"/>
        </Node>
      </Node>
    </BinaryTree>
    <BinaryTree type="DecisionTree" boostWeight="1.0000000000000000e+00" itree="851">
      <Node pos="s" depth="0" NCoef="0" IVar="1" Cut="9.8436695337295532e-01" cType="1" res="-7.6765730045735836e-04" rms="4.5787131786346436e-01" purity="4.9736014008522034e-01" nType="0">
        <Node pos="l" depth="1" NCoef="0" IVar="0" Cut="2.2214643657207489e-01" cType="1" res="-5.4397420026361942e-03" rms="4.6455082297325134e-01" purity="4.6241247653961182e-01" nType="0">
          <Node pos="l" depth="2" NCoef="0" IVar="-1" Cut="0.0000000000000000e+00" cType="1" res="-1.6488564142491668e-04" rms="4.6495541930198669e-01" purity="4.6023452281951904e-01" nType="-99"/>
          <Node pos="r" depth="2" NCoef="0" IVar="-1" Cut="0.0000000000000000e+00" cType="1" res="6.6705734934657812e-04" rms="4.5636910200119019e-01" purity="4.9534600973129272e-01" nType="-99"/>
        </Node>
        <Node pos="r" depth="1" NCoef="0" IVar="-1" Cut="0.0000000000000000e+00" cType="1" res="5.9980043442919850e-04" rms="3.9532899856567383e-01" purity="7.9029262065887451e-01" nType="-99"/>
      </Node>
    </BinaryTree>
    <BinaryTree type="DecisionTree" boostWeight="1.0000000000000000e+00" itree="852">
      <Node pos="s" depth="0" NCoef="0" IVar="0" Cut="1.6345196962356567e-01" cType="1" res="5.8727827854454517e-03" rms="4.6066439151763916e-01" purity="5.0066775083541870e-01" nType="0">
        <Node pos="l" depth="1" NCoef="0" IVar="5" Cut="5.2269866943359375e+02" cType="1" res="1.0913149453699589e-03" rms="4.6090257167816162e-01" purity="4.9672827124595642e-01" nType="0">
          <Node pos="l" depth="2" NCoef="0" IVar="-1" Cut="0.0000000000000000e+00" cType="1" res="-6.0918267990928143e-05" rms="4.6177536249160767e-01" purity="4.7425094246864319e-01" nType="-99"/>
          <Node pos="r" depth="2" NCoef="0" IVar="-1" Cut="0.0000000000000000e+00" cType="1" res="5.4916105000302196e-04" rms="4.5214092731475830e-01" purity="6.8307447433471680e-01" nType="-99"/>
        </Node>
        <Node pos="r" depth="1" NCoef="0" IVar="2" Cut="3.8714663696289062e+02" cType="1" res="3.0314747244119644e-02" rms="4.5866692066192627e-01" purity="5.2080565690994263e-01" nType="0">
          <Node pos="l" depth="2" NCoef="0" IVar="-1" Cut="0.0000000000000000e+00" cType="1" res="1.3884424697607756e-04" rms="4.5986047387123108e-01" purity="3.7180158495903015e-01" nType="-99"/>
          <Node pos="r" depth="2" NCoef="0" IVar="-1" Cut="0.0000000000000000e+00" cType="1" res="7.8673206735402346e-04" rms="4.5654451847076416e-01" purity="6.5043073892593384e-01" nType="-99"/>
        </Node>
      </Node>
    </BinaryTree>
    <BinaryTree type="DecisionTree" boostWeight="1.0000000000000000e+00" itree="853">
      <Node pos="s" depth="0" NCoef="0" IVar="6" Cut="2.8664593696594238e+00" cType="1" res="4.3726805597543716e-03" rms="4.5894816517829895e-01" purity="5.0106316804885864e-01" nType="0">
        <Node pos="l" depth="1" NCoef="0" IVar="2" Cut="6.5205914306640625e+02" cType="1" res="7.1846456266939640e-03" rms="4.6056687831878662e-01" purity="5.1387983560562134e-01" nType="0">
          <Node pos="l" depth="2" NCoef="0" IVar="-1" Cut="0.0000000000000000e+00" cType="1" res="5.2315805078251287e-05" rms="4.6300643682479858e-01" purity="4.8401692509651184e-01" nType="-99"/>
          <Node pos="r" depth="2" NCoef="0" IVar="-1" Cut="0.0000000000000000e+00" cType="1" res="5.3354882402345538e-04" rms="4.4453209638595581e-01" purity="6.9472670555114746e-01" nType="-99"/>
        </Node>
        <Node pos="r" depth="1" NCoef="0" IVar="-1" Cut="0.0000000000000000e+00" cType="1" res="-1.5898693818598986e-03" rms="4.2520320415496826e-01" purity="2.6791915297508240e-01" nType="-99"/>
      </Node>
    </BinaryTree>
    <BinaryTree type="DecisionTree" boostWeight="1.0000000000000000e+00" itree="854">
      <Node pos="s" depth="0" NCoef="0" IVar="2" Cut="5.6825250244140625e+02" cType="1" res="3.1140313949435949e-03" rms="4.5928049087524414e-01" purity="4.9949622154235840e-01" nType="0">
        <Node pos="l" depth="1" NCoef="0" IVar="3" Cut="1.0545449703931808e-01" cType="1" res="-3.0918640550225973e-03" rms="4.6177870035171509e-01" purity="4.4891849160194397e-01" nType="0">
          <Node pos="l" depth="2" NCoef="0" IVar="-1" Cut="0.0000000000000000e+00" cType="1" res="-2.5726199964992702e-04" rms="4.5780694484710693e-01" purity="4.2764297127723694e-01" nType="-99"/>
          <Node pos="r" depth="2" NCoef="0" IVar="-1" Cut="0.0000000000000000e+00" cType="1" res="3.6010766052640975e-04" rms="4.7102576494216919e-01" purity="5.0325852632522583e-01" nType="-99"/>
        </Node>
        <Node pos="r" depth="1" NCoef="0" IVar="0" Cut="5.7610351592302322e-02" cType="1" res="2.3559538647532463e-02" rms="4.5034760236740112e-01" purity="6.6612613201141357e-01" nType="0">
          <Node pos="l" depth="2" NCoef="0" IVar="-1" Cut="0.0000000000000000e+00" cType="1" res="1.2179476470919326e-05" rms="4.6703499555587769e-01" purity="6.1685985326766968e-01" nType="-99"/>
          <Node pos="r" depth="2" NCoef="0" IVar="-1" Cut="0.0000000000000000e+00" cType="1" res="8.1555155338719487e-04" rms="4.2548894882202148e-01" purity="7.3107343912124634e-01" nType="-99"/>
        </Node>
      </Node>
    </BinaryTree>
    <BinaryTree type="DecisionTree" boostWeight="1.0000000000000000e+00" itree="855">
      <Node pos="s" depth="0" NCoef="0" IVar="1" Cut="9.8411780595779419e-01" cType="1" res="1.5999826428014785e-04" rms="4.5873981714248657e-01" purity="4.9724802374839783e-01" nType="0">
        <Node pos="l" depth="1" NCoef="0" IVar="4" Cut="-7.9913236200809479e-02" cType="1" res="-3.5574710927903652e-03" rms="4.6519836783409119e-01" purity="4.6314838528633118e-01" nType="0">
          <Node pos="l" depth="2" NCoef="0" IVar="-1" Cut="0.0000000000000000e+00" cType="1" res="5.9333763783797622e-04" rms="4.6571233868598938e-01" purity="5.1535451412200928e-01" nType="-99"/>
          <Node pos="r" depth="2" NCoef="0" IVar="-1" Cut="0.0000000000000000e+00" cType="1" res="-1.3136191410012543e-04" rms="4.6503034234046936e-01" purity="4.5884045958518982e-01" nType="-99"/>
        </Node>
        <Node pos="r" depth="1" NCoef="0" IVar="-1" Cut="0.0000000000000000e+00" cType="1" res="4.9670151202008128e-04" rms="3.9916446805000305e-01" purity="7.8310048580169678e-01" nType="-99"/>
      </Node>
    </BinaryTree>
    <BinaryTree type="DecisionTree" boostWeight="1.0000000000000000e+00" itree="856">
      <Node pos="s" depth="0" NCoef="0" IVar="0" Cut="1.8750099465250969e-02" cType="1" res="7.6558878645300865e-03" rms="4.5940130949020386e-01" purity="5.0557780265808105e-01" nType="0">
        <Node pos="l" depth="1" NCoef="0" IVar="-1" Cut="0.0000000000000000e+00" cType="1" res="-6.4638163894414902e-04" rms="4.6628713607788086e-01" purity="4.7627046704292297e-01" nType="-99"/>
        <Node pos="r" depth="1" NCoef="0" IVar="5" Cut="5.1587957763671875e+02" cType="1" res="1.0660072788596153e-02" rms="4.5873764157295227e-01" purity="5.0778776407241821e-01" nType="0">
          <Node pos="l" depth="2" NCoef="0" IVar="-1" Cut="0.0000000000000000e+00" cType="1" res="1.3955742178950459e-04" rms="4.6071159839630127e-01" purity="4.8914954066276550e-01" nType="-99"/>
          <Node pos="r" depth="2" NCoef="0" IVar="-1" Cut="0.0000000000000000e+00" cType="1" res="7.7116262400522828e-04" rms="4.3360450863838196e-01" purity="7.2034037113189697e-01" nType="-99"/>
        </Node>
      </Node>
    </BinaryTree>
    <BinaryTree type="DecisionTree" boostWeight="1.0000000000000000e+00" itree="857">
      <Node pos="s" depth="0" NCoef="0" IVar="1" Cut="9.7509831190109253e-01" cType="1" res="-5.6615046923980117e-04" rms="4.5844203233718872e-01" purity="4.9699896574020386e-01" nType="0">
        <Node pos="l" depth="1" NCoef="0" IVar="4" Cut="1.3517308235168457e-01" cType="1" res="-6.1714788898825645e-03" rms="4.6578553318977356e-01" purity="4.4060268998146057e-01" nType="0">
          <Node pos="l" depth="2" NCoef="0" IVar="-1" Cut="0.0000000000000000e+00" cType="1" res="-3.1078918254934251e-05" rms="4.6740311384201050e-01" purity="4.4843676686286926e-01" nType="-99"/>
          <Node pos="r" depth="2" NCoef="0" IVar="-1" Cut="0.0000000000000000e+00" cType="1" res="-9.6470635617151856e-04" rms="4.5202538371086121e-01" purity="3.8212749361991882e-01" nType="-99"/>
        </Node>
        <Node pos="r" depth="1" NCoef="0" IVar="5" Cut="3.1530651855468750e+02" cType="1" res="2.2546362131834030e-02" rms="4.2605179548263550e-01" purity="7.2953855991363525e-01" nType="0">
          <Node pos="l" depth="2" NCoef="0" IVar="-1" Cut="0.0000000000000000e+00" cType="1" res="1.1376434486010112e-05" rms="4.5769360661506653e-01" purity="6.5714669227600098e-01" nType="-99"/>
          <Node pos="r" depth="2" NCoef="0" IVar="-1" Cut="0.0000000000000000e+00" cType="1" res="6.7549548111855984e-04" rms="3.9317733049392700e-01" purity="7.9703706502914429e-01" nType="-99"/>
        </Node>
      </Node>
    </BinaryTree>
    <BinaryTree type="DecisionTree" boostWeight="1.0000000000000000e+00" itree="858">
      <Node pos="s" depth="0" NCoef="0" IVar="3" Cut="2.2467905282974243e-01" cType="1" res="1.8615357112139463e-03" rms="4.5876517891883850e-01" purity="4.9899610877037048e-01" nType="0">
        <Node pos="l" depth="1" NCoef="0" IVar="4" Cut="1.4540919661521912e-01" cType="1" res="-1.2936627026647329e-03" rms="4.5779946446418762e-01" purity="4.9273881316184998e-01" nType="0">
          <Node pos="l" depth="2" NCoef="0" IVar="-1" Cut="0.0000000000000000e+00" cType="1" res="3.9342776290141046e-05" rms="4.5857191085815430e-01" purity="5.0128412246704102e-01" nType="-99"/>
          <Node pos="r" depth="2" NCoef="0" IVar="-1" Cut="0.0000000000000000e+00" cType="1" res="-1.1510953772813082e-03" rms="4.4436031579971313e-01" purity="3.7413555383682251e-01" nType="-99"/>
        </Node>
        <Node pos="r" depth="1" NCoef="0" IVar="-1" Cut="0.0000000000000000e+00" cType="1" res="6.8254489451646805e-04" rms="4.6867030858993530e-01" purity="5.7524502277374268e-01" nType="-99"/>
      </Node>
    </BinaryTree>
    <BinaryTree type="DecisionTree" boostWeight="1.0000000000000000e+00" itree="859">
      <Node pos="s" depth="0" NCoef="0" IVar="6" Cut="1.5499819517135620e+00" cType="1" res="2.7396744117140770e-03" rms="4.5920911431312561e-01" purity="5.0007438659667969e-01" nType="0">
        <Node pos="l" depth="1" NCoef="0" IVar="-1" Cut="0.0000000000000000e+00" cType="1" res="7.2358810575678945e-04" rms="4.4624018669128418e-01" purity="6.1950719356536865e-01" nType="-99"/>
        <Node pos="r" depth="1" NCoef="0" IVar="4" Cut="-4.5857585966587067e-02" cType="1" res="-3.7391949445009232e-04" rms="4.6001538634300232e-01" purity="4.9112239480018616e-01" nType="0">
          <Node pos="l" depth="2" NCoef="0" IVar="-1" Cut="0.0000000000000000e+00" cType="1" res="4.2373457108624279e-04" rms="4.5354858040809631e-01" purity="5.4398453235626221e-01" nType="-99"/>
          <Node pos="r" depth="2" NCoef="0" IVar="-1" Cut="0.0000000000000000e+00" cType="1" res="-1.4113684301264584e-04" rms="4.6159321069717407e-01" purity="4.7629231214523315e-01" nType="-99"/>
        </Node>
      </Node>
    </BinaryTree>
    <BinaryTree type="DecisionTree" boostWeight="1.0000000000000000e+00" itree="860">
      <Node pos="s" depth="0" NCoef="0" IVar="0" Cut="1.0017502307891846e-01" cType="1" res="-3.7119283806532621e-03" rms="4.5773980021476746e-01" purity="4.9311816692352295e-01" nType="0">
        <Node pos="l" depth="1" NCoef="0" IVar="3" Cut="1.7485950887203217e-01" cType="1" res="-1.4099230989813805e-02" rms="4.5955911278724670e-01" purity="4.8283800482749939e-01" nType="0">
          <Node pos="l" depth="2" NCoef="0" IVar="-1" Cut="0.0000000000000000e+00" cType="1" res="-4.7011571587063372e-04" rms="4.5659241080284119e-01" purity="4.6567556262016296e-01" nType="-99"/>
          <Node pos="r" depth="2" NCoef="0" IVar="-1" Cut="0.0000000000000000e+00" cType="1" res="3.9133435348048806e-04" rms="4.6975988149642944e-01" purity="5.5298930406570435e-01" nType="-99"/>
        </Node>
        <Node pos="r" depth="1" NCoef="0" IVar="2" Cut="4.6557177734375000e+02" cType="1" res="1.2257260270416737e-02" rms="4.5446583628654480e-01" purity="5.0892269611358643e-01" nType="0">
          <Node pos="l" depth="2" NCoef="0" IVar="-1" Cut="0.0000000000000000e+00" cType="1" res="-1.4958078099880368e-04" rms="4.5901963114738464e-01" purity="4.2303359508514404e-01" nType="-99"/>
          <Node pos="r" depth="2" NCoef="0" IVar="-1" Cut="0.0000000000000000e+00" cType="1" res="8.1127102021127939e-04" rms="4.4110673666000366e-01" purity="7.0092666149139404e-01" nType="-99"/>
        </Node>
      </Node>
    </BinaryTree>
    <BinaryTree type="DecisionTree" boostWeight="1.0000000000000000e+00" itree="861">
      <Node pos="s" depth="0" NCoef="0" IVar="0" Cut="1.7358160018920898e-01" cType="1" res="2.9011259321123362e-03" rms="4.6058845520019531e-01" purity="4.9892020225524902e-01" nType="0">
        <Node pos="l" depth="1" NCoef="0" IVar="5" Cut="4.0500891113281250e+02" cType="1" res="-2.1100393496453762e-03" rms="4.6149632334709167e-01" purity="4.9431523680686951e-01" nType="0">
          <Node pos="l" depth="2" NCoef="0" IVar="-1" Cut="0.0000000000000000e+00" cType="1" res="-1.7435176414437592e-04" rms="4.6195334196090698e-01" purity="4.4414350390434265e-01" nType="-99"/>
          <Node pos="r" depth="2" NCoef="0" IVar="-1" Cut="0.0000000000000000e+00" cType="1" res="2.5947601534426212e-04" rms="4.5966553688049316e-01" purity="6.4207243919372559e-01" nType="-99"/>
        </Node>
        <Node pos="r" depth="1" NCoef="0" IVar="2" Cut="3.7624420166015625e+02" cType="1" res="3.2946139574050903e-02" rms="4.5394846796989441e-01" purity="5.2652972936630249e-01" nType="0">
          <Node pos="l" depth="2" NCoef="0" IVar="-1" Cut="0.0000000000000000e+00" cType="1" res="-1.7754954751580954e-04" rms="4.5006978511810303e-01" purity="3.5251629352569580e-01" nType="-99"/>
          <Node pos="r" depth="2" NCoef="0" IVar="-1" Cut="0.0000000000000000e+00" cType="1" res="9.4303779769688845e-04" rms="4.5456019043922424e-01" purity="6.5011477470397949e-01" nType="-99"/>
        </Node>
      </Node>
    </BinaryTree>
    <BinaryTree type="DecisionTree" boostWeight="1.0000000000000000e+00" itree="862">
      <Node pos="s" depth="0" NCoef="0" IVar="3" Cut="1.0593347996473312e-01" cType="1" res="1.1511038755998015e-03" rms="4.5802825689315796e-01" purity="4.9821740388870239e-01" nType="0">
        <Node pos="l" depth="1" NCoef="0" IVar="2" Cut="3.8561947631835938e+02" cType="1" res="-7.7107381075620651e-03" rms="4.5483949780464172e-01" purity="4.7907996177673340e-01" nType="0">
          <Node pos="l" depth="2" NCoef="0" IVar="-1" Cut="0.0000000000000000e+00" cType="1" res="-9.5224397955462337e-04" rms="4.2831984162330627e-01" purity="2.9297637939453125e-01" nType="-99"/>
          <Node pos="r" depth="2" NCoef="0" IVar="-1" Cut="0.0000000000000000e+00" cType="1" res="4.7319383156718686e-05" rms="4.6584790945053101e-01" purity="5.6241673231124878e-01" nType="-99"/>
        </Node>
        <Node pos="r" depth="1" NCoef="0" IVar="6" Cut="1.8364752531051636e+00" cType="1" res="2.3898290470242500e-02" rms="4.6534159779548645e-01" purity="5.4734081029891968e-01" nType="0">
          <Node pos="l" depth="2" NCoef="0" IVar="-1" Cut="0.0000000000000000e+00" cType="1" res="8.2090066280215979e-04" rms="4.4309380650520325e-01" purity="6.2114059925079346e-01" nType="-99"/>
          <Node pos="r" depth="2" NCoef="0" IVar="-1" Cut="0.0000000000000000e+00" cType="1" res="2.9166517197154462e-04" rms="4.7147402167320251e-01" purity="5.2532833814620972e-01" nType="-99"/>
        </Node>
      </Node>
    </BinaryTree>
    <BinaryTree type="DecisionTree" boostWeight="1.0000000000000000e+00" itree="863">
      <Node pos="s" depth="0" NCoef="0" IVar="0" Cut="8.3974353969097137e-02" cType="1" res="1.2204592349007726e-03" rms="4.5818501710891724e-01" purity="4.9814343452453613e-01" nType="0">
        <Node pos="l" depth="1" NCoef="0" IVar="3" Cut="1.1303956806659698e-01" cType="1" res="-1.0942905209958553e-02" rms="4.6177890896797180e-01" purity="4.8405346274375916e-01" nType="0">
          <Node pos="l" depth="2" NCoef="0" IVar="-1" Cut="0.0000000000000000e+00" cType="1" res="-4.5381346717476845e-04" rms="4.5747464895248413e-01" purity="4.5818713307380676e-01" nType="-99"/>
          <Node pos="r" depth="2" NCoef="0" IVar="-1" Cut="0.0000000000000000e+00" cType="1" res="2.0657441928051412e-04" rms="4.6974930167198181e-01" purity="5.3744953870773315e-01" nType="-99"/>
        </Node>
        <Node pos="r" depth="1" NCoef="0" IVar="5" Cut="3.1723254394531250e+02" cType="1" res="1.4398725703358650e-02" rms="4.5389142632484436e-01" purity="5.1340919733047485e-01" nType="0">
          <Node pos="l" depth="2" NCoef="0" IVar="-1" Cut="0.0000000000000000e+00" cType="1" res="-1.6077490727184340e-05" rms="4.5800533890724182e-01" purity="4.2811384797096252e-01" nType="-99"/>
          <Node pos="r" depth="2" NCoef="0" IVar="-1" Cut="0.0000000000000000e+00" cType="1" res="6.6649046493694186e-04" rms="4.4462767243385315e-01" purity="6.7426788806915283e-01" nType="-99"/>
        </Node>
      </Node>
    </BinaryTree>
    <BinaryTree type="DecisionTree" boostWeight="1.0000000000000000e+00" itree="864">
      <Node pos="s" depth="0" NCoef="0" IVar="5" Cut="2.5845178222656250e+02" cType="1" res="9.3723693862557411e-03" rms="4.5844545960426331e-01" purity="5.0743842124938965e-01" nType="0">
        <Node pos="l" depth="1" NCoef="0" IVar="2" Cut="3.8573788452148438e+02" cType="1" res="-7.6483008451759815e-03" rms="4.4339799880981445e-01" purity="3.4290096163749695e-01" nType="0">
          <Node pos="l" depth="2" NCoef="0" IVar="-1" Cut="0.0000000000000000e+00" cType="1" res="-4.7242699656635523e-04" rms="4.3456685543060303e-01" purity="3.0599948763847351e-01" nType="-99"/>
          <Node pos="r" depth="2" NCoef="0" IVar="-1" Cut="0.0000000000000000e+00" cType="1" res="5.2579591283574700e-04" rms="4.7851461172103882e-01" purity="5.0471222400665283e-01" nType="-99"/>
        </Node>
        <Node pos="r" depth="1" NCoef="0" IVar="0" Cut="1.1881810426712036e-01" cType="1" res="1.6491496935486794e-02" rms="4.6440973877906799e-01" purity="5.7625848054885864e-01" nType="0">
          <Node pos="l" depth="2" NCoef="0" IVar="-1" Cut="0.0000000000000000e+00" cType="1" res="6.5868262026924640e-05" rms="4.6610292792320251e-01" purity="5.5589985847473145e-01" nType="-99"/>
          <Node pos="r" depth="2" NCoef="0" IVar="-1" Cut="0.0000000000000000e+00" cType="1" res="8.2389899762347341e-04" rms="4.5757710933685303e-01" purity="6.3448977470397949e-01" nType="-99"/>
        </Node>
      </Node>
    </BinaryTree>
    <BinaryTree type="DecisionTree" boostWeight="1.0000000000000000e+00" itree="865">
      <Node pos="s" depth="0" NCoef="0" IVar="5" Cut="3.2429333496093750e+02" cType="1" res="4.1825543157756329e-03" rms="4.5901396870613098e-01" purity="5.0079971551895142e-01" nType="0">
        <Node pos="l" depth="1" NCoef="0" IVar="3" Cut="-8.0831907689571381e-02" cType="1" res="-4.5802644453942776e-03" rms="4.5698028802871704e-01" purity="4.1009879112243652e-01" nType="0">
          <Node pos="l" depth="2" NCoef="0" IVar="-1" Cut="0.0000000000000000e+00" cType="1" res="-8.7145139696076512e-04" rms="4.3043309450149536e-01" purity="3.2503128051757812e-01" nType="-99"/>
          <Node pos="r" depth="2" NCoef="0" IVar="-1" Cut="0.0000000000000000e+00" cType="1" res="4.0435930714011192e-05" rms="4.6294942498207092e-01" purity="4.3070414662361145e-01" nType="-99"/>
        </Node>
        <Node pos="r" depth="1" NCoef="0" IVar="0" Cut="1.1266696453094482e-01" cType="1" res="1.5396779403090477e-02" rms="4.6136075258255005e-01" purity="6.1687445640563965e-01" nType="0">
          <Node pos="l" depth="2" NCoef="0" IVar="-1" Cut="0.0000000000000000e+00" cType="1" res="2.6628031264408492e-05" rms="4.6814832091331482e-01" purity="5.9023284912109375e-01" nType="-99"/>
          <Node pos="r" depth="2" NCoef="0" IVar="-1" Cut="0.0000000000000000e+00" cType="1" res="9.3119294615462422e-04" rms="4.3348851799964905e-01" purity="7.0961964130401611e-01" nType="-99"/>
        </Node>
      </Node>
    </BinaryTree>
    <BinaryTree type="DecisionTree" boostWeight="1.0000000000000000e+00" itree="866">
      <Node pos="s" depth="0" NCoef="0" IVar="0" Cut="1.9144652411341667e-02" cType="1" res="2.8235863428562880e-03" rms="4.5954400300979614e-01" purity="4.9994871020317078e-01" nType="0">
        <Node pos="l" depth="1" NCoef="0" IVar="-1" Cut="0.0000000000000000e+00" cType="1" res="-8.7329110829159617e-04" rms="4.7062087059020996e-01" purity="4.6311646699905396e-01" nType="-99"/>
        <Node pos="r" depth="1" NCoef="0" IVar="2" Cut="4.9548052978515625e+02" cType="1" res="6.2258471734821796e-03" rms="4.5851054787635803e-01" purity="5.0275605916976929e-01" nType="0">
          <Node pos="l" depth="2" NCoef="0" IVar="-1" Cut="0.0000000000000000e+00" cType="1" res="-5.6972436141222715e-05" rms="4.6045300364494324e-01" purity="4.2479830980300903e-01" nType="-99"/>
          <Node pos="r" depth="2" NCoef="0" IVar="-1" Cut="0.0000000000000000e+00" cType="1" res="3.6876293597742915e-04" rms="4.5427069067955017e-01" purity="6.5251290798187256e-01" nType="-99"/>
        </Node>
      </Node>
    </BinaryTree>
    <BinaryTree type="DecisionTree" boostWeight="1.0000000000000000e+00" itree="867">
      <Node pos="s" depth="0" NCoef="0" IVar="1" Cut="9.5731562376022339e-01" cType="1" res="-8.0129370326176286e-04" rms="4.5793181657791138e-01" purity="4.9693471193313599e-01" nType="0">
        <Node pos="l" depth="1" NCoef="0" IVar="3" Cut="1.5816588699817657e-01" cType="1" res="-1.0439388453960419e-02" rms="4.6243017911911011e-01" purity="3.9970317482948303e-01" nType="0">
          <Node pos="l" depth="2" NCoef="0" IVar="-1" Cut="0.0000000000000000e+00" cType="1" res="-3.7208033609203994e-04" rms="4.5894727110862732e-01" purity="3.8346445560455322e-01" nType="-99"/>
          <Node pos="r" depth="2" NCoef="0" IVar="-1" Cut="0.0000000000000000e+00" cType="1" res="2.4863617727532983e-04" rms="4.7612127661705017e-01" purity="4.6817281842231750e-01" nType="-99"/>
        </Node>
        <Node pos="r" depth="1" NCoef="0" IVar="4" Cut="8.1338316202163696e-02" cType="1" res="1.2788645923137665e-02" rms="4.5116317272186279e-01" purity="6.3403344154357910e-01" nType="0">
          <Node pos="l" depth="2" NCoef="0" IVar="-1" Cut="0.0000000000000000e+00" cType="1" res="3.3578489092178643e-04" rms="4.4795325398445129e-01" purity="6.5025258064270020e-01" nType="-99"/>
          <Node pos="r" depth="2" NCoef="0" IVar="-1" Cut="0.0000000000000000e+00" cType="1" res="-2.8376298723742366e-04" rms="4.6144828200340271e-01" purity="5.7535064220428467e-01" nType="-99"/>
        </Node>
      </Node>
    </BinaryTree>
    <BinaryTree type="DecisionTree" boostWeight="1.0000000000000000e+00" itree="868">
      <Node pos="s" depth="0" NCoef="0" IVar="2" Cut="7.5925128173828125e+02" cType="1" res="5.9627220034599304e-03" rms="4.5899218320846558e-01" purity="5.0288844108581543e-01" nType="0">
        <Node pos="l" depth="1" NCoef="0" IVar="1" Cut="9.4317895174026489e-01" cType="1" res="2.6237042620778084e-03" rms="4.6019464731216431e-01" purity="4.8641312122344971e-01" nType="0">
          <Node pos="l" depth="2" NCoef="0" IVar="-1" Cut="0.0000000000000000e+00" cType="1" res="-3.2909167930483818e-04" rms="4.5785272121429443e-01" purity="3.5097563266754150e-01" nType="-99"/>
          <Node pos="r" depth="2" NCoef="0" IVar="-1" Cut="0.0000000000000000e+00" cType="1" res="2.0314245193731040e-04" rms="4.6128833293914795e-01" purity="5.6393492221832275e-01" nType="-99"/>
        </Node>
        <Node pos="r" depth="1" NCoef="0" IVar="-1" Cut="0.0000000000000000e+00" cType="1" res="7.3115836130455136e-04" rms="4.4166272878646851e-01" purity="7.0777136087417603e-01" nType="-99"/>
      </Node>
    </BinaryTree>
    <BinaryTree type="DecisionTree" boostWeight="1.0000000000000000e+00" itree="869">
      <Node pos="s" depth="0" NCoef="0" IVar="3" Cut="1.7997679114341736e-01" cType="1" res="-3.1251781620085239e-03" rms="4.5960947871208191e-01" purity="4.9174818396568298e-01" nType="0">
        <Node pos="l" depth="1" NCoef="0" IVar="4" Cut="1.4475825428962708e-01" cType="1" res="-7.5578344985842705e-03" rms="4.5747628808021545e-01" purity="4.8166844248771667e-01" nType="0">
          <Node pos="l" depth="2" NCoef="0" IVar="-1" Cut="0.0000000000000000e+00" cType="1" res="-8.3150196587666869e-05" rms="4.5844817161560059e-01" purity="4.9058720469474792e-01" nType="-99"/>
          <Node pos="r" depth="2" NCoef="0" IVar="-1" Cut="0.0000000000000000e+00" cType="1" res="-1.3406717916950583e-03" rms="4.4176316261291504e-01" purity="3.6162951588630676e-01" nType="-99"/>
        </Node>
        <Node pos="r" depth="1" NCoef="0" IVar="0" Cut="4.8720665276050568e-02" cType="1" res="2.3400472477078438e-02" rms="4.7130304574966431e-01" purity="5.5206674337387085e-01" nType="0">
          <Node pos="l" depth="2" NCoef="0" IVar="-1" Cut="0.0000000000000000e+00" cType="1" res="6.9355452433228493e-04" rms="4.7344371676445007e-01" purity="5.8474618196487427e-01" nType="-99"/>
          <Node pos="r" depth="2" NCoef="0" IVar="-1" Cut="0.0000000000000000e+00" cType="1" res="1.5650835121050477e-04" rms="4.6894073486328125e-01" purity="5.2405530214309692e-01" nType="-99"/>
        </Node>
      </Node>
    </BinaryTree>
    <BinaryTree type="DecisionTree" boostWeight="1.0000000000000000e+00" itree="870">
      <Node pos="s" depth="0" NCoef="0" IVar="5" Cut="5.4412896728515625e+02" cType="1" res="-1.3333931565284729e-03" rms="4.5724087953567505e-01" purity="4.9716886878013611e-01" nType="0">
        <Node pos="l" depth="1" NCoef="0" IVar="4" Cut="2.5548432022333145e-02" cType="1" res="-5.6104897521436214e-03" rms="4.5862266421318054e-01" purity="4.7835752367973328e-01" nType="0">
          <Node pos="l" depth="2" NCoef="0" IVar="-1" Cut="0.0000000000000000e+00" cType="1" res="6.4938336436171085e-05" rms="4.5800641179084778e-01" purity="5.0385028123855591e-01" nType="-99"/>
          <Node pos="r" depth="2" NCoef="0" IVar="-1" Cut="0.0000000000000000e+00" cType="1" res="-3.6963919410482049e-04" rms="4.5916375517845154e-01" purity="4.4468984007835388e-01" nType="-99"/>
        </Node>
        <Node pos="r" depth="1" NCoef="0" IVar="-1" Cut="0.0000000000000000e+00" cType="1" res="7.0442992728203535e-04" rms="4.3883720040321350e-01" purity="7.0582759380340576e-01" nType="-99"/>
      </Node>
    </BinaryTree>
    <BinaryTree type="DecisionTree" boostWeight="1.0000000000000000e+00" itree="871">
      <Node pos="s" depth="0" NCoef="0" IVar="0" Cut="1.9004644826054573e-02" cType="1" res="3.5560936667025089e-03" rms="4.6103253960609436e-01" purity="4.9814641475677490e-01" nType="0">
        <Node pos="l" depth="1" NCoef="0" IVar="-1" Cut="0.0000000000000000e+00" cType="1" res="-7.0533796679228544e-04" rms="4.7164490818977356e-01" purity="4.7422543168067932e-01" nType="-99"/>
        <Node pos="r" depth="1" NCoef="0" IVar="2" Cut="5.1436920166015625e+02" cType="1" res="6.5941573120653629e-03" rms="4.6004864573478699e-01" purity="5.0003123283386230e-01" nType="0">
          <Node pos="l" depth="2" NCoef="0" IVar="-1" Cut="0.0000000000000000e+00" cType="1" res="-1.5643689039279707e-05" rms="4.6255400776863098e-01" purity="4.3297886848449707e-01" nType="-99"/>
          <Node pos="r" depth="2" NCoef="0" IVar="-1" Cut="0.0000000000000000e+00" cType="1" res="3.7389085628092289e-04" rms="4.5369586348533630e-01" purity="6.5632408857345581e-01" nType="-99"/>
        </Node>
      </Node>
    </BinaryTree>
    <BinaryTree type="DecisionTree" boostWeight="1.0000000000000000e+00" itree="872">
      <Node pos="s" depth="0" NCoef="0" IVar="4" Cut="-7.9636171460151672e-02" cType="1" res="2.3892712779343128e-03" rms="4.5945399999618530e-01" purity="4.9876123666763306e-01" nType="0">
        <Node pos="l" depth="1" NCoef="0" IVar="-1" Cut="0.0000000000000000e+00" cType="1" res="6.5330538200214505e-04" rms="4.5468389987945557e-01" purity="5.5519235134124756e-01" nType="-99"/>
        <Node pos="r" depth="1" NCoef="0" IVar="6" Cut="2.8639814853668213e+00" cType="1" res="-6.1286031268537045e-04" rms="4.5974221825599670e-01" purity="4.9387001991271973e-01" nType="0">
          <Node pos="l" depth="2" NCoef="0" IVar="-1" Cut="0.0000000000000000e+00" cType="1" res="4.0512921259505674e-05" rms="4.6211609244346619e-01" purity="5.0704532861709595e-01" nType="-99"/>
          <Node pos="r" depth="2" NCoef="0" IVar="-1" Cut="0.0000000000000000e+00" cType="1" res="-1.5729316510260105e-03" rms="4.1449478268623352e-01" purity="2.6965332031250000e-01" nType="-99"/>
        </Node>
      </Node>
    </BinaryTree>
    <BinaryTree type="DecisionTree" boostWeight="1.0000000000000000e+00" itree="873">
      <Node pos="s" depth="0" NCoef="0" IVar="0" Cut="1.7275112867355347e-01" cType="1" res="1.0628657182678580e-03" rms="4.5830416679382324e-01" purity="4.9810427427291870e-01" nType="0">
        <Node pos="l" depth="1" NCoef="0" IVar="2" Cut="7.3978656005859375e+02" cType="1" res="-3.3790390007197857e-03" rms="4.5957440137863159e-01" purity="4.9322506785392761e-01" nType="0">
          <Node pos="l" depth="2" NCoef="0" IVar="-1" Cut="0.0000000000000000e+00" cType="1" res="-1.4487476437352598e-04" rms="4.6055260300636292e-01" purity="4.7245925664901733e-01" nType="-99"/>
          <Node pos="r" depth="2" NCoef="0" IVar="-1" Cut="0.0000000000000000e+00" cType="1" res="5.2323460113257170e-04" rms="4.4839018583297729e-01" purity="6.9268780946731567e-01" nType="-99"/>
        </Node>
        <Node pos="r" depth="1" NCoef="0" IVar="2" Cut="3.8921270751953125e+02" cType="1" res="2.7255415916442871e-02" rms="4.4985032081604004e-01" purity="5.2687537670135498e-01" nType="0">
          <Node pos="l" depth="2" NCoef="0" IVar="-1" Cut="0.0000000000000000e+00" cType="1" res="-1.3361126184463501e-04" rms="4.5423099398612976e-01" purity="3.6576732993125916e-01" nType="-99"/>
          <Node pos="r" depth="2" NCoef="0" IVar="-1" Cut="0.0000000000000000e+00" cType="1" res="8.4463233361020684e-04" rms="4.4395908713340759e-01" purity="6.6910564899444580e-01" nType="-99"/>
        </Node>
      </Node>
    </BinaryTree>
    <BinaryTree type="DecisionTree" boostWeight="1.0000000000000000e+00" itree="874">
      <Node pos="s" depth="0" NCoef="0" IVar="3" Cut="2.2463533282279968e-01" cType="1" res="1.5344207640737295e-03" rms="4.5774117112159729e-01" purity="4.9940487742424011e-01" nType="0">
        <Node pos="l" depth="1" NCoef="0" IVar="0" Cut="1.2612029910087585e-01" cType="1" res="-2.3045754060149193e-03" rms="4.5715805888175964e-01" purity="4.9173456430435181e-01" nType="0">
          <Node pos="l" depth="2" NCoef="0" IVar="-1" Cut="0.0000000000000000e+00" cType="1" res="-2.1876305982004851e-04" rms="4.5792487263679504e-01" purity="4.8234483599662781e-01" nType="-99"/>
          <Node pos="r" depth="2" NCoef="0" IVar="-1" Cut="0.0000000000000000e+00" cType="1" res="3.4055917058140039e-04" rms="4.5468765497207642e-01" purity="5.1393395662307739e-01" nType="-99"/>
        </Node>
        <Node pos="r" depth="1" NCoef="0" IVar="-1" Cut="0.0000000000000000e+00" cType="1" res="7.7306391904130578e-04" rms="4.6211844682693481e-01" purity="5.8803808689117432e-01" nType="-99"/>
      </Node>
    </BinaryTree>
    <BinaryTree type="DecisionTree" boostWeight="1.0000000000000000e+00" itree="875">
      <Node pos="s" depth="0" NCoef="0" IVar="3" Cut="1.7640504240989685e-01" cType="1" res="5.9867384843528271e-03" rms="4.5903745293617249e-01" purity="5.0351387262344360e-01" nType="0">
        <Node pos="l" depth="1" NCoef="0" IVar="4" Cut="7.6209455728530884e-02" cType="1" res="1.3936741743236780e-03" rms="4.5757338404655457e-01" purity="4.9235284328460693e-01" nType="0">
          <Node pos="l" depth="2" NCoef="0" IVar="-1" Cut="0.0000000000000000e+00" cType="1" res="1.6646531003061682e-04" rms="4.5870283246040344e-01" purity="5.1237183809280396e-01" nType="-99"/>
          <Node pos="r" depth="2" NCoef="0" IVar="-1" Cut="0.0000000000000000e+00" cType="1" res="-7.0245319511741400e-04" rms="4.5122218132019043e-01" purity="4.0537562966346741e-01" nType="-99"/>
        </Node>
        <Node pos="r" depth="1" NCoef="0" IVar="4" Cut="9.8926216363906860e-02" cType="1" res="3.2064739614725113e-02" rms="4.6640628576278687e-01" purity="5.6688266992568970e-01" nType="0">
          <Node pos="l" depth="2" NCoef="0" IVar="-1" Cut="0.0000000000000000e+00" cType="1" res="8.2481885328888893e-04" rms="4.6449378132820129e-01" purity="5.8548027276992798e-01" nType="-99"/>
          <Node pos="r" depth="2" NCoef="0" IVar="-1" Cut="0.0000000000000000e+00" cType="1" res="2.8161413501948118e-04" rms="4.6768483519554138e-01" purity="5.4876822233200073e-01" nType="-99"/>
        </Node>
      </Node>
    </BinaryTree>
    <BinaryTree type="DecisionTree" boostWeight="1.0000000000000000e+00" itree="876">
      <Node pos="s" depth="0" NCoef="0" IVar="3" Cut="1.5463431179523468e-01" cType="1" res="4.9012317322194576e-03" rms="4.5863577723503113e-01" purity="5.0163608789443970e-01" nType="0">
        <Node pos="l" depth="1" NCoef="0" IVar="0" Cut="9.0037211775779724e-02" cType="1" res="-5.2883045282214880e-04" rms="4.5759478211402893e-01" purity="4.8794078826904297e-01" nType="0">
          <Node pos="l" depth="2" NCoef="0" IVar="-1" Cut="0.0000000000000000e+00" cType="1" res="-3.1785291503183544e-04" rms="4.5940342545509338e-01" purity="4.6855980157852173e-01" nType="-99"/>
          <Node pos="r" depth="2" NCoef="0" IVar="-1" Cut="0.0000000000000000e+00" cType="1" res="2.9446135158650577e-04" rms="4.5509797334671021e-01" purity="5.0874298810958862e-01" nType="-99"/>
        </Node>
        <Node pos="r" depth="1" NCoef="0" IVar="1" Cut="9.3433856964111328e-01" cType="1" res="2.8363274410367012e-02" rms="4.6237432956695557e-01" purity="5.6081032752990723e-01" nType="0">
          <Node pos="l" depth="2" NCoef="0" IVar="-1" Cut="0.0000000000000000e+00" cType="1" res="7.0580106694251299e-05" rms="4.7726708650588989e-01" purity="4.0711402893066406e-01" nType="-99"/>
          <Node pos="r" depth="2" NCoef="0" IVar="-1" Cut="0.0000000000000000e+00" cType="1" res="6.1869900673627853e-04" rms="4.5633611083030701e-01" purity="6.1818897724151611e-01" nType="-99"/>
        </Node>
      </Node>
    </BinaryTree>
    <BinaryTree type="DecisionTree" boostWeight="1.0000000000000000e+00" itree="877">
      <Node pos="s" depth="0" NCoef="0" IVar="2" Cut="7.5681707763671875e+02" cType="1" res="1.8376292428001761e-03" rms="4.5790943503379822e-01" purity="4.9893948435783386e-01" nType="0">
        <Node pos="l" depth="1" NCoef="0" IVar="2" Cut="3.0844082641601562e+02" cType="1" res="-1.3426678488031030e-03" rms="4.5876362919807434e-01" purity="4.8290085792541504e-01" nType="0">
          <Node pos="l" depth="2" NCoef="0" IVar="-1" Cut="0.0000000000000000e+00" cType="1" res="-2.0290063694119453e-03" rms="3.8571864366531372e-01" purity="2.1866028010845184e-01" nType="-99"/>
          <Node pos="r" depth="2" NCoef="0" IVar="-1" Cut="0.0000000000000000e+00" cType="1" res="5.7316890888614580e-05" rms="4.6440079808235168e-01" purity="5.0620377063751221e-01" nType="-99"/>
        </Node>
        <Node pos="r" depth="1" NCoef="0" IVar="-1" Cut="0.0000000000000000e+00" cType="1" res="6.4030470093712211e-04" rms="4.4512540102005005e-01" purity="7.0018672943115234e-01" nType="-99"/>
      </Node>
    </BinaryTree>
    <BinaryTree type="DecisionTree" boostWeight="1.0000000000000000e+00" itree="878">
      <Node pos="s" depth="0" NCoef="0" IVar="0" Cut="1.8788419663906097e-02" cType="1" res="6.8086888641119003e-03" rms="4.5810511708259583e-01" purity="5.0415366888046265e-01" nType="0">
        <Node pos="l" depth="1" NCoef="0" IVar="-1" Cut="0.0000000000000000e+00" cType="1" res="-9.1592560056596994e-04" rms="4.6326565742492676e-01" purity="4.6305161714553833e-01" nType="-99"/>
        <Node pos="r" depth="1" NCoef="0" IVar="2" Cut="5.4612988281250000e+02" cType="1" res="1.0614999569952488e-02" rms="4.5749080181121826e-01" purity="5.0720196962356567e-01" nType="0">
          <Node pos="l" depth="2" NCoef="0" IVar="-1" Cut="0.0000000000000000e+00" cType="1" res="5.8724817790789530e-05" rms="4.6082907915115356e-01" purity="4.5147305727005005e-01" nType="-99"/>
          <Node pos="r" depth="2" NCoef="0" IVar="-1" Cut="0.0000000000000000e+00" cType="1" res="5.3862610366195440e-04" rms="4.4607621431350708e-01" purity="6.8061691522598267e-01" nType="-99"/>
        </Node>
      </Node>
    </BinaryTree>
    <BinaryTree type="DecisionTree" boostWeight="1.0000000000000000e+00" itree="879">
      <Node pos="s" depth="0" NCoef="0" IVar="1" Cut="9.8402684926986694e-01" cType="1" res="9.1554637765511870e-04" rms="4.5746964216232300e-01" purity="4.9874937534332275e-01" nType="0">
        <Node pos="l" depth="1" NCoef="0" IVar="4" Cut="7.6692551374435425e-02" cType="1" res="-2.9767614323645830e-03" rms="4.6394112706184387e-01" purity="4.6446362137794495e-01" nType="0">
          <Node pos="l" depth="2" NCoef="0" IVar="-1" Cut="0.0000000000000000e+00" cType="1" res="7.5008290878031403e-05" rms="4.6400606632232666e-01" purity="4.7909545898437500e-01" nType="-99"/>
          <Node pos="r" depth="2" NCoef="0" IVar="-1" Cut="0.0000000000000000e+00" cType="1" res="-4.9414561362937093e-04" rms="4.6319106221199036e-01" purity="4.2258960008621216e-01" nType="-99"/>
        </Node>
        <Node pos="r" depth="1" NCoef="0" IVar="-1" Cut="0.0000000000000000e+00" cType="1" res="5.2555167349055409e-04" rms="3.9779219031333923e-01" purity="7.8540265560150146e-01" nType="-99"/>
      </Node>
    </BinaryTree>
    <BinaryTree type="DecisionTree" boostWeight="1.0000000000000000e+00" itree="880">
      <Node pos="s" depth="0" NCoef="0" IVar="4" Cut="1.7515863478183746e-01" cType="1" res="5.2660140208899975e-03" rms="4.5722407102584839e-01" purity="5.0346314907073975e-01" nType="0">
        <Node pos="l" depth="1" NCoef="0" IVar="2" Cut="5.5564196777343750e+02" cType="1" res="8.0826720222830772e-03" rms="4.5719128847122192e-01" purity="5.0891667604446411e-01" nType="0">
          <Node pos="l" depth="2" NCoef="0" IVar="-1" Cut="0.0000000000000000e+00" cType="1" res="1.5831709561098251e-06" rms="4.5961770415306091e-01" purity="4.5212647318840027e-01" nType="-99"/>
          <Node pos="r" depth="2" NCoef="0" IVar="-1" Cut="0.0000000000000000e+00" cType="1" res="4.9767317250370979e-04" rms="4.4903278350830078e-01" purity="6.7823994159698486e-01" nType="-99"/>
        </Node>
        <Node pos="r" depth="1" NCoef="0" IVar="-1" Cut="0.0000000000000000e+00" cType="1" res="-1.0032341815531254e-03" rms="4.5500975847244263e-01" purity="4.0854018926620483e-01" nType="-99"/>
      </Node>
    </BinaryTree>
    <BinaryTree type="DecisionTree" boostWeight="1.0000000000000000e+00" itree="881">
      <Node pos="s" depth="0" NCoef="0" IVar="3" Cut="8.4633283317089081e-02" cType="1" res="3.1894564162939787e-03" rms="4.5889520645141602e-01" purity="4.9999403953552246e-01" nType="0">
        <Node pos="l" depth="1" NCoef="0" IVar="4" Cut="7.2351090610027313e-02" cType="1" res="-5.8907940983772278e-03" rms="4.5665377378463745e-01" purity="4.7711327672004700e-01" nType="0">
          <Node pos="l" depth="2" NCoef="0" IVar="-1" Cut="0.0000000000000000e+00" cType="1" res="4.8972524382406846e-05" rms="4.5897474884986877e-01" purity="4.9960255622863770e-01" nType="-99"/>
          <Node pos="r" depth="2" NCoef="0" IVar="-1" Cut="0.0000000000000000e+00" cType="1" res="-8.8396330829709768e-04" rms="4.4647994637489319e-01" purity="3.9313402771949768e-01" nType="-99"/>
        </Node>
        <Node pos="r" depth="1" NCoef="0" IVar="1" Cut="9.2528158426284790e-01" cType="1" res="2.1979691460728645e-02" rms="4.6293377876281738e-01" purity="5.4734236001968384e-01" nType="0">
          <Node pos="l" depth="2" NCoef="0" IVar="-1" Cut="0.0000000000000000e+00" cType="1" res="-3.3925595926120877e-04" rms="4.6135699748992920e-01" purity="3.7201625108718872e-01" nType="-99"/>
          <Node pos="r" depth="2" NCoef="0" IVar="-1" Cut="0.0000000000000000e+00" cType="1" res="5.0533673493191600e-04" rms="4.6290022134780884e-01" purity="5.8455276489257812e-01" nType="-99"/>
        </Node>
      </Node>
    </BinaryTree>
    <BinaryTree type="DecisionTree" boostWeight="1.0000000000000000e+00" itree="882">
      <Node pos="s" depth="0" NCoef="0" IVar="6" Cut="1.5305627584457397e+00" cType="1" res="1.6045345691964030e-03" rms="4.5875000953674316e-01" purity="4.9836567044258118e-01" nType="0">
        <Node pos="l" depth="1" NCoef="0" IVar="-1" Cut="0.0000000000000000e+00" cType="1" res="7.6750875450670719e-04" rms="4.3942713737487793e-01" purity="6.2554430961608887e-01" nType="-99"/>
        <Node pos="r" depth="1" NCoef="0" IVar="1" Cut="9.2773336172103882e-01" cType="1" res="-1.6564682591706514e-03" rms="4.5991832017898560e-01" purity="4.8932629823684692e-01" nType="0">
          <Node pos="l" depth="2" NCoef="0" IVar="-1" Cut="0.0000000000000000e+00" cType="1" res="-6.5539556089788675e-04" rms="4.4781982898712158e-01" purity="3.2840555906295776e-01" nType="-99"/>
          <Node pos="r" depth="2" NCoef="0" IVar="-1" Cut="0.0000000000000000e+00" cType="1" res="7.0973801484797150e-05" rms="4.6261253952980042e-01" purity="5.2803415060043335e-01" nType="-99"/>
        </Node>
      </Node>
    </BinaryTree>
    <BinaryTree type="DecisionTree" boostWeight="1.0000000000000000e+00" itree="883">
      <Node pos="s" depth="0" NCoef="0" IVar="1" Cut="9.8452663421630859e-01" cType="1" res="1.6756147379055619e-03" rms="4.5846521854400635e-01" purity="4.9872815608978271e-01" nType="0">
        <Node pos="l" depth="1" NCoef="0" IVar="1" Cut="9.0540206432342529e-01" cType="1" res="-2.2508674301207066e-03" rms="4.6478688716888428e-01" purity="4.6483346819877625e-01" nType="0">
          <Node pos="l" depth="2" NCoef="0" IVar="-1" Cut="0.0000000000000000e+00" cType="1" res="-1.2802282581105828e-03" rms="4.4246312975883484e-01" purity="2.9378384351730347e-01" nType="-99"/>
          <Node pos="r" depth="2" NCoef="0" IVar="-1" Cut="0.0000000000000000e+00" cType="1" res="3.2711232051951811e-06" rms="4.6596789360046387e-01" purity="4.7499722242355347e-01" nType="-99"/>
        </Node>
        <Node pos="r" depth="1" NCoef="0" IVar="-1" Cut="0.0000000000000000e+00" cType="1" res="5.5198353948071599e-04" rms="3.9884343743324280e-01" purity="7.8826963901519775e-01" nType="-99"/>
      </Node>
    </BinaryTree>
    <BinaryTree type="DecisionTree" boostWeight="1.0000000000000000e+00" itree="884">
      <Node pos="s" depth="0" NCoef="0" IVar="0" Cut="3.6636173725128174e-02" cType="1" res="1.3631422771140933e-03" rms="4.5857551693916321e-01" purity="4.9782121181488037e-01" nType="0">
        <Node pos="l" depth="1" NCoef="0" IVar="6" Cut="2.1886167526245117e+00" cType="1" res="-2.3542290553450584e-02" rms="4.6478912234306335e-01" purity="4.7580766677856445e-01" nType="0">
          <Node pos="l" depth="2" NCoef="0" IVar="-1" Cut="0.0000000000000000e+00" cType="1" res="1.6064252122305334e-05" rms="4.6947807073593140e-01" purity="5.7583767175674438e-01" nType="-99"/>
          <Node pos="r" depth="2" NCoef="0" IVar="-1" Cut="0.0000000000000000e+00" cType="1" res="-8.6530542466789484e-04" rms="4.6125832200050354e-01" purity="4.1462880373001099e-01" nType="-99"/>
        </Node>
        <Node pos="r" depth="1" NCoef="0" IVar="2" Cut="3.0785302734375000e+02" cType="1" res="7.5335674919188023e-03" rms="4.5681318640708923e-01" purity="5.0327521562576294e-01" nType="0">
          <Node pos="l" depth="2" NCoef="0" IVar="-1" Cut="0.0000000000000000e+00" cType="1" res="-1.3949500862509012e-03" rms="3.9926129579544067e-01" purity="2.3564527928829193e-01" nType="-99"/>
          <Node pos="r" depth="2" NCoef="0" IVar="-1" Cut="0.0000000000000000e+00" cType="1" res="2.1153590932954103e-04" rms="4.6145802736282349e-01" purity="5.2747231721878052e-01" nType="-99"/>
        </Node>
      </Node>
    </BinaryTree>
    <BinaryTree type="DecisionTree" boostWeight="1.0000000000000000e+00" itree="885">
      <Node pos="s" depth="0" NCoef="0" IVar="1" Cut="9.1247946023941040e-01" cType="1" res="4.1189789772033691e-03" rms="4.6030464768409729e-01" purity="5.0007790327072144e-01" nType="0">
        <Node pos="l" depth="1" NCoef="0" IVar="-1" Cut="0.0000000000000000e+00" cType="1" res="-9.1494922526180744e-04" rms="4.4131317734718323e-01" purity="3.1330782175064087e-01" nType="-99"/>
        <Node pos="r" depth="1" NCoef="0" IVar="6" Cut="2.6564533710479736e+00" cType="1" res="7.5478693470358849e-03" rms="4.6188375353813171e-01" purity="5.1746726036071777e-01" nType="0">
          <Node pos="l" depth="2" NCoef="0" IVar="-1" Cut="0.0000000000000000e+00" cType="1" res="2.1202757488936186e-04" rms="4.6457469463348389e-01" purity="5.4128473997116089e-01" nType="-99"/>
          <Node pos="r" depth="2" NCoef="0" IVar="-1" Cut="0.0000000000000000e+00" cType="1" res="-7.8616756945848465e-04" rms="4.3740227818489075e-01" purity="3.2020387053489685e-01" nType="-99"/>
        </Node>
      </Node>
    </BinaryTree>
    <BinaryTree type="DecisionTree" boostWeight="1.0000000000000000e+00" itree="886">
      <Node pos="s" depth="0" NCoef="0" IVar="1" Cut="9.8442471027374268e-01" cType="1" res="3.5532168112695217e-03" rms="4.5820137858390808e-01" purity="5.0242096185684204e-01" nType="0">
        <Node pos="l" depth="1" NCoef="0" IVar="5" Cut="4.0709143066406250e+02" cType="1" res="-4.3382256990298629e-04" rms="4.6534678339958191e-01" purity="4.6758952736854553e-01" nType="0">
          <Node pos="l" depth="2" NCoef="0" IVar="-1" Cut="0.0000000000000000e+00" cType="1" res="-1.4466709399130195e-04" rms="4.6512216329574585e-01" purity="4.1935476660728455e-01" nType="-99"/>
          <Node pos="r" depth="2" NCoef="0" IVar="-1" Cut="0.0000000000000000e+00" cType="1" res="3.3852015621960163e-04" rms="4.6545982360839844e-01" purity="6.3338404893875122e-01" nType="-99"/>
        </Node>
        <Node pos="r" depth="1" NCoef="0" IVar="-1" Cut="0.0000000000000000e+00" cType="1" res="5.8131362311542034e-04" rms="3.9193871617317200e-01" purity="7.9320681095123291e-01" nType="-99"/>
      </Node>
    </BinaryTree>
    <BinaryTree type="DecisionTree" boostWeight="1.0000000000000000e+00" itree="887">
      <Node pos="s" depth="0" NCoef="0" IVar="5" Cut="5.2269866943359375e+02" cType="1" res="2.8975522145628929e-03" rms="4.5997422933578491e-01" purity="4.9887943267822266e-01" nType="0">
        <Node pos="l" depth="1" NCoef="0" IVar="1" Cut="9.0767616033554077e-01" cType="1" res="-4.7281172010116279e-04" rms="4.6154397726058960e-01" purity="4.7902235388755798e-01" nType="0">
          <Node pos="l" depth="2" NCoef="0" IVar="-1" Cut="0.0000000000000000e+00" cType="1" res="-1.3161081587895751e-03" rms="4.3249994516372681e-01" purity="2.8303673863410950e-01" nType="-99"/>
          <Node pos="r" depth="2" NCoef="0" IVar="-1" Cut="0.0000000000000000e+00" cType="1" res="4.4794764107791707e-05" rms="4.6320992708206177e-01" purity="4.9161371588706970e-01" nType="-99"/>
        </Node>
        <Node pos="r" depth="1" NCoef="0" IVar="-1" Cut="0.0000000000000000e+00" cType="1" res="5.6152441538870335e-04" rms="4.4309356808662415e-01" purity="6.9189274311065674e-01" nType="-99"/>
      </Node>
    </BinaryTree>
    <BinaryTree type="DecisionTree" boostWeight="1.0000000000000000e+00" itree="888">
      <Node pos="s" depth="0" NCoef="0" IVar="6" Cut="2.8445606231689453e+00" cType="1" res="4.4003482908010483e-03" rms="4.5992416143417358e-01" purity="4.9937811493873596e-01" nType="0">
        <Node pos="l" depth="1" NCoef="0" IVar="5" Cut="5.4611895751953125e+02" cType="1" res="7.1846321225166321e-03" rms="4.6185901761054993e-01" purity="5.1264834403991699e-01" nType="0">
          <Node pos="l" depth="2" NCoef="0" IVar="-1" Cut="0.0000000000000000e+00" cType="1" res="6.3762214267626405e-05" rms="4.6358701586723328e-01" purity="4.9495816230773926e-01" nType="-99"/>
          <Node pos="r" depth="2" NCoef="0" IVar="-1" Cut="0.0000000000000000e+00" cType="1" res="7.7508360845968127e-04" rms="4.3949052691459656e-01" purity="7.1256262063980103e-01" nType="-99"/>
        </Node>
        <Node pos="r" depth="1" NCoef="0" IVar="-1" Cut="0.0000000000000000e+00" cType="1" res="-1.3509182026609778e-03" rms="4.2332580685615540e-01" purity="2.7615386247634888e-01" nType="-99"/>
      </Node>
    </BinaryTree>
    <BinaryTree type="DecisionTree" boostWeight="1.0000000000000000e+00" itree="889">
      <Node pos="s" depth="0" NCoef="0" IVar="1" Cut="9.8452526330947876e-01" cType="1" res="1.3884288491681218e-03" rms="4.5977768301963806e-01" purity="4.9877816438674927e-01" nType="0">
        <Node pos="l" depth="1" NCoef="0" IVar="5" Cut="3.9013485717773438e+02" cType="1" res="-2.5977969635277987e-03" rms="4.6659260988235474e-01" purity="4.6450969576835632e-01" nType="0">
          <Node pos="l" depth="2" NCoef="0" IVar="-1" Cut="0.0000000000000000e+00" cType="1" res="-1.6474376025144011e-04" rms="4.6552065014839172e-01" purity="4.1222530603408813e-01" nType="-99"/>
          <Node pos="r" depth="2" NCoef="0" IVar="-1" Cut="0.0000000000000000e+00" cType="1" res="1.8925323092844337e-04" rms="4.6941095590591431e-01" purity="6.1710435152053833e-01" nType="-99"/>
        </Node>
        <Node pos="r" depth="1" NCoef="0" IVar="-1" Cut="0.0000000000000000e+00" cType="1" res="5.5128498934209347e-04" rms="3.9572748541831970e-01" purity="7.8928345441818237e-01" nType="-99"/>
      </Node>
    </BinaryTree>
    <BinaryTree type="DecisionTree" boostWeight="1.0000000000000000e+00" itree="890">
      <Node pos="s" depth="0" NCoef="0" IVar="1" Cut="9.2170441150665283e-01" cType="1" res="5.1856613717973232e-03" rms="4.5849394798278809e-01" purity="5.0347530841827393e-01" nType="0">
        <Node pos="l" depth="1" NCoef="0" IVar="4" Cut="3.1321826390922070e-03" cType="1" res="-2.2196514531970024e-02" rms="4.4583699107170105e-01" purity="3.2824355363845825e-01" nType="0">
          <Node pos="l" depth="2" NCoef="0" IVar="-1" Cut="0.0000000000000000e+00" cType="1" res="-1.0934887686744332e-03" rms="4.4123694300651550e-01" purity="3.2297036051750183e-01" nType="-99"/>
          <Node pos="r" depth="2" NCoef="0" IVar="-1" Cut="0.0000000000000000e+00" cType="1" res="-2.4836865486577153e-04" rms="4.4862404465675354e-01" purity="3.3199560642242432e-01" nType="-99"/>
        </Node>
        <Node pos="r" depth="1" NCoef="0" IVar="0" Cut="1.7268821597099304e-01" cType="1" res="9.6861338242888451e-03" rms="4.6038514375686646e-01" purity="5.3227597475051880e-01" nType="0">
          <Node pos="l" depth="2" NCoef="0" IVar="-1" Cut="0.0000000000000000e+00" cType="1" res="9.4776849437039346e-05" rms="4.6183395385742188e-01" purity="5.2742326259613037e-01" nType="-99"/>
          <Node pos="r" depth="2" NCoef="0" IVar="-1" Cut="0.0000000000000000e+00" cType="1" res="6.3867471180856228e-04" rms="4.5096465945243835e-01" purity="5.6046670675277710e-01" nType="-99"/>
        </Node>
      </Node>
    </BinaryTree>
    <BinaryTree type="DecisionTree" boostWeight="1.0000000000000000e+00" itree="891">
      <Node pos="s" depth="0" NCoef="0" IVar="5" Cut="3.2429333496093750e+02" cType="1" res="4.8494706861674786e-03" rms="4.5856547355651855e-01" purity="5.0209897756576538e-01" nType="0">
        <Node pos="l" depth="1" NCoef="0" IVar="2" Cut="2.9645816040039062e+02" cType="1" res="-4.7797132283449173e-03" rms="4.5749789476394653e-01" purity="4.1004076600074768e-01" nType="0">
          <Node pos="l" depth="2" NCoef="0" IVar="-1" Cut="0.0000000000000000e+00" cType="1" res="-1.7503135604783893e-03" rms="3.7867525219917297e-01" purity="2.1779921650886536e-01" nType="-99"/>
          <Node pos="r" depth="2" NCoef="0" IVar="-1" Cut="0.0000000000000000e+00" cType="1" res="-1.7425449186703190e-05" rms="4.6456733345985413e-01" purity="4.2955121397972107e-01" nType="-99"/>
        </Node>
        <Node pos="r" depth="1" NCoef="0" IVar="0" Cut="6.6010192036628723e-02" cType="1" res="1.7204567790031433e-02" rms="4.5963627099990845e-01" purity="6.2021785974502563e-01" nType="0">
          <Node pos="l" depth="2" NCoef="0" IVar="-1" Cut="0.0000000000000000e+00" cType="1" res="-1.1889883899129927e-04" rms="4.6903681755065918e-01" purity="5.7377845048904419e-01" nType="-99"/>
          <Node pos="r" depth="2" NCoef="0" IVar="-1" Cut="0.0000000000000000e+00" cType="1" res="6.9300614995881915e-04" rms="4.4676387310028076e-01" purity="6.7445862293243408e-01" nType="-99"/>
        </Node>
      </Node>
    </BinaryTree>
    <BinaryTree type="DecisionTree" boostWeight="1.0000000000000000e+00" itree="892">
      <Node pos="s" depth="0" NCoef="0" IVar="6" Cut="1.6567611694335938e+00" cType="1" res="-1.1612448142841458e-03" rms="4.5773816108703613e-01" purity="4.9665257334709167e-01" nType="0">
        <Node pos="l" depth="1" NCoef="0" IVar="-1" Cut="0.0000000000000000e+00" cType="1" res="5.9775542467832565e-04" rms="4.4345876574516296e-01" purity="6.0710698366165161e-01" nType="-99"/>
        <Node pos="r" depth="1" NCoef="0" IVar="4" Cut="5.5974692106246948e-02" cType="1" res="-5.1205009222030640e-03" rms="4.5905244350433350e-01" purity="4.8491024971008301e-01" nType="0">
          <Node pos="l" depth="2" NCoef="0" IVar="-1" Cut="0.0000000000000000e+00" cType="1" res="8.8566092017572373e-05" rms="4.5969820022583008e-01" purity="5.0706678628921509e-01" nType="-99"/>
          <Node pos="r" depth="2" NCoef="0" IVar="-1" Cut="0.0000000000000000e+00" cType="1" res="-5.5581470951437950e-04" rms="4.5699259638786316e-01" purity="4.3797403573989868e-01" nType="-99"/>
        </Node>
      </Node>
    </BinaryTree>
    <BinaryTree type="DecisionTree" boostWeight="1.0000000000000000e+00" itree="893">
      <Node pos="s" depth="0" NCoef="0" IVar="0" Cut="2.1789464354515076e-01" cType="1" res="4.2486055754125118e-03" rms="4.5905420184135437e-01" purity="5.0111228227615356e-01" nType="0">
        <Node pos="l" depth="1" NCoef="0" IVar="3" Cut="1.3490709662437439e-01" cType="1" res="1.1446311837062240e-03" rms="4.5969057083129883e-01" purity="4.9797174334526062e-01" nType="0">
          <Node pos="l" depth="2" NCoef="0" IVar="-1" Cut="0.0000000000000000e+00" cType="1" res="-1.2042136222589761e-04" rms="4.5751908421516418e-01" purity="4.8150283098220825e-01" nType="-99"/>
          <Node pos="r" depth="2" NCoef="0" IVar="-1" Cut="0.0000000000000000e+00" cType="1" res="4.3373074731789529e-04" rms="4.6592095494270325e-01" purity="5.5153143405914307e-01" nType="-99"/>
        </Node>
        <Node pos="r" depth="1" NCoef="0" IVar="-1" Cut="0.0000000000000000e+00" cType="1" res="8.3892070688307285e-04" rms="4.4805476069450378e-01" purity="5.4423880577087402e-01" nType="-99"/>
      </Node>
    </BinaryTree>
    <BinaryTree type="DecisionTree" boostWeight="1.0000000000000000e+00" itree="894">
      <Node pos="s" depth="0" NCoef="0" IVar="6" Cut="1.9788264036178589e+00" cType="1" res="1.2739655794575810e-03" rms="4.5979362726211548e-01" purity="4.9689969420433044e-01" nType="0">
        <Node pos="l" depth="1" NCoef="0" IVar="5" Cut="2.5277725219726562e+02" cType="1" res="2.2417251020669937e-02" rms="4.5434024930000305e-01" purity="5.7411229610443115e-01" nType="0">
          <Node pos="l" depth="2" NCoef="0" IVar="-1" Cut="0.0000000000000000e+00" cType="1" res="-1.2426490138750523e-04" rms="4.6153464913368225e-01" purity="3.9901638031005859e-01" nType="-99"/>
          <Node pos="r" depth="2" NCoef="0" IVar="-1" Cut="0.0000000000000000e+00" cType="1" res="5.4694636492058635e-04" rms="4.5045703649520874e-01" purity="6.5375363826751709e-01" nType="-99"/>
        </Node>
        <Node pos="r" depth="1" NCoef="0" IVar="4" Cut="1.0535942018032074e-01" cType="1" res="-5.0282860174775124e-03" rms="4.6121919155120850e-01" purity="4.7388467192649841e-01" nType="0">
          <Node pos="l" depth="2" NCoef="0" IVar="-1" Cut="0.0000000000000000e+00" cType="1" res="2.9455517505994067e-05" rms="4.6265459060668945e-01" purity="4.8873263597488403e-01" nType="-99"/>
          <Node pos="r" depth="2" NCoef="0" IVar="-1" Cut="0.0000000000000000e+00" cType="1" res="-8.0313975922763348e-04" rms="4.5347529649734497e-01" purity="4.0654897689819336e-01" nType="-99"/>
        </Node>
      </Node>
    </BinaryTree>
    <BinaryTree type="DecisionTree" boostWeight="1.0000000000000000e+00" itree="895">
      <Node pos="s" depth="0" NCoef="0" IVar="1" Cut="9.8424941301345825e-01" cType="1" res="7.6444057049229741e-04" rms="4.5880788564682007e-01" purity="4.9848347902297974e-01" nType="0">
        <Node pos="l" depth="1" NCoef="0" IVar="3" Cut="1.7730283737182617e-01" cType="1" res="-3.3055609092116356e-03" rms="4.6579566597938538e-01" purity="4.6303752064704895e-01" nType="0">
          <Node pos="l" depth="2" NCoef="0" IVar="-1" Cut="0.0000000000000000e+00" cType="1" res="-1.5697997878305614e-04" rms="4.6477848291397095e-01" purity="4.4968158006668091e-01" nType="-99"/>
          <Node pos="r" depth="2" NCoef="0" IVar="-1" Cut="0.0000000000000000e+00" cType="1" res="3.6646431544795632e-04" rms="4.7062167525291443e-01" purity="5.3660017251968384e-01" nType="-99"/>
        </Node>
        <Node pos="r" depth="1" NCoef="0" IVar="-1" Cut="0.0000000000000000e+00" cType="1" res="5.3911423310637474e-04" rms="3.9536195993423462e-01" purity="7.8895199298858643e-01" nType="-99"/>
      </Node>
    </BinaryTree>
    <BinaryTree type="DecisionTree" boostWeight="1.0000000000000000e+00" itree="896">
      <Node pos="s" depth="0" NCoef="0" IVar="1" Cut="9.8456966876983643e-01" cType="1" res="5.0945248221978545e-04" rms="4.5924523472785950e-01" purity="4.9637451767921448e-01" nType="0">
        <Node pos="l" depth="1" NCoef="0" IVar="2" Cut="3.0785302734375000e+02" cType="1" res="-3.2934730406850576e-03" rms="4.6554568409919739e-01" purity="4.6267801523208618e-01" nType="0">
          <Node pos="l" depth="2" NCoef="0" IVar="-1" Cut="0.0000000000000000e+00" cType="1" res="-1.7221284797415137e-03" rms="3.8762664794921875e-01" purity="2.0008100569248199e-01" nType="-99"/>
          <Node pos="r" depth="2" NCoef="0" IVar="-1" Cut="0.0000000000000000e+00" cType="1" res="-5.1240631364635192e-06" rms="4.7145915031433105e-01" purity="4.8502627015113831e-01" nType="-99"/>
        </Node>
        <Node pos="r" depth="1" NCoef="0" IVar="-1" Cut="0.0000000000000000e+00" cType="1" res="5.2161264466121793e-04" rms="3.9957445859909058e-01" purity="7.8585243225097656e-01" nType="-99"/>
      </Node>
    </BinaryTree>
    <BinaryTree type="DecisionTree" boostWeight="1.0000000000000000e+00" itree="897">
      <Node pos="s" depth="0" NCoef="0" IVar="0" Cut="1.9004644826054573e-02" cType="1" res="4.6771168708801270e-03" rms="4.5839771628379822e-01" purity="5.0164443254470825e-01" nType="0">
        <Node pos="l" depth="1" NCoef="0" IVar="-1" Cut="0.0000000000000000e+00" cType="1" res="-7.8932120231911540e-04" rms="4.6688142418861389e-01" purity="4.6472272276878357e-01" nType="-99"/>
        <Node pos="r" depth="1" NCoef="0" IVar="2" Cut="3.1019598388671875e+02" cType="1" res="8.0665741115808487e-03" rms="4.5755109190940857e-01" purity="5.0455147027969360e-01" nType="0">
          <Node pos="l" depth="2" NCoef="0" IVar="-1" Cut="0.0000000000000000e+00" cType="1" res="-1.4125694287940860e-03" rms="3.9705631136894226e-01" purity="2.3486769199371338e-01" nType="-99"/>
          <Node pos="r" depth="2" NCoef="0" IVar="-1" Cut="0.0000000000000000e+00" cType="1" res="2.2402839385904372e-04" rms="4.6245771646499634e-01" purity="5.2916622161865234e-01" nType="-99"/>
        </Node>
      </Node>
    </BinaryTree>
    <BinaryTree type="DecisionTree" boostWeight="1.0000000000000000e+00" itree="898">
      <Node pos="s" depth="0" NCoef="0" IVar="3" Cut="2.1296849846839905e-01" cType="1" res="4.0964977815747261e-03" rms="4.5784986019134521e-01" purity="5.0184714794158936e-01" nType="0">
        <Node pos="l" depth="1" NCoef="0" IVar="4" Cut="1.0507403314113617e-01" cType="1" res="-7.3150440584868193e-04" rms="4.5746567845344543e-01" purity="4.9207091331481934e-01" nType="0">
          <Node pos="l" depth="2" NCoef="0" IVar="-1" Cut="0.0000000000000000e+00" cType="1" res="8.7629116023890674e-05" rms="4.5771193504333496e-01" purity="5.0733214616775513e-01" nType="-99"/>
          <Node pos="r" depth="2" NCoef="0" IVar="-1" Cut="0.0000000000000000e+00" cType="1" res="-9.1754464665427804e-04" rms="4.5397815108299255e-01" purity="3.8463729619979858e-01" nType="-99"/>
        </Node>
        <Node pos="r" depth="1" NCoef="0" IVar="-1" Cut="0.0000000000000000e+00" cType="1" res="8.1964989658445120e-04" rms="4.5898115634918213e-01" purity="5.9279406070709229e-01" nType="-99"/>
      </Node>
    </BinaryTree>
    <BinaryTree type="DecisionTree" boostWeight="1.0000000000000000e+00" itree="899">
      <Node pos="s" depth="0" NCoef="0" IVar="6" Cut="2.6215119361877441e+00" cType="1" res="6.8242531269788742e-03" rms="4.5877411961555481e-01" purity="5.0429993867874146e-01" nType="0">
        <Node pos="l" depth="1" NCoef="0" IVar="2" Cut="5.5567144775390625e+02" cType="1" res="1.1922862380743027e-02" rms="4.6173766255378723e-01" purity="5.3166544437408447e-01" nType="0">
          <Node pos="l" depth="2" NCoef="0" IVar="-1" Cut="0.0000000000000000e+00" cType="1" res="9.9351469543762505e-05" rms="4.6669602394104004e-01" purity="4.7686561942100525e-01" nType="-99"/>
          <Node pos="r" depth="2" NCoef="0" IVar="-1" Cut="0.0000000000000000e+00" cType="1" res="4.8221202450804412e-04" rms="4.4677799940109253e-01" purity="6.8736416101455688e-01" nType="-99"/>
        </Node>
        <Node pos="r" depth="1" NCoef="0" IVar="3" Cut="-7.7149048447608948e-02" cType="1" res="-3.0134541913866997e-02" rms="4.3490773439407349e-01" purity="3.0593287944793701e-01" nType="0">
          <Node pos="l" depth="2" NCoef="0" IVar="-1" Cut="0.0000000000000000e+00" cType="1" res="-1.7073742346838117e-03" rms="4.2186057567596436e-01" purity="2.7099519968032837e-01" nType="-99"/>
          <Node pos="r" depth="2" NCoef="0" IVar="-1" Cut="0.0000000000000000e+00" cType="1" res="-4.1501855594106019e-04" rms="4.4382107257843018e-01" purity="3.3207580447196960e-01" nType="-99"/>
        </Node>
      </Node>
    </BinaryTree>
    <BinaryTree type="DecisionTree" boostWeight="1.0000000000000000e+00" itree="900">
      <Node pos="s" depth="0" NCoef="0" IVar="4" Cut="1.7098835110664368e-01" cType="1" res="1.4056017389521003e-03" rms="4.6171656250953674e-01" purity="4.9502822756767273e-01" nType="0">
        <Node pos="l" depth="1" NCoef="0" IVar="2" Cut="7.4148364257812500e+02" cType="1" res="3.8650743663311005e-03" rms="4.6181720495223999e-01" purity="5.0024616718292236e-01" nType="0">
          <Node pos="l" depth="2" NCoef="0" IVar="-1" Cut="0.0000000000000000e+00" cType="1" res="2.4707385819056071e-05" rms="4.6310847997665405e-01" purity="4.8363491892814636e-01" nType="-99"/>
          <Node pos="r" depth="2" NCoef="0" IVar="-1" Cut="0.0000000000000000e+00" cType="1" res="5.5369251640513539e-04" rms="4.4441759586334229e-01" purity="7.0409864187240601e-01" nType="-99"/>
        </Node>
        <Node pos="r" depth="1" NCoef="0" IVar="-1" Cut="0.0000000000000000e+00" cType="1" res="-8.2791043678298593e-04" rms="4.5852619409561157e-01" purity="4.1509869694709778e-01" nType="-99"/>
      </Node>
    </BinaryTree>
    <BinaryTree type="DecisionTree" boostWeight="1.0000000000000000e+00" itree="901">
      <Node pos="s" depth="0" NCoef="0" IVar="3" Cut="2.0342864096164703e-01" cType="1" res="5.7879644446074963e-03" rms="4.5836132764816284e-01" purity="5.0378030538558960e-01" nType="0">
        <Node pos="l" depth="1" NCoef="0" IVar="4" Cut="1.4187631011009216e-01" cType="1" res="1.9149595173075795e-03" rms="4.5749038457870483e-01" purity="4.9470388889312744e-01" nType="0">
          <Node pos="l" depth="2" NCoef="0" IVar="-1" Cut="0.0000000000000000e+00" cType="1" res="1.2176739983260632e-04" rms="4.5850828289985657e-01" purity="5.0507420301437378e-01" nType="-99"/>
          <Node pos="r" depth="2" NCoef="0" IVar="-1" Cut="0.0000000000000000e+00" cType="1" res="-1.4695276040583849e-03" rms="4.3943715095520020e-01" purity="3.5645276308059692e-01" nType="-99"/>
        </Node>
        <Node pos="r" depth="1" NCoef="0" IVar="-1" Cut="0.0000000000000000e+00" cType="1" res="6.4434937667101622e-04" rms="4.6424484252929688e-01" purity="5.7852882146835327e-01" nType="-99"/>
      </Node>
    </BinaryTree>
    <BinaryTree type="DecisionTree" boostWeight="1.0000000000000000e+00" itree="902">
      <Node pos="s" depth="0" NCoef="0" IVar="5" Cut="2.6871395874023438e+02" cType="1" res="3.5961258690804243e-03" rms="4.5898684859275818e-01" purity="5.0077229738235474e-01" nType="0">
        <Node pos="l" depth="1" NCoef="0" IVar="0" Cut="4.6832233667373657e-02" cType="1" res="-9.8211541771888733e-03" rms="4.4651457667350769e-01" purity="3.5189187526702881e-01" nType="0">
          <Node pos="l" depth="2" NCoef="0" IVar="-1" Cut="0.0000000000000000e+00" cType="1" res="7.4259022949263453e-04" rms="4.5265805721282959e-01" purity="3.5647988319396973e-01" nType="-99"/>
          <Node pos="r" depth="2" NCoef="0" IVar="-1" Cut="0.0000000000000000e+00" cType="1" res="-4.6289042802527547e-04" rms="4.4477835297584534e-01" purity="3.5090962052345276e-01" nType="-99"/>
        </Node>
        <Node pos="r" depth="1" NCoef="0" IVar="0" Cut="1.1878875643014908e-01" cType="1" res="1.0555312037467957e-02" rms="4.6517184376716614e-01" purity="5.7799261808395386e-01" nType="0">
          <Node pos="l" depth="2" NCoef="0" IVar="-1" Cut="0.0000000000000000e+00" cType="1" res="-2.0193476302665658e-05" rms="4.6853852272033691e-01" purity="5.5628114938735962e-01" nType="-99"/>
          <Node pos="r" depth="2" NCoef="0" IVar="-1" Cut="0.0000000000000000e+00" cType="1" res="7.1835611015558243e-04" rms="4.5306935906410217e-01" purity="6.4334022998809814e-01" nType="-99"/>
        </Node>
      </Node>
    </BinaryTree>
    <BinaryTree type="DecisionTree" boostWeight="1.0000000000000000e+00" itree="903">
      <Node pos="s" depth="0" NCoef="0" IVar="4" Cut="6.6561408340930939e-02" cType="1" res="-8.6010852828621864e-04" rms="4.5870128273963928e-01" purity="4.9746382236480713e-01" nType="0">
        <Node pos="l" depth="1" NCoef="0" IVar="1" Cut="9.7834503650665283e-01" cType="1" res="7.5310622341930866e-03" rms="4.5848974585533142e-01" purity="5.1689106225967407e-01" nType="0">
          <Node pos="l" depth="2" NCoef="0" IVar="-1" Cut="0.0000000000000000e+00" cType="1" res="4.2545889300527051e-05" rms="4.6843409538269043e-01" purity="4.6326306462287903e-01" nType="-99"/>
          <Node pos="r" depth="2" NCoef="0" IVar="-1" Cut="0.0000000000000000e+00" cType="1" res="5.1716476446017623e-04" rms="4.0728753805160522e-01" purity="7.7024507522583008e-01" nType="-99"/>
        </Node>
        <Node pos="r" depth="1" NCoef="0" IVar="3" Cut="1.7796798050403595e-01" cType="1" res="-2.2026751190423965e-02" rms="4.5855283737182617e-01" purity="4.4845890998840332e-01" nType="0">
          <Node pos="l" depth="2" NCoef="0" IVar="-1" Cut="0.0000000000000000e+00" cType="1" res="-8.5768720600754023e-04" rms="4.5285028219223022e-01" purity="3.9908325672149658e-01" nType="-99"/>
          <Node pos="r" depth="2" NCoef="0" IVar="-1" Cut="0.0000000000000000e+00" cType="1" res="7.5295603892300278e-05" rms="4.6728071570396423e-01" purity="5.3540581464767456e-01" nType="-99"/>
        </Node>
      </Node>
    </BinaryTree>
    <BinaryTree type="DecisionTree" boostWeight="1.0000000000000000e+00" itree="904">
      <Node pos="s" depth="0" NCoef="0" IVar="2" Cut="3.3664035034179688e+02" cType="1" res="3.5110367462038994e-03" rms="4.5985612273216248e-01" purity="4.9946451187133789e-01" nType="0">
        <Node pos="l" depth="1" NCoef="0" IVar="3" Cut="8.0633610486984253e-02" cType="1" res="-2.0134523510932922e-02" rms="4.1767942905426025e-01" purity="2.7256879210472107e-01" nType="0">
          <Node pos="l" depth="2" NCoef="0" IVar="-1" Cut="0.0000000000000000e+00" cType="1" res="-1.3873701682314277e-03" rms="4.0202838182449341e-01" purity="2.3678167164325714e-01" nType="-99"/>
          <Node pos="r" depth="2" NCoef="0" IVar="-1" Cut="0.0000000000000000e+00" cType="1" res="3.1438475707545877e-04" rms="4.4544342160224915e-01" purity="3.4368035197257996e-01" nType="-99"/>
        </Node>
        <Node pos="r" depth="1" NCoef="0" IVar="4" Cut="1.6552148759365082e-01" cType="1" res="7.8328950330615044e-03" rms="4.6702420711517334e-01" purity="5.4093581438064575e-01" nType="0">
          <Node pos="l" depth="2" NCoef="0" IVar="-1" Cut="0.0000000000000000e+00" cType="1" res="1.8896642723120749e-04" rms="4.6724542975425720e-01" purity="5.4729872941970825e-01" nType="-99"/>
          <Node pos="r" depth="2" NCoef="0" IVar="-1" Cut="0.0000000000000000e+00" cType="1" res="-6.3364638481289148e-04" rms="4.6244922280311584e-01" purity="4.5666289329528809e-01" nType="-99"/>
        </Node>
      </Node>
    </BinaryTree>
    <BinaryTree type="DecisionTree" boostWeight="1.0000000000000000e+00" itree="905">
      <Node pos="s" depth="0" NCoef="0" IVar="6" Cut="1.5499819517135620e+00" cType="1" res="5.1778540946543217e-03" rms="4.5866209268569946e-01" purity="5.0314956903457642e-01" nType="0">
        <Node pos="l" depth="1" NCoef="0" IVar="-1" Cut="0.0000000000000000e+00" cType="1" res="8.3744968287646770e-04" rms="4.3979793787002563e-01" purity="6.3229858875274658e-01" nType="-99"/>
        <Node pos="r" depth="1" NCoef="0" IVar="0" Cut="1.9147878512740135e-02" cType="1" res="1.5742281684651971e-03" rms="4.5986694097518921e-01" purity="4.9331784248352051e-01" nType="0">
          <Node pos="l" depth="2" NCoef="0" IVar="-1" Cut="0.0000000000000000e+00" cType="1" res="-9.6022570505738258e-04" rms="4.6633845567703247e-01" purity="4.5171436667442322e-01" nType="-99"/>
          <Node pos="r" depth="2" NCoef="0" IVar="-1" Cut="0.0000000000000000e+00" cType="1" res="1.0178967932006344e-04" rms="4.5915344357490540e-01" purity="4.9656140804290771e-01" nType="-99"/>
        </Node>
      </Node>
    </BinaryTree>
    <BinaryTree type="DecisionTree" boostWeight="1.0000000000000000e+00" itree="906">
      <Node pos="s" depth="0" NCoef="0" IVar="5" Cut="4.0709350585937500e+02" cType="1" res="6.0761831700801849e-03" rms="4.5847618579864502e-01" purity="5.0396442413330078e-01" nType="0">
        <Node pos="l" depth="1" NCoef="0" IVar="3" Cut="6.2480431050062180e-02" cType="1" res="7.0479587884619832e-04" rms="4.5999994874000549e-01" purity="4.5839023590087891e-01" nType="0">
          <Node pos="l" depth="2" NCoef="0" IVar="-1" Cut="0.0000000000000000e+00" cType="1" res="-1.5838434046600014e-04" rms="4.5368364453315735e-01" purity="4.3107429146766663e-01" nType="-99"/>
          <Node pos="r" depth="2" NCoef="0" IVar="-1" Cut="0.0000000000000000e+00" cType="1" res="2.5701028062030673e-04" rms="4.6962472796440125e-01" purity="5.0202101469039917e-01" nType="-99"/>
        </Node>
        <Node pos="r" depth="1" NCoef="0" IVar="0" Cut="6.5495632588863373e-02" cType="1" res="2.4436799809336662e-02" rms="4.5274797081947327e-01" purity="6.5974736213684082e-01" nType="0">
          <Node pos="l" depth="2" NCoef="0" IVar="-1" Cut="0.0000000000000000e+00" cType="1" res="2.0676649000961334e-05" rms="4.6765401959419250e-01" purity="6.1210328340530396e-01" nType="-99"/>
          <Node pos="r" depth="2" NCoef="0" IVar="-1" Cut="0.0000000000000000e+00" cType="1" res="9.3018298503011465e-04" rms="4.2447069287300110e-01" purity="7.3781251907348633e-01" nType="-99"/>
        </Node>
      </Node>
    </BinaryTree>
    <BinaryTree type="DecisionTree" boostWeight="1.0000000000000000e+00" itree="907">
      <Node pos="s" depth="0" NCoef="0" IVar="0" Cut="1.1188101768493652e-01" cType="1" res="2.5102274958044291e-03" rms="4.5718845725059509e-01" purity="5.0145477056503296e-01" nType="0">
        <Node pos="l" depth="1" NCoef="0" IVar="5" Cut="5.2888427734375000e+02" cType="1" res="-5.1846392452716827e-03" rms="4.5895430445671082e-01" purity="4.9366813898086548e-01" nType="0">
          <Node pos="l" depth="2" NCoef="0" IVar="-1" Cut="0.0000000000000000e+00" cType="1" res="-2.0216878328938037e-04" rms="4.5937147736549377e-01" purity="4.6804323792457581e-01" nType="-99"/>
          <Node pos="r" depth="2" NCoef="0" IVar="-1" Cut="0.0000000000000000e+00" cType="1" res="4.6621696674264967e-04" rms="4.5444393157958984e-01" purity="6.7837393283843994e-01" nType="-99"/>
        </Node>
        <Node pos="r" depth="1" NCoef="0" IVar="5" Cut="2.7432659912109375e+02" cType="1" res="1.7369832843542099e-02" rms="4.5338952541351318e-01" purity="5.1649165153503418e-01" nType="0">
          <Node pos="l" depth="2" NCoef="0" IVar="-1" Cut="0.0000000000000000e+00" cType="1" res="-2.5988070410676301e-04" rms="4.4844651222229004e-01" purity="3.8079273700714111e-01" nType="-99"/>
          <Node pos="r" depth="2" NCoef="0" IVar="-1" Cut="0.0000000000000000e+00" cType="1" res="6.9021247327327728e-04" rms="4.5641165971755981e-01" purity="6.4524495601654053e-01" nType="-99"/>
        </Node>
      </Node>
    </BinaryTree>
    <BinaryTree type="DecisionTree" boostWeight="1.0000000000000000e+00" itree="908">
      <Node pos="s" depth="0" NCoef="0" IVar="1" Cut="9.8440772294998169e-01" cType="1" res="2.2999795619398355e-03" rms="4.5824983716011047e-01" purity="4.9920171499252319e-01" nType="0">
        <Node pos="l" depth="1" NCoef="0" IVar="4" Cut="-7.0196711458265781e-03" cType="1" res="-1.4023312833160162e-03" rms="4.6426928043365479e-01" purity="4.6598041057586670e-01" nType="0">
          <Node pos="l" depth="2" NCoef="0" IVar="-1" Cut="0.0000000000000000e+00" cType="1" res="2.1570362150669098e-04" rms="4.6309828758239746e-01" purity="4.9796602129936218e-01" nType="-99"/>
          <Node pos="r" depth="2" NCoef="0" IVar="-1" Cut="0.0000000000000000e+00" cType="1" res="-2.1596380975097418e-04" rms="4.6486690640449524e-01" purity="4.4384971261024475e-01" nType="-99"/>
        </Node>
        <Node pos="r" depth="1" NCoef="0" IVar="-1" Cut="0.0000000000000000e+00" cType="1" res="5.4207368521019816e-04" rms="4.0104389190673828e-01" purity="7.8644412755966187e-01" nType="-99"/>
      </Node>
    </BinaryTree>
    <BinaryTree type="DecisionTree" boostWeight="1.0000000000000000e+00" itree="909">
      <Node pos="s" depth="0" NCoef="0" IVar="5" Cut="1.9632876586914062e+02" cType="1" res="5.5073900148272514e-03" rms="4.5965486764907837e-01" purity="5.0163376331329346e-01" nType="0">
        <Node pos="l" depth="1" NCoef="0" IVar="-1" Cut="0.0000000000000000e+00" cType="1" res="-1.5889696078374982e-03" rms="4.0365856885910034e-01" purity="2.3656715452671051e-01" nType="-99"/>
        <Node pos="r" depth="1" NCoef="0" IVar="6" Cut="1.5738303661346436e+00" cType="1" res="8.1415157765150070e-03" rms="4.6248173713684082e-01" purity="5.1663720607757568e-01" nType="0">
          <Node pos="l" depth="2" NCoef="0" IVar="-1" Cut="0.0000000000000000e+00" cType="1" res="7.4468157254159451e-04" rms="4.4083684682846069e-01" purity="6.3794523477554321e-01" nType="-99"/>
          <Node pos="r" depth="2" NCoef="0" IVar="-1" Cut="0.0000000000000000e+00" cType="1" res="9.7168835054617375e-05" rms="4.6399614214897156e-01" purity="5.0714617967605591e-01" nType="-99"/>
        </Node>
      </Node>
    </BinaryTree>
    <BinaryTree type="DecisionTree" boostWeight="1.0000000000000000e+00" itree="910">
      <Node pos="s" depth="0" NCoef="0" IVar="2" Cut="7.3040045166015625e+02" cType="1" res="-8.3196035120636225e-04" rms="4.5802050828933716e-01" purity="4.9633041024208069e-01" nType="0">
        <Node pos="l" depth="1" NCoef="0" IVar="2" Cut="3.0959570312500000e+02" cType="1" res="-4.5086927711963654e-03" rms="4.5934003591537476e-01" purity="4.7626215219497681e-01" nType="0">
          <Node pos="l" depth="2" NCoef="0" IVar="-1" Cut="0.0000000000000000e+00" cType="1" res="-1.5741690294817090e-03" rms="3.9494311809539795e-01" purity="2.2270493209362030e-01" nType="-99"/>
          <Node pos="r" depth="2" NCoef="0" IVar="-1" Cut="0.0000000000000000e+00" cType="1" res="-2.1947893401375040e-05" rms="4.6484917402267456e-01" purity="5.0032758712768555e-01" nType="-99"/>
        </Node>
        <Node pos="r" depth="1" NCoef="0" IVar="-1" Cut="0.0000000000000000e+00" cType="1" res="5.6987965945154428e-04" rms="4.4257250428199768e-01" purity="7.0130825042724609e-01" nType="-99"/>
      </Node>
    </BinaryTree>
    <BinaryTree type="DecisionTree" boostWeight="1.0000000000000000e+00" itree="911">
      <Node pos="s" depth="0" NCoef="0" IVar="1" Cut="9.8442471027374268e-01" cType="1" res="3.4819517750293016e-03" rms="4.5918607711791992e-01" purity="5.0041443109512329e-01" nType="0">
        <Node pos="l" depth="1" NCoef="0" IVar="4" Cut="9.6706286072731018e-02" cType="1" res="1.6944241360761225e-04" rms="4.6552717685699463e-01" purity="4.6776795387268066e-01" nType="0">
          <Node pos="l" depth="2" NCoef="0" IVar="-1" Cut="0.0000000000000000e+00" cType="1" res="9.1363654064480215e-05" rms="4.6567302942276001e-01" purity="4.7899898886680603e-01" nType="-99"/>
          <Node pos="r" depth="2" NCoef="0" IVar="-1" Cut="0.0000000000000000e+00" cType="1" res="-3.8606088492088020e-04" rms="4.6452909708023071e-01" purity="4.2383122444152832e-01" nType="-99"/>
        </Node>
        <Node pos="r" depth="1" NCoef="0" IVar="-1" Cut="0.0000000000000000e+00" cType="1" res="5.1048822933807969e-04" rms="3.9829069375991821e-01" purity="7.8592556715011597e-01" nType="-99"/>
      </Node>
    </BinaryTree>
    <BinaryTree type="DecisionTree" boostWeight="1.0000000000000000e+00" itree="912">
      <Node pos="s" depth="0" NCoef="0" IVar="1" Cut="9.8436695337295532e-01" cType="1" res="-1.2210728600621223e-03" rms="4.5829296112060547e-01" purity="4.9533578753471375e-01" nType="0">
        <Node pos="l" depth="1" NCoef="0" IVar="3" Cut="2.2463533282279968e-01" cType="1" res="-5.3072664886713028e-03" rms="4.6485728025436401e-01" purity="4.6085843443870544e-01" nType="0">
          <Node pos="l" depth="2" NCoef="0" IVar="-1" Cut="0.0000000000000000e+00" cType="1" res="-1.6330045764334500e-04" rms="4.6424508094787598e-01" purity="4.5383802056312561e-01" nType="-99"/>
          <Node pos="r" depth="2" NCoef="0" IVar="-1" Cut="0.0000000000000000e+00" cType="1" res="4.6681621461175382e-04" rms="4.7093883156776428e-01" purity="5.4501503705978394e-01" nType="-99"/>
        </Node>
        <Node pos="r" depth="1" NCoef="0" IVar="-1" Cut="0.0000000000000000e+00" cType="1" res="5.3033541189506650e-04" rms="3.9661058783531189e-01" purity="7.8771770000457764e-01" nType="-99"/>
      </Node>
    </BinaryTree>
    <BinaryTree type="DecisionTree" boostWeight="1.0000000000000000e+00" itree="913">
      <Node pos="s" depth="0" NCoef="0" IVar="4" Cut="-5.8548259548842907e-03" cType="1" res="-3.0928032938390970e-03" rms="4.5857930183410645e-01" purity="4.9455946683883667e-01" nType="0">
        <Node pos="l" depth="1" NCoef="0" IVar="5" Cut="2.6425219726562500e+02" cType="1" res="1.0671138763427734e-02" rms="4.5780602097511292e-01" purity="5.2862483263015747e-01" nType="0">
          <Node pos="l" depth="2" NCoef="0" IVar="-1" Cut="0.0000000000000000e+00" cType="1" res="-1.7510834732092917e-04" rms="4.5315945148468018e-01" purity="3.6600208282470703e-01" nType="-99"/>
          <Node pos="r" depth="2" NCoef="0" IVar="-1" Cut="0.0000000000000000e+00" cType="1" res="3.2884755637496710e-04" rms="4.6000263094902039e-01" purity="6.1609494686126709e-01" nType="-99"/>
        </Node>
        <Node pos="r" depth="1" NCoef="0" IVar="6" Cut="1.9002072811126709e+00" cType="1" res="-1.3207589276134968e-02" rms="4.5888361334800720e-01" purity="4.6952569484710693e-01" nType="0">
          <Node pos="l" depth="2" NCoef="0" IVar="-1" Cut="0.0000000000000000e+00" cType="1" res="3.7298680399544537e-04" rms="4.5483100414276123e-01" purity="5.7940036058425903e-01" nType="-99"/>
          <Node pos="r" depth="2" NCoef="0" IVar="-1" Cut="0.0000000000000000e+00" cType="1" res="-4.4016900938004255e-04" rms="4.5940747857093811e-01" purity="4.4577673077583313e-01" nType="-99"/>
        </Node>
      </Node>
    </BinaryTree>
    <BinaryTree type="DecisionTree" boostWeight="1.0000000000000000e+00" itree="914">
      <Node pos="s" depth="0" NCoef="0" IVar="1" Cut="9.7238570451736450e-01" cType="1" res="4.1623285505920649e-04" rms="4.5858564972877502e-01" purity="4.9797359108924866e-01" nType="0">
        <Node pos="l" depth="1" NCoef="0" IVar="5" Cut="4.0709350585937500e+02" cType="1" res="-6.1343954876065254e-03" rms="4.6583417057991028e-01" purity="4.3635070323944092e-01" nType="0">
          <Node pos="l" depth="2" NCoef="0" IVar="-1" Cut="0.0000000000000000e+00" cType="1" res="-2.8646169812418520e-04" rms="4.6363949775695801e-01" purity="3.8567852973937988e-01" nType="-99"/>
          <Node pos="r" depth="2" NCoef="0" IVar="-1" Cut="0.0000000000000000e+00" cType="1" res="2.5581289082765579e-04" rms="4.7263342142105103e-01" purity="6.1065262556076050e-01" nType="-99"/>
        </Node>
        <Node pos="r" depth="1" NCoef="0" IVar="6" Cut="2.1764187812805176e+00" cType="1" res="2.3649767041206360e-02" rms="4.3109515309333801e-01" purity="7.1653538942337036e-01" nType="0">
          <Node pos="l" depth="2" NCoef="0" IVar="-1" Cut="0.0000000000000000e+00" cType="1" res="5.7308457326143980e-04" rms="4.1294762492179871e-01" purity="7.6400750875473022e-01" nType="-99"/>
          <Node pos="r" depth="2" NCoef="0" IVar="-1" Cut="0.0000000000000000e+00" cType="1" res="1.9555908511392772e-04" rms="4.4640722870826721e-01" purity="6.7403793334960938e-01" nType="-99"/>
        </Node>
      </Node>
    </BinaryTree>
    <BinaryTree type="DecisionTree" boostWeight="1.0000000000000000e+00" itree="915">
      <Node pos="s" depth="0" NCoef="0" IVar="0" Cut="1.6791224479675293e-01" cType="1" res="2.0694052800536156e-03" rms="4.5734313130378723e-01" purity="5.0022864341735840e-01" nType="0">
        <Node pos="l" depth="1" NCoef="0" IVar="0" Cut="3.1173033639788628e-02" cType="1" res="-2.7246063109487295e-03" rms="4.5873275399208069e-01" purity="4.9564060568809509e-01" nType="0">
          <Node pos="l" depth="2" NCoef="0" IVar="-1" Cut="0.0000000000000000e+00" cType="1" res="-5.2863149903714657e-04" rms="4.6744111180305481e-01" purity="4.7351652383804321e-01" nType="-99"/>
          <Node pos="r" depth="2" NCoef="0" IVar="-1" Cut="0.0000000000000000e+00" cType="1" res="5.0423437642166391e-05" rms="4.5657211542129517e-01" purity="5.0064545869827271e-01" nType="-99"/>
        </Node>
        <Node pos="r" depth="1" NCoef="0" IVar="5" Cut="2.6271350097656250e+02" cType="1" res="2.8328623622655869e-02" rms="4.4874775409698486e-01" purity="5.2535980939865112e-01" nType="0">
          <Node pos="l" depth="2" NCoef="0" IVar="-1" Cut="0.0000000000000000e+00" cType="1" res="-4.9931072862818837e-04" rms="4.4822317361831665e-01" purity="3.5795593261718750e-01" nType="-99"/>
          <Node pos="r" depth="2" NCoef="0" IVar="-1" Cut="0.0000000000000000e+00" cType="1" res="1.0480904020369053e-03" rms="4.4505205750465393e-01" purity="6.6965264081954956e-01" nType="-99"/>
        </Node>
      </Node>
    </BinaryTree>
    <BinaryTree type="DecisionTree" boostWeight="1.0000000000000000e+00" itree="916">
      <Node pos="s" depth="0" NCoef="0" IVar="1" Cut="9.7546583414077759e-01" cType="1" res="3.5724199842661619e-03" rms="4.5715039968490601e-01" purity="5.0280201435089111e-01" nType="0">
        <Node pos="l" depth="1" NCoef="0" IVar="4" Cut="-8.2738257944583893e-02" cType="1" res="-1.8156116129830480e-03" rms="4.6521270275115967e-01" purity="4.4730141758918762e-01" nType="0">
          <Node pos="l" depth="2" NCoef="0" IVar="-1" Cut="0.0000000000000000e+00" cType="1" res="6.3354690792039037e-04" rms="4.6218699216842651e-01" purity="5.0728356838226318e-01" nType="-99"/>
          <Node pos="r" depth="2" NCoef="0" IVar="-1" Cut="0.0000000000000000e+00" cType="1" res="-9.3743416073266417e-05" rms="4.6532338857650757e-01" purity="4.4279378652572632e-01" nType="-99"/>
        </Node>
        <Node pos="r" depth="1" NCoef="0" IVar="6" Cut="2.2806131839752197e+00" cType="1" res="2.6424579322338104e-02" rms="4.2047756910324097e-01" purity="7.3819571733474731e-01" nType="0">
          <Node pos="l" depth="2" NCoef="0" IVar="-1" Cut="0.0000000000000000e+00" cType="1" res="5.9801939642056823e-04" rms="3.9933708310127258e-01" purity="7.8187435865402222e-01" nType="-99"/>
          <Node pos="r" depth="2" NCoef="0" IVar="-1" Cut="0.0000000000000000e+00" cType="1" res="1.0978069622069597e-04" rms="4.5351487398147583e-01" purity="6.6391092538833618e-01" nType="-99"/>
        </Node>
      </Node>
    </BinaryTree>
    <BinaryTree type="DecisionTree" boostWeight="1.0000000000000000e+00" itree="917">
      <Node pos="s" depth="0" NCoef="0" IVar="3" Cut="-5.7825013063848019e-03" cType="1" res="-1.9850858952850103e-03" rms="4.5868092775344849e-01" purity="4.9426332116127014e-01" nType="0">
        <Node pos="l" depth="1" NCoef="0" IVar="6" Cut="2.6047730445861816e+00" cType="1" res="-1.5110706910490990e-02" rms="4.5496624708175659e-01" purity="4.5478719472885132e-01" nType="0">
          <Node pos="l" depth="2" NCoef="0" IVar="-1" Cut="0.0000000000000000e+00" cType="1" res="-1.4517575618810952e-04" rms="4.6143695712089539e-01" purity="4.9544060230255127e-01" nType="-99"/>
          <Node pos="r" depth="2" NCoef="0" IVar="-1" Cut="0.0000000000000000e+00" cType="1" res="-1.4751234557479620e-03" rms="4.2565947771072388e-01" purity="2.8640621900558472e-01" nType="-99"/>
        </Node>
        <Node pos="r" depth="1" NCoef="0" IVar="1" Cut="9.7557532787322998e-01" cType="1" res="8.7411459535360336e-03" rms="4.6141722798347473e-01" purity="5.2652323246002197e-01" nType="0">
          <Node pos="l" depth="2" NCoef="0" IVar="-1" Cut="0.0000000000000000e+00" cType="1" res="5.9417812735773623e-05" rms="4.7192952036857605e-01" purity="4.7244259715080261e-01" nType="-99"/>
          <Node pos="r" depth="2" NCoef="0" IVar="-1" Cut="0.0000000000000000e+00" cType="1" res="5.2770477486774325e-04" rms="4.1132390499114990e-01" purity="7.6334524154663086e-01" nType="-99"/>
        </Node>
      </Node>
    </BinaryTree>
    <BinaryTree type="DecisionTree" boostWeight="1.0000000000000000e+00" itree="918">
      <Node pos="s" depth="0" NCoef="0" IVar="1" Cut="9.8448842763900757e-01" cType="1" res="6.8925251252949238e-04" rms="4.5771804451942444e-01" purity="4.9911394715309143e-01" nType="0">
        <Node pos="l" depth="1" NCoef="0" IVar="3" Cut="-1.2489712983369827e-01" cType="1" res="-3.5385978408157825e-03" rms="4.6466076374053955e-01" purity="4.6396759152412415e-01" nType="0">
          <Node pos="l" depth="2" NCoef="0" IVar="-1" Cut="0.0000000000000000e+00" cType="1" res="-1.1379128554835916e-03" rms="4.3564674258232117e-01" purity="3.7070992588996887e-01" nType="-99"/>
          <Node pos="r" depth="2" NCoef="0" IVar="-1" Cut="0.0000000000000000e+00" cType="1" res="-6.2009166867937893e-06" rms="4.6660491824150085e-01" purity="4.7096320986747742e-01" nType="-99"/>
        </Node>
        <Node pos="r" depth="1" NCoef="0" IVar="-1" Cut="0.0000000000000000e+00" cType="1" res="5.7128281332552433e-04" rms="3.9309439063072205e-01" purity="7.9318886995315552e-01" nType="-99"/>
      </Node>
    </BinaryTree>
    <BinaryTree type="DecisionTree" boostWeight="1.0000000000000000e+00" itree="919">
      <Node pos="s" depth="0" NCoef="0" IVar="1" Cut="9.1281455755233765e-01" cType="1" res="-7.3908828198909760e-04" rms="4.5682078599929810e-01" purity="4.9846917390823364e-01" nType="0">
        <Node pos="l" depth="1" NCoef="0" IVar="-1" Cut="0.0000000000000000e+00" cType="1" res="-1.2321249814704061e-03" rms="4.3923014402389526e-01" purity="2.9996111989021301e-01" nType="-99"/>
        <Node pos="r" depth="1" NCoef="0" IVar="3" Cut="1.5480424463748932e-01" cType="1" res="3.0863569118082523e-03" rms="4.5820352435112000e-01" purity="5.1660519838333130e-01" nType="0">
          <Node pos="l" depth="2" NCoef="0" IVar="-1" Cut="0.0000000000000000e+00" cType="1" res="-7.2775401349645108e-05" rms="4.5681086182594299e-01" purity="5.0118041038513184e-01" nType="-99"/>
          <Node pos="r" depth="2" NCoef="0" IVar="-1" Cut="0.0000000000000000e+00" cType="1" res="5.5411871289834380e-04" rms="4.6298274397850037e-01" purity="5.8290255069732666e-01" nType="-99"/>
        </Node>
      </Node>
    </BinaryTree>
    <BinaryTree type="DecisionTree" boostWeight="1.0000000000000000e+00" itree="920">
      <Node pos="s" depth="0" NCoef="0" IVar="1" Cut="9.2432481050491333e-01" cType="1" res="1.7114137299358845e-03" rms="4.5714318752288818e-01" purity="4.9990028142929077e-01" nType="0">
        <Node pos="l" depth="1" NCoef="0" IVar="3" Cut="-3.6211337894201279e-02" cType="1" res="-2.8971647843718529e-02" rms="4.4345906376838684e-01" purity="3.2422611117362976e-01" nType="0">
          <Node pos="l" depth="2" NCoef="0" IVar="-1" Cut="0.0000000000000000e+00" cType="1" res="6.0702132032020018e-05" rms="4.4495031237602234e-01" purity="3.2283344864845276e-01" nType="-99"/>
          <Node pos="r" depth="2" NCoef="0" IVar="-1" Cut="0.0000000000000000e+00" cType="1" res="-1.2521396856755018e-03" rms="4.4146853685379028e-01" purity="3.2507738471031189e-01" nType="-99"/>
        </Node>
        <Node pos="r" depth="1" NCoef="0" IVar="2" Cut="5.7158850097656250e+02" cType="1" res="7.7375709079205990e-03" rms="4.5954227447509766e-01" purity="5.3440272808074951e-01" nType="0">
          <Node pos="l" depth="2" NCoef="0" IVar="-1" Cut="0.0000000000000000e+00" cType="1" res="4.0386163163930178e-05" rms="4.6404466032981873e-01" purity="4.8675560951232910e-01" nType="-99"/>
          <Node pos="r" depth="2" NCoef="0" IVar="-1" Cut="0.0000000000000000e+00" cType="1" res="4.1277447598986328e-04" rms="4.4379004836082458e-01" purity="6.9220805168151855e-01" nType="-99"/>
        </Node>
      </Node>
    </BinaryTree>
    <BinaryTree type="DecisionTree" boostWeight="1.0000000000000000e+00" itree="921">
      <Node pos="s" depth="0" NCoef="0" IVar="1" Cut="9.8436695337295532e-01" cType="1" res="-2.9823144432157278e-03" rms="4.5641598105430603e-01" purity="4.9506428837776184e-01" nType="0">
        <Node pos="l" depth="1" NCoef="0" IVar="5" Cut="5.2181793212890625e+02" cType="1" res="-7.4236989021301270e-03" rms="4.6275144815444946e-01" purity="4.6027120947837830e-01" nType="0">
          <Node pos="l" depth="2" NCoef="0" IVar="-1" Cut="0.0000000000000000e+00" cType="1" res="-2.2647672449238598e-04" rms="4.6327742934226990e-01" purity="4.3854722380638123e-01" nType="-99"/>
          <Node pos="r" depth="2" NCoef="0" IVar="-1" Cut="0.0000000000000000e+00" cType="1" res="3.9676082087680697e-04" rms="4.5639225840568542e-01" purity="6.6730713844299316e-01" nType="-99"/>
        </Node>
        <Node pos="r" depth="1" NCoef="0" IVar="-1" Cut="0.0000000000000000e+00" cType="1" res="5.4955971427261829e-04" rms="3.9676037430763245e-01" purity="7.8970861434936523e-01" nType="-99"/>
      </Node>
    </BinaryTree>
    <BinaryTree type="DecisionTree" boostWeight="1.0000000000000000e+00" itree="922">
      <Node pos="s" depth="0" NCoef="0" IVar="3" Cut="1.7998844385147095e-01" cType="1" res="2.4232733994722366e-03" rms="4.5855650305747986e-01" purity="4.9862229824066162e-01" nType="0">
        <Node pos="l" depth="1" NCoef="0" IVar="4" Cut="1.5967175364494324e-02" cType="1" res="-1.9328540656715631e-03" rms="4.5711883902549744e-01" purity="4.8726850748062134e-01" nType="0">
          <Node pos="l" depth="2" NCoef="0" IVar="-1" Cut="0.0000000000000000e+00" cType="1" res="1.7030174785759300e-04" rms="4.5845198631286621e-01" purity="5.2186393737792969e-01" nType="-99"/>
          <Node pos="r" depth="2" NCoef="0" IVar="-1" Cut="0.0000000000000000e+00" cType="1" res="-3.9752075099386275e-04" rms="4.5463317632675171e-01" purity="4.3578046560287476e-01" nType="-99"/>
        </Node>
        <Node pos="r" depth="1" NCoef="0" IVar="4" Cut="9.5984466373920441e-02" cType="1" res="2.8277339413762093e-02" rms="4.6616116166114807e-01" purity="5.6600803136825562e-01" nType="0">
          <Node pos="l" depth="2" NCoef="0" IVar="-1" Cut="0.0000000000000000e+00" cType="1" res="8.6122046923264861e-04" rms="4.6473392844200134e-01" purity="5.9189563989639282e-01" nType="-99"/>
          <Node pos="r" depth="2" NCoef="0" IVar="-1" Cut="0.0000000000000000e+00" cType="1" res="1.4173291856423020e-04" rms="4.6643638610839844e-01" purity="5.4362100362777710e-01" nType="-99"/>
        </Node>
      </Node>
    </BinaryTree>
    <BinaryTree type="DecisionTree" boostWeight="1.0000000000000000e+00" itree="923">
      <Node pos="s" depth="0" NCoef="0" IVar="4" Cut="6.5629534423351288e-02" cType="1" res="3.6548154894262552e-03" rms="4.5865803956985474e-01" purity="5.0061321258544922e-01" nType="0">
        <Node pos="l" depth="1" NCoef="0" IVar="2" Cut="3.4346337890625000e+02" cType="1" res="1.0417660698294640e-02" rms="4.5837745070457458e-01" purity="5.1846039295196533e-01" nType="0">
          <Node pos="l" depth="2" NCoef="0" IVar="-1" Cut="0.0000000000000000e+00" cType="1" res="-5.0303793977946043e-04" rms="4.2392724752426147e-01" purity="2.9239231348037720e-01" nType="-99"/>
          <Node pos="r" depth="2" NCoef="0" IVar="-1" Cut="0.0000000000000000e+00" cType="1" res="2.8410527738742530e-04" rms="4.6564084291458130e-01" purity="5.6985294818878174e-01" nType="-99"/>
        </Node>
        <Node pos="r" depth="1" NCoef="0" IVar="3" Cut="2.0877873897552490e-01" cType="1" res="-1.3218050822615623e-02" rms="4.5892301201820374e-01" purity="4.5608559250831604e-01" nType="0">
          <Node pos="l" depth="2" NCoef="0" IVar="-1" Cut="0.0000000000000000e+00" cType="1" res="-6.3498172676190734e-04" rms="4.5559102296829224e-01" purity="4.1175720095634460e-01" nType="-99"/>
          <Node pos="r" depth="2" NCoef="0" IVar="-1" Cut="0.0000000000000000e+00" cType="1" res="3.6488627665676177e-04" rms="4.6479716897010803e-01" purity="5.5890911817550659e-01" nType="-99"/>
        </Node>
      </Node>
    </BinaryTree>
    <BinaryTree type="DecisionTree" boostWeight="1.0000000000000000e+00" itree="924">
      <Node pos="s" depth="0" NCoef="0" IVar="3" Cut="1.6801840066909790e-01" cType="1" res="1.0648173047229648e-03" rms="4.6038892865180969e-01" purity="4.9610865116119385e-01" nType="0">
        <Node pos="l" depth="1" NCoef="0" IVar="4" Cut="1.1635485291481018e-01" cType="1" res="-2.5555600877851248e-03" rms="4.5869666337966919e-01" purity="4.8574298620223999e-01" nType="0">
          <Node pos="l" depth="2" NCoef="0" IVar="-1" Cut="0.0000000000000000e+00" cType="1" res="3.7846493796678260e-05" rms="4.5957666635513306e-01" purity="4.9924400448799133e-01" nType="-99"/>
          <Node pos="r" depth="2" NCoef="0" IVar="-1" Cut="0.0000000000000000e+00" cType="1" res="-9.9551212042570114e-04" rms="4.4958767294883728e-01" purity="3.7373718619346619e-01" nType="-99"/>
        </Node>
        <Node pos="r" depth="1" NCoef="0" IVar="4" Cut="7.6957613229751587e-02" cType="1" res="1.9994856789708138e-02" rms="4.6868276596069336e-01" purity="5.5030804872512817e-01" nType="0">
          <Node pos="l" depth="2" NCoef="0" IVar="-1" Cut="0.0000000000000000e+00" cType="1" res="6.2452460406348109e-04" rms="4.6251657605171204e-01" purity="5.7563918828964233e-01" nType="-99"/>
          <Node pos="r" depth="2" NCoef="0" IVar="-1" Cut="0.0000000000000000e+00" cType="1" res="1.6178900841623545e-04" rms="4.7247174382209778e-01" purity="5.3322029113769531e-01" nType="-99"/>
        </Node>
      </Node>
    </BinaryTree>
    <BinaryTree type="DecisionTree" boostWeight="1.0000000000000000e+00" itree="925">
      <Node pos="s" depth="0" NCoef="0" IVar="0" Cut="1.4934138953685760e-01" cType="1" res="3.3143074251711369e-03" rms="4.5885109901428223e-01" purity="5.0054985284805298e-01" nType="0">
        <Node pos="l" depth="1" NCoef="0" IVar="0" Cut="1.5627371147274971e-02" cType="1" res="-1.5179687179625034e-03" rms="4.6013608574867249e-01" purity="4.9623405933380127e-01" nType="0">
          <Node pos="l" depth="2" NCoef="0" IVar="-1" Cut="0.0000000000000000e+00" cType="1" res="-8.3996780449524522e-04" rms="4.6812650561332703e-01" purity="4.7218847274780273e-01" nType="-99"/>
          <Node pos="r" depth="2" NCoef="0" IVar="-1" Cut="0.0000000000000000e+00" cType="1" res="2.4308343199663796e-05" rms="4.5944735407829285e-01" purity="4.9790471792221069e-01" nType="-99"/>
        </Node>
        <Node pos="r" depth="1" NCoef="0" IVar="2" Cut="4.1353811645507812e+02" cType="1" res="2.2681985050439835e-02" rms="4.5314759016036987e-01" purity="5.1784729957580566e-01" nType="0">
          <Node pos="l" depth="2" NCoef="0" IVar="-1" Cut="0.0000000000000000e+00" cType="1" res="1.5438326954608783e-05" rms="4.5658230781555176e-01" purity="3.9406266808509827e-01" nType="-99"/>
          <Node pos="r" depth="2" NCoef="0" IVar="-1" Cut="0.0000000000000000e+00" cType="1" res="7.6728791464120150e-04" rms="4.4713968038558960e-01" purity="6.7617470026016235e-01" nType="-99"/>
        </Node>
      </Node>
    </BinaryTree>
    <BinaryTree type="DecisionTree" boostWeight="1.0000000000000000e+00" itree="926">
      <Node pos="s" depth="0" NCoef="0" IVar="6" Cut="1.9302086830139160e+00" cType="1" res="3.1276075169444084e-03" rms="4.5919987559318542e-01" purity="5.0027328729629517e-01" nType="0">
        <Node pos="l" depth="1" NCoef="0" IVar="1" Cut="9.5202863216400146e-01" cType="1" res="2.7417870238423347e-02" rms="4.5372426509857178e-01" purity="5.8076447248458862e-01" nType="0">
          <Node pos="l" depth="2" NCoef="0" IVar="-1" Cut="0.0000000000000000e+00" cType="1" res="9.0877707407344133e-05" rms="4.7507986426353455e-01" purity="4.5403429865837097e-01" nType="-99"/>
          <Node pos="r" depth="2" NCoef="0" IVar="-1" Cut="0.0000000000000000e+00" cType="1" res="7.5124984141439199e-04" rms="4.3188849091529846e-01" purity="6.9841665029525757e-01" nType="-99"/>
        </Node>
        <Node pos="r" depth="1" NCoef="0" IVar="4" Cut="9.5985010266304016e-02" cType="1" res="-3.0328673310577869e-03" rms="4.6037456393241882e-01" purity="4.7985917329788208e-01" nType="0">
          <Node pos="l" depth="2" NCoef="0" IVar="-1" Cut="0.0000000000000000e+00" cType="1" res="7.9284254752565175e-05" rms="4.6128576993942261e-01" purity="4.9581912159919739e-01" nType="-99"/>
          <Node pos="r" depth="2" NCoef="0" IVar="-1" Cut="0.0000000000000000e+00" cType="1" res="-6.9913076004013419e-04" rms="4.5571038126945496e-01" purity="4.1723132133483887e-01" nType="-99"/>
        </Node>
      </Node>
    </BinaryTree>
    <BinaryTree type="DecisionTree" boostWeight="1.0000000000000000e+00" itree="927">
      <Node pos="s" depth="0" NCoef="0" IVar="6" Cut="1.9578585624694824e+00" cType="1" res="4.5660827308893204e-03" rms="4.5779550075531006e-01" purity="5.0243830680847168e-01" nType="0">
        <Node pos="l" depth="1" NCoef="0" IVar="5" Cut="3.1939117431640625e+02" cType="1" res="2.6167562231421471e-02" rms="4.5268335938453674e-01" purity="5.7980042695999146e-01" nType="0">
          <Node pos="l" depth="2" NCoef="0" IVar="-1" Cut="0.0000000000000000e+00" cType="1" res="1.5182138304226100e-04" rms="4.6676939725875854e-01" purity="4.8388856649398804e-01" nType="-99"/>
          <Node pos="r" depth="2" NCoef="0" IVar="-1" Cut="0.0000000000000000e+00" cType="1" res="7.7862199395895004e-04" rms="4.2983919382095337e-01" purity="7.2019100189208984e-01" nType="-99"/>
        </Node>
        <Node pos="r" depth="1" NCoef="0" IVar="4" Cut="1.6460037231445312e-01" cType="1" res="-1.5578405000269413e-03" rms="4.5904949307441711e-01" purity="4.8050647974014282e-01" nType="0">
          <Node pos="l" depth="2" NCoef="0" IVar="-1" Cut="0.0000000000000000e+00" cType="1" res="4.0586288378108293e-05" rms="4.5908796787261963e-01" purity="4.8813182115554810e-01" nType="-99"/>
          <Node pos="r" depth="2" NCoef="0" IVar="-1" Cut="0.0000000000000000e+00" cType="1" res="-1.2198832118883729e-03" rms="4.5582231879234314e-01" purity="3.7913498282432556e-01" nType="-99"/>
        </Node>
      </Node>
    </BinaryTree>
    <BinaryTree type="DecisionTree" boostWeight="1.0000000000000000e+00" itree="928">
      <Node pos="s" depth="0" NCoef="0" IVar="6" Cut="2.7582318782806396e+00" cType="1" res="1.4857137575745583e-03" rms="4.5939823985099792e-01" purity="4.9809217453002930e-01" nType="0">
        <Node pos="l" depth="1" NCoef="0" IVar="5" Cut="3.7808276367187500e+02" cType="1" res="5.4576192051172256e-03" rms="4.6230316162109375e-01" purity="5.1670247316360474e-01" nType="0">
          <Node pos="l" depth="2" NCoef="0" IVar="-1" Cut="0.0000000000000000e+00" cType="1" res="-1.8681481378735043e-05" rms="4.6479395031929016e-01" purity="4.5988261699676514e-01" nType="-99"/>
          <Node pos="r" depth="2" NCoef="0" IVar="-1" Cut="0.0000000000000000e+00" cType="1" res="3.3329339930787683e-04" rms="4.5576050877571106e-01" purity="6.5604543685913086e-01" nType="-99"/>
        </Node>
        <Node pos="r" depth="1" NCoef="0" IVar="-1" Cut="0.0000000000000000e+00" cType="1" res="-1.6058338806033134e-03" rms="4.1893398761749268e-01" purity="2.6902008056640625e-01" nType="-99"/>
      </Node>
    </BinaryTree>
    <BinaryTree type="DecisionTree" boostWeight="1.0000000000000000e+00" itree="929">
      <Node pos="s" depth="0" NCoef="0" IVar="1" Cut="9.8437088727951050e-01" cType="1" res="1.6506903339177370e-03" rms="4.5772626996040344e-01" purity="4.9993818998336792e-01" nType="0">
        <Node pos="l" depth="1" NCoef="0" IVar="2" Cut="7.1705694580078125e+02" cType="1" res="-2.7799953240901232e-03" rms="4.6469211578369141e-01" purity="4.6456539630889893e-01" nType="0">
          <Node pos="l" depth="2" NCoef="0" IVar="-1" Cut="0.0000000000000000e+00" cType="1" res="-1.3244285946711898e-04" rms="4.6517997980117798e-01" purity="4.4295322895050049e-01" nType="-99"/>
          <Node pos="r" depth="2" NCoef="0" IVar="-1" Cut="0.0000000000000000e+00" cType="1" res="5.0757679855450988e-04" rms="4.5840376615524292e-01" purity="6.7440861463546753e-01" nType="-99"/>
        </Node>
        <Node pos="r" depth="1" NCoef="0" IVar="-1" Cut="0.0000000000000000e+00" cType="1" res="6.0670095263049006e-04" rms="3.9309078454971313e-01" purity="7.9429888725280762e-01" nType="-99"/>
      </Node>
    </BinaryTree>
    <BinaryTree type="DecisionTree" boostWeight="1.0000000000000000e+00" itree="930">
      <Node pos="s" depth="0" NCoef="0" IVar="5" Cut="3.6222473144531250e+02" cType="1" res="4.0511381812393665e-03" rms="4.5886662602424622e-01" purity="5.0164371728897095e-01" nType="0">
        <Node pos="l" depth="1" NCoef="0" IVar="4" Cut="-4.3627653270959854e-02" cType="1" res="-3.4002035390585661e-03" rms="4.5866969227790833e-01" purity="4.3656358122825623e-01" nType="0">
          <Node pos="l" depth="2" NCoef="0" IVar="-1" Cut="0.0000000000000000e+00" cType="1" res="2.9090361203998327e-04" rms="4.6055313944816589e-01" purity="4.8685348033905029e-01" nType="-99"/>
          <Node pos="r" depth="2" NCoef="0" IVar="-1" Cut="0.0000000000000000e+00" cType="1" res="-2.0786027016583830e-04" rms="4.5789915323257446e-01" purity="4.2027011513710022e-01" nType="-99"/>
        </Node>
        <Node pos="r" depth="1" NCoef="0" IVar="0" Cut="3.3103741705417633e-02" cType="1" res="1.9515963271260262e-02" rms="4.5888909697532654e-01" purity="6.3671368360519409e-01" nType="0">
          <Node pos="l" depth="2" NCoef="0" IVar="-1" Cut="0.0000000000000000e+00" cType="1" res="-1.8006561731453985e-04" rms="4.7443792223930359e-01" purity="5.6987363100051880e-01" nType="-99"/>
          <Node pos="r" depth="2" NCoef="0" IVar="-1" Cut="0.0000000000000000e+00" cType="1" res="5.0569552695378661e-04" rms="4.5153987407684326e-01" purity="6.6502434015274048e-01" nType="-99"/>
        </Node>
      </Node>
    </BinaryTree>
    <BinaryTree type="DecisionTree" boostWeight="1.0000000000000000e+00" itree="931">
      <Node pos="s" depth="0" NCoef="0" IVar="0" Cut="2.2832553088665009e-01" cType="1" res="1.5814277576282620e-03" rms="4.5766848325729370e-01" purity="4.9954164028167725e-01" nType="0">
        <Node pos="l" depth="1" NCoef="0" IVar="2" Cut="6.6848028564453125e+02" cType="1" res="-1.1160884751006961e-03" rms="4.5779708027839661e-01" purity="4.9715727567672729e-01" nType="0">
          <Node pos="l" depth="2" NCoef="0" IVar="-1" Cut="0.0000000000000000e+00" cType="1" res="-1.0182760888710618e-04" rms="4.5913642644882202e-01" purity="4.6951568126678467e-01" nType="-99"/>
          <Node pos="r" depth="2" NCoef="0" IVar="-1" Cut="0.0000000000000000e+00" cType="1" res="4.0243528201244771e-04" rms="4.4778954982757568e-01" purity="6.8300312757492065e-01" nType="-99"/>
        </Node>
        <Node pos="r" depth="1" NCoef="0" IVar="-1" Cut="0.0000000000000000e+00" cType="1" res="8.3786470349878073e-04" rms="4.5312219858169556e-01" purity="5.3951787948608398e-01" nType="-99"/>
      </Node>
    </BinaryTree>
    <BinaryTree type="DecisionTree" boostWeight="1.0000000000000000e+00" itree="932">
      <Node pos="s" depth="0" NCoef="0" IVar="0" Cut="1.3982029259204865e-01" cType="1" res="3.5807758104056120e-03" rms="4.5973199605941772e-01" purity="4.9966305494308472e-01" nType="0">
        <Node pos="l" depth="1" NCoef="0" IVar="3" Cut="1.4479903876781464e-01" cType="1" res="-2.4965570773929358e-03" rms="4.6142354607582092e-01" purity="4.9333360791206360e-01" nType="0">
          <Node pos="l" depth="2" NCoef="0" IVar="-1" Cut="0.0000000000000000e+00" cType="1" res="-1.8147664377465844e-04" rms="4.5927491784095764e-01" purity="4.7660377621650696e-01" nType="-99"/>
          <Node pos="r" depth="2" NCoef="0" IVar="-1" Cut="0.0000000000000000e+00" cType="1" res="3.2767187803983688e-04" rms="4.6766132116317749e-01" purity="5.4713934659957886e-01" nType="-99"/>
        </Node>
        <Node pos="r" depth="1" NCoef="0" IVar="5" Cut="2.6692736816406250e+02" cType="1" res="2.3747196421027184e-02" rms="4.5349064469337463e-01" purity="5.2066600322723389e-01" nType="0">
          <Node pos="l" depth="2" NCoef="0" IVar="-1" Cut="0.0000000000000000e+00" cType="1" res="-2.2960343630984426e-04" rms="4.5491412281990051e-01" purity="3.6866438388824463e-01" nType="-99"/>
          <Node pos="r" depth="2" NCoef="0" IVar="-1" Cut="0.0000000000000000e+00" cType="1" res="8.0894283019006252e-04" rms="4.5023602247238159e-01" purity="6.5408420562744141e-01" nType="-99"/>
        </Node>
      </Node>
    </BinaryTree>
    <BinaryTree type="DecisionTree" boostWeight="1.0000000000000000e+00" itree="933">
      <Node pos="s" depth="0" NCoef="0" IVar="3" Cut="2.7539832517504692e-02" cType="1" res="2.6450969744473696e-03" rms="4.5823884010314941e-01" purity="5.0039482116699219e-01" nType="0">
        <Node pos="l" depth="1" NCoef="0" IVar="2" Cut="5.6811273193359375e+02" cType="1" res="-6.3037872314453125e-03" rms="4.5540222525596619e-01" purity="4.6895614266395569e-01" nType="0">
          <Node pos="l" depth="2" NCoef="0" IVar="-1" Cut="0.0000000000000000e+00" cType="1" res="-2.9578001704066992e-04" rms="4.5409628748893738e-01" purity="4.1716462373733521e-01" nType="-99"/>
          <Node pos="r" depth="2" NCoef="0" IVar="-1" Cut="0.0000000000000000e+00" cType="1" res="2.7589991805143654e-04" rms="4.5896607637405396e-01" purity="6.4181751012802124e-01" nType="-99"/>
        </Node>
        <Node pos="r" depth="1" NCoef="0" IVar="6" Cut="2.4263136386871338e+00" cType="1" res="1.3124492019414902e-02" rms="4.6131780743598938e-01" purity="5.3721028566360474e-01" nType="0">
          <Node pos="l" depth="2" NCoef="0" IVar="-1" Cut="0.0000000000000000e+00" cType="1" res="1.0342612222302705e-04" rms="4.6048408746719360e-01" purity="5.5334228277206421e-01" nType="-99"/>
          <Node pos="r" depth="2" NCoef="0" IVar="-1" Cut="0.0000000000000000e+00" cType="1" res="9.7396789351478219e-04" rms="4.6367105841636658e-01" purity="4.6094503998756409e-01" nType="-99"/>
        </Node>
      </Node>
    </BinaryTree>
    <BinaryTree type="DecisionTree" boostWeight="1.0000000000000000e+00" itree="934">
      <Node pos="s" depth="0" NCoef="0" IVar="5" Cut="5.4412896728515625e+02" cType="1" res="1.7392693553119898e-03" rms="4.5827710628509521e-01" purity="4.9822795391082764e-01" nType="0">
        <Node pos="l" depth="1" NCoef="0" IVar="0" Cut="2.8312321752309799e-02" cType="1" res="-1.6326536424458027e-03" rms="4.5950749516487122e-01" purity="4.8058459162712097e-01" nType="0">
          <Node pos="l" depth="2" NCoef="0" IVar="-1" Cut="0.0000000000000000e+00" cType="1" res="-6.7305186530575156e-04" rms="4.6452838182449341e-01" purity="4.3397080898284912e-01" nType="-99"/>
          <Node pos="r" depth="2" NCoef="0" IVar="-1" Cut="0.0000000000000000e+00" cType="1" res="4.2441417463123798e-05" rms="4.5872595906257629e-01" purity="4.8651474714279175e-01" nType="-99"/>
        </Node>
        <Node pos="r" depth="1" NCoef="0" IVar="-1" Cut="0.0000000000000000e+00" cType="1" res="6.2361860182136297e-04" rms="4.4215413928031921e-01" purity="6.9982910156250000e-01" nType="-99"/>
      </Node>
    </BinaryTree>
    <BinaryTree type="DecisionTree" boostWeight="1.0000000000000000e+00" itree="935">
      <Node pos="s" depth="0" NCoef="0" IVar="2" Cut="2.9745611572265625e+02" cType="1" res="2.7061544824391603e-03" rms="4.5794659852981567e-01" purity="5.0014817714691162e-01" nType="0">
        <Node pos="l" depth="1" NCoef="0" IVar="-1" Cut="0.0000000000000000e+00" cType="1" res="-2.0604745950549841e-03" rms="3.7460955977439880e-01" purity="2.0736469328403473e-01" nType="-99"/>
        <Node pos="r" depth="1" NCoef="0" IVar="0" Cut="5.6037526577711105e-02" cType="1" res="5.6017688475549221e-03" rms="4.6197691559791565e-01" purity="5.1646393537521362e-01" nType="0">
          <Node pos="l" depth="2" NCoef="0" IVar="-1" Cut="0.0000000000000000e+00" cType="1" res="-1.9440245523583144e-04" rms="4.6896561980247498e-01" purity="4.9477773904800415e-01" nType="-99"/>
          <Node pos="r" depth="2" NCoef="0" IVar="-1" Cut="0.0000000000000000e+00" cType="1" res="2.5823898613452911e-04" rms="4.5799618959426880e-01" purity="5.2801007032394409e-01" nType="-99"/>
        </Node>
      </Node>
    </BinaryTree>
    <BinaryTree type="DecisionTree" boostWeight="1.0000000000000000e+00" itree="936">
      <Node pos="s" depth="0" NCoef="0" IVar="2" Cut="3.2789929199218750e+02" cType="1" res="6.7912024678662419e-04" rms="4.5892095565795898e-01" purity="4.9689844250679016e-01" nType="0">
        <Node pos="l" depth="1" NCoef="0" IVar="0" Cut="8.8626690208911896e-02" cType="1" res="-2.6907030493021011e-02" rms="4.1106536984443665e-01" purity="2.5184485316276550e-01" nType="0">
          <Node pos="l" depth="2" NCoef="0" IVar="-1" Cut="0.0000000000000000e+00" cType="1" res="1.1437723878771067e-04" rms="4.1852122545242310e-01" purity="2.6286077499389648e-01" nType="-99"/>
          <Node pos="r" depth="2" NCoef="0" IVar="-1" Cut="0.0000000000000000e+00" cType="1" res="-1.8408185569569468e-03" rms="4.0345337986946106e-01" purity="2.4309180676937103e-01" nType="-99"/>
        </Node>
        <Node pos="r" depth="1" NCoef="0" IVar="0" Cut="3.7438381463289261e-02" cType="1" res="4.6661710366606712e-03" rms="4.6529552340507507e-01" purity="5.3231626749038696e-01" nType="0">
          <Node pos="l" depth="2" NCoef="0" IVar="-1" Cut="0.0000000000000000e+00" cType="1" res="-4.2686462984420359e-04" rms="4.7035503387451172e-01" purity="4.9565374851226807e-01" nType="-99"/>
          <Node pos="r" depth="2" NCoef="0" IVar="-1" Cut="0.0000000000000000e+00" cType="1" res="2.1719836513511837e-04" rms="4.6360936760902405e-01" purity="5.4246467351913452e-01" nType="-99"/>
        </Node>
      </Node>
    </BinaryTree>
    <BinaryTree type="DecisionTree" boostWeight="1.0000000000000000e+00" itree="937">
      <Node pos="s" depth="0" NCoef="0" IVar="2" Cut="4.9214456176757812e+02" cType="1" res="4.9123708158731461e-03" rms="4.5655372738838196e-01" purity="5.0428950786590576e-01" nType="0">
        <Node pos="l" depth="1" NCoef="0" IVar="5" Cut="2.1443135070800781e+02" cType="1" res="-4.4664721935987473e-03" rms="4.5727747678756714e-01" purity="4.1931387782096863e-01" nType="0">
          <Node pos="l" depth="2" NCoef="0" IVar="-1" Cut="0.0000000000000000e+00" cType="1" res="-1.4060811372473836e-03" rms="4.1161492466926575e-01" purity="2.5190371274948120e-01" nType="-99"/>
          <Node pos="r" depth="2" NCoef="0" IVar="-1" Cut="0.0000000000000000e+00" cType="1" res="5.7475146604701877e-05" rms="4.6578848361968994e-01" purity="4.5377993583679199e-01" nType="-99"/>
        </Node>
        <Node pos="r" depth="1" NCoef="0" IVar="0" Cut="1.0721845924854279e-01" cType="1" res="2.0379172638058662e-02" rms="4.5493552088737488e-01" purity="6.4442420005798340e-01" nType="0">
          <Node pos="l" depth="2" NCoef="0" IVar="-1" Cut="0.0000000000000000e+00" cType="1" res="9.8659947980195284e-05" rms="4.6306556463241577e-01" purity="6.1606627702713013e-01" nType="-99"/>
          <Node pos="r" depth="2" NCoef="0" IVar="-1" Cut="0.0000000000000000e+00" cType="1" res="1.0055159218609333e-03" rms="4.2344611883163452e-01" purity="7.3830598592758179e-01" nType="-99"/>
        </Node>
      </Node>
    </BinaryTree>
    <BinaryTree type="DecisionTree" boostWeight="1.0000000000000000e+00" itree="938">
      <Node pos="s" depth="0" NCoef="0" IVar="5" Cut="4.7882968139648438e+02" cType="1" res="5.5460343137383461e-03" rms="4.6043440699577332e-01" purity="5.0152748823165894e-01" nType="0">
        <Node pos="l" depth="1" NCoef="0" IVar="4" Cut="-8.0644175410270691e-02" cType="1" res="7.5520260725170374e-04" rms="4.6270924806594849e-01" purity="4.7214841842651367e-01" nType="0">
          <Node pos="l" depth="2" NCoef="0" IVar="-1" Cut="0.0000000000000000e+00" cType="1" res="5.7434075279161334e-04" rms="4.5939710736274719e-01" purity="5.3243213891983032e-01" nType="-99"/>
          <Node pos="r" depth="2" NCoef="0" IVar="-1" Cut="0.0000000000000000e+00" cType="1" res="-3.8214977394090965e-05" rms="4.6289229393005371e-01" purity="4.6704372763633728e-01" nType="-99"/>
        </Node>
        <Node pos="r" depth="1" NCoef="0" IVar="-1" Cut="0.0000000000000000e+00" cType="1" res="5.6583777768537402e-04" rms="4.4424954056739807e-01" purity="6.9095355272293091e-01" nType="-99"/>
      </Node>
    </BinaryTree>
    <BinaryTree type="DecisionTree" boostWeight="1.0000000000000000e+00" itree="939">
      <Node pos="s" depth="0" NCoef="0" IVar="1" Cut="9.8442471027374268e-01" cType="1" res="-8.4866833640262485e-04" rms="4.5880183577537537e-01" purity="4.9539917707443237e-01" nType="0">
        <Node pos="l" depth="1" NCoef="0" IVar="4" Cut="1.7479333281517029e-01" cType="1" res="-5.1550851203501225e-03" rms="4.6539422869682312e-01" purity="4.6064352989196777e-01" nType="0">
          <Node pos="l" depth="2" NCoef="0" IVar="-1" Cut="0.0000000000000000e+00" cType="1" res="-4.5666311052627861e-05" rms="4.6621012687683105e-01" purity="4.6547925472259521e-01" nType="-99"/>
          <Node pos="r" depth="2" NCoef="0" IVar="-1" Cut="0.0000000000000000e+00" cType="1" res="-1.2514443369582295e-03" rms="4.4925615191459656e-01" purity="3.8156005740165710e-01" nType="-99"/>
        </Node>
        <Node pos="r" depth="1" NCoef="0" IVar="-1" Cut="0.0000000000000000e+00" cType="1" res="5.6228809989988804e-04" rms="3.9683908224105835e-01" purity="7.8937655687332153e-01" nType="-99"/>
      </Node>
    </BinaryTree>
    <BinaryTree type="DecisionTree" boostWeight="1.0000000000000000e+00" itree="940">
      <Node pos="s" depth="0" NCoef="0" IVar="6" Cut="1.5500054359436035e+00" cType="1" res="3.5425203386694193e-03" rms="4.5793730020523071e-01" purity="5.0068193674087524e-01" nType="0">
        <Node pos="l" depth="1" NCoef="0" IVar="-1" Cut="0.0000000000000000e+00" cType="1" res="6.5467623062431812e-04" rms="4.3996113538742065e-01" purity="6.2248611450195312e-01" nType="-99"/>
        <Node pos="r" depth="1" NCoef="0" IVar="5" Cut="5.2475372314453125e+02" cType="1" res="8.1782485358417034e-04" rms="4.5914402604103088e-01" purity="4.9152898788452148e-01" nType="0">
          <Node pos="l" depth="2" NCoef="0" IVar="-1" Cut="0.0000000000000000e+00" cType="1" res="-4.6770914195803925e-05" rms="4.6008282899856567e-01" purity="4.7242766618728638e-01" nType="-99"/>
          <Node pos="r" depth="2" NCoef="0" IVar="-1" Cut="0.0000000000000000e+00" cType="1" res="5.2627286640927196e-04" rms="4.4824242591857910e-01" purity="6.8555712699890137e-01" nType="-99"/>
        </Node>
      </Node>
    </BinaryTree>
    <BinaryTree type="DecisionTree" boostWeight="1.0000000000000000e+00" itree="941">
      <Node pos="s" depth="0" NCoef="0" IVar="2" Cut="7.3263525390625000e+02" cType="1" res="7.6341517269611359e-03" rms="4.5688003301620483e-01" purity="5.0734400749206543e-01" nType="0">
        <Node pos="l" depth="1" NCoef="0" IVar="0" Cut="2.2363811731338501e-01" cType="1" res="4.2855991050601006e-03" rms="4.5823720097541809e-01" purity="4.8807239532470703e-01" nType="0">
          <Node pos="l" depth="2" NCoef="0" IVar="-1" Cut="0.0000000000000000e+00" cType="1" res="2.1214940716163255e-05" rms="4.5886462926864624e-01" purity="4.8385384678840637e-01" nType="-99"/>
          <Node pos="r" depth="2" NCoef="0" IVar="-1" Cut="0.0000000000000000e+00" cType="1" res="8.6581718642264605e-04" rms="4.4697317481040955e-01" purity="5.4701071977615356e-01" nType="-99"/>
        </Node>
        <Node pos="r" depth="1" NCoef="0" IVar="-1" Cut="0.0000000000000000e+00" cType="1" res="6.5955083118751645e-04" rms="4.4097834825515747e-01" purity="7.0817661285400391e-01" nType="-99"/>
      </Node>
    </BinaryTree>
    <BinaryTree type="DecisionTree" boostWeight="1.0000000000000000e+00" itree="942">
      <Node pos="s" depth="0" NCoef="0" IVar="0" Cut="1.8237588927149773e-02" cType="1" res="5.8891088701784611e-03" rms="4.5905074477195740e-01" purity="5.0320297479629517e-01" nType="0">
        <Node pos="l" depth="1" NCoef="0" IVar="-1" Cut="0.0000000000000000e+00" cType="1" res="-8.7937229545786977e-04" rms="4.6883949637413025e-01" purity="4.6367800235748291e-01" nType="-99"/>
        <Node pos="r" depth="1" NCoef="0" IVar="3" Cut="1.7837004363536835e-01" cType="1" res="9.2871645465493202e-03" rms="4.5816251635551453e-01" purity="5.0598359107971191e-01" nType="0">
          <Node pos="l" depth="2" NCoef="0" IVar="-1" Cut="0.0000000000000000e+00" cType="1" res="1.0293245577486232e-04" rms="4.5726132392883301e-01" purity="4.9561056494712830e-01" nType="-99"/>
          <Node pos="r" depth="2" NCoef="0" IVar="-1" Cut="0.0000000000000000e+00" cType="1" res="5.9067079564556479e-04" rms="4.6284839510917664e-01" purity="5.6899523735046387e-01" nType="-99"/>
        </Node>
      </Node>
    </BinaryTree>
    <BinaryTree type="DecisionTree" boostWeight="1.0000000000000000e+00" itree="943">
      <Node pos="s" depth="0" NCoef="0" IVar="1" Cut="9.2256528139114380e-01" cType="1" res="3.2714309636503458e-03" rms="4.5835086703300476e-01" purity="5.0120669603347778e-01" nType="0">
        <Node pos="l" depth="1" NCoef="0" IVar="6" Cut="2.2918109893798828e+00" cType="1" res="-2.4797519668936729e-02" rms="4.4526422023773193e-01" purity="3.2519295811653137e-01" nType="0">
          <Node pos="l" depth="2" NCoef="0" IVar="-1" Cut="0.0000000000000000e+00" cType="1" res="-1.1866199783980846e-03" rms="4.5130959153175354e-01" purity="3.4353610873222351e-01" nType="-99"/>
          <Node pos="r" depth="2" NCoef="0" IVar="-1" Cut="0.0000000000000000e+00" cType="1" res="1.7792011203709990e-04" rms="4.3506327271461487e-01" purity="3.0026435852050781e-01" nType="-99"/>
        </Node>
        <Node pos="r" depth="1" NCoef="0" IVar="6" Cut="1.6323804855346680e+00" cType="1" res="8.1914234906435013e-03" rms="4.6043023467063904e-01" purity="5.3205877542495728e-01" nType="0">
          <Node pos="l" depth="2" NCoef="0" IVar="-1" Cut="0.0000000000000000e+00" cType="1" res="5.9190264437347651e-04" rms="4.3641999363899231e-01" purity="6.4040195941925049e-01" nType="-99"/>
          <Node pos="r" depth="2" NCoef="0" IVar="-1" Cut="0.0000000000000000e+00" cType="1" res="9.9266682809684426e-05" rms="4.6267753839492798e-01" purity="5.2116578817367554e-01" nType="-99"/>
        </Node>
      </Node>
    </BinaryTree>
    <BinaryTree type="DecisionTree" boostWeight="1.0000000000000000e+00" itree="944">
      <Node pos="s" depth="0" NCoef="0" IVar="4" Cut="-5.0434875302016735e-03" cType="1" res="2.5632497272454202e-04" rms="4.5822373032569885e-01" purity="4.9716097116470337e-01" nType="0">
        <Node pos="l" depth="1" NCoef="0" IVar="2" Cut="3.8518673706054688e+02" cType="1" res="1.2080884538590908e-02" rms="4.5599314570426941e-01" purity="5.3014516830444336e-01" nType="0">
          <Node pos="l" depth="2" NCoef="0" IVar="-1" Cut="0.0000000000000000e+00" cType="1" res="-3.5603166907094419e-04" rms="4.4708117842674255e-01" purity="3.4426262974739075e-01" nType="-99"/>
          <Node pos="r" depth="2" NCoef="0" IVar="-1" Cut="0.0000000000000000e+00" cType="1" res="4.0613050805404782e-04" rms="4.6000039577484131e-01" purity="6.2687355279922485e-01" nType="-99"/>
        </Node>
        <Node pos="r" depth="1" NCoef="0" IVar="3" Cut="2.0862048864364624e-01" cType="1" res="-8.4901424124836922e-03" rms="4.5967105031013489e-01" purity="4.7276297211647034e-01" nType="0">
          <Node pos="l" depth="2" NCoef="0" IVar="-1" Cut="0.0000000000000000e+00" cType="1" res="-3.3108377829194069e-04" rms="4.5902374386787415e-01" purity="4.5208278298377991e-01" nType="-99"/>
          <Node pos="r" depth="2" NCoef="0" IVar="-1" Cut="0.0000000000000000e+00" cType="1" res="4.5613935799337924e-04" rms="4.6117240190505981e-01" purity="5.7125049829483032e-01" nType="-99"/>
        </Node>
      </Node>
    </BinaryTree>
    <BinaryTree type="DecisionTree" boostWeight="1.0000000000000000e+00" itree="945">
      <Node pos="s" depth="0" NCoef="0" IVar="6" Cut="1.5960437059402466e+00" cType="1" res="3.7273480556905270e-03" rms="4.5862728357315063e-01" purity="5.0055086612701416e-01" nType="0">
        <Node pos="l" depth="1" NCoef="0" IVar="-1" Cut="0.0000000000000000e+00" cType="1" res="6.1723362887278199e-04" rms="4.3835347890853882e-01" purity="6.1534744501113892e-01" nType="-99"/>
        <Node pos="r" depth="1" NCoef="0" IVar="0" Cut="1.3878536224365234e-01" cType="1" res="8.3008524961769581e-04" rms="4.6019291877746582e-01" purity="4.9079343676567078e-01" nType="0">
          <Node pos="l" depth="2" NCoef="0" IVar="-1" Cut="0.0000000000000000e+00" cType="1" res="-8.2886261225212365e-05" rms="4.6203225851058960e-01" purity="4.8403951525688171e-01" nType="-99"/>
          <Node pos="r" depth="2" NCoef="0" IVar="-1" Cut="0.0000000000000000e+00" cType="1" res="3.2394047593697906e-04" rms="4.5370033383369446e-01" purity="5.1302558183670044e-01" nType="-99"/>
        </Node>
      </Node>
    </BinaryTree>
    <BinaryTree type="DecisionTree" boostWeight="1.0000000000000000e+00" itree="946">
      <Node pos="s" depth="0" NCoef="0" IVar="3" Cut="2.3657062649726868e-01" cType="1" res="3.7818069104105234e-03" rms="4.5749452710151672e-01" purity="5.0203567743301392e-01" nType="0">
        <Node pos="l" depth="1" NCoef="0" IVar="4" Cut="-2.3762710392475128e-02" cType="1" res="7.7508733374997973e-04" rms="4.5688828825950623e-01" purity="4.9634590744972229e-01" nType="0">
          <Node pos="l" depth="2" NCoef="0" IVar="-1" Cut="0.0000000000000000e+00" cType="1" res="2.8804317116737366e-04" rms="4.5351913571357727e-01" purity="5.3825169801712036e-01" nType="-99"/>
          <Node pos="r" depth="2" NCoef="0" IVar="-1" Cut="0.0000000000000000e+00" cType="1" res="-1.4739134348928928e-04" rms="4.5848920941352844e-01" purity="4.7377419471740723e-01" nType="-99"/>
        </Node>
        <Node pos="r" depth="1" NCoef="0" IVar="-1" Cut="0.0000000000000000e+00" cType="1" res="8.1348937237635255e-04" rms="4.6412196755409241e-01" purity="5.8661800622940063e-01" nType="-99"/>
      </Node>
    </BinaryTree>
    <BinaryTree type="DecisionTree" boostWeight="1.0000000000000000e+00" itree="947">
      <Node pos="s" depth="0" NCoef="0" IVar="1" Cut="9.2786663770675659e-01" cType="1" res="-1.5032296068966389e-03" rms="4.5703738927841187e-01" purity="4.9713578820228577e-01" nType="0">
        <Node pos="l" depth="1" NCoef="0" IVar="3" Cut="-4.4645573943853378e-02" cType="1" res="-2.4823470041155815e-02" rms="4.4776070117950439e-01" purity="3.3181419968605042e-01" nType="0">
          <Node pos="l" depth="2" NCoef="0" IVar="-1" Cut="0.0000000000000000e+00" cType="1" res="-5.1617276767501608e-05" rms="4.4251084327697754e-01" purity="3.2072886824607849e-01" nType="-99"/>
          <Node pos="r" depth="2" NCoef="0" IVar="-1" Cut="0.0000000000000000e+00" cType="1" res="-9.5425738254562020e-04" rms="4.5008280873298645e-01" purity="3.3780589699745178e-01" nType="-99"/>
        </Node>
        <Node pos="r" depth="1" NCoef="0" IVar="3" Cut="8.8389508426189423e-02" cType="1" res="4.1047860868275166e-03" rms="4.5906361937522888e-01" purity="5.3689211606979370e-01" nType="0">
          <Node pos="l" depth="2" NCoef="0" IVar="-1" Cut="0.0000000000000000e+00" cType="1" res="-9.0114357590209693e-05" rms="4.5698070526123047e-01" purity="5.1562863588333130e-01" nType="-99"/>
          <Node pos="r" depth="2" NCoef="0" IVar="-1" Cut="0.0000000000000000e+00" cType="1" res="4.0423078462481499e-04" rms="4.6302172541618347e-01" purity="5.8370244503021240e-01" nType="-99"/>
        </Node>
      </Node>
    </BinaryTree>
    <BinaryTree type="DecisionTree" boostWeight="1.0000000000000000e+00" itree="948">
      <Node pos="s" depth="0" NCoef="0" IVar="0" Cut="2.8330303728580475e-02" cType="1" res="1.3861889019608498e-03" rms="4.5842638611793518e-01" purity="4.9793627858161926e-01" nType="0">
        <Node pos="l" depth="1" NCoef="0" IVar="3" Cut="4.6308305114507675e-02" cType="1" res="-2.1986735984683037e-02" rms="4.6646350622177124e-01" purity="4.8109704256057739e-01" nType="0">
          <Node pos="l" depth="2" NCoef="0" IVar="-1" Cut="0.0000000000000000e+00" cType="1" res="-9.6482277149334550e-04" rms="4.6253246068954468e-01" purity="4.2425283789634705e-01" nType="-99"/>
          <Node pos="r" depth="2" NCoef="0" IVar="-1" Cut="0.0000000000000000e+00" cType="1" res="2.7082245651399717e-05" rms="4.6958366036415100e-01" purity="5.4302352666854858e-01" nType="-99"/>
        </Node>
        <Node pos="r" depth="1" NCoef="0" IVar="2" Cut="3.6817962646484375e+02" cType="1" res="5.1078456453979015e-03" rms="4.5702329277992249e-01" purity="5.0061756372451782e-01" nType="0">
          <Node pos="l" depth="2" NCoef="0" IVar="-1" Cut="0.0000000000000000e+00" cType="1" res="-5.2299327217042446e-04" rms="4.3108338117599487e-01" purity="3.0696254968643188e-01" nType="-99"/>
          <Node pos="r" depth="2" NCoef="0" IVar="-1" Cut="0.0000000000000000e+00" cType="1" res="2.3588517797179520e-04" rms="4.6621814370155334e-01" purity="5.7426089048385620e-01" nType="-99"/>
        </Node>
      </Node>
    </BinaryTree>
    <BinaryTree type="DecisionTree" boostWeight="1.0000000000000000e+00" itree="949">
      <Node pos="s" depth="0" NCoef="0" IVar="6" Cut="1.9625765085220337e+00" cType="1" res="1.0668197646737099e-03" rms="4.5642805099487305e-01" purity="4.9995487928390503e-01" nType="0">
        <Node pos="l" depth="1" NCoef="0" IVar="1" Cut="9.4919055700302124e-01" cType="1" res="2.2790338844060898e-02" rms="4.5355540513992310e-01" purity="5.7616174221038818e-01" nType="0">
          <Node pos="l" depth="2" NCoef="0" IVar="-1" Cut="0.0000000000000000e+00" cType="1" res="-2.2240895486902446e-04" rms="4.7010770440101624e-01" purity="4.3408960103988647e-01" nType="-99"/>
          <Node pos="r" depth="2" NCoef="0" IVar="-1" Cut="0.0000000000000000e+00" cType="1" res="7.4617465725168586e-04" rms="4.3910974264144897e-01" purity="6.8223166465759277e-01" nType="-99"/>
        </Node>
        <Node pos="r" depth="1" NCoef="0" IVar="3" Cut="1.7796798050403595e-01" cType="1" res="-5.0829988904297352e-03" rms="4.5705053210258484e-01" purity="4.7838109731674194e-01" nType="0">
          <Node pos="l" depth="2" NCoef="0" IVar="-1" Cut="0.0000000000000000e+00" cType="1" res="-1.8493844254408032e-04" rms="4.5565479993820190e-01" purity="4.6825596690177917e-01" nType="-99"/>
          <Node pos="r" depth="2" NCoef="0" IVar="-1" Cut="0.0000000000000000e+00" cType="1" res="3.8788488018326461e-04" rms="4.6560236811637878e-01" purity="5.4768025875091553e-01" nType="-99"/>
        </Node>
      </Node>
    </BinaryTree>
    <BinaryTree type="DecisionTree" boostWeight="1.0000000000000000e+00" itree="950">
      <Node pos="s" depth="0" NCoef="0" IVar="3" Cut="1.4653648436069489e-01" cType="1" res="3.0024882871657610e-03" rms="4.6010172367095947e-01" purity="4.9779006838798523e-01" nType="0">
        <Node pos="l" depth="1" NCoef="0" IVar="4" Cut="1.3836167752742767e-01" cType="1" res="-2.4031046777963638e-03" rms="4.5819374918937683e-01" purity="4.8395273089408875e-01" nType="0">
          <Node pos="l" depth="2" NCoef="0" IVar="-1" Cut="0.0000000000000000e+00" cType="1" res="1.8359414752922021e-05" rms="4.5928728580474854e-01" purity="4.9378621578216553e-01" nType="-99"/>
          <Node pos="r" depth="2" NCoef="0" IVar="-1" Cut="0.0000000000000000e+00" cType="1" res="-1.0345713235437870e-03" rms="4.4358482956886292e-01" purity="3.7062266469001770e-01" nType="-99"/>
        </Node>
        <Node pos="r" depth="1" NCoef="0" IVar="3" Cut="2.3624931275844574e-01" cType="1" res="2.4587083607912064e-02" rms="4.6701940894126892e-01" purity="5.5304276943206787e-01" nType="0">
          <Node pos="l" depth="2" NCoef="0" IVar="-1" Cut="0.0000000000000000e+00" cType="1" res="2.7802144177258015e-04" rms="4.6713221073150635e-01" purity="5.3924387693405151e-01" nType="-99"/>
          <Node pos="r" depth="2" NCoef="0" IVar="-1" Cut="0.0000000000000000e+00" cType="1" res="7.5682887108996511e-04" rms="4.6613082289695740e-01" purity="5.8320415019989014e-01" nType="-99"/>
        </Node>
      </Node>
    </BinaryTree>
    <BinaryTree type="DecisionTree" boostWeight="1.0000000000000000e+00" itree="951">
      <Node pos="s" depth="0" NCoef="0" IVar="5" Cut="2.1578092956542969e+02" cType="1" res="2.4743200629018247e-04" rms="4.5802894234657288e-01" purity="4.9742397665977478e-01" nType="0">
        <Node pos="l" depth="1" NCoef="0" IVar="6" Cut="2.1956129074096680e+00" cType="1" res="-3.3140741288661957e-02" rms="4.1118478775024414e-01" purity="2.6314803957939148e-01" nType="0">
          <Node pos="l" depth="2" NCoef="0" IVar="-1" Cut="0.0000000000000000e+00" cType="1" res="-2.0187178160995245e-03" rms="4.1967397928237915e-01" purity="2.7593499422073364e-01" nType="-99"/>
          <Node pos="r" depth="2" NCoef="0" IVar="-1" Cut="0.0000000000000000e+00" cType="1" res="-2.8309741173870862e-04" rms="4.0232387185096741e-01" purity="2.5268751382827759e-01" nType="-99"/>
        </Node>
        <Node pos="r" depth="1" NCoef="0" IVar="4" Cut="1.7021630704402924e-01" cType="1" res="4.6066585928201675e-03" rms="4.6361851692199707e-01" purity="5.2801150083541870e-01" nType="0">
          <Node pos="l" depth="2" NCoef="0" IVar="-1" Cut="0.0000000000000000e+00" cType="1" res="1.4286985970102251e-04" rms="4.6399632096290588e-01" purity="5.3478282690048218e-01" nType="-99"/>
          <Node pos="r" depth="2" NCoef="0" IVar="-1" Cut="0.0000000000000000e+00" cType="1" res="-9.7318162443116307e-04" rms="4.5518496632575989e-01" purity="4.2641577124595642e-01" nType="-99"/>
        </Node>
      </Node>
    </BinaryTree>
    <BinaryTree type="DecisionTree" boostWeight="1.0000000000000000e+00" itree="952">
      <Node pos="s" depth="0" NCoef="0" IVar="2" Cut="6.0656018066406250e+02" cType="1" res="4.6963505446910858e-03" rms="4.5825117826461792e-01" purity="5.0203913450241089e-01" nType="0">
        <Node pos="l" depth="1" NCoef="0" IVar="0" Cut="1.4549602568149567e-01" cType="1" res="-4.9290200695395470e-04" rms="4.5995011925697327e-01" purity="4.6200004220008850e-01" nType="0">
          <Node pos="l" depth="2" NCoef="0" IVar="-1" Cut="0.0000000000000000e+00" cType="1" res="-1.3309928181115538e-04" rms="4.6104973554611206e-01" purity="4.4906058907508850e-01" nType="-99"/>
          <Node pos="r" depth="2" NCoef="0" IVar="-1" Cut="0.0000000000000000e+00" cType="1" res="3.3233937574550509e-04" rms="4.5609405636787415e-01" purity="5.0166338682174683e-01" nType="-99"/>
        </Node>
        <Node pos="r" depth="1" NCoef="0" IVar="0" Cut="4.1365928947925568e-02" cType="1" res="2.7453510090708733e-02" rms="4.5001882314682007e-01" purity="6.7762815952301025e-01" nType="0">
          <Node pos="l" depth="2" NCoef="0" IVar="-1" Cut="0.0000000000000000e+00" cType="1" res="1.0802490578498691e-04" rms="4.7063016891479492e-01" purity="6.2306421995162964e-01" nType="-99"/>
          <Node pos="r" depth="2" NCoef="0" IVar="-1" Cut="0.0000000000000000e+00" cType="1" res="6.8912055576220155e-04" rms="4.3129450082778931e-01" purity="7.2317534685134888e-01" nType="-99"/>
        </Node>
      </Node>
    </BinaryTree>
    <BinaryTree type="DecisionTree" boostWeight="1.0000000000000000e+00" itree="953">
      <Node pos="s" depth="0" NCoef="0" IVar="5" Cut="1.9632876586914062e+02" cType="1" res="2.0647365599870682e-03" rms="4.5758014917373657e-01" purity="4.9979740381240845e-01" nType="0">
        <Node pos="l" depth="1" NCoef="0" IVar="-1" Cut="0.0000000000000000e+00" cType="1" res="-1.6917198663577437e-03" rms="3.9019760489463806e-01" purity="2.3545932769775391e-01" nType="-99"/>
        <Node pos="r" depth="1" NCoef="0" IVar="0" Cut="1.8790262937545776e-01" cType="1" res="4.7929477877914906e-03" rms="4.6105530858039856e-01" purity="5.1519536972045898e-01" nType="0">
          <Node pos="l" depth="2" NCoef="0" IVar="-1" Cut="0.0000000000000000e+00" cType="1" res="1.8581184122012928e-05" rms="4.6129351854324341e-01" purity="5.1105642318725586e-01" nType="-99"/>
          <Node pos="r" depth="2" NCoef="0" IVar="-1" Cut="0.0000000000000000e+00" cType="1" res="6.4668647246435285e-04" rms="4.5780110359191895e-01" purity="5.4990571737289429e-01" nType="-99"/>
        </Node>
      </Node>
    </BinaryTree>
    <BinaryTree type="DecisionTree" boostWeight="1.0000000000000000e+00" itree="954">
      <Node pos="s" depth="0" NCoef="0" IVar="2" Cut="6.4911511230468750e+02" cType="1" res="2.2738531697541475e-04" rms="4.5648670196533203e-01" purity="4.9889868497848511e-01" nType="0">
        <Node pos="l" depth="1" NCoef="0" IVar="3" Cut="2.7539832517504692e-02" cType="1" res="-4.4598397798836231e-03" rms="4.5771995186805725e-01" purity="4.6783396601676941e-01" nType="0">
          <Node pos="l" depth="2" NCoef="0" IVar="-1" Cut="0.0000000000000000e+00" cType="1" res="-3.5325455246493220e-04" rms="4.5175501704216003e-01" purity="4.3390646576881409e-01" nType="-99"/>
          <Node pos="r" depth="2" NCoef="0" IVar="-1" Cut="0.0000000000000000e+00" cType="1" res="1.7884498811326921e-04" rms="4.6419689059257507e-01" purity="5.0743114948272705e-01" nType="-99"/>
        </Node>
        <Node pos="r" depth="1" NCoef="0" IVar="4" Cut="4.2165845632553101e-02" cType="1" res="2.8275795280933380e-02" rms="4.4801262021064758e-01" purity="6.8479013442993164e-01" nType="0">
          <Node pos="l" depth="2" NCoef="0" IVar="-1" Cut="0.0000000000000000e+00" cType="1" res="7.0572481490671635e-04" rms="4.3408638238906860e-01" purity="7.2937923669815063e-01" nType="-99"/>
          <Node pos="r" depth="2" NCoef="0" IVar="-1" Cut="0.0000000000000000e+00" cType="1" res="1.2121037434553728e-04" rms="4.6239906549453735e-01" purity="6.3425856828689575e-01" nType="-99"/>
        </Node>
      </Node>
    </BinaryTree>
    <BinaryTree type="DecisionTree" boostWeight="1.0000000000000000e+00" itree="955">
      <Node pos="s" depth="0" NCoef="0" IVar="5" Cut="3.9091732788085938e+02" cType="1" res="4.7734570689499378e-03" rms="4.5806512236595154e-01" purity="5.0224864482879639e-01" nType="0">
        <Node pos="l" depth="1" NCoef="0" IVar="6" Cut="2.6216731071472168e+00" cType="1" res="-2.4822498671710491e-03" rms="4.5879817008972168e-01" purity="4.4874194264411926e-01" nType="0">
          <Node pos="l" depth="2" NCoef="0" IVar="-1" Cut="0.0000000000000000e+00" cType="1" res="5.0306203775107861e-05" rms="4.6522921323776245e-01" purity="4.7720688581466675e-01" nType="-99"/>
          <Node pos="r" depth="2" NCoef="0" IVar="-1" Cut="0.0000000000000000e+00" cType="1" res="-1.2414351804181933e-03" rms="4.1237169504165649e-01" purity="2.6108628511428833e-01" nType="-99"/>
        </Node>
        <Node pos="r" depth="1" NCoef="0" IVar="0" Cut="4.1338711977005005e-02" cType="1" res="2.5276035070419312e-02" rms="4.5536291599273682e-01" purity="6.5344357490539551e-01" nType="0">
          <Node pos="l" depth="2" NCoef="0" IVar="-1" Cut="0.0000000000000000e+00" cType="1" res="8.6375548562500626e-05" rms="4.6767210960388184e-01" purity="6.0136830806732178e-01" nType="-99"/>
          <Node pos="r" depth="2" NCoef="0" IVar="-1" Cut="0.0000000000000000e+00" cType="1" res="6.2303355662152171e-04" rms="4.4566872715950012e-01" purity="6.9117641448974609e-01" nType="-99"/>
        </Node>
      </Node>
    </BinaryTree>
    <BinaryTree type="DecisionTree" boostWeight="1.0000000000000000e+00" itree="956">
      <Node pos="s" depth="0" NCoef="0" IVar="0" Cut="1.8650427460670471e-02" cType="1" res="-2.8147641569375992e-04" rms="4.5998707413673401e-01" purity="4.9695798754692078e-01" nType="0">
        <Node pos="l" depth="1" NCoef="0" IVar="-1" Cut="0.0000000000000000e+00" cType="1" res="-8.4620295092463493e-04" rms="4.6823793649673462e-01" purity="4.6309933066368103e-01" nType="-99"/>
        <Node pos="r" depth="1" NCoef="0" IVar="5" Cut="2.4793997192382812e+02" cType="1" res="2.7456395328044891e-03" rms="4.5922034978866577e-01" purity="4.9949190020561218e-01" nType="0">
          <Node pos="l" depth="2" NCoef="0" IVar="-1" Cut="0.0000000000000000e+00" cType="1" res="-5.4658093722537160e-04" rms="4.3603360652923584e-01" purity="3.1828856468200684e-01" nType="-99"/>
          <Node pos="r" depth="2" NCoef="0" IVar="-1" Cut="0.0000000000000000e+00" cType="1" res="1.8232325965072960e-04" rms="4.6677508950233459e-01" purity="5.6253242492675781e-01" nType="-99"/>
        </Node>
      </Node>
    </BinaryTree>
    <BinaryTree type="DecisionTree" boostWeight="1.0000000000000000e+00" itree="957">
      <Node pos="s" depth="0" NCoef="0" IVar="1" Cut="9.8452526330947876e-01" cType="1" res="-5.5044575128704309e-04" rms="4.5894071459770203e-01" purity="4.9564033746719360e-01" nType="0">
        <Node pos="l" depth="1" NCoef="0" IVar="3" Cut="1.7997679114341736e-01" cType="1" res="-4.3109944090247154e-03" rms="4.6548989415168762e-01" purity="4.6198907494544983e-01" nType="0">
          <Node pos="l" depth="2" NCoef="0" IVar="-1" Cut="0.0000000000000000e+00" cType="1" res="-1.5861021529417485e-04" rms="4.6330821514129639e-01" purity="4.5116201043128967e-01" nType="-99"/>
          <Node pos="r" depth="2" NCoef="0" IVar="-1" Cut="0.0000000000000000e+00" cType="1" res="2.8550182469189167e-04" rms="4.7763514518737793e-01" purity="5.2573549747467041e-01" nType="-99"/>
        </Node>
        <Node pos="r" depth="1" NCoef="0" IVar="-1" Cut="0.0000000000000000e+00" cType="1" res="5.1889056339859962e-04" rms="3.9564737677574158e-01" purity="7.8960150480270386e-01" nType="-99"/>
      </Node>
    </BinaryTree>
    <BinaryTree type="DecisionTree" boostWeight="1.0000000000000000e+00" itree="958">
      <Node pos="s" depth="0" NCoef="0" IVar="5" Cut="3.9105654907226562e+02" cType="1" res="4.2400127276778221e-03" rms="4.5886465907096863e-01" purity="5.0193047523498535e-01" nType="0">
        <Node pos="l" depth="1" NCoef="0" IVar="4" Cut="-3.1683465931564569e-03" cType="1" res="-2.4110628291964531e-03" rms="4.5982056856155396e-01" purity="4.4958433508872986e-01" nType="0">
          <Node pos="l" depth="2" NCoef="0" IVar="-1" Cut="0.0000000000000000e+00" cType="1" res="2.0193206728436053e-04" rms="4.6021068096160889e-01" purity="4.8912855982780457e-01" nType="-99"/>
          <Node pos="r" depth="2" NCoef="0" IVar="-1" Cut="0.0000000000000000e+00" cType="1" res="-2.9825069941580296e-04" rms="4.5920395851135254e-01" purity="4.1580352187156677e-01" nType="-99"/>
        </Node>
        <Node pos="r" depth="1" NCoef="0" IVar="0" Cut="3.3103741705417633e-02" cType="1" res="2.3326579481363297e-02" rms="4.5557150244712830e-01" purity="6.5214782953262329e-01" nType="0">
          <Node pos="l" depth="2" NCoef="0" IVar="-1" Cut="0.0000000000000000e+00" cType="1" res="-9.3048365670256317e-05" rms="4.7571811079978943e-01" purity="5.8332628011703491e-01" nType="-99"/>
          <Node pos="r" depth="2" NCoef="0" IVar="-1" Cut="0.0000000000000000e+00" cType="1" res="5.8185565285384655e-04" rms="4.4476148486137390e-01" purity="6.8564033508300781e-01" nType="-99"/>
        </Node>
      </Node>
    </BinaryTree>
    <BinaryTree type="DecisionTree" boostWeight="1.0000000000000000e+00" itree="959">
      <Node pos="s" depth="0" NCoef="0" IVar="1" Cut="9.6629357337951660e-01" cType="1" res="2.8078891336917877e-03" rms="4.5842450857162476e-01" purity="5.0030082464218140e-01" nType="0">
        <Node pos="l" depth="1" NCoef="0" IVar="1" Cut="9.0827268362045288e-01" cType="1" res="-3.0749549623578787e-03" rms="4.6614426374435425e-01" purity="4.2335370182991028e-01" nType="0">
          <Node pos="l" depth="2" NCoef="0" IVar="-1" Cut="0.0000000000000000e+00" cType="1" res="-9.7354804165661335e-04" rms="4.3859109282493591e-01" purity="3.0655613541603088e-01" nType="-99"/>
          <Node pos="r" depth="2" NCoef="0" IVar="-1" Cut="0.0000000000000000e+00" cType="1" res="1.1491760432136289e-07" rms="4.6866142749786377e-01" purity="4.3487375974655151e-01" nType="-99"/>
        </Node>
        <Node pos="r" depth="1" NCoef="0" IVar="2" Cut="5.2763592529296875e+02" cType="1" res="1.6725033521652222e-02" rms="4.3930885195732117e-01" purity="6.8233585357666016e-01" nType="0">
          <Node pos="l" depth="2" NCoef="0" IVar="-1" Cut="0.0000000000000000e+00" cType="1" res="5.7903413107851520e-05" rms="4.5911431312561035e-01" purity="6.2836533784866333e-01" nType="-99"/>
          <Node pos="r" depth="2" NCoef="0" IVar="-1" Cut="0.0000000000000000e+00" cType="1" res="6.9134851219132543e-04" rms="3.9429545402526855e-01" purity="7.9284942150115967e-01" nType="-99"/>
        </Node>
      </Node>
    </BinaryTree>
    <BinaryTree type="DecisionTree" boostWeight="1.0000000000000000e+00" itree="960">
      <Node pos="s" depth="0" NCoef="0" IVar="1" Cut="9.6916955709457397e-01" cType="1" res="1.3082949444651604e-03" rms="4.5797595381736755e-01" purity="4.9811813235282898e-01" nType="0">
        <Node pos="l" depth="1" NCoef="0" IVar="0" Cut="1.8396317958831787e-02" cType="1" res="-5.6276675313711166e-03" rms="4.6544748544692993e-01" purity="4.2789125442504883e-01" nType="0">
          <Node pos="l" depth="2" NCoef="0" IVar="-1" Cut="0.0000000000000000e+00" cType="1" res="-1.1947025777772069e-03" rms="4.7228562831878662e-01" purity="4.0411671996116638e-01" nType="-99"/>
          <Node pos="r" depth="2" NCoef="0" IVar="-1" Cut="0.0000000000000000e+00" cType="1" res="-4.5969438360771164e-05" rms="4.6475765109062195e-01" purity="4.2962041497230530e-01" nType="-99"/>
        </Node>
        <Node pos="r" depth="1" NCoef="0" IVar="5" Cut="3.2115325927734375e+02" cType="1" res="2.1282013505697250e-02" rms="4.3512767553329468e-01" purity="7.0035272836685181e-01" nType="0">
          <Node pos="l" depth="2" NCoef="0" IVar="-1" Cut="0.0000000000000000e+00" cType="1" res="1.3777994900010526e-04" rms="4.6116313338279724e-01" purity="6.3001662492752075e-01" nType="-99"/>
          <Node pos="r" depth="2" NCoef="0" IVar="-1" Cut="0.0000000000000000e+00" cType="1" res="5.4895301582291722e-04" rms="4.0567120909690857e-01" purity="7.7395057678222656e-01" nType="-99"/>
        </Node>
      </Node>
    </BinaryTree>
    <BinaryTree type="DecisionTree" boostWeight="1.0000000000000000e+00" itree="961">
      <Node pos="s" depth="0" NCoef="0" IVar="2" Cut="7.4741174316406250e+02" cType="1" res="-4.5887478627264500e-03" rms="4.5681312680244446e-01" purity="4.9291267991065979e-01" nType="0">
        <Node pos="l" depth="1" NCoef="0" IVar="0" Cut="7.3370479047298431e-02" cType="1" res="-8.4508750587701797e-03" rms="4.5786690711975098e-01" purity="4.7378847002983093e-01" nType="0">
          <Node pos="l" depth="2" NCoef="0" IVar="-1" Cut="0.0000000000000000e+00" cType="1" res="-5.5692496243864298e-04" rms="4.6056506037712097e-01" purity="4.4254142045974731e-01" nType="-99"/>
          <Node pos="r" depth="2" NCoef="0" IVar="-1" Cut="0.0000000000000000e+00" cType="1" res="8.8914704974740744e-05" rms="4.5542541146278381e-01" purity="4.9685710668563843e-01" nType="-99"/>
        </Node>
        <Node pos="r" depth="1" NCoef="0" IVar="-1" Cut="0.0000000000000000e+00" cType="1" res="6.0162099543958902e-04" rms="4.4259196519851685e-01" purity="7.0647895336151123e-01" nType="-99"/>
      </Node>
    </BinaryTree>
    <BinaryTree type="DecisionTree" boostWeight="1.0000000000000000e+00" itree="962">
      <Node pos="s" depth="0" NCoef="0" IVar="3" Cut="2.3066502809524536e-01" cType="1" res="-1.7627103952690959e-03" rms="4.5979204773902893e-01" purity="4.9320271611213684e-01" nType="0">
        <Node pos="l" depth="1" NCoef="0" IVar="4" Cut="9.6983328461647034e-02" cType="1" res="-4.5524211600422859e-03" rms="4.5961469411849976e-01" purity="4.8672753572463989e-01" nType="0">
          <Node pos="l" depth="2" NCoef="0" IVar="-1" Cut="0.0000000000000000e+00" cType="1" res="-4.7701159928692505e-06" rms="4.6048641204833984e-01" purity="5.0149005651473999e-01" nType="-99"/>
          <Node pos="r" depth="2" NCoef="0" IVar="-1" Cut="0.0000000000000000e+00" cType="1" res="-6.6862796666100621e-04" rms="4.5392709970474243e-01" purity="4.0378198027610779e-01" nType="-99"/>
        </Node>
        <Node pos="r" depth="1" NCoef="0" IVar="-1" Cut="0.0000000000000000e+00" cType="1" res="5.9723126469179988e-04" rms="4.6053987741470337e-01" purity="5.7936823368072510e-01" nType="-99"/>
      </Node>
    </BinaryTree>
    <BinaryTree type="DecisionTree" boostWeight="1.0000000000000000e+00" itree="963">
      <Node pos="s" depth="0" NCoef="0" IVar="5" Cut="3.3757977294921875e+02" cType="1" res="1.0489883134141564e-03" rms="4.5750874280929565e-01" purity="4.9875032901763916e-01" nType="0">
        <Node pos="l" depth="1" NCoef="0" IVar="4" Cut="9.6695944666862488e-03" cType="1" res="-8.5344351828098297e-03" rms="4.5748189091682434e-01" purity="4.1463753581047058e-01" nType="0">
          <Node pos="l" depth="2" NCoef="0" IVar="-1" Cut="0.0000000000000000e+00" cType="1" res="5.8901537158817519e-06" rms="4.6389961242675781e-01" purity="4.4498324394226074e-01" nType="-99"/>
          <Node pos="r" depth="2" NCoef="0" IVar="-1" Cut="0.0000000000000000e+00" cType="1" res="-4.4405731023289263e-04" rms="4.4996628165245056e-01" purity="3.8058739900588989e-01" nType="-99"/>
        </Node>
        <Node pos="r" depth="1" NCoef="0" IVar="0" Cut="6.6041201353073120e-02" cType="1" res="1.5583620406687260e-02" rms="4.5716625452041626e-01" purity="6.2631946802139282e-01" nType="0">
          <Node pos="l" depth="2" NCoef="0" IVar="-1" Cut="0.0000000000000000e+00" cType="1" res="-1.7349864720017649e-05" rms="4.6992334723472595e-01" purity="5.8173036575317383e-01" nType="-99"/>
          <Node pos="r" depth="2" NCoef="0" IVar="-1" Cut="0.0000000000000000e+00" cType="1" res="5.6286336621269584e-04" rms="4.4000980257987976e-01" purity="6.8147575855255127e-01" nType="-99"/>
        </Node>
      </Node>
    </BinaryTree>
    <BinaryTree type="DecisionTree" boostWeight="1.0000000000000000e+00" itree="964">
      <Node pos="s" depth="0" NCoef="0" IVar="1" Cut="9.8440772294998169e-01" cType="1" res="5.3684477461501956e-04" rms="4.5695829391479492e-01" purity="4.9929648637771606e-01" nType="0">
        <Node pos="l" depth="1" NCoef="0" IVar="4" Cut="-1.4098814688622952e-02" cType="1" res="-4.1828444227576256e-03" rms="4.6394750475883484e-01" purity="4.6385720372200012e-01" nType="0">
          <Node pos="l" depth="2" NCoef="0" IVar="-1" Cut="0.0000000000000000e+00" cType="1" res="1.6932537255343050e-04" rms="4.6391782164573669e-01" purity="4.9726894497871399e-01" nType="-99"/>
          <Node pos="r" depth="2" NCoef="0" IVar="-1" Cut="0.0000000000000000e+00" cType="1" res="-2.5248946622014046e-04" rms="4.6378332376480103e-01" purity="4.4368642568588257e-01" nType="-99"/>
        </Node>
        <Node pos="r" depth="1" NCoef="0" IVar="-1" Cut="0.0000000000000000e+00" cType="1" res="6.2813062686473131e-04" rms="3.9143073558807373e-01" purity="7.9578524827957153e-01" nType="-99"/>
      </Node>
    </BinaryTree>
    <BinaryTree type="DecisionTree" boostWeight="1.0000000000000000e+00" itree="965">
      <Node pos="s" depth="0" NCoef="0" IVar="1" Cut="9.4295406341552734e-01" cType="1" res="-2.3080802056938410e-03" rms="4.5965346693992615e-01" purity="4.9469587206840515e-01" nType="0">
        <Node pos="l" depth="1" NCoef="0" IVar="6" Cut="2.4824893474578857e+00" cType="1" res="-1.6660725697875023e-02" rms="4.5747384428977966e-01" purity="3.6155304312705994e-01" nType="0">
          <Node pos="l" depth="2" NCoef="0" IVar="-1" Cut="0.0000000000000000e+00" cType="1" res="-5.5652693845331669e-04" rms="4.6532043814659119e-01" purity="3.8538193702697754e-01" nType="-99"/>
          <Node pos="r" depth="2" NCoef="0" IVar="-1" Cut="0.0000000000000000e+00" cType="1" res="3.2900326186791062e-04" rms="4.2930853366851807e-01" purity="2.8235188126564026e-01" nType="-99"/>
        </Node>
        <Node pos="r" depth="1" NCoef="0" IVar="0" Cut="1.9595853984355927e-01" cType="1" res="5.7448032312095165e-03" rms="4.6067610383033752e-01" purity="5.6939864158630371e-01" nType="0">
          <Node pos="l" depth="2" NCoef="0" IVar="-1" Cut="0.0000000000000000e+00" cType="1" res="3.1903353374218568e-05" rms="4.6108627319335938e-01" purity="5.6584423780441284e-01" nType="-99"/>
          <Node pos="r" depth="2" NCoef="0" IVar="-1" Cut="0.0000000000000000e+00" cType="1" res="6.7731714807450771e-04" rms="4.5559468865394592e-01" purity="6.0061460733413696e-01" nType="-99"/>
        </Node>
      </Node>
    </BinaryTree>
    <BinaryTree type="DecisionTree" boostWeight="1.0000000000000000e+00" itree="966">
      <Node pos="s" depth="0" NCoef="0" IVar="0" Cut="3.7100300192832947e-02" cType="1" res="-1.6518298070877790e-03" rms="4.5885539054870605e-01" purity="4.9444681406021118e-01" nType="0">
        <Node pos="l" depth="1" NCoef="0" IVar="3" Cut="1.3313460350036621e-01" cType="1" res="-2.7876861393451691e-02" rms="4.6356114745140076e-01" purity="4.7064688801765442e-01" nType="0">
          <Node pos="l" depth="2" NCoef="0" IVar="-1" Cut="0.0000000000000000e+00" cType="1" res="-1.0391857940703630e-03" rms="4.5613771677017212e-01" purity="4.3011581897735596e-01" nType="-99"/>
          <Node pos="r" depth="2" NCoef="0" IVar="-1" Cut="0.0000000000000000e+00" cType="1" res="2.6184250600636005e-04" rms="4.7640016674995422e-01" purity="5.5799549818038940e-01" nType="-99"/>
        </Node>
        <Node pos="r" depth="1" NCoef="0" IVar="4" Cut="7.2062239050865173e-03" cType="1" res="4.8928377218544483e-03" rms="4.5743912458419800e-01" purity="5.0038629770278931e-01" nType="0">
          <Node pos="l" depth="2" NCoef="0" IVar="-1" Cut="0.0000000000000000e+00" cType="1" res="3.2458570785820484e-04" rms="4.5695668458938599e-01" purity="5.2864348888397217e-01" nType="-99"/>
          <Node pos="r" depth="2" NCoef="0" IVar="-1" Cut="0.0000000000000000e+00" cType="1" res="-2.1619912877213210e-04" rms="4.5755651593208313e-01" purity="4.6595877408981323e-01" nType="-99"/>
        </Node>
      </Node>
    </BinaryTree>
    <BinaryTree type="DecisionTree" boostWeight="1.0000000000000000e+00" itree="967">
      <Node pos="s" depth="0" NCoef="0" IVar="3" Cut="2.3726741969585419e-01" cType="1" res="3.1966769602149725e-03" rms="4.5862278342247009e-01" purity="5.0085425376892090e-01" nType="0">
        <Node pos="l" depth="1" NCoef="0" IVar="1" Cut="9.6045851707458496e-01" cType="1" res="5.5648206034675241e-04" rms="4.5789483189582825e-01" purity="4.9572995305061340e-01" nType="0">
          <Node pos="l" depth="2" NCoef="0" IVar="-1" Cut="0.0000000000000000e+00" cType="1" res="-1.5468976926058531e-04" rms="4.6308851242065430e-01" purity="4.0458589792251587e-01" nType="-99"/>
          <Node pos="r" depth="2" NCoef="0" IVar="-1" Cut="0.0000000000000000e+00" cType="1" res="2.1412422938738018e-04" rms="4.4878852367401123e-01" purity="6.4826476573944092e-01" nType="-99"/>
        </Node>
        <Node pos="r" depth="1" NCoef="0" IVar="-1" Cut="0.0000000000000000e+00" cType="1" res="7.5714604463428259e-04" rms="4.6790412068367004e-01" purity="5.8075296878814697e-01" nType="-99"/>
      </Node>
    </BinaryTree>
    <BinaryTree type="DecisionTree" boostWeight="1.0000000000000000e+00" itree="968">
      <Node pos="s" depth="0" NCoef="0" IVar="1" Cut="9.8412138223648071e-01" cType="1" res="9.0221324935555458e-03" rms="4.5903828740119934e-01" purity="5.0647741556167603e-01" nType="0">
        <Node pos="l" depth="1" NCoef="0" IVar="6" Cut="1.5492286682128906e+00" cType="1" res="5.6369770318269730e-03" rms="4.6651190519332886e-01" purity="4.7111615538597107e-01" nType="0">
          <Node pos="l" depth="2" NCoef="0" IVar="-1" Cut="0.0000000000000000e+00" cType="1" res="6.7309726728126407e-04" rms="4.5752409100532532e-01" purity="5.8723503351211548e-01" nType="-99"/>
          <Node pos="r" depth="2" NCoef="0" IVar="-1" Cut="0.0000000000000000e+00" cType="1" res="6.1162150814197958e-05" rms="4.6705043315887451e-01" purity="4.6270316839218140e-01" nType="-99"/>
        </Node>
        <Node pos="r" depth="1" NCoef="0" IVar="-1" Cut="0.0000000000000000e+00" cType="1" res="5.7911023031920195e-04" rms="3.9207810163497925e-01" purity="7.9348427057266235e-01" nType="-99"/>
      </Node>
    </BinaryTree>
    <BinaryTree type="DecisionTree" boostWeight="1.0000000000000000e+00" itree="969">
      <Node pos="s" depth="0" NCoef="0" IVar="3" Cut="1.7730283737182617e-01" cType="1" res="2.8422542382031679e-03" rms="4.5835927128791809e-01" purity="5.0064748525619507e-01" nType="0">
        <Node pos="l" depth="1" NCoef="0" IVar="1" Cut="9.2836225032806396e-01" cType="1" res="-2.9869603458791971e-03" rms="4.5675206184387207e-01" purity="4.8810669779777527e-01" nType="0">
          <Node pos="l" depth="2" NCoef="0" IVar="-1" Cut="0.0000000000000000e+00" cType="1" res="-8.5412093903869390e-04" rms="4.4043451547622681e-01" purity="3.1868398189544678e-01" nType="-99"/>
          <Node pos="r" depth="2" NCoef="0" IVar="-1" Cut="0.0000000000000000e+00" cType="1" res="7.1399539592675865e-05" rms="4.6037709712982178e-01" purity="5.2933919429779053e-01" nType="-99"/>
        </Node>
        <Node pos="r" depth="1" NCoef="0" IVar="0" Cut="6.3403822481632233e-02" cType="1" res="3.4974195063114166e-02" rms="4.6581196784973145e-01" purity="5.6977528333663940e-01" nType="0">
          <Node pos="l" depth="2" NCoef="0" IVar="-1" Cut="0.0000000000000000e+00" cType="1" res="9.3900813953951001e-04" rms="4.6967592835426331e-01" purity="5.9476310014724731e-01" nType="-99"/>
          <Node pos="r" depth="2" NCoef="0" IVar="-1" Cut="0.0000000000000000e+00" cType="1" res="7.8229219070635736e-05" rms="4.5837223529815674e-01" purity="5.3323107957839966e-01" nType="-99"/>
        </Node>
      </Node>
    </BinaryTree>
    <BinaryTree type="DecisionTree" boostWeight="1.0000000000000000e+00" itree="970">
      <Node pos="s" depth="0" NCoef="0" IVar="1" Cut="9.6941250562667847e-01" cType="1" res="-1.4610354555770755e-03" rms="4.5558065176010132e-01" purity="4.9844646453857422e-01" nType="0">
        <Node pos="l" depth="1" NCoef="0" IVar="0" Cut="1.8526023253798485e-02" cType="1" res="-9.3214595690369606e-03" rms="4.6289470791816711e-01" purity="4.2623314261436462e-01" nType="0">
          <Node pos="l" depth="2" NCoef="0" IVar="-1" Cut="0.0000000000000000e+00" cType="1" res="-1.1669365921989083e-03" rms="4.7136047482490540e-01" purity="4.0509903430938721e-01" nType="-99"/>
          <Node pos="r" depth="2" NCoef="0" IVar="-1" Cut="0.0000000000000000e+00" cType="1" res="-1.2553061242215335e-04" rms="4.6205258369445801e-01" purity="4.2789864540100098e-01" nType="-99"/>
        </Node>
        <Node pos="r" depth="1" NCoef="0" IVar="2" Cut="4.6545907592773438e+02" cType="1" res="2.0785570144653320e-02" rms="4.3344122171401978e-01" purity="7.0282500982284546e-01" nType="0">
          <Node pos="l" depth="2" NCoef="0" IVar="-1" Cut="0.0000000000000000e+00" cType="1" res="1.0332631063647568e-05" rms="4.6585500240325928e-01" purity="6.2199008464813232e-01" nType="-99"/>
          <Node pos="r" depth="2" NCoef="0" IVar="-1" Cut="0.0000000000000000e+00" cType="1" res="6.7282910458743572e-04" rms="3.9398992061614990e-01" purity="7.9078882932662964e-01" nType="-99"/>
        </Node>
      </Node>
    </BinaryTree>
    <BinaryTree type="DecisionTree" boostWeight="1.0000000000000000e+00" itree="971">
      <Node pos="s" depth="0" NCoef="0" IVar="6" Cut="1.5305627584457397e+00" cType="1" res="5.1664077909663320e-04" rms="4.5689073204994202e-01" purity="4.9874272942543030e-01" nType="0">
        <Node pos="l" depth="1" NCoef="0" IVar="-1" Cut="0.0000000000000000e+00" cType="1" res="6.9061439717188478e-04" rms="4.3937736749649048e-01" purity="6.2439262866973877e-01" nType="-99"/>
        <Node pos="r" depth="1" NCoef="0" IVar="1" Cut="9.6939039230346680e-01" cType="1" res="-2.4665109813213348e-03" rms="4.5796430110931396e-01" purity="4.8980772495269775e-01" nType="0">
          <Node pos="l" depth="2" NCoef="0" IVar="-1" Cut="0.0000000000000000e+00" cType="1" res="-1.7998619296122342e-04" rms="4.6511608362197876e-01" purity="4.1940698027610779e-01" nType="-99"/>
          <Node pos="r" depth="2" NCoef="0" IVar="-1" Cut="0.0000000000000000e+00" cType="1" res="2.3307641095016152e-04" rms="4.3624153733253479e-01" purity="6.9282126426696777e-01" nType="-99"/>
        </Node>
      </Node>
    </BinaryTree>
    <BinaryTree type="DecisionTree" boostWeight="1.0000000000000000e+00" itree="972">
      <Node pos="s" depth="0" NCoef="0" IVar="6" Cut="1.5305627584457397e+00" cType="1" res="2.0763298962265253e-03" rms="4.5817053318023682e-01" purity="4.9959358572959900e-01" nType="0">
        <Node pos="l" depth="1" NCoef="0" IVar="-1" Cut="0.0000000000000000e+00" cType="1" res="7.2272651595994830e-04" rms="4.3728744983673096e-01" purity="6.3195514678955078e-01" nType="-99"/>
        <Node pos="r" depth="1" NCoef="0" IVar="1" Cut="9.8144096136093140e-01" cType="1" res="-9.0329046361148357e-04" rms="4.5947051048278809e-01" purity="4.9020153284072876e-01" nType="0">
          <Node pos="l" depth="2" NCoef="0" IVar="-1" Cut="0.0000000000000000e+00" cType="1" res="-1.0502083023311570e-04" rms="4.6643108129501343e-01" purity="4.4835612177848816e-01" nType="-99"/>
          <Node pos="r" depth="2" NCoef="0" IVar="-1" Cut="0.0000000000000000e+00" cType="1" res="4.2806024430319667e-04" rms="4.0941715240478516e-01" purity="7.6673972606658936e-01" nType="-99"/>
        </Node>
      </Node>
    </BinaryTree>
    <BinaryTree type="DecisionTree" boostWeight="1.0000000000000000e+00" itree="973">
      <Node pos="s" depth="0" NCoef="0" IVar="3" Cut="1.3130062818527222e-01" cType="1" res="6.1648320406675339e-03" rms="4.5908868312835693e-01" purity="5.0262010097503662e-01" nType="0">
        <Node pos="l" depth="1" NCoef="0" IVar="0" Cut="9.3286633491516113e-02" cType="1" res="-1.0569813894107938e-03" rms="4.5716953277587891e-01" purity="4.8602944612503052e-01" nType="0">
          <Node pos="l" depth="2" NCoef="0" IVar="-1" Cut="0.0000000000000000e+00" cType="1" res="-2.9024068498983979e-04" rms="4.5854130387306213e-01" purity="4.6789726614952087e-01" nType="-99"/>
          <Node pos="r" depth="2" NCoef="0" IVar="-1" Cut="0.0000000000000000e+00" cType="1" res="2.6402637013234198e-04" rms="4.5513850450515747e-01" purity="5.0680792331695557e-01" nType="-99"/>
        </Node>
        <Node pos="r" depth="1" NCoef="0" IVar="1" Cut="9.3412184715270996e-01" cType="1" res="3.0246816575527191e-02" rms="4.6462059020996094e-01" purity="5.5794382095336914e-01" nType="0">
          <Node pos="l" depth="2" NCoef="0" IVar="-1" Cut="0.0000000000000000e+00" cType="1" res="1.1160442954860628e-04" rms="4.7422623634338379e-01" purity="4.0587362647056580e-01" nType="-99"/>
          <Node pos="r" depth="2" NCoef="0" IVar="-1" Cut="0.0000000000000000e+00" cType="1" res="6.4848357578739524e-04" rms="4.6072265505790710e-01" purity="6.1346548795700073e-01" nType="-99"/>
        </Node>
      </Node>
    </BinaryTree>
    <BinaryTree type="DecisionTree" boostWeight="1.0000000000000000e+00" itree="974">
      <Node pos="s" depth="0" NCoef="0" IVar="5" Cut="5.2181793212890625e+02" cType="1" res="1.9139599753543735e-03" rms="4.5760819315910339e-01" purity="5.0114160776138306e-01" nType="0">
        <Node pos="l" depth="1" NCoef="0" IVar="1" Cut="9.8442471027374268e-01" cType="1" res="-1.9661285914480686e-03" rms="4.5919790863990784e-01" purity="4.8010635375976562e-01" nType="0">
          <Node pos="l" depth="2" NCoef="0" IVar="-1" Cut="0.0000000000000000e+00" cType="1" res="-1.1736497981473804e-04" rms="4.6563509106636047e-01" purity="4.4391575455665588e-01" nType="-99"/>
          <Node pos="r" depth="2" NCoef="0" IVar="-1" Cut="0.0000000000000000e+00" cType="1" res="4.6058004954829812e-04" rms="4.0021491050720215e-01" purity="7.8171449899673462e-01" nType="-99"/>
        </Node>
        <Node pos="r" depth="1" NCoef="0" IVar="-1" Cut="0.0000000000000000e+00" cType="1" res="6.0609413776546717e-04" rms="4.4057023525238037e-01" purity="7.0044356584548950e-01" nType="-99"/>
      </Node>
    </BinaryTree>
    <BinaryTree type="DecisionTree" boostWeight="1.0000000000000000e+00" itree="975">
      <Node pos="s" depth="0" NCoef="0" IVar="2" Cut="7.3040045166015625e+02" cType="1" res="1.4010873856022954e-03" rms="4.5790615677833557e-01" purity="4.9902310967445374e-01" nType="0">
        <Node pos="l" depth="1" NCoef="0" IVar="4" Cut="5.7181097567081451e-02" cType="1" res="-2.2000584285706282e-03" rms="4.6003693342208862e-01" purity="4.7784945368766785e-01" nType="0">
          <Node pos="l" depth="2" NCoef="0" IVar="-1" Cut="0.0000000000000000e+00" cType="1" res="8.8204076746478677e-05" rms="4.6010679006576538e-01" purity="5.0031411647796631e-01" nType="-99"/>
          <Node pos="r" depth="2" NCoef="0" IVar="-1" Cut="0.0000000000000000e+00" cType="1" res="-3.9009103784337640e-04" rms="4.5950320363044739e-01" purity="4.2655953764915466e-01" nType="-99"/>
        </Node>
        <Node pos="r" depth="1" NCoef="0" IVar="-1" Cut="0.0000000000000000e+00" cType="1" res="5.8282347163185477e-04" rms="4.3444669246673584e-01" purity="7.1026682853698730e-01" nType="-99"/>
      </Node>
    </BinaryTree>
    <BinaryTree type="DecisionTree" boostWeight="1.0000000000000000e+00" itree="976">
      <Node pos="s" depth="0" NCoef="0" IVar="1" Cut="9.2133516073226929e-01" cType="1" res="3.4987912513315678e-03" rms="4.5890745520591736e-01" purity="4.9945080280303955e-01" nType="0">
        <Node pos="l" depth="1" NCoef="0" IVar="3" Cut="3.9841890335083008e-02" cType="1" res="-2.5426656007766724e-02" rms="4.4354078173637390e-01" purity="3.1966385245323181e-01" nType="0">
          <Node pos="l" depth="2" NCoef="0" IVar="-1" Cut="0.0000000000000000e+00" cType="1" res="-2.6090079336427152e-04" rms="4.3965721130371094e-01" purity="3.1893181800842285e-01" nType="-99"/>
          <Node pos="r" depth="2" NCoef="0" IVar="-1" Cut="0.0000000000000000e+00" cType="1" res="-1.2777041411027312e-03" rms="4.4791933894157410e-01" purity="3.2068377733230591e-01" nType="-99"/>
        </Node>
        <Node pos="r" depth="1" NCoef="0" IVar="3" Cut="1.7530415952205658e-01" cType="1" res="8.2280607894062996e-03" rms="4.6119868755340576e-01" purity="5.2884572744369507e-01" nType="0">
          <Node pos="l" depth="2" NCoef="0" IVar="-1" Cut="0.0000000000000000e+00" cType="1" res="5.3625477448804304e-05" rms="4.5973196625709534e-01" purity="5.1681792736053467e-01" nType="-99"/>
          <Node pos="r" depth="2" NCoef="0" IVar="-1" Cut="0.0000000000000000e+00" cType="1" res="6.5266381716355681e-04" rms="4.6820622682571411e-01" purity="5.9654980897903442e-01" nType="-99"/>
        </Node>
      </Node>
    </BinaryTree>
    <BinaryTree type="DecisionTree" boostWeight="1.0000000000000000e+00" itree="977">
      <Node pos="s" depth="0" NCoef="0" IVar="0" Cut="1.0259890556335449e-01" cType="1" res="4.5956745743751526e-03" rms="4.5880630612373352e-01" purity="5.0091493129730225e-01" nType="0">
        <Node pos="l" depth="1" NCoef="0" IVar="2" Cut="7.2266064453125000e+02" cType="1" res="-5.0023761577904224e-03" rms="4.5986622571945190e-01" purity="4.9088627099990845e-01" nType="0">
          <Node pos="l" depth="2" NCoef="0" IVar="-1" Cut="0.0000000000000000e+00" cType="1" res="-1.8069038924295455e-04" rms="4.6002066135406494e-01" purity="4.6418154239654541e-01" nType="-99"/>
          <Node pos="r" depth="2" NCoef="0" IVar="-1" Cut="0.0000000000000000e+00" cType="1" res="3.2937547075562179e-04" rms="4.5796853303909302e-01" purity="6.7166566848754883e-01" nType="-99"/>
        </Node>
        <Node pos="r" depth="1" NCoef="0" IVar="2" Cut="3.5068359375000000e+02" cType="1" res="1.9978759810328484e-02" rms="4.5668190717697144e-01" purity="5.1698809862136841e-01" nType="0">
          <Node pos="l" depth="2" NCoef="0" IVar="-1" Cut="0.0000000000000000e+00" cType="1" res="-4.5485288137570024e-04" rms="4.3480193614959717e-01" purity="3.0572795867919922e-01" nType="-99"/>
          <Node pos="r" depth="2" NCoef="0" IVar="-1" Cut="0.0000000000000000e+00" cType="1" res="5.4242007900029421e-04" rms="4.6341910958290100e-01" purity="5.9044164419174194e-01" nType="-99"/>
        </Node>
      </Node>
    </BinaryTree>
    <BinaryTree type="DecisionTree" boostWeight="1.0000000000000000e+00" itree="978">
      <Node pos="s" depth="0" NCoef="0" IVar="2" Cut="7.7181054687500000e+02" cType="1" res="5.4150242358446121e-03" rms="4.5735991001129150e-01" purity="5.0454747676849365e-01" nType="0">
        <Node pos="l" depth="1" NCoef="0" IVar="0" Cut="9.2596679925918579e-02" cType="1" res="2.8233996126800776e-03" rms="4.5861083269119263e-01" purity="4.8883655667304993e-01" nType="0">
          <Node pos="l" depth="2" NCoef="0" IVar="-1" Cut="0.0000000000000000e+00" cType="1" res="-1.1734875442925841e-04" rms="4.6053323149681091e-01" purity="4.7310411930084229e-01" nType="-99"/>
          <Node pos="r" depth="2" NCoef="0" IVar="-1" Cut="0.0000000000000000e+00" cType="1" res="2.5360347353853285e-04" rms="4.5606082677841187e-01" purity="5.0781953334808350e-01" nType="-99"/>
        </Node>
        <Node pos="r" depth="1" NCoef="0" IVar="-1" Cut="0.0000000000000000e+00" cType="1" res="6.1142479535192251e-04" rms="4.3927338719367981e-01" purity="7.0996135473251343e-01" nType="-99"/>
      </Node>
    </BinaryTree>
    <BinaryTree type="DecisionTree" boostWeight="1.0000000000000000e+00" itree="979">
      <Node pos="s" depth="0" NCoef="0" IVar="4" Cut="-8.4233239293098450e-02" cType="1" res="4.9841767176985741e-03" rms="4.5858472585678101e-01" purity="5.0244987010955811e-01" nType="0">
        <Node pos="l" depth="1" NCoef="0" IVar="-1" Cut="0.0000000000000000e+00" cType="1" res="8.3515443839132786e-04" rms="4.4792118668556213e-01" purity="5.7899075746536255e-01" nType="-99"/>
        <Node pos="r" depth="1" NCoef="0" IVar="3" Cut="2.3630216717720032e-01" cType="1" res="1.8861340358853340e-03" rms="4.5919084548950195e-01" purity="4.9691772460937500e-01" nType="0">
          <Node pos="l" depth="2" NCoef="0" IVar="-1" Cut="0.0000000000000000e+00" cType="1" res="-2.2062604330130853e-05" rms="4.5858803391456604e-01" purity="4.9083790183067322e-01" nType="-99"/>
          <Node pos="r" depth="2" NCoef="0" IVar="-1" Cut="0.0000000000000000e+00" cType="1" res="7.4581609806045890e-04" rms="4.6551579236984253e-01" purity="5.8198213577270508e-01" nType="-99"/>
        </Node>
      </Node>
    </BinaryTree>
    <BinaryTree type="DecisionTree" boostWeight="1.0000000000000000e+00" itree="980">
      <Node pos="s" depth="0" NCoef="0" IVar="0" Cut="2.2218181192874908e-01" cType="1" res="5.9921382926404476e-03" rms="4.5844015479087830e-01" purity="5.0294905900955200e-01" nType="0">
        <Node pos="l" depth="1" NCoef="0" IVar="2" Cut="6.4911511230468750e+02" cType="1" res="3.2409485429525375e-03" rms="4.5932438969612122e-01" purity="4.9994483590126038e-01" nType="0">
          <Node pos="l" depth="2" NCoef="0" IVar="-1" Cut="0.0000000000000000e+00" cType="1" res="-2.5974517484428361e-05" rms="4.6124321222305298e-01" purity="4.6736851334571838e-01" nType="-99"/>
          <Node pos="r" depth="2" NCoef="0" IVar="-1" Cut="0.0000000000000000e+00" cType="1" res="4.5272984425537288e-04" rms="4.4743305444717407e-01" purity="6.8456351757049561e-01" nType="-99"/>
        </Node>
        <Node pos="r" depth="1" NCoef="0" IVar="-1" Cut="0.0000000000000000e+00" cType="1" res="8.2061841385439038e-04" rms="4.4328945875167847e-01" purity="5.4706960916519165e-01" nType="-99"/>
      </Node>
    </BinaryTree>
    <BinaryTree type="DecisionTree" boostWeight="1.0000000000000000e+00" itree="981">
      <Node pos="s" depth="0" NCoef="0" IVar="3" Cut="2.2782537341117859e-01" cType="1" res="-4.2713835136964917e-04" rms="4.5791712403297424e-01" purity="4.9639311432838440e-01" nType="0">
        <Node pos="l" depth="1" NCoef="0" IVar="4" Cut="1.3515684008598328e-01" cType="1" res="-3.0194544233381748e-03" rms="4.5757326483726501e-01" purity="4.8984578251838684e-01" nType="0">
          <Node pos="l" depth="2" NCoef="0" IVar="-1" Cut="0.0000000000000000e+00" cType="1" res="1.3106255210004747e-05" rms="4.5862385630607605e-01" purity="5.0020480155944824e-01" nType="-99"/>
          <Node pos="r" depth="2" NCoef="0" IVar="-1" Cut="0.0000000000000000e+00" cType="1" res="-1.1391261359676719e-03" rms="4.4314178824424744e-01" purity="3.7096795439720154e-01" nType="-99"/>
        </Node>
        <Node pos="r" depth="1" NCoef="0" IVar="-1" Cut="0.0000000000000000e+00" cType="1" res="5.5129406973719597e-04" rms="4.6098199486732483e-01" purity="5.7895302772521973e-01" nType="-99"/>
      </Node>
    </BinaryTree>
    <BinaryTree type="DecisionTree" boostWeight="1.0000000000000000e+00" itree="982">
      <Node pos="s" depth="0" NCoef="0" IVar="6" Cut="1.6141762733459473e+00" cType="1" res="6.7365691065788269e-03" rms="4.5725983381271362e-01" purity="5.0569939613342285e-01" nType="0">
        <Node pos="l" depth="1" NCoef="0" IVar="-1" Cut="0.0000000000000000e+00" cType="1" res="6.7919970024377108e-04" rms="4.3721532821655273e-01" purity="6.2513142824172974e-01" nType="-99"/>
        <Node pos="r" depth="1" NCoef="0" IVar="0" Cut="1.7707265913486481e-01" cType="1" res="3.4860221203416586e-03" rms="4.5893689990043640e-01" purity="4.9463415145874023e-01" nType="0">
          <Node pos="l" depth="2" NCoef="0" IVar="-1" Cut="0.0000000000000000e+00" cType="1" res="-2.3027934730635025e-05" rms="4.5962065458297729e-01" purity="4.9006760120391846e-01" nType="-99"/>
          <Node pos="r" depth="2" NCoef="0" IVar="-1" Cut="0.0000000000000000e+00" cType="1" res="6.2880100449547172e-04" rms="4.5325493812561035e-01" purity="5.2453404664993286e-01" nType="-99"/>
        </Node>
      </Node>
    </BinaryTree>
    <BinaryTree type="DecisionTree" boostWeight="1.0000000000000000e+00" itree="983">
      <Node pos="s" depth="0" NCoef="0" IVar="5" Cut="5.2181793212890625e+02" cType="1" res="2.1474161185324192e-03" rms="4.5574754476547241e-01" purity="5.0178867578506470e-01" nType="0">
        <Node pos="l" depth="1" NCoef="0" IVar="3" Cut="1.6784554719924927e-01" cType="1" res="-1.6228682361543179e-03" rms="4.5724159479141235e-01" purity="4.8060452938079834e-01" nType="0">
          <Node pos="l" depth="2" NCoef="0" IVar="-1" Cut="0.0000000000000000e+00" cType="1" res="-1.4536091475747526e-04" rms="4.5617482066154480e-01" purity="4.6545997262001038e-01" nType="-99"/>
          <Node pos="r" depth="2" NCoef="0" IVar="-1" Cut="0.0000000000000000e+00" cType="1" res="4.4144169078208506e-04" rms="4.6146208047866821e-01" purity="5.5403804779052734e-01" nType="-99"/>
        </Node>
        <Node pos="r" depth="1" NCoef="0" IVar="-1" Cut="0.0000000000000000e+00" cType="1" res="5.8419263223186135e-04" rms="4.3993753194808960e-01" purity="7.0026278495788574e-01" nType="-99"/>
      </Node>
    </BinaryTree>
    <BinaryTree type="DecisionTree" boostWeight="1.0000000000000000e+00" itree="984">
      <Node pos="s" depth="0" NCoef="0" IVar="2" Cut="3.0785302734375000e+02" cType="1" res="3.4060187172144651e-03" rms="4.5952534675598145e-01" purity="5.0014305114746094e-01" nType="0">
        <Node pos="l" depth="1" NCoef="0" IVar="-1" Cut="0.0000000000000000e+00" cType="1" res="-1.5240859938785434e-03" rms="3.9136397838592529e-01" purity="2.2239951789379120e-01" nType="-99"/>
        <Node pos="r" depth="1" NCoef="0" IVar="0" Cut="1.4052098989486694e-01" cType="1" res="6.7243343219161034e-03" rms="4.6442651748657227e-01" purity="5.2253592014312744e-01" nType="0">
          <Node pos="l" depth="2" NCoef="0" IVar="-1" Cut="0.0000000000000000e+00" cType="1" res="1.3230708646005951e-05" rms="4.6636062860488892e-01" purity="5.1358461380004883e-01" nType="-99"/>
          <Node pos="r" depth="2" NCoef="0" IVar="-1" Cut="0.0000000000000000e+00" cType="1" res="4.8869336023926735e-04" rms="4.5703732967376709e-01" purity="5.5359721183776855e-01" nType="-99"/>
        </Node>
      </Node>
    </BinaryTree>
    <BinaryTree type="DecisionTree" boostWeight="1.0000000000000000e+00" itree="985">
      <Node pos="s" depth="0" NCoef="0" IVar="0" Cut="1.2029717117547989e-01" cType="1" res="7.2789588011801243e-03" rms="4.5980173349380493e-01" purity="5.0375616550445557e-01" nType="0">
        <Node pos="l" depth="1" NCoef="0" IVar="3" Cut="2.0342864096164703e-01" cType="1" res="1.0724341263994575e-03" rms="4.6202316880226135e-01" purity="4.9603518843650818e-01" nType="0">
          <Node pos="l" depth="2" NCoef="0" IVar="-1" Cut="0.0000000000000000e+00" cType="1" res="-5.3517429478233680e-05" rms="4.6169099211692810e-01" purity="4.8399668931961060e-01" nType="-99"/>
          <Node pos="r" depth="2" NCoef="0" IVar="-1" Cut="0.0000000000000000e+00" cType="1" res="4.2639812454581261e-04" rms="4.6339765191078186e-01" purity="5.7060444355010986e-01" nType="-99"/>
        </Node>
        <Node pos="r" depth="1" NCoef="0" IVar="5" Cut="2.8000488281250000e+02" cType="1" res="2.1517787128686905e-02" rms="4.5434415340423584e-01" purity="5.2146947383880615e-01" nType="0">
          <Node pos="l" depth="2" NCoef="0" IVar="-1" Cut="0.0000000000000000e+00" cType="1" res="9.6307294370490126e-06" rms="4.5804223418235779e-01" purity="3.9560526609420776e-01" nType="-99"/>
          <Node pos="r" depth="2" NCoef="0" IVar="-1" Cut="0.0000000000000000e+00" cType="1" res="6.9515802897512913e-04" rms="4.4905790686607361e-01" purity="6.6086053848266602e-01" nType="-99"/>
        </Node>
      </Node>
    </BinaryTree>
    <BinaryTree type="DecisionTree" boostWeight="1.0000000000000000e+00" itree="986">
      <Node pos="s" depth="0" NCoef="0" IVar="5" Cut="3.9013485717773438e+02" cType="1" res="-2.8425322379916906e-03" rms="4.5700404047966003e-01" purity="4.9428579211235046e-01" nType="0">
        <Node pos="l" depth="1" NCoef="0" IVar="5" Cut="2.1813958740234375e+02" cType="1" res="-9.5448996871709824e-03" rms="4.5769703388214111e-01" purity="4.4026803970336914e-01" nType="0">
          <Node pos="l" depth="2" NCoef="0" IVar="-1" Cut="0.0000000000000000e+00" cType="1" res="-9.5391622744500637e-04" rms="4.1754856705665588e-01" purity="2.6788887381553650e-01" nType="-99"/>
          <Node pos="r" depth="2" NCoef="0" IVar="-1" Cut="0.0000000000000000e+00" cType="1" res="-1.1449892917880788e-04" rms="4.6526193618774414e-01" purity="4.7493186593055725e-01" nType="-99"/>
        </Node>
        <Node pos="r" depth="1" NCoef="0" IVar="1" Cut="9.5493113994598389e-01" cType="1" res="1.6304533928632736e-02" rms="4.5447427034378052e-01" purity="6.4860159158706665e-01" nType="0">
          <Node pos="l" depth="2" NCoef="0" IVar="-1" Cut="0.0000000000000000e+00" cType="1" res="-3.8504174881381914e-05" rms="4.8335152864456177e-01" purity="5.5586349964141846e-01" nType="-99"/>
          <Node pos="r" depth="2" NCoef="0" IVar="-1" Cut="0.0000000000000000e+00" cType="1" res="5.6384311756119132e-04" rms="4.2028287053108215e-01" purity="7.4837261438369751e-01" nType="-99"/>
        </Node>
      </Node>
    </BinaryTree>
    <BinaryTree type="DecisionTree" boostWeight="1.0000000000000000e+00" itree="987">
      <Node pos="s" depth="0" NCoef="0" IVar="6" Cut="1.9381216764450073e+00" cType="1" res="3.5262575838714838e-03" rms="4.5825168490409851e-01" purity="5.0168538093566895e-01" nType="0">
        <Node pos="l" depth="1" NCoef="0" IVar="5" Cut="2.9791992187500000e+02" cType="1" res="2.4369871243834496e-02" rms="4.5181801915168762e-01" purity="5.8109933137893677e-01" nType="0">
          <Node pos="l" depth="2" NCoef="0" IVar="-1" Cut="0.0000000000000000e+00" cType="1" res="1.0234887304250151e-04" rms="4.6577236056327820e-01" purity="4.6459269523620605e-01" nType="-99"/>
          <Node pos="r" depth="2" NCoef="0" IVar="-1" Cut="0.0000000000000000e+00" cType="1" res="6.7234935704618692e-04" rms="4.3569537997245789e-01" purity="7.0393985509872437e-01" nType="-99"/>
        </Node>
        <Node pos="r" depth="1" NCoef="0" IVar="5" Cut="4.7660522460937500e+02" cType="1" res="-1.9258811371400952e-03" rms="4.5976382493972778e-01" purity="4.8091277480125427e-01" nType="0">
          <Node pos="l" depth="2" NCoef="0" IVar="-1" Cut="0.0000000000000000e+00" cType="1" res="-1.1351695866324008e-04" rms="4.6001064777374268e-01" purity="4.5242673158645630e-01" nType="-99"/>
          <Node pos="r" depth="2" NCoef="0" IVar="-1" Cut="0.0000000000000000e+00" cType="1" res="3.2448535785079002e-04" rms="4.5759472250938416e-01" purity="6.5982568264007568e-01" nType="-99"/>
        </Node>
      </Node>
    </BinaryTree>
    <BinaryTree type="DecisionTree" boostWeight="1.0000000000000000e+00" itree="988">
      <Node pos="s" depth="0" NCoef="0" IVar="1" Cut="9.0684705972671509e-01" cType="1" res="3.6507188342511654e-03" rms="4.5701792836189270e-01" purity="5.0212913751602173e-01" nType="0">
        <Node pos="l" depth="1" NCoef="0" IVar="-1" Cut="0.0000000000000000e+00" cType="1" res="-1.1675991117954254e-03" rms="4.3690964579582214e-01" purity="2.9889455437660217e-01" nType="-99"/>
        <Node pos="r" depth="1" NCoef="0" IVar="0" Cut="1.9004644826054573e-02" cType="1" res="6.2920530326664448e-03" rms="4.5806223154067993e-01" purity="5.1432669162750244e-01" nType="0">
          <Node pos="l" depth="2" NCoef="0" IVar="-1" Cut="0.0000000000000000e+00" cType="1" res="-5.8644014643505216e-04" rms="4.6757888793945312e-01" purity="4.8312234878540039e-01" nType="-99"/>
          <Node pos="r" depth="2" NCoef="0" IVar="-1" Cut="0.0000000000000000e+00" cType="1" res="1.7009615839924663e-04" rms="4.5722025632858276e-01" purity="5.1668852567672729e-01" nType="-99"/>
        </Node>
      </Node>
    </BinaryTree>
    <BinaryTree type="DecisionTree" boostWeight="1.0000000000000000e+00" itree="989">
      <Node pos="s" depth="0" NCoef="0" IVar="0" Cut="1.1188101768493652e-01" cType="1" res="5.5143609642982483e-03" rms="4.5882481336593628e-01" purity="5.0194483995437622e-01" nType="0">
        <Node pos="l" depth="1" NCoef="0" IVar="3" Cut="1.9227403402328491e-01" cType="1" res="-2.3692119866609573e-03" rms="4.6031808853149414e-01" purity="4.9329075217247009e-01" nType="0">
          <Node pos="l" depth="2" NCoef="0" IVar="-1" Cut="0.0000000000000000e+00" cType="1" res="-1.4386454131454229e-04" rms="4.5882308483123779e-01" purity="4.7997617721557617e-01" nType="-99"/>
          <Node pos="r" depth="2" NCoef="0" IVar="-1" Cut="0.0000000000000000e+00" cType="1" res="3.9859031676314771e-04" rms="4.6724453568458557e-01" purity="5.6272643804550171e-01" nType="-99"/>
        </Node>
        <Node pos="r" depth="1" NCoef="0" IVar="5" Cut="2.5311727905273438e+02" cType="1" res="2.1077947691082954e-02" rms="4.5546203851699829e-01" purity="5.1902961730957031e-01" nType="0">
          <Node pos="l" depth="2" NCoef="0" IVar="-1" Cut="0.0000000000000000e+00" cType="1" res="-2.0050523744430393e-04" rms="4.4914394617080688e-01" purity="3.4975352883338928e-01" nType="-99"/>
          <Node pos="r" depth="2" NCoef="0" IVar="-1" Cut="0.0000000000000000e+00" cType="1" res="6.1612756690010428e-04" rms="4.5826691389083862e-01" purity="6.1759746074676514e-01" nType="-99"/>
        </Node>
      </Node>
    </BinaryTree>
    <BinaryTree type="DecisionTree" boostWeight="1.0000000000000000e+00" itree="990">
      <Node pos="s" depth="0" NCoef="0" IVar="2" Cut="7.4885620117187500e+02" cType="1" res="-1.2832885840907693e-03" rms="4.5663237571716309e-01" purity="4.9753475189208984e-01" nType="0">
        <Node pos="l" depth="1" NCoef="0" IVar="1" Cut="9.8436695337295532e-01" cType="1" res="-4.7981678508222103e-03" rms="4.5789504051208496e-01" purity="4.7900971770286560e-01" nType="0">
          <Node pos="l" depth="2" NCoef="0" IVar="-1" Cut="0.0000000000000000e+00" cType="1" res="-1.7391957226209342e-04" rms="4.6396386623382568e-01" purity="4.4357293844223022e-01" nType="-99"/>
          <Node pos="r" depth="2" NCoef="0" IVar="-1" Cut="0.0000000000000000e+00" cType="1" res="4.2523106094449759e-04" rms="4.0113973617553711e-01" purity="7.8090465068817139e-01" nType="-99"/>
        </Node>
        <Node pos="r" depth="1" NCoef="0" IVar="-1" Cut="0.0000000000000000e+00" cType="1" res="5.9617531951516867e-04" rms="4.4011092185974121e-01" purity="7.0750463008880615e-01" nType="-99"/>
      </Node>
    </BinaryTree>
    <BinaryTree type="DecisionTree" boostWeight="1.0000000000000000e+00" itree="991">
      <Node pos="s" depth="0" NCoef="0" IVar="5" Cut="5.2269866943359375e+02" cType="1" res="4.9587344983592629e-04" rms="4.5755150914192200e-01" purity="4.9855238199234009e-01" nType="0">
        <Node pos="l" depth="1" NCoef="0" IVar="1" Cut="9.1247946023941040e-01" cType="1" res="-3.1913474667817354e-03" rms="4.5866367220878601e-01" purity="4.7835931181907654e-01" nType="0">
          <Node pos="l" depth="2" NCoef="0" IVar="-1" Cut="0.0000000000000000e+00" cType="1" res="-1.1468884767964482e-03" rms="4.3132424354553223e-01" purity="2.8893357515335083e-01" nType="-99"/>
          <Node pos="r" depth="2" NCoef="0" IVar="-1" Cut="0.0000000000000000e+00" cType="1" res="1.0542336070784586e-07" rms="4.6091863512992859e-01" purity="4.9546343088150024e-01" nType="-99"/>
        </Node>
        <Node pos="r" depth="1" NCoef="0" IVar="-1" Cut="0.0000000000000000e+00" cType="1" res="5.6980608496814966e-04" rms="4.4508847594261169e-01" purity="6.9371765851974487e-01" nType="-99"/>
      </Node>
    </BinaryTree>
    <BinaryTree type="DecisionTree" boostWeight="1.0000000000000000e+00" itree="992">
      <Node pos="s" depth="0" NCoef="0" IVar="5" Cut="3.9013485717773438e+02" cType="1" res="1.3606704305857420e-03" rms="4.5756700634956360e-01" purity="5.0008928775787354e-01" nType="0">
        <Node pos="l" depth="1" NCoef="0" IVar="2" Cut="3.0232192993164062e+02" cType="1" res="-4.6515297144651413e-03" rms="4.5883205533027649e-01" purity="4.4708773493766785e-01" nType="0">
          <Node pos="l" depth="2" NCoef="0" IVar="-1" Cut="0.0000000000000000e+00" cType="1" res="-1.5140925534069538e-03" rms="3.9106541872024536e-01" purity="2.1670444309711456e-01" nType="-99"/>
          <Node pos="r" depth="2" NCoef="0" IVar="-1" Cut="0.0000000000000000e+00" cType="1" res="-3.5753571864916012e-05" rms="4.6447101235389709e-01" purity="4.6830567717552185e-01" nType="-99"/>
        </Node>
        <Node pos="r" depth="1" NCoef="0" IVar="0" Cut="6.5495632588863373e-02" cType="1" res="1.8393183127045631e-02" rms="4.5353156328201294e-01" purity="6.5024226903915405e-01" nType="0">
          <Node pos="l" depth="2" NCoef="0" IVar="-1" Cut="0.0000000000000000e+00" cType="1" res="4.3260755774099380e-05" rms="4.6750161051750183e-01" purity="6.0763156414031982e-01" nType="-99"/>
          <Node pos="r" depth="2" NCoef="0" IVar="-1" Cut="0.0000000000000000e+00" cType="1" res="6.7040155408903956e-04" rms="4.2940750718116760e-01" purity="7.1741563081741333e-01" nType="-99"/>
        </Node>
      </Node>
    </BinaryTree>
    <BinaryTree type="DecisionTree" boostWeight="1.0000000000000000e+00" itree="993">
      <Node pos="s" depth="0" NCoef="0" IVar="0" Cut="1.8271476030349731e-02" cType="1" res="7.8207217156887054e-03" rms="4.6034681797027588e-01" purity="5.0405693054199219e-01" nType="0">
        <Node pos="l" depth="1" NCoef="0" IVar="-1" Cut="0.0000000000000000e+00" cType="1" res="-5.2385544404387474e-04" rms="4.6845197677612305e-01" purity="4.7637507319450378e-01" nType="-99"/>
        <Node pos="r" depth="1" NCoef="0" IVar="2" Cut="3.0619714355468750e+02" cType="1" res="1.0240972042083740e-02" rms="4.5967042446136475e-01" purity="5.0601989030838013e-01" nType="0">
          <Node pos="l" depth="2" NCoef="0" IVar="-1" Cut="0.0000000000000000e+00" cType="1" res="-8.5998827125877142e-04" rms="4.0059104561805725e-01" purity="2.3923978209495544e-01" nType="-99"/>
          <Node pos="r" depth="2" NCoef="0" IVar="-1" Cut="0.0000000000000000e+00" cType="1" res="2.3854101891629398e-04" rms="4.6399343013763428e-01" purity="5.2746510505676270e-01" nType="-99"/>
        </Node>
      </Node>
    </BinaryTree>
    <BinaryTree type="DecisionTree" boostWeight="1.0000000000000000e+00" itree="994">
      <Node pos="s" depth="0" NCoef="0" IVar="3" Cut="1.7998844385147095e-01" cType="1" res="4.2208363302052021e-03" rms="4.5734611153602600e-01" purity="5.0172221660614014e-01" nType="0">
        <Node pos="l" depth="1" NCoef="0" IVar="4" Cut="6.3189484179019928e-02" cType="1" res="-5.5498792789876461e-04" rms="4.5629477500915527e-01" purity="4.8972761631011963e-01" nType="0">
          <Node pos="l" depth="2" NCoef="0" IVar="-1" Cut="0.0000000000000000e+00" cType="1" res="1.1408590944483876e-04" rms="4.5789194107055664e-01" purity="5.1236122846603394e-01" nType="-99"/>
          <Node pos="r" depth="2" NCoef="0" IVar="-1" Cut="0.0000000000000000e+00" cType="1" res="-5.0882878713309765e-04" rms="4.5016685128211975e-01" purity="4.1337797045707703e-01" nType="-99"/>
        </Node>
        <Node pos="r" depth="1" NCoef="0" IVar="4" Cut="9.4703637063503265e-02" cType="1" res="3.2360110431909561e-02" rms="4.6249184012413025e-01" purity="5.7239454984664917e-01" nType="0">
          <Node pos="l" depth="2" NCoef="0" IVar="-1" Cut="0.0000000000000000e+00" cType="1" res="8.0430123489350080e-04" rms="4.5781618356704712e-01" purity="5.9585618972778320e-01" nType="-99"/>
          <Node pos="r" depth="2" NCoef="0" IVar="-1" Cut="0.0000000000000000e+00" cType="1" res="3.5508425207808614e-04" rms="4.6594470739364624e-01" purity="5.5303162336349487e-01" nType="-99"/>
        </Node>
      </Node>
    </BinaryTree>
    <BinaryTree type="DecisionTree" boostWeight="1.0000000000000000e+00" itree="995">
      <Node pos="s" depth="0" NCoef="0" IVar="0" Cut="1.1188101768493652e-01" cType="1" res="4.2824144475162029e-03" rms="4.5869895815849304e-01" purity="5.0233256816864014e-01" nType="0">
        <Node pos="l" depth="1" NCoef="0" IVar="6" Cut="1.8374799489974976e+00" cType="1" res="-3.6801106762140989e-03" rms="4.6030244231224060e-01" purity="4.9323335289955139e-01" nType="0">
          <Node pos="l" depth="2" NCoef="0" IVar="-1" Cut="0.0000000000000000e+00" cType="1" res="3.9396531064994633e-04" rms="4.4816502928733826e-01" purity="6.0136467218399048e-01" nType="-99"/>
          <Node pos="r" depth="2" NCoef="0" IVar="-1" Cut="0.0000000000000000e+00" cType="1" res="-1.7022833344526589e-04" rms="4.6221441030502319e-01" purity="4.7449982166290283e-01" nType="-99"/>
        </Node>
        <Node pos="r" depth="1" NCoef="0" IVar="2" Cut="4.7467098999023438e+02" cType="1" res="1.9852358847856522e-02" rms="4.5514488220214844e-01" purity="5.2012509107589722e-01" nType="0">
          <Node pos="l" depth="2" NCoef="0" IVar="-1" Cut="0.0000000000000000e+00" cType="1" res="1.4655406994279474e-04" rms="4.6245110034942627e-01" purity="4.4633099436759949e-01" nType="-99"/>
          <Node pos="r" depth="2" NCoef="0" IVar="-1" Cut="0.0000000000000000e+00" cType="1" res="8.1570982001721859e-04" rms="4.3303439021110535e-01" purity="7.1833074092864990e-01" nType="-99"/>
        </Node>
      </Node>
    </BinaryTree>
    <BinaryTree type="DecisionTree" boostWeight="1.0000000000000000e+00" itree="996">
      <Node pos="s" depth="0" NCoef="0" IVar="4" Cut="-4.3003857135772705e-02" cType="1" res="-8.6625295807607472e-05" rms="4.5941665768623352e-01" purity="4.9677246809005737e-01" nType="0">
        <Node pos="l" depth="1" NCoef="0" IVar="5" Cut="2.4072404479980469e+02" cType="1" res="1.8747681751847267e-02" rms="4.5639437437057495e-01" purity="5.4112356901168823e-01" nType="0">
          <Node pos="l" depth="2" NCoef="0" IVar="-1" Cut="0.0000000000000000e+00" cType="1" res="-3.7866423372179270e-04" rms="4.4038864970207214e-01" purity="3.3555263280868530e-01" nType="-99"/>
          <Node pos="r" depth="2" NCoef="0" IVar="-1" Cut="0.0000000000000000e+00" cType="1" res="4.8386433627456427e-04" rms="4.6092262864112854e-01" purity="6.0728049278259277e-01" nType="-99"/>
        </Node>
        <Node pos="r" depth="1" NCoef="0" IVar="5" Cut="4.7456893920898438e+02" cType="1" res="-5.7394490577280521e-03" rms="4.6016949415206909e-01" purity="4.8346117138862610e-01" nType="0">
          <Node pos="l" depth="2" NCoef="0" IVar="-1" Cut="0.0000000000000000e+00" cType="1" res="-2.2995648032519966e-04" rms="4.6184459328651428e-01" purity="4.5108386874198914e-01" nType="-99"/>
          <Node pos="r" depth="2" NCoef="0" IVar="-1" Cut="0.0000000000000000e+00" cType="1" res="3.8783368654549122e-04" rms="4.4912043213844299e-01" purity="6.7166328430175781e-01" nType="-99"/>
        </Node>
      </Node>
    </BinaryTree>
    <BinaryTree type="DecisionTree" boostWeight="1.0000000000000000e+00" itree="997">
      <Node pos="s" depth="0" NCoef="0" IVar="3" Cut="1.7730115354061127e-01" cType="1" res="4.6256552450358868e-03" rms="4.5836597681045532e-01" purity="5.0124418735504150e-01" nType="0">
        <Node pos="l" depth="1" NCoef="0" IVar="1" Cut="9.8125678300857544e-01" cType="1" res="3.2480037771165371e-04" rms="4.5645275712013245e-01" purity="4.9062103033065796e-01" nType="0">
          <Node pos="l" depth="2" NCoef="0" IVar="-1" Cut="0.0000000000000000e+00" cType="1" res="-7.9391778854187578e-05" rms="4.6329364180564880e-01" purity="4.4615298509597778e-01" nType="-99"/>
          <Node pos="r" depth="2" NCoef="0" IVar="-1" Cut="0.0000000000000000e+00" cType="1" res="4.1566140134818852e-04" rms="4.1094639897346497e-01" purity="7.6418596506118774e-01" nType="-99"/>
        </Node>
        <Node pos="r" depth="1" NCoef="0" IVar="6" Cut="2.1855192184448242e+00" cType="1" res="2.9565216973423958e-02" rms="4.6852898597717285e-01" purity="5.6284517049789429e-01" nType="0">
          <Node pos="l" depth="2" NCoef="0" IVar="-1" Cut="0.0000000000000000e+00" cType="1" res="2.5232328334823251e-04" rms="4.6387380361557007e-01" purity="5.7263350486755371e-01" nType="-99"/>
          <Node pos="r" depth="2" NCoef="0" IVar="-1" Cut="0.0000000000000000e+00" cType="1" res="9.4306125538423657e-04" rms="4.7489261627197266e-01" purity="5.4717189073562622e-01" nType="-99"/>
        </Node>
      </Node>
    </BinaryTree>
    <BinaryTree type="DecisionTree" boostWeight="1.0000000000000000e+00" itree="998">
      <Node pos="s" depth="0" NCoef="0" IVar="4" Cut="6.5785250626504421e-03" cType="1" res="2.1194980945438147e-03" rms="4.5717233419418335e-01" purity="5.0102782249450684e-01" nType="0">
        <Node pos="l" depth="1" NCoef="0" IVar="2" Cut="3.2972637939453125e+02" cType="1" res="1.4042821712791920e-02" rms="4.5731422305107117e-01" purity="5.3134340047836304e-01" nType="0">
          <Node pos="l" depth="2" NCoef="0" IVar="-1" Cut="0.0000000000000000e+00" cType="1" res="-8.3947228267788887e-04" rms="4.1924908757209778e-01" purity="2.7023819088935852e-01" nType="-99"/>
          <Node pos="r" depth="2" NCoef="0" IVar="-1" Cut="0.0000000000000000e+00" cType="1" res="3.5033040330745280e-04" rms="4.6288892626762390e-01" purity="5.7370394468307495e-01" nType="-99"/>
        </Node>
        <Node pos="r" depth="1" NCoef="0" IVar="6" Cut="1.7976396083831787e+00" cType="1" res="-8.9284656569361687e-03" rms="4.5676308870315552e-01" purity="4.7293791174888611e-01" nType="0">
          <Node pos="l" depth="2" NCoef="0" IVar="-1" Cut="0.0000000000000000e+00" cType="1" res="4.5010269968770444e-04" rms="4.4722542166709900e-01" purity="5.9913682937622070e-01" nType="-99"/>
          <Node pos="r" depth="2" NCoef="0" IVar="-1" Cut="0.0000000000000000e+00" cType="1" res="-3.0384815181605518e-04" rms="4.5796906948089600e-01" purity="4.5347580313682556e-01" nType="-99"/>
        </Node>
      </Node>
    </BinaryTree>
    <BinaryTree type="DecisionTree" boostWeight="1.0000000000000000e+00" itree="999">
      <Node pos="s" depth="0" NCoef="0" IVar="1" Cut="9.2759180068969727e-01" cType="1" res="9.6537254285067320e-04" rms="4.5693510770797729e-01" purity="4.9894234538078308e-01" nType="0">
        <Node pos="l" depth="1" NCoef="0" IVar="6" Cut="2.3327147960662842e+00" cType="1" res="-2.5919644162058830e-02" rms="4.4859737157821655e-01" purity="3.2707434892654419e-01" nType="0">
          <Node pos="l" depth="2" NCoef="0" IVar="-1" Cut="0.0000000000000000e+00" cType="1" res="-1.1691424297168851e-03" rms="4.5491564273834229e-01" purity="3.4520858526229858e-01" nType="-99"/>
          <Node pos="r" depth="2" NCoef="0" IVar="-1" Cut="0.0000000000000000e+00" cType="1" res="2.8398653375916183e-04" rms="4.3574595451354980e-01" purity="2.9717886447906494e-01" nType="-99"/>
        </Node>
        <Node pos="r" depth="1" NCoef="0" IVar="6" Cut="1.9142093658447266e+00" cType="1" res="7.3019624687731266e-03" rms="4.5864874124526978e-01" purity="5.3945022821426392e-01" nType="0">
          <Node pos="l" depth="2" NCoef="0" IVar="-1" Cut="0.0000000000000000e+00" cType="1" res="5.2303919801488519e-04" rms="4.4585508108139038e-01" purity="6.2551218271255493e-01" nType="-99"/>
          <Node pos="r" depth="2" NCoef="0" IVar="-1" Cut="0.0000000000000000e+00" cType="1" res="2.3560989575344138e-05" rms="4.6159082651138306e-01" purity="5.1795065402984619e-01" nType="-99"/>
        </Node>
      </Node>
    </BinaryTree>
    <BinaryTree type="DecisionTree" boostWeight="1.0000000000000000e+00" itree="1000">
      <Node pos="s" depth="0" NCoef="0" IVar="1" Cut="9.8427611589431763e-01" cType="1" res="2.2688629105687141e-03" rms="4.5693919062614441e-01" purity="5.0045603513717651e-01" nType="0">
        <Node pos="l" depth="1" NCoef="0" IVar="6" Cut="1.5499819517135620e+00" cType="1" res="-1.3461145572364330e-03" rms="4.6323385834693909e-01" purity="4.6671479940414429e-01" nType="0">
          <Node pos="l" depth="2" NCoef="0" IVar="-1" Cut="0.0000000000000000e+00" cType="1" res="5.3569243755191565e-04" rms="4.4637694954872131e-01" purity="5.9154766798019409e-01" nType="-99"/>
          <Node pos="r" depth="2" NCoef="0" IVar="-1" Cut="0.0000000000000000e+00" cType="1" res="-7.7409516961779445e-05" rms="4.6433180570602417e-01" purity="4.5768716931343079e-01" nType="-99"/>
        </Node>
        <Node pos="r" depth="1" NCoef="0" IVar="-1" Cut="0.0000000000000000e+00" cType="1" res="5.2717188373208046e-04" rms="3.9769440889358521e-01" purity="7.8918123245239258e-01" nType="-99"/>
      </Node>
    </BinaryTree>
    <BinaryTree type="DecisionTree" boostWeight="1.0000000000000000e+00" itree="1001">
      <Node pos="s" depth="0" NCoef="0" IVar="6" Cut="2.8664593696594238e+00" cType="1" res="3.4871059469878674e-03" rms="4.5911327004432678e-01" purity="5.0004750490188599e-01" nType="0">
        <Node pos="l" depth="1" NCoef="0" IVar="2" Cut="4.9104846191406250e+02" cType="1" res="5.8225509710609913e-03" rms="4.6133300662040710e-01" purity="5.1274639368057251e-01" nType="0">
          <Node pos="l" depth="2" NCoef="0" IVar="-1" Cut="0.0000000000000000e+00" cType="1" res="-2.7922285880777054e-05" rms="4.6307224035263062e-01" purity="4.3103399872779846e-01" nType="-99"/>
          <Node pos="r" depth="2" NCoef="0" IVar="-1" Cut="0.0000000000000000e+00" cType="1" res="2.7897796826437116e-04" rms="4.5824113488197327e-01" purity="6.4616686105728149e-01" nType="-99"/>
        </Node>
        <Node pos="r" depth="1" NCoef="0" IVar="-1" Cut="0.0000000000000000e+00" cType="1" res="-1.2966468930244446e-03" rms="4.1454079747200012e-01" purity="2.6977816224098206e-01" nType="-99"/>
      </Node>
    </BinaryTree>
    <BinaryTree type="DecisionTree" boostWeight="1.0000000000000000e+00" itree="1002">
      <Node pos="s" depth="0" NCoef="0" IVar="2" Cut="7.3040045166015625e+02" cType="1" res="-3.7632279563695192e-03" rms="4.5926299691200256e-01" purity="4.9136304855346680e-01" nType="0">
        <Node pos="l" depth="1" NCoef="0" IVar="0" Cut="9.3510985374450684e-02" cType="1" res="-6.6410349681973457e-03" rms="4.6025839447975159e-01" purity="4.7223526239395142e-01" nType="0">
          <Node pos="l" depth="2" NCoef="0" IVar="-1" Cut="0.0000000000000000e+00" cType="1" res="-3.0706319375894964e-04" rms="4.6138980984687805e-01" purity="4.5553669333457947e-01" nType="-99"/>
          <Node pos="r" depth="2" NCoef="0" IVar="-1" Cut="0.0000000000000000e+00" cType="1" res="6.6790518758352846e-05" rms="4.5866653323173523e-01" purity="4.9272620677947998e-01" nType="-99"/>
        </Node>
        <Node pos="r" depth="1" NCoef="0" IVar="-1" Cut="0.0000000000000000e+00" cType="1" res="4.1794739081524312e-04" rms="4.4757750630378723e-01" purity="6.9196653366088867e-01" nType="-99"/>
      </Node>
    </BinaryTree>
    <BinaryTree type="DecisionTree" boostWeight="1.0000000000000000e+00" itree="1003">
      <Node pos="s" depth="0" NCoef="0" IVar="5" Cut="4.5947811889648438e+02" cType="1" res="-2.7330336160957813e-03" rms="4.5858806371688843e-01" purity="4.9329736828804016e-01" nType="0">
        <Node pos="l" depth="1" NCoef="0" IVar="3" Cut="8.0002479255199432e-02" cType="1" res="-7.1588577702641487e-03" rms="4.6003243327140808e-01" purity="4.6202284097671509e-01" nType="0">
          <Node pos="l" depth="2" NCoef="0" IVar="-1" Cut="0.0000000000000000e+00" cType="1" res="-2.9679914587177336e-04" rms="4.5469495654106140e-01" purity="4.3921300768852234e-01" nType="-99"/>
          <Node pos="r" depth="2" NCoef="0" IVar="-1" Cut="0.0000000000000000e+00" cType="1" res="1.0978572390740737e-04" rms="4.6986925601959229e-01" purity="5.0594413280487061e-01" nType="-99"/>
        </Node>
        <Node pos="r" depth="1" NCoef="0" IVar="0" Cut="3.8405343890190125e-02" cType="1" res="2.2575175389647484e-02" rms="4.4940319657325745e-01" purity="6.7213487625122070e-01" nType="0">
          <Node pos="l" depth="2" NCoef="0" IVar="-1" Cut="0.0000000000000000e+00" cType="1" res="-6.1840844864491373e-05" rms="4.7028711438179016e-01" purity="6.1113947629928589e-01" nType="-99"/>
          <Node pos="r" depth="2" NCoef="0" IVar="-1" Cut="0.0000000000000000e+00" cType="1" res="6.9625902688130736e-04" rms="4.2984065413475037e-01" purity="7.2337532043457031e-01" nType="-99"/>
        </Node>
      </Node>
    </BinaryTree>
    <BinaryTree type="DecisionTree" boostWeight="1.0000000000000000e+00" itree="1004">
      <Node pos="s" depth="0" NCoef="0" IVar="0" Cut="1.8750099465250969e-02" cType="1" res="2.7350394520908594e-03" rms="4.5695564150810242e-01" purity="5.0088286399841309e-01" nType="0">
        <Node pos="l" depth="1" NCoef="0" IVar="-1" Cut="0.0000000000000000e+00" cType="1" res="-7.4028933886438608e-04" rms="4.6713656187057495e-01" purity="4.6317136287689209e-01" nType="-99"/>
        <Node pos="r" depth="1" NCoef="0" IVar="5" Cut="3.2336041259765625e+02" cType="1" res="5.6973802857100964e-03" rms="4.5603969693183899e-01" purity="5.0373452901840210e-01" nType="0">
          <Node pos="l" depth="2" NCoef="0" IVar="-1" Cut="0.0000000000000000e+00" cType="1" res="-1.4485370775219053e-04" rms="4.5392897725105286e-01" purity="4.1060522198677063e-01" nType="-99"/>
          <Node pos="r" depth="2" NCoef="0" IVar="-1" Cut="0.0000000000000000e+00" cType="1" res="3.6121867015026510e-04" rms="4.5838823914527893e-01" purity="6.3097798824310303e-01" nType="-99"/>
        </Node>
      </Node>
    </BinaryTree>
    <BinaryTree type="DecisionTree" boostWeight="1.0000000000000000e+00" itree="1005">
      <Node pos="s" depth="0" NCoef="0" IVar="6" Cut="2.8305344581604004e+00" cType="1" res="5.3186006844043732e-03" rms="4.5866498351097107e-01" purity="5.0356185436248779e-01" nType="0">
        <Node pos="l" depth="1" NCoef="0" IVar="1" Cut="9.3943727016448975e-01" cType="1" res="8.0754123628139496e-03" rms="4.6090933680534363e-01" purity="5.1774501800537109e-01" nType="0">
          <Node pos="l" depth="2" NCoef="0" IVar="-1" Cut="0.0000000000000000e+00" cType="1" res="-1.2176531890872866e-04" rms="4.6250107884407043e-01" purity="3.7922009825706482e-01" nType="-99"/>
          <Node pos="r" depth="2" NCoef="0" IVar="-1" Cut="0.0000000000000000e+00" cType="1" res="2.4559203302487731e-04" rms="4.6004596352577209e-01" purity="5.8152329921722412e-01" nType="-99"/>
        </Node>
        <Node pos="r" depth="1" NCoef="0" IVar="-1" Cut="0.0000000000000000e+00" cType="1" res="-1.3599994126707315e-03" rms="4.1745457053184509e-01" purity="2.7041292190551758e-01" nType="-99"/>
      </Node>
    </BinaryTree>
    <BinaryTree type="DecisionTree" boostWeight="1.0000000000000000e+00" itree="1006">
      <Node pos="s" depth="0" NCoef="0" IVar="1" Cut="9.4820255041122437e-01" cType="1" res="3.5767909139394760e-03" rms="4.5869925618171692e-01" purity="5.0073307752609253e-01" nType="0">
        <Node pos="l" depth="1" NCoef="0" IVar="4" Cut="2.2620595991611481e-02" cType="1" res="-6.9952388294041157e-03" rms="4.5950728654861450e-01" purity="3.8301673531532288e-01" nType="0">
          <Node pos="l" depth="2" NCoef="0" IVar="-1" Cut="0.0000000000000000e+00" cType="1" res="4.5124004827812314e-05" rms="4.6256381273269653e-01" purity="4.0362688899040222e-01" nType="-99"/>
          <Node pos="r" depth="2" NCoef="0" IVar="-1" Cut="0.0000000000000000e+00" cType="1" res="-4.3340734555386007e-04" rms="4.5580708980560303e-01" purity="3.5969224572181702e-01" nType="-99"/>
        </Node>
        <Node pos="r" depth="1" NCoef="0" IVar="2" Cut="5.4388647460937500e+02" cType="1" res="1.1913635767996311e-02" rms="4.5788893103599548e-01" purity="5.9356129169464111e-01" nType="0">
          <Node pos="l" depth="2" NCoef="0" IVar="-1" Cut="0.0000000000000000e+00" cType="1" res="1.0808648221427575e-04" rms="4.6755254268646240e-01" purity="5.4235506057739258e-01" nType="-99"/>
          <Node pos="r" depth="2" NCoef="0" IVar="-1" Cut="0.0000000000000000e+00" cType="1" res="4.2740794015116990e-04" rms="4.3118023872375488e-01" purity="7.2766447067260742e-01" nType="-99"/>
        </Node>
      </Node>
    </BinaryTree>
    <BinaryTree type="DecisionTree" boostWeight="1.0000000000000000e+00" itree="1007">
      <Node pos="s" depth="0" NCoef="0" IVar="2" Cut="4.8267938232421875e+02" cType="1" res="4.1351425461471081e-03" rms="4.5760020613670349e-01" purity="5.0208956003189087e-01" nType="0">
        <Node pos="l" depth="1" NCoef="0" IVar="2" Cut="3.6264422607421875e+02" cType="1" res="-5.7816859334707260e-03" rms="4.5663136243820190e-01" purity="4.1133776307106018e-01" nType="0">
          <Node pos="l" depth="2" NCoef="0" IVar="-1" Cut="0.0000000000000000e+00" cType="1" res="-5.7840015506371856e-04" rms="4.2760396003723145e-01" purity="2.9317176342010498e-01" nType="-99"/>
          <Node pos="r" depth="2" NCoef="0" IVar="-1" Cut="0.0000000000000000e+00" cType="1" res="4.5635744754690677e-05" rms="4.7393247485160828e-01" purity="4.8625171184539795e-01" nType="-99"/>
        </Node>
        <Node pos="r" depth="1" NCoef="0" IVar="3" Cut="-5.5297516286373138e-02" cType="1" res="1.9001767039299011e-02" rms="4.5864731073379517e-01" purity="6.3813847303390503e-01" nType="0">
          <Node pos="l" depth="2" NCoef="0" IVar="-1" Cut="0.0000000000000000e+00" cType="1" res="6.5151992021128535e-04" rms="4.5898494124412537e-01" purity="6.2920236587524414e-01" nType="-99"/>
          <Node pos="r" depth="2" NCoef="0" IVar="-1" Cut="0.0000000000000000e+00" cType="1" res="1.3248555478639901e-04" rms="4.5809689164161682e-01" purity="6.4250975847244263e-01" nType="-99"/>
        </Node>
      </Node>
    </BinaryTree>
    <BinaryTree type="DecisionTree" boostWeight="1.0000000000000000e+00" itree="1008">
      <Node pos="s" depth="0" NCoef="0" IVar="1" Cut="9.8390638828277588e-01" cType="1" res="7.4080430204048753e-04" rms="4.5730078220367432e-01" purity="4.9924781918525696e-01" nType="0">
        <Node pos="l" depth="1" NCoef="0" IVar="3" Cut="4.1871931403875351e-02" cType="1" res="-2.9449688736349344e-03" rms="4.6455901861190796e-01" purity="4.6279144287109375e-01" nType="0">
          <Node pos="l" depth="2" NCoef="0" IVar="-1" Cut="0.0000000000000000e+00" cType="1" res="-2.2756123507861048e-04" rms="4.6097400784492493e-01" purity="4.3387573957443237e-01" nType="-99"/>
          <Node pos="r" depth="2" NCoef="0" IVar="-1" Cut="0.0000000000000000e+00" cType="1" res="1.4097952225711197e-04" rms="4.6915251016616821e-01" purity="5.0183755159378052e-01" nType="-99"/>
        </Node>
        <Node pos="r" depth="1" NCoef="0" IVar="-1" Cut="0.0000000000000000e+00" cType="1" res="4.8863299889490008e-04" rms="3.9327904582023621e-01" purity="7.9063051939010620e-01" nType="-99"/>
      </Node>
    </BinaryTree>
    <BinaryTree type="DecisionTree" boostWeight="1.0000000000000000e+00" itree="1009">
      <Node pos="s" depth="0" NCoef="0" IVar="1" Cut="9.0636473894119263e-01" cType="1" res="3.7562123034149408e-03" rms="4.5787820219993591e-01" purity="5.0263583660125732e-01" nType="0">
        <Node pos="l" depth="1" NCoef="0" IVar="-1" Cut="0.0000000000000000e+00" cType="1" res="-1.1757727479562163e-03" rms="4.3878275156021118e-01" purity="2.9598331451416016e-01" nType="-99"/>
        <Node pos="r" depth="1" NCoef="0" IVar="4" Cut="-7.3504976928234100e-02" cType="1" res="6.1963829211890697e-03" rms="4.5880970358848572e-01" purity="5.1428806781768799e-01" nType="0">
          <Node pos="l" depth="2" NCoef="0" IVar="-1" Cut="0.0000000000000000e+00" cType="1" res="5.9259985573589802e-04" rms="4.5405393838882446e-01" purity="5.6786239147186279e-01" nType="-99"/>
          <Node pos="r" depth="2" NCoef="0" IVar="-1" Cut="0.0000000000000000e+00" cType="1" res="5.9005262301070616e-05" rms="4.5923927426338196e-01" purity="5.0823700428009033e-01" nType="-99"/>
        </Node>
      </Node>
    </BinaryTree>
    <BinaryTree type="DecisionTree" boostWeight="1.0000000000000000e+00" itree="1010">
      <Node pos="s" depth="0" NCoef="0" IVar="3" Cut="2.0420671999454498e-01" cType="1" res="3.9124768227338791e-03" rms="4.5962822437286377e-01" purity="5.0129336118698120e-01" nType="0">
        <Node pos="l" depth="1" NCoef="0" IVar="4" Cut="8.0053240060806274e-02" cType="1" res="6.8112876033410430e-04" rms="4.5860141515731812e-01" purity="4.9300208687782288e-01" nType="0">
          <Node pos="l" depth="2" NCoef="0" IVar="-1" Cut="0.0000000000000000e+00" cType="1" res="9.8211123258806765e-05" rms="4.5837694406509399e-01" purity="5.1215171813964844e-01" nType="-99"/>
          <Node pos="r" depth="2" NCoef="0" IVar="-1" Cut="0.0000000000000000e+00" cType="1" res="-4.5458204112946987e-04" rms="4.5907598733901978e-01" purity="4.0619799494743347e-01" nType="-99"/>
        </Node>
        <Node pos="r" depth="1" NCoef="0" IVar="-1" Cut="0.0000000000000000e+00" cType="1" res="5.3127191495150328e-04" rms="4.6716943383216858e-01" purity="5.6977725028991699e-01" nType="-99"/>
      </Node>
    </BinaryTree>
    <BinaryTree type="DecisionTree" boostWeight="1.0000000000000000e+00" itree="1011">
      <Node pos="s" depth="0" NCoef="0" IVar="2" Cut="6.3745947265625000e+02" cType="1" res="-1.2048593489453197e-03" rms="4.5715737342834473e-01" purity="4.9680018424987793e-01" nType="0">
        <Node pos="l" depth="1" NCoef="0" IVar="1" Cut="9.8407161235809326e-01" cType="1" res="-5.8728242293000221e-03" rms="4.5864033699035645e-01" purity="4.6290177106857300e-01" nType="0">
          <Node pos="l" depth="2" NCoef="0" IVar="-1" Cut="0.0000000000000000e+00" cType="1" res="-2.0185197354294360e-04" rms="4.6408063173294067e-01" purity="4.2609354853630066e-01" nType="-99"/>
          <Node pos="r" depth="2" NCoef="0" IVar="-1" Cut="0.0000000000000000e+00" cType="1" res="3.8416520692408085e-04" rms="4.0921688079833984e-01" purity="7.6989817619323730e-01" nType="-99"/>
        </Node>
        <Node pos="r" depth="1" NCoef="0" IVar="0" Cut="3.7886176258325577e-02" cType="1" res="2.4283144623041153e-02" rms="4.4811686873435974e-01" purity="6.8189209699630737e-01" nType="0">
          <Node pos="l" depth="2" NCoef="0" IVar="-1" Cut="0.0000000000000000e+00" cType="1" res="1.1447321594459936e-04" rms="4.6957293152809143e-01" purity="6.2820255756378174e-01" nType="-99"/>
          <Node pos="r" depth="2" NCoef="0" IVar="-1" Cut="0.0000000000000000e+00" cType="1" res="5.9805973432958126e-04" rms="4.2974531650543213e-01" purity="7.2471660375595093e-01" nType="-99"/>
        </Node>
      </Node>
    </BinaryTree>
    <BinaryTree type="DecisionTree" boostWeight="1.0000000000000000e+00" itree="1012">
      <Node pos="s" depth="0" NCoef="0" IVar="4" Cut="-7.2753287851810455e-02" cType="1" res="1.0899935849010944e-02" rms="4.5766165852546692e-01" purity="5.0836062431335449e-01" nType="0">
        <Node pos="l" depth="1" NCoef="0" IVar="-1" Cut="0.0000000000000000e+00" cType="1" res="7.5375084998086095e-04" rms="4.4793489575386047e-01" purity="5.7302975654602051e-01" nType="-99"/>
        <Node pos="r" depth="1" NCoef="0" IVar="3" Cut="8.5658177733421326e-02" cType="1" res="7.0713744498789310e-03" rms="4.5865219831466675e-01" purity="5.0068306922912598e-01" nType="0">
          <Node pos="l" depth="2" NCoef="0" IVar="-1" Cut="0.0000000000000000e+00" cType="1" res="-3.8724727346561849e-05" rms="4.5633232593536377e-01" purity="4.7410005331039429e-01" nType="-99"/>
          <Node pos="r" depth="2" NCoef="0" IVar="-1" Cut="0.0000000000000000e+00" cType="1" res="4.2320496868342161e-04" rms="4.6244326233863831e-01" purity="5.4970556497573853e-01" nType="-99"/>
        </Node>
      </Node>
    </BinaryTree>
    <BinaryTree type="DecisionTree" boostWeight="1.0000000000000000e+00" itree="1013">
      <Node pos="s" depth="0" NCoef="0" IVar="0" Cut="1.7709712684154510e-01" cType="1" res="4.5737479813396931e-03" rms="4.5928645133972168e-01" purity="5.0094622373580933e-01" nType="0">
        <Node pos="l" depth="1" NCoef="0" IVar="3" Cut="1.1741418391466141e-02" cType="1" res="1.1626434279605746e-03" rms="4.5972925424575806e-01" purity="4.9779701232910156e-01" nType="0">
          <Node pos="l" depth="2" NCoef="0" IVar="-1" Cut="0.0000000000000000e+00" cType="1" res="-1.8165870278608054e-04" rms="4.5464622974395752e-01" purity="4.6451267600059509e-01" nType="-99"/>
          <Node pos="r" depth="2" NCoef="0" IVar="-1" Cut="0.0000000000000000e+00" cType="1" res="1.9707414321601391e-04" rms="4.6437969803810120e-01" purity="5.2991062402725220e-01" nType="-99"/>
        </Node>
        <Node pos="r" depth="1" NCoef="0" IVar="5" Cut="2.6208416748046875e+02" cType="1" res="2.6826275512576103e-02" rms="4.5576107501983643e-01" purity="5.2149063348770142e-01" nType="0">
          <Node pos="l" depth="2" NCoef="0" IVar="-1" Cut="0.0000000000000000e+00" cType="1" res="3.6018260288983583e-05" rms="4.5605817437171936e-01" purity="3.7927502393722534e-01" nType="-99"/>
          <Node pos="r" depth="2" NCoef="0" IVar="-1" Cut="0.0000000000000000e+00" cType="1" res="7.7497563324868679e-04" rms="4.5427042245864868e-01" purity="6.5056860446929932e-01" nType="-99"/>
        </Node>
      </Node>
    </BinaryTree>
    <BinaryTree type="DecisionTree" boostWeight="1.0000000000000000e+00" itree="1014">
      <Node pos="s" depth="0" NCoef="0" IVar="6" Cut="1.5220841169357300e+00" cType="1" res="-8.6832646047696471e-04" rms="4.5795783400535583e-01" purity="4.9704322218894958e-01" nType="0">
        <Node pos="l" depth="1" NCoef="0" IVar="-1" Cut="0.0000000000000000e+00" cType="1" res="6.7440682323649526e-04" rms="4.3396747112274170e-01" purity="6.3160496950149536e-01" nType="-99"/>
        <Node pos="r" depth="1" NCoef="0" IVar="0" Cut="1.8612107262015343e-02" cType="1" res="-3.8365030195564032e-03" rms="4.5943892002105713e-01" purity="4.8764958977699280e-01" nType="0">
          <Node pos="l" depth="2" NCoef="0" IVar="-1" Cut="0.0000000000000000e+00" cType="1" res="-8.5872231284156442e-04" rms="4.6514576673507690e-01" purity="4.5238298177719116e-01" nType="-99"/>
          <Node pos="r" depth="2" NCoef="0" IVar="-1" Cut="0.0000000000000000e+00" cType="1" res="-2.2616759451921098e-05" rms="4.5890244841575623e-01" purity="4.9023345112800598e-01" nType="-99"/>
        </Node>
      </Node>
    </BinaryTree>
    <BinaryTree type="DecisionTree" boostWeight="1.0000000000000000e+00" itree="1015">
      <Node pos="s" depth="0" NCoef="0" IVar="0" Cut="2.0365081727504730e-01" cType="1" res="2.1179467439651489e-03" rms="4.5800611376762390e-01" purity="5.0087714195251465e-01" nType="0">
        <Node pos="l" depth="1" NCoef="0" IVar="1" Cut="9.8436695337295532e-01" cType="1" res="-9.1311987489461899e-04" rms="4.5869284868240356e-01" purity="4.9774861335754395e-01" nType="0">
          <Node pos="l" depth="2" NCoef="0" IVar="-1" Cut="0.0000000000000000e+00" cType="1" res="-8.8847853476181626e-05" rms="4.6554088592529297e-01" purity="4.6339210867881775e-01" nType="-99"/>
          <Node pos="r" depth="2" NCoef="0" IVar="-1" Cut="0.0000000000000000e+00" cType="1" res="4.6934650163166225e-04" rms="3.9443388581275940e-01" purity="7.8994041681289673e-01" nType="-99"/>
        </Node>
        <Node pos="r" depth="1" NCoef="0" IVar="-1" Cut="0.0000000000000000e+00" cType="1" res="6.1100942548364401e-04" rms="4.4956696033477783e-01" purity="5.3349947929382324e-01" nType="-99"/>
      </Node>
    </BinaryTree>
    <BinaryTree type="DecisionTree" boostWeight="1.0000000000000000e+00" itree="1016">
      <Node pos="s" depth="0" NCoef="0" IVar="5" Cut="5.2181793212890625e+02" cType="1" res="-1.1556687531992793e-03" rms="4.5751446485519409e-01" purity="4.9674946069717407e-01" nType="0">
        <Node pos="l" depth="1" NCoef="0" IVar="6" Cut="2.1116838455200195e+00" cType="1" res="-4.5074811205267906e-03" rms="4.5889168977737427e-01" purity="4.7604042291641235e-01" nType="0">
          <Node pos="l" depth="2" NCoef="0" IVar="-1" Cut="0.0000000000000000e+00" cType="1" res="1.1681807518471032e-04" rms="4.6135097742080688e-01" purity="5.3997457027435303e-01" nType="-99"/>
          <Node pos="r" depth="2" NCoef="0" IVar="-1" Cut="0.0000000000000000e+00" cType="1" res="-2.1530075173359364e-04" rms="4.5752915740013123e-01" purity="4.4338694214820862e-01" nType="-99"/>
        </Node>
        <Node pos="r" depth="1" NCoef="0" IVar="-1" Cut="0.0000000000000000e+00" cType="1" res="4.8781931400299072e-04" rms="4.4298559427261353e-01" purity="6.9310539960861206e-01" nType="-99"/>
      </Node>
    </BinaryTree>
    <BinaryTree type="DecisionTree" boostWeight="1.0000000000000000e+00" itree="1017">
      <Node pos="s" depth="0" NCoef="0" IVar="2" Cut="7.2997180175781250e+02" cType="1" res="4.2703659273684025e-03" rms="4.5835095643997192e-01" purity="5.0221127271652222e-01" nType="0">
        <Node pos="l" depth="1" NCoef="0" IVar="0" Cut="1.7592422664165497e-01" cType="1" res="1.2505197664722800e-03" rms="4.6016997098922729e-01" purity="4.8209080100059509e-01" nType="0">
          <Node pos="l" depth="2" NCoef="0" IVar="-1" Cut="0.0000000000000000e+00" cType="1" res="-5.7724573707673699e-05" rms="4.6170830726623535e-01" purity="4.7498559951782227e-01" nType="-99"/>
          <Node pos="r" depth="2" NCoef="0" IVar="-1" Cut="0.0000000000000000e+00" cType="1" res="4.6745871077291667e-04" rms="4.5051378011703491e-01" purity="5.2287161350250244e-01" nType="-99"/>
        </Node>
        <Node pos="r" depth="1" NCoef="0" IVar="-1" Cut="0.0000000000000000e+00" cType="1" res="5.5382854770869017e-04" rms="4.3819054961204529e-01" purity="7.0733904838562012e-01" nType="-99"/>
      </Node>
    </BinaryTree>
    <BinaryTree type="DecisionTree" boostWeight="1.0000000000000000e+00" itree="1018">
      <Node pos="s" depth="0" NCoef="0" IVar="0" Cut="1.0256792604923248e-01" cType="1" res="-2.0848468411713839e-03" rms="4.5723098516464233e-01" purity="4.9579784274101257e-01" nType="0">
        <Node pos="l" depth="1" NCoef="0" IVar="5" Cut="5.3179779052734375e+02" cType="1" res="-1.1544882319867611e-02" rms="4.5931822061538696e-01" purity="4.8461043834686279e-01" nType="0">
          <Node pos="l" depth="2" NCoef="0" IVar="-1" Cut="0.0000000000000000e+00" cType="1" res="-3.4961348865181208e-04" rms="4.6047076582908630e-01" purity="4.5604902505874634e-01" nType="-99"/>
          <Node pos="r" depth="2" NCoef="0" IVar="-1" Cut="0.0000000000000000e+00" cType="1" res="3.7737877573817968e-04" rms="4.4977599382400513e-01" purity="6.7978996038436890e-01" nType="-99"/>
        </Node>
        <Node pos="r" depth="1" NCoef="0" IVar="5" Cut="2.8241305541992188e+02" cType="1" res="1.3219722546637058e-02" rms="4.5341616868972778e-01" purity="5.1389700174331665e-01" nType="0">
          <Node pos="l" depth="2" NCoef="0" IVar="-1" Cut="0.0000000000000000e+00" cType="1" res="-7.1226008003577590e-05" rms="4.5262908935546875e-01" purity="3.9584195613861084e-01" nType="-99"/>
          <Node pos="r" depth="2" NCoef="0" IVar="-1" Cut="0.0000000000000000e+00" cType="1" res="5.0012418068945408e-04" rms="4.5360162854194641e-01" purity="6.4584290981292725e-01" nType="-99"/>
        </Node>
      </Node>
    </BinaryTree>
    <BinaryTree type="DecisionTree" boostWeight="1.0000000000000000e+00" itree="1019">
      <Node pos="s" depth="0" NCoef="0" IVar="5" Cut="4.7721374511718750e+02" cType="1" res="3.5427564289420843e-03" rms="4.5750349760055542e-01" purity="5.0152695178985596e-01" nType="0">
        <Node pos="l" depth="1" NCoef="0" IVar="1" Cut="9.8140251636505127e-01" cType="1" res="-4.3077088776044548e-05" rms="4.5879617333412170e-01" purity="4.7437512874603271e-01" nType="0">
          <Node pos="l" depth="2" NCoef="0" IVar="-1" Cut="0.0000000000000000e+00" cType="1" res="-6.8850735260639340e-05" rms="4.6453869342803955e-01" purity="4.3233934044837952e-01" nType="-99"/>
          <Node pos="r" depth="2" NCoef="0" IVar="-1" Cut="0.0000000000000000e+00" cType="1" res="3.4263348788954318e-04" rms="4.1782370209693909e-01" purity="7.5482892990112305e-01" nType="-99"/>
        </Node>
        <Node pos="r" depth="1" NCoef="0" IVar="-1" Cut="0.0000000000000000e+00" cType="1" res="4.3409928912296891e-04" rms="4.4805333018302917e-01" purity="6.8261748552322388e-01" nType="-99"/>
      </Node>
    </BinaryTree>
    <BinaryTree type="DecisionTree" boostWeight="1.0000000000000000e+00" itree="1020">
      <Node pos="s" depth="0" NCoef="0" IVar="5" Cut="5.2269866943359375e+02" cType="1" res="3.0212055426090956e-03" rms="4.5969483256340027e-01" purity="4.9896231293678284e-01" nType="0">
        <Node pos="l" depth="1" NCoef="0" IVar="3" Cut="1.6979527473449707e-01" cType="1" res="-6.3624087488278747e-04" rms="4.6106162667274475e-01" purity="4.7824165225028992e-01" nType="0">
          <Node pos="l" depth="2" NCoef="0" IVar="-1" Cut="0.0000000000000000e+00" cType="1" res="-1.0069896234199405e-04" rms="4.5877581834793091e-01" purity="4.6528851985931396e-01" nType="-99"/>
          <Node pos="r" depth="2" NCoef="0" IVar="-1" Cut="0.0000000000000000e+00" cType="1" res="3.7412901292555034e-04" rms="4.7185435891151428e-01" purity="5.4367452859878540e-01" nType="-99"/>
        </Node>
        <Node pos="r" depth="1" NCoef="0" IVar="-1" Cut="0.0000000000000000e+00" cType="1" res="5.9267441974952817e-04" rms="4.4489952921867371e-01" purity="6.9707912206649780e-01" nType="-99"/>
      </Node>
    </BinaryTree>
    <BinaryTree type="DecisionTree" boostWeight="1.0000000000000000e+00" itree="1021">
      <Node pos="s" depth="0" NCoef="0" IVar="3" Cut="2.0420671999454498e-01" cType="1" res="8.8856313377618790e-03" rms="4.5819208025932312e-01" purity="5.0742614269256592e-01" nType="0">
        <Node pos="l" depth="1" NCoef="0" IVar="0" Cut="7.4298739433288574e-02" cType="1" res="5.7582557201385498e-03" rms="4.5718899369239807e-01" purity="4.9921479821205139e-01" nType="0">
          <Node pos="l" depth="2" NCoef="0" IVar="-1" Cut="0.0000000000000000e+00" cType="1" res="-1.3153572217561305e-04" rms="4.5970642566680908e-01" purity="4.8248097300529480e-01" nType="-99"/>
          <Node pos="r" depth="2" NCoef="0" IVar="-1" Cut="0.0000000000000000e+00" cType="1" res="2.9435261967591941e-04" rms="4.5497405529022217e-01" purity="5.1232689619064331e-01" nType="-99"/>
        </Node>
        <Node pos="r" depth="1" NCoef="0" IVar="-1" Cut="0.0000000000000000e+00" cType="1" res="6.0891179600730538e-04" rms="4.6576634049415588e-01" purity="5.7703828811645508e-01" nType="-99"/>
      </Node>
    </BinaryTree>
    <BinaryTree type="DecisionTree" boostWeight="1.0000000000000000e+00" itree="1022">
      <Node pos="s" depth="0" NCoef="0" IVar="0" Cut="1.8159952759742737e-01" cType="1" res="3.4375137183815241e-03" rms="4.5681154727935791e-01" purity="5.0279641151428223e-01" nType="0">
        <Node pos="l" depth="1" NCoef="0" IVar="0" Cut="2.6048475876450539e-02" cType="1" res="-8.3487492520362139e-04" rms="4.5843097567558289e-01" purity="4.9781876802444458e-01" nType="0">
          <Node pos="l" depth="2" NCoef="0" IVar="-1" Cut="0.0000000000000000e+00" cType="1" res="-5.9542444068938494e-04" rms="4.6775352954864502e-01" purity="4.7114369273185730e-01" nType="-99"/>
          <Node pos="r" depth="2" NCoef="0" IVar="-1" Cut="0.0000000000000000e+00" cType="1" res="7.1001537435222417e-05" rms="4.5677667856216431e-01" purity="5.0204461812973022e-01" nType="-99"/>
        </Node>
        <Node pos="r" depth="1" NCoef="0" IVar="2" Cut="3.7880029296875000e+02" cType="1" res="3.3174369484186172e-02" rms="4.4423988461494446e-01" purity="5.3744190931320190e-01" nType="0">
          <Node pos="l" depth="2" NCoef="0" IVar="-1" Cut="0.0000000000000000e+00" cType="1" res="-3.9200985338538885e-04" rms="4.3595269322395325e-01" purity="3.5426256060600281e-01" nType="-99"/>
          <Node pos="r" depth="2" NCoef="0" IVar="-1" Cut="0.0000000000000000e+00" cType="1" res="1.0282456642016768e-03" rms="4.4686031341552734e-01" purity="6.7158639430999756e-01" nType="-99"/>
        </Node>
      </Node>
    </BinaryTree>
    <BinaryTree type="DecisionTree" boostWeight="1.0000000000000000e+00" itree="1023">
      <Node pos="s" depth="0" NCoef="0" IVar="5" Cut="4.7660723876953125e+02" cType="1" res="-2.5096246972680092e-03" rms="4.5885780453681946e-01" purity="4.9373984336853027e-01" nType="0">
        <Node pos="l" depth="1" NCoef="0" IVar="1" Cut="9.8424941301345825e-01" cType="1" res="-6.2209139578044415e-03" rms="4.6039938926696777e-01" purity="4.6540328860282898e-01" nType="0">
          <Node pos="l" depth="2" NCoef="0" IVar="-1" Cut="0.0000000000000000e+00" cType="1" res="-2.0023286924697459e-04" rms="4.6633329987525940e-01" purity="4.2885148525238037e-01" nType="-99"/>
          <Node pos="r" depth="2" NCoef="0" IVar="-1" Cut="0.0000000000000000e+00" cType="1" res="3.3197781885974109e-04" rms="4.0624660253524780e-01" purity="7.7197009325027466e-01" nType="-99"/>
        </Node>
        <Node pos="r" depth="1" NCoef="0" IVar="-1" Cut="0.0000000000000000e+00" cType="1" res="3.4289268660359085e-04" rms="4.4805109500885010e-01" purity="6.7648440599441528e-01" nType="-99"/>
      </Node>
    </BinaryTree>
    <BinaryTree type="DecisionTree" boostWeight="1.0000000000000000e+00" itree="1024">
      <Node pos="s" depth="0" NCoef="0" IVar="3" Cut="2.1587277948856354e-01" cType="1" res="1.7582945292815566e-04" rms="4.5752575993537903e-01" purity="4.9855074286460876e-01" nType="0">
        <Node pos="l" depth="1" NCoef="0" IVar="2" Cut="6.0359210205078125e+02" cType="1" res="-3.3390719909220934e-03" rms="4.5641016960144043e-01" purity="4.9108064174652100e-01" nType="0">
          <Node pos="l" depth="2" NCoef="0" IVar="-1" Cut="0.0000000000000000e+00" cType="1" res="-1.7647926870267838e-04" rms="4.5729964971542358e-01" purity="4.4896033406257629e-01" nType="-99"/>
          <Node pos="r" depth="2" NCoef="0" IVar="-1" Cut="0.0000000000000000e+00" cType="1" res="2.8750573983415961e-04" rms="4.5202946662902832e-01" purity="6.6796344518661499e-01" nType="-99"/>
        </Node>
        <Node pos="r" depth="1" NCoef="0" IVar="-1" Cut="0.0000000000000000e+00" cType="1" res="6.2352325767278671e-04" rms="4.6728080511093140e-01" purity="5.7507556676864624e-01" nType="-99"/>
      </Node>
    </BinaryTree>
    <BinaryTree type="DecisionTree" boostWeight="1.0000000000000000e+00" itree="1025">
      <Node pos="s" depth="0" NCoef="0" IVar="1" Cut="9.2468547821044922e-01" cType="1" res="8.0038625746965408e-03" rms="4.5904639363288879e-01" purity="5.0668078660964966e-01" nType="0">
        <Node pos="l" depth="1" NCoef="0" IVar="3" Cut="-4.8463474959135056e-02" cType="1" res="-8.5027953609824181e-03" rms="4.5156037807464600e-01" purity="3.4398594498634338e-01" nType="0">
          <Node pos="l" depth="2" NCoef="0" IVar="-1" Cut="0.0000000000000000e+00" cType="1" res="4.3070162064395845e-04" rms="4.4974184036254883e-01" purity="3.2771170139312744e-01" nType="-99"/>
          <Node pos="r" depth="2" NCoef="0" IVar="-1" Cut="0.0000000000000000e+00" cType="1" res="-5.0768675282597542e-04" rms="4.5200607180595398e-01" purity="3.5211166739463806e-01" nType="-99"/>
        </Node>
        <Node pos="r" depth="1" NCoef="0" IVar="3" Cut="5.8835665695369244e-03" cType="1" res="1.1313806287944317e-02" rms="4.6046164631843567e-01" purity="5.3930461406707764e-01" nType="0">
          <Node pos="l" depth="2" NCoef="0" IVar="-1" Cut="0.0000000000000000e+00" cType="1" res="5.3972435125615448e-05" rms="4.5744043588638306e-01" purity="5.0589764118194580e-01" nType="-99"/>
          <Node pos="r" depth="2" NCoef="0" IVar="-1" Cut="0.0000000000000000e+00" cType="1" res="3.4125524689443409e-04" rms="4.6317574381828308e-01" purity="5.7112944126129150e-01" nType="-99"/>
        </Node>
      </Node>
    </BinaryTree>
    <BinaryTree type="DecisionTree" boostWeight="1.0000000000000000e+00" itree="1026">
      <Node pos="s" depth="0" NCoef="0" IVar="3" Cut="1.8963481485843658e-01" cType="1" res="-6.4801279222592711e-04" rms="4.5767790079116821e-01" purity="4.9664503335952759e-01" nType="0">
        <Node pos="l" depth="1" NCoef="0" IVar="4" Cut="1.0209453105926514e-01" cType="1" res="-4.7510690055787563e-03" rms="4.5664328336715698e-01" purity="4.8602053523063660e-01" nType="0">
          <Node pos="l" depth="2" NCoef="0" IVar="-1" Cut="0.0000000000000000e+00" cType="1" res="-1.3816718819725793e-05" rms="4.5783558487892151e-01" purity="5.0095164775848389e-01" nType="-99"/>
          <Node pos="r" depth="2" NCoef="0" IVar="-1" Cut="0.0000000000000000e+00" cType="1" res="-7.6540070585906506e-04" rms="4.4776687026023865e-01" purity="3.8732552528381348e-01" nType="-99"/>
        </Node>
        <Node pos="r" depth="1" NCoef="0" IVar="4" Cut="1.1143220961093903e-01" cType="1" res="2.7134545147418976e-02" rms="4.6366852521896362e-01" purity="5.6858551502227783e-01" nType="0">
          <Node pos="l" depth="2" NCoef="0" IVar="-1" Cut="0.0000000000000000e+00" cType="1" res="3.0324468389153481e-04" rms="4.6163442730903625e-01" purity="5.6376081705093384e-01" nType="-99"/>
          <Node pos="r" depth="2" NCoef="0" IVar="-1" Cut="0.0000000000000000e+00" cType="1" res="6.2826066277921200e-04" rms="4.6533423662185669e-01" purity="5.7301974296569824e-01" nType="-99"/>
        </Node>
      </Node>
    </BinaryTree>
    <BinaryTree type="DecisionTree" boostWeight="1.0000000000000000e+00" itree="1027">
      <Node pos="s" depth="0" NCoef="0" IVar="0" Cut="7.3148429393768311e-02" cType="1" res="-1.2244064128026366e-03" rms="4.5693683624267578e-01" purity="4.9751183390617371e-01" nType="0">
        <Node pos="l" depth="1" NCoef="0" IVar="3" Cut="1.3243782520294189e-01" cType="1" res="-1.6225945204496384e-02" rms="4.6171256899833679e-01" purity="4.7796437144279480e-01" nType="0">
          <Node pos="l" depth="2" NCoef="0" IVar="-1" Cut="0.0000000000000000e+00" cType="1" res="-5.7330360868945718e-04" rms="4.5677983760833740e-01" purity="4.5272147655487061e-01" nType="-99"/>
          <Node pos="r" depth="2" NCoef="0" IVar="-1" Cut="0.0000000000000000e+00" cType="1" res="1.8697191262617707e-04" rms="4.7238734364509583e-01" purity="5.3906178474426270e-01" nType="-99"/>
        </Node>
        <Node pos="r" depth="1" NCoef="0" IVar="2" Cut="3.7278048706054688e+02" cType="1" res="1.1229097843170166e-02" rms="4.5255643129348755e-01" purity="5.1373910903930664e-01" nType="0">
          <Node pos="l" depth="2" NCoef="0" IVar="-1" Cut="0.0000000000000000e+00" cType="1" res="-5.2681186934933066e-04" rms="4.3348953127861023e-01" purity="3.2310044765472412e-01" nType="-99"/>
          <Node pos="r" depth="2" NCoef="0" IVar="-1" Cut="0.0000000000000000e+00" cType="1" res="4.2738034971989691e-04" rms="4.6091088652610779e-01" purity="6.0725963115692139e-01" nType="-99"/>
        </Node>
      </Node>
    </BinaryTree>
    <BinaryTree type="DecisionTree" boostWeight="1.0000000000000000e+00" itree="1028">
      <Node pos="s" depth="0" NCoef="0" IVar="3" Cut="2.2581593692302704e-01" cType="1" res="4.2679398320615292e-03" rms="4.5772957801818848e-01" purity="5.0232660770416260e-01" nType="0">
        <Node pos="l" depth="1" NCoef="0" IVar="4" Cut="1.0535942018032074e-01" cType="1" res="6.2713539227843285e-04" rms="4.5703262090682983e-01" purity="4.9491038918495178e-01" nType="0">
          <Node pos="l" depth="2" NCoef="0" IVar="-1" Cut="0.0000000000000000e+00" cType="1" res="1.1305863881716505e-04" rms="4.5813885331153870e-01" purity="5.1071417331695557e-01" nType="-99"/>
          <Node pos="r" depth="2" NCoef="0" IVar="-1" Cut="0.0000000000000000e+00" cType="1" res="-8.4475381299853325e-04" rms="4.4784229993820190e-01" purity="3.8788363337516785e-01" nType="-99"/>
        </Node>
        <Node pos="r" depth="1" NCoef="0" IVar="-1" Cut="0.0000000000000000e+00" cType="1" res="8.1466650590300560e-04" rms="4.6380606293678284e-01" purity="5.9173369407653809e-01" nType="-99"/>
      </Node>
    </BinaryTree>
    <BinaryTree type="DecisionTree" boostWeight="1.0000000000000000e+00" itree="1029">
      <Node pos="s" depth="0" NCoef="0" IVar="0" Cut="1.9046347588300705e-02" cType="1" res="1.1853046016767621e-03" rms="4.5809727907180786e-01" purity="4.9918797612190247e-01" nType="0">
        <Node pos="l" depth="1" NCoef="0" IVar="-1" Cut="0.0000000000000000e+00" cType="1" res="-8.4896275075152516e-04" rms="4.6520978212356567e-01" purity="4.6343255043029785e-01" nType="-99"/>
        <Node pos="r" depth="1" NCoef="0" IVar="5" Cut="2.4185116577148438e+02" cType="1" res="4.3407934717833996e-03" rms="4.5739898085594177e-01" purity="5.0189948081970215e-01" nType="0">
          <Node pos="l" depth="2" NCoef="0" IVar="-1" Cut="0.0000000000000000e+00" cType="1" res="-4.7923956299200654e-04" rms="4.3344438076019287e-01" purity="3.1091111898422241e-01" nType="-99"/>
          <Node pos="r" depth="2" NCoef="0" IVar="-1" Cut="0.0000000000000000e+00" cType="1" res="1.8660011119209230e-04" rms="4.6421700716018677e-01" purity="5.5963784456253052e-01" nType="-99"/>
        </Node>
      </Node>
    </BinaryTree>
    <BinaryTree type="DecisionTree" boostWeight="1.0000000000000000e+00" itree="1030">
      <Node pos="s" depth="0" NCoef="0" IVar="3" Cut="2.1087369322776794e-01" cType="1" res="1.0885172523558140e-03" rms="4.5971739292144775e-01" purity="4.9756151437759399e-01" nType="0">
        <Node pos="l" depth="1" NCoef="0" IVar="0" Cut="1.7578621208667755e-01" cType="1" res="-2.6471877936273813e-03" rms="4.5902243256568909e-01" purity="4.8854541778564453e-01" nType="0">
          <Node pos="l" depth="2" NCoef="0" IVar="-1" Cut="0.0000000000000000e+00" cType="1" res="-1.4872092287987471e-04" rms="4.6059727668762207e-01" purity="4.8241600394248962e-01" nType="-99"/>
          <Node pos="r" depth="2" NCoef="0" IVar="-1" Cut="0.0000000000000000e+00" cType="1" res="4.4834858272224665e-04" rms="4.4920292496681213e-01" purity="5.2280670404434204e-01" nType="-99"/>
        </Node>
        <Node pos="r" depth="1" NCoef="0" IVar="-1" Cut="0.0000000000000000e+00" cType="1" res="6.0733180725947022e-04" rms="4.6466329693794250e-01" purity="5.8069217205047607e-01" nType="-99"/>
      </Node>
    </BinaryTree>
    <BinaryTree type="DecisionTree" boostWeight="1.0000000000000000e+00" itree="1031">
      <Node pos="s" depth="0" NCoef="0" IVar="4" Cut="5.6249026209115982e-02" cType="1" res="4.0872623212635517e-03" rms="4.5934745669364929e-01" purity="5.0182378292083740e-01" nType="0">
        <Node pos="l" depth="1" NCoef="0" IVar="2" Cut="6.4545660400390625e+02" cType="1" res="1.1483212932944298e-02" rms="4.5880332589149475e-01" purity="5.2253007888793945e-01" nType="0">
          <Node pos="l" depth="2" NCoef="0" IVar="-1" Cut="0.0000000000000000e+00" cType="1" res="1.5208515105769038e-04" rms="4.6227380633354187e-01" purity="4.9422502517700195e-01" nType="-99"/>
          <Node pos="r" depth="2" NCoef="0" IVar="-1" Cut="0.0000000000000000e+00" cType="1" res="5.8031862135976553e-04" rms="4.3241226673126221e-01" purity="7.2401773929595947e-01" nType="-99"/>
        </Node>
        <Node pos="r" depth="1" NCoef="0" IVar="3" Cut="2.3333509266376495e-01" cType="1" res="-1.1798212304711342e-02" rms="4.6011230349540710e-01" purity="4.5734962821006775e-01" nType="0">
          <Node pos="l" depth="2" NCoef="0" IVar="-1" Cut="0.0000000000000000e+00" cType="1" res="-4.2296637548133731e-04" rms="4.5791646838188171e-01" purity="4.3092530965805054e-01" nType="-99"/>
          <Node pos="r" depth="2" NCoef="0" IVar="-1" Cut="0.0000000000000000e+00" cType="1" res="3.2809883123263717e-04" rms="4.6762979030609131e-01" purity="5.6356334686279297e-01" nType="-99"/>
        </Node>
      </Node>
    </BinaryTree>
  </Weights>
</MethodSetup>
