<?xml version="1.0"?>
<MethodSetup Method="BDT::BDTG">
  <GeneralInfo>
    <Info name="TMVA Release" value="4.2.1 [262657]"/>
    <Info name="ROOT Release" value="6.06/01 [394753]"/>
    <Info name="Creator" value="lreuter"/>
    <Info name="Date" value="Wed Apr 11 14:14:27 2018"/>
    <Info name="Host" value="Linux vocms0301.cern.ch 2.6.32-642.11.1.el6.x86_64 #1 SMP Wed Nov 16 09:40:09 CET 2016 x86_64 x86_64 x86_64 GNU/Linux"/>
    <Info name="Dir" value="/nfs/dust/cms/user/lreuter/BDTs/DeepCSV/TTH_BDT_Training/2training"/>
    <Info name="Training events" value="204996"/>
    <Info name="TrainingTime" value="1.39893171e+02"/>
    <Info name="AnalysisType" value="Classification"/>
  </GeneralInfo>
  <Options>
    <Option name="V" modified="Yes">False</Option>
    <Option name="VerbosityLevel" modified="No">Default</Option>
    <Option name="VarTransform" modified="No">None</Option>
    <Option name="H" modified="Yes">False</Option>
    <Option name="CreateMVAPdfs" modified="No">False</Option>
    <Option name="IgnoreNegWeightsInTraining" modified="No">False</Option>
    <Option name="NTrees" modified="Yes">711</Option>
    <Option name="MaxDepth" modified="Yes">2</Option>
    <Option name="MinNodeSize" modified="No">5%</Option>
    <Option name="nCuts" modified="Yes">41</Option>
    <Option name="BoostType" modified="Yes">Grad</Option>
    <Option name="AdaBoostR2Loss" modified="No">quadratic</Option>
    <Option name="UseBaggedBoost" modified="Yes">True</Option>
    <Option name="Shrinkage" modified="Yes">3.065192e-02</Option>
    <Option name="AdaBoostBeta" modified="No">5.000000e-01</Option>
    <Option name="UseRandomisedTrees" modified="No">False</Option>
    <Option name="UseNvars" modified="No">3</Option>
    <Option name="UsePoissonNvars" modified="No">True</Option>
    <Option name="BaggedSampleFraction" modified="No">3.381070e-01</Option>
    <Option name="UseYesNoLeaf" modified="No">True</Option>
    <Option name="NegWeightTreatment" modified="Yes">ignorenegweightsintraining</Option>
    <Option name="Css" modified="No">1.000000e+00</Option>
    <Option name="Cts_sb" modified="No">1.000000e+00</Option>
    <Option name="Ctb_ss" modified="No">1.000000e+00</Option>
    <Option name="Cbb" modified="No">1.000000e+00</Option>
    <Option name="NodePurityLimit" modified="No">5.000000e-01</Option>
    <Option name="SeparationType" modified="No">giniindex</Option>
    <Option name="DoBoostMonitor" modified="No">False</Option>
    <Option name="UseFisherCuts" modified="No">False</Option>
    <Option name="MinLinCorrForFisher" modified="No">8.000000e-01</Option>
    <Option name="UseExclusiveVars" modified="No">False</Option>
    <Option name="DoPreselection" modified="No">False</Option>
    <Option name="SigToBkgFraction" modified="No">1.000000e+00</Option>
    <Option name="PruneMethod" modified="No">nopruning</Option>
    <Option name="PruneStrength" modified="No">0.000000e+00</Option>
    <Option name="PruningValFraction" modified="No">5.000000e-01</Option>
    <Option name="nEventsMin" modified="No">0</Option>
    <Option name="UseBaggedGrad" modified="No">False</Option>
    <Option name="GradBaggingFraction" modified="Yes">3.381070e-01</Option>
    <Option name="UseNTrainEvents" modified="No">0</Option>
    <Option name="NNodesMax" modified="No">0</Option>
  </Options>
  <Variables NVar="9">
    <Variable VarIndex="0" Expression="fourth_highest_btag" Label="fourth_highest_btag" Title="fourth_highest_btag" Unit="" Internal="fourth_highest_btag" Type="F" Min="-1.00000001e-01" Max="4.94090885e-01"/>
    <Variable VarIndex="1" Expression="Evt_Deta_JetsAverage" Label="Evt_Deta_JetsAverage" Title="Evt_Deta_JetsAverage" Unit="" Internal="Evt_Deta_JetsAverage" Type="F" Min="4.89327535e-02" Max="2.60760999e+00"/>
    <Variable VarIndex="2" Expression="second_highest_btag" Label="second_highest_btag" Title="second_highest_btag" Unit="" Internal="second_highest_btag" Type="F" Min="4.95136619e-01" Max="9.99766886e-01"/>
    <Variable VarIndex="3" Expression="dEta_fn" Label="dEta_fn" Title="dEta_fn" Unit="" Internal="dEta_fn" Type="F" Min="1.25674799e-03" Max="9.03510761e+00"/>
    <Variable VarIndex="4" Expression="lowest_btag" Label="lowest_btag" Title="lowest_btag" Unit="" Internal="lowest_btag" Type="F" Min="4.94100034e-01" Max="9.99427259e-01"/>
    <Variable VarIndex="5" Expression="all_sum_pt_with_met" Label="all_sum_pt_with_met" Title="all_sum_pt_with_met" Unit="" Internal="all_sum_pt_with_met" Type="F" Min="2.63425873e+02" Max="5.96153271e+03"/>
    <Variable VarIndex="6" Expression="Evt_Deta_TaggedJetsAverage" Label="Evt_Deta_TaggedJetsAverage" Title="Evt_Deta_TaggedJetsAverage" Unit="" Internal="Evt_Deta_TaggedJetsAverage" Type="F" Min="4.17419290e-03" Max="3.18134713e+00"/>
    <Variable VarIndex="7" Expression="aplanarity" Label="aplanarity" Title="aplanarity" Unit="" Internal="aplanarity" Type="F" Min="4.64613317e-04" Max="4.65622127e-01"/>
    <Variable VarIndex="8" Expression="avg_dr_tagged_jets" Label="avg_dr_tagged_jets" Title="avg_dr_tagged_jets" Unit="" Internal="avg_dr_tagged_jets" Type="F" Min="4.66016769e-01" Max="4.29699612e+00"/>
  </Variables>
  <Spectators NSpec="0"/>
  <Classes NClass="2">
    <Class Name="Signal" Index="0"/>
    <Class Name="Background" Index="1"/>
  </Classes>
  <Transformations NTransformations="0"/>
  <MVAPdfs/>
  <Weights NTrees="711" AnalysisType="1">
    <BinaryTree type="DecisionTree" boostWeight="1.0000000000000000e+00" itree="0">
      <Node pos="s" depth="0" NCoef="0" IVar="4" Cut="7.2249424457550049e-01" cType="1" res="1.2230754364281893e-03" rms="4.9999850988388062e-01" purity="5.0122308731079102e-01" nType="0">
        <Node pos="l" depth="1" NCoef="0" IVar="0" Cut="2.3947350680828094e-01" cType="1" res="-1.1140085756778717e-01" rms="4.8743188381195068e-01" purity="3.8859912753105164e-01" nType="0">
          <Node pos="l" depth="2" NCoef="0" IVar="-1" Cut="0.0000000000000000e+00" cType="1" res="-7.2186873294413090e-03" rms="4.6846231818199158e-01" purity="3.2523426413536072e-01" nType="-99"/>
          <Node pos="r" depth="2" NCoef="0" IVar="-1" Cut="0.0000000000000000e+00" cType="1" res="2.0494081545621157e-03" rms="4.9738657474517822e-01" purity="5.5105489492416382e-01" nType="-99"/>
        </Node>
        <Node pos="r" depth="1" NCoef="0" IVar="6" Cut="1.2698737382888794e+00" cType="1" res="1.4804013073444366e-01" rms="4.7758153080940247e-01" purity="6.4804011583328247e-01" nType="0">
          <Node pos="l" depth="2" NCoef="0" IVar="-1" Cut="0.0000000000000000e+00" cType="1" res="8.1069665029644966e-03" rms="4.5450812578201294e-01" purity="7.0838034152984619e-01" nType="-99"/>
          <Node pos="r" depth="2" NCoef="0" IVar="-1" Cut="0.0000000000000000e+00" cType="1" res="-1.0205329162999988e-03" rms="4.9936091899871826e-01" purity="4.7472792863845825e-01" nType="-99"/>
        </Node>
      </Node>
    </BinaryTree>
    <BinaryTree type="DecisionTree" boostWeight="1.0000000000000000e+00" itree="1">
      <Node pos="s" depth="0" NCoef="0" IVar="4" Cut="7.3468375205993652e-01" cType="1" res="-2.2813263349235058e-03" rms="4.9894246459007263e-01" purity="4.9765834212303162e-01" nType="0">
        <Node pos="l" depth="1" NCoef="0" IVar="0" Cut="1.6874985396862030e-01" cType="1" res="-1.0502909868955612e-01" rms="4.8792150616645813e-01" purity="3.9285543560981750e-01" nType="0">
          <Node pos="l" depth="2" NCoef="0" IVar="-1" Cut="0.0000000000000000e+00" cType="1" res="-7.9010063782334328e-03" rms="4.6073776483535767e-01" purity="3.0592784285545349e-01" nType="-99"/>
          <Node pos="r" depth="2" NCoef="0" IVar="-1" Cut="0.0000000000000000e+00" cType="1" res="7.4125156970694661e-04" rms="4.9942842125892639e-01" purity="5.1817917823791504e-01" nType="-99"/>
        </Node>
        <Node pos="r" depth="1" NCoef="0" IVar="6" Cut="1.2834209203720093e+00" cType="1" res="1.4496591687202454e-01" rms="4.7719925642013550e-01" purity="6.4785069227218628e-01" nType="0">
          <Node pos="l" depth="2" NCoef="0" IVar="-1" Cut="0.0000000000000000e+00" cType="1" res="7.9946955665946007e-03" rms="4.5388996601104736e-01" purity="7.0970803499221802e-01" nType="-99"/>
          <Node pos="r" depth="2" NCoef="0" IVar="-1" Cut="0.0000000000000000e+00" cType="1" res="-1.5290071023628116e-03" rms="4.9853011965751648e-01" purity="4.6168911457061768e-01" nType="-99"/>
        </Node>
      </Node>
    </BinaryTree>
    <BinaryTree type="DecisionTree" boostWeight="1.0000000000000000e+00" itree="2">
      <Node pos="s" depth="0" NCoef="0" IVar="4" Cut="7.3473328351974487e-01" cType="1" res="7.0667272666469216e-04" rms="4.9789887666702271e-01" purity="5.0050485134124756e-01" nType="0">
        <Node pos="l" depth="1" NCoef="0" IVar="0" Cut="2.2533462941646576e-01" cType="1" res="-1.0165584832429886e-01" rms="4.8772519826889038e-01" purity="3.9403876662254333e-01" nType="0">
          <Node pos="l" depth="2" NCoef="0" IVar="-1" Cut="0.0000000000000000e+00" cType="1" res="-6.9683715701103210e-03" rms="4.6801966428756714e-01" purity="3.2460501790046692e-01" nType="-99"/>
          <Node pos="r" depth="2" NCoef="0" IVar="-1" Cut="0.0000000000000000e+00" cType="1" res="2.0919779781252146e-03" rms="4.9709090590476990e-01" purity="5.5343276262283325e-01" nType="-99"/>
        </Node>
        <Node pos="r" depth="1" NCoef="0" IVar="6" Cut="1.4341763257980347e+00" cType="1" res="1.4733034372329712e-01" rms="4.7514128684997559e-01" purity="6.5300631523132324e-01" nType="0">
          <Node pos="l" depth="2" NCoef="0" IVar="-1" Cut="0.0000000000000000e+00" cType="1" res="7.6411729678511620e-03" rms="4.5672026276588440e-01" purity="7.0304900407791138e-01" nType="-99"/>
          <Node pos="r" depth="2" NCoef="0" IVar="-1" Cut="0.0000000000000000e+00" cType="1" res="-2.7448916807770729e-03" rms="4.9518936872482300e-01" purity="4.3080833554267883e-01" nType="-99"/>
        </Node>
      </Node>
    </BinaryTree>
    <BinaryTree type="DecisionTree" boostWeight="1.0000000000000000e+00" itree="3">
      <Node pos="s" depth="0" NCoef="0" IVar="4" Cut="7.3474144935607910e-01" cType="1" res="1.6922442009672523e-03" rms="4.9697443842887878e-01" purity="5.0147718191146851e-01" nType="0">
        <Node pos="l" depth="1" NCoef="0" IVar="0" Cut="1.4046536386013031e-01" cType="1" res="-9.7905047237873077e-02" rms="4.8777118325233459e-01" purity="3.9568960666656494e-01" nType="0">
          <Node pos="l" depth="2" NCoef="0" IVar="-1" Cut="0.0000000000000000e+00" cType="1" res="-7.7221067622303963e-03" rms="4.5948189496994019e-01" purity="3.0301675200462341e-01" nType="-99"/>
          <Node pos="r" depth="2" NCoef="0" IVar="-1" Cut="0.0000000000000000e+00" cType="1" res="-3.7124707887414843e-05" rms="4.9940678477287292e-01" purity="4.9753868579864502e-01" nType="-99"/>
        </Node>
        <Node pos="r" depth="1" NCoef="0" IVar="6" Cut="1.3443267345428467e+00" cType="1" res="1.4373427629470825e-01" rms="4.7495868802070618e-01" purity="6.5234756469726562e-01" nType="0">
          <Node pos="l" depth="2" NCoef="0" IVar="-1" Cut="0.0000000000000000e+00" cType="1" res="7.6133171096444130e-03" rms="4.5513668656349182e-01" purity="7.0678597688674927e-01" nType="-99"/>
          <Node pos="r" depth="2" NCoef="0" IVar="-1" Cut="0.0000000000000000e+00" cType="1" res="-1.6839876770973206e-03" rms="4.9794721603393555e-01" purity="4.5666003227233887e-01" nType="-99"/>
        </Node>
      </Node>
    </BinaryTree>
    <BinaryTree type="DecisionTree" boostWeight="1.0000000000000000e+00" itree="4">
      <Node pos="s" depth="0" NCoef="0" IVar="4" Cut="7.3468041419982910e-01" cType="1" res="-3.4416262060403824e-03" rms="4.9600714445114136e-01" purity="4.9625760316848755e-01" nType="0">
        <Node pos="l" depth="1" NCoef="0" IVar="0" Cut="2.1119046211242676e-01" cType="1" res="-1.0193822532892227e-01" rms="4.8602852225303650e-01" purity="3.8957226276397705e-01" nType="0">
          <Node pos="l" depth="2" NCoef="0" IVar="-1" Cut="0.0000000000000000e+00" cType="1" res="-6.9060204550623894e-03" rms="4.6613824367523193e-01" purity="3.1988075375556946e-01" nType="-99"/>
          <Node pos="r" depth="2" NCoef="0" IVar="-1" Cut="0.0000000000000000e+00" cType="1" res="1.2872782535851002e-03" rms="4.9871012568473816e-01" purity="5.3363245725631714e-01" nType="-99"/>
        </Node>
        <Node pos="r" depth="1" NCoef="0" IVar="6" Cut="1.4341763257980347e+00" cType="1" res="1.3580980896949768e-01" rms="4.7620412707328796e-01" purity="6.4708596467971802e-01" nType="0">
          <Node pos="l" depth="2" NCoef="0" IVar="-1" Cut="0.0000000000000000e+00" cType="1" res="7.0969462394714355e-03" rms="4.5960494875907898e-01" purity="6.9628995656967163e-01" nType="-99"/>
          <Node pos="r" depth="2" NCoef="0" IVar="-1" Cut="0.0000000000000000e+00" cType="1" res="-2.7815189678221941e-03" rms="4.9480366706848145e-01" purity="4.2811658978462219e-01" nType="-99"/>
        </Node>
      </Node>
    </BinaryTree>
    <BinaryTree type="DecisionTree" boostWeight="1.0000000000000000e+00" itree="5">
      <Node pos="s" depth="0" NCoef="0" IVar="4" Cut="7.1062237024307251e-01" cType="1" res="2.7572659309953451e-03" rms="4.9498355388641357e-01" purity="5.0243109464645386e-01" nType="0">
        <Node pos="l" depth="1" NCoef="0" IVar="0" Cut="1.8289458751678467e-01" cType="1" res="-1.0491612553596497e-01" rms="4.8435863852500916e-01" purity="3.8431903719902039e-01" nType="0">
          <Node pos="l" depth="2" NCoef="0" IVar="-1" Cut="0.0000000000000000e+00" cType="1" res="-7.5069922022521496e-03" rms="4.5890149474143982e-01" purity="3.0177047848701477e-01" nType="-99"/>
          <Node pos="r" depth="2" NCoef="0" IVar="-1" Cut="0.0000000000000000e+00" cType="1" res="8.2704966189339757e-04" rms="4.9911904335021973e-01" purity="5.2096962928771973e-01" nType="-99"/>
        </Node>
        <Node pos="r" depth="1" NCoef="0" IVar="6" Cut="1.3245691061019897e+00" cType="1" res="1.3099589943885803e-01" rms="4.7660097479820251e-01" purity="6.4310222864151001e-01" nType="0">
          <Node pos="l" depth="2" NCoef="0" IVar="-1" Cut="0.0000000000000000e+00" cType="1" res="7.1908407844603062e-03" rms="4.5708316564559937e-01" purity="7.0113688707351685e-01" nType="-99"/>
          <Node pos="r" depth="2" NCoef="0" IVar="-1" Cut="0.0000000000000000e+00" cType="1" res="-1.9203935516998172e-03" rms="4.9663177132606506e-01" purity="4.4917529821395874e-01" nType="-99"/>
        </Node>
      </Node>
    </BinaryTree>
    <BinaryTree type="DecisionTree" boostWeight="1.0000000000000000e+00" itree="6">
      <Node pos="s" depth="0" NCoef="0" IVar="4" Cut="7.4676364660263062e-01" cType="1" res="1.3174329651519656e-03" rms="4.9414667487144470e-01" purity="5.0081682205200195e-01" nType="0">
        <Node pos="l" depth="1" NCoef="0" IVar="0" Cut="2.3948051035404205e-01" cType="1" res="-9.0891599655151367e-02" rms="4.8677465319633484e-01" purity="3.9757785201072693e-01" nType="0">
          <Node pos="l" depth="2" NCoef="0" IVar="-1" Cut="0.0000000000000000e+00" cType="1" res="-6.0485135763883591e-03" rms="4.7136312723159790e-01" purity="3.3602556586265564e-01" nType="-99"/>
          <Node pos="r" depth="2" NCoef="0" IVar="-1" Cut="0.0000000000000000e+00" cType="1" res="2.0042036194354296e-03" rms="4.9683859944343567e-01" purity="5.5418276786804199e-01" nType="-99"/>
        </Node>
        <Node pos="r" depth="1" NCoef="0" IVar="6" Cut="1.3916901350021362e+00" cType="1" res="1.4358845353126526e-01" rms="4.7114610671997070e-01" purity="6.6010612249374390e-01" nType="0">
          <Node pos="l" depth="2" NCoef="0" IVar="-1" Cut="0.0000000000000000e+00" cType="1" res="7.5268088839948177e-03" rms="4.5129048824310303e-01" purity="7.1489763259887695e-01" nType="-99"/>
          <Node pos="r" depth="2" NCoef="0" IVar="-1" Cut="0.0000000000000000e+00" cType="1" res="-2.1483243908733130e-03" rms="4.9645233154296875e-01" purity="4.4205000996589661e-01" nType="-99"/>
        </Node>
      </Node>
    </BinaryTree>
    <BinaryTree type="DecisionTree" boostWeight="1.0000000000000000e+00" itree="7">
      <Node pos="s" depth="0" NCoef="0" IVar="4" Cut="7.2265785932540894e-01" cType="1" res="1.1766180978156626e-04" rms="4.9329787492752075e-01" purity="4.9962738156318665e-01" nType="0">
        <Node pos="l" depth="1" NCoef="0" IVar="0" Cut="2.3948051035404205e-01" cType="1" res="-9.6708647906780243e-02" rms="4.8456126451492310e-01" purity="3.8866317272186279e-01" nType="0">
          <Node pos="l" depth="2" NCoef="0" IVar="-1" Cut="0.0000000000000000e+00" cType="1" res="-6.4801517874002457e-03" rms="4.6646511554718018e-01" purity="3.2138657569885254e-01" nType="-99"/>
          <Node pos="r" depth="2" NCoef="0" IVar="-1" Cut="0.0000000000000000e+00" cType="1" res="2.1107173524796963e-03" rms="4.9669274687767029e-01" purity="5.5721700191497803e-01" nType="-99"/>
        </Node>
        <Node pos="r" depth="1" NCoef="0" IVar="6" Cut="1.4715381860733032e+00" cType="1" res="1.2776540219783783e-01" rms="4.7534388303756714e-01" purity="6.4591336250305176e-01" nType="0">
          <Node pos="l" depth="2" NCoef="0" IVar="-1" Cut="0.0000000000000000e+00" cType="1" res="6.5754507668316364e-03" rms="4.6142703294754028e-01" purity="6.9073235988616943e-01" nType="-99"/>
          <Node pos="r" depth="2" NCoef="0" IVar="-1" Cut="0.0000000000000000e+00" cType="1" res="-3.1178283970803022e-03" rms="4.9282202124595642e-01" purity="4.1631045937538147e-01" nType="-99"/>
        </Node>
      </Node>
    </BinaryTree>
    <BinaryTree type="DecisionTree" boostWeight="1.0000000000000000e+00" itree="8">
      <Node pos="s" depth="0" NCoef="0" IVar="4" Cut="7.7076745033264160e-01" cType="1" res="2.1686799300368875e-04" rms="4.9247798323631287e-01" purity="4.9967378377914429e-01" nType="0">
        <Node pos="l" depth="1" NCoef="0" IVar="0" Cut="1.9703456759452820e-01" cType="1" res="-7.9667903482913971e-02" rms="4.8738622665405273e-01" purity="4.0756571292877197e-01" nType="0">
          <Node pos="l" depth="2" NCoef="0" IVar="-1" Cut="0.0000000000000000e+00" cType="1" res="-6.1120912432670593e-03" rms="4.6872010827064514e-01" purity="3.3043229579925537e-01" nType="-99"/>
          <Node pos="r" depth="2" NCoef="0" IVar="-1" Cut="0.0000000000000000e+00" cType="1" res="1.7267618095502257e-03" rms="4.9649623036384583e-01" purity="5.4737770557403564e-01" nType="-99"/>
        </Node>
        <Node pos="r" depth="1" NCoef="0" IVar="6" Cut="1.2875654697418213e+00" cType="1" res="1.4743922650814056e-01" rms="4.6721962094306946e-01" purity="6.6942292451858521e-01" nType="0">
          <Node pos="l" depth="2" NCoef="0" IVar="-1" Cut="0.0000000000000000e+00" cType="1" res="7.8151971101760864e-03" rms="4.4388982653617859e-01" purity="7.3011648654937744e-01" nType="-99"/>
          <Node pos="r" depth="2" NCoef="0" IVar="-1" Cut="0.0000000000000000e+00" cType="1" res="-7.2801747592166066e-04" rms="4.9862697720527649e-01" purity="4.7965019941329956e-01" nType="-99"/>
        </Node>
      </Node>
    </BinaryTree>
    <BinaryTree type="DecisionTree" boostWeight="1.0000000000000000e+00" itree="9">
      <Node pos="s" depth="0" NCoef="0" IVar="4" Cut="8.0685639381408691e-01" cType="1" res="7.8734016278758645e-04" rms="4.9150910973548889e-01" purity="5.0032436847686768e-01" nType="0">
        <Node pos="l" depth="1" NCoef="0" IVar="1" Cut="1.1526892185211182e+00" cType="1" res="-7.1297079324722290e-02" rms="4.8808914422988892e-01" purity="4.1726315021514893e-01" nType="0">
          <Node pos="l" depth="2" NCoef="0" IVar="-1" Cut="0.0000000000000000e+00" cType="1" res="7.8799732727929950e-04" rms="4.9493789672851562e-01" purity="5.0996917486190796e-01" nType="-99"/>
          <Node pos="r" depth="2" NCoef="0" IVar="-1" Cut="0.0000000000000000e+00" cType="1" res="-6.9162775762379169e-03" rms="4.6195399761199951e-01" purity="3.1995081901550293e-01" nType="-99"/>
        </Node>
        <Node pos="r" depth="1" NCoef="0" IVar="6" Cut="1.3281875848770142e+00" cType="1" res="1.6766522824764252e-01" rms="4.5766746997833252e-01" purity="6.9261389970779419e-01" nType="0">
          <Node pos="l" depth="2" NCoef="0" IVar="-1" Cut="0.0000000000000000e+00" cType="1" res="8.4351645782589912e-03" rms="4.3240991234779358e-01" purity="7.5087964534759521e-01" nType="-99"/>
          <Node pos="r" depth="2" NCoef="0" IVar="-1" Cut="0.0000000000000000e+00" cType="1" res="-2.4277051852550358e-04" rms="4.9898192286491394e-01" purity="4.8953914642333984e-01" nType="-99"/>
        </Node>
      </Node>
    </BinaryTree>
    <BinaryTree type="DecisionTree" boostWeight="1.0000000000000000e+00" itree="10">
      <Node pos="s" depth="0" NCoef="0" IVar="4" Cut="6.7450046539306641e-01" cType="1" res="4.5125000178813934e-03" rms="4.9107289314270020e-01" purity="5.0397574901580811e-01" nType="0">
        <Node pos="l" depth="1" NCoef="0" IVar="6" Cut="1.2902889251708984e+00" cType="1" res="-1.0747744888067245e-01" rms="4.7982421517372131e-01" purity="3.7255093455314636e-01" nType="0">
          <Node pos="l" depth="2" NCoef="0" IVar="-1" Cut="0.0000000000000000e+00" cType="1" res="-2.0737973973155022e-03" rms="4.9123588204383850e-01" purity="4.2979606986045837e-01" nType="-99"/>
          <Node pos="r" depth="2" NCoef="0" IVar="-1" Cut="0.0000000000000000e+00" cType="1" res="-1.0002947412431240e-02" rms="4.2467078566551208e-01" purity="2.4079640209674835e-01" nType="-99"/>
        </Node>
        <Node pos="r" depth="1" NCoef="0" IVar="6" Cut="1.1782203912734985e+00" cType="1" res="1.0669107735157013e-01" rms="4.7878351807594299e-01" purity="6.2388646602630615e-01" nType="0">
          <Node pos="l" depth="2" NCoef="0" IVar="-1" Cut="0.0000000000000000e+00" cType="1" res="6.4751547761261463e-03" rms="4.5906338095664978e-01" purity="6.9080525636672974e-01" nType="-99"/>
          <Node pos="r" depth="2" NCoef="0" IVar="-1" Cut="0.0000000000000000e+00" cType="1" res="-9.1882637934759259e-04" rms="4.9591904878616333e-01" purity="4.7552523016929626e-01" nType="-99"/>
        </Node>
      </Node>
    </BinaryTree>
    <BinaryTree type="DecisionTree" boostWeight="1.0000000000000000e+00" itree="11">
      <Node pos="s" depth="0" NCoef="0" IVar="4" Cut="7.7082997560501099e-01" cType="1" res="4.8994639655575156e-04" rms="4.8999226093292236e-01" purity="4.9990004301071167e-01" nType="0">
        <Node pos="l" depth="1" NCoef="0" IVar="1" Cut="1.0985109806060791e+00" cType="1" res="-7.8605733811855316e-02" rms="4.8564785718917847e-01" purity="4.0421897172927856e-01" nType="0">
          <Node pos="l" depth="2" NCoef="0" IVar="-1" Cut="0.0000000000000000e+00" cType="1" res="7.0935621624812484e-04" rms="4.9516457319259644e-01" purity="5.0430065393447876e-01" nType="-99"/>
          <Node pos="r" depth="2" NCoef="0" IVar="-1" Cut="0.0000000000000000e+00" cType="1" res="-6.5788729116320610e-03" rms="4.6260088682174683e-01" purity="3.2097673416137695e-01" nType="-99"/>
        </Node>
        <Node pos="r" depth="1" NCoef="0" IVar="6" Cut="1.2083865404129028e+00" cType="1" res="1.4478604495525360e-01" rms="4.6431714296340942e-01" purity="6.7445331811904907e-01" nType="0">
          <Node pos="l" depth="2" NCoef="0" IVar="-1" Cut="0.0000000000000000e+00" cType="1" res="7.7396775595843792e-03" rms="4.3893644213676453e-01" purity="7.3905456066131592e-01" nType="-99"/>
          <Node pos="r" depth="2" NCoef="0" IVar="-1" Cut="0.0000000000000000e+00" cType="1" res="2.5278943940065801e-04" rms="4.9774962663650513e-01" purity="5.0872266292572021e-01" nType="-99"/>
        </Node>
      </Node>
    </BinaryTree>
    <BinaryTree type="DecisionTree" boostWeight="1.0000000000000000e+00" itree="12">
      <Node pos="s" depth="0" NCoef="0" IVar="4" Cut="6.8656975030899048e-01" cType="1" res="3.1231415923684835e-03" rms="4.8943981528282166e-01" purity="5.0275301933288574e-01" nType="0">
        <Node pos="l" depth="1" NCoef="0" IVar="0" Cut="2.1119046211242676e-01" cType="1" res="-9.9410586059093475e-02" rms="4.8033034801483154e-01" purity="3.7679496407508850e-01" nType="0">
          <Node pos="l" depth="2" NCoef="0" IVar="-1" Cut="0.0000000000000000e+00" cType="1" res="-6.5437890589237213e-03" rms="4.6065238118171692e-01" purity="3.0839717388153076e-01" nType="-99"/>
          <Node pos="r" depth="2" NCoef="0" IVar="-1" Cut="0.0000000000000000e+00" cType="1" res="8.2159799057990313e-04" rms="4.9817332625389099e-01" purity="5.1965278387069702e-01" nType="-99"/>
        </Node>
        <Node pos="r" depth="1" NCoef="0" IVar="6" Cut="1.2124588489532471e+00" cType="1" res="1.0467801988124847e-01" rms="4.7704809904098511e-01" purity="6.2750852108001709e-01" nType="0">
          <Node pos="l" depth="2" NCoef="0" IVar="-1" Cut="0.0000000000000000e+00" cType="1" res="6.3343783840537071e-03" rms="4.5773407816886902e-01" purity="6.9439673423767090e-01" nType="-99"/>
          <Node pos="r" depth="2" NCoef="0" IVar="-1" Cut="0.0000000000000000e+00" cType="1" res="-1.3938320335000753e-03" rms="4.9481722712516785e-01" purity="4.6278643608093262e-01" nType="-99"/>
        </Node>
      </Node>
    </BinaryTree>
    <BinaryTree type="DecisionTree" boostWeight="1.0000000000000000e+00" itree="13">
      <Node pos="s" depth="0" NCoef="0" IVar="4" Cut="7.5874900817871094e-01" cType="1" res="-1.1559701524674892e-03" rms="4.8874390125274658e-01" purity="4.9784228205680847e-01" nType="0">
        <Node pos="l" depth="1" NCoef="0" IVar="1" Cut="1.1290736198425293e+00" cType="1" res="-7.7647812664508820e-02" rms="4.8478156328201294e-01" purity="4.0102335810661316e-01" nType="0">
          <Node pos="l" depth="2" NCoef="0" IVar="-1" Cut="0.0000000000000000e+00" cType="1" res="3.6915234522894025e-04" rms="4.9526217579841614e-01" purity="4.9328380823135376e-01" nType="-99"/>
          <Node pos="r" depth="2" NCoef="0" IVar="-1" Cut="0.0000000000000000e+00" cType="1" res="-6.6565615125000477e-03" rms="4.5978850126266479e-01" purity="3.1367534399032593e-01" nType="-99"/>
        </Node>
        <Node pos="r" depth="1" NCoef="0" IVar="6" Cut="1.4339206218719482e+00" cType="1" res="1.2843389809131622e-01" rms="4.6765330433845520e-01" purity="6.6186952590942383e-01" nType="0">
          <Node pos="l" depth="2" NCoef="0" IVar="-1" Cut="0.0000000000000000e+00" cType="1" res="6.7221852950751781e-03" rms="4.5057657361030579e-01" purity="7.1430331468582153e-01" nType="-99"/>
          <Node pos="r" depth="2" NCoef="0" IVar="-1" Cut="0.0000000000000000e+00" cType="1" res="-2.6452473830431700e-03" rms="4.9393936991691589e-01" purity="4.2437487840652466e-01" nType="-99"/>
        </Node>
      </Node>
    </BinaryTree>
    <BinaryTree type="DecisionTree" boostWeight="1.0000000000000000e+00" itree="14">
      <Node pos="s" depth="0" NCoef="0" IVar="4" Cut="6.8656432628631592e-01" cType="1" res="-3.6701938370242715e-04" rms="4.8798564076423645e-01" purity="4.9875101447105408e-01" nType="0">
        <Node pos="l" depth="1" NCoef="0" IVar="0" Cut="1.2632033228874207e-01" cType="1" res="-9.8544783890247345e-02" rms="4.7883760929107666e-01" purity="3.7394723296165466e-01" nType="0">
          <Node pos="l" depth="2" NCoef="0" IVar="-1" Cut="0.0000000000000000e+00" cType="1" res="-7.8337704762816429e-03" rms="4.4359984993934631e-01" purity="2.7145045995712280e-01" nType="-99"/>
          <Node pos="r" depth="2" NCoef="0" IVar="-1" Cut="0.0000000000000000e+00" cType="1" res="-4.7403838834725320e-04" rms="4.9593412876129150e-01" purity="4.7455006837844849e-01" nType="-99"/>
        </Node>
        <Node pos="r" depth="1" NCoef="0" IVar="6" Cut="1.1751075983047485e+00" cType="1" res="9.9176637828350067e-02" rms="4.7688114643096924e-01" purity="6.2529122829437256e-01" nType="0">
          <Node pos="l" depth="2" NCoef="0" IVar="-1" Cut="0.0000000000000000e+00" cType="1" res="6.2325228936970234e-03" rms="4.5637714862823486e-01" purity="6.9708269834518433e-01" nType="-99"/>
          <Node pos="r" depth="2" NCoef="0" IVar="-1" Cut="0.0000000000000000e+00" cType="1" res="-1.1985345045104623e-03" rms="4.9493673443794250e-01" purity="4.6877822279930115e-01" nType="-99"/>
        </Node>
      </Node>
    </BinaryTree>
    <BinaryTree type="DecisionTree" boostWeight="1.0000000000000000e+00" itree="15">
      <Node pos="s" depth="0" NCoef="0" IVar="4" Cut="7.1062237024307251e-01" cType="1" res="7.5230341280985158e-06" rms="4.8712798953056335e-01" purity="4.9903181195259094e-01" nType="0">
        <Node pos="l" depth="1" NCoef="0" IVar="0" Cut="1.5458486974239349e-01" cType="1" res="-8.9811682701110840e-02" rms="4.8029440641403198e-01" purity="3.8175088167190552e-01" nType="0">
          <Node pos="l" depth="2" NCoef="0" IVar="-1" Cut="0.0000000000000000e+00" cType="1" res="-6.9114197976887226e-03" rms="4.5293208956718445e-01" purity="2.9142308235168457e-01" nType="-99"/>
          <Node pos="r" depth="2" NCoef="0" IVar="-1" Cut="0.0000000000000000e+00" cType="1" res="2.6737031294032931e-04" rms="4.9686729907989502e-01" purity="4.9757489562034607e-01" nType="-99"/>
        </Node>
        <Node pos="r" depth="1" NCoef="0" IVar="6" Cut="1.2845357656478882e+00" cType="1" res="1.0776198655366898e-01" rms="4.7321802377700806e-01" purity="6.3973158597946167e-01" nType="0">
          <Node pos="l" depth="2" NCoef="0" IVar="-1" Cut="0.0000000000000000e+00" cType="1" res="6.1810277402400970e-03" rms="4.5480209589004517e-01" purity="7.0290666818618774e-01" nType="-99"/>
          <Node pos="r" depth="2" NCoef="0" IVar="-1" Cut="0.0000000000000000e+00" cType="1" res="-1.5366883017122746e-03" rms="4.9564072489738464e-01" purity="4.5410379767417908e-01" nType="-99"/>
        </Node>
      </Node>
    </BinaryTree>
    <BinaryTree type="DecisionTree" boostWeight="1.0000000000000000e+00" itree="16">
      <Node pos="s" depth="0" NCoef="0" IVar="4" Cut="7.9464703798294067e-01" cType="1" res="-6.4447609474882483e-04" rms="4.8667708039283752e-01" purity="4.9841502308845520e-01" nType="0">
        <Node pos="l" depth="1" NCoef="0" IVar="0" Cut="1.8288812041282654e-01" cType="1" res="-6.6962346434593201e-02" rms="4.8478475213050842e-01" purity="4.1226348280906677e-01" nType="0">
          <Node pos="l" depth="2" NCoef="0" IVar="-1" Cut="0.0000000000000000e+00" cType="1" res="-5.5385949090123177e-03" rms="4.6675223112106323e-01" purity="3.3249214291572571e-01" nType="-99"/>
          <Node pos="r" depth="2" NCoef="0" IVar="-1" Cut="0.0000000000000000e+00" cType="1" res="1.5682595549151301e-03" rms="4.9423399567604065e-01" purity="5.4016822576522827e-01" nType="-99"/>
        </Node>
        <Node pos="r" depth="1" NCoef="0" IVar="6" Cut="1.4341763257980347e+00" cType="1" res="1.4262880384922028e-01" rms="4.5912665128707886e-01" purity="6.8453693389892578e-01" nType="0">
          <Node pos="l" depth="2" NCoef="0" IVar="-1" Cut="0.0000000000000000e+00" cType="1" res="6.9906362332403660e-03" rms="4.4245564937591553e-01" purity="7.3116558790206909e-01" nType="-99"/>
          <Node pos="r" depth="2" NCoef="0" IVar="-1" Cut="0.0000000000000000e+00" cType="1" res="-1.2456014519557357e-03" rms="4.9796628952026367e-01" purity="4.5673471689224243e-01" nType="-99"/>
        </Node>
      </Node>
    </BinaryTree>
    <BinaryTree type="DecisionTree" boostWeight="1.0000000000000000e+00" itree="17">
      <Node pos="s" depth="0" NCoef="0" IVar="4" Cut="7.8280460834503174e-01" cType="1" res="3.7948302924633026e-03" rms="4.8583823442459106e-01" purity="5.0272279977798462e-01" nType="0">
        <Node pos="l" depth="1" NCoef="0" IVar="6" Cut="1.4415735006332397e+00" cType="1" res="-6.3955359160900116e-02" rms="4.8469388484954834e-01" purity="4.1264688968658447e-01" nType="0">
          <Node pos="l" depth="2" NCoef="0" IVar="-1" Cut="0.0000000000000000e+00" cType="1" res="-7.5368850957602262e-04" rms="4.9140685796737671e-01" purity="4.6183320879936218e-01" nType="-99"/>
          <Node pos="r" depth="2" NCoef="0" IVar="-1" Cut="0.0000000000000000e+00" cType="1" res="-9.3057937920093536e-03" rms="4.2509210109710693e-01" purity="2.4305911362171173e-01" nType="-99"/>
        </Node>
        <Node pos="r" depth="1" NCoef="0" IVar="6" Cut="1.4457273483276367e+00" cType="1" res="1.3987047970294952e-01" rms="4.5883947610855103e-01" purity="6.8363946676254272e-01" nType="0">
          <Node pos="l" depth="2" NCoef="0" IVar="-1" Cut="0.0000000000000000e+00" cType="1" res="6.9718509912490845e-03" rms="4.4164171814918518e-01" purity="7.3229247331619263e-01" nType="-99"/>
          <Node pos="r" depth="2" NCoef="0" IVar="-1" Cut="0.0000000000000000e+00" cType="1" res="-1.5743607655167580e-03" rms="4.9708470702171326e-01" purity="4.4789069890975952e-01" nType="-99"/>
        </Node>
      </Node>
    </BinaryTree>
    <BinaryTree type="DecisionTree" boostWeight="1.0000000000000000e+00" itree="18">
      <Node pos="s" depth="0" NCoef="0" IVar="4" Cut="6.9849807024002075e-01" cType="1" res="2.4123725015670061e-03" rms="4.8508688807487488e-01" purity="5.0132608413696289e-01" nType="0">
        <Node pos="l" depth="1" NCoef="0" IVar="0" Cut="2.6775708794593811e-01" cType="1" res="-8.7569057941436768e-02" rms="4.7867700457572937e-01" purity="3.7880271673202515e-01" nType="0">
          <Node pos="l" depth="2" NCoef="0" IVar="-1" Cut="0.0000000000000000e+00" cType="1" res="-5.6124683469533920e-03" rms="4.6378895640373230e-01" purity="3.2109880447387695e-01" nType="-99"/>
          <Node pos="r" depth="2" NCoef="0" IVar="-1" Cut="0.0000000000000000e+00" cType="1" res="2.3108359891921282e-03" rms="4.9467930197715759e-01" purity="5.5787557363510132e-01" nType="-99"/>
        </Node>
        <Node pos="r" depth="1" NCoef="0" IVar="6" Cut="1.6440738439559937e+00" cType="1" res="1.0158302634954453e-01" rms="4.7260919213294983e-01" purity="6.3636201620101929e-01" nType="0">
          <Node pos="l" depth="2" NCoef="0" IVar="-1" Cut="0.0000000000000000e+00" cType="1" res="5.1787830889225006e-03" rms="4.6404457092285156e-01" purity="6.7258781194686890e-01" nType="-99"/>
          <Node pos="r" depth="2" NCoef="0" IVar="-1" Cut="0.0000000000000000e+00" cType="1" res="-5.3145801648497581e-03" rms="4.7587320208549500e-01" purity="3.5068964958190918e-01" nType="-99"/>
        </Node>
      </Node>
    </BinaryTree>
    <BinaryTree type="DecisionTree" boostWeight="1.0000000000000000e+00" itree="19">
      <Node pos="s" depth="0" NCoef="0" IVar="4" Cut="8.0665069818496704e-01" cType="1" res="-2.4220098275691271e-03" rms="4.8468399047851562e-01" purity="4.9667868018150330e-01" nType="0">
        <Node pos="l" depth="1" NCoef="0" IVar="6" Cut="1.3597806692123413e+00" cType="1" res="-6.2239397317171097e-02" rms="4.8361453413963318e-01" purity="4.1532334685325623e-01" nType="0">
          <Node pos="l" depth="2" NCoef="0" IVar="-1" Cut="0.0000000000000000e+00" cType="1" res="-5.7592988014221191e-04" rms="4.9078145623207092e-01" purity="4.6958932280540466e-01" nType="-99"/>
          <Node pos="r" depth="2" NCoef="0" IVar="-1" Cut="0.0000000000000000e+00" cType="1" res="-8.4295682609081268e-03" rms="4.3382170796394348e-01" purity="2.5968638062477112e-01" nType="-99"/>
        </Node>
        <Node pos="r" depth="1" NCoef="0" IVar="1" Cut="1.2846132516860962e+00" cType="1" res="1.3660740852355957e-01" rms="4.5790815353393555e-01" purity="6.8576729297637939e-01" nType="0">
          <Node pos="l" depth="2" NCoef="0" IVar="-1" Cut="0.0000000000000000e+00" cType="1" res="7.1952310390770435e-03" rms="4.3578693270683289e-01" purity="7.3994970321655273e-01" nType="-99"/>
          <Node pos="r" depth="2" NCoef="0" IVar="-1" Cut="0.0000000000000000e+00" cType="1" res="1.0269265621900558e-03" rms="4.8894271254539490e-01" purity="5.5722075700759888e-01" nType="-99"/>
        </Node>
      </Node>
    </BinaryTree>
    <BinaryTree type="DecisionTree" boostWeight="1.0000000000000000e+00" itree="20">
      <Node pos="s" depth="0" NCoef="0" IVar="4" Cut="7.9470908641815186e-01" cType="1" res="4.5628687366843224e-03" rms="4.8429870605468750e-01" purity="5.0337684154510498e-01" nType="0">
        <Node pos="l" depth="1" NCoef="0" IVar="6" Cut="1.2086559534072876e+00" cType="1" res="-5.4965868592262268e-02" rms="4.8446729779243469e-01" purity="4.1953539848327637e-01" nType="0">
          <Node pos="l" depth="2" NCoef="0" IVar="-1" Cut="0.0000000000000000e+00" cType="1" res="1.8504234321881086e-04" rms="4.9206736683845520e-01" purity="4.8676523566246033e-01" nType="-99"/>
          <Node pos="r" depth="2" NCoef="0" IVar="-1" Cut="0.0000000000000000e+00" cType="1" res="-7.2599225677549839e-03" rms="4.4629314541816711e-01" purity="2.8660526871681213e-01" nType="-99"/>
        </Node>
        <Node pos="r" depth="1" NCoef="0" IVar="1" Cut="1.3513141870498657e+00" cType="1" res="1.3297009468078613e-01" rms="4.5832365751266479e-01" purity="6.8422806262969971e-01" nType="0">
          <Node pos="l" depth="2" NCoef="0" IVar="-1" Cut="0.0000000000000000e+00" cType="1" res="6.8696606904268265e-03" rms="4.3937408924102783e-01" purity="7.3249435424804688e-01" nType="-99"/>
          <Node pos="r" depth="2" NCoef="0" IVar="-1" Cut="0.0000000000000000e+00" cType="1" res="4.1050316212931648e-05" rms="4.9137464165687561e-01" purity="5.3027492761611938e-01" nType="-99"/>
        </Node>
      </Node>
    </BinaryTree>
    <BinaryTree type="DecisionTree" boostWeight="1.0000000000000000e+00" itree="21">
      <Node pos="s" depth="0" NCoef="0" IVar="4" Cut="6.6251438856124878e-01" cType="1" res="-8.4679486462846398e-04" rms="4.8330560326576233e-01" purity="4.9784210324287415e-01" nType="0">
        <Node pos="l" depth="1" NCoef="0" IVar="1" Cut="1.1624627113342285e+00" cType="1" res="-1.0052553564310074e-01" rms="4.7347098588943481e-01" purity="3.6051672697067261e-01" nType="0">
          <Node pos="l" depth="2" NCoef="0" IVar="-1" Cut="0.0000000000000000e+00" cType="1" res="-1.0184061247855425e-03" rms="4.9117529392242432e-01" purity="4.4413021206855774e-01" nType="-99"/>
          <Node pos="r" depth="2" NCoef="0" IVar="-1" Cut="0.0000000000000000e+00" cType="1" res="-7.5407917611300945e-03" rms="4.4086870551109314e-01" purity="2.7376312017440796e-01" nType="-99"/>
        </Node>
        <Node pos="r" depth="1" NCoef="0" IVar="6" Cut="1.2861409187316895e+00" cType="1" res="8.2556657493114471e-02" rms="4.7559201717376709e-01" purity="6.1274528503417969e-01" nType="0">
          <Node pos="l" depth="2" NCoef="0" IVar="-1" Cut="0.0000000000000000e+00" cType="1" res="5.1771048456430435e-03" rms="4.6097156405448914e-01" purity="6.7675524950027466e-01" nType="-99"/>
          <Node pos="r" depth="2" NCoef="0" IVar="-1" Cut="0.0000000000000000e+00" cType="1" res="-2.3138932883739471e-03" rms="4.8988139629364014e-01" purity="4.2648750543594360e-01" nType="-99"/>
        </Node>
      </Node>
    </BinaryTree>
    <BinaryTree type="DecisionTree" boostWeight="1.0000000000000000e+00" itree="22">
      <Node pos="s" depth="0" NCoef="0" IVar="4" Cut="6.7443621158599854e-01" cType="1" res="2.2967099212110043e-03" rms="4.8296111822128296e-01" purity="5.0128918886184692e-01" nType="0">
        <Node pos="l" depth="1" NCoef="0" IVar="0" Cut="2.3947961628437042e-01" cType="1" res="-9.1212600469589233e-02" rms="4.7489082813262939e-01" purity="3.6821773648262024e-01" nType="0">
          <Node pos="l" depth="2" NCoef="0" IVar="-1" Cut="0.0000000000000000e+00" cType="1" res="-5.9750280342996120e-03" rms="4.5627301931381226e-01" purity="3.0288767814636230e-01" nType="-99"/>
          <Node pos="r" depth="2" NCoef="0" IVar="-1" Cut="0.0000000000000000e+00" cType="1" res="1.5208324184641242e-03" rms="4.9602538347244263e-01" purity="5.3305876255035400e-01" nType="-99"/>
        </Node>
        <Node pos="r" depth="1" NCoef="0" IVar="1" Cut="1.1405673027038574e+00" cType="1" res="8.8022708892822266e-02" rms="4.7431319952011108e-01" purity="6.2328428030014038e-01" nType="0">
          <Node pos="l" depth="2" NCoef="0" IVar="-1" Cut="0.0000000000000000e+00" cType="1" res="6.2087830156087875e-03" rms="4.4985619187355042e-01" purity="7.0559138059616089e-01" nType="-99"/>
          <Node pos="r" depth="2" NCoef="0" IVar="-1" Cut="0.0000000000000000e+00" cType="1" res="2.0092850900255144e-04" rms="4.8967602849006653e-01" purity="5.2351158857345581e-01" nType="-99"/>
        </Node>
      </Node>
    </BinaryTree>
    <BinaryTree type="DecisionTree" boostWeight="1.0000000000000000e+00" itree="23">
      <Node pos="s" depth="0" NCoef="0" IVar="4" Cut="6.7454457283020020e-01" cType="1" res="-2.9825881938450038e-04" rms="4.8268723487854004e-01" purity="4.9796336889266968e-01" nType="0">
        <Node pos="l" depth="1" NCoef="0" IVar="0" Cut="2.3947961628437042e-01" cType="1" res="-8.5600227117538452e-02" rms="4.7574502229690552e-01" purity="3.7181863188743591e-01" nType="0">
          <Node pos="l" depth="2" NCoef="0" IVar="-1" Cut="0.0000000000000000e+00" cType="1" res="-5.6844647042453289e-03" rms="4.5850688219070435e-01" purity="3.0725491046905518e-01" nType="-99"/>
          <Node pos="r" depth="2" NCoef="0" IVar="-1" Cut="0.0000000000000000e+00" cType="1" res="1.7077543307095766e-03" rms="4.9529704451560974e-01" purity="5.3930038213729858e-01" nType="-99"/>
        </Node>
        <Node pos="r" depth="1" NCoef="0" IVar="6" Cut="1.5867350101470947e+00" cType="1" res="7.8590579330921173e-02" rms="4.7559177875518799e-01" purity="6.1462444067001343e-01" nType="0">
          <Node pos="l" depth="2" NCoef="0" IVar="-1" Cut="0.0000000000000000e+00" cType="1" res="4.3673659674823284e-03" rms="4.6797296404838562e-01" purity="6.5582245588302612e-01" nType="-99"/>
          <Node pos="r" depth="2" NCoef="0" IVar="-1" Cut="0.0000000000000000e+00" cType="1" res="-4.6682916581630707e-03" rms="4.7734594345092773e-01" purity="3.5984885692596436e-01" nType="-99"/>
        </Node>
      </Node>
    </BinaryTree>
    <BinaryTree type="DecisionTree" boostWeight="1.0000000000000000e+00" itree="24">
      <Node pos="s" depth="0" NCoef="0" IVar="4" Cut="8.0686599016189575e-01" cType="1" res="1.9160947704222053e-04" rms="4.8190143704414368e-01" purity="4.9873742461204529e-01" nType="0">
        <Node pos="l" depth="1" NCoef="0" IVar="1" Cut="1.1867783069610596e+00" cType="1" res="-5.3614009171724319e-02" rms="4.8237714171409607e-01" purity="4.1898536682128906e-01" nType="0">
          <Node pos="l" depth="2" NCoef="0" IVar="-1" Cut="0.0000000000000000e+00" cType="1" res="8.1041315570473671e-04" rms="4.9036878347396851e-01" purity="5.0347036123275757e-01" nType="-99"/>
          <Node pos="r" depth="2" NCoef="0" IVar="-1" Cut="0.0000000000000000e+00" cType="1" res="-5.9748468920588493e-03" rms="4.5703724026679993e-01" purity="3.1701663136482239e-01" nType="-99"/>
        </Node>
        <Node pos="r" depth="1" NCoef="0" IVar="6" Cut="1.2523272037506104e+00" cType="1" res="1.2666741013526917e-01" rms="4.5645317435264587e-01" purity="6.8620306253433228e-01" nType="0">
          <Node pos="l" depth="2" NCoef="0" IVar="-1" Cut="0.0000000000000000e+00" cType="1" res="6.6881477832794189e-03" rms="4.3373018503189087e-01" purity="7.4794793128967285e-01" nType="-99"/>
          <Node pos="r" depth="2" NCoef="0" IVar="-1" Cut="0.0000000000000000e+00" cType="1" res="1.5165706281550229e-04" rms="4.9658879637718201e-01" purity="5.0742256641387939e-01" nType="-99"/>
        </Node>
      </Node>
    </BinaryTree>
    <BinaryTree type="DecisionTree" boostWeight="1.0000000000000000e+00" itree="25">
      <Node pos="s" depth="0" NCoef="0" IVar="1" Cut="1.2349296808242798e+00" cType="1" res="-1.6836398281157017e-03" rms="4.8164081573486328e-01" purity="4.9739354848861694e-01" nType="0">
        <Node pos="l" depth="1" NCoef="0" IVar="0" Cut="1.4046472311019897e-01" cType="1" res="6.1910741031169891e-02" rms="4.7854438424110413e-01" purity="5.7384568452835083e-01" nType="0">
          <Node pos="l" depth="2" NCoef="0" IVar="-1" Cut="0.0000000000000000e+00" cType="1" res="-8.7539816740900278e-04" rms="4.8339995741844177e-01" purity="4.7490349411964417e-01" nType="-99"/>
          <Node pos="r" depth="2" NCoef="0" IVar="-1" Cut="0.0000000000000000e+00" cType="1" res="5.7619237340986729e-03" rms="4.5880490541458130e-01" purity="6.7265695333480835e-01" nType="-99"/>
        </Node>
        <Node pos="r" depth="1" NCoef="0" IVar="4" Cut="8.4264230728149414e-01" cType="1" res="-1.0400928556919098e-01" rms="4.6881115436553955e-01" purity="3.7437924742698669e-01" nType="0">
          <Node pos="l" depth="2" NCoef="0" IVar="-1" Cut="0.0000000000000000e+00" cType="1" res="-6.1090677045285702e-03" rms="4.5605409145355225e-01" purity="3.1594985723495483e-01" nType="-99"/>
          <Node pos="r" depth="2" NCoef="0" IVar="-1" Cut="0.0000000000000000e+00" cType="1" res="1.9060228951275349e-03" rms="4.8305594921112061e-01" purity="5.8671724796295166e-01" nType="-99"/>
        </Node>
      </Node>
    </BinaryTree>
    <BinaryTree type="DecisionTree" boostWeight="1.0000000000000000e+00" itree="26">
      <Node pos="s" depth="0" NCoef="0" IVar="4" Cut="8.1879985332489014e-01" cType="1" res="5.1228795200586319e-04" rms="4.8052513599395752e-01" purity="4.9848541617393494e-01" nType="0">
        <Node pos="l" depth="1" NCoef="0" IVar="1" Cut="1.1342113018035889e+00" cType="1" res="-5.0931964069604874e-02" rms="4.8163405060768127e-01" purity="4.2209514975547791e-01" nType="0">
          <Node pos="l" depth="2" NCoef="0" IVar="-1" Cut="0.0000000000000000e+00" cType="1" res="1.1590528301894665e-03" rms="4.9009981751441956e-01" purity="5.1801800727844238e-01" nType="-99"/>
          <Node pos="r" depth="2" NCoef="0" IVar="-1" Cut="0.0000000000000000e+00" cType="1" res="-5.4446579888463020e-03" rms="4.5968911051750183e-01" purity="3.2694703340530396e-01" nType="-99"/>
        </Node>
        <Node pos="r" depth="1" NCoef="0" IVar="6" Cut="1.2260379791259766e+00" cType="1" res="1.3523496687412262e-01" rms="4.5058780908584595e-01" purity="6.9853699207305908e-01" nType="0">
          <Node pos="l" depth="2" NCoef="0" IVar="-1" Cut="0.0000000000000000e+00" cType="1" res="7.1271811611950397e-03" rms="4.2471408843994141e-01" purity="7.6289927959442139e-01" nType="-99"/>
          <Node pos="r" depth="2" NCoef="0" IVar="-1" Cut="0.0000000000000000e+00" cType="1" res="6.0063763521611691e-04" rms="4.9495920538902283e-01" purity="5.2302801609039307e-01" nType="-99"/>
        </Node>
      </Node>
    </BinaryTree>
    <BinaryTree type="DecisionTree" boostWeight="1.0000000000000000e+00" itree="27">
      <Node pos="s" depth="0" NCoef="0" IVar="4" Cut="8.0692166090011597e-01" cType="1" res="3.7905413191765547e-03" rms="4.8017364740371704e-01" purity="5.0271260738372803e-01" nType="0">
        <Node pos="l" depth="1" NCoef="0" IVar="0" Cut="1.6875469684600830e-01" cType="1" res="-5.0416801124811172e-02" rms="4.8175409436225891e-01" purity="4.1973361372947693e-01" nType="0">
          <Node pos="l" depth="2" NCoef="0" IVar="-1" Cut="0.0000000000000000e+00" cType="1" res="-4.8143626190721989e-03" rms="4.6504104137420654e-01" purity="3.3690512180328369e-01" nType="-99"/>
          <Node pos="r" depth="2" NCoef="0" IVar="-1" Cut="0.0000000000000000e+00" cType="1" res="1.6756837721914053e-03" rms="4.9022358655929565e-01" purity="5.3812319040298462e-01" nType="-99"/>
        </Node>
        <Node pos="r" depth="1" NCoef="0" IVar="6" Cut="1.3850055932998657e+00" cType="1" res="1.2925674021244049e-01" rms="4.5222228765487671e-01" purity="6.9477254152297974e-01" nType="0">
          <Node pos="l" depth="2" NCoef="0" IVar="-1" Cut="0.0000000000000000e+00" cType="1" res="6.4640720374882221e-03" rms="4.3412625789642334e-01" purity="7.4551951885223389e-01" nType="-99"/>
          <Node pos="r" depth="2" NCoef="0" IVar="-1" Cut="0.0000000000000000e+00" cType="1" res="-3.6931992508471012e-04" rms="4.9761831760406494e-01" purity="4.8318386077880859e-01" nType="-99"/>
        </Node>
      </Node>
    </BinaryTree>
    <BinaryTree type="DecisionTree" boostWeight="1.0000000000000000e+00" itree="28">
      <Node pos="s" depth="0" NCoef="0" IVar="4" Cut="7.1067017316818237e-01" cType="1" res="6.1755301430821419e-03" rms="4.7947660088539124e-01" purity="5.0540041923522949e-01" nType="0">
        <Node pos="l" depth="1" NCoef="0" IVar="1" Cut="1.2151308059692383e+00" cType="1" res="-6.7640095949172974e-02" rms="4.7757428884506226e-01" purity="3.8686498999595642e-01" nType="0">
          <Node pos="l" depth="2" NCoef="0" IVar="-1" Cut="0.0000000000000000e+00" cType="1" res="3.2221472793025896e-05" rms="4.9113595485687256e-01" purity="4.6803328394889832e-01" nType="-99"/>
          <Node pos="r" depth="2" NCoef="0" IVar="-1" Cut="0.0000000000000000e+00" cType="1" res="-6.7180790938436985e-03" rms="4.4306898117065430e-01" purity="2.7949267625808716e-01" nType="-99"/>
        </Node>
        <Node pos="r" depth="1" NCoef="0" IVar="8" Cut="2.4974787235260010e+00" cType="1" res="9.3708291649818420e-02" rms="4.6683344244956970e-01" purity="6.4596331119537354e-01" nType="0">
          <Node pos="l" depth="2" NCoef="0" IVar="-1" Cut="0.0000000000000000e+00" cType="1" res="5.1239551976323128e-03" rms="4.5475408434867859e-01" purity="6.9387656450271606e-01" nType="-99"/>
          <Node pos="r" depth="2" NCoef="0" IVar="-1" Cut="0.0000000000000000e+00" cType="1" res="-2.2063648793846369e-03" rms="4.8810750246047974e-01" purity="4.4254246354103088e-01" nType="-99"/>
        </Node>
      </Node>
    </BinaryTree>
    <BinaryTree type="DecisionTree" boostWeight="1.0000000000000000e+00" itree="29">
      <Node pos="s" depth="0" NCoef="0" IVar="1" Cut="1.1253305673599243e+00" cType="1" res="3.3998368307948112e-03" rms="4.7919449210166931e-01" purity="5.0238806009292603e-01" nType="0">
        <Node pos="l" depth="1" NCoef="0" IVar="0" Cut="1.4046472311019897e-01" cType="1" res="8.1922836601734161e-02" rms="4.7262573242187500e-01" purity="6.0168892145156860e-01" nType="0">
          <Node pos="l" depth="2" NCoef="0" IVar="-1" Cut="0.0000000000000000e+00" cType="1" res="-1.0914026643149555e-04" rms="4.8397803306579590e-01" purity="4.9857795238494873e-01" nType="-99"/>
          <Node pos="r" depth="2" NCoef="0" IVar="-1" Cut="0.0000000000000000e+00" cType="1" res="6.5742833539843559e-03" rms="4.4556590914726257e-01" purity="7.0376056432723999e-01" nType="-99"/>
        </Node>
        <Node pos="r" depth="1" NCoef="0" IVar="0" Cut="2.8190544247627258e-01" cType="1" res="-7.7150158584117889e-02" rms="4.7246980667114258e-01" purity="4.0052375197410583e-01" nType="0">
          <Node pos="l" depth="2" NCoef="0" IVar="-1" Cut="0.0000000000000000e+00" cType="1" res="-4.8940200358629227e-03" rms="4.6116355061531067e-01" purity="3.5267025232315063e-01" nType="-99"/>
          <Node pos="r" depth="2" NCoef="0" IVar="-1" Cut="0.0000000000000000e+00" cType="1" res="2.2245703730732203e-03" rms="4.8583260178565979e-01" purity="5.6201028823852539e-01" nType="-99"/>
        </Node>
      </Node>
    </BinaryTree>
    <BinaryTree type="DecisionTree" boostWeight="1.0000000000000000e+00" itree="30">
      <Node pos="s" depth="0" NCoef="0" IVar="1" Cut="1.3090970516204834e+00" cType="1" res="7.1239053795579821e-05" rms="4.7845607995986938e-01" purity="4.9888524413108826e-01" nType="0">
        <Node pos="l" depth="1" NCoef="0" IVar="0" Cut="1.4046040177345276e-01" cType="1" res="5.3525783121585846e-02" rms="4.7706812620162964e-01" purity="5.6651866436004639e-01" nType="0">
          <Node pos="l" depth="2" NCoef="0" IVar="-1" Cut="0.0000000000000000e+00" cType="1" res="-1.1431510793045163e-03" rms="4.8026746511459351e-01" purity="4.6581298112869263e-01" nType="-99"/>
          <Node pos="r" depth="2" NCoef="0" IVar="-1" Cut="0.0000000000000000e+00" cType="1" res="5.3310301154851913e-03" rms="4.6002715826034546e-01" purity="6.6594541072845459e-01" nType="-99"/>
        </Node>
        <Node pos="r" depth="1" NCoef="0" IVar="4" Cut="8.6681658029556274e-01" cType="1" res="-1.1506360769271851e-01" rms="4.6083211898803711e-01" purity="3.5321068763732910e-01" nType="0">
          <Node pos="l" depth="2" NCoef="0" IVar="-1" Cut="0.0000000000000000e+00" cType="1" res="-6.3443910330533981e-03" rms="4.4854900240898132e-01" purity="3.0281469225883484e-01" nType="-99"/>
          <Node pos="r" depth="2" NCoef="0" IVar="-1" Cut="0.0000000000000000e+00" cType="1" res="2.1279256325215101e-03" rms="4.8093917965888977e-01" purity="5.9286057949066162e-01" nType="-99"/>
        </Node>
      </Node>
    </BinaryTree>
    <BinaryTree type="DecisionTree" boostWeight="1.0000000000000000e+00" itree="31">
      <Node pos="s" depth="0" NCoef="0" IVar="4" Cut="7.5879991054534912e-01" cType="1" res="7.3631753912195563e-04" rms="4.7845962643623352e-01" purity="4.9950203299522400e-01" nType="0">
        <Node pos="l" depth="1" NCoef="0" IVar="0" Cut="1.9703756272792816e-01" cType="1" res="-5.8944646269083023e-02" rms="4.7834029793739319e-01" purity="4.0086394548416138e-01" nType="0">
          <Node pos="l" depth="2" NCoef="0" IVar="-1" Cut="0.0000000000000000e+00" cType="1" res="-4.7566439025104046e-03" rms="4.6239125728607178e-01" purity="3.2619038224220276e-01" nType="-99"/>
          <Node pos="r" depth="2" NCoef="0" IVar="-1" Cut="0.0000000000000000e+00" cType="1" res="1.5732079045847058e-03" rms="4.9119675159454346e-01" purity="5.3700375556945801e-01" nType="-99"/>
        </Node>
        <Node pos="r" depth="1" NCoef="0" IVar="1" Cut="1.2741647958755493e+00" cType="1" res="1.0054847598075867e-01" rms="4.6173065900802612e-01" purity="6.6446715593338013e-01" nType="0">
          <Node pos="l" depth="2" NCoef="0" IVar="-1" Cut="0.0000000000000000e+00" cType="1" res="5.9511838480830193e-03" rms="4.4088739156723022e-01" purity="7.2696828842163086e-01" nType="-99"/>
          <Node pos="r" depth="2" NCoef="0" IVar="-1" Cut="0.0000000000000000e+00" cType="1" res="-3.8106442661955953e-04" rms="4.8852217197418213e-01" purity="5.2208697795867920e-01" nType="-99"/>
        </Node>
      </Node>
    </BinaryTree>
    <BinaryTree type="DecisionTree" boostWeight="1.0000000000000000e+00" itree="32">
      <Node pos="s" depth="0" NCoef="0" IVar="6" Cut="1.2146465778350830e+00" cType="1" res="-2.4126095231622458e-03" rms="4.7792294621467590e-01" purity="4.9666771292686462e-01" nType="0">
        <Node pos="l" depth="1" NCoef="0" IVar="0" Cut="1.6875539720058441e-01" cType="1" res="4.9009807407855988e-02" rms="4.7639027237892151e-01" purity="5.6651747226715088e-01" nType="0">
          <Node pos="l" depth="2" NCoef="0" IVar="-1" Cut="0.0000000000000000e+00" cType="1" res="-7.1482104249298573e-04" rms="4.8131442070007324e-01" purity="4.8053085803985596e-01" nType="-99"/>
          <Node pos="r" depth="2" NCoef="0" IVar="-1" Cut="0.0000000000000000e+00" cType="1" res="5.4278401657938957e-03" rms="4.5557519793510437e-01" purity="6.7870306968688965e-01" nType="-99"/>
        </Node>
        <Node pos="r" depth="1" NCoef="0" IVar="0" Cut="2.6776295900344849e-01" cType="1" res="-1.1310427635908127e-01" rms="4.6218407154083252e-01" purity="3.4630960226058960e-01" nType="0">
          <Node pos="l" depth="2" NCoef="0" IVar="-1" Cut="0.0000000000000000e+00" cType="1" res="-6.5793362446129322e-03" rms="4.4343844056129456e-01" purity="2.9306310415267944e-01" nType="-99"/>
          <Node pos="r" depth="2" NCoef="0" IVar="-1" Cut="0.0000000000000000e+00" cType="1" res="3.5030188155360520e-04" rms="4.9307647347450256e-01" purity="5.0138217210769653e-01" nType="-99"/>
        </Node>
      </Node>
    </BinaryTree>
    <BinaryTree type="DecisionTree" boostWeight="1.0000000000000000e+00" itree="33">
      <Node pos="s" depth="0" NCoef="0" IVar="4" Cut="6.5043699741363525e-01" cType="1" res="6.3664012122899294e-04" rms="4.7748491168022156e-01" purity="4.9861109256744385e-01" nType="0">
        <Node pos="l" depth="1" NCoef="0" IVar="0" Cut="2.3944142460823059e-01" cType="1" res="-8.5801139473915100e-02" rms="4.6953675150871277e-01" purity="3.6238899827003479e-01" nType="0">
          <Node pos="l" depth="2" NCoef="0" IVar="-1" Cut="0.0000000000000000e+00" cType="1" res="-5.6324680335819721e-03" rms="4.5116591453552246e-01" purity="2.9503825306892395e-01" nType="-99"/>
          <Node pos="r" depth="2" NCoef="0" IVar="-1" Cut="0.0000000000000000e+00" cType="1" res="1.1978751281276345e-03" rms="4.9358686804771423e-01" purity="5.2935421466827393e-01" nType="-99"/>
        </Node>
        <Node pos="r" depth="1" NCoef="0" IVar="6" Cut="1.5483646392822266e+00" cType="1" res="6.6908456385135651e-02" rms="4.7290858626365662e-01" purity="6.0305249691009521e-01" nType="0">
          <Node pos="l" depth="2" NCoef="0" IVar="-1" Cut="0.0000000000000000e+00" cType="1" res="3.8591218180954456e-03" rms="4.6673917770385742e-01" purity="6.4562988281250000e-01" nType="-99"/>
          <Node pos="r" depth="2" NCoef="0" IVar="-1" Cut="0.0000000000000000e+00" cType="1" res="-4.1992696933448315e-03" rms="4.7325727343559265e-01" purity="3.5739088058471680e-01" nType="-99"/>
        </Node>
      </Node>
    </BinaryTree>
    <BinaryTree type="DecisionTree" boostWeight="1.0000000000000000e+00" itree="34">
      <Node pos="s" depth="0" NCoef="0" IVar="4" Cut="6.6251534223556519e-01" cType="1" res="5.5742310360074043e-03" rms="4.7624948620796204e-01" purity="5.0461238622665405e-01" nType="0">
        <Node pos="l" depth="1" NCoef="0" IVar="0" Cut="2.9604756832122803e-01" cType="1" res="-7.9092919826507568e-02" rms="4.7085183858871460e-01" purity="3.6755129694938660e-01" nType="0">
          <Node pos="l" depth="2" NCoef="0" IVar="-1" Cut="0.0000000000000000e+00" cType="1" res="-4.9376646056771278e-03" rms="4.5839345455169678e-01" purity="3.1571239233016968e-01" nType="-99"/>
          <Node pos="r" depth="2" NCoef="0" IVar="-1" Cut="0.0000000000000000e+00" cType="1" res="2.5832727551460266e-03" rms="4.9006029963493347e-01" purity="5.6674033403396606e-01" nType="-99"/>
        </Node>
        <Node pos="r" depth="1" NCoef="0" IVar="1" Cut="1.0727641582489014e+00" cType="1" res="7.5688600540161133e-02" rms="4.6924895048141479e-01" purity="6.1811518669128418e-01" nType="0">
          <Node pos="l" depth="2" NCoef="0" IVar="-1" Cut="0.0000000000000000e+00" cType="1" res="6.1410348862409592e-03" rms="4.4010543823242188e-01" purity="7.2112762928009033e-01" nType="-99"/>
          <Node pos="r" depth="2" NCoef="0" IVar="-1" Cut="0.0000000000000000e+00" cType="1" res="1.1893508781213313e-04" rms="4.8363083600997925e-01" purity="5.2217012643814087e-01" nType="-99"/>
        </Node>
      </Node>
    </BinaryTree>
    <BinaryTree type="DecisionTree" boostWeight="1.0000000000000000e+00" itree="35">
      <Node pos="s" depth="0" NCoef="0" IVar="4" Cut="6.6251105070114136e-01" cType="1" res="5.5182655341923237e-03" rms="4.7723034024238586e-01" purity="5.0391221046447754e-01" nType="0">
        <Node pos="l" depth="1" NCoef="0" IVar="0" Cut="2.8190299868583679e-01" cType="1" res="-7.3883324861526489e-02" rms="4.7167110443115234e-01" purity="3.7127506732940674e-01" nType="0">
          <Node pos="l" depth="2" NCoef="0" IVar="-1" Cut="0.0000000000000000e+00" cType="1" res="-4.7852299176156521e-03" rms="4.5889061689376831e-01" purity="3.1617614626884460e-01" nType="-99"/>
          <Node pos="r" depth="2" NCoef="0" IVar="-1" Cut="0.0000000000000000e+00" cType="1" res="2.5651426985859871e-03" rms="4.9027010798454285e-01" purity="5.6720596551895142e-01" nType="-99"/>
        </Node>
        <Node pos="r" depth="1" NCoef="0" IVar="6" Cut="1.0613361597061157e+00" cType="1" res="7.1905210614204407e-02" rms="4.7167879343032837e-01" purity="6.1480903625488281e-01" nType="0">
          <Node pos="l" depth="2" NCoef="0" IVar="-1" Cut="0.0000000000000000e+00" cType="1" res="5.1100505515933037e-03" rms="4.5228156447410583e-01" purity="6.9561034440994263e-01" nType="-99"/>
          <Node pos="r" depth="2" NCoef="0" IVar="-1" Cut="0.0000000000000000e+00" cType="1" res="-4.9874861724674702e-04" rms="4.8773145675659180e-01" purity="4.9232998490333557e-01" nType="-99"/>
        </Node>
      </Node>
    </BinaryTree>
    <BinaryTree type="DecisionTree" boostWeight="1.0000000000000000e+00" itree="36">
      <Node pos="s" depth="0" NCoef="0" IVar="0" Cut="2.6777055859565735e-01" cType="1" res="-9.5814949600026011e-04" rms="4.7577649354934692e-01" purity="4.9814146757125854e-01" nType="0">
        <Node pos="l" depth="1" NCoef="0" IVar="4" Cut="8.1879985332489014e-01" cType="1" res="-4.6035543084144592e-02" rms="4.7356221079826355e-01" purity="4.3870154023170471e-01" nType="0">
          <Node pos="l" depth="2" NCoef="0" IVar="-1" Cut="0.0000000000000000e+00" cType="1" res="-3.8131331093609333e-03" rms="4.6825939416885376e-01" purity="3.6086964607238770e-01" nType="-99"/>
          <Node pos="r" depth="2" NCoef="0" IVar="-1" Cut="0.0000000000000000e+00" cType="1" res="3.0588463414460421e-03" rms="4.6651625633239746e-01" purity="6.5008533000946045e-01" nType="-99"/>
        </Node>
        <Node pos="r" depth="1" NCoef="0" IVar="1" Cut="1.0789421796798706e+00" cType="1" res="1.2411256134510040e-01" rms="4.5925500988960266e-01" purity="6.6306239366531372e-01" nType="0">
          <Node pos="l" depth="2" NCoef="0" IVar="-1" Cut="0.0000000000000000e+00" cType="1" res="8.0636423081159592e-03" rms="4.1598781943321228e-01" purity="7.6712238788604736e-01" nType="-99"/>
          <Node pos="r" depth="2" NCoef="0" IVar="-1" Cut="0.0000000000000000e+00" cType="1" res="1.9052490824833512e-03" rms="4.8521041870117188e-01" purity="5.6275165081024170e-01" nType="-99"/>
        </Node>
      </Node>
    </BinaryTree>
    <BinaryTree type="DecisionTree" boostWeight="1.0000000000000000e+00" itree="37">
      <Node pos="s" depth="0" NCoef="0" IVar="0" Cut="1.4046040177345276e-01" cType="1" res="1.0760449804365635e-03" rms="4.7601103782653809e-01" purity="4.9986237287521362e-01" nType="0">
        <Node pos="l" depth="1" NCoef="0" IVar="6" Cut="9.8869365453720093e-01" cType="1" res="-7.2061769664287567e-02" rms="4.6858257055282593e-01" purity="4.0165975689888000e-01" nType="0">
          <Node pos="l" depth="2" NCoef="0" IVar="-1" Cut="0.0000000000000000e+00" cType="1" res="-2.8585025575011969e-04" rms="4.7970482707023621e-01" purity="4.8862957954406738e-01" nType="-99"/>
          <Node pos="r" depth="2" NCoef="0" IVar="-1" Cut="0.0000000000000000e+00" cType="1" res="-6.1638592742383480e-03" rms="4.4471904635429382e-01" purity="3.0459177494049072e-01" nType="-99"/>
        </Node>
        <Node pos="r" depth="1" NCoef="0" IVar="1" Cut="1.4148936271667480e+00" cType="1" res="7.4533537030220032e-02" rms="4.7208636999130249e-01" purity="5.9849423170089722e-01" nType="0">
          <Node pos="l" depth="2" NCoef="0" IVar="-1" Cut="0.0000000000000000e+00" cType="1" res="4.5202230103313923e-03" rms="4.6316099166870117e-01" purity="6.4819931983947754e-01" nType="-99"/>
          <Node pos="r" depth="2" NCoef="0" IVar="-1" Cut="0.0000000000000000e+00" cType="1" res="-2.5631317403167486e-03" rms="4.7870892286300659e-01" purity="4.1922715306282043e-01" nType="-99"/>
        </Node>
      </Node>
    </BinaryTree>
    <BinaryTree type="DecisionTree" boostWeight="1.0000000000000000e+00" itree="38">
      <Node pos="s" depth="0" NCoef="0" IVar="0" Cut="2.3947961628437042e-01" cType="1" res="6.0805403627455235e-03" rms="4.7503367066383362e-01" purity="5.0400704145431519e-01" nType="0">
        <Node pos="l" depth="1" NCoef="0" IVar="4" Cut="8.3099538087844849e-01" cType="1" res="-4.1026540100574493e-02" rms="4.7314006090164185e-01" purity="4.3849349021911621e-01" nType="0">
          <Node pos="l" depth="2" NCoef="0" IVar="-1" Cut="0.0000000000000000e+00" cType="1" res="-3.4609499853104353e-03" rms="4.6914407610893250e-01" purity="3.6603757739067078e-01" nType="-99"/>
          <Node pos="r" depth="2" NCoef="0" IVar="-1" Cut="0.0000000000000000e+00" cType="1" res="3.4477598965167999e-03" rms="4.6289420127868652e-01" purity="6.6036117076873779e-01" nType="-99"/>
        </Node>
        <Node pos="r" depth="1" NCoef="0" IVar="1" Cut="1.2825459241867065e+00" cType="1" res="1.1498733609914780e-01" rms="4.6132087707519531e-01" purity="6.5546756982803345e-01" nType="0">
          <Node pos="l" depth="2" NCoef="0" IVar="-1" Cut="0.0000000000000000e+00" cType="1" res="6.5942602232098579e-03" rms="4.3902257084846497e-01" purity="7.2348564863204956e-01" nType="-99"/>
          <Node pos="r" depth="2" NCoef="0" IVar="-1" Cut="0.0000000000000000e+00" cType="1" res="2.0257197320461273e-04" rms="4.8933404684066772e-01" purity="5.0562006235122681e-01" nType="-99"/>
        </Node>
      </Node>
    </BinaryTree>
    <BinaryTree type="DecisionTree" boostWeight="1.0000000000000000e+00" itree="39">
      <Node pos="s" depth="0" NCoef="0" IVar="4" Cut="6.1439198255538940e-01" cType="1" res="4.2629130184650421e-03" rms="4.7507783770561218e-01" purity="5.0270372629165649e-01" nType="0">
        <Node pos="l" depth="1" NCoef="0" IVar="6" Cut="1.4048055410385132e+00" cType="1" res="-9.2004030942916870e-02" rms="4.6418079733848572e-01" purity="3.4916108846664429e-01" nType="0">
          <Node pos="l" depth="2" NCoef="0" IVar="-1" Cut="0.0000000000000000e+00" cType="1" res="-2.1587216760963202e-03" rms="4.7849640250205994e-01" purity="3.9782255887985229e-01" nType="-99"/>
          <Node pos="r" depth="2" NCoef="0" IVar="-1" Cut="0.0000000000000000e+00" cType="1" res="-9.3599501997232437e-03" rms="3.9416658878326416e-01" purity="2.0284958183765411e-01" nType="-99"/>
        </Node>
        <Node pos="r" depth="1" NCoef="0" IVar="6" Cut="1.0578598976135254e+00" cType="1" res="5.6432545185089111e-02" rms="4.7275975346565247e-01" purity="5.8591252565383911e-01" nType="0">
          <Node pos="l" depth="2" NCoef="0" IVar="-1" Cut="0.0000000000000000e+00" cType="1" res="4.5174905098974705e-03" rms="4.5767927169799805e-01" purity="6.6718333959579468e-01" nType="-99"/>
          <Node pos="r" depth="2" NCoef="0" IVar="-1" Cut="0.0000000000000000e+00" cType="1" res="-1.0673878714442253e-03" rms="4.8279801011085510e-01" purity="4.6471771597862244e-01" nType="-99"/>
        </Node>
      </Node>
    </BinaryTree>
    <BinaryTree type="DecisionTree" boostWeight="1.0000000000000000e+00" itree="40">
      <Node pos="s" depth="0" NCoef="0" IVar="4" Cut="8.4280413389205933e-01" cType="1" res="3.4732220228761435e-03" rms="4.7451904416084290e-01" purity="5.0214028358459473e-01" nType="0">
        <Node pos="l" depth="1" NCoef="0" IVar="6" Cut="1.3598496913909912e+00" cType="1" res="-3.8035035133361816e-02" rms="4.7752451896667480e-01" purity="4.3306058645248413e-01" nType="0">
          <Node pos="l" depth="2" NCoef="0" IVar="-1" Cut="0.0000000000000000e+00" cType="1" res="8.8150489318650216e-05" rms="4.8453184962272644e-01" purity="4.8844957351684570e-01" nType="-99"/>
          <Node pos="r" depth="2" NCoef="0" IVar="-1" Cut="0.0000000000000000e+00" cType="1" res="-6.6619105637073517e-03" rms="4.3601471185684204e-01" purity="2.7209302783012390e-01" nType="-99"/>
        </Node>
        <Node pos="r" depth="1" NCoef="0" IVar="0" Cut="1.4575827121734619e-01" cType="1" res="1.3043631613254547e-01" rms="4.4161808490753174e-01" purity="7.1343731880187988e-01" nType="0">
          <Node pos="l" depth="2" NCoef="0" IVar="-1" Cut="0.0000000000000000e+00" cType="1" res="2.8642495162785053e-03" rms="4.6852177381515503e-01" purity="6.4566540718078613e-01" nType="-99"/>
          <Node pos="r" depth="2" NCoef="0" IVar="-1" Cut="0.0000000000000000e+00" cType="1" res="7.4160271324217319e-03" rms="4.0835705399513245e-01" purity="7.7478754520416260e-01" nType="-99"/>
        </Node>
      </Node>
    </BinaryTree>
    <BinaryTree type="DecisionTree" boostWeight="1.0000000000000000e+00" itree="41">
      <Node pos="s" depth="0" NCoef="0" IVar="6" Cut="1.4331972599029541e+00" cType="1" res="2.9277957510203123e-03" rms="4.7450241446495056e-01" purity="5.0129717588424683e-01" nType="0">
        <Node pos="l" depth="1" NCoef="0" IVar="0" Cut="2.6776823401451111e-01" cType="1" res="3.9560168981552124e-02" rms="4.7499516606330872e-01" purity="5.5527132749557495e-01" nType="0">
          <Node pos="l" depth="2" NCoef="0" IVar="-1" Cut="0.0000000000000000e+00" cType="1" res="2.7053743906435557e-05" rms="4.7974160313606262e-01" purity="4.9987968802452087e-01" nType="-99"/>
          <Node pos="r" depth="2" NCoef="0" IVar="-1" Cut="0.0000000000000000e+00" cType="1" res="5.9308093041181564e-03" rms="4.4397288560867310e-01" purity="7.0927906036376953e-01" nType="-99"/>
        </Node>
        <Node pos="r" depth="1" NCoef="0" IVar="4" Cut="7.1041935682296753e-01" cType="1" res="-1.3234691321849823e-01" rms="4.4740384817123413e-01" purity="3.0198386311531067e-01" nType="0">
          <Node pos="l" depth="2" NCoef="0" IVar="-1" Cut="0.0000000000000000e+00" cType="1" res="-8.0159651115536690e-03" rms="4.1119185090065002e-01" purity="2.2683711349964142e-01" nType="-99"/>
          <Node pos="r" depth="2" NCoef="0" IVar="-1" Cut="0.0000000000000000e+00" cType="1" res="-2.3010619916021824e-03" rms="4.8656192421913147e-01" purity="4.1388803720474243e-01" nType="-99"/>
        </Node>
      </Node>
    </BinaryTree>
    <BinaryTree type="DecisionTree" boostWeight="1.0000000000000000e+00" itree="42">
      <Node pos="s" depth="0" NCoef="0" IVar="1" Cut="1.2423917055130005e+00" cType="1" res="-8.2907767500728369e-04" rms="4.7343811392784119e-01" purity="4.9796259403228760e-01" nType="0">
        <Node pos="l" depth="1" NCoef="0" IVar="0" Cut="1.4046536386013031e-01" cType="1" res="5.3590442985296249e-02" rms="4.7215864062309265e-01" purity="5.7487863302230835e-01" nType="0">
          <Node pos="l" depth="2" NCoef="0" IVar="-1" Cut="0.0000000000000000e+00" cType="1" res="-6.9487583823502064e-04" rms="4.7870278358459473e-01" purity="4.7354209423065186e-01" nType="-99"/>
          <Node pos="r" depth="2" NCoef="0" IVar="-1" Cut="0.0000000000000000e+00" cType="1" res="4.9777012318372726e-03" rms="4.5495453476905823e-01" purity="6.7537552118301392e-01" nType="-99"/>
        </Node>
        <Node pos="r" depth="1" NCoef="0" IVar="4" Cut="8.6678868532180786e-01" cType="1" res="-9.0722866356372833e-02" rms="4.6170267462730408e-01" purity="3.7090748548507690e-01" nType="0">
          <Node pos="l" depth="2" NCoef="0" IVar="-1" Cut="0.0000000000000000e+00" cType="1" res="-5.2421884611248970e-03" rms="4.5206531882286072e-01" purity="3.1852257251739502e-01" nType="-99"/>
          <Node pos="r" depth="2" NCoef="0" IVar="-1" Cut="0.0000000000000000e+00" cType="1" res="2.3478029761463404e-03" rms="4.7558292746543884e-01" purity="6.0973674058914185e-01" nType="-99"/>
        </Node>
      </Node>
    </BinaryTree>
    <BinaryTree type="DecisionTree" boostWeight="1.0000000000000000e+00" itree="43">
      <Node pos="s" depth="0" NCoef="0" IVar="6" Cut="1.4342831373214722e+00" cType="1" res="7.7499385224655271e-04" rms="4.7394847869873047e-01" purity="4.9946033954620361e-01" nType="0">
        <Node pos="l" depth="1" NCoef="0" IVar="0" Cut="2.1119046211242676e-01" cType="1" res="3.5317320376634598e-02" rms="4.7520196437835693e-01" purity="5.5233716964721680e-01" nType="0">
          <Node pos="l" depth="2" NCoef="0" IVar="-1" Cut="0.0000000000000000e+00" cType="1" res="-5.5380869889631867e-04" rms="4.8025235533714294e-01" purity="4.7990208864212036e-01" nType="-99"/>
          <Node pos="r" depth="2" NCoef="0" IVar="-1" Cut="0.0000000000000000e+00" cType="1" res="4.9030445516109467e-03" rms="4.5330822467803955e-01" purity="6.8132632970809937e-01" nType="-99"/>
        </Node>
        <Node pos="r" depth="1" NCoef="0" IVar="4" Cut="7.1041935682296753e-01" cType="1" res="-1.2886753678321838e-01" rms="4.4595575332641602e-01" purity="3.0100569128990173e-01" nType="0">
          <Node pos="l" depth="2" NCoef="0" IVar="-1" Cut="0.0000000000000000e+00" cType="1" res="-7.9695470631122589e-03" rms="4.0820601582527161e-01" purity="2.2293622791767120e-01" nType="-99"/>
          <Node pos="r" depth="2" NCoef="0" IVar="-1" Cut="0.0000000000000000e+00" cType="1" res="-1.8785119755193591e-03" rms="4.8805463314056396e-01" purity="4.2355450987815857e-01" nType="-99"/>
        </Node>
      </Node>
    </BinaryTree>
    <BinaryTree type="DecisionTree" boostWeight="1.0000000000000000e+00" itree="44">
      <Node pos="s" depth="0" NCoef="0" IVar="4" Cut="6.2642401456832886e-01" cType="1" res="2.8955144807696342e-03" rms="4.7298875451087952e-01" purity="5.0160980224609375e-01" nType="0">
        <Node pos="l" depth="1" NCoef="0" IVar="1" Cut="1.2700345516204834e+00" cType="1" res="-8.4143258631229401e-02" rms="4.6361961960792542e-01" purity="3.5314610600471497e-01" nType="0">
          <Node pos="l" depth="2" NCoef="0" IVar="-1" Cut="0.0000000000000000e+00" cType="1" res="-1.4556166715919971e-03" rms="4.8138400912284851e-01" purity="4.2123419046401978e-01" nType="-99"/>
          <Node pos="r" depth="2" NCoef="0" IVar="-1" Cut="0.0000000000000000e+00" cType="1" res="-7.1319583803415298e-03" rms="4.2172595858573914e-01" purity="2.4373872578144073e-01" nType="-99"/>
        </Node>
        <Node pos="r" depth="1" NCoef="0" IVar="8" Cut="2.3855514526367188e+00" cType="1" res="5.5110502988100052e-02" rms="4.7086253762245178e-01" purity="5.9067392349243164e-01" nType="0">
          <Node pos="l" depth="2" NCoef="0" IVar="-1" Cut="0.0000000000000000e+00" cType="1" res="3.8705463521182537e-03" rms="4.6182230114936829e-01" purity="6.5030521154403687e-01" nType="-99"/>
          <Node pos="r" depth="2" NCoef="0" IVar="-1" Cut="0.0000000000000000e+00" cType="1" res="-1.9056211458519101e-03" rms="4.7808685898780823e-01" purity="4.4086748361587524e-01" nType="-99"/>
        </Node>
      </Node>
    </BinaryTree>
    <BinaryTree type="DecisionTree" boostWeight="1.0000000000000000e+00" itree="45">
      <Node pos="s" depth="0" NCoef="0" IVar="4" Cut="6.2645614147186279e-01" cType="1" res="8.2122365711256862e-04" rms="4.7299444675445557e-01" purity="4.9926838278770447e-01" nType="0">
        <Node pos="l" depth="1" NCoef="0" IVar="6" Cut="1.4327473640441895e+00" cType="1" res="-8.4069430828094482e-02" rms="4.6335756778717041e-01" purity="3.5126098990440369e-01" nType="0">
          <Node pos="l" depth="2" NCoef="0" IVar="-1" Cut="0.0000000000000000e+00" cType="1" res="-2.0836235489696264e-03" rms="4.7818139195442200e-01" purity="3.9829325675964355e-01" nType="-99"/>
          <Node pos="r" depth="2" NCoef="0" IVar="-1" Cut="0.0000000000000000e+00" cType="1" res="-8.6492942646145821e-03" rms="3.9176857471466064e-01" purity="1.9912914931774139e-01" nType="-99"/>
        </Node>
        <Node pos="r" depth="1" NCoef="0" IVar="6" Cut="1.1322659254074097e+00" cType="1" res="5.2899125963449478e-02" rms="4.7130283713340759e-01" purity="5.9006649255752563e-01" nType="0">
          <Node pos="l" depth="2" NCoef="0" IVar="-1" Cut="0.0000000000000000e+00" cType="1" res="4.0347129106521606e-03" rms="4.5867723226547241e-01" purity="6.6606003046035767e-01" nType="-99"/>
          <Node pos="r" depth="2" NCoef="0" IVar="-1" Cut="0.0000000000000000e+00" cType="1" res="-1.3564676046371460e-03" rms="4.8221215605735779e-01" purity="4.4933938980102539e-01" nType="-99"/>
        </Node>
      </Node>
    </BinaryTree>
    <BinaryTree type="DecisionTree" boostWeight="1.0000000000000000e+00" itree="46">
      <Node pos="s" depth="0" NCoef="0" IVar="4" Cut="7.1063220500946045e-01" cType="1" res="-2.1908567578066140e-04" rms="4.7171735763549805e-01" purity="4.9831715226173401e-01" nType="0">
        <Node pos="l" depth="1" NCoef="0" IVar="0" Cut="1.2632033228874207e-01" cType="1" res="-6.1433535069227219e-02" rms="4.6995383501052856e-01" purity="3.7985017895698547e-01" nType="0">
          <Node pos="l" depth="2" NCoef="0" IVar="-1" Cut="0.0000000000000000e+00" cType="1" res="-5.5321357212960720e-03" rms="4.4248515367507935e-01" purity="2.7802726626396179e-01" nType="-99"/>
          <Node pos="r" depth="2" NCoef="0" IVar="-1" Cut="0.0000000000000000e+00" cType="1" res="7.3076000262517482e-05" rms="4.8648917675018311e-01" purity="4.7729775309562683e-01" nType="-99"/>
        </Node>
        <Node pos="r" depth="1" NCoef="0" IVar="1" Cut="1.1413210630416870e+00" cType="1" res="7.3365256190299988e-02" rms="4.6324339509010315e-01" purity="6.4072346687316895e-01" nType="0">
          <Node pos="l" depth="2" NCoef="0" IVar="-1" Cut="0.0000000000000000e+00" cType="1" res="5.4055438376963139e-03" rms="4.3702968955039978e-01" purity="7.2851949930191040e-01" nType="-99"/>
          <Node pos="r" depth="2" NCoef="0" IVar="-1" Cut="0.0000000000000000e+00" cType="1" res="-1.5028619964141399e-04" rms="4.8430424928665161e-01" purity="5.2730196714401245e-01" nType="-99"/>
        </Node>
      </Node>
    </BinaryTree>
    <BinaryTree type="DecisionTree" boostWeight="1.0000000000000000e+00" itree="47">
      <Node pos="s" depth="0" NCoef="0" IVar="1" Cut="1.0695704221725464e+00" cType="1" res="4.2078681290149689e-03" rms="4.7242820262908936e-01" purity="5.0279885530471802e-01" nType="0">
        <Node pos="l" depth="1" NCoef="0" IVar="4" Cut="8.3099520206451416e-01" cType="1" res="7.6664812862873077e-02" rms="4.6570453047752380e-01" purity="6.0984891653060913e-01" nType="0">
          <Node pos="l" depth="2" NCoef="0" IVar="-1" Cut="0.0000000000000000e+00" cType="1" res="1.5020329738035798e-03" rms="4.8325973749160767e-01" purity="5.3519183397293091e-01" nType="-99"/>
          <Node pos="r" depth="2" NCoef="0" IVar="-1" Cut="0.0000000000000000e+00" cType="1" res="7.1295029483735561e-03" rms="4.0364900231361389e-01" purity="7.9187667369842529e-01" nType="-99"/>
        </Node>
        <Node pos="r" depth="1" NCoef="0" IVar="4" Cut="6.7445272207260132e-01" cType="1" res="-5.4826982319355011e-02" rms="4.6964356303215027e-01" purity="4.1557899117469788e-01" nType="0">
          <Node pos="l" depth="2" NCoef="0" IVar="-1" Cut="0.0000000000000000e+00" cType="1" res="-4.9190749414265156e-03" rms="4.4777181744575500e-01" purity="3.0091339349746704e-01" nType="-99"/>
          <Node pos="r" depth="2" NCoef="0" IVar="-1" Cut="0.0000000000000000e+00" cType="1" res="1.7969054169952869e-04" rms="4.8340529203414917e-01" purity="5.3056699037551880e-01" nType="-99"/>
        </Node>
      </Node>
    </BinaryTree>
    <BinaryTree type="DecisionTree" boostWeight="1.0000000000000000e+00" itree="48">
      <Node pos="s" depth="0" NCoef="0" IVar="4" Cut="8.6701142787933350e-01" cType="1" res="7.8365264926105738e-04" rms="4.7169071435928345e-01" purity="4.9920427799224854e-01" nType="0">
        <Node pos="l" depth="1" NCoef="0" IVar="0" Cut="2.3946635425090790e-01" cType="1" res="-3.3290840685367584e-02" rms="4.7472199797630310e-01" purity="4.4001904129981995e-01" nType="0">
          <Node pos="l" depth="2" NCoef="0" IVar="-1" Cut="0.0000000000000000e+00" cType="1" res="-3.2135401852428913e-03" rms="4.6749886870384216e-01" purity="3.7404850125312805e-01" nType="-99"/>
          <Node pos="r" depth="2" NCoef="0" IVar="-1" Cut="0.0000000000000000e+00" cType="1" res="2.7650657575577497e-03" rms="4.7640642523765564e-01" purity="5.9800684452056885e-01" nType="-99"/>
        </Node>
        <Node pos="r" depth="1" NCoef="0" IVar="1" Cut="1.0492765903472900e+00" cType="1" res="1.2915197014808655e-01" rms="4.3684309720993042e-01" purity="7.2217196226119995e-01" nType="0">
          <Node pos="l" depth="2" NCoef="0" IVar="-1" Cut="0.0000000000000000e+00" cType="1" res="7.5265895575284958e-03" rms="3.9328327775001526e-01" purity="8.0562937259674072e-01" nType="-99"/>
          <Node pos="r" depth="2" NCoef="0" IVar="-1" Cut="0.0000000000000000e+00" cType="1" res="3.2104707788676023e-03" rms="4.6728387475013733e-01" purity="6.4677995443344116e-01" nType="-99"/>
        </Node>
      </Node>
    </BinaryTree>
    <BinaryTree type="DecisionTree" boostWeight="1.0000000000000000e+00" itree="49">
      <Node pos="s" depth="0" NCoef="0" IVar="1" Cut="1.3196901082992554e+00" cType="1" res="-1.1214060941711068e-03" rms="4.7142726182937622e-01" purity="4.9770298600196838e-01" nType="0">
        <Node pos="l" depth="1" NCoef="0" IVar="0" Cut="1.2631975114345551e-01" cType="1" res="4.2435750365257263e-02" rms="4.7198298573493958e-01" purity="5.6190121173858643e-01" nType="0">
          <Node pos="l" depth="2" NCoef="0" IVar="-1" Cut="0.0000000000000000e+00" cType="1" res="-1.2754783965647221e-03" rms="4.7650891542434692e-01" purity="4.5507568120956421e-01" nType="-99"/>
          <Node pos="r" depth="2" NCoef="0" IVar="-1" Cut="0.0000000000000000e+00" cType="1" res="4.3110586702823639e-03" rms="4.5858088135719299e-01" purity="6.5527540445327759e-01" nType="-99"/>
        </Node>
        <Node pos="r" depth="1" NCoef="0" IVar="8" Cut="2.6768648624420166e+00" cType="1" res="-1.0165394842624664e-01" rms="4.5447540283203125e-01" purity="3.4952962398529053e-01" nType="0">
          <Node pos="l" depth="2" NCoef="0" IVar="-1" Cut="0.0000000000000000e+00" cType="1" res="-2.6731318794190884e-03" rms="4.6921694278717041e-01" purity="4.0414407849311829e-01" nType="-99"/>
          <Node pos="r" depth="2" NCoef="0" IVar="-1" Cut="0.0000000000000000e+00" cType="1" res="-8.8382828980684280e-03" rms="3.9733922481536865e-01" purity="2.0857459306716919e-01" nType="-99"/>
        </Node>
      </Node>
    </BinaryTree>
    <BinaryTree type="DecisionTree" boostWeight="1.0000000000000000e+00" itree="50">
      <Node pos="s" depth="0" NCoef="0" IVar="4" Cut="8.1888532638549805e-01" cType="1" res="7.0392456836998463e-04" rms="4.7082617878913879e-01" purity="4.9826779961585999e-01" nType="0">
        <Node pos="l" depth="1" NCoef="0" IVar="6" Cut="1.4864590167999268e+00" cType="1" res="-4.0140137076377869e-02" rms="4.7434291243553162e-01" purity="4.2076173424720764e-01" nType="0">
          <Node pos="l" depth="2" NCoef="0" IVar="-1" Cut="0.0000000000000000e+00" cType="1" res="-3.7576188333332539e-04" rms="4.8335337638854980e-01" purity="4.6773260831832886e-01" nType="-99"/>
          <Node pos="r" depth="2" NCoef="0" IVar="-1" Cut="0.0000000000000000e+00" cType="1" res="-7.0656561292707920e-03" rms="4.1608515381813049e-01" purity="2.3812195658683777e-01" nType="-99"/>
        </Node>
        <Node pos="r" depth="1" NCoef="0" IVar="1" Cut="1.3197749853134155e+00" cType="1" res="1.0713274031877518e-01" rms="4.4423183798789978e-01" purity="7.0022791624069214e-01" nType="0">
          <Node pos="l" depth="2" NCoef="0" IVar="-1" Cut="0.0000000000000000e+00" cType="1" res="5.8383005671203136e-03" rms="4.2388406395912170e-01" purity="7.5333178043365479e-01" nType="-99"/>
          <Node pos="r" depth="2" NCoef="0" IVar="-1" Cut="0.0000000000000000e+00" cType="1" res="3.3371482277289033e-04" rms="4.8363381624221802e-01" purity="5.5046272277832031e-01" nType="-99"/>
        </Node>
      </Node>
    </BinaryTree>
    <BinaryTree type="DecisionTree" boostWeight="1.0000000000000000e+00" itree="51">
      <Node pos="s" depth="0" NCoef="0" IVar="4" Cut="6.5048170089721680e-01" cType="1" res="2.2357178386300802e-03" rms="4.7164878249168396e-01" purity="5.0081735849380493e-01" nType="0">
        <Node pos="l" depth="1" NCoef="0" IVar="1" Cut="9.6114403009414673e-01" cType="1" res="-6.8597912788391113e-02" rms="4.6608933806419373e-01" purity="3.6226269602775574e-01" nType="0">
          <Node pos="l" depth="2" NCoef="0" IVar="-1" Cut="0.0000000000000000e+00" cType="1" res="8.6798489792272449e-04" rms="4.8950064182281494e-01" purity="4.8573631048202515e-01" nType="-99"/>
          <Node pos="r" depth="2" NCoef="0" IVar="-1" Cut="0.0000000000000000e+00" cType="1" res="-4.7106696292757988e-03" rms="4.4931492209434509e-01" purity="3.0654767155647278e-01" nType="-99"/>
        </Node>
        <Node pos="r" depth="1" NCoef="0" IVar="0" Cut="2.5360569357872009e-01" cType="1" res="5.5353213101625443e-02" rms="4.6880489587783813e-01" purity="6.0471832752227783e-01" nType="0">
          <Node pos="l" depth="2" NCoef="0" IVar="-1" Cut="0.0000000000000000e+00" cType="1" res="7.0382014382630587e-04" rms="4.7855168581008911e-01" purity="5.5281668901443481e-01" nType="-99"/>
          <Node pos="r" depth="2" NCoef="0" IVar="-1" Cut="0.0000000000000000e+00" cType="1" res="5.8815972879528999e-03" rms="4.3232369422912598e-01" purity="7.2565042972564697e-01" nType="-99"/>
        </Node>
      </Node>
    </BinaryTree>
    <BinaryTree type="DecisionTree" boostWeight="1.0000000000000000e+00" itree="52">
      <Node pos="s" depth="0" NCoef="0" IVar="4" Cut="8.3092421293258667e-01" cType="1" res="-5.4349034326151013e-04" rms="4.7018575668334961e-01" purity="4.9760922789573669e-01" nType="0">
        <Node pos="l" depth="1" NCoef="0" IVar="0" Cut="1.2631566822528839e-01" cType="1" res="-3.8168258965015411e-02" rms="4.7383624315261841e-01" purity="4.2449200153350830e-01" nType="0">
          <Node pos="l" depth="2" NCoef="0" IVar="-1" Cut="0.0000000000000000e+00" cType="1" res="-4.4504194520413876e-03" rms="4.5521175861358643e-01" purity="3.2364645600318909e-01" nType="-99"/>
          <Node pos="r" depth="2" NCoef="0" IVar="-1" Cut="0.0000000000000000e+00" cType="1" res="9.0487772831693292e-04" rms="4.8260426521301270e-01" purity="5.1748847961425781e-01" nType="-99"/>
        </Node>
        <Node pos="r" depth="1" NCoef="0" IVar="6" Cut="9.8695015907287598e-01" cType="1" res="1.0590407997369766e-01" rms="4.4270616769790649e-01" purity="7.0447176694869995e-01" nType="0">
          <Node pos="l" depth="2" NCoef="0" IVar="-1" Cut="0.0000000000000000e+00" cType="1" res="6.3731563277542591e-03" rms="4.0790402889251709e-01" purity="7.8446519374847412e-01" nType="-99"/>
          <Node pos="r" depth="2" NCoef="0" IVar="-1" Cut="0.0000000000000000e+00" cType="1" res="1.5272333985194564e-03" rms="4.7919356822967529e-01" purity="5.9196174144744873e-01" nType="-99"/>
        </Node>
      </Node>
    </BinaryTree>
    <BinaryTree type="DecisionTree" boostWeight="1.0000000000000000e+00" itree="53">
      <Node pos="s" depth="0" NCoef="0" IVar="6" Cut="1.5171136856079102e+00" cType="1" res="1.0254715016344562e-04" rms="4.6975272893905640e-01" purity="4.9789339303970337e-01" nType="0">
        <Node pos="l" depth="1" NCoef="0" IVar="0" Cut="9.8029777407646179e-02" cType="1" res="2.8627874329686165e-02" rms="4.7191041707992554e-01" purity="5.4470056295394897e-01" nType="0">
          <Node pos="l" depth="2" NCoef="0" IVar="-1" Cut="0.0000000000000000e+00" cType="1" res="-2.0746411755681038e-03" rms="4.7246018052101135e-01" purity="4.2957597970962524e-01" nType="-99"/>
          <Node pos="r" depth="2" NCoef="0" IVar="-1" Cut="0.0000000000000000e+00" cType="1" res="3.0696906615048647e-03" rms="4.6541911363601685e-01" purity="6.1324030160903931e-01" nType="-99"/>
        </Node>
        <Node pos="r" depth="1" NCoef="0" IVar="4" Cut="7.1015858650207520e-01" cType="1" res="-1.3281865417957306e-01" rms="4.3559172749519348e-01" purity="2.7978315949440002e-01" nType="0">
          <Node pos="l" depth="2" NCoef="0" IVar="-1" Cut="0.0000000000000000e+00" cType="1" res="-7.8450236469507217e-03" rms="3.9800986647605896e-01" purity="2.0704732835292816e-01" nType="-99"/>
          <Node pos="r" depth="2" NCoef="0" IVar="-1" Cut="0.0000000000000000e+00" cType="1" res="-2.6815878227353096e-03" rms="4.8243871331214905e-01" purity="3.9689674973487854e-01" nType="-99"/>
        </Node>
      </Node>
    </BinaryTree>
    <BinaryTree type="DecisionTree" boostWeight="1.0000000000000000e+00" itree="54">
      <Node pos="s" depth="0" NCoef="0" IVar="4" Cut="7.8263485431671143e-01" cType="1" res="1.7580567509867251e-04" rms="4.7009813785552979e-01" purity="4.9852615594863892e-01" nType="0">
        <Node pos="l" depth="1" NCoef="0" IVar="1" Cut="1.3862344026565552e+00" cType="1" res="-4.2310845106840134e-02" rms="4.7254788875579834e-01" purity="4.0873640775680542e-01" nType="0">
          <Node pos="l" depth="2" NCoef="0" IVar="-1" Cut="0.0000000000000000e+00" cType="1" res="-2.8799954452551901e-04" rms="4.8244151473045349e-01" purity="4.6035102009773254e-01" nType="-99"/>
          <Node pos="r" depth="2" NCoef="0" IVar="-1" Cut="0.0000000000000000e+00" cType="1" res="-6.1070551164448261e-03" rms="4.2957466840744019e-01" purity="2.6716277003288269e-01" nType="-99"/>
        </Node>
        <Node pos="r" depth="1" NCoef="0" IVar="0" Cut="1.1216341704130173e-01" cType="1" res="8.4714308381080627e-02" rms="4.5349627733230591e-01" purity="6.7718678712844849e-01" nType="0">
          <Node pos="l" depth="2" NCoef="0" IVar="-1" Cut="0.0000000000000000e+00" cType="1" res="7.8653381206095219e-04" rms="4.7789773344993591e-01" purity="5.9522569179534912e-01" nType="-99"/>
          <Node pos="r" depth="2" NCoef="0" IVar="-1" Cut="0.0000000000000000e+00" cType="1" res="5.1577510312199593e-03" rms="4.3286988139152527e-01" purity="7.2768139839172363e-01" nType="-99"/>
        </Node>
      </Node>
    </BinaryTree>
    <BinaryTree type="DecisionTree" boostWeight="1.0000000000000000e+00" itree="55">
      <Node pos="s" depth="0" NCoef="0" IVar="2" Cut="8.7958663702011108e-01" cType="1" res="4.0878467261791229e-03" rms="4.6863323450088501e-01" purity="5.0290179252624512e-01" nType="0">
        <Node pos="l" depth="1" NCoef="0" IVar="0" Cut="2.3946933448314667e-01" cType="1" res="-7.8362770378589630e-02" rms="4.6285763382911682e-01" purity="3.7285465002059937e-01" nType="0">
          <Node pos="l" depth="2" NCoef="0" IVar="-1" Cut="0.0000000000000000e+00" cType="1" res="-4.9633770249783993e-03" rms="4.4844114780426025e-01" purity="3.0917480587959290e-01" nType="-99"/>
          <Node pos="r" depth="2" NCoef="0" IVar="-1" Cut="0.0000000000000000e+00" cType="1" res="5.7489558821544051e-04" rms="4.8551577329635620e-01" purity="5.3471553325653076e-01" nType="-99"/>
        </Node>
        <Node pos="r" depth="1" NCoef="0" IVar="6" Cut="1.5873746871948242e+00" cType="1" res="5.2058413624763489e-02" rms="4.6528571844100952e-01" purity="5.7856458425521851e-01" nType="0">
          <Node pos="l" depth="2" NCoef="0" IVar="-1" Cut="0.0000000000000000e+00" cType="1" res="3.1305705197155476e-03" rms="4.6220657229423523e-01" purity="6.1851084232330322e-01" nType="-99"/>
          <Node pos="r" depth="2" NCoef="0" IVar="-1" Cut="0.0000000000000000e+00" cType="1" res="-4.3704709969460964e-03" rms="4.5541504025459290e-01" purity="3.2287210226058960e-01" nType="-99"/>
        </Node>
      </Node>
    </BinaryTree>
    <BinaryTree type="DecisionTree" boostWeight="1.0000000000000000e+00" itree="56">
      <Node pos="s" depth="0" NCoef="0" IVar="4" Cut="8.7894165515899658e-01" cType="1" res="2.8368536732159555e-04" rms="4.6862950921058655e-01" purity="4.9797618389129639e-01" nType="0">
        <Node pos="l" depth="1" NCoef="0" IVar="1" Cut="1.2959195375442505e+00" cType="1" res="-2.9941089451313019e-02" rms="4.7254928946495056e-01" purity="4.4244658946990967e-01" nType="0">
          <Node pos="l" depth="2" NCoef="0" IVar="-1" Cut="0.0000000000000000e+00" cType="1" res="5.9194059576839209e-04" rms="4.7995027899742126e-01" purity="5.1131945848464966e-01" nType="-99"/>
          <Node pos="r" depth="2" NCoef="0" IVar="-1" Cut="0.0000000000000000e+00" cType="1" res="-5.0372262485325336e-03" rms="4.4533321261405945e-01" purity="3.0829527974128723e-01" nType="-99"/>
        </Node>
        <Node pos="r" depth="1" NCoef="0" IVar="6" Cut="1.0337548255920410e+00" cType="1" res="1.2852878868579865e-01" rms="4.2852908372879028e-01" purity="7.3359072208404541e-01" nType="0">
          <Node pos="l" depth="2" NCoef="0" IVar="-1" Cut="0.0000000000000000e+00" cType="1" res="7.0631359703838825e-03" rms="3.9152759313583374e-01" purity="8.0783051252365112e-01" nType="-99"/>
          <Node pos="r" depth="2" NCoef="0" IVar="-1" Cut="0.0000000000000000e+00" cType="1" res="2.4944010656327009e-03" rms="4.7452348470687866e-01" purity="6.1419451236724854e-01" nType="-99"/>
        </Node>
      </Node>
    </BinaryTree>
    <BinaryTree type="DecisionTree" boostWeight="1.0000000000000000e+00" itree="57">
      <Node pos="s" depth="0" NCoef="0" IVar="4" Cut="6.1433178186416626e-01" cType="1" res="2.4846494197845459e-03" rms="4.6821346879005432e-01" purity="4.9995166063308716e-01" nType="0">
        <Node pos="l" depth="1" NCoef="0" IVar="1" Cut="1.0346006155014038e+00" cType="1" res="-8.2161977887153625e-02" rms="4.5742779970169067e-01" purity="3.4193423390388489e-01" nType="0">
          <Node pos="l" depth="2" NCoef="0" IVar="-1" Cut="0.0000000000000000e+00" cType="1" res="-1.6926329408306628e-04" rms="4.8479199409484863e-01" purity="4.5643952488899231e-01" nType="-99"/>
          <Node pos="r" depth="2" NCoef="0" IVar="-1" Cut="0.0000000000000000e+00" cType="1" res="-5.6425402872264385e-03" rms="4.3365579843521118e-01" purity="2.7363812923431396e-01" nType="-99"/>
        </Node>
        <Node pos="r" depth="1" NCoef="0" IVar="0" Cut="1.1215719580650330e-01" cType="1" res="4.7790240496397018e-02" rms="4.6763217449188232e-01" purity="5.8452767133712769e-01" nType="0">
          <Node pos="l" depth="2" NCoef="0" IVar="-1" Cut="0.0000000000000000e+00" cType="1" res="-9.7283476497977972e-04" rms="4.7674238681793213e-01" purity="4.8204556107521057e-01" nType="-99"/>
          <Node pos="r" depth="2" NCoef="0" IVar="-1" Cut="0.0000000000000000e+00" cType="1" res="3.9505637250840664e-03" rms="4.5495864748954773e-01" purity="6.5454477071762085e-01" nType="-99"/>
        </Node>
      </Node>
    </BinaryTree>
    <BinaryTree type="DecisionTree" boostWeight="1.0000000000000000e+00" itree="58">
      <Node pos="s" depth="0" NCoef="0" IVar="4" Cut="7.4676614999771118e-01" cType="1" res="1.7022350220941007e-04" rms="4.6806749701499939e-01" purity="4.9858883023262024e-01" nType="0">
        <Node pos="l" depth="1" NCoef="0" IVar="0" Cut="1.2631288170814514e-01" cType="1" res="-4.9107782542705536e-02" rms="4.6924689412117004e-01" purity="3.9113789796829224e-01" nType="0">
          <Node pos="l" depth="2" NCoef="0" IVar="-1" Cut="0.0000000000000000e+00" cType="1" res="-4.7494121827185154e-03" rms="4.4574305415153503e-01" purity="2.9070281982421875e-01" nType="-99"/>
          <Node pos="r" depth="2" NCoef="0" IVar="-1" Cut="0.0000000000000000e+00" cType="1" res="2.8947184910066426e-04" rms="4.8368331789970398e-01" purity="4.8573902249336243e-01" nType="-99"/>
        </Node>
        <Node pos="r" depth="1" NCoef="0" IVar="1" Cut="1.3791944980621338e+00" cType="1" res="7.5373858213424683e-02" rms="4.5611250400543213e-01" purity="6.6257065534591675e-01" nType="0">
          <Node pos="l" depth="2" NCoef="0" IVar="-1" Cut="0.0000000000000000e+00" cType="1" res="4.2907712049782276e-03" rms="4.4395974278450012e-01" purity="7.0783787965774536e-01" nType="-99"/>
          <Node pos="r" depth="2" NCoef="0" IVar="-1" Cut="0.0000000000000000e+00" cType="1" res="-1.1476116487756371e-03" rms="4.8373484611511230e-01" purity="4.9871912598609924e-01" nType="-99"/>
        </Node>
      </Node>
    </BinaryTree>
    <BinaryTree type="DecisionTree" boostWeight="1.0000000000000000e+00" itree="59">
      <Node pos="s" depth="0" NCoef="0" IVar="6" Cut="1.5927606821060181e+00" cType="1" res="2.1441855933517218e-03" rms="4.6907222270965576e-01" purity="5.0054055452346802e-01" nType="0">
        <Node pos="l" depth="1" NCoef="0" IVar="0" Cut="1.5461038053035736e-01" cType="1" res="2.6167757809162140e-02" rms="4.7142076492309570e-01" purity="5.4123204946517944e-01" nType="0">
          <Node pos="l" depth="2" NCoef="0" IVar="-1" Cut="0.0000000000000000e+00" cType="1" res="-1.1458836961537600e-03" rms="4.7475096583366394e-01" purity="4.5162943005561829e-01" nType="-99"/>
          <Node pos="r" depth="2" NCoef="0" IVar="-1" Cut="0.0000000000000000e+00" cType="1" res="3.6018467508256435e-03" rms="4.5989206433296204e-01" purity="6.4483428001403809e-01" nType="-99"/>
        </Node>
        <Node pos="r" depth="1" NCoef="0" IVar="0" Cut="2.1118220686912537e-01" cType="1" res="-1.3368637859821320e-01" rms="4.3107679486274719e-01" purity="2.7046856284141541e-01" nType="0">
          <Node pos="l" depth="2" NCoef="0" IVar="-1" Cut="0.0000000000000000e+00" cType="1" res="-7.6855784282088280e-03" rms="4.0010833740234375e-01" purity="2.1224284172058105e-01" nType="-99"/>
          <Node pos="r" depth="2" NCoef="0" IVar="-1" Cut="0.0000000000000000e+00" cType="1" res="-2.6189754717051983e-03" rms="4.7816035151481628e-01" purity="3.8433805108070374e-01" nType="-99"/>
        </Node>
      </Node>
    </BinaryTree>
    <BinaryTree type="DecisionTree" boostWeight="1.0000000000000000e+00" itree="60">
      <Node pos="s" depth="0" NCoef="0" IVar="1" Cut="1.0065557956695557e+00" cType="1" res="-1.2994353892281651e-03" rms="4.6843093633651733e-01" purity="4.9722671508789062e-01" nType="0">
        <Node pos="l" depth="1" NCoef="0" IVar="0" Cut="8.3874963223934174e-02" cType="1" res="7.2791203856468201e-02" rms="4.6256223320960999e-01" purity="6.1534792184829712e-01" nType="0">
          <Node pos="l" depth="2" NCoef="0" IVar="-1" Cut="0.0000000000000000e+00" cType="1" res="-7.7169982250779867e-04" rms="4.7584250569343567e-01" purity="4.7829490900039673e-01" nType="-99"/>
          <Node pos="r" depth="2" NCoef="0" IVar="-1" Cut="0.0000000000000000e+00" cType="1" res="4.8447726294398308e-03" rms="4.4901567697525024e-01" purity="6.8326377868652344e-01" nType="-99"/>
        </Node>
        <Node pos="r" depth="1" NCoef="0" IVar="0" Cut="1.2632033228874207e-01" cType="1" res="-4.8453666269779205e-02" rms="4.6603399515151978e-01" purity="4.2204976081848145e-01" nType="0">
          <Node pos="l" depth="2" NCoef="0" IVar="-1" Cut="0.0000000000000000e+00" cType="1" res="-4.6071964316070080e-03" rms="4.4692268967628479e-01" purity="3.2881087064743042e-01" nType="-99"/>
          <Node pos="r" depth="2" NCoef="0" IVar="-1" Cut="0.0000000000000000e+00" cType="1" res="7.9862373240757734e-05" rms="4.7653254866600037e-01" purity="5.0393629074096680e-01" nType="-99"/>
        </Node>
      </Node>
    </BinaryTree>
    <BinaryTree type="DecisionTree" boostWeight="1.0000000000000000e+00" itree="61">
      <Node pos="s" depth="0" NCoef="0" IVar="6" Cut="1.5809676647186279e+00" cType="1" res="-2.0871022716164589e-03" rms="4.6823990345001221e-01" purity="4.9578341841697693e-01" nType="0">
        <Node pos="l" depth="1" NCoef="0" IVar="0" Cut="2.1119046211242676e-01" cType="1" res="2.2476490586996078e-02" rms="4.7139561176300049e-01" purity="5.3837424516677856e-01" nType="0">
          <Node pos="l" depth="2" NCoef="0" IVar="-1" Cut="0.0000000000000000e+00" cType="1" res="-7.9946377081796527e-04" rms="4.7511565685272217e-01" purity="4.6684908866882324e-01" nType="-99"/>
          <Node pos="r" depth="2" NCoef="0" IVar="-1" Cut="0.0000000000000000e+00" cType="1" res="4.0400573052465916e-03" rms="4.5474019646644592e-01" purity="6.6967815160751343e-01" nType="-99"/>
        </Node>
        <Node pos="r" depth="1" NCoef="0" IVar="6" Cut="2.0303480625152588e+00" cType="1" res="-1.3607303798198700e-01" rms="4.2641642689704895e-01" purity="2.6346486806869507e-01" nType="0">
          <Node pos="l" depth="2" NCoef="0" IVar="-1" Cut="0.0000000000000000e+00" cType="1" res="-4.4790180400013924e-03" rms="4.4381132721900940e-01" purity="3.0247896909713745e-01" nType="-99"/>
          <Node pos="r" depth="2" NCoef="0" IVar="-1" Cut="0.0000000000000000e+00" cType="1" res="-9.2479242011904716e-03" rms="3.7874114513397217e-01" purity="1.8301555514335632e-01" nType="-99"/>
        </Node>
      </Node>
    </BinaryTree>
    <BinaryTree type="DecisionTree" boostWeight="1.0000000000000000e+00" itree="62">
      <Node pos="s" depth="0" NCoef="0" IVar="6" Cut="1.2174888849258423e+00" cType="1" res="2.4720311630517244e-03" rms="4.6757471561431885e-01" purity="4.9993777275085449e-01" nType="0">
        <Node pos="l" depth="1" NCoef="0" IVar="0" Cut="1.2631089985370636e-01" cType="1" res="4.2413845658302307e-02" rms="4.6860432624816895e-01" purity="5.7111895084381104e-01" nType="0">
          <Node pos="l" depth="2" NCoef="0" IVar="-1" Cut="0.0000000000000000e+00" cType="1" res="-8.2955934340134263e-04" rms="4.7584676742553711e-01" purity="4.6622234582901001e-01" nType="-99"/>
          <Node pos="r" depth="2" NCoef="0" IVar="-1" Cut="0.0000000000000000e+00" cType="1" res="3.9273276925086975e-03" rms="4.5568421483039856e-01" purity="6.6062223911285400e-01" nType="-99"/>
        </Node>
        <Node pos="r" depth="1" NCoef="0" IVar="6" Cut="1.8721259832382202e+00" cType="1" res="-8.3455607295036316e-02" rms="4.5358216762542725e-01" purity="3.4680429100990295e-01" nType="0">
          <Node pos="l" depth="2" NCoef="0" IVar="-1" Cut="0.0000000000000000e+00" cType="1" res="-2.2358507849276066e-03" rms="4.6691483259201050e-01" purity="3.9242750406265259e-01" nType="-99"/>
          <Node pos="r" depth="2" NCoef="0" IVar="-1" Cut="0.0000000000000000e+00" cType="1" res="-7.9367440193891525e-03" rms="3.9684867858886719e-01" purity="2.0987227559089661e-01" nType="-99"/>
        </Node>
      </Node>
    </BinaryTree>
    <BinaryTree type="DecisionTree" boostWeight="1.0000000000000000e+00" itree="63">
      <Node pos="s" depth="0" NCoef="0" IVar="0" Cut="1.5461038053035736e-01" cType="1" res="-7.5969885801896453e-04" rms="4.6757772564888000e-01" purity="4.9713689088821411e-01" nType="0">
        <Node pos="l" depth="1" NCoef="0" IVar="4" Cut="8.6669087409973145e-01" cType="1" res="-5.3280312567949295e-02" rms="4.6366864442825317e-01" purity="4.0695655345916748e-01" nType="0">
          <Node pos="l" depth="2" NCoef="0" IVar="-1" Cut="0.0000000000000000e+00" cType="1" res="-3.4829955548048019e-03" rms="4.5975890755653381e-01" purity="3.4815356135368347e-01" nType="-99"/>
          <Node pos="r" depth="2" NCoef="0" IVar="-1" Cut="0.0000000000000000e+00" cType="1" res="2.4996567517518997e-03" rms="4.6243014931678772e-01" purity="6.5268188714981079e-01" nType="-99"/>
        </Node>
        <Node pos="r" depth="1" NCoef="0" IVar="1" Cut="1.4676541090011597e+00" cType="1" res="6.0663662850856781e-02" rms="4.6463692188262939e-01" purity="6.0260361433029175e-01" nType="0">
          <Node pos="l" depth="2" NCoef="0" IVar="-1" Cut="0.0000000000000000e+00" cType="1" res="3.7126468960195780e-03" rms="4.5817932486534119e-01" purity="6.4945828914642334e-01" nType="-99"/>
          <Node pos="r" depth="2" NCoef="0" IVar="-1" Cut="0.0000000000000000e+00" cType="1" res="-2.7698578778654337e-03" rms="4.7070795297622681e-01" purity="4.0190851688385010e-01" nType="-99"/>
        </Node>
      </Node>
    </BinaryTree>
    <BinaryTree type="DecisionTree" boostWeight="1.0000000000000000e+00" itree="64">
      <Node pos="s" depth="0" NCoef="0" IVar="2" Cut="8.3151930570602417e-01" cType="1" res="-9.9886581301689148e-04" rms="4.6758192777633667e-01" purity="4.9675044417381287e-01" nType="0">
        <Node pos="l" depth="1" NCoef="0" IVar="6" Cut="9.0692293643951416e-01" cType="1" res="-8.8199183344841003e-02" rms="4.5670130848884583e-01" purity="3.4958145022392273e-01" nType="0">
          <Node pos="l" depth="2" NCoef="0" IVar="-1" Cut="0.0000000000000000e+00" cType="1" res="-1.1407609563320875e-03" rms="4.7979706525802612e-01" purity="4.4006478786468506e-01" nType="-99"/>
          <Node pos="r" depth="2" NCoef="0" IVar="-1" Cut="0.0000000000000000e+00" cType="1" res="-6.1221928335726261e-03" rms="4.2976388335227966e-01" purity="2.7359774708747864e-01" nType="-99"/>
        </Node>
        <Node pos="r" depth="1" NCoef="0" IVar="0" Cut="1.4045897126197815e-01" cType="1" res="3.2789193093776703e-02" rms="4.6737742424011230e-01" purity="5.5377489328384399e-01" nType="0">
          <Node pos="l" depth="2" NCoef="0" IVar="-1" Cut="0.0000000000000000e+00" cType="1" res="-9.1080664424225688e-04" rms="4.7249191999435425e-01" purity="4.6091499924659729e-01" nType="-99"/>
          <Node pos="r" depth="2" NCoef="0" IVar="-1" Cut="0.0000000000000000e+00" cType="1" res="3.5794784780591726e-03" rms="4.5590984821319580e-01" purity="6.4578092098236084e-01" nType="-99"/>
        </Node>
      </Node>
    </BinaryTree>
    <BinaryTree type="DecisionTree" boostWeight="1.0000000000000000e+00" itree="65">
      <Node pos="s" depth="0" NCoef="0" IVar="2" Cut="8.1971794366836548e-01" cType="1" res="4.3743937276303768e-03" rms="4.6656721830368042e-01" purity="5.0283098220825195e-01" nType="0">
        <Node pos="l" depth="1" NCoef="0" IVar="5" Cut="5.9531359863281250e+02" cType="1" res="-9.2455521225929260e-02" rms="4.5446807146072388e-01" purity="3.3993393182754517e-01" nType="0">
          <Node pos="l" depth="2" NCoef="0" IVar="-1" Cut="0.0000000000000000e+00" cType="1" res="-7.1460907347500324e-03" rms="4.1921377182006836e-01" purity="2.5964140892028809e-01" nType="-99"/>
          <Node pos="r" depth="2" NCoef="0" IVar="-1" Cut="0.0000000000000000e+00" cType="1" res="-2.3483014665544033e-03" rms="4.6772715449333191e-01" purity="3.8240951299667358e-01" nType="-99"/>
        </Node>
        <Node pos="r" depth="1" NCoef="0" IVar="0" Cut="1.9703456759452820e-01" cType="1" res="3.7371035665273666e-02" rms="4.6604567766189575e-01" purity="5.5834132432937622e-01" nType="0">
          <Node pos="l" depth="2" NCoef="0" IVar="-1" Cut="0.0000000000000000e+00" cType="1" res="-2.9367930255830288e-04" rms="4.7304213047027588e-01" purity="4.8353302478790283e-01" nType="-99"/>
          <Node pos="r" depth="2" NCoef="0" IVar="-1" Cut="0.0000000000000000e+00" cType="1" res="4.5236689038574696e-03" rms="4.4498249888420105e-01" purity="6.8051856756210327e-01" nType="-99"/>
        </Node>
      </Node>
    </BinaryTree>
    <BinaryTree type="DecisionTree" boostWeight="1.0000000000000000e+00" itree="66">
      <Node pos="s" depth="0" NCoef="0" IVar="0" Cut="2.8190299868583679e-01" cType="1" res="2.1175283472985029e-04" rms="4.6673071384429932e-01" purity="4.9771133065223694e-01" nType="0">
        <Node pos="l" depth="1" NCoef="0" IVar="1" Cut="9.0559101104736328e-01" cType="1" res="-3.0594535171985626e-02" rms="4.6682181954383850e-01" purity="4.4502961635589600e-01" nType="0">
          <Node pos="l" depth="2" NCoef="0" IVar="-1" Cut="0.0000000000000000e+00" cType="1" res="2.3923667613416910e-03" rms="4.6926274895668030e-01" purity="5.8447623252868652e-01" nType="-99"/>
          <Node pos="r" depth="2" NCoef="0" IVar="-1" Cut="0.0000000000000000e+00" cType="1" res="-2.7818456292152405e-03" rms="4.6139213442802429e-01" purity="3.9147585630416870e-01" nType="-99"/>
        </Node>
        <Node pos="r" depth="1" NCoef="0" IVar="6" Cut="1.3567523956298828e+00" cType="1" res="9.6055738627910614e-02" rms="4.5324856042861938e-01" purity="6.6161394119262695e-01" nType="0">
          <Node pos="l" depth="2" NCoef="0" IVar="-1" Cut="0.0000000000000000e+00" cType="1" res="5.1342379301786423e-03" rms="4.3795475363731384e-01" purity="7.1877533197402954e-01" nType="-99"/>
          <Node pos="r" depth="2" NCoef="0" IVar="-1" Cut="0.0000000000000000e+00" cType="1" res="1.2050164514221251e-04" rms="4.8795208334922791e-01" purity="4.7703525424003601e-01" nType="-99"/>
        </Node>
      </Node>
    </BinaryTree>
    <BinaryTree type="DecisionTree" boostWeight="1.0000000000000000e+00" itree="67">
      <Node pos="s" depth="0" NCoef="0" IVar="2" Cut="8.6771291494369507e-01" cType="1" res="1.7805636161938310e-04" rms="4.6625372767448425e-01" purity="4.9785369634628296e-01" nType="0">
        <Node pos="l" depth="1" NCoef="0" IVar="1" Cut="1.0642740726470947e+00" cType="1" res="-8.1812903285026550e-02" rms="4.5826855301856995e-01" purity="3.5976415872573853e-01" nType="0">
          <Node pos="l" depth="2" NCoef="0" IVar="-1" Cut="0.0000000000000000e+00" cType="1" res="-8.7132595945149660e-04" rms="4.8322424292564392e-01" purity="4.6571636199951172e-01" nType="-99"/>
          <Node pos="r" depth="2" NCoef="0" IVar="-1" Cut="0.0000000000000000e+00" cType="1" res="-5.4389541037380695e-03" rms="4.3525159358978271e-01" purity="2.8653666377067566e-01" nType="-99"/>
        </Node>
        <Node pos="r" depth="1" NCoef="0" IVar="0" Cut="2.8191316127777100e-01" cType="1" res="4.3507192283868790e-02" rms="4.6461153030395508e-01" purity="5.7082873582839966e-01" nType="0">
          <Node pos="l" depth="2" NCoef="0" IVar="-1" Cut="0.0000000000000000e+00" cType="1" res="5.5927870562300086e-04" rms="4.7122266888618469e-01" purity="5.2077484130859375e-01" nType="-99"/>
          <Node pos="r" depth="2" NCoef="0" IVar="-1" Cut="0.0000000000000000e+00" cType="1" res="5.5520012974739075e-03" rms="4.3152058124542236e-01" purity="7.2159343957901001e-01" nType="-99"/>
        </Node>
      </Node>
    </BinaryTree>
    <BinaryTree type="DecisionTree" boostWeight="1.0000000000000000e+00" itree="68">
      <Node pos="s" depth="0" NCoef="0" IVar="1" Cut="1.1100084781646729e+00" cType="1" res="-3.3511891961097717e-03" rms="4.6637973189353943e-01" purity="4.9479633569717407e-01" nType="0">
        <Node pos="l" depth="1" NCoef="0" IVar="4" Cut="5.9031879901885986e-01" cType="1" res="5.2664376795291901e-02" rms="4.6517577767372131e-01" purity="5.9423667192459106e-01" nType="0">
          <Node pos="l" depth="2" NCoef="0" IVar="-1" Cut="0.0000000000000000e+00" cType="1" res="-1.4976124512031674e-03" rms="4.8091128468513489e-01" purity="4.2428451776504517e-01" nType="-99"/>
          <Node pos="r" depth="2" NCoef="0" IVar="-1" Cut="0.0000000000000000e+00" cType="1" res="3.5283376928418875e-03" rms="4.5504659414291382e-01" purity="6.5619575977325439e-01" nType="-99"/>
        </Node>
        <Node pos="r" depth="1" NCoef="0" IVar="4" Cut="8.0678576231002808e-01" cType="1" res="-5.7484082877635956e-02" rms="4.6111956238746643e-01" purity="3.9869815111160278e-01" nType="0">
          <Node pos="l" depth="2" NCoef="0" IVar="-1" Cut="0.0000000000000000e+00" cType="1" res="-3.8930554874241352e-03" rms="4.5108556747436523e-01" purity="3.2540369033813477e-01" nType="-99"/>
          <Node pos="r" depth="2" NCoef="0" IVar="-1" Cut="0.0000000000000000e+00" cType="1" res="1.1191713856533170e-03" rms="4.7661775350570679e-01" purity="5.9407860040664673e-01" nType="-99"/>
        </Node>
      </Node>
    </BinaryTree>
    <BinaryTree type="DecisionTree" boostWeight="1.0000000000000000e+00" itree="69">
      <Node pos="s" depth="0" NCoef="0" IVar="4" Cut="6.3846135139465332e-01" cType="1" res="3.3041161950677633e-03" rms="4.6594893932342529e-01" purity="5.0143212080001831e-01" nType="0">
        <Node pos="l" depth="1" NCoef="0" IVar="0" Cut="3.1018775701522827e-01" cType="1" res="-6.3466541469097137e-02" rms="4.6015301346778870e-01" purity="3.5589587688446045e-01" nType="0">
          <Node pos="l" depth="2" NCoef="0" IVar="-1" Cut="0.0000000000000000e+00" cType="1" res="-3.9599626325070858e-03" rms="4.5047795772552490e-01" purity="3.0827951431274414e-01" nType="-99"/>
          <Node pos="r" depth="2" NCoef="0" IVar="-1" Cut="0.0000000000000000e+00" cType="1" res="2.1620898041874170e-03" rms="4.8323392868041992e-01" purity="5.6419134140014648e-01" nType="-99"/>
        </Node>
        <Node pos="r" depth="1" NCoef="0" IVar="1" Cut="1.1309827566146851e+00" cType="1" res="4.8646014183759689e-02" rms="4.6440282464027405e-01" purity="6.0026133060455322e-01" nType="0">
          <Node pos="l" depth="2" NCoef="0" IVar="-1" Cut="0.0000000000000000e+00" cType="1" res="3.9686001837253571e-03" rms="4.4761073589324951e-01" purity="6.8628346920013428e-01" nType="-99"/>
          <Node pos="r" depth="2" NCoef="0" IVar="-1" Cut="0.0000000000000000e+00" cType="1" res="-2.3427646374329925e-04" rms="4.7743558883666992e-01" purity="5.0049173831939697e-01" nType="-99"/>
        </Node>
      </Node>
    </BinaryTree>
    <BinaryTree type="DecisionTree" boostWeight="1.0000000000000000e+00" itree="70">
      <Node pos="s" depth="0" NCoef="0" IVar="2" Cut="8.6757671833038330e-01" cType="1" res="-2.6377844624221325e-03" rms="4.6518677473068237e-01" purity="4.9504044651985168e-01" nType="0">
        <Node pos="l" depth="1" NCoef="0" IVar="0" Cut="1.2629690766334534e-01" cType="1" res="-7.8669033944606781e-02" rms="4.5655214786529541e-01" purity="3.5951542854309082e-01" nType="0">
          <Node pos="l" depth="2" NCoef="0" IVar="-1" Cut="0.0000000000000000e+00" cType="1" res="-5.9166345745325089e-03" rms="4.2763045430183411e-01" purity="2.5887849926948547e-01" nType="-99"/>
          <Node pos="r" depth="2" NCoef="0" IVar="-1" Cut="0.0000000000000000e+00" cType="1" res="-1.1549500050023198e-03" rms="4.7685340046882629e-01" purity="4.5509395003318787e-01" nType="-99"/>
        </Node>
        <Node pos="r" depth="1" NCoef="0" IVar="6" Cut="9.8531150817871094e-01" cType="1" res="3.7704419344663620e-02" rms="4.6467939019203186e-01" purity="5.6695008277893066e-01" nType="0">
          <Node pos="l" depth="2" NCoef="0" IVar="-1" Cut="0.0000000000000000e+00" cType="1" res="3.5070904996246099e-03" rms="4.5371025800704956e-01" purity="6.5026897192001343e-01" nType="-99"/>
          <Node pos="r" depth="2" NCoef="0" IVar="-1" Cut="0.0000000000000000e+00" cType="1" res="-8.2485860912129283e-04" rms="4.7164678573608398e-01" purity="4.6393197774887085e-01" nType="-99"/>
        </Node>
      </Node>
    </BinaryTree>
    <BinaryTree type="DecisionTree" boostWeight="1.0000000000000000e+00" itree="71">
      <Node pos="s" depth="0" NCoef="0" IVar="1" Cut="1.2084575891494751e+00" cType="1" res="2.8040870092809200e-03" rms="4.6553820371627808e-01" purity="5.0063592195510864e-01" nType="0">
        <Node pos="l" depth="1" NCoef="0" IVar="2" Cut="9.0397626161575317e-01" cType="1" res="4.8695612698793411e-02" rms="4.6522733569145203e-01" purity="5.8482879400253296e-01" nType="0">
          <Node pos="l" depth="2" NCoef="0" IVar="-1" Cut="0.0000000000000000e+00" cType="1" res="-6.0983595903962851e-04" rms="4.7893616557121277e-01" purity="4.7269091010093689e-01" nType="-99"/>
          <Node pos="r" depth="2" NCoef="0" IVar="-1" Cut="0.0000000000000000e+00" cType="1" res="3.8214246742427349e-03" rms="4.5064720511436462e-01" purity="6.6095525026321411e-01" nType="-99"/>
        </Node>
        <Node pos="r" depth="1" NCoef="0" IVar="4" Cut="8.9096903800964355e-01" cType="1" res="-6.2244623899459839e-02" rms="4.5816960930824280e-01" purity="3.8129720091819763e-01" nType="0">
          <Node pos="l" depth="2" NCoef="0" IVar="-1" Cut="0.0000000000000000e+00" cType="1" res="-3.6388696171343327e-03" rms="4.5284447073936462e-01" purity="3.3904033899307251e-01" nType="-99"/>
          <Node pos="r" depth="2" NCoef="0" IVar="-1" Cut="0.0000000000000000e+00" cType="1" res="2.4962483439594507e-03" rms="4.6942883729934692e-01" purity="6.2797063589096069e-01" nType="-99"/>
        </Node>
      </Node>
    </BinaryTree>
    <BinaryTree type="DecisionTree" boostWeight="1.0000000000000000e+00" itree="72">
      <Node pos="s" depth="0" NCoef="0" IVar="3" Cut="1.4260271787643433e+00" cType="1" res="-6.3657463761046529e-04" rms="4.6481561660766602e-01" purity="4.9756374955177307e-01" nType="0">
        <Node pos="l" depth="1" NCoef="0" IVar="0" Cut="1.1217094212770462e-01" cType="1" res="3.5190690308809280e-02" rms="4.6565604209899902e-01" purity="5.4920440912246704e-01" nType="0">
          <Node pos="l" depth="2" NCoef="0" IVar="-1" Cut="0.0000000000000000e+00" cType="1" res="-1.3624974526464939e-03" rms="4.6866816282272339e-01" purity="4.3251800537109375e-01" nType="-99"/>
          <Node pos="r" depth="2" NCoef="0" IVar="-1" Cut="0.0000000000000000e+00" cType="1" res="3.4261182881891727e-03" rms="4.5762047171592712e-01" purity="6.3162326812744141e-01" nType="-99"/>
        </Node>
        <Node pos="r" depth="1" NCoef="0" IVar="4" Cut="8.6681836843490601e-01" cType="1" res="-7.9942286014556885e-02" rms="4.5298117399215698e-01" purity="3.8325440883636475e-01" nType="0">
          <Node pos="l" depth="2" NCoef="0" IVar="-1" Cut="0.0000000000000000e+00" cType="1" res="-4.7227125614881516e-03" rms="4.4544100761413574e-01" purity="3.2601347565650940e-01" nType="-99"/>
          <Node pos="r" depth="2" NCoef="0" IVar="-1" Cut="0.0000000000000000e+00" cType="1" res="1.7550793709233403e-03" rms="4.6494147181510925e-01" purity="6.3109642267227173e-01" nType="-99"/>
        </Node>
      </Node>
    </BinaryTree>
    <BinaryTree type="DecisionTree" boostWeight="1.0000000000000000e+00" itree="73">
      <Node pos="s" depth="0" NCoef="0" IVar="4" Cut="8.7892943620681763e-01" cType="1" res="4.2186900973320007e-03" rms="4.6511968970298767e-01" purity="5.0227451324462891e-01" nType="0">
        <Node pos="l" depth="1" NCoef="0" IVar="6" Cut="1.5174958705902100e+00" cType="1" res="-2.1605473011732101e-02" rms="4.6955356001853943e-01" purity="4.4701766967773438e-01" nType="0">
          <Node pos="l" depth="2" NCoef="0" IVar="-1" Cut="0.0000000000000000e+00" cType="1" res="1.3093168672639877e-04" rms="4.7729495167732239e-01" purity="4.9361041188240051e-01" nType="-99"/>
          <Node pos="r" depth="2" NCoef="0" IVar="-1" Cut="0.0000000000000000e+00" cType="1" res="-5.7817548513412476e-03" rms="4.1864776611328125e-01" purity="2.4752698838710785e-01" nType="-99"/>
        </Node>
        <Node pos="r" depth="1" NCoef="0" IVar="6" Cut="1.0265543460845947e+00" cType="1" res="1.1035223305225372e-01" rms="4.3046379089355469e-01" purity="7.2937196493148804e-01" nType="0">
          <Node pos="l" depth="2" NCoef="0" IVar="-1" Cut="0.0000000000000000e+00" cType="1" res="6.0284631326794624e-03" rms="3.9852488040924072e-01" purity="7.9764193296432495e-01" nType="-99"/>
          <Node pos="r" depth="2" NCoef="0" IVar="-1" Cut="0.0000000000000000e+00" cType="1" res="2.4657510221004486e-03" rms="4.7258898615837097e-01" purity="6.2092220783233643e-01" nType="-99"/>
        </Node>
      </Node>
    </BinaryTree>
    <BinaryTree type="DecisionTree" boostWeight="1.0000000000000000e+00" itree="74">
      <Node pos="s" depth="0" NCoef="0" IVar="4" Cut="8.6699956655502319e-01" cType="1" res="1.9199923845008016e-03" rms="4.6444624662399292e-01" purity="4.9939870834350586e-01" nType="0">
        <Node pos="l" depth="1" NCoef="0" IVar="8" Cut="2.4448609352111816e+00" cType="1" res="-2.6001607999205589e-02" rms="4.6905755996704102e-01" purity="4.3871480226516724e-01" nType="0">
          <Node pos="l" depth="2" NCoef="0" IVar="-1" Cut="0.0000000000000000e+00" cType="1" res="1.5092593093868345e-04" rms="4.7727918624877930e-01" purity="4.9082350730895996e-01" nType="-99"/>
          <Node pos="r" depth="2" NCoef="0" IVar="-1" Cut="0.0000000000000000e+00" cType="1" res="-4.8948959447443485e-03" rms="4.3399384617805481e-01" purity="2.9069465398788452e-01" nType="-99"/>
        </Node>
        <Node pos="r" depth="1" NCoef="0" IVar="0" Cut="1.3659231364727020e-01" cType="1" res="1.0730799287557602e-01" rms="4.3059644103050232e-01" purity="7.2844535112380981e-01" nType="0">
          <Node pos="l" depth="2" NCoef="0" IVar="-1" Cut="0.0000000000000000e+00" cType="1" res="2.5851831305772066e-03" rms="4.5941567420959473e-01" purity="6.5977025032043457e-01" nType="-99"/>
          <Node pos="r" depth="2" NCoef="0" IVar="-1" Cut="0.0000000000000000e+00" cType="1" res="6.1831115745007992e-03" rms="4.0090531110763550e-01" purity="7.8626185655593872e-01" nType="-99"/>
        </Node>
      </Node>
    </BinaryTree>
    <BinaryTree type="DecisionTree" boostWeight="1.0000000000000000e+00" itree="75">
      <Node pos="s" depth="0" NCoef="0" IVar="6" Cut="1.5928581953048706e+00" cType="1" res="3.3064943272620440e-03" rms="4.6489137411117554e-01" purity="5.0115376710891724e-01" nType="0">
        <Node pos="l" depth="1" NCoef="0" IVar="0" Cut="2.8191456198692322e-01" cType="1" res="2.5829168036580086e-02" rms="4.6836847066879272e-01" purity="5.4385310411453247e-01" nType="0">
          <Node pos="l" depth="2" NCoef="0" IVar="-1" Cut="0.0000000000000000e+00" cType="1" res="-1.4450876915361732e-04" rms="4.7284802794456482e-01" purity="4.9039793014526367e-01" nType="-99"/>
          <Node pos="r" depth="2" NCoef="0" IVar="-1" Cut="0.0000000000000000e+00" cType="1" res="4.7931233420968056e-03" rms="4.4235345721244812e-01" purity="7.0825171470642090e-01" nType="-99"/>
        </Node>
        <Node pos="r" depth="1" NCoef="0" IVar="3" Cut="1.7229541540145874e+00" cType="1" res="-1.2480226159095764e-01" rms="4.2233756184577942e-01" purity="2.5828060507774353e-01" nType="0">
          <Node pos="l" depth="2" NCoef="0" IVar="-1" Cut="0.0000000000000000e+00" cType="1" res="-3.8408981636166573e-03" rms="4.4164752960205078e-01" purity="3.0087611079216003e-01" nType="-99"/>
          <Node pos="r" depth="2" NCoef="0" IVar="-1" Cut="0.0000000000000000e+00" cType="1" res="-7.9702371731400490e-03" rms="3.9029663801193237e-01" purity="2.0308087766170502e-01" nType="-99"/>
        </Node>
      </Node>
    </BinaryTree>
    <BinaryTree type="DecisionTree" boostWeight="1.0000000000000000e+00" itree="76">
      <Node pos="s" depth="0" NCoef="0" IVar="6" Cut="1.1426351070404053e+00" cType="1" res="-5.1300032064318657e-03" rms="4.6307671070098877e-01" purity="4.9344590306282043e-01" nType="0">
        <Node pos="l" depth="1" NCoef="0" IVar="4" Cut="6.1441516876220703e-01" cType="1" res="3.4426648169755936e-02" rms="4.6456348896026611e-01" purity="5.6990939378738403e-01" nType="0">
          <Node pos="l" depth="2" NCoef="0" IVar="-1" Cut="0.0000000000000000e+00" cType="1" res="-1.7979110125452280e-03" rms="4.7400939464569092e-01" purity="3.9920750260353088e-01" nType="-99"/>
          <Node pos="r" depth="2" NCoef="0" IVar="-1" Cut="0.0000000000000000e+00" cType="1" res="3.0298091005533934e-03" rms="4.5500358939170837e-01" purity="6.5458983182907104e-01" nType="-99"/>
        </Node>
        <Node pos="r" depth="1" NCoef="0" IVar="3" Cut="1.8146146535873413e+00" cType="1" res="-7.6963126659393311e-02" rms="4.5159053802490234e-01" purity="3.5459142923355103e-01" nType="0">
          <Node pos="l" depth="2" NCoef="0" IVar="-1" Cut="0.0000000000000000e+00" cType="1" res="-1.9211913459002972e-03" rms="4.6276119351387024e-01" purity="3.9734262228012085e-01" nType="-99"/>
          <Node pos="r" depth="2" NCoef="0" IVar="-1" Cut="0.0000000000000000e+00" cType="1" res="-6.6633801907300949e-03" rms="4.1665911674499512e-01" purity="2.5937342643737793e-01" nType="-99"/>
        </Node>
      </Node>
    </BinaryTree>
    <BinaryTree type="DecisionTree" boostWeight="1.0000000000000000e+00" itree="77">
      <Node pos="s" depth="0" NCoef="0" IVar="6" Cut="9.0733343362808228e-01" cType="1" res="2.4582473561167717e-03" rms="4.6395719051361084e-01" purity="4.9925148487091064e-01" nType="0">
        <Node pos="l" depth="1" NCoef="0" IVar="4" Cut="5.7833141088485718e-01" cType="1" res="5.7421006262302399e-02" rms="4.6101567149162292e-01" purity="5.9672868251800537e-01" nType="0">
          <Node pos="l" depth="2" NCoef="0" IVar="-1" Cut="0.0000000000000000e+00" cType="1" res="-1.4349360717460513e-03" rms="4.7516033053398132e-01" purity="4.0786796808242798e-01" nType="-99"/>
          <Node pos="r" depth="2" NCoef="0" IVar="-1" Cut="0.0000000000000000e+00" cType="1" res="3.6497525870800018e-03" rms="4.5231515169143677e-01" purity="6.5837907791137695e-01" nType="-99"/>
        </Node>
        <Node pos="r" depth="1" NCoef="0" IVar="2" Cut="8.0809301137924194e-01" cType="1" res="-4.6782776713371277e-02" rms="4.6104529500007629e-01" purity="4.1192179918289185e-01" nType="0">
          <Node pos="l" depth="2" NCoef="0" IVar="-1" Cut="0.0000000000000000e+00" cType="1" res="-5.8482722379267216e-03" rms="4.2189282178878784e-01" purity="2.6181420683860779e-01" nType="-99"/>
          <Node pos="r" depth="2" NCoef="0" IVar="-1" Cut="0.0000000000000000e+00" cType="1" res="-7.6549546793103218e-04" rms="4.7033643722534180e-01" purity="4.6354842185974121e-01" nType="-99"/>
        </Node>
      </Node>
    </BinaryTree>
    <BinaryTree type="DecisionTree" boostWeight="1.0000000000000000e+00" itree="78">
      <Node pos="s" depth="0" NCoef="0" IVar="0" Cut="3.2435062527656555e-01" cType="1" res="6.9915154017508030e-04" rms="4.6330350637435913e-01" purity="4.9832475185394287e-01" nType="0">
        <Node pos="l" depth="1" NCoef="0" IVar="2" Cut="8.2006239891052246e-01" cType="1" res="-2.3526079952716827e-02" rms="4.6462354063987732e-01" purity="4.5617973804473877e-01" nType="0">
          <Node pos="l" depth="2" NCoef="0" IVar="-1" Cut="0.0000000000000000e+00" cType="1" res="-4.6997484751045704e-03" rms="4.4042509794235229e-01" purity="2.9632490873336792e-01" nType="-99"/>
          <Node pos="r" depth="2" NCoef="0" IVar="-1" Cut="0.0000000000000000e+00" cType="1" res="2.8558081248775125e-04" rms="4.6952962875366211e-01" purity="5.1461219787597656e-01" nType="-99"/>
        </Node>
        <Node pos="r" depth="1" NCoef="0" IVar="1" Cut="1.2825459241867065e+00" cType="1" res="1.0675088316202164e-01" rms="4.4212195277214050e-01" purity="6.8282437324523926e-01" nType="0">
          <Node pos="l" depth="2" NCoef="0" IVar="-1" Cut="0.0000000000000000e+00" cType="1" res="5.8880611322820187e-03" rms="4.2034220695495605e-01" purity="7.4991583824157715e-01" nType="-99"/>
          <Node pos="r" depth="2" NCoef="0" IVar="-1" Cut="0.0000000000000000e+00" cType="1" res="1.1619660072028637e-03" rms="4.7951975464820862e-01" purity="5.2814424037933350e-01" nType="-99"/>
        </Node>
      </Node>
    </BinaryTree>
    <BinaryTree type="DecisionTree" boostWeight="1.0000000000000000e+00" itree="79">
      <Node pos="s" depth="0" NCoef="0" IVar="3" Cut="1.5740267038345337e+00" cType="1" res="8.6687061411794275e-05" rms="4.6454215049743652e-01" purity="4.9738821387290955e-01" nType="0">
        <Node pos="l" depth="1" NCoef="0" IVar="0" Cut="1.2631975114345551e-01" cType="1" res="2.8674321249127388e-02" rms="4.6529373526573181e-01" purity="5.4068076610565186e-01" nType="0">
          <Node pos="l" depth="2" NCoef="0" IVar="-1" Cut="0.0000000000000000e+00" cType="1" res="-1.0662395507097244e-03" rms="4.6848171949386597e-01" purity="4.3698161840438843e-01" nType="-99"/>
          <Node pos="r" depth="2" NCoef="0" IVar="-1" Cut="0.0000000000000000e+00" cType="1" res="3.0907066538929939e-03" rms="4.5769679546356201e-01" purity="6.2865728139877319e-01" nType="-99"/>
        </Node>
        <Node pos="r" depth="1" NCoef="0" IVar="4" Cut="5.7828414440155029e-01" cType="1" res="-7.9958565533161163e-02" rms="4.5293167233467102e-01" purity="3.7616911530494690e-01" nType="0">
          <Node pos="l" depth="2" NCoef="0" IVar="-1" Cut="0.0000000000000000e+00" cType="1" res="-7.1074035950005054e-03" rms="4.0092962980270386e-01" purity="2.2495885193347931e-01" nType="-99"/>
          <Node pos="r" depth="2" NCoef="0" IVar="-1" Cut="0.0000000000000000e+00" cType="1" res="-2.1348975133150816e-03" rms="4.6861794590950012e-01" purity="4.3612253665924072e-01" nType="-99"/>
        </Node>
      </Node>
    </BinaryTree>
    <BinaryTree type="DecisionTree" boostWeight="1.0000000000000000e+00" itree="80">
      <Node pos="s" depth="0" NCoef="0" IVar="1" Cut="1.3026561737060547e+00" cType="1" res="3.4970149863511324e-03" rms="4.6411606669425964e-01" purity="5.0134944915771484e-01" nType="0">
        <Node pos="l" depth="1" NCoef="0" IVar="4" Cut="6.0236120223999023e-01" cType="1" res="3.8289248943328857e-02" rms="4.6544528007507324e-01" purity="5.6822103261947632e-01" nType="0">
          <Node pos="l" depth="2" NCoef="0" IVar="-1" Cut="0.0000000000000000e+00" cType="1" res="-1.3379722367972136e-03" rms="4.7503882646560669e-01" purity="4.0914359688758850e-01" nType="-99"/>
          <Node pos="r" depth="2" NCoef="0" IVar="-1" Cut="0.0000000000000000e+00" cType="1" res="2.9057885985821486e-03" rms="4.5769658684730530e-01" purity="6.3898634910583496e-01" nType="-99"/>
        </Node>
        <Node pos="r" depth="1" NCoef="0" IVar="5" Cut="7.3008874511718750e+02" cType="1" res="-7.1224533021450043e-02" rms="4.5229095220565796e-01" purity="3.5773259401321411e-01" nType="0">
          <Node pos="l" depth="2" NCoef="0" IVar="-1" Cut="0.0000000000000000e+00" cType="1" res="-4.9159466288983822e-03" rms="4.3837884068489075e-01" purity="3.0943498015403748e-01" nType="-99"/>
          <Node pos="r" depth="2" NCoef="0" IVar="-1" Cut="0.0000000000000000e+00" cType="1" res="-4.6887379721738398e-04" rms="4.6612218022346497e-01" purity="4.3080610036849976e-01" nType="-99"/>
        </Node>
      </Node>
    </BinaryTree>
    <BinaryTree type="DecisionTree" boostWeight="1.0000000000000000e+00" itree="81">
      <Node pos="s" depth="0" NCoef="0" IVar="3" Cut="1.5007510185241699e+00" cType="1" res="2.9746871441602707e-03" rms="4.6322026848793030e-01" purity="5.0161445140838623e-01" nType="0">
        <Node pos="l" depth="1" NCoef="0" IVar="4" Cut="6.2643146514892578e-01" cType="1" res="3.5326134413480759e-02" rms="4.6378457546234131e-01" purity="5.5164313316345215e-01" nType="0">
          <Node pos="l" depth="2" NCoef="0" IVar="-1" Cut="0.0000000000000000e+00" cType="1" res="-1.3342810561880469e-03" rms="4.6933043003082275e-01" purity="3.9620316028594971e-01" nType="-99"/>
          <Node pos="r" depth="2" NCoef="0" IVar="-1" Cut="0.0000000000000000e+00" cType="1" res="3.0712683219462633e-03" rms="4.5628029108047485e-01" purity="6.4038366079330444e-01" nType="-99"/>
        </Node>
        <Node pos="r" depth="1" NCoef="0" IVar="6" Cut="9.1255468130111694e-01" cType="1" res="-7.7929422259330750e-02" rms="4.5177644491195679e-01" purity="3.7650349736213684e-01" nType="0">
          <Node pos="l" depth="2" NCoef="0" IVar="-1" Cut="0.0000000000000000e+00" cType="1" res="-4.6756293158978224e-04" rms="4.7149756550788879e-01" purity="5.0457650423049927e-01" nType="-99"/>
          <Node pos="r" depth="2" NCoef="0" IVar="-1" Cut="0.0000000000000000e+00" cType="1" res="-4.8926379531621933e-03" rms="4.3810102343559265e-01" purity="3.1384420394897461e-01" nType="-99"/>
        </Node>
      </Node>
    </BinaryTree>
    <BinaryTree type="DecisionTree" boostWeight="1.0000000000000000e+00" itree="82">
      <Node pos="s" depth="0" NCoef="0" IVar="1" Cut="1.3243621587753296e+00" cType="1" res="1.4926438452675939e-03" rms="4.6293261647224426e-01" purity="5.0048953294754028e-01" nType="0">
        <Node pos="l" depth="1" NCoef="0" IVar="2" Cut="8.9171832799911499e-01" cType="1" res="3.3637803047895432e-02" rms="4.6474930644035339e-01" purity="5.6366544961929321e-01" nType="0">
          <Node pos="l" depth="2" NCoef="0" IVar="-1" Cut="0.0000000000000000e+00" cType="1" res="-1.2362030101940036e-03" rms="4.7415453195571899e-01" purity="4.4182130694389343e-01" nType="-99"/>
          <Node pos="r" depth="2" NCoef="0" IVar="-1" Cut="0.0000000000000000e+00" cType="1" res="3.0156983993947506e-03" rms="4.5473459362983704e-01" purity="6.3759946823120117e-01" nType="-99"/>
        </Node>
        <Node pos="r" depth="1" NCoef="0" IVar="6" Cut="1.8309563398361206e+00" cType="1" res="-7.4502527713775635e-02" rms="4.4956001639366150e-01" purity="3.5113370418548584e-01" nType="0">
          <Node pos="l" depth="2" NCoef="0" IVar="-1" Cut="0.0000000000000000e+00" cType="1" res="-2.1484335884451866e-03" rms="4.6300244331359863e-01" purity="3.9666187763214111e-01" nType="-99"/>
          <Node pos="r" depth="2" NCoef="0" IVar="-1" Cut="0.0000000000000000e+00" cType="1" res="-7.2141368873417377e-03" rms="3.9231309294700623e-01" purity="2.0358189940452576e-01" nType="-99"/>
        </Node>
      </Node>
    </BinaryTree>
    <BinaryTree type="DecisionTree" boostWeight="1.0000000000000000e+00" itree="83">
      <Node pos="s" depth="0" NCoef="0" IVar="0" Cut="2.1119046211242676e-01" cType="1" res="2.3435170296579599e-03" rms="4.6268960833549500e-01" purity="5.0052887201309204e-01" nType="0">
        <Node pos="l" depth="1" NCoef="0" IVar="6" Cut="1.1414916515350342e+00" cType="1" res="-3.4166514873504639e-02" rms="4.6319741010665894e-01" purity="4.2743417620658875e-01" nType="0">
          <Node pos="l" depth="2" NCoef="0" IVar="-1" Cut="0.0000000000000000e+00" cType="1" res="1.3710260100197047e-04" rms="4.7452118992805481e-01" purity="5.0306302309036255e-01" nType="-99"/>
          <Node pos="r" depth="2" NCoef="0" IVar="-1" Cut="0.0000000000000000e+00" cType="1" res="-4.4152052141726017e-03" rms="4.3584066629409790e-01" purity="2.9833954572677612e-01" nType="-99"/>
        </Node>
        <Node pos="r" depth="1" NCoef="0" IVar="1" Cut="1.3250899314880371e+00" cType="1" res="6.9350056350231171e-02" rms="4.5418336987495422e-01" purity="6.3467884063720703e-01" nType="0">
          <Node pos="l" depth="2" NCoef="0" IVar="-1" Cut="0.0000000000000000e+00" cType="1" res="4.3330700136721134e-03" rms="4.3973106145858765e-01" purity="7.0324754714965820e-01" nType="-99"/>
          <Node pos="r" depth="2" NCoef="0" IVar="-1" Cut="0.0000000000000000e+00" cType="1" res="-5.8242853265255690e-04" rms="4.7763377428054810e-01" purity="4.6672970056533813e-01" nType="-99"/>
        </Node>
      </Node>
    </BinaryTree>
    <BinaryTree type="DecisionTree" boostWeight="1.0000000000000000e+00" itree="84">
      <Node pos="s" depth="0" NCoef="0" IVar="2" Cut="8.6771792173385620e-01" cType="1" res="3.0655818991363049e-03" rms="4.6249437332153320e-01" purity="5.0096273422241211e-01" nType="0">
        <Node pos="l" depth="1" NCoef="0" IVar="3" Cut="1.2159005403518677e+00" cType="1" res="-6.2538973987102509e-02" rms="4.5748406648635864e-01" purity="3.6814218759536743e-01" nType="0">
          <Node pos="l" depth="2" NCoef="0" IVar="-1" Cut="0.0000000000000000e+00" cType="1" res="-9.7099062986671925e-04" rms="4.7037237882614136e-01" purity="4.2905887961387634e-01" nType="-99"/>
          <Node pos="r" depth="2" NCoef="0" IVar="-1" Cut="0.0000000000000000e+00" cType="1" res="-5.3825769573450089e-03" rms="4.3181487917900085e-01" purity="2.8029730916023254e-01" nType="-99"/>
        </Node>
        <Node pos="r" depth="1" NCoef="0" IVar="0" Cut="1.8287625908851624e-01" cType="1" res="3.7679653614759445e-02" rms="4.6137192845344543e-01" purity="5.7104104757308960e-01" nType="0">
          <Node pos="l" depth="2" NCoef="0" IVar="-1" Cut="0.0000000000000000e+00" cType="1" res="-1.0598549852147698e-04" rms="4.7022348642349243e-01" purity="4.9301031231880188e-01" nType="-99"/>
          <Node pos="r" depth="2" NCoef="0" IVar="-1" Cut="0.0000000000000000e+00" cType="1" res="3.9775054901838303e-03" rms="4.4229689240455627e-01" purity="6.8174695968627930e-01" nType="-99"/>
        </Node>
      </Node>
    </BinaryTree>
    <BinaryTree type="DecisionTree" boostWeight="1.0000000000000000e+00" itree="85">
      <Node pos="s" depth="0" NCoef="0" IVar="1" Cut="9.8189121484756470e-01" cType="1" res="2.0525003783404827e-03" rms="4.6248880028724670e-01" purity="4.9911937117576599e-01" nType="0">
        <Node pos="l" depth="1" NCoef="0" IVar="0" Cut="1.1217476427555084e-01" cType="1" res="6.6545665264129639e-02" rms="4.5677229762077332e-01" purity="6.2391626834869385e-01" nType="0">
          <Node pos="l" depth="2" NCoef="0" IVar="-1" Cut="0.0000000000000000e+00" cType="1" res="4.5010886969976127e-04" rms="4.7509625554084778e-01" purity="5.1058095693588257e-01" nType="-99"/>
          <Node pos="r" depth="2" NCoef="0" IVar="-1" Cut="0.0000000000000000e+00" cType="1" res="4.4853240251541138e-03" rms="4.3873286247253418e-01" purity="7.0551639795303345e-01" nType="-99"/>
        </Node>
        <Node pos="r" depth="1" NCoef="0" IVar="4" Cut="9.0309864282608032e-01" cType="1" res="-3.3922184258699417e-02" rms="4.6174973249435425e-01" purity="4.2950689792633057e-01" nType="0">
          <Node pos="l" depth="2" NCoef="0" IVar="-1" Cut="0.0000000000000000e+00" cType="1" res="-2.3143724538385868e-03" rms="4.6042832732200623e-01" purity="3.8769531250000000e-01" nType="-99"/>
          <Node pos="r" depth="2" NCoef="0" IVar="-1" Cut="0.0000000000000000e+00" cType="1" res="3.3802767284214497e-03" rms="4.5271629095077515e-01" purity="6.7875921726226807e-01" nType="-99"/>
        </Node>
      </Node>
    </BinaryTree>
    <BinaryTree type="DecisionTree" boostWeight="1.0000000000000000e+00" itree="86">
      <Node pos="s" depth="0" NCoef="0" IVar="0" Cut="1.5460970997810364e-01" cType="1" res="3.3180108293890953e-03" rms="4.6210849285125732e-01" purity="5.0063985586166382e-01" nType="0">
        <Node pos="l" depth="1" NCoef="0" IVar="6" Cut="9.8588722944259644e-01" cType="1" res="-4.2844749987125397e-02" rms="4.6018260717391968e-01" purity="4.0836906433105469e-01" nType="0">
          <Node pos="l" depth="2" NCoef="0" IVar="-1" Cut="0.0000000000000000e+00" cType="1" res="2.0827175467275083e-04" rms="4.7266629338264465e-01" purity="4.9913260340690613e-01" nType="-99"/>
          <Node pos="r" depth="2" NCoef="0" IVar="-1" Cut="0.0000000000000000e+00" cType="1" res="-4.2328140698373318e-03" rms="4.4060304760932922e-01" purity="3.1066152453422546e-01" nType="-99"/>
        </Node>
        <Node pos="r" depth="1" NCoef="0" IVar="1" Cut="1.3891922235488892e+00" cType="1" res="5.6903902441263199e-02" rms="4.5854222774505615e-01" purity="6.0774815082550049e-01" nType="0">
          <Node pos="l" depth="2" NCoef="0" IVar="-1" Cut="0.0000000000000000e+00" cType="1" res="3.6259165499359369e-03" rms="4.5023491978645325e-01" purity="6.6580390930175781e-01" nType="-99"/>
          <Node pos="r" depth="2" NCoef="0" IVar="-1" Cut="0.0000000000000000e+00" cType="1" res="-1.4707624213770032e-03" rms="4.7169086337089539e-01" purity="4.2828816175460815e-01" nType="-99"/>
        </Node>
      </Node>
    </BinaryTree>
    <BinaryTree type="DecisionTree" boostWeight="1.0000000000000000e+00" itree="87">
      <Node pos="s" depth="0" NCoef="0" IVar="0" Cut="2.8191456198692322e-01" cType="1" res="5.1143118180334568e-03" rms="4.6107730269432068e-01" purity="5.0352936983108521e-01" nType="0">
        <Node pos="l" depth="1" NCoef="0" IVar="4" Cut="8.6699956655502319e-01" cType="1" res="-2.2372182458639145e-02" rms="4.6278515458106995e-01" purity="4.5017576217651367e-01" nType="0">
          <Node pos="l" depth="2" NCoef="0" IVar="-1" Cut="0.0000000000000000e+00" cType="1" res="-2.0312657579779625e-03" rms="4.6348831057548523e-01" purity="3.8992244005203247e-01" nType="-99"/>
          <Node pos="r" depth="2" NCoef="0" IVar="-1" Cut="0.0000000000000000e+00" cType="1" res="3.1237737275660038e-03" rms="4.4705405831336975e-01" purity="6.8908381462097168e-01" nType="-99"/>
        </Node>
        <Node pos="r" depth="1" NCoef="0" IVar="3" Cut="1.4597773551940918e+00" cType="1" res="9.1623693704605103e-02" rms="4.4470736384391785e-01" purity="6.7145133018493652e-01" nType="0">
          <Node pos="l" depth="2" NCoef="0" IVar="-1" Cut="0.0000000000000000e+00" cType="1" res="5.2261929959058762e-03" rms="4.2808791995048523e-01" purity="7.2354423999786377e-01" nType="-99"/>
          <Node pos="r" depth="2" NCoef="0" IVar="-1" Cut="0.0000000000000000e+00" cType="1" res="2.8174591716378927e-04" rms="4.7461020946502686e-01" purity="5.3685289621353149e-01" nType="-99"/>
        </Node>
      </Node>
    </BinaryTree>
    <BinaryTree type="DecisionTree" boostWeight="1.0000000000000000e+00" itree="88">
      <Node pos="s" depth="0" NCoef="0" IVar="6" Cut="1.6603391170501709e+00" cType="1" res="2.5206827558577061e-03" rms="4.6255609393119812e-01" purity="4.9985745549201965e-01" nType="0">
        <Node pos="l" depth="1" NCoef="0" IVar="0" Cut="2.8191456198692322e-01" cType="1" res="2.0875435322523117e-02" rms="4.6645945310592651e-01" purity="5.3771770000457764e-01" nType="0">
          <Node pos="l" depth="2" NCoef="0" IVar="-1" Cut="0.0000000000000000e+00" cType="1" res="-2.6255392003804445e-04" rms="4.7145193815231323e-01" purity="4.8322325944900513e-01" nType="-99"/>
          <Node pos="r" depth="2" NCoef="0" IVar="-1" Cut="0.0000000000000000e+00" cType="1" res="4.3527469970285892e-03" rms="4.4062301516532898e-01" purity="7.0458424091339111e-01" nType="-99"/>
        </Node>
        <Node pos="r" depth="1" NCoef="0" IVar="3" Cut="1.8078572750091553e+00" cType="1" res="-1.1902573704719543e-01" rms="4.1586077213287354e-01" purity="2.4914440512657166e-01" nType="0">
          <Node pos="l" depth="2" NCoef="0" IVar="-1" Cut="0.0000000000000000e+00" cType="1" res="-3.8181226700544357e-03" rms="4.3790087103843689e-01" purity="2.9274097084999084e-01" nType="-99"/>
          <Node pos="r" depth="2" NCoef="0" IVar="-1" Cut="0.0000000000000000e+00" cType="1" res="-7.7955573797225952e-03" rms="3.7827935814857483e-01" purity="1.8901236355304718e-01" nType="-99"/>
        </Node>
      </Node>
    </BinaryTree>
    <BinaryTree type="DecisionTree" boostWeight="1.0000000000000000e+00" itree="89">
      <Node pos="s" depth="0" NCoef="0" IVar="1" Cut="9.7862190008163452e-01" cType="1" res="-7.3826660809572786e-05" rms="4.6184083819389343e-01" purity="4.9838337302207947e-01" nType="0">
        <Node pos="l" depth="1" NCoef="0" IVar="2" Cut="8.9170730113983154e-01" cType="1" res="6.1354558914899826e-02" rms="4.5655840635299683e-01" purity="6.2274163961410522e-01" nType="0">
          <Node pos="l" depth="2" NCoef="0" IVar="-1" Cut="0.0000000000000000e+00" cType="1" res="-2.4673126972629689e-05" rms="4.8008057475090027e-01" purity="4.9755367636680603e-01" nType="-99"/>
          <Node pos="r" depth="2" NCoef="0" IVar="-1" Cut="0.0000000000000000e+00" cType="1" res="4.1153663769364357e-03" rms="4.3842726945877075e-01" purity="6.9507086277008057e-01" nType="-99"/>
        </Node>
        <Node pos="r" depth="1" NCoef="0" IVar="5" Cut="6.5008575439453125e+02" cType="1" res="-3.4297216683626175e-02" rms="4.6122258901596069e-01" purity="4.2910003662109375e-01" nType="0">
          <Node pos="l" depth="2" NCoef="0" IVar="-1" Cut="0.0000000000000000e+00" cType="1" res="-3.8579362444579601e-03" rms="4.4736108183860779e-01" purity="3.6409881711006165e-01" nType="-99"/>
          <Node pos="r" depth="2" NCoef="0" IVar="-1" Cut="0.0000000000000000e+00" cType="1" res="4.2942832806147635e-04" rms="4.6777069568634033e-01" purity="4.8289805650711060e-01" nType="-99"/>
        </Node>
      </Node>
    </BinaryTree>
    <BinaryTree type="DecisionTree" boostWeight="1.0000000000000000e+00" itree="90">
      <Node pos="s" depth="0" NCoef="0" IVar="1" Cut="9.0304678678512573e-01" cType="1" res="-1.9306360045447946e-03" rms="4.6231389045715332e-01" purity="4.9604645371437073e-01" nType="0">
        <Node pos="l" depth="1" NCoef="0" IVar="0" Cut="1.1211414635181427e-01" cType="1" res="6.9194555282592773e-02" rms="4.5431193709373474e-01" purity="6.3447338342666626e-01" nType="0">
          <Node pos="l" depth="2" NCoef="0" IVar="-1" Cut="0.0000000000000000e+00" cType="1" res="7.2741176700219512e-04" rms="4.7697439789772034e-01" purity="5.2144145965576172e-01" nType="-99"/>
          <Node pos="r" depth="2" NCoef="0" IVar="-1" Cut="0.0000000000000000e+00" cType="1" res="4.4912812300026417e-03" rms="4.3386501073837280e-01" purity="7.1432363986968994e-01" nType="-99"/>
        </Node>
        <Node pos="r" depth="1" NCoef="0" IVar="4" Cut="6.0236299037933350e-01" cType="1" res="-3.0178884044289589e-02" rms="4.6242848038673401e-01" purity="4.4106841087341309e-01" nType="0">
          <Node pos="l" depth="2" NCoef="0" IVar="-1" Cut="0.0000000000000000e+00" cType="1" res="-4.1083977557718754e-03" rms="4.3859556317329407e-01" purity="2.9460573196411133e-01" nType="-99"/>
          <Node pos="r" depth="2" NCoef="0" IVar="-1" Cut="0.0000000000000000e+00" cType="1" res="3.6043442378286272e-05" rms="4.7104483842849731e-01" purity="5.1542878150939941e-01" nType="-99"/>
        </Node>
      </Node>
    </BinaryTree>
    <BinaryTree type="DecisionTree" boostWeight="1.0000000000000000e+00" itree="91">
      <Node pos="s" depth="0" NCoef="0" IVar="4" Cut="5.9033489227294922e-01" cType="1" res="7.3696137405931950e-04" rms="4.6168833971023560e-01" purity="4.9785703420639038e-01" nType="0">
        <Node pos="l" depth="1" NCoef="0" IVar="5" Cut="6.9052703857421875e+02" cType="1" res="-6.9820575416088104e-02" rms="4.5088988542556763e-01" purity="3.3490014076232910e-01" nType="0">
          <Node pos="l" depth="2" NCoef="0" IVar="-1" Cut="0.0000000000000000e+00" cType="1" res="-5.0767874345183372e-03" rms="4.2881697416305542e-01" purity="2.8175234794616699e-01" nType="-99"/>
          <Node pos="r" depth="2" NCoef="0" IVar="-1" Cut="0.0000000000000000e+00" cType="1" res="-9.2812691582366824e-04" rms="4.6977806091308594e-01" purity="3.9464369416236877e-01" nType="-99"/>
        </Node>
        <Node pos="r" depth="1" NCoef="0" IVar="1" Cut="1.3948061466217041e+00" cType="1" res="3.0153719708323479e-02" rms="4.6295109391212463e-01" purity="5.6579685211181641e-01" nType="0">
          <Node pos="l" depth="2" NCoef="0" IVar="-1" Cut="0.0000000000000000e+00" cType="1" res="2.3445815313607454e-03" rms="4.5992532372474670e-01" purity="6.1721229553222656e-01" nType="-99"/>
          <Node pos="r" depth="2" NCoef="0" IVar="-1" Cut="0.0000000000000000e+00" cType="1" res="-2.3924028500914574e-03" rms="4.6289041638374329e-01" purity="3.9236190915107727e-01" nType="-99"/>
        </Node>
      </Node>
    </BinaryTree>
    <BinaryTree type="DecisionTree" boostWeight="1.0000000000000000e+00" itree="92">
      <Node pos="s" depth="0" NCoef="0" IVar="0" Cut="1.2631890177726746e-01" cType="1" res="1.3152229366824031e-03" rms="4.6153408288955688e-01" purity="4.9906197190284729e-01" nType="0">
        <Node pos="l" depth="1" NCoef="0" IVar="4" Cut="8.9096903800964355e-01" cType="1" res="-5.0244677811861038e-02" rms="4.5826420187950134e-01" purity="3.9487043023109436e-01" nType="0">
          <Node pos="l" depth="2" NCoef="0" IVar="-1" Cut="0.0000000000000000e+00" cType="1" res="-3.0443798750638962e-03" rms="4.5544871687889099e-01" purity="3.4693425893783569e-01" nType="-99"/>
          <Node pos="r" depth="2" NCoef="0" IVar="-1" Cut="0.0000000000000000e+00" cType="1" res="2.1375089418143034e-03" rms="4.6014750003814697e-01" purity="6.5478515625000000e-01" nType="-99"/>
        </Node>
        <Node pos="r" depth="1" NCoef="0" IVar="1" Cut="1.4736566543579102e+00" cType="1" res="4.6405062079429626e-02" rms="4.5965856313705444e-01" purity="5.9017896652221680e-01" nType="0">
          <Node pos="l" depth="2" NCoef="0" IVar="-1" Cut="0.0000000000000000e+00" cType="1" res="2.9151167254894972e-03" rms="4.5630055665969849e-01" purity="6.3616323471069336e-01" nType="-99"/>
          <Node pos="r" depth="2" NCoef="0" IVar="-1" Cut="0.0000000000000000e+00" cType="1" res="-2.3582875728607178e-03" rms="4.6078521013259888e-01" purity="3.8644811511039734e-01" nType="-99"/>
        </Node>
      </Node>
    </BinaryTree>
    <BinaryTree type="DecisionTree" boostWeight="1.0000000000000000e+00" itree="93">
      <Node pos="s" depth="0" NCoef="0" IVar="4" Cut="8.7904101610183716e-01" cType="1" res="4.7977306530810893e-04" rms="4.6151015162467957e-01" purity="4.9880170822143555e-01" nType="0">
        <Node pos="l" depth="1" NCoef="0" IVar="5" Cut="6.4768359375000000e+02" cType="1" res="-2.2319830954074860e-02" rms="4.6646738052368164e-01" purity="4.4402930140495300e-01" nType="0">
          <Node pos="l" depth="2" NCoef="0" IVar="-1" Cut="0.0000000000000000e+00" cType="1" res="-3.2377149909734726e-03" rms="4.5329511165618896e-01" purity="3.7973129749298096e-01" nType="-99"/>
          <Node pos="r" depth="2" NCoef="0" IVar="-1" Cut="0.0000000000000000e+00" cType="1" res="8.1451598089188337e-04" rms="4.7265112400054932e-01" purity="4.9542921781539917e-01" nType="-99"/>
        </Node>
        <Node pos="r" depth="1" NCoef="0" IVar="0" Cut="2.7497741580009460e-01" cType="1" res="9.6647225320339203e-02" rms="4.2678740620613098e-01" purity="7.2982877492904663e-01" nType="0">
          <Node pos="l" depth="2" NCoef="0" IVar="-1" Cut="0.0000000000000000e+00" cType="1" res="2.9463265091180801e-03" rms="4.4783395528793335e-01" purity="6.8691176176071167e-01" nType="-99"/>
          <Node pos="r" depth="2" NCoef="0" IVar="-1" Cut="0.0000000000000000e+00" cType="1" res="7.1102064102888107e-03" rms="3.6500152945518494e-01" purity="8.3058106899261475e-01" nType="-99"/>
        </Node>
      </Node>
    </BinaryTree>
    <BinaryTree type="DecisionTree" boostWeight="1.0000000000000000e+00" itree="94">
      <Node pos="s" depth="0" NCoef="0" IVar="1" Cut="8.8904225826263428e-01" cType="1" res="-2.0311821717768908e-03" rms="4.6113491058349609e-01" purity="4.9460193514823914e-01" nType="0">
        <Node pos="l" depth="1" NCoef="0" IVar="0" Cut="2.6774239540100098e-01" cType="1" res="7.1645505726337433e-02" rms="4.5243543386459351e-01" purity="6.3876497745513916e-01" nType="0">
          <Node pos="l" depth="2" NCoef="0" IVar="-1" Cut="0.0000000000000000e+00" cType="1" res="1.8003316363319755e-03" rms="4.7050732374191284e-01" purity="5.7632189989089966e-01" nType="-99"/>
          <Node pos="r" depth="2" NCoef="0" IVar="-1" Cut="0.0000000000000000e+00" cType="1" res="6.1945258639752865e-03" rms="3.9450722932815552e-01" purity="7.9526597261428833e-01" nType="-99"/>
        </Node>
        <Node pos="r" depth="1" NCoef="0" IVar="4" Cut="8.6701077222824097e-01" cType="1" res="-2.9136789962649345e-02" rms="4.6134319901466370e-01" purity="4.4156438112258911e-01" nType="0">
          <Node pos="l" depth="2" NCoef="0" IVar="-1" Cut="0.0000000000000000e+00" cType="1" res="-2.2218755912035704e-03" rms="4.6072316169738770e-01" purity="3.8615575432777405e-01" nType="-99"/>
          <Node pos="r" depth="2" NCoef="0" IVar="-1" Cut="0.0000000000000000e+00" cType="1" res="2.5281368289142847e-03" rms="4.5313397049903870e-01" purity="6.6802603006362915e-01" nType="-99"/>
        </Node>
      </Node>
    </BinaryTree>
    <BinaryTree type="DecisionTree" boostWeight="1.0000000000000000e+00" itree="95">
      <Node pos="s" depth="0" NCoef="0" IVar="8" Cut="2.4191133975982666e+00" cType="1" res="7.6502916635945439e-04" rms="4.6101334691047668e-01" purity="4.9860933423042297e-01" nType="0">
        <Node pos="l" depth="1" NCoef="0" IVar="4" Cut="6.2635779380798340e-01" cType="1" res="2.8650861233472824e-02" rms="4.6382093429565430e-01" purity="5.5581903457641602e-01" nType="0">
          <Node pos="l" depth="2" NCoef="0" IVar="-1" Cut="0.0000000000000000e+00" cType="1" res="-1.1751453857868910e-03" rms="4.7233819961547852e-01" purity="4.0112271904945374e-01" nType="-99"/>
          <Node pos="r" depth="2" NCoef="0" IVar="-1" Cut="0.0000000000000000e+00" cType="1" res="2.5794280227273703e-03" rms="4.5572495460510254e-01" purity="6.4494967460632324e-01" nType="-99"/>
        </Node>
        <Node pos="r" depth="1" NCoef="0" IVar="6" Cut="1.9553101062774658e+00" cType="1" res="-7.3739729821681976e-02" rms="4.4493517279624939e-01" purity="3.4575763344764709e-01" nType="0">
          <Node pos="l" depth="2" NCoef="0" IVar="-1" Cut="0.0000000000000000e+00" cType="1" res="-2.2034558933228254e-03" rms="4.5839914679527283e-01" purity="3.8826733827590942e-01" nType="-99"/>
          <Node pos="r" depth="2" NCoef="0" IVar="-1" Cut="0.0000000000000000e+00" cType="1" res="-7.6956562697887421e-03" rms="3.7753582000732422e-01" purity="1.8616490066051483e-01" nType="-99"/>
        </Node>
      </Node>
    </BinaryTree>
    <BinaryTree type="DecisionTree" boostWeight="1.0000000000000000e+00" itree="96">
      <Node pos="s" depth="0" NCoef="0" IVar="1" Cut="1.3544901609420776e+00" cType="1" res="1.9087606342509389e-03" rms="4.6127739548683167e-01" purity="5.0009822845458984e-01" nType="0">
        <Node pos="l" depth="1" NCoef="0" IVar="0" Cut="8.3885274827480316e-02" cType="1" res="2.9193755239248276e-02" rms="4.6393218636512756e-01" purity="5.5922383069992065e-01" nType="0">
          <Node pos="l" depth="2" NCoef="0" IVar="-1" Cut="0.0000000000000000e+00" cType="1" res="-1.2743945699185133e-03" rms="4.6837365627288818e-01" purity="4.3911850452423096e-01" nType="-99"/>
          <Node pos="r" depth="2" NCoef="0" IVar="-1" Cut="0.0000000000000000e+00" cType="1" res="2.4575451388955116e-03" rms="4.5902007818222046e-01" purity="6.1779826879501343e-01" nType="-99"/>
        </Node>
        <Node pos="r" depth="1" NCoef="0" IVar="5" Cut="5.7818298339843750e+02" cType="1" res="-7.0715084671974182e-02" rms="4.4607549905776978e-01" purity="3.4272482991218567e-01" nType="0">
          <Node pos="l" depth="2" NCoef="0" IVar="-1" Cut="0.0000000000000000e+00" cType="1" res="-6.5255770459771156e-03" rms="4.1023033857345581e-01" purity="2.5387355685234070e-01" nType="-99"/>
          <Node pos="r" depth="2" NCoef="0" IVar="-1" Cut="0.0000000000000000e+00" cType="1" res="-1.5117257134988904e-03" rms="4.5875275135040283e-01" purity="3.8740485906600952e-01" nType="-99"/>
        </Node>
      </Node>
    </BinaryTree>
    <BinaryTree type="DecisionTree" boostWeight="1.0000000000000000e+00" itree="97">
      <Node pos="s" depth="0" NCoef="0" IVar="0" Cut="1.2631890177726746e-01" cType="1" res="3.4524954389780760e-03" rms="4.6083348989486694e-01" purity="5.0244599580764771e-01" nType="0">
        <Node pos="l" depth="1" NCoef="0" IVar="4" Cut="8.9105868339538574e-01" cType="1" res="-4.4153124094009399e-02" rms="4.5818462967872620e-01" purity="3.9966329932212830e-01" nType="0">
          <Node pos="l" depth="2" NCoef="0" IVar="-1" Cut="0.0000000000000000e+00" cType="1" res="-2.8114828746765852e-03" rms="4.5619067549705505e-01" purity="3.5119611024856567e-01" nType="-99"/>
          <Node pos="r" depth="2" NCoef="0" IVar="-1" Cut="0.0000000000000000e+00" cType="1" res="2.6178956031799316e-03" rms="4.5442411303520203e-01" purity="6.6753745079040527e-01" nType="-99"/>
        </Node>
        <Node pos="r" depth="1" NCoef="0" IVar="1" Cut="1.5333384275436401e+00" cType="1" res="4.4821057468652725e-02" rms="4.5913198590278625e-01" purity="5.9176266193389893e-01" nType="0">
          <Node pos="l" depth="2" NCoef="0" IVar="-1" Cut="0.0000000000000000e+00" cType="1" res="2.6865242980420589e-03" rms="4.5697763562202454e-01" purity="6.2887966632843018e-01" nType="-99"/>
          <Node pos="r" depth="2" NCoef="0" IVar="-1" Cut="0.0000000000000000e+00" cType="1" res="-2.8305137529969215e-03" rms="4.5629918575286865e-01" purity="3.7291055917739868e-01" nType="-99"/>
        </Node>
      </Node>
    </BinaryTree>
    <BinaryTree type="DecisionTree" boostWeight="1.0000000000000000e+00" itree="98">
      <Node pos="s" depth="0" NCoef="0" IVar="6" Cut="1.7353175878524780e+00" cType="1" res="3.6397685762494802e-03" rms="4.6097376942634583e-01" purity="5.0119811296463013e-01" nType="0">
        <Node pos="l" depth="1" NCoef="0" IVar="4" Cut="5.5421990156173706e-01" cType="1" res="1.8214777112007141e-02" rms="4.6464100480079651e-01" purity="5.3318995237350464e-01" nType="0">
          <Node pos="l" depth="2" NCoef="0" IVar="-1" Cut="0.0000000000000000e+00" cType="1" res="-3.0815443024039268e-03" rms="4.5532846450805664e-01" purity="3.4250521659851074e-01" nType="-99"/>
          <Node pos="r" depth="2" NCoef="0" IVar="-1" Cut="0.0000000000000000e+00" cType="1" res="1.6317275585606694e-03" rms="4.6438142657279968e-01" purity="5.7659488916397095e-01" nType="-99"/>
        </Node>
        <Node pos="r" depth="1" NCoef="0" IVar="5" Cut="6.6218438720703125e+02" cType="1" res="-1.1756860464811325e-01" rms="4.0964603424072266e-01" purity="2.3514848947525024e-01" nType="0">
          <Node pos="l" depth="2" NCoef="0" IVar="-1" Cut="0.0000000000000000e+00" cType="1" res="-7.7984812669456005e-03" rms="3.7131837010383606e-01" purity="1.8116350471973419e-01" nType="-99"/>
          <Node pos="r" depth="2" NCoef="0" IVar="-1" Cut="0.0000000000000000e+00" cType="1" res="-3.0425288714468479e-03" rms="4.4359630346298218e-01" purity="2.9634064435958862e-01" nType="-99"/>
        </Node>
      </Node>
    </BinaryTree>
    <BinaryTree type="DecisionTree" boostWeight="1.0000000000000000e+00" itree="99">
      <Node pos="s" depth="0" NCoef="0" IVar="4" Cut="9.0299421548843384e-01" cType="1" res="2.8101839125156403e-03" rms="4.5915234088897705e-01" purity="5.0057655572891235e-01" nType="0">
        <Node pos="l" depth="1" NCoef="0" IVar="0" Cut="6.9740250706672668e-02" cType="1" res="-1.6470002010464668e-02" rms="4.6385860443115234e-01" purity="4.5519319176673889e-01" nType="0">
          <Node pos="l" depth="2" NCoef="0" IVar="-1" Cut="0.0000000000000000e+00" cType="1" res="-4.0993620641529560e-03" rms="4.4273167848587036e-01" purity="3.2135730981826782e-01" nType="-99"/>
          <Node pos="r" depth="2" NCoef="0" IVar="-1" Cut="0.0000000000000000e+00" cType="1" res="5.1351578440517187e-04" rms="4.6841770410537720e-01" purity="5.0561404228210449e-01" nType="-99"/>
        </Node>
        <Node pos="r" depth="1" NCoef="0" IVar="6" Cut="1.0385417938232422e+00" cType="1" res="1.0705121606588364e-01" rms="4.1768273711204529e-01" purity="7.4594819545745850e-01" nType="0">
          <Node pos="l" depth="2" NCoef="0" IVar="-1" Cut="0.0000000000000000e+00" cType="1" res="6.1643053777515888e-03" rms="3.8027915358543396e-01" purity="8.2135719060897827e-01" nType="-99"/>
          <Node pos="r" depth="2" NCoef="0" IVar="-1" Cut="0.0000000000000000e+00" cType="1" res="2.2264784201979637e-03" rms="4.6778941154479980e-01" purity="6.2236517667770386e-01" nType="-99"/>
        </Node>
      </Node>
    </BinaryTree>
    <BinaryTree type="DecisionTree" boostWeight="1.0000000000000000e+00" itree="100">
      <Node pos="s" depth="0" NCoef="0" IVar="1" Cut="1.3542931079864502e+00" cType="1" res="1.0388068621978164e-03" rms="4.5901796221733093e-01" purity="4.9934855103492737e-01" nType="0">
        <Node pos="l" depth="1" NCoef="0" IVar="0" Cut="1.1216754466295242e-01" cType="1" res="2.8596319258213043e-02" rms="4.6199479699134827e-01" purity="5.6018269062042236e-01" nType="0">
          <Node pos="l" depth="2" NCoef="0" IVar="-1" Cut="0.0000000000000000e+00" cType="1" res="-1.0492067085579038e-03" rms="4.6801355481147766e-01" purity="4.4560861587524414e-01" nType="-99"/>
          <Node pos="r" depth="2" NCoef="0" IVar="-1" Cut="0.0000000000000000e+00" cType="1" res="2.8620241209864616e-03" rms="4.5363020896911621e-01" purity="6.4404332637786865e-01" nType="-99"/>
        </Node>
        <Node pos="r" depth="1" NCoef="0" IVar="5" Cut="9.2050189208984375e+02" cType="1" res="-7.0683449506759644e-02" rms="4.4321694970130920e-01" purity="3.4101939201354980e-01" nType="0">
          <Node pos="l" depth="2" NCoef="0" IVar="-1" Cut="0.0000000000000000e+00" cType="1" res="-4.1574207134544849e-03" rms="4.3388587236404419e-01" purity="3.1324046850204468e-01" nType="-99"/>
          <Node pos="r" depth="2" NCoef="0" IVar="-1" Cut="0.0000000000000000e+00" cType="1" res="9.4266462838277221e-04" rms="4.6999713778495789e-01" purity="4.5985361933708191e-01" nType="-99"/>
        </Node>
      </Node>
    </BinaryTree>
    <BinaryTree type="DecisionTree" boostWeight="1.0000000000000000e+00" itree="101">
      <Node pos="s" depth="0" NCoef="0" IVar="4" Cut="6.7442685365676880e-01" cType="1" res="-4.0707047446630895e-04" rms="4.5975175499916077e-01" purity="4.9834740161895752e-01" nType="0">
        <Node pos="l" depth="1" NCoef="0" IVar="5" Cut="9.2768811035156250e+02" cType="1" res="-4.5150469988584518e-02" rms="4.5781311392784119e-01" purity="3.6549213528633118e-01" nType="0">
          <Node pos="l" depth="2" NCoef="0" IVar="-1" Cut="0.0000000000000000e+00" cType="1" res="-2.9667681083083153e-03" rms="4.4986784458160400e-01" purity="3.3907377719879150e-01" nType="-99"/>
          <Node pos="r" depth="2" NCoef="0" IVar="-1" Cut="0.0000000000000000e+00" cType="1" res="1.8780526006594300e-03" rms="4.7882375121116638e-01" purity="4.7363746166229248e-01" nType="-99"/>
        </Node>
        <Node pos="r" depth="1" NCoef="0" IVar="8" Cut="2.2948579788208008e+00" cType="1" res="4.0338989347219467e-02" rms="4.5772069692611694e-01" purity="6.1933350563049316e-01" nType="0">
          <Node pos="l" depth="2" NCoef="0" IVar="-1" Cut="0.0000000000000000e+00" cType="1" res="3.0691816937178373e-03" rms="4.4611757993698120e-01" purity="6.8587094545364380e-01" nType="-99"/>
          <Node pos="r" depth="2" NCoef="0" IVar="-1" Cut="0.0000000000000000e+00" cType="1" res="-6.8428833037614822e-04" rms="4.7239118814468384e-01" purity="5.0112193822860718e-01" nType="-99"/>
        </Node>
      </Node>
    </BinaryTree>
    <BinaryTree type="DecisionTree" boostWeight="1.0000000000000000e+00" itree="102">
      <Node pos="s" depth="0" NCoef="0" IVar="0" Cut="2.1118849515914917e-01" cType="1" res="1.4713822165504098e-03" rms="4.5957019925117493e-01" purity="4.9843475222587585e-01" nType="0">
        <Node pos="l" depth="1" NCoef="0" IVar="5" Cut="6.5448022460937500e+02" cType="1" res="-3.0008379369974136e-02" rms="4.5936802029609680e-01" purity="4.2617470026016235e-01" nType="0">
          <Node pos="l" depth="2" NCoef="0" IVar="-1" Cut="0.0000000000000000e+00" cType="1" res="-3.4799496643245220e-03" rms="4.4560837745666504e-01" purity="3.6804613471031189e-01" nType="-99"/>
          <Node pos="r" depth="2" NCoef="0" IVar="-1" Cut="0.0000000000000000e+00" cType="1" res="6.4099358860403299e-04" rms="4.6736755967140198e-01" purity="4.8027169704437256e-01" nType="-99"/>
        </Node>
        <Node pos="r" depth="1" NCoef="0" IVar="2" Cut="8.0770742893218994e-01" cType="1" res="6.0564462095499039e-02" rms="4.5409396290779114e-01" purity="6.3407957553863525e-01" nType="0">
          <Node pos="l" depth="2" NCoef="0" IVar="-1" Cut="0.0000000000000000e+00" cType="1" res="-7.7938678441569209e-04" rms="4.8144626617431641e-01" purity="4.7893261909484863e-01" nType="-99"/>
          <Node pos="r" depth="2" NCoef="0" IVar="-1" Cut="0.0000000000000000e+00" cType="1" res="3.5860021598637104e-03" rms="4.4306927919387817e-01" purity="6.7960292100906372e-01" nType="-99"/>
        </Node>
      </Node>
    </BinaryTree>
    <BinaryTree type="DecisionTree" boostWeight="1.0000000000000000e+00" itree="103">
      <Node pos="s" depth="0" NCoef="0" IVar="8" Cut="2.4598934650421143e+00" cType="1" res="5.5243410170078278e-03" rms="4.6018311381340027e-01" purity="5.0401782989501953e-01" nType="0">
        <Node pos="l" depth="1" NCoef="0" IVar="4" Cut="5.9032499790191650e-01" cType="1" res="2.8491536155343056e-02" rms="4.6240147948265076e-01" purity="5.5588662624359131e-01" nType="0">
          <Node pos="l" depth="2" NCoef="0" IVar="-1" Cut="0.0000000000000000e+00" cType="1" res="-1.6475776210427284e-03" rms="4.6654874086380005e-01" purity="3.8428902626037598e-01" nType="-99"/>
          <Node pos="r" depth="2" NCoef="0" IVar="-1" Cut="0.0000000000000000e+00" cType="1" res="2.3127349559217691e-03" rms="4.5818704366683960e-01" purity="6.2270170450210571e-01" nType="-99"/>
        </Node>
        <Node pos="r" depth="1" NCoef="0" IVar="6" Cut="2.0124819278717041e+00" cType="1" res="-6.7573375999927521e-02" rms="4.4523322582244873e-01" purity="3.3893483877182007e-01" nType="0">
          <Node pos="l" depth="2" NCoef="0" IVar="-1" Cut="0.0000000000000000e+00" cType="1" res="-2.1276054903864861e-03" rms="4.5810425281524658e-01" purity="3.7684747576713562e-01" nType="-99"/>
          <Node pos="r" depth="2" NCoef="0" IVar="-1" Cut="0.0000000000000000e+00" cType="1" res="-6.7148273810744286e-03" rms="3.8463711738586426e-01" purity="1.9665330648422241e-01" nType="-99"/>
        </Node>
      </Node>
    </BinaryTree>
    <BinaryTree type="DecisionTree" boostWeight="1.0000000000000000e+00" itree="104">
      <Node pos="s" depth="0" NCoef="0" IVar="0" Cut="2.6776957511901855e-01" cType="1" res="1.5222675574477762e-04" rms="4.6010085940361023e-01" purity="4.9820291996002197e-01" nType="0">
        <Node pos="l" depth="1" NCoef="0" IVar="5" Cut="5.9422607421875000e+02" cType="1" res="-2.4933110922574997e-02" rms="4.6183219552040100e-01" purity="4.4099423289299011e-01" nType="0">
          <Node pos="l" depth="2" NCoef="0" IVar="-1" Cut="0.0000000000000000e+00" cType="1" res="-3.6354688927531242e-03" rms="4.4749808311462402e-01" purity="3.6932852864265442e-01" nType="-99"/>
          <Node pos="r" depth="2" NCoef="0" IVar="-1" Cut="0.0000000000000000e+00" cType="1" res="2.5451291003264487e-04" rms="4.6656316518783569e-01" purity="4.7996672987937927e-01" nType="-99"/>
        </Node>
        <Node pos="r" depth="1" NCoef="0" IVar="2" Cut="8.5667037963867188e-01" cType="1" res="6.9453470408916473e-02" rms="4.4804254174232483e-01" purity="6.5624880790710449e-01" nType="0">
          <Node pos="l" depth="2" NCoef="0" IVar="-1" Cut="0.0000000000000000e+00" cType="1" res="-1.1844019172713161e-04" rms="4.8101016879081726e-01" purity="5.1938194036483765e-01" nType="-99"/>
          <Node pos="r" depth="2" NCoef="0" IVar="-1" Cut="0.0000000000000000e+00" cType="1" res="4.3157571926712990e-03" rms="4.2964273691177368e-01" purity="7.1430063247680664e-01" nType="-99"/>
        </Node>
      </Node>
    </BinaryTree>
    <BinaryTree type="DecisionTree" boostWeight="1.0000000000000000e+00" itree="105">
      <Node pos="s" depth="0" NCoef="0" IVar="4" Cut="6.5048617124557495e-01" cType="1" res="1.2711645103991032e-03" rms="4.5996111631393433e-01" purity="4.9957624077796936e-01" nType="0">
        <Node pos="l" depth="1" NCoef="0" IVar="5" Cut="7.0673889160156250e+02" cType="1" res="-4.5088324695825577e-02" rms="4.5679894089698792e-01" purity="3.6089330911636353e-01" nType="0">
          <Node pos="l" depth="2" NCoef="0" IVar="-1" Cut="0.0000000000000000e+00" cType="1" res="-3.8156565278768539e-03" rms="4.3774873018264771e-01" purity="3.0843803286552429e-01" nType="-99"/>
          <Node pos="r" depth="2" NCoef="0" IVar="-1" Cut="0.0000000000000000e+00" cType="1" res="2.0488396694418043e-04" rms="4.7496360540390015e-01" purity="4.2671284079551697e-01" nType="-99"/>
        </Node>
        <Node pos="r" depth="1" NCoef="0" IVar="0" Cut="8.3880394697189331e-02" cType="1" res="3.6379888653755188e-02" rms="4.5923784375190735e-01" purity="6.0460287332534790e-01" nType="0">
          <Node pos="l" depth="2" NCoef="0" IVar="-1" Cut="0.0000000000000000e+00" cType="1" res="-1.0107738198712468e-03" rms="4.7577151656150818e-01" purity="4.9130225181579590e-01" nType="-99"/>
          <Node pos="r" depth="2" NCoef="0" IVar="-1" Cut="0.0000000000000000e+00" cType="1" res="2.7104797773063183e-03" rms="4.4913864135742188e-01" purity="6.5477460622787476e-01" nType="-99"/>
        </Node>
      </Node>
    </BinaryTree>
    <BinaryTree type="DecisionTree" boostWeight="1.0000000000000000e+00" itree="106">
      <Node pos="s" depth="0" NCoef="0" IVar="1" Cut="8.5766547918319702e-01" cType="1" res="2.2703153081238270e-03" rms="4.5952343940734863e-01" purity="5.0017082691192627e-01" nType="0">
        <Node pos="l" depth="1" NCoef="0" IVar="0" Cut="8.3869054913520813e-02" cType="1" res="7.6628774404525757e-02" rms="4.4853726029396057e-01" purity="6.4998984336853027e-01" nType="0">
          <Node pos="l" depth="2" NCoef="0" IVar="-1" Cut="0.0000000000000000e+00" cType="1" res="8.0370181240141392e-04" rms="4.7398886084556580e-01" purity="5.2490597963333130e-01" nType="-99"/>
          <Node pos="r" depth="2" NCoef="0" IVar="-1" Cut="0.0000000000000000e+00" cType="1" res="4.4914586469531059e-03" rms="4.3268916010856628e-01" purity="7.1144551038742065e-01" nType="-99"/>
        </Node>
        <Node pos="r" depth="1" NCoef="0" IVar="5" Cut="6.8181091308593750e+02" cType="1" res="-2.1542198956012726e-02" rms="4.6045503020286560e-01" purity="4.5219290256500244e-01" nType="0">
          <Node pos="l" depth="2" NCoef="0" IVar="-1" Cut="0.0000000000000000e+00" cType="1" res="-2.7147438377141953e-03" rms="4.5106151700019836e-01" purity="3.9680984616279602e-01" nType="-99"/>
          <Node pos="r" depth="2" NCoef="0" IVar="-1" Cut="0.0000000000000000e+00" cType="1" res="8.8437250815331936e-04" rms="4.6650242805480957e-01" purity="5.1078248023986816e-01" nType="-99"/>
        </Node>
      </Node>
    </BinaryTree>
    <BinaryTree type="DecisionTree" boostWeight="1.0000000000000000e+00" itree="107">
      <Node pos="s" depth="0" NCoef="0" IVar="0" Cut="2.9606059193611145e-01" cType="1" res="3.0869895126670599e-03" rms="4.6066293120384216e-01" purity="5.0160437822341919e-01" nType="0">
        <Node pos="l" depth="1" NCoef="0" IVar="5" Cut="5.2093353271484375e+02" cType="1" res="-1.8290007486939430e-02" rms="4.6307295560836792e-01" purity="4.5328825712203979e-01" nType="0">
          <Node pos="l" depth="2" NCoef="0" IVar="-1" Cut="0.0000000000000000e+00" cType="1" res="-4.3972260318696499e-03" rms="4.4221571087837219e-01" purity="3.4853464365005493e-01" nType="-99"/>
          <Node pos="r" depth="2" NCoef="0" IVar="-1" Cut="0.0000000000000000e+00" cType="1" res="7.9635756264906377e-05" rms="4.6605485677719116e-01" purity="4.7979182004928589e-01" nType="-99"/>
        </Node>
        <Node pos="r" depth="1" NCoef="0" IVar="3" Cut="1.2958878278732300e+00" cType="1" res="7.8081063926219940e-02" rms="4.4404181838035583e-01" purity="6.7110562324523926e-01" nType="0">
          <Node pos="l" depth="2" NCoef="0" IVar="-1" Cut="0.0000000000000000e+00" cType="1" res="4.6547553502023220e-03" rms="4.2852991819381714e-01" purity="7.2581094503402710e-01" nType="-99"/>
          <Node pos="r" depth="2" NCoef="0" IVar="-1" Cut="0.0000000000000000e+00" cType="1" res="6.2882027123123407e-04" rms="4.6835175156593323e-01" purity="5.5747300386428833e-01" nType="-99"/>
        </Node>
      </Node>
    </BinaryTree>
    <BinaryTree type="DecisionTree" boostWeight="1.0000000000000000e+00" itree="108">
      <Node pos="s" depth="0" NCoef="0" IVar="2" Cut="8.6775255203247070e-01" cType="1" res="5.0993631593883038e-03" rms="4.5959538221359253e-01" purity="5.0272637605667114e-01" nType="0">
        <Node pos="l" depth="1" NCoef="0" IVar="1" Cut="9.7881549596786499e-01" cType="1" res="-5.2942831069231033e-02" rms="4.5629891753196716e-01" purity="3.7152761220932007e-01" nType="0">
          <Node pos="l" depth="2" NCoef="0" IVar="-1" Cut="0.0000000000000000e+00" cType="1" res="2.4890093482099473e-04" rms="4.7935721278190613e-01" purity="4.9909600615501404e-01" nType="-99"/>
          <Node pos="r" depth="2" NCoef="0" IVar="-1" Cut="0.0000000000000000e+00" cType="1" res="-3.6955906543880701e-03" rms="4.4176352024078369e-01" purity="3.0923616886138916e-01" nType="-99"/>
        </Node>
        <Node pos="r" depth="1" NCoef="0" IVar="1" Cut="1.6233000755310059e+00" cType="1" res="3.5830151289701462e-02" rms="4.5836493372917175e-01" purity="5.7219034433364868e-01" nType="0">
          <Node pos="l" depth="2" NCoef="0" IVar="-1" Cut="0.0000000000000000e+00" cType="1" res="2.0757899619638920e-03" rms="4.5802623033523560e-01" purity="5.9647667407989502e-01" nType="-99"/>
          <Node pos="r" depth="2" NCoef="0" IVar="-1" Cut="0.0000000000000000e+00" cType="1" res="-4.0175681933760643e-03" rms="4.4245603680610657e-01" purity="3.2989415526390076e-01" nType="-99"/>
        </Node>
      </Node>
    </BinaryTree>
    <BinaryTree type="DecisionTree" boostWeight="1.0000000000000000e+00" itree="109">
      <Node pos="s" depth="0" NCoef="0" IVar="6" Cut="1.6597628593444824e+00" cType="1" res="-1.1140473652631044e-03" rms="4.5940276980400085e-01" purity="4.9849930405616760e-01" nType="0">
        <Node pos="l" depth="1" NCoef="0" IVar="2" Cut="9.0364682674407959e-01" cType="1" res="1.4057451859116554e-02" rms="4.6390977501869202e-01" purity="5.3525221347808838e-01" nType="0">
          <Node pos="l" depth="2" NCoef="0" IVar="-1" Cut="0.0000000000000000e+00" cType="1" res="-1.4222399331629276e-03" rms="4.6958583593368530e-01" purity="4.2491027712821960e-01" nType="-99"/>
          <Node pos="r" depth="2" NCoef="0" IVar="-1" Cut="0.0000000000000000e+00" cType="1" res="2.0402807276695967e-03" rms="4.5685735344886780e-01" purity="6.1398530006408691e-01" nType="-99"/>
        </Node>
        <Node pos="r" depth="1" NCoef="0" IVar="6" Cut="2.0181307792663574e+00" cType="1" res="-1.0509859770536423e-01" rms="4.1247883439064026e-01" purity="2.4659699201583862e-01" nType="0">
          <Node pos="l" depth="2" NCoef="0" IVar="-1" Cut="0.0000000000000000e+00" cType="1" res="-3.0941888689994812e-03" rms="4.3725100159645081e-01" purity="2.9775610566139221e-01" nType="-99"/>
          <Node pos="r" depth="2" NCoef="0" IVar="-1" Cut="0.0000000000000000e+00" cType="1" res="-8.0016693100333214e-03" rms="3.6359664797782898e-01" purity="1.6790407896041870e-01" nType="-99"/>
        </Node>
      </Node>
    </BinaryTree>
    <BinaryTree type="DecisionTree" boostWeight="1.0000000000000000e+00" itree="110">
      <Node pos="s" depth="0" NCoef="0" IVar="6" Cut="9.1193789243698120e-01" cType="1" res="5.6010170374065638e-04" rms="4.5888367295265198e-01" purity="4.9906271696090698e-01" nType="0">
        <Node pos="l" depth="1" NCoef="0" IVar="4" Cut="5.9030145406723022e-01" cType="1" res="4.4079896062612534e-02" rms="4.5825165510177612e-01" purity="5.9249323606491089e-01" nType="0">
          <Node pos="l" depth="2" NCoef="0" IVar="-1" Cut="0.0000000000000000e+00" cType="1" res="-1.0154544143006206e-03" rms="4.7459581494331360e-01" purity="4.1058963537216187e-01" nType="-99"/>
          <Node pos="r" depth="2" NCoef="0" IVar="-1" Cut="0.0000000000000000e+00" cType="1" res="2.9933250043541193e-03" rms="4.4919201731681824e-01" purity="6.6179096698760986e-01" nType="-99"/>
        </Node>
        <Node pos="r" depth="1" NCoef="0" IVar="2" Cut="7.8470396995544434e-01" cType="1" res="-3.9786882698535919e-02" rms="4.5577168464660645e-01" purity="4.1244366765022278e-01" nType="0">
          <Node pos="l" depth="2" NCoef="0" IVar="-1" Cut="0.0000000000000000e+00" cType="1" res="-5.5696326307952404e-03" rms="4.1235807538032532e-01" purity="2.4578672647476196e-01" nType="-99"/>
          <Node pos="r" depth="2" NCoef="0" IVar="-1" Cut="0.0000000000000000e+00" cType="1" res="-7.7221740502864122e-04" rms="4.6466922760009766e-01" purity="4.5851132273674011e-01" nType="-99"/>
        </Node>
      </Node>
    </BinaryTree>
    <BinaryTree type="DecisionTree" boostWeight="1.0000000000000000e+00" itree="111">
      <Node pos="s" depth="0" NCoef="0" IVar="3" Cut="1.5073617696762085e+00" cType="1" res="3.6864753346890211e-03" rms="4.5875909924507141e-01" purity="5.0253593921661377e-01" nType="0">
        <Node pos="l" depth="1" NCoef="0" IVar="2" Cut="8.5556256771087646e-01" cType="1" res="2.9703889042139053e-02" rms="4.5939430594444275e-01" purity="5.5050766468048096e-01" nType="0">
          <Node pos="l" depth="2" NCoef="0" IVar="-1" Cut="0.0000000000000000e+00" cType="1" res="-1.5060615260154009e-03" rms="4.6420994400978088e-01" purity="4.0280845761299133e-01" nType="-99"/>
          <Node pos="r" depth="2" NCoef="0" IVar="-1" Cut="0.0000000000000000e+00" cType="1" res="2.5131965521723032e-03" rms="4.5427316427230835e-01" purity="6.1670577526092529e-01" nType="-99"/>
        </Node>
        <Node pos="r" depth="1" NCoef="0" IVar="6" Cut="1.7333534955978394e+00" cType="1" res="-6.2212973833084106e-02" rms="4.5047241449356079e-01" purity="3.8102847337722778e-01" nType="0">
          <Node pos="l" depth="2" NCoef="0" IVar="-1" Cut="0.0000000000000000e+00" cType="1" res="-1.8617169698700309e-03" rms="4.6480002999305725e-01" purity="4.2903742194175720e-01" nType="-99"/>
          <Node pos="r" depth="2" NCoef="0" IVar="-1" Cut="0.0000000000000000e+00" cType="1" res="-6.6442340612411499e-03" rms="3.8188332319259644e-01" purity="1.9752541184425354e-01" nType="-99"/>
        </Node>
      </Node>
    </BinaryTree>
    <BinaryTree type="DecisionTree" boostWeight="1.0000000000000000e+00" itree="112">
      <Node pos="s" depth="0" NCoef="0" IVar="0" Cut="3.1020560860633850e-01" cType="1" res="2.1810973994433880e-03" rms="4.5963007211685181e-01" purity="5.0058734416961670e-01" nType="0">
        <Node pos="l" depth="1" NCoef="0" IVar="4" Cut="9.0317445993423462e-01" cType="1" res="-1.7454050481319427e-02" rms="4.6163681149482727e-01" purity="4.5660209655761719e-01" nType="0">
          <Node pos="l" depth="2" NCoef="0" IVar="-1" Cut="0.0000000000000000e+00" cType="1" res="-1.4959530672058463e-03" rms="4.6396833658218384e-01" purity="4.1199514269828796e-01" nType="-99"/>
          <Node pos="r" depth="2" NCoef="0" IVar="-1" Cut="0.0000000000000000e+00" cType="1" res="3.3096892293542624e-03" rms="4.3640464544296265e-01" purity="7.0880085229873657e-01" nType="-99"/>
        </Node>
        <Node pos="r" depth="1" NCoef="0" IVar="1" Cut="1.2489016056060791e+00" cType="1" res="7.9985894262790680e-02" rms="4.4311720132827759e-01" purity="6.7488002777099609e-01" nType="0">
          <Node pos="l" depth="2" NCoef="0" IVar="-1" Cut="0.0000000000000000e+00" cType="1" res="4.5725605450570583e-03" rms="4.2350700497627258e-01" purity="7.4488443136215210e-01" nType="-99"/>
          <Node pos="r" depth="2" NCoef="0" IVar="-1" Cut="0.0000000000000000e+00" cType="1" res="1.1677354341372848e-03" rms="4.7666603326797485e-01" purity="5.3118693828582764e-01" nType="-99"/>
        </Node>
      </Node>
    </BinaryTree>
    <BinaryTree type="DecisionTree" boostWeight="1.0000000000000000e+00" itree="113">
      <Node pos="s" depth="0" NCoef="0" IVar="1" Cut="1.0558843612670898e+00" cType="1" res="5.2076773717999458e-03" rms="4.5938685536384583e-01" purity="5.0339925289154053e-01" nType="0">
        <Node pos="l" depth="1" NCoef="0" IVar="4" Cut="5.4220318794250488e-01" cType="1" res="4.9776401370763779e-02" rms="4.5752286911010742e-01" purity="6.1259382963180542e-01" nType="0">
          <Node pos="l" depth="2" NCoef="0" IVar="-1" Cut="0.0000000000000000e+00" cType="1" res="-1.6637839144095778e-03" rms="4.7698691487312317e-01" purity="4.1295975446701050e-01" nType="-99"/>
          <Node pos="r" depth="2" NCoef="0" IVar="-1" Cut="0.0000000000000000e+00" cType="1" res="2.7634419966489077e-03" rms="4.5255178213119507e-01" purity="6.4560109376907349e-01" nType="-99"/>
        </Node>
        <Node pos="r" depth="1" NCoef="0" IVar="5" Cut="6.4768359375000000e+02" cType="1" res="-2.9100226238369942e-02" rms="4.5787096023559570e-01" purity="4.1934397816658020e-01" nType="0">
          <Node pos="l" depth="2" NCoef="0" IVar="-1" Cut="0.0000000000000000e+00" cType="1" res="-3.5597060341387987e-03" rms="4.4182905554771423e-01" purity="3.4930586814880371e-01" nType="-99"/>
          <Node pos="r" depth="2" NCoef="0" IVar="-1" Cut="0.0000000000000000e+00" cType="1" res="5.2065029740333557e-04" rms="4.6664562821388245e-01" purity="4.7688359022140503e-01" nType="-99"/>
        </Node>
      </Node>
    </BinaryTree>
    <BinaryTree type="DecisionTree" boostWeight="1.0000000000000000e+00" itree="114">
      <Node pos="s" depth="0" NCoef="0" IVar="4" Cut="7.4670940637588501e-01" cType="1" res="5.6348424404859543e-03" rms="4.5818161964416504e-01" purity="5.0420188903808594e-01" nType="0">
        <Node pos="l" depth="1" NCoef="0" IVar="5" Cut="5.9780688476562500e+02" cType="1" res="-2.5770863518118858e-02" rms="4.6256798505783081e-01" purity="3.9933234453201294e-01" nType="0">
          <Node pos="l" depth="2" NCoef="0" IVar="-1" Cut="0.0000000000000000e+00" cType="1" res="-3.8515410851687193e-03" rms="4.3939191102981567e-01" purity="3.1887573003768921e-01" nType="-99"/>
          <Node pos="r" depth="2" NCoef="0" IVar="-1" Cut="0.0000000000000000e+00" cType="1" res="2.7941208099946380e-04" rms="4.7147884964942932e-01" purity="4.4278028607368469e-01" nType="-99"/>
        </Node>
        <Node pos="r" depth="1" NCoef="0" IVar="8" Cut="2.4130287170410156e+00" cType="1" res="5.4138649255037308e-02" rms="4.4700890779495239e-01" purity="6.6616529226303101e-01" nType="0">
          <Node pos="l" depth="2" NCoef="0" IVar="-1" Cut="0.0000000000000000e+00" cType="1" res="3.3099923748522997e-03" rms="4.3454587459564209e-01" purity="7.2123026847839355e-01" nType="-99"/>
          <Node pos="r" depth="2" NCoef="0" IVar="-1" Cut="0.0000000000000000e+00" cType="1" res="-5.0358683802187443e-04" rms="4.7713726758956909e-01" purity="4.9754264950752258e-01" nType="-99"/>
        </Node>
      </Node>
    </BinaryTree>
    <BinaryTree type="DecisionTree" boostWeight="1.0000000000000000e+00" itree="115">
      <Node pos="s" depth="0" NCoef="0" IVar="2" Cut="8.0809676647186279e-01" cType="1" res="1.5756306238472462e-03" rms="4.5802813768386841e-01" purity="4.9947929382324219e-01" nType="0">
        <Node pos="l" depth="1" NCoef="0" IVar="5" Cut="7.6437890625000000e+02" cType="1" res="-6.5282516181468964e-02" rms="4.4761911034584045e-01" purity="3.3680149912834167e-01" nType="0">
          <Node pos="l" depth="2" NCoef="0" IVar="-1" Cut="0.0000000000000000e+00" cType="1" res="-4.7090435400605202e-03" rms="4.2735382914543152e-01" purity="2.8576275706291199e-01" nType="-99"/>
          <Node pos="r" depth="2" NCoef="0" IVar="-1" Cut="0.0000000000000000e+00" cType="1" res="-2.0468683214858174e-04" rms="4.7227856516838074e-01" purity="4.1920697689056396e-01" nType="-99"/>
        </Node>
        <Node pos="r" depth="1" NCoef="0" IVar="1" Cut="1.5835260152816772e+00" cType="1" res="2.2752812132239342e-02" rms="4.5925089716911316e-01" purity="5.5100715160369873e-01" nType="0">
          <Node pos="l" depth="2" NCoef="0" IVar="-1" Cut="0.0000000000000000e+00" cType="1" res="1.5778981614857912e-03" rms="4.6013060212135315e-01" purity="5.7922476530075073e-01" nType="-99"/>
          <Node pos="r" depth="2" NCoef="0" IVar="-1" Cut="0.0000000000000000e+00" cType="1" res="-4.0007992647588253e-03" rms="4.3632844090461731e-01" purity="3.2393649220466614e-01" nType="-99"/>
        </Node>
      </Node>
    </BinaryTree>
    <BinaryTree type="DecisionTree" boostWeight="1.0000000000000000e+00" itree="116">
      <Node pos="s" depth="0" NCoef="0" IVar="1" Cut="9.3652087450027466e-01" cType="1" res="5.1935873925685883e-03" rms="4.5871540904045105e-01" purity="5.0354427099227905e-01" nType="0">
        <Node pos="l" depth="1" NCoef="0" IVar="0" Cut="1.2631089985370636e-01" cType="1" res="6.1404302716255188e-02" rms="4.5187601447105408e-01" purity="6.3588052988052368e-01" nType="0">
          <Node pos="l" depth="2" NCoef="0" IVar="-1" Cut="0.0000000000000000e+00" cType="1" res="8.2375761121511459e-04" rms="4.7426471114158630e-01" purity="5.2605974674224854e-01" nType="-99"/>
          <Node pos="r" depth="2" NCoef="0" IVar="-1" Cut="0.0000000000000000e+00" cType="1" res="4.2278752662241459e-03" rms="4.2878767848014832e-01" purity="7.2897398471832275e-01" nType="-99"/>
        </Node>
        <Node pos="r" depth="1" NCoef="0" IVar="5" Cut="5.8657250976562500e+02" cType="1" res="-2.1079542115330696e-02" rms="4.5952549576759338e-01" purity="4.4168975949287415e-01" nType="0">
          <Node pos="l" depth="2" NCoef="0" IVar="-1" Cut="0.0000000000000000e+00" cType="1" res="-3.3964323811233044e-03" rms="4.4293490052223206e-01" purity="3.6239942908287048e-01" nType="-99"/>
          <Node pos="r" depth="2" NCoef="0" IVar="-1" Cut="0.0000000000000000e+00" cType="1" res="2.7441440033726394e-04" rms="4.6525159478187561e-01" purity="4.8160865902900696e-01" nType="-99"/>
        </Node>
      </Node>
    </BinaryTree>
    <BinaryTree type="DecisionTree" boostWeight="1.0000000000000000e+00" itree="117">
      <Node pos="s" depth="0" NCoef="0" IVar="6" Cut="1.2184966802597046e+00" cType="1" res="2.2681844420731068e-03" rms="4.5817643404006958e-01" purity="5.0046390295028687e-01" nType="0">
        <Node pos="l" depth="1" NCoef="0" IVar="0" Cut="9.8029039800167084e-02" cType="1" res="2.9278336092829704e-02" rms="4.6142128109931946e-01" purity="5.7161021232604980e-01" nType="0">
          <Node pos="l" depth="2" NCoef="0" IVar="-1" Cut="0.0000000000000000e+00" cType="1" res="-8.1269745714962482e-04" rms="4.6712729334831238e-01" purity="4.5887020230293274e-01" nType="-99"/>
          <Node pos="r" depth="2" NCoef="0" IVar="-1" Cut="0.0000000000000000e+00" cType="1" res="2.4838983081281185e-03" rms="4.5561131834983826e-01" purity="6.3843905925750732e-01" nType="-99"/>
        </Node>
        <Node pos="r" depth="1" NCoef="0" IVar="6" Cut="2.0130033493041992e+00" cType="1" res="-5.6788224726915359e-02" rms="4.4532978534698486e-01" purity="3.4490603208541870e-01" nType="0">
          <Node pos="l" depth="2" NCoef="0" IVar="-1" Cut="0.0000000000000000e+00" cType="1" res="-1.7111627385020256e-03" rms="4.5709919929504395e-01" purity="3.7899571657180786e-01" nType="-99"/>
          <Node pos="r" depth="2" NCoef="0" IVar="-1" Cut="0.0000000000000000e+00" cType="1" res="-7.1967425756156445e-03" rms="3.7002968788146973e-01" purity="1.7828921973705292e-01" nType="-99"/>
        </Node>
      </Node>
    </BinaryTree>
    <BinaryTree type="DecisionTree" boostWeight="1.0000000000000000e+00" itree="118">
      <Node pos="s" depth="0" NCoef="0" IVar="1" Cut="9.4905006885528564e-01" cType="1" res="-4.5495582162402570e-04" rms="4.5792335271835327e-01" purity="4.9925231933593750e-01" nType="0">
        <Node pos="l" depth="1" NCoef="0" IVar="4" Cut="5.9029096364974976e-01" cType="1" res="5.5364448577165604e-02" rms="4.5178991556167603e-01" purity="6.3168454170227051e-01" nType="0">
          <Node pos="l" depth="2" NCoef="0" IVar="-1" Cut="0.0000000000000000e+00" cType="1" res="-6.2484579393640161e-04" rms="4.8003247380256653e-01" purity="4.4637310504913330e-01" nType="-99"/>
          <Node pos="r" depth="2" NCoef="0" IVar="-1" Cut="0.0000000000000000e+00" cType="1" res="3.4747170284390450e-03" rms="4.3872857093811035e-01" purity="6.9705390930175781e-01" nType="-99"/>
        </Node>
        <Node pos="r" depth="1" NCoef="0" IVar="0" Cut="1.2631975114345551e-01" cType="1" res="-2.7917636558413506e-02" rms="4.5842316746711731e-01" purity="4.3409681320190430e-01" nType="0">
          <Node pos="l" depth="2" NCoef="0" IVar="-1" Cut="0.0000000000000000e+00" cType="1" res="-3.1317279208451509e-03" rms="4.4382154941558838e-01" purity="3.3812645077705383e-01" nType="-99"/>
          <Node pos="r" depth="2" NCoef="0" IVar="-1" Cut="0.0000000000000000e+00" cType="1" res="3.5767827648669481e-04" rms="4.6796005964279175e-01" purity="5.1887518167495728e-01" nType="-99"/>
        </Node>
      </Node>
    </BinaryTree>
    <BinaryTree type="DecisionTree" boostWeight="1.0000000000000000e+00" itree="119">
      <Node pos="s" depth="0" NCoef="0" IVar="5" Cut="5.1788018798828125e+02" cType="1" res="2.7138795703649521e-03" rms="4.5760065317153931e-01" purity="5.0100260972976685e-01" nType="0">
        <Node pos="l" depth="1" NCoef="0" IVar="0" Cut="2.2532133758068085e-01" cType="1" res="-8.0991499125957489e-02" rms="4.4375571608543396e-01" purity="3.8132303953170776e-01" nType="0">
          <Node pos="l" depth="2" NCoef="0" IVar="-1" Cut="0.0000000000000000e+00" cType="1" res="-4.8578339628875256e-03" rms="4.3329060077667236e-01" purity="3.1968620419502258e-01" nType="-99"/>
          <Node pos="r" depth="2" NCoef="0" IVar="-1" Cut="0.0000000000000000e+00" cType="1" res="-4.9847364425659180e-04" rms="4.6362787485122681e-01" purity="5.4689723253250122e-01" nType="-99"/>
        </Node>
        <Node pos="r" depth="1" NCoef="0" IVar="6" Cut="9.8869365453720093e-01" cType="1" res="2.2897329181432724e-02" rms="4.5859628915786743e-01" purity="5.2986031770706177e-01" nType="0">
          <Node pos="l" depth="2" NCoef="0" IVar="-1" Cut="0.0000000000000000e+00" cType="1" res="2.4823278654366732e-03" rms="4.5468008518218994e-01" purity="6.1438536643981934e-01" nType="-99"/>
          <Node pos="r" depth="2" NCoef="0" IVar="-1" Cut="0.0000000000000000e+00" cType="1" res="-8.9899619342759252e-04" rms="4.5975327491760254e-01" purity="4.2490059137344360e-01" nType="-99"/>
        </Node>
      </Node>
    </BinaryTree>
    <BinaryTree type="DecisionTree" boostWeight="1.0000000000000000e+00" itree="120">
      <Node pos="s" depth="0" NCoef="0" IVar="0" Cut="3.3849564194679260e-01" cType="1" res="-1.1632149835349992e-04" rms="4.5668566226959229e-01" purity="4.9750742316246033e-01" nType="0">
        <Node pos="l" depth="1" NCoef="0" IVar="4" Cut="8.6701011657714844e-01" cType="1" res="-1.8616491928696632e-02" rms="4.5838251709938049e-01" purity="4.5846125483512878e-01" nType="0">
          <Node pos="l" depth="2" NCoef="0" IVar="-1" Cut="0.0000000000000000e+00" cType="1" res="-1.6985341208055615e-03" rms="4.6031570434570312e-01" purity="3.9959210157394409e-01" nType="-99"/>
          <Node pos="r" depth="2" NCoef="0" IVar="-1" Cut="0.0000000000000000e+00" cType="1" res="2.7276265900582075e-03" rms="4.4119387865066528e-01" purity="6.9835442304611206e-01" nType="-99"/>
        </Node>
        <Node pos="r" depth="1" NCoef="0" IVar="1" Cut="1.1973189115524292e+00" cType="1" res="9.1307289898395538e-02" rms="4.3685117363929749e-01" purity="6.9046479463577271e-01" nType="0">
          <Node pos="l" depth="2" NCoef="0" IVar="-1" Cut="0.0000000000000000e+00" cType="1" res="5.2349930629134178e-03" rms="4.0793016552925110e-01" purity="7.7323919534683228e-01" nType="-99"/>
          <Node pos="r" depth="2" NCoef="0" IVar="-1" Cut="0.0000000000000000e+00" cType="1" res="1.9654380157589912e-03" rms="4.7585624456405640e-01" purity="5.5908155441284180e-01" nType="-99"/>
        </Node>
      </Node>
    </BinaryTree>
    <BinaryTree type="DecisionTree" boostWeight="1.0000000000000000e+00" itree="121">
      <Node pos="s" depth="0" NCoef="0" IVar="2" Cut="8.1974732875823975e-01" cType="1" res="3.4585997927933931e-03" rms="4.5746251940727234e-01" purity="5.0150358676910400e-01" nType="0">
        <Node pos="l" depth="1" NCoef="0" IVar="5" Cut="6.7746350097656250e+02" cType="1" res="-6.2566421926021576e-02" rms="4.4829156994819641e-01" purity="3.4166455268859863e-01" nType="0">
          <Node pos="l" depth="2" NCoef="0" IVar="-1" Cut="0.0000000000000000e+00" cType="1" res="-4.8229759559035301e-03" rms="4.2386916279792786e-01" purity="2.7906823158264160e-01" nType="-99"/>
          <Node pos="r" depth="2" NCoef="0" IVar="-1" Cut="0.0000000000000000e+00" cType="1" res="-1.0302643058821559e-03" rms="4.6633344888687134e-01" purity="3.9950242638587952e-01" nType="-99"/>
        </Node>
        <Node pos="r" depth="1" NCoef="0" IVar="8" Cut="2.2948579788208008e+00" cType="1" res="2.6621110737323761e-02" rms="4.5838871598243713e-01" purity="5.5757743120193481e-01" nType="0">
          <Node pos="l" depth="2" NCoef="0" IVar="-1" Cut="0.0000000000000000e+00" cType="1" res="2.4763832334429026e-03" rms="4.5308172702789307e-01" purity="6.2637901306152344e-01" nType="-99"/>
          <Node pos="r" depth="2" NCoef="0" IVar="-1" Cut="0.0000000000000000e+00" cType="1" res="-1.0672690114006400e-03" rms="4.6255913376808167e-01" purity="4.4374269247055054e-01" nType="-99"/>
        </Node>
      </Node>
    </BinaryTree>
    <BinaryTree type="DecisionTree" boostWeight="1.0000000000000000e+00" itree="122">
      <Node pos="s" depth="0" NCoef="0" IVar="4" Cut="6.7454189062118530e-01" cType="1" res="-2.6986717784893699e-05" rms="4.5631343126296997e-01" purity="4.9831673502922058e-01" nType="0">
        <Node pos="l" depth="1" NCoef="0" IVar="5" Cut="9.0291680908203125e+02" cType="1" res="-4.0405016392469406e-02" rms="4.5469820499420166e-01" purity="3.6468082666397095e-01" nType="0">
          <Node pos="l" depth="2" NCoef="0" IVar="-1" Cut="0.0000000000000000e+00" cType="1" res="-2.7798544615507126e-03" rms="4.4617086648941040e-01" purity="3.3501374721527100e-01" nType="-99"/>
          <Node pos="r" depth="2" NCoef="0" IVar="-1" Cut="0.0000000000000000e+00" cType="1" res="1.4531640335917473e-03" rms="4.7588497400283813e-01" purity="4.6818128228187561e-01" nType="-99"/>
        </Node>
        <Node pos="r" depth="1" NCoef="0" IVar="3" Cut="1.9384430646896362e+00" cType="1" res="3.7165284156799316e-02" rms="4.5463427901268005e-01" purity="6.2140899896621704e-01" nType="0">
          <Node pos="l" depth="2" NCoef="0" IVar="-1" Cut="0.0000000000000000e+00" cType="1" res="2.3097051307559013e-03" rms="4.4997352361679077e-01" purity="6.5251892805099487e-01" nType="-99"/>
          <Node pos="r" depth="2" NCoef="0" IVar="-1" Cut="0.0000000000000000e+00" cType="1" res="-2.0881253294646740e-03" rms="4.6911582350730896e-01" purity="4.5820426940917969e-01" nType="-99"/>
        </Node>
      </Node>
    </BinaryTree>
    <BinaryTree type="DecisionTree" boostWeight="1.0000000000000000e+00" itree="123">
      <Node pos="s" depth="0" NCoef="0" IVar="0" Cut="3.1020560860633850e-01" cType="1" res="1.2787517625838518e-03" rms="4.5732289552688599e-01" purity="5.0088924169540405e-01" nType="0">
        <Node pos="l" depth="1" NCoef="0" IVar="8" Cut="2.4323375225067139e+00" cType="1" res="-1.8727313727140427e-02" rms="4.5953342318534851e-01" purity="4.5482775568962097e-01" nType="0">
          <Node pos="l" depth="2" NCoef="0" IVar="-1" Cut="0.0000000000000000e+00" cType="1" res="1.5154822904150933e-04" rms="4.6693506836891174e-01" purity="5.0955814123153687e-01" nType="-99"/>
          <Node pos="r" depth="2" NCoef="0" IVar="-1" Cut="0.0000000000000000e+00" cType="1" res="-3.7922216579318047e-03" rms="4.3195623159408569e-01" purity="3.0090022087097168e-01" nType="-99"/>
        </Node>
        <Node pos="r" depth="1" NCoef="0" IVar="4" Cut="7.3455137014389038e-01" cType="1" res="7.9870231449604034e-02" rms="4.3981069326400757e-01" purity="6.8183666467666626e-01" nType="0">
          <Node pos="l" depth="2" NCoef="0" IVar="-1" Cut="0.0000000000000000e+00" cType="1" res="2.1498701535165310e-03" rms="4.7398900985717773e-01" purity="5.9092640876770020e-01" nType="-99"/>
          <Node pos="r" depth="2" NCoef="0" IVar="-1" Cut="0.0000000000000000e+00" cType="1" res="5.1491498015820980e-03" rms="3.9428144693374634e-01" purity="7.8669190406799316e-01" nType="-99"/>
        </Node>
      </Node>
    </BinaryTree>
    <BinaryTree type="DecisionTree" boostWeight="1.0000000000000000e+00" itree="124">
      <Node pos="s" depth="0" NCoef="0" IVar="4" Cut="9.0284490585327148e-01" cType="1" res="1.0558414505794644e-03" rms="4.5695564150810242e-01" purity="4.9935355782508850e-01" nType="0">
        <Node pos="l" depth="1" NCoef="0" IVar="0" Cut="2.5361388921737671e-01" cType="1" res="-1.4819221571087837e-02" rms="4.6165511012077332e-01" purity="4.5424264669418335e-01" nType="0">
          <Node pos="l" depth="2" NCoef="0" IVar="-1" Cut="0.0000000000000000e+00" cType="1" res="-1.6788004431873560e-03" rms="4.5976099371910095e-01" purity="3.9289826154708862e-01" nType="-99"/>
          <Node pos="r" depth="2" NCoef="0" IVar="-1" Cut="0.0000000000000000e+00" cType="1" res="1.9707810133695602e-03" rms="4.6110358834266663e-01" purity="6.1738032102584839e-01" nType="-99"/>
        </Node>
        <Node pos="r" depth="1" NCoef="0" IVar="3" Cut="1.2420717477798462e+00" cType="1" res="8.5220262408256531e-02" rms="4.2130926251411438e-01" purity="7.3851680755615234e-01" nType="0">
          <Node pos="l" depth="2" NCoef="0" IVar="-1" Cut="0.0000000000000000e+00" cType="1" res="4.8858257941901684e-03" rms="4.0015873312950134e-01" purity="7.8283220529556274e-01" nType="-99"/>
          <Node pos="r" depth="2" NCoef="0" IVar="-1" Cut="0.0000000000000000e+00" cType="1" res="1.8746871501207352e-03" rms="4.5408439636230469e-01" purity="6.5845614671707153e-01" nType="-99"/>
        </Node>
      </Node>
    </BinaryTree>
    <BinaryTree type="DecisionTree" boostWeight="1.0000000000000000e+00" itree="125">
      <Node pos="s" depth="0" NCoef="0" IVar="0" Cut="1.2632033228874207e-01" cType="1" res="-2.3259222507476807e-03" rms="4.5768851041793823e-01" purity="4.9640738964080811e-01" nType="0">
        <Node pos="l" depth="1" NCoef="0" IVar="4" Cut="9.0317541360855103e-01" cType="1" res="-4.2848005890846252e-02" rms="4.5416882634162903e-01" purity="3.9433360099792480e-01" nType="0">
          <Node pos="l" depth="2" NCoef="0" IVar="-1" Cut="0.0000000000000000e+00" cType="1" res="-2.6800467167049646e-03" rms="4.5243144035339355e-01" purity="3.4853366017341614e-01" nType="-99"/>
          <Node pos="r" depth="2" NCoef="0" IVar="-1" Cut="0.0000000000000000e+00" cType="1" res="2.5354968383908272e-03" rms="4.5135417580604553e-01" purity="6.7649888992309570e-01" nType="-99"/>
        </Node>
        <Node pos="r" depth="1" NCoef="0" IVar="1" Cut="1.4317653179168701e+00" cType="1" res="3.3020868897438049e-02" rms="4.5781722664833069e-01" purity="5.8544474840164185e-01" nType="0">
          <Node pos="l" depth="2" NCoef="0" IVar="-1" Cut="0.0000000000000000e+00" cType="1" res="2.2366112098097801e-03" rms="4.5572423934936523e-01" purity="6.3624662160873413e-01" nType="-99"/>
          <Node pos="r" depth="2" NCoef="0" IVar="-1" Cut="0.0000000000000000e+00" cType="1" res="-1.5507386997342110e-03" rms="4.5897799730300903e-01" purity="3.9890134334564209e-01" nType="-99"/>
        </Node>
      </Node>
    </BinaryTree>
    <BinaryTree type="DecisionTree" boostWeight="1.0000000000000000e+00" itree="126">
      <Node pos="s" depth="0" NCoef="0" IVar="5" Cut="6.8021563720703125e+02" cType="1" res="-1.9108059350401163e-03" rms="4.5650497078895569e-01" purity="4.9569708108901978e-01" nType="0">
        <Node pos="l" depth="1" NCoef="0" IVar="4" Cut="9.0309822559356689e-01" cType="1" res="-3.9497803896665573e-02" rms="4.5037233829498291e-01" purity="4.4069954752922058e-01" nType="0">
          <Node pos="l" depth="2" NCoef="0" IVar="-1" Cut="0.0000000000000000e+00" cType="1" res="-2.5768300984054804e-03" rms="4.5067891478538513e-01" purity="3.9154502749443054e-01" nType="-99"/>
          <Node pos="r" depth="2" NCoef="0" IVar="-1" Cut="0.0000000000000000e+00" cType="1" res="2.5236604269593954e-03" rms="4.3621560931205750e-01" purity="7.0162218809127808e-01" nType="-99"/>
        </Node>
        <Node pos="r" depth="1" NCoef="0" IVar="8" Cut="2.5302340984344482e+00" cType="1" res="3.6219816654920578e-02" rms="4.5951235294342041e-01" purity="5.5149006843566895e-01" nType="0">
          <Node pos="l" depth="2" NCoef="0" IVar="-1" Cut="0.0000000000000000e+00" cType="1" res="2.2320998832583427e-03" rms="4.5938763022422791e-01" purity="5.9186846017837524e-01" nType="-99"/>
          <Node pos="r" depth="2" NCoef="0" IVar="-1" Cut="0.0000000000000000e+00" cType="1" res="-1.7813945887610316e-03" rms="4.5259979367256165e-01" purity="3.5619434714317322e-01" nType="-99"/>
        </Node>
      </Node>
    </BinaryTree>
    <BinaryTree type="DecisionTree" boostWeight="1.0000000000000000e+00" itree="127">
      <Node pos="s" depth="0" NCoef="0" IVar="3" Cut="1.6040447950363159e+00" cType="1" res="4.6420891885645688e-04" rms="4.5806160569190979e-01" purity="4.9900069832801819e-01" nType="0">
        <Node pos="l" depth="1" NCoef="0" IVar="0" Cut="3.6678448319435120e-01" cType="1" res="2.1893281489610672e-02" rms="4.6046957373619080e-01" purity="5.4219096899032593e-01" nType="0">
          <Node pos="l" depth="2" NCoef="0" IVar="-1" Cut="0.0000000000000000e+00" cType="1" res="3.6016944795846939e-04" rms="4.6493226289749146e-01" purity="5.1082342863082886e-01" nType="-99"/>
          <Node pos="r" depth="2" NCoef="0" IVar="-1" Cut="0.0000000000000000e+00" cType="1" res="4.5468052849173546e-03" rms="4.2321261763572693e-01" purity="7.3214137554168701e-01" nType="-99"/>
        </Node>
        <Node pos="r" depth="1" NCoef="0" IVar="4" Cut="7.4653208255767822e-01" cType="1" res="-6.2317155301570892e-02" rms="4.4503214955329895e-01" purity="3.7246495485305786e-01" nType="0">
          <Node pos="l" depth="2" NCoef="0" IVar="-1" Cut="0.0000000000000000e+00" cType="1" res="-4.3580420315265656e-03" rms="4.2660027742385864e-01" purity="2.7468281984329224e-01" nType="-99"/>
          <Node pos="r" depth="2" NCoef="0" IVar="-1" Cut="0.0000000000000000e+00" cType="1" res="-2.7812342159450054e-04" rms="4.7111362218856812e-01" purity="5.4744601249694824e-01" nType="-99"/>
        </Node>
      </Node>
    </BinaryTree>
    <BinaryTree type="DecisionTree" boostWeight="1.0000000000000000e+00" itree="128">
      <Node pos="s" depth="0" NCoef="0" IVar="4" Cut="8.9096796512603760e-01" cType="1" res="1.8739122897386551e-03" rms="4.5590180158615112e-01" purity="4.9999973177909851e-01" nType="0">
        <Node pos="l" depth="1" NCoef="0" IVar="5" Cut="5.8475500488281250e+02" cType="1" res="-1.5581870451569557e-02" rms="4.6105453372001648e-01" purity="4.4928726553916931e-01" nType="0">
          <Node pos="l" depth="2" NCoef="0" IVar="-1" Cut="0.0000000000000000e+00" cType="1" res="-3.2121310941874981e-03" rms="4.4310748577117920e-01" purity="3.6402398347854614e-01" nType="-99"/>
          <Node pos="r" depth="2" NCoef="0" IVar="-1" Cut="0.0000000000000000e+00" cType="1" res="4.6349683543667197e-04" rms="4.6700599789619446e-01" purity="4.8959937691688538e-01" nType="-99"/>
        </Node>
        <Node pos="r" depth="1" NCoef="0" IVar="8" Cut="2.3253450393676758e+00" cType="1" res="8.4401167929172516e-02" rms="4.2101913690567017e-01" purity="7.3975729942321777e-01" nType="0">
          <Node pos="l" depth="2" NCoef="0" IVar="-1" Cut="0.0000000000000000e+00" cType="1" res="4.8258807510137558e-03" rms="3.9551112055778503e-01" purity="7.9605603218078613e-01" nType="-99"/>
          <Node pos="r" depth="2" NCoef="0" IVar="-1" Cut="0.0000000000000000e+00" cType="1" res="1.6674830112606287e-03" rms="4.6824833750724792e-01" purity="6.1828142404556274e-01" nType="-99"/>
        </Node>
      </Node>
    </BinaryTree>
    <BinaryTree type="DecisionTree" boostWeight="1.0000000000000000e+00" itree="129">
      <Node pos="s" depth="0" NCoef="0" IVar="4" Cut="6.2636172771453857e-01" cType="1" res="1.1230291565880179e-03" rms="4.5633992552757263e-01" purity="5.0055980682373047e-01" nType="0">
        <Node pos="l" depth="1" NCoef="0" IVar="0" Cut="3.1020560860633850e-01" cType="1" res="-4.7384101897478104e-02" rms="4.5078203082084656e-01" purity="3.4857344627380371e-01" nType="0">
          <Node pos="l" depth="2" NCoef="0" IVar="-1" Cut="0.0000000000000000e+00" cType="1" res="-3.0199887696653605e-03" rms="4.4234371185302734e-01" purity="3.0168899893760681e-01" nType="-99"/>
          <Node pos="r" depth="2" NCoef="0" IVar="-1" Cut="0.0000000000000000e+00" cType="1" res="1.3316101394593716e-03" rms="4.7804576158523560e-01" purity="5.5446404218673706e-01" nType="-99"/>
        </Node>
        <Node pos="r" depth="1" NCoef="0" IVar="3" Cut="1.2928274869918823e+00" cType="1" res="3.0462047085165977e-02" rms="4.5717784762382507e-01" purity="5.9248703718185425e-01" nType="0">
          <Node pos="l" depth="2" NCoef="0" IVar="-1" Cut="0.0000000000000000e+00" cType="1" res="2.4699959903955460e-03" rms="4.4956767559051514e-01" purity="6.4571201801300049e-01" nType="-99"/>
          <Node pos="r" depth="2" NCoef="0" IVar="-1" Cut="0.0000000000000000e+00" cType="1" res="-8.0185430124402046e-04" rms="4.6700727939605713e-01" purity="4.9396726489067078e-01" nType="-99"/>
        </Node>
      </Node>
    </BinaryTree>
    <BinaryTree type="DecisionTree" boostWeight="1.0000000000000000e+00" itree="130">
      <Node pos="s" depth="0" NCoef="0" IVar="5" Cut="6.0269830322265625e+02" cType="1" res="3.6745397374033928e-03" rms="4.5508596301078796e-01" purity="5.0205683708190918e-01" nType="0">
        <Node pos="l" depth="1" NCoef="0" IVar="4" Cut="8.5498219728469849e-01" cType="1" res="-4.6688932925462723e-02" rms="4.4696763157844543e-01" purity="4.2499488592147827e-01" nType="0">
          <Node pos="l" depth="2" NCoef="0" IVar="-1" Cut="0.0000000000000000e+00" cType="1" res="-3.2010199502110481e-03" rms="4.4431203603744507e-01" purity="3.5377085208892822e-01" nType="-99"/>
          <Node pos="r" depth="2" NCoef="0" IVar="-1" Cut="0.0000000000000000e+00" cType="1" res="1.6366044292226434e-03" rms="4.4599905610084534e-01" purity="6.7129343748092651e-01" nType="-99"/>
        </Node>
        <Node pos="r" depth="1" NCoef="0" IVar="6" Cut="9.0978240966796875e-01" cType="1" res="3.1652703881263733e-02" rms="4.5714282989501953e-01" purity="5.4486668109893799e-01" nType="0">
          <Node pos="l" depth="2" NCoef="0" IVar="-1" Cut="0.0000000000000000e+00" cType="1" res="3.0189980752766132e-03" rms="4.4948378205299377e-01" purity="6.3477945327758789e-01" nType="-99"/>
          <Node pos="r" depth="2" NCoef="0" IVar="-1" Cut="0.0000000000000000e+00" cType="1" res="-3.1906360527500510e-04" rms="4.6151876449584961e-01" purity="4.5389363169670105e-01" nType="-99"/>
        </Node>
      </Node>
    </BinaryTree>
    <BinaryTree type="DecisionTree" boostWeight="1.0000000000000000e+00" itree="131">
      <Node pos="s" depth="0" NCoef="0" IVar="4" Cut="6.1442303657531738e-01" cType="1" res="5.1267020171508193e-04" rms="4.5555830001831055e-01" purity="4.9965992569923401e-01" nType="0">
        <Node pos="l" depth="1" NCoef="0" IVar="5" Cut="8.9933880615234375e+02" cType="1" res="-5.0431121140718460e-02" rms="4.4919711351394653e-01" purity="3.4016206860542297e-01" nType="0">
          <Node pos="l" depth="2" NCoef="0" IVar="-1" Cut="0.0000000000000000e+00" cType="1" res="-3.2660800497978926e-03" rms="4.3836119771003723e-01" purity="3.1054311990737915e-01" nType="-99"/>
          <Node pos="r" depth="2" NCoef="0" IVar="-1" Cut="0.0000000000000000e+00" cType="1" res="9.2921417672187090e-04" rms="4.7805678844451904e-01" purity="4.4301187992095947e-01" nType="-99"/>
        </Node>
        <Node pos="r" depth="1" NCoef="0" IVar="8" Cut="2.3011915683746338e+00" cType="1" res="2.7711363509297371e-02" rms="4.5659688115119934e-01" purity="5.8481526374816895e-01" nType="0">
          <Node pos="l" depth="2" NCoef="0" IVar="-1" Cut="0.0000000000000000e+00" cType="1" res="2.4111038073897362e-03" rms="4.4965344667434692e-01" purity="6.5286529064178467e-01" nType="-99"/>
          <Node pos="r" depth="2" NCoef="0" IVar="-1" Cut="0.0000000000000000e+00" cType="1" res="-9.0886978432536125e-04" rms="4.6449148654937744e-01" purity="4.6597149968147278e-01" nType="-99"/>
        </Node>
      </Node>
    </BinaryTree>
    <BinaryTree type="DecisionTree" boostWeight="1.0000000000000000e+00" itree="132">
      <Node pos="s" depth="0" NCoef="0" IVar="3" Cut="1.5757440328598022e+00" cType="1" res="2.0302578341215849e-03" rms="4.5532295107841492e-01" purity="5.0176650285720825e-01" nType="0">
        <Node pos="l" depth="1" NCoef="0" IVar="0" Cut="8.3884790539741516e-02" cType="1" res="2.4242110550403595e-02" rms="4.5709100365638733e-01" purity="5.4674440622329712e-01" nType="0">
          <Node pos="l" depth="2" NCoef="0" IVar="-1" Cut="0.0000000000000000e+00" cType="1" res="-1.4034505002200603e-03" rms="4.5914492011070251e-01" purity="4.1770201921463013e-01" nType="-99"/>
          <Node pos="r" depth="2" NCoef="0" IVar="-1" Cut="0.0000000000000000e+00" cType="1" res="2.1722363308072090e-03" rms="4.5382216572761536e-01" purity="6.0611057281494141e-01" nType="-99"/>
        </Node>
        <Node pos="r" depth="1" NCoef="0" IVar="2" Cut="8.8021904230117798e-01" cType="1" res="-6.1283472925424576e-02" rms="4.4419115781784058e-01" purity="3.7355920672416687e-01" nType="0">
          <Node pos="l" depth="2" NCoef="0" IVar="-1" Cut="0.0000000000000000e+00" cType="1" res="-5.1957806572318077e-03" rms="4.1282570362091064e-01" purity="2.5421532988548279e-01" nType="-99"/>
          <Node pos="r" depth="2" NCoef="0" IVar="-1" Cut="0.0000000000000000e+00" cType="1" res="-1.3102171942591667e-03" rms="4.6066597104072571e-01" purity="4.5092895627021790e-01" nType="-99"/>
        </Node>
      </Node>
    </BinaryTree>
    <BinaryTree type="DecisionTree" boostWeight="1.0000000000000000e+00" itree="133">
      <Node pos="s" depth="0" NCoef="0" IVar="2" Cut="8.2078093290328979e-01" cType="1" res="4.2119477875530720e-03" rms="4.5667755603790283e-01" purity="5.0272130966186523e-01" nType="0">
        <Node pos="l" depth="1" NCoef="0" IVar="5" Cut="5.9824615478515625e+02" cType="1" res="-5.4802145808935165e-02" rms="4.4925549626350403e-01" purity="3.4454160928726196e-01" nType="0">
          <Node pos="l" depth="2" NCoef="0" IVar="-1" Cut="0.0000000000000000e+00" cType="1" res="-5.4725217632949352e-03" rms="4.1574701666831970e-01" purity="2.5263813138008118e-01" nType="-99"/>
          <Node pos="r" depth="2" NCoef="0" IVar="-1" Cut="0.0000000000000000e+00" cType="1" res="-9.6571038011461496e-04" rms="4.6311694383621216e-01" purity="3.9446541666984558e-01" nType="-99"/>
        </Node>
        <Node pos="r" depth="1" NCoef="0" IVar="0" Cut="1.6874985396862030e-01" cType="1" res="2.4774482473731041e-02" rms="4.5745047926902771e-01" purity="5.5783659219741821e-01" nType="0">
          <Node pos="l" depth="2" NCoef="0" IVar="-1" Cut="0.0000000000000000e+00" cType="1" res="-2.8255704091861844e-04" rms="4.6640938520431519e-01" purity="4.7460883855819702e-01" nType="-99"/>
          <Node pos="r" depth="2" NCoef="0" IVar="-1" Cut="0.0000000000000000e+00" cType="1" res="2.8358807321637869e-03" rms="4.4245085120201111e-01" purity="6.6473680734634399e-01" nType="-99"/>
        </Node>
      </Node>
    </BinaryTree>
    <BinaryTree type="DecisionTree" boostWeight="1.0000000000000000e+00" itree="134">
      <Node pos="s" depth="0" NCoef="0" IVar="0" Cut="3.5262864828109741e-01" cType="1" res="-1.3678554678335786e-03" rms="4.5713719725608826e-01" purity="4.9614971876144409e-01" nType="0">
        <Node pos="l" depth="1" NCoef="0" IVar="4" Cut="9.0317571163177490e-01" cType="1" res="-1.6244372352957726e-02" rms="4.5878982543945312e-01" purity="4.6173825860023499e-01" nType="0">
          <Node pos="l" depth="2" NCoef="0" IVar="-1" Cut="0.0000000000000000e+00" cType="1" res="-1.3423884520307183e-03" rms="4.6158024668693542e-01" purity="4.1770115494728088e-01" nType="-99"/>
          <Node pos="r" depth="2" NCoef="0" IVar="-1" Cut="0.0000000000000000e+00" cType="1" res="2.8643249534070492e-03" rms="4.3368947505950928e-01" purity="7.1461963653564453e-01" nType="-99"/>
        </Node>
        <Node pos="r" depth="1" NCoef="0" IVar="3" Cut="1.0365723371505737e+00" cType="1" res="8.1478849053382874e-02" rms="4.3868970870971680e-01" purity="6.8778562545776367e-01" nType="0">
          <Node pos="l" depth="2" NCoef="0" IVar="-1" Cut="0.0000000000000000e+00" cType="1" res="4.8196520656347275e-03" rms="4.1469514369964600e-01" purity="7.5114393234252930e-01" nType="-99"/>
          <Node pos="r" depth="2" NCoef="0" IVar="-1" Cut="0.0000000000000000e+00" cType="1" res="2.0198428537696600e-03" rms="4.6455895900726318e-01" purity="6.0894423723220825e-01" nType="-99"/>
        </Node>
      </Node>
    </BinaryTree>
    <BinaryTree type="DecisionTree" boostWeight="1.0000000000000000e+00" itree="135">
      <Node pos="s" depth="0" NCoef="0" IVar="2" Cut="8.6771291494369507e-01" cType="1" res="4.5767365372739732e-04" rms="4.5597997307777405e-01" purity="4.9763721227645874e-01" nType="0">
        <Node pos="l" depth="1" NCoef="0" IVar="5" Cut="9.3077239990234375e+02" cType="1" res="-4.8828367143869400e-02" rms="4.5078614354133606e-01" purity="3.6355859041213989e-01" nType="0">
          <Node pos="l" depth="2" NCoef="0" IVar="-1" Cut="0.0000000000000000e+00" cType="1" res="-3.2019701320677996e-03" rms="4.4132685661315918e-01" purity="3.3153396844863892e-01" nType="-99"/>
          <Node pos="r" depth="2" NCoef="0" IVar="-1" Cut="0.0000000000000000e+00" cType="1" res="1.2161238119006157e-03" rms="4.7556939721107483e-01" purity="4.7946000099182129e-01" nType="-99"/>
        </Node>
        <Node pos="r" depth="1" NCoef="0" IVar="1" Cut="1.5340507030487061e+00" cType="1" res="2.6445204392075539e-02" rms="4.5655760169029236e-01" purity="5.6833416223526001e-01" nType="0">
          <Node pos="l" depth="2" NCoef="0" IVar="-1" Cut="0.0000000000000000e+00" cType="1" res="1.7397861229255795e-03" rms="4.5603710412979126e-01" purity="6.0102367401123047e-01" nType="-99"/>
          <Node pos="r" depth="2" NCoef="0" IVar="-1" Cut="0.0000000000000000e+00" cType="1" res="-2.6251804083585739e-03" rms="4.5067906379699707e-01" purity="3.6143127083778381e-01" nType="-99"/>
        </Node>
      </Node>
    </BinaryTree>
    <BinaryTree type="DecisionTree" boostWeight="1.0000000000000000e+00" itree="136">
      <Node pos="s" depth="0" NCoef="0" IVar="2" Cut="9.0372896194458008e-01" cType="1" res="3.3962938468903303e-03" rms="4.5543012022972107e-01" purity="5.0085204839706421e-01" nType="0">
        <Node pos="l" depth="1" NCoef="0" IVar="3" Cut="1.0071026086807251e+00" cType="1" res="-3.8716219365596771e-02" rms="4.5500770211219788e-01" purity="3.9026772975921631e-01" nType="0">
          <Node pos="l" depth="2" NCoef="0" IVar="-1" Cut="0.0000000000000000e+00" cType="1" res="2.1642754290951416e-05" rms="4.6692875027656555e-01" purity="4.6340280771255493e-01" nType="-99"/>
          <Node pos="r" depth="2" NCoef="0" IVar="-1" Cut="0.0000000000000000e+00" cType="1" res="-3.5781962797045708e-03" rms="4.3938905000686646e-01" purity="3.1758648157119751e-01" nType="-99"/>
        </Node>
        <Node pos="r" depth="1" NCoef="0" IVar="3" Cut="2.1007845401763916e+00" cType="1" res="3.4909017384052277e-02" rms="4.5319339632987976e-01" purity="5.8360207080841064e-01" nType="0">
          <Node pos="l" depth="2" NCoef="0" IVar="-1" Cut="0.0000000000000000e+00" cType="1" res="2.1627964451909065e-03" rms="4.5170837640762329e-01" purity="6.1171108484268188e-01" nType="-99"/>
          <Node pos="r" depth="2" NCoef="0" IVar="-1" Cut="0.0000000000000000e+00" cType="1" res="-2.5372444652020931e-03" rms="4.5177173614501953e-01" purity="4.0540596842765808e-01" nType="-99"/>
        </Node>
      </Node>
    </BinaryTree>
    <BinaryTree type="DecisionTree" boostWeight="1.0000000000000000e+00" itree="137">
      <Node pos="s" depth="0" NCoef="0" IVar="1" Cut="9.3780702352523804e-01" cType="1" res="8.5977872367948294e-04" rms="4.5570662617683411e-01" purity="4.9857100844383240e-01" nType="0">
        <Node pos="l" depth="1" NCoef="0" IVar="0" Cut="2.1116663515567780e-01" cType="1" res="5.0706431269645691e-02" rms="4.4944575428962708e-01" purity="6.3055300712585449e-01" nType="0">
          <Node pos="l" depth="2" NCoef="0" IVar="-1" Cut="0.0000000000000000e+00" cType="1" res="1.0809347731992602e-03" rms="4.6912434697151184e-01" purity="5.5190515518188477e-01" nType="-99"/>
          <Node pos="r" depth="2" NCoef="0" IVar="-1" Cut="0.0000000000000000e+00" cType="1" res="4.3287477456033230e-03" rms="4.0926334261894226e-01" purity="7.6730144023895264e-01" nType="-99"/>
        </Node>
        <Node pos="r" depth="1" NCoef="0" IVar="5" Cut="5.5375292968750000e+02" cType="1" res="-2.2306805476546288e-02" rms="4.5673939585685730e-01" purity="4.3723136186599731e-01" nType="0">
          <Node pos="l" depth="2" NCoef="0" IVar="-1" Cut="0.0000000000000000e+00" cType="1" res="-3.7213945761322975e-03" rms="4.3544656038284302e-01" purity="3.4195977449417114e-01" nType="-99"/>
          <Node pos="r" depth="2" NCoef="0" IVar="-1" Cut="0.0000000000000000e+00" cType="1" res="-2.8438344088499434e-05" rms="4.6247935295104980e-01" purity="4.7241720557212830e-01" nType="-99"/>
        </Node>
      </Node>
    </BinaryTree>
    <BinaryTree type="DecisionTree" boostWeight="1.0000000000000000e+00" itree="138">
      <Node pos="s" depth="0" NCoef="0" IVar="0" Cut="2.3948051035404205e-01" cType="1" res="2.4498295970261097e-03" rms="4.5576167106628418e-01" purity="5.0042057037353516e-01" nType="0">
        <Node pos="l" depth="1" NCoef="0" IVar="1" Cut="1.1439307928085327e+00" cType="1" res="-2.0498652011156082e-02" rms="4.5686936378479004e-01" purity="4.3577811121940613e-01" nType="0">
          <Node pos="l" depth="2" NCoef="0" IVar="-1" Cut="0.0000000000000000e+00" cType="1" res="6.4099149312824011e-04" rms="4.6981465816497803e-01" purity="5.2944231033325195e-01" nType="-99"/>
          <Node pos="r" depth="2" NCoef="0" IVar="-1" Cut="0.0000000000000000e+00" cType="1" res="-2.7061747387051582e-03" rms="4.3937066197395325e-01" purity="3.3511963486671448e-01" nType="-99"/>
        </Node>
        <Node pos="r" depth="1" NCoef="0" IVar="3" Cut="1.7748677730560303e+00" cType="1" res="5.4826229810714722e-02" rms="4.4884985685348511e-01" purity="6.4795726537704468e-01" nType="0">
          <Node pos="l" depth="2" NCoef="0" IVar="-1" Cut="0.0000000000000000e+00" cType="1" res="3.1347421463578939e-03" rms="4.4140103459358215e-01" purity="6.8518513441085815e-01" nType="-99"/>
          <Node pos="r" depth="2" NCoef="0" IVar="-1" Cut="0.0000000000000000e+00" cType="1" res="-8.0948107643052936e-04" rms="4.7239065170288086e-01" purity="4.8865470290184021e-01" nType="-99"/>
        </Node>
      </Node>
    </BinaryTree>
    <BinaryTree type="DecisionTree" boostWeight="1.0000000000000000e+00" itree="139">
      <Node pos="s" depth="0" NCoef="0" IVar="8" Cut="2.2855744361877441e+00" cType="1" res="5.0241402350366116e-03" rms="4.5651921629905701e-01" purity="5.0389713048934937e-01" nType="0">
        <Node pos="l" depth="1" NCoef="0" IVar="2" Cut="7.1138262748718262e-01" cType="1" res="3.3573627471923828e-02" rms="4.5953363180160522e-01" purity="5.7314234972000122e-01" nType="0">
          <Node pos="l" depth="2" NCoef="0" IVar="-1" Cut="0.0000000000000000e+00" cType="1" res="-2.3136716336011887e-03" rms="4.5965373516082764e-01" purity="3.5703974962234497e-01" nType="-99"/>
          <Node pos="r" depth="2" NCoef="0" IVar="-1" Cut="0.0000000000000000e+00" cType="1" res="1.9510225392878056e-03" rms="4.5832479000091553e-01" purity="6.0149645805358887e-01" nType="-99"/>
        </Node>
        <Node pos="r" depth="1" NCoef="0" IVar="4" Cut="6.0229980945587158e-01" cType="1" res="-3.8637746125459671e-02" rms="4.4836801290512085e-01" purity="3.9799764752388000e-01" nType="0">
          <Node pos="l" depth="2" NCoef="0" IVar="-1" Cut="0.0000000000000000e+00" cType="1" res="-4.5264754444360733e-03" rms="4.1226306557655334e-01" purity="2.5246936082839966e-01" nType="-99"/>
          <Node pos="r" depth="2" NCoef="0" IVar="-1" Cut="0.0000000000000000e+00" cType="1" res="-4.4840932241640985e-04" rms="4.6348494291305542e-01" purity="4.7356706857681274e-01" nType="-99"/>
        </Node>
      </Node>
    </BinaryTree>
    <BinaryTree type="DecisionTree" boostWeight="1.0000000000000000e+00" itree="140">
      <Node pos="s" depth="0" NCoef="0" IVar="8" Cut="2.4791572093963623e+00" cType="1" res="2.2861880715936422e-03" rms="4.5482891798019409e-01" purity="5.0083148479461670e-01" nType="0">
        <Node pos="l" depth="1" NCoef="0" IVar="5" Cut="5.5165747070312500e+02" cType="1" res="2.1184358745813370e-02" rms="4.5867896080017090e-01" purity="5.5308723449707031e-01" nType="0">
          <Node pos="l" depth="2" NCoef="0" IVar="-1" Cut="0.0000000000000000e+00" cType="1" res="-1.6415645368397236e-03" rms="4.5476582646369934e-01" purity="4.6453258395195007e-01" nType="-99"/>
          <Node pos="r" depth="2" NCoef="0" IVar="-1" Cut="0.0000000000000000e+00" cType="1" res="1.7458070069551468e-03" rms="4.5835614204406738e-01" purity="5.8202117681503296e-01" nType="-99"/>
        </Node>
        <Node pos="r" depth="1" NCoef="0" IVar="1" Cut="1.5530672073364258e+00" cType="1" res="-6.1842303723096848e-02" rms="4.3544274568557739e-01" purity="3.2350835204124451e-01" nType="0">
          <Node pos="l" depth="2" NCoef="0" IVar="-1" Cut="0.0000000000000000e+00" cType="1" res="-1.7841926310211420e-03" rms="4.5146343111991882e-01" purity="3.7201851606369019e-01" nType="-99"/>
          <Node pos="r" depth="2" NCoef="0" IVar="-1" Cut="0.0000000000000000e+00" cType="1" res="-5.7656923308968544e-03" rms="3.8933300971984863e-01" purity="2.0766192674636841e-01" nType="-99"/>
        </Node>
      </Node>
    </BinaryTree>
    <BinaryTree type="DecisionTree" boostWeight="1.0000000000000000e+00" itree="141">
      <Node pos="s" depth="0" NCoef="0" IVar="3" Cut="1.6119899749755859e+00" cType="1" res="3.3369066659361124e-03" rms="4.5541742444038391e-01" purity="5.0146275758743286e-01" nType="0">
        <Node pos="l" depth="1" NCoef="0" IVar="0" Cut="6.9730728864669800e-02" cType="1" res="2.2623276337981224e-02" rms="4.5696640014648438e-01" purity="5.4445415735244751e-01" nType="0">
          <Node pos="l" depth="2" NCoef="0" IVar="-1" Cut="0.0000000000000000e+00" cType="1" res="-1.6846872167661786e-03" rms="4.5832476019859314e-01" purity="4.1021546721458435e-01" nType="-99"/>
          <Node pos="r" depth="2" NCoef="0" IVar="-1" Cut="0.0000000000000000e+00" cType="1" res="1.9306897884234786e-03" rms="4.5453944802284241e-01" purity="5.9214991331100464e-01" nType="-99"/>
        </Node>
        <Node pos="r" depth="1" NCoef="0" IVar="5" Cut="5.3605340576171875e+02" cType="1" res="-5.5047091096639633e-02" rms="4.4563663005828857e-01" purity="3.7131857872009277e-01" nType="0">
          <Node pos="l" depth="2" NCoef="0" IVar="-1" Cut="0.0000000000000000e+00" cType="1" res="-4.9351048655807972e-03" rms="4.1851615905761719e-01" purity="3.0018624663352966e-01" nType="-99"/>
          <Node pos="r" depth="2" NCoef="0" IVar="-1" Cut="0.0000000000000000e+00" cType="1" res="-1.5939248260110617e-03" rms="4.5429423451423645e-01" purity="3.9922308921813965e-01" nType="-99"/>
        </Node>
      </Node>
    </BinaryTree>
    <BinaryTree type="DecisionTree" boostWeight="1.0000000000000000e+00" itree="142">
      <Node pos="s" depth="0" NCoef="0" IVar="5" Cut="6.7348681640625000e+02" cType="1" res="-1.1050894390791655e-03" rms="4.5519751310348511e-01" purity="4.9813726544380188e-01" nType="0">
        <Node pos="l" depth="1" NCoef="0" IVar="1" Cut="1.0237998962402344e+00" cType="1" res="-3.6967523396015167e-02" rms="4.4966650009155273e-01" purity="4.3996006250381470e-01" nType="0">
          <Node pos="l" depth="2" NCoef="0" IVar="-1" Cut="0.0000000000000000e+00" cType="1" res="6.2727910699322820e-04" rms="4.5876258611679077e-01" purity="5.7379877567291260e-01" nType="-99"/>
          <Node pos="r" depth="2" NCoef="0" IVar="-1" Cut="0.0000000000000000e+00" cType="1" res="-3.2269097864627838e-03" rms="4.4044926762580872e-01" purity="3.5280102491378784e-01" nType="-99"/>
        </Node>
        <Node pos="r" depth="1" NCoef="0" IVar="4" Cut="6.7443561553955078e-01" cType="1" res="3.3069692552089691e-02" rms="4.5779973268508911e-01" purity="5.5357670783996582e-01" nType="0">
          <Node pos="l" depth="2" NCoef="0" IVar="-1" Cut="0.0000000000000000e+00" cType="1" res="-8.6283595010172576e-05" rms="4.7084829211235046e-01" purity="4.2093503475189209e-01" nType="-99"/>
          <Node pos="r" depth="2" NCoef="0" IVar="-1" Cut="0.0000000000000000e+00" cType="1" res="2.7988832443952560e-03" rms="4.4365519285202026e-01" purity="6.7078810930252075e-01" nType="-99"/>
        </Node>
      </Node>
    </BinaryTree>
    <BinaryTree type="DecisionTree" boostWeight="1.0000000000000000e+00" itree="143">
      <Node pos="s" depth="0" NCoef="0" IVar="1" Cut="9.2358130216598511e-01" cType="1" res="4.2200363241136074e-03" rms="4.5513850450515747e-01" purity="5.0334453582763672e-01" nType="0">
        <Node pos="l" depth="1" NCoef="0" IVar="4" Cut="5.9035843610763550e-01" cType="1" res="5.7083860039710999e-02" rms="4.4644105434417725e-01" purity="6.4236462116241455e-01" nType="0">
          <Node pos="l" depth="2" NCoef="0" IVar="-1" Cut="0.0000000000000000e+00" cType="1" res="-1.0209659376414493e-04" rms="4.7829201817512512e-01" purity="4.5959571003913879e-01" nType="-99"/>
          <Node pos="r" depth="2" NCoef="0" IVar="-1" Cut="0.0000000000000000e+00" cType="1" res="3.4772467333823442e-03" rms="4.3251678347587585e-01" purity="7.0766323804855347e-01" nType="-99"/>
        </Node>
        <Node pos="r" depth="1" NCoef="0" IVar="5" Cut="7.6370886230468750e+02" cType="1" res="-1.8772812560200691e-02" rms="4.5696553587913513e-01" purity="4.4287851452827454e-01" nType="0">
          <Node pos="l" depth="2" NCoef="0" IVar="-1" Cut="0.0000000000000000e+00" cType="1" res="-2.0919337403029203e-03" rms="4.4893342256546021e-01" purity="3.9854118227958679e-01" nType="-99"/>
          <Node pos="r" depth="2" NCoef="0" IVar="-1" Cut="0.0000000000000000e+00" cType="1" res="1.2626000680029392e-03" rms="4.6681132912635803e-01" purity="5.2015554904937744e-01" nType="-99"/>
        </Node>
      </Node>
    </BinaryTree>
    <BinaryTree type="DecisionTree" boostWeight="1.0000000000000000e+00" itree="144">
      <Node pos="s" depth="0" NCoef="0" IVar="6" Cut="1.1412835121154785e+00" cType="1" res="4.9958564341068268e-03" rms="4.5517489314079285e-01" purity="5.0301396846771240e-01" nType="0">
        <Node pos="l" depth="1" NCoef="0" IVar="5" Cut="5.6023254394531250e+02" cType="1" res="3.0040230602025986e-02" rms="4.5850896835327148e-01" purity="5.7994800806045532e-01" nType="0">
          <Node pos="l" depth="2" NCoef="0" IVar="-1" Cut="0.0000000000000000e+00" cType="1" res="-1.2369045289233327e-03" rms="4.6046298742294312e-01" purity="4.8944425582885742e-01" nType="-99"/>
          <Node pos="r" depth="2" NCoef="0" IVar="-1" Cut="0.0000000000000000e+00" cType="1" res="2.1243016235530376e-03" rms="4.5630282163619995e-01" purity="6.0928457975387573e-01" nType="-99"/>
        </Node>
        <Node pos="r" depth="1" NCoef="0" IVar="0" Cut="2.6776295900344849e-01" cType="1" res="-3.9206098765134811e-02" rms="4.4581031799316406e-01" purity="3.6722978949546814e-01" nType="0">
          <Node pos="l" depth="2" NCoef="0" IVar="-1" Cut="0.0000000000000000e+00" cType="1" res="-2.8678507078438997e-03" rms="4.3462294340133667e-01" purity="3.1273457407951355e-01" nType="-99"/>
          <Node pos="r" depth="2" NCoef="0" IVar="-1" Cut="0.0000000000000000e+00" cType="1" res="1.1518069077283144e-03" rms="4.7200876474380493e-01" purity="5.3284233808517456e-01" nType="-99"/>
        </Node>
      </Node>
    </BinaryTree>
    <BinaryTree type="DecisionTree" boostWeight="1.0000000000000000e+00" itree="145">
      <Node pos="s" depth="0" NCoef="0" IVar="6" Cut="9.1249734163284302e-01" cType="1" res="3.2890995498746634e-03" rms="4.5639789104461670e-01" purity="5.0136375427246094e-01" nType="0">
        <Node pos="l" depth="1" NCoef="0" IVar="5" Cut="7.4360772705078125e+02" cType="1" res="3.8819186389446259e-02" rms="4.5554795861244202e-01" purity="5.9581214189529419e-01" nType="0">
          <Node pos="l" depth="2" NCoef="0" IVar="-1" Cut="0.0000000000000000e+00" cType="1" res="4.8923288704827428e-04" rms="4.5745682716369629e-01" purity="5.5435103178024292e-01" nType="-99"/>
          <Node pos="r" depth="2" NCoef="0" IVar="-1" Cut="0.0000000000000000e+00" cType="1" res="3.2390581909567118e-03" rms="4.5050621032714844e-01" purity="6.4983206987380981e-01" nType="-99"/>
        </Node>
        <Node pos="r" depth="1" NCoef="0" IVar="0" Cut="3.3848661184310913e-01" cType="1" res="-2.9713738709688187e-02" rms="4.5470562577247620e-01" purity="4.1363340616226196e-01" nType="0">
          <Node pos="l" depth="2" NCoef="0" IVar="-1" Cut="0.0000000000000000e+00" cType="1" res="-2.0042099058628082e-03" rms="4.5135208964347839e-01" purity="3.7775790691375732e-01" nType="-99"/>
          <Node pos="r" depth="2" NCoef="0" IVar="-1" Cut="0.0000000000000000e+00" cType="1" res="1.8425011076033115e-03" rms="4.6460017561912537e-01" purity="5.9602051973342896e-01" nType="-99"/>
        </Node>
      </Node>
    </BinaryTree>
    <BinaryTree type="DecisionTree" boostWeight="1.0000000000000000e+00" itree="146">
      <Node pos="s" depth="0" NCoef="0" IVar="0" Cut="8.3881482481956482e-02" cType="1" res="-1.3625652063637972e-03" rms="4.5448449254035950e-01" purity="4.9805834889411926e-01" nType="0">
        <Node pos="l" depth="1" NCoef="0" IVar="5" Cut="5.6389984130859375e+02" cType="1" res="-5.2218552678823471e-02" rms="4.4973540306091309e-01" purity="3.7548246979713440e-01" nType="0">
          <Node pos="l" depth="2" NCoef="0" IVar="-1" Cut="0.0000000000000000e+00" cType="1" res="-4.5783291570842266e-03" rms="4.2793670296669006e-01" purity="3.0403843522071838e-01" nType="-99"/>
          <Node pos="r" depth="2" NCoef="0" IVar="-1" Cut="0.0000000000000000e+00" cType="1" res="-1.3416769215837121e-03" rms="4.5839947462081909e-01" purity="4.1047424077987671e-01" nType="-99"/>
        </Node>
        <Node pos="r" depth="1" NCoef="0" IVar="8" Cut="2.4768705368041992e+00" cType="1" res="2.2793643176555634e-02" rms="4.5473492145538330e-01" purity="5.5628091096878052e-01" nType="0">
          <Node pos="l" depth="2" NCoef="0" IVar="-1" Cut="0.0000000000000000e+00" cType="1" res="1.8423030851408839e-03" rms="4.5454552769660950e-01" purity="6.1030071973800659e-01" nType="-99"/>
          <Node pos="r" depth="2" NCoef="0" IVar="-1" Cut="0.0000000000000000e+00" cType="1" res="-2.0226968917995691e-03" rms="4.4891989231109619e-01" purity="3.6814904212951660e-01" nType="-99"/>
        </Node>
      </Node>
    </BinaryTree>
    <BinaryTree type="DecisionTree" boostWeight="1.0000000000000000e+00" itree="147">
      <Node pos="s" depth="0" NCoef="0" IVar="0" Cut="8.3869054913520813e-02" cType="1" res="-1.8613203428685665e-03" rms="4.5415955781936646e-01" purity="4.9757212400436401e-01" nType="0">
        <Node pos="l" depth="1" NCoef="0" IVar="4" Cut="8.5474097728729248e-01" cType="1" res="-5.0845947116613388e-02" rms="4.4571197032928467e-01" purity="3.7452656030654907e-01" nType="0">
          <Node pos="l" depth="2" NCoef="0" IVar="-1" Cut="0.0000000000000000e+00" cType="1" res="-3.1700322870165110e-03" rms="4.4017061591148376e-01" purity="3.1039744615554810e-01" nType="-99"/>
          <Node pos="r" depth="2" NCoef="0" IVar="-1" Cut="0.0000000000000000e+00" cType="1" res="8.7183393770828843e-04" rms="4.6030417084693909e-01" purity="6.3005763292312622e-01" nType="-99"/>
        </Node>
        <Node pos="r" depth="1" NCoef="0" IVar="3" Cut="2.4172012805938721e+00" cType="1" res="2.1792912855744362e-02" rms="4.5630419254302979e-01" purity="5.5698978900909424e-01" nType="0">
          <Node pos="l" depth="2" NCoef="0" IVar="-1" Cut="0.0000000000000000e+00" cType="1" res="1.4324765652418137e-03" rms="4.5675930380821228e-01" purity="5.7931333780288696e-01" nType="-99"/>
          <Node pos="r" depth="2" NCoef="0" IVar="-1" Cut="0.0000000000000000e+00" cType="1" res="-3.7915750872343779e-03" rms="4.3812796473503113e-01" purity="3.3941712975502014e-01" nType="-99"/>
        </Node>
      </Node>
    </BinaryTree>
    <BinaryTree type="DecisionTree" boostWeight="1.0000000000000000e+00" itree="148">
      <Node pos="s" depth="0" NCoef="0" IVar="1" Cut="1.4891204833984375e+00" cType="1" res="1.9933178555220366e-03" rms="4.5493626594543457e-01" purity="5.0035810470581055e-01" nType="0">
        <Node pos="l" depth="1" NCoef="0" IVar="0" Cut="1.1216754466295242e-01" cType="1" res="1.6940142959356308e-02" rms="4.5844200253486633e-01" purity="5.4068964719772339e-01" nType="0">
          <Node pos="l" depth="2" NCoef="0" IVar="-1" Cut="0.0000000000000000e+00" cType="1" res="-9.0052501764148474e-04" rms="4.6269458532333374e-01" purity="4.2923223972320557e-01" nType="-99"/>
          <Node pos="r" depth="2" NCoef="0" IVar="-1" Cut="0.0000000000000000e+00" cType="1" res="1.9234956707805395e-03" rms="4.5341825485229492e-01" purity="6.2159454822540283e-01" nType="-99"/>
        </Node>
        <Node pos="r" depth="1" NCoef="0" IVar="5" Cut="7.3844830322265625e+02" cType="1" res="-6.8523220717906952e-02" rms="4.3108430504798889e-01" purity="3.1008088588714600e-01" nType="0">
          <Node pos="l" depth="2" NCoef="0" IVar="-1" Cut="0.0000000000000000e+00" cType="1" res="-4.9052075482904911e-03" rms="4.1079872846603394e-01" purity="2.5835239887237549e-01" nType="-99"/>
          <Node pos="r" depth="2" NCoef="0" IVar="-1" Cut="0.0000000000000000e+00" cType="1" res="-5.2309047896414995e-04" rms="4.5850843191146851e-01" purity="3.9949828386306763e-01" nType="-99"/>
        </Node>
      </Node>
    </BinaryTree>
    <BinaryTree type="DecisionTree" boostWeight="1.0000000000000000e+00" itree="149">
      <Node pos="s" depth="0" NCoef="0" IVar="4" Cut="6.2642920017242432e-01" cType="1" res="-6.5215246286243200e-04" rms="4.5394772291183472e-01" purity="4.9843066930770874e-01" nType="0">
        <Node pos="l" depth="1" NCoef="0" IVar="5" Cut="8.0995385742187500e+02" cType="1" res="-4.5356828719377518e-02" rms="4.4759491086006165e-01" purity="3.4358817338943481e-01" nType="0">
          <Node pos="l" depth="2" NCoef="0" IVar="-1" Cut="0.0000000000000000e+00" cType="1" res="-3.2023794483393431e-03" rms="4.3453904986381531e-01" purity="3.0592730641365051e-01" nType="-99"/>
          <Node pos="r" depth="2" NCoef="0" IVar="-1" Cut="0.0000000000000000e+00" cType="1" res="3.8581321132369339e-04" rms="4.7195503115653992e-01" purity="4.3055894970893860e-01" nType="-99"/>
        </Node>
        <Node pos="r" depth="1" NCoef="0" IVar="3" Cut="1.8126199245452881e+00" cType="1" res="2.6561884209513664e-02" rms="4.5562908053398132e-01" purity="5.9269124269485474e-01" nType="0">
          <Node pos="l" depth="2" NCoef="0" IVar="-1" Cut="0.0000000000000000e+00" cType="1" res="1.8928415374830365e-03" rms="4.5270588994026184e-01" purity="6.2888163328170776e-01" nType="-99"/>
          <Node pos="r" depth="2" NCoef="0" IVar="-1" Cut="0.0000000000000000e+00" cType="1" res="-1.9933506846427917e-03" rms="4.6126443147659302e-01" purity="4.3549397587776184e-01" nType="-99"/>
        </Node>
      </Node>
    </BinaryTree>
    <BinaryTree type="DecisionTree" boostWeight="1.0000000000000000e+00" itree="150">
      <Node pos="s" depth="0" NCoef="0" IVar="3" Cut="1.6035504341125488e+00" cType="1" res="1.6507057007402182e-03" rms="4.5365503430366516e-01" purity="5.0055307149887085e-01" nType="0">
        <Node pos="l" depth="1" NCoef="0" IVar="0" Cut="9.8025038838386536e-02" cType="1" res="2.1053159609436989e-02" rms="4.5589569211006165e-01" purity="5.4504901170730591e-01" nType="0">
          <Node pos="l" depth="2" NCoef="0" IVar="-1" Cut="0.0000000000000000e+00" cType="1" res="-9.5591612625867128e-04" rms="4.5953881740570068e-01" purity="4.2466807365417480e-01" nType="-99"/>
          <Node pos="r" depth="2" NCoef="0" IVar="-1" Cut="0.0000000000000000e+00" cType="1" res="2.0244652405381203e-03" rms="4.5188611745834351e-01" purity="6.1579012870788574e-01" nType="-99"/>
        </Node>
        <Node pos="r" depth="1" NCoef="0" IVar="4" Cut="8.3083719015121460e-01" cType="1" res="-5.5064573884010315e-02" rms="4.4218617677688599e-01" purity="3.7048685550689697e-01" nType="0">
          <Node pos="l" depth="2" NCoef="0" IVar="-1" Cut="0.0000000000000000e+00" cType="1" res="-3.5034532193094492e-03" rms="4.3290337920188904e-01" purity="3.0149886012077332e-01" nType="-99"/>
          <Node pos="r" depth="2" NCoef="0" IVar="-1" Cut="0.0000000000000000e+00" cType="1" res="2.8634400223381817e-04" rms="4.6505284309387207e-01" purity="5.8925896883010864e-01" nType="-99"/>
        </Node>
      </Node>
    </BinaryTree>
    <BinaryTree type="DecisionTree" boostWeight="1.0000000000000000e+00" itree="151">
      <Node pos="s" depth="0" NCoef="0" IVar="1" Cut="9.6274602413177490e-01" cType="1" res="7.6734711183235049e-04" rms="4.5390078425407410e-01" purity="4.9992102384567261e-01" nType="0">
        <Node pos="l" depth="1" NCoef="0" IVar="5" Cut="5.3476428222656250e+02" cType="1" res="4.7138787806034088e-02" rms="4.5051518082618713e-01" purity="6.3117623329162598e-01" nType="0">
          <Node pos="l" depth="2" NCoef="0" IVar="-1" Cut="0.0000000000000000e+00" cType="1" res="-8.3569966955110431e-04" rms="4.6105358004570007e-01" purity="5.3529918193817139e-01" nType="-99"/>
          <Node pos="r" depth="2" NCoef="0" IVar="-1" Cut="0.0000000000000000e+00" cType="1" res="2.8224831912666559e-03" rms="4.4616287946701050e-01" purity="6.5599602460861206e-01" nType="-99"/>
        </Node>
        <Node pos="r" depth="1" NCoef="0" IVar="0" Cut="3.3848661184310913e-01" cType="1" res="-2.3256462067365646e-02" rms="4.5378527045249939e-01" purity="4.3192115426063538e-01" nType="0">
          <Node pos="l" depth="2" NCoef="0" IVar="-1" Cut="0.0000000000000000e+00" cType="1" res="-1.7615935066714883e-03" rms="4.5144152641296387e-01" purity="3.9537280797958374e-01" nType="-99"/>
          <Node pos="r" depth="2" NCoef="0" IVar="-1" Cut="0.0000000000000000e+00" cType="1" res="2.4752123281359673e-03" rms="4.5723161101341248e-01" purity="6.2117981910705566e-01" nType="-99"/>
        </Node>
      </Node>
    </BinaryTree>
    <BinaryTree type="DecisionTree" boostWeight="1.0000000000000000e+00" itree="152">
      <Node pos="s" depth="0" NCoef="0" IVar="8" Cut="2.3855514526367188e+00" cType="1" res="-4.7675124369561672e-04" rms="4.5418837666511536e-01" purity="4.9978148937225342e-01" nType="0">
        <Node pos="l" depth="1" NCoef="0" IVar="5" Cut="5.3789593505859375e+02" cType="1" res="2.0431909710168839e-02" rms="4.5858237147331238e-01" purity="5.5984193086624146e-01" nType="0">
          <Node pos="l" depth="2" NCoef="0" IVar="-1" Cut="0.0000000000000000e+00" cType="1" res="-1.7278296872973442e-03" rms="4.5539599657058716e-01" purity="4.5916801691055298e-01" nType="-99"/>
          <Node pos="r" depth="2" NCoef="0" IVar="-1" Cut="0.0000000000000000e+00" cType="1" res="1.5973516274243593e-03" rms="4.5812883973121643e-01" purity="5.8724910020828247e-01" nType="-99"/>
        </Node>
        <Node pos="r" depth="1" NCoef="0" IVar="3" Cut="1.9375187158584595e+00" cType="1" res="-5.0613235682249069e-02" rms="4.3944045901298523e-01" purity="3.5576361417770386e-01" nType="0">
          <Node pos="l" depth="2" NCoef="0" IVar="-1" Cut="0.0000000000000000e+00" cType="1" res="-1.3054185546934605e-03" rms="4.5104232430458069e-01" purity="3.9962765574455261e-01" nType="-99"/>
          <Node pos="r" depth="2" NCoef="0" IVar="-1" Cut="0.0000000000000000e+00" cType="1" res="-5.3925840184092522e-03" rms="4.0043562650680542e-01" purity="2.3700965940952301e-01" nType="-99"/>
        </Node>
      </Node>
    </BinaryTree>
    <BinaryTree type="DecisionTree" boostWeight="1.0000000000000000e+00" itree="153">
      <Node pos="s" depth="0" NCoef="0" IVar="4" Cut="8.4301644563674927e-01" cType="1" res="7.5140345143154263e-04" rms="4.5345100760459900e-01" purity="5.0017309188842773e-01" nType="0">
        <Node pos="l" depth="1" NCoef="0" IVar="3" Cut="8.6162352561950684e-01" cType="1" res="-1.7846221104264259e-02" rms="4.5916229486465454e-01" purity="4.3125352263450623e-01" nType="0">
          <Node pos="l" depth="2" NCoef="0" IVar="-1" Cut="0.0000000000000000e+00" cType="1" res="8.7880605133250356e-04" rms="4.6705824136734009e-01" purity="5.1068955659866333e-01" nType="-99"/>
          <Node pos="r" depth="2" NCoef="0" IVar="-1" Cut="0.0000000000000000e+00" cType="1" res="-2.1091664675623178e-03" rms="4.5105654001235962e-01" purity="3.7181895971298218e-01" nType="-99"/>
        </Node>
        <Node pos="r" depth="1" NCoef="0" IVar="4" Cut="9.4729506969451904e-01" cType="1" res="5.8508336544036865e-02" rms="4.3014037609100342e-01" purity="7.1421027183532715e-01" nType="0">
          <Node pos="l" depth="2" NCoef="0" IVar="-1" Cut="0.0000000000000000e+00" cType="1" res="1.6628608573228121e-03" rms="4.4014087319374084e-01" purity="6.8495404720306396e-01" nType="-99"/>
          <Node pos="r" depth="2" NCoef="0" IVar="-1" Cut="0.0000000000000000e+00" cType="1" res="4.3901638127863407e-03" rms="4.0905049443244934e-01" purity="7.6598393917083740e-01" nType="-99"/>
        </Node>
      </Node>
    </BinaryTree>
    <BinaryTree type="DecisionTree" boostWeight="1.0000000000000000e+00" itree="154">
      <Node pos="s" depth="0" NCoef="0" IVar="4" Cut="9.0308761596679688e-01" cType="1" res="5.1826919661834836e-04" rms="4.5458698272705078e-01" purity="4.9841406941413879e-01" nType="0">
        <Node pos="l" depth="1" NCoef="0" IVar="1" Cut="1.5409200191497803e+00" cType="1" res="-1.3098628260195255e-02" rms="4.5958688855171204e-01" purity="4.5286941528320312e-01" nType="0">
          <Node pos="l" depth="2" NCoef="0" IVar="-1" Cut="0.0000000000000000e+00" cType="1" res="-2.0491539544309489e-05" rms="4.6531659364700317e-01" purity="4.8619949817657471e-01" nType="-99"/>
          <Node pos="r" depth="2" NCoef="0" IVar="-1" Cut="0.0000000000000000e+00" cType="1" res="-4.1249599307775497e-03" rms="4.1832482814788818e-01" purity="2.6323825120925903e-01" nType="-99"/>
        </Node>
        <Node pos="r" depth="1" NCoef="0" IVar="5" Cut="7.4505432128906250e+02" cType="1" res="7.3273077607154846e-02" rms="4.1945651173591614e-01" purity="7.4175816774368286e-01" nType="0">
          <Node pos="l" depth="2" NCoef="0" IVar="-1" Cut="0.0000000000000000e+00" cType="1" res="2.4681871291249990e-03" rms="4.3299749493598938e-01" purity="7.1165174245834351e-01" nType="-99"/>
          <Node pos="r" depth="2" NCoef="0" IVar="-1" Cut="0.0000000000000000e+00" cType="1" res="4.7212811186909676e-03" rms="3.9627963304519653e-01" purity="7.8747546672821045e-01" nType="-99"/>
        </Node>
      </Node>
    </BinaryTree>
    <BinaryTree type="DecisionTree" boostWeight="1.0000000000000000e+00" itree="155">
      <Node pos="s" depth="0" NCoef="0" IVar="5" Cut="5.5213671875000000e+02" cType="1" res="3.7049450911581516e-03" rms="4.5329901576042175e-01" purity="5.0189816951751709e-01" nType="0">
        <Node pos="l" depth="1" NCoef="0" IVar="1" Cut="1.1332899332046509e+00" cType="1" res="-5.0494369119405746e-02" rms="4.4212567806243896e-01" purity="4.0633407235145569e-01" nType="0">
          <Node pos="l" depth="2" NCoef="0" IVar="-1" Cut="0.0000000000000000e+00" cType="1" res="-3.8020627107471228e-04" rms="4.5941284298896790e-01" purity="5.2455276250839233e-01" nType="-99"/>
          <Node pos="r" depth="2" NCoef="0" IVar="-1" Cut="0.0000000000000000e+00" cType="1" res="-4.3496820144355297e-03" rms="4.2058709263801575e-01" purity="2.9102292656898499e-01" nType="-99"/>
        </Node>
        <Node pos="r" depth="1" NCoef="0" IVar="8" Cut="2.3486180305480957e+00" cType="1" res="2.2647395730018616e-02" rms="4.5562174916267395e-01" purity="5.3529745340347290e-01" nType="0">
          <Node pos="l" depth="2" NCoef="0" IVar="-1" Cut="0.0000000000000000e+00" cType="1" res="1.9158603390678763e-03" rms="4.5436930656433105e-01" purity="5.9645235538482666e-01" nType="-99"/>
          <Node pos="r" depth="2" NCoef="0" IVar="-1" Cut="0.0000000000000000e+00" cType="1" res="-1.0412293486297131e-03" rms="4.5497041940689087e-01" purity="4.0413099527359009e-01" nType="-99"/>
        </Node>
      </Node>
    </BinaryTree>
    <BinaryTree type="DecisionTree" boostWeight="1.0000000000000000e+00" itree="156">
      <Node pos="s" depth="0" NCoef="0" IVar="1" Cut="1.4695570468902588e+00" cType="1" res="7.2514667408540845e-04" rms="4.5433419942855835e-01" purity="5.0065910816192627e-01" nType="0">
        <Node pos="l" depth="1" NCoef="0" IVar="4" Cut="5.4219424724578857e-01" cType="1" res="1.5109803527593613e-02" rms="4.5769128203392029e-01" purity="5.4294514656066895e-01" nType="0">
          <Node pos="l" depth="2" NCoef="0" IVar="-1" Cut="0.0000000000000000e+00" cType="1" res="-2.5646951980888844e-03" rms="4.5332840085029602e-01" purity="3.4802153706550598e-01" nType="-99"/>
          <Node pos="r" depth="2" NCoef="0" IVar="-1" Cut="0.0000000000000000e+00" cType="1" res="1.2158562894910574e-03" rms="4.5728814601898193e-01" purity="5.7664018869400024e-01" nType="-99"/>
        </Node>
        <Node pos="r" depth="1" NCoef="0" IVar="5" Cut="6.8542773437500000e+02" cType="1" res="-6.2075234949588776e-02" rms="4.3382635712623596e-01" purity="3.1604698300361633e-01" nType="0">
          <Node pos="l" depth="2" NCoef="0" IVar="-1" Cut="0.0000000000000000e+00" cType="1" res="-4.6952278353273869e-03" rms="4.0861609578132629e-01" purity="2.5880816578865051e-01" nType="-99"/>
          <Node pos="r" depth="2" NCoef="0" IVar="-1" Cut="0.0000000000000000e+00" cType="1" res="-9.4941438874229789e-04" rms="4.5884826779365540e-01" purity="3.8459825515747070e-01" nType="-99"/>
        </Node>
      </Node>
    </BinaryTree>
    <BinaryTree type="DecisionTree" boostWeight="1.0000000000000000e+00" itree="157">
      <Node pos="s" depth="0" NCoef="0" IVar="0" Cut="3.3849287033081055e-01" cType="1" res="6.6443264950066805e-04" rms="4.5440369844436646e-01" purity="4.9974831938743591e-01" nType="0">
        <Node pos="l" depth="1" NCoef="0" IVar="5" Cut="5.8177996826171875e+02" cType="1" res="-1.3871637172996998e-02" rms="4.5699033141136169e-01" purity="4.6152853965759277e-01" nType="0">
          <Node pos="l" depth="2" NCoef="0" IVar="-1" Cut="0.0000000000000000e+00" cType="1" res="-2.8163357637822628e-03" rms="4.4324728846549988e-01" purity="3.8000205159187317e-01" nType="-99"/>
          <Node pos="r" depth="2" NCoef="0" IVar="-1" Cut="0.0000000000000000e+00" cType="1" res="3.8408822729252279e-04" rms="4.6171554923057556e-01" purity="5.0049638748168945e-01" nType="-99"/>
        </Node>
        <Node pos="r" depth="1" NCoef="0" IVar="2" Cut="8.6880397796630859e-01" cType="1" res="7.2078563272953033e-02" rms="4.3446835875511169e-01" purity="6.8751811981201172e-01" nType="0">
          <Node pos="l" depth="2" NCoef="0" IVar="-1" Cut="0.0000000000000000e+00" cType="1" res="1.1834528995677829e-03" rms="4.7279709577560425e-01" purity="5.6815260648727417e-01" nType="-99"/>
          <Node pos="r" depth="2" NCoef="0" IVar="-1" Cut="0.0000000000000000e+00" cType="1" res="4.2512095533311367e-03" rms="4.1292044520378113e-01" purity="7.4541258811950684e-01" nType="-99"/>
        </Node>
      </Node>
    </BinaryTree>
    <BinaryTree type="DecisionTree" boostWeight="1.0000000000000000e+00" itree="158">
      <Node pos="s" depth="0" NCoef="0" IVar="4" Cut="5.4220372438430786e-01" cType="1" res="3.9670779369771481e-03" rms="4.5466580986976624e-01" purity="5.0355863571166992e-01" nType="0">
        <Node pos="l" depth="1" NCoef="0" IVar="0" Cut="1.1298596858978271e-01" cType="1" res="-6.4823672175407410e-02" rms="4.3723529577255249e-01" purity="3.1376168131828308e-01" nType="0">
          <Node pos="l" depth="2" NCoef="0" IVar="-1" Cut="0.0000000000000000e+00" cType="1" res="-5.1516476087272167e-03" rms="3.9528524875640869e-01" purity="2.0556534826755524e-01" nType="-99"/>
          <Node pos="r" depth="2" NCoef="0" IVar="-1" Cut="0.0000000000000000e+00" cType="1" res="-1.4658335130661726e-03" rms="4.6677815914154053e-01" purity="4.0322533249855042e-01" nType="-99"/>
        </Node>
        <Node pos="r" depth="1" NCoef="0" IVar="1" Cut="1.3281822204589844e+00" cType="1" res="1.6851127147674561e-02" rms="4.5670604705810547e-01" purity="5.3910624980926514e-01" nType="0">
          <Node pos="l" depth="2" NCoef="0" IVar="-1" Cut="0.0000000000000000e+00" cType="1" res="1.5906773041933775e-03" rms="4.5711848139762878e-01" purity="6.0156011581420898e-01" nType="-99"/>
          <Node pos="r" depth="2" NCoef="0" IVar="-1" Cut="0.0000000000000000e+00" cType="1" res="-1.4029308222234249e-03" rms="4.5217573642730713e-01" purity="3.8492542505264282e-01" nType="-99"/>
        </Node>
      </Node>
    </BinaryTree>
    <BinaryTree type="DecisionTree" boostWeight="1.0000000000000000e+00" itree="159">
      <Node pos="s" depth="0" NCoef="0" IVar="2" Cut="8.9175516366958618e-01" cType="1" res="3.3548702485859394e-03" rms="4.5368170738220215e-01" purity="5.0240141153335571e-01" nType="0">
        <Node pos="l" depth="1" NCoef="0" IVar="5" Cut="9.2173022460937500e+02" cType="1" res="-3.6904435604810715e-02" rms="4.5379355549812317e-01" purity="3.8404497504234314e-01" nType="0">
          <Node pos="l" depth="2" NCoef="0" IVar="-1" Cut="0.0000000000000000e+00" cType="1" res="-2.5636192876845598e-03" rms="4.4686365127563477e-01" purity="3.5295277833938599e-01" nType="-99"/>
          <Node pos="r" depth="2" NCoef="0" IVar="-1" Cut="0.0000000000000000e+00" cType="1" res="1.4380899956449866e-03" rms="4.7184866666793823e-01" purity="4.9817994236946106e-01" nType="-99"/>
        </Node>
        <Node pos="r" depth="1" NCoef="0" IVar="0" Cut="1.4046536386013031e-01" cType="1" res="2.9657201841473579e-02" rms="4.5167472958564758e-01" purity="5.7972645759582520e-01" nType="0">
          <Node pos="l" depth="2" NCoef="0" IVar="-1" Cut="0.0000000000000000e+00" cType="1" res="-1.7069611203623936e-05" rms="4.6292772889137268e-01" purity="4.8590210080146790e-01" nType="-99"/>
          <Node pos="r" depth="2" NCoef="0" IVar="-1" Cut="0.0000000000000000e+00" cType="1" res="2.6477586943656206e-03" rms="4.3847757577896118e-01" purity="6.7101943492889404e-01" nType="-99"/>
        </Node>
      </Node>
    </BinaryTree>
    <BinaryTree type="DecisionTree" boostWeight="1.0000000000000000e+00" itree="160">
      <Node pos="s" depth="0" NCoef="0" IVar="2" Cut="8.1967145204544067e-01" cType="1" res="7.1266753366217017e-05" rms="4.5472133159637451e-01" purity="4.9934506416320801e-01" nType="0">
        <Node pos="l" depth="1" NCoef="0" IVar="5" Cut="8.6050964355468750e+02" cType="1" res="-5.2751775830984116e-02" rms="4.4746464490890503e-01" purity="3.4003353118896484e-01" nType="0">
          <Node pos="l" depth="2" NCoef="0" IVar="-1" Cut="0.0000000000000000e+00" cType="1" res="-3.3638929016888142e-03" rms="4.3577188253402710e-01" purity="3.0438482761383057e-01" nType="-99"/>
          <Node pos="r" depth="2" NCoef="0" IVar="-1" Cut="0.0000000000000000e+00" cType="1" res="-5.1371334848226979e-05" rms="4.7373065352439880e-01" purity="4.3614459037780762e-01" nType="-99"/>
        </Node>
        <Node pos="r" depth="1" NCoef="0" IVar="0" Cut="1.2631566822528839e-01" cType="1" res="1.8706947565078735e-02" rms="4.5579549670219421e-01" purity="5.5554932355880737e-01" nType="0">
          <Node pos="l" depth="2" NCoef="0" IVar="-1" Cut="0.0000000000000000e+00" cType="1" res="-6.7706708796322346e-04" rms="4.6372285485267639e-01" purity="4.5374679565429688e-01" nType="-99"/>
          <Node pos="r" depth="2" NCoef="0" IVar="-1" Cut="0.0000000000000000e+00" cType="1" res="2.1050660870969296e-03" rms="4.4700860977172852e-01" purity="6.4132118225097656e-01" nType="-99"/>
        </Node>
      </Node>
    </BinaryTree>
    <BinaryTree type="DecisionTree" boostWeight="1.0000000000000000e+00" itree="161">
      <Node pos="s" depth="0" NCoef="0" IVar="4" Cut="5.7832539081573486e-01" cType="1" res="7.2129536420106888e-04" rms="4.5574358105659485e-01" purity="4.9895235896110535e-01" nType="0">
        <Node pos="l" depth="1" NCoef="0" IVar="0" Cut="9.8023779690265656e-02" cType="1" res="-5.0144866108894348e-02" rms="4.4305849075317383e-01" purity="3.3010923862457275e-01" nType="0">
          <Node pos="l" depth="2" NCoef="0" IVar="-1" Cut="0.0000000000000000e+00" cType="1" res="-4.5029367320239544e-03" rms="4.0249931812286377e-01" purity="2.1719710528850555e-01" nType="-99"/>
          <Node pos="r" depth="2" NCoef="0" IVar="-1" Cut="0.0000000000000000e+00" cType="1" res="-1.0694526135921478e-03" rms="4.6609920263290405e-01" purity="4.0462112426757812e-01" nType="-99"/>
        </Node>
        <Node pos="r" depth="1" NCoef="0" IVar="1" Cut="1.5938010215759277e+00" cType="1" res="1.8699347972869873e-02" rms="4.5879650115966797e-01" purity="5.5862802267074585e-01" nType="0">
          <Node pos="l" depth="2" NCoef="0" IVar="-1" Cut="0.0000000000000000e+00" cType="1" res="1.2450329959392548e-03" rms="4.5993548631668091e-01" purity="5.8498030900955200e-01" nType="-99"/>
          <Node pos="r" depth="2" NCoef="0" IVar="-1" Cut="0.0000000000000000e+00" cType="1" res="-2.9373068828135729e-03" rms="4.4039592146873474e-01" purity="3.3152851462364197e-01" nType="-99"/>
        </Node>
      </Node>
    </BinaryTree>
    <BinaryTree type="DecisionTree" boostWeight="1.0000000000000000e+00" itree="162">
      <Node pos="s" depth="0" NCoef="0" IVar="0" Cut="3.1020301580429077e-01" cType="1" res="2.2908365353941917e-03" rms="4.5400938391685486e-01" purity="5.0039768218994141e-01" nType="0">
        <Node pos="l" depth="1" NCoef="0" IVar="1" Cut="1.3626909255981445e+00" cType="1" res="-1.3289039023220539e-02" rms="4.5662185549736023e-01" purity="4.5536959171295166e-01" nType="0">
          <Node pos="l" depth="2" NCoef="0" IVar="-1" Cut="0.0000000000000000e+00" cType="1" res="2.1280907094478607e-04" rms="4.6486532688140869e-01" purity="5.1239848136901855e-01" nType="-99"/>
          <Node pos="r" depth="2" NCoef="0" IVar="-1" Cut="0.0000000000000000e+00" cType="1" res="-2.9298288282006979e-03" rms="4.3045446276664734e-01" purity="3.0481681227684021e-01" nType="-99"/>
        </Node>
        <Node pos="r" depth="1" NCoef="0" IVar="2" Cut="9.6395504474639893e-01" cType="1" res="6.3232935965061188e-02" rms="4.3835544586181641e-01" purity="6.7652946710586548e-01" nType="0">
          <Node pos="l" depth="2" NCoef="0" IVar="-1" Cut="0.0000000000000000e+00" cType="1" res="1.7151407664641738e-03" rms="4.5884928107261658e-01" purity="6.1938655376434326e-01" nType="-99"/>
          <Node pos="r" depth="2" NCoef="0" IVar="-1" Cut="0.0000000000000000e+00" cType="1" res="4.7071939334273338e-03" rms="4.0046444535255432e-01" purity="7.6802724599838257e-01" nType="-99"/>
        </Node>
      </Node>
    </BinaryTree>
    <BinaryTree type="DecisionTree" boostWeight="1.0000000000000000e+00" itree="163">
      <Node pos="s" depth="0" NCoef="0" IVar="2" Cut="8.1965655088424683e-01" cType="1" res="4.0972908027470112e-03" rms="4.5298552513122559e-01" purity="5.0433021783828735e-01" nType="0">
        <Node pos="l" depth="1" NCoef="0" IVar="0" Cut="2.9604408144950867e-01" cType="1" res="-4.9861889332532883e-02" rms="4.4286948442459106e-01" purity="3.4149375557899475e-01" nType="0">
          <Node pos="l" depth="2" NCoef="0" IVar="-1" Cut="0.0000000000000000e+00" cType="1" res="-3.1959062907844782e-03" rms="4.3283358216285706e-01" purity="2.9017791152000427e-01" nType="-99"/>
          <Node pos="r" depth="2" NCoef="0" IVar="-1" Cut="0.0000000000000000e+00" cType="1" res="7.4537820182740688e-04" rms="4.7325590252876282e-01" purity="5.3775203227996826e-01" nType="-99"/>
        </Node>
        <Node pos="r" depth="1" NCoef="0" IVar="5" Cut="5.4673919677734375e+02" cType="1" res="2.2591268643736839e-02" rms="4.5493078231811523e-01" purity="5.6014078855514526e-01" nType="0">
          <Node pos="l" depth="2" NCoef="0" IVar="-1" Cut="0.0000000000000000e+00" cType="1" res="-1.1819744249805808e-03" rms="4.5409646630287170e-01" purity="4.6774819493293762e-01" nType="-99"/>
          <Node pos="r" depth="2" NCoef="0" IVar="-1" Cut="0.0000000000000000e+00" cType="1" res="1.6986684640869498e-03" rms="4.5407554507255554e-01" purity="5.9006154537200928e-01" nType="-99"/>
        </Node>
      </Node>
    </BinaryTree>
    <BinaryTree type="DecisionTree" boostWeight="1.0000000000000000e+00" itree="164">
      <Node pos="s" depth="0" NCoef="0" IVar="0" Cut="3.6678570508956909e-01" cType="1" res="-1.4576206449419260e-03" rms="4.5369595289230347e-01" purity="4.9548560380935669e-01" nType="0">
        <Node pos="l" depth="1" NCoef="0" IVar="4" Cut="9.0298128128051758e-01" cType="1" res="-1.3032145798206329e-02" rms="4.5561653375625610e-01" purity="4.6522781252861023e-01" nType="0">
          <Node pos="l" depth="2" NCoef="0" IVar="-1" Cut="0.0000000000000000e+00" cType="1" res="-1.1766781099140644e-03" rms="4.5928487181663513e-01" purity="4.2059227824211121e-01" nType="-99"/>
          <Node pos="r" depth="2" NCoef="0" IVar="-1" Cut="0.0000000000000000e+00" cType="1" res="2.8489702381193638e-03" rms="4.2602539062500000e-01" purity="7.2229409217834473e-01" nType="-99"/>
        </Node>
        <Node pos="r" depth="1" NCoef="0" IVar="1" Cut="1.1140067577362061e+00" cType="1" res="7.3605000972747803e-02" rms="4.3360236287117004e-01" purity="6.9171178340911865e-01" nType="0">
          <Node pos="l" depth="2" NCoef="0" IVar="-1" Cut="0.0000000000000000e+00" cType="1" res="4.5865611173212528e-03" rms="4.0098556876182556e-01" purity="7.8572696447372437e-01" nType="-99"/>
          <Node pos="r" depth="2" NCoef="0" IVar="-1" Cut="0.0000000000000000e+00" cType="1" res="1.9446290098130703e-03" rms="4.6553149819374084e-01" purity="5.8742272853851318e-01" nType="-99"/>
        </Node>
      </Node>
    </BinaryTree>
    <BinaryTree type="DecisionTree" boostWeight="1.0000000000000000e+00" itree="165">
      <Node pos="s" depth="0" NCoef="0" IVar="2" Cut="8.5608208179473877e-01" cType="1" res="8.7864481611177325e-04" rms="4.5313912630081177e-01" purity="4.9877467751502991e-01" nType="0">
        <Node pos="l" depth="1" NCoef="0" IVar="5" Cut="5.2302905273437500e+02" cType="1" res="-4.1094917804002762e-02" rms="4.4878536462783813e-01" purity="3.6055627465248108e-01" nType="0">
          <Node pos="l" depth="2" NCoef="0" IVar="-1" Cut="0.0000000000000000e+00" cType="1" res="-5.4991124197840691e-03" rms="3.9986145496368408e-01" purity="2.3991121351718903e-01" nType="-99"/>
          <Node pos="r" depth="2" NCoef="0" IVar="-1" Cut="0.0000000000000000e+00" cType="1" res="-1.0407409863546491e-03" rms="4.5860910415649414e-01" purity="3.9114275574684143e-01" nType="-99"/>
        </Node>
        <Node pos="r" depth="1" NCoef="0" IVar="0" Cut="1.6875369846820831e-01" cType="1" res="2.0922673866152763e-02" rms="4.5383608341217041e-01" purity="5.6477946043014526e-01" nType="0">
          <Node pos="l" depth="2" NCoef="0" IVar="-1" Cut="0.0000000000000000e+00" cType="1" res="-2.5687183369882405e-04" rms="4.6448913216590881e-01" purity="4.7934532165527344e-01" nType="-99"/>
          <Node pos="r" depth="2" NCoef="0" IVar="-1" Cut="0.0000000000000000e+00" cType="1" res="2.4582785554230213e-03" rms="4.3770641088485718e-01" purity="6.7254960536956787e-01" nType="-99"/>
        </Node>
      </Node>
    </BinaryTree>
    <BinaryTree type="DecisionTree" boostWeight="1.0000000000000000e+00" itree="166">
      <Node pos="s" depth="0" NCoef="0" IVar="8" Cut="2.7114708423614502e+00" cType="1" res="2.1615785080939531e-03" rms="4.5294067263603210e-01" purity="5.0089871883392334e-01" nType="0">
        <Node pos="l" depth="1" NCoef="0" IVar="4" Cut="9.0308797359466553e-01" cType="1" res="1.3205631636083126e-02" rms="4.5716339349746704e-01" purity="5.3341472148895264e-01" nType="0">
          <Node pos="l" depth="2" NCoef="0" IVar="-1" Cut="0.0000000000000000e+00" cType="1" res="-1.4410871699510608e-05" rms="4.6518579125404358e-01" purity="4.8715221881866455e-01" nType="-99"/>
          <Node pos="r" depth="2" NCoef="0" IVar="-1" Cut="0.0000000000000000e+00" cType="1" res="3.9252149872481823e-03" rms="4.0523684024810791e-01" purity="7.7592790126800537e-01" nType="-99"/>
        </Node>
        <Node pos="r" depth="1" NCoef="0" IVar="8" Cut="2.9081745147705078e+00" cType="1" res="-8.4560178220272064e-02" rms="4.0804314613342285e-01" purity="2.4557141959667206e-01" nType="0">
          <Node pos="l" depth="2" NCoef="0" IVar="-1" Cut="0.0000000000000000e+00" cType="1" res="-2.7305949479341507e-03" rms="4.3444961309432983e-01" purity="2.9853624105453491e-01" nType="-99"/>
          <Node pos="r" depth="2" NCoef="0" IVar="-1" Cut="0.0000000000000000e+00" cType="1" res="-5.6659094989299774e-03" rms="3.8102179765701294e-01" purity="1.9792628288269043e-01" nType="-99"/>
        </Node>
      </Node>
    </BinaryTree>
    <BinaryTree type="DecisionTree" boostWeight="1.0000000000000000e+00" itree="167">
      <Node pos="s" depth="0" NCoef="0" IVar="8" Cut="2.7609493732452393e+00" cType="1" res="-7.6739333962905221e-06" rms="4.5350977778434753e-01" purity="4.9746608734130859e-01" nType="0">
        <Node pos="l" depth="1" NCoef="0" IVar="5" Cut="6.1553808593750000e+02" cType="1" res="9.2530138790607452e-03" rms="4.5777356624603271e-01" purity="5.2580964565277100e-01" nType="0">
          <Node pos="l" depth="2" NCoef="0" IVar="-1" Cut="0.0000000000000000e+00" cType="1" res="-1.2264797696843743e-03" rms="4.5474290847778320e-01" purity="4.5721638202667236e-01" nType="-99"/>
          <Node pos="r" depth="2" NCoef="0" IVar="-1" Cut="0.0000000000000000e+00" cType="1" res="1.3791430974379182e-03" rms="4.5819640159606934e-01" purity="5.6736999750137329e-01" nType="-99"/>
        </Node>
        <Node pos="r" depth="1" NCoef="0" IVar="-1" Cut="0.0000000000000000e+00" cType="1" res="-4.2805834673345089e-03" rms="4.0233114361763000e-01" purity="2.3667268455028534e-01" nType="-99"/>
      </Node>
    </BinaryTree>
    <BinaryTree type="DecisionTree" boostWeight="1.0000000000000000e+00" itree="168">
      <Node pos="s" depth="0" NCoef="0" IVar="0" Cut="1.6874985396862030e-01" cType="1" res="3.7414368707686663e-03" rms="4.5356497168540955e-01" purity="5.0251978635787964e-01" nType="0">
        <Node pos="l" depth="1" NCoef="0" IVar="1" Cut="6.8710774183273315e-01" cType="1" res="-2.1361019462347031e-02" rms="4.5502218604087830e-01" purity="4.1669732332229614e-01" nType="0">
          <Node pos="l" depth="2" NCoef="0" IVar="-1" Cut="0.0000000000000000e+00" cType="1" res="2.5169812142848969e-03" rms="4.5870071649551392e-01" purity="5.9069430828094482e-01" nType="-99"/>
          <Node pos="r" depth="2" NCoef="0" IVar="-1" Cut="0.0000000000000000e+00" cType="1" res="-1.4117280952632427e-03" rms="4.5364943146705627e-01" purity="3.9605489373207092e-01" nType="-99"/>
        </Node>
        <Node pos="r" depth="1" NCoef="0" IVar="3" Cut="2.1525971889495850e+00" cType="1" res="3.7173192948102951e-02" rms="4.4944512844085693e-01" purity="6.1681920289993286e-01" nType="0">
          <Node pos="l" depth="2" NCoef="0" IVar="-1" Cut="0.0000000000000000e+00" cType="1" res="2.1460985299199820e-03" rms="4.4714045524597168e-01" purity="6.4419674873352051e-01" nType="-99"/>
          <Node pos="r" depth="2" NCoef="0" IVar="-1" Cut="0.0000000000000000e+00" cType="1" res="-1.9278945401310921e-03" rms="4.5780831575393677e-01" purity="4.1850742697715759e-01" nType="-99"/>
        </Node>
      </Node>
    </BinaryTree>
    <BinaryTree type="DecisionTree" boostWeight="1.0000000000000000e+00" itree="169">
      <Node pos="s" depth="0" NCoef="0" IVar="2" Cut="8.7995266914367676e-01" cType="1" res="1.3550386065617204e-03" rms="4.5229229331016541e-01" purity="5.0007247924804688e-01" nType="0">
        <Node pos="l" depth="1" NCoef="0" IVar="5" Cut="6.4868035888671875e+02" cType="1" res="-3.6711841821670532e-02" rms="4.5023250579833984e-01" purity="3.7502974271774292e-01" nType="0">
          <Node pos="l" depth="2" NCoef="0" IVar="-1" Cut="0.0000000000000000e+00" cType="1" res="-3.4976718015968800e-03" rms="4.3026253581047058e-01" purity="3.0462896823883057e-01" nType="-99"/>
          <Node pos="r" depth="2" NCoef="0" IVar="-1" Cut="0.0000000000000000e+00" cType="1" res="-2.9108571470715106e-04" rms="4.6361967921257019e-01" purity="4.3214923143386841e-01" nType="-99"/>
        </Node>
        <Node pos="r" depth="1" NCoef="0" IVar="6" Cut="1.7352293729782104e+00" cType="1" res="2.3783406242728233e-02" rms="4.5200309157371521e-01" purity="5.7374560832977295e-01" nType="0">
          <Node pos="l" depth="2" NCoef="0" IVar="-1" Cut="0.0000000000000000e+00" cType="1" res="1.5026185428723693e-03" rms="4.5337891578674316e-01" purity="6.0529458522796631e-01" nType="-99"/>
          <Node pos="r" depth="2" NCoef="0" IVar="-1" Cut="0.0000000000000000e+00" cType="1" res="-3.2893544994294643e-03" rms="4.2803716659545898e-01" purity="2.8261250257492065e-01" nType="-99"/>
        </Node>
      </Node>
    </BinaryTree>
    <BinaryTree type="DecisionTree" boostWeight="1.0000000000000000e+00" itree="170">
      <Node pos="s" depth="0" NCoef="0" IVar="4" Cut="6.0237085819244385e-01" cType="1" res="-1.9570949953049421e-03" rms="4.5247480273246765e-01" purity="4.9732232093811035e-01" nType="0">
        <Node pos="l" depth="1" NCoef="0" IVar="5" Cut="8.3288232421875000e+02" cType="1" res="-4.4224563986063004e-02" rms="4.4405150413513184e-01" purity="3.3704608678817749e-01" nType="0">
          <Node pos="l" depth="2" NCoef="0" IVar="-1" Cut="0.0000000000000000e+00" cType="1" res="-2.9758235905319452e-03" rms="4.3183359503746033e-01" purity="3.0307379364967346e-01" nType="-99"/>
          <Node pos="r" depth="2" NCoef="0" IVar="-1" Cut="0.0000000000000000e+00" cType="1" res="1.8598420138005167e-04" rms="4.7109910845756531e-01" purity="4.2590853571891785e-01" nType="-99"/>
        </Node>
        <Node pos="r" depth="1" NCoef="0" IVar="6" Cut="8.3144146203994751e-01" cType="1" res="1.8339827656745911e-02" rms="4.5507135987281799e-01" purity="5.7428729534149170e-01" nType="0">
          <Node pos="l" depth="2" NCoef="0" IVar="-1" Cut="0.0000000000000000e+00" cType="1" res="2.3014163598418236e-03" rms="4.4258421659469604e-01" purity="6.7379635572433472e-01" nType="-99"/>
          <Node pos="r" depth="2" NCoef="0" IVar="-1" Cut="0.0000000000000000e+00" cType="1" res="-3.1111386488191783e-04" rms="4.6281516551971436e-01" purity="4.9800625443458557e-01" nType="-99"/>
        </Node>
      </Node>
    </BinaryTree>
    <BinaryTree type="DecisionTree" boostWeight="1.0000000000000000e+00" itree="171">
      <Node pos="s" depth="0" NCoef="0" IVar="0" Cut="3.8092947006225586e-01" cType="1" res="2.6268898509442806e-03" rms="4.5363384485244751e-01" purity="5.0112605094909668e-01" nType="0">
        <Node pos="l" depth="1" NCoef="0" IVar="1" Cut="8.2557654380798340e-01" cType="1" res="-8.2486812025308609e-03" rms="4.5625108480453491e-01" purity="4.7320085763931274e-01" nType="0">
          <Node pos="l" depth="2" NCoef="0" IVar="-1" Cut="0.0000000000000000e+00" cType="1" res="2.1446512546390295e-03" rms="4.5168793201446533e-01" purity="6.2881439924240112e-01" nType="-99"/>
          <Node pos="r" depth="2" NCoef="0" IVar="-1" Cut="0.0000000000000000e+00" cType="1" res="-1.0453200666233897e-03" rms="4.5627087354660034e-01" purity="4.3275243043899536e-01" nType="-99"/>
        </Node>
        <Node pos="r" depth="1" NCoef="0" IVar="5" Cut="6.7020410156250000e+02" cType="1" res="8.5120879113674164e-02" rms="4.2428526282310486e-01" purity="7.1294617652893066e-01" nType="0">
          <Node pos="l" depth="2" NCoef="0" IVar="-1" Cut="0.0000000000000000e+00" cType="1" res="2.6689595542848110e-03" rms="4.3389576673507690e-01" purity="6.6787266731262207e-01" nType="-99"/>
          <Node pos="r" depth="2" NCoef="0" IVar="-1" Cut="0.0000000000000000e+00" cType="1" res="4.7139083035290241e-03" rms="4.1578865051269531e-01" purity="7.4719148874282837e-01" nType="-99"/>
        </Node>
      </Node>
    </BinaryTree>
    <BinaryTree type="DecisionTree" boostWeight="1.0000000000000000e+00" itree="172">
      <Node pos="s" depth="0" NCoef="0" IVar="2" Cut="8.6798125505447388e-01" cType="1" res="3.1044636853039265e-03" rms="4.5288309454917908e-01" purity="5.0198167562484741e-01" nType="0">
        <Node pos="l" depth="1" NCoef="0" IVar="5" Cut="8.4600799560546875e+02" cType="1" res="-3.7523869425058365e-02" rms="4.5056760311126709e-01" purity="3.6643001437187195e-01" nType="0">
          <Node pos="l" depth="2" NCoef="0" IVar="-1" Cut="0.0000000000000000e+00" cType="1" res="-2.6396741159260273e-03" rms="4.4049072265625000e-01" purity="3.3091688156127930e-01" nType="-99"/>
          <Node pos="r" depth="2" NCoef="0" IVar="-1" Cut="0.0000000000000000e+00" cType="1" res="3.9668483077548444e-04" rms="4.7115305066108704e-01" purity="4.5352402329444885e-01" nType="-99"/>
        </Node>
        <Node pos="r" depth="1" NCoef="0" IVar="8" Cut="2.2773880958557129e+00" cType="1" res="2.4869585409760475e-02" rms="4.5262101292610168e-01" purity="5.7459837198257446e-01" nType="0">
          <Node pos="l" depth="2" NCoef="0" IVar="-1" Cut="0.0000000000000000e+00" cType="1" res="2.1948353387415409e-03" rms="4.4658997654914856e-01" purity="6.4391207695007324e-01" nType="-99"/>
          <Node pos="r" depth="2" NCoef="0" IVar="-1" Cut="0.0000000000000000e+00" cType="1" res="-5.7612103410065174e-04" rms="4.5928007364273071e-01" purity="4.6705776453018188e-01" nType="-99"/>
        </Node>
      </Node>
    </BinaryTree>
    <BinaryTree type="DecisionTree" boostWeight="1.0000000000000000e+00" itree="173">
      <Node pos="s" depth="0" NCoef="0" IVar="4" Cut="5.5423700809478760e-01" cType="1" res="-5.5210321443155408e-04" rms="4.5367094874382019e-01" purity="4.9833902716636658e-01" nType="0">
        <Node pos="l" depth="1" NCoef="0" IVar="6" Cut="9.8771953582763672e-01" cType="1" res="-5.8480933308601379e-02" rms="4.3744239211082458e-01" purity="3.1610319018363953e-01" nType="0">
          <Node pos="l" depth="2" NCoef="0" IVar="-1" Cut="0.0000000000000000e+00" cType="1" res="-1.1356148170307279e-03" rms="4.6548613905906677e-01" purity="3.9600619673728943e-01" nType="-99"/>
          <Node pos="r" depth="2" NCoef="0" IVar="-1" Cut="0.0000000000000000e+00" cType="1" res="-4.5725125819444656e-03" rms="4.0456825494766235e-01" purity="2.3553952574729919e-01" nType="-99"/>
        </Node>
        <Node pos="r" depth="1" NCoef="0" IVar="6" Cut="1.5104254484176636e+00" cType="1" res="1.3320594094693661e-02" rms="4.5638194680213928e-01" purity="5.4198056459426880e-01" nType="0">
          <Node pos="l" depth="2" NCoef="0" IVar="-1" Cut="0.0000000000000000e+00" cType="1" res="1.1109845945611596e-03" rms="4.5849597454071045e-01" purity="5.8970969915390015e-01" nType="-99"/>
          <Node pos="r" depth="2" NCoef="0" IVar="-1" Cut="0.0000000000000000e+00" cType="1" res="-1.9983008969575167e-03" rms="4.4206437468528748e-01" purity="3.1732991337776184e-01" nType="-99"/>
        </Node>
      </Node>
    </BinaryTree>
    <BinaryTree type="DecisionTree" boostWeight="1.0000000000000000e+00" itree="174">
      <Node pos="s" depth="0" NCoef="0" IVar="8" Cut="2.3417799472808838e+00" cType="1" res="5.7815050240606070e-05" rms="4.5277616381645203e-01" purity="4.9960067868232727e-01" nType="0">
        <Node pos="l" depth="1" NCoef="0" IVar="0" Cut="6.9739811122417450e-02" cType="1" res="2.1051948890089989e-02" rms="4.5607423782348633e-01" purity="5.6519806385040283e-01" nType="0">
          <Node pos="l" depth="2" NCoef="0" IVar="-1" Cut="0.0000000000000000e+00" cType="1" res="-1.1372409062460065e-03" rms="4.6007078886032104e-01" purity="4.3555957078933716e-01" nType="-99"/>
          <Node pos="r" depth="2" NCoef="0" IVar="-1" Cut="0.0000000000000000e+00" cType="1" res="1.6313226660713553e-03" rms="4.5364698767662048e-01" purity="6.0878056287765503e-01" nType="-99"/>
        </Node>
        <Node pos="r" depth="1" NCoef="0" IVar="4" Cut="6.1427271366119385e-01" cType="1" res="-4.0668237954378128e-02" rms="4.4348385930061340e-01" purity="3.7234973907470703e-01" nType="0">
          <Node pos="l" depth="2" NCoef="0" IVar="-1" Cut="0.0000000000000000e+00" cType="1" res="-4.0647736750543118e-03" rms="4.0799164772033691e-01" purity="2.4062512814998627e-01" nType="-99"/>
          <Node pos="r" depth="2" NCoef="0" IVar="-1" Cut="0.0000000000000000e+00" cType="1" res="-7.4555963510647416e-04" rms="4.6215426921844482e-01" purity="4.5260074734687805e-01" nType="-99"/>
        </Node>
      </Node>
    </BinaryTree>
    <BinaryTree type="DecisionTree" boostWeight="1.0000000000000000e+00" itree="175">
      <Node pos="s" depth="0" NCoef="0" IVar="4" Cut="8.7884151935577393e-01" cType="1" res="-9.8198221530765295e-04" rms="4.5191097259521484e-01" purity="4.9782955646514893e-01" nType="0">
        <Node pos="l" depth="1" NCoef="0" IVar="5" Cut="6.2821392822265625e+02" cType="1" res="-1.5034203417599201e-02" rms="4.5755097270011902e-01" purity="4.4274786114692688e-01" nType="0">
          <Node pos="l" depth="2" NCoef="0" IVar="-1" Cut="0.0000000000000000e+00" cType="1" res="-2.4311498273164034e-03" rms="4.4393819570541382e-01" purity="3.6837947368621826e-01" nType="-99"/>
          <Node pos="r" depth="2" NCoef="0" IVar="-1" Cut="0.0000000000000000e+00" cType="1" res="4.8641220200806856e-04" rms="4.6499741077423096e-01" purity="4.9441385269165039e-01" nType="-99"/>
        </Node>
        <Node pos="r" depth="1" NCoef="0" IVar="6" Cut="8.5808145999908447e-01" cType="1" res="5.7931788265705109e-02" rms="4.2239806056022644e-01" purity="7.2875899076461792e-01" nType="0">
          <Node pos="l" depth="2" NCoef="0" IVar="-1" Cut="0.0000000000000000e+00" cType="1" res="4.3235444463789463e-03" rms="3.8020256161689758e-01" purity="8.1867611408233643e-01" nType="-99"/>
          <Node pos="r" depth="2" NCoef="0" IVar="-1" Cut="0.0000000000000000e+00" cType="1" res="1.3552352320402861e-03" rms="4.5586857199668884e-01" purity="6.4660239219665527e-01" nType="-99"/>
        </Node>
      </Node>
    </BinaryTree>
    <BinaryTree type="DecisionTree" boostWeight="1.0000000000000000e+00" itree="176">
      <Node pos="s" depth="0" NCoef="0" IVar="4" Cut="5.9029382467269897e-01" cType="1" res="2.0331197883933783e-03" rms="4.5214661955833435e-01" purity="5.0166428089141846e-01" nType="0">
        <Node pos="l" depth="1" NCoef="0" IVar="0" Cut="2.8184643387794495e-01" cType="1" res="-4.5386083424091339e-02" rms="4.4208261370658875e-01" purity="3.3029028773307800e-01" nType="0">
          <Node pos="l" depth="2" NCoef="0" IVar="-1" Cut="0.0000000000000000e+00" cType="1" res="-2.9582416173070669e-03" rms="4.3075150251388550e-01" purity="2.7708849310874939e-01" nType="-99"/>
          <Node pos="r" depth="2" NCoef="0" IVar="-1" Cut="0.0000000000000000e+00" cType="1" res="6.1287119751796126e-04" rms="4.7717368602752686e-01" purity="5.2834337949752808e-01" nType="-99"/>
        </Node>
        <Node pos="r" depth="1" NCoef="0" IVar="3" Cut="9.6967244148254395e-01" cType="1" res="2.1660439670085907e-02" rms="4.5480284094810486e-01" purity="5.7259780168533325e-01" nType="0">
          <Node pos="l" depth="2" NCoef="0" IVar="-1" Cut="0.0000000000000000e+00" cType="1" res="2.2217230871319771e-03" rms="4.4731462001800537e-01" purity="6.4121568202972412e-01" nType="-99"/>
          <Node pos="r" depth="2" NCoef="0" IVar="-1" Cut="0.0000000000000000e+00" cType="1" res="-2.8847361681982875e-04" rms="4.6042093634605408e-01" purity="5.0427055358886719e-01" nType="-99"/>
        </Node>
      </Node>
    </BinaryTree>
    <BinaryTree type="DecisionTree" boostWeight="1.0000000000000000e+00" itree="177">
      <Node pos="s" depth="0" NCoef="0" IVar="0" Cut="6.9740250706672668e-02" cType="1" res="2.0503206178545952e-03" rms="4.5360386371612549e-01" purity="5.0013351440429688e-01" nType="0">
        <Node pos="l" depth="1" NCoef="0" IVar="1" Cut="9.5423263311386108e-01" cType="1" res="-4.5526556670665741e-02" rms="4.4797557592391968e-01" purity="3.7272995710372925e-01" nType="0">
          <Node pos="l" depth="2" NCoef="0" IVar="-1" Cut="0.0000000000000000e+00" cType="1" res="-1.5682836237829179e-04" rms="4.7059562802314758e-01" purity="4.9146625399589539e-01" nType="-99"/>
          <Node pos="r" depth="2" NCoef="0" IVar="-1" Cut="0.0000000000000000e+00" cType="1" res="-3.1913735438138247e-03" rms="4.3448629975318909e-01" purity="3.1239417195320129e-01" nType="-99"/>
        </Node>
        <Node pos="r" depth="1" NCoef="0" IVar="3" Cut="1.5078908205032349e+00" cType="1" res="1.9356189295649529e-02" rms="4.5440003275871277e-01" purity="5.4647588729858398e-01" nType="0">
          <Node pos="l" depth="2" NCoef="0" IVar="-1" Cut="0.0000000000000000e+00" cType="1" res="1.6837985021993518e-03" rms="4.5283862948417664e-01" purity="5.9500354528427124e-01" nType="-99"/>
          <Node pos="r" depth="2" NCoef="0" IVar="-1" Cut="0.0000000000000000e+00" cType="1" res="-1.2644861126318574e-03" rms="4.5502355694770813e-01" purity="4.2158460617065430e-01" nType="-99"/>
        </Node>
      </Node>
    </BinaryTree>
    <BinaryTree type="DecisionTree" boostWeight="1.0000000000000000e+00" itree="178">
      <Node pos="s" depth="0" NCoef="0" IVar="6" Cut="1.1316165924072266e+00" cType="1" res="2.5049087707884610e-04" rms="4.5194748044013977e-01" purity="4.9970692396163940e-01" nType="0">
        <Node pos="l" depth="1" NCoef="0" IVar="5" Cut="5.4860412597656250e+02" cType="1" res="2.2424478083848953e-02" rms="4.5518714189529419e-01" purity="5.7948726415634155e-01" nType="0">
          <Node pos="l" depth="2" NCoef="0" IVar="-1" Cut="0.0000000000000000e+00" cType="1" res="-1.3048883993178606e-03" rms="4.5506858825683594e-01" purity="4.8531463742256165e-01" nType="-99"/>
          <Node pos="r" depth="2" NCoef="0" IVar="-1" Cut="0.0000000000000000e+00" cType="1" res="1.6598644433543086e-03" rms="4.5412388443946838e-01" purity="6.0713112354278564e-01" nType="-99"/>
        </Node>
        <Node pos="r" depth="1" NCoef="0" IVar="6" Cut="1.8537927865982056e+00" cType="1" res="-3.8055341690778732e-02" rms="4.4369241595268250e-01" purity="3.6188524961471558e-01" nType="0">
          <Node pos="l" depth="2" NCoef="0" IVar="-1" Cut="0.0000000000000000e+00" cType="1" res="-1.0338817955926061e-03" rms="4.5689052343368530e-01" purity="4.0505981445312500e-01" nType="-99"/>
          <Node pos="r" depth="2" NCoef="0" IVar="-1" Cut="0.0000000000000000e+00" cType="1" res="-4.9613467417657375e-03" rms="3.8604623079299927e-01" purity="2.0279014110565186e-01" nType="-99"/>
        </Node>
      </Node>
    </BinaryTree>
    <BinaryTree type="DecisionTree" boostWeight="1.0000000000000000e+00" itree="179">
      <Node pos="s" depth="0" NCoef="0" IVar="3" Cut="8.3406651020050049e-01" cType="1" res="-3.0893790535628796e-03" rms="4.5209896564483643e-01" purity="4.9634155631065369e-01" nType="0">
        <Node pos="l" depth="1" NCoef="0" IVar="0" Cut="2.1115463972091675e-01" cType="1" res="3.0660757794976234e-02" rms="4.5206308364868164e-01" purity="5.7721400260925293e-01" nType="0">
          <Node pos="l" depth="2" NCoef="0" IVar="-1" Cut="0.0000000000000000e+00" cType="1" res="4.2450038017705083e-04" rms="4.6315416693687439e-01" purity="4.9974974989891052e-01" nType="-99"/>
          <Node pos="r" depth="2" NCoef="0" IVar="-1" Cut="0.0000000000000000e+00" cType="1" res="3.0575897544622421e-03" rms="4.2976945638656616e-01" purity="7.1124130487442017e-01" nType="-99"/>
        </Node>
        <Node pos="r" depth="1" NCoef="0" IVar="4" Cut="9.1491216421127319e-01" cType="1" res="-2.7044979855418205e-02" rms="4.5059305429458618e-01" purity="4.3893888592720032e-01" nType="0">
          <Node pos="l" depth="2" NCoef="0" IVar="-1" Cut="0.0000000000000000e+00" cType="1" res="-1.8011697102338076e-03" rms="4.5120358467102051e-01" purity="3.9806222915649414e-01" nType="-99"/>
          <Node pos="r" depth="2" NCoef="0" IVar="-1" Cut="0.0000000000000000e+00" cType="1" res="2.3548707831650972e-03" rms="4.3847957253456116e-01" purity="7.0267426967620850e-01" nType="-99"/>
        </Node>
      </Node>
    </BinaryTree>
    <BinaryTree type="DecisionTree" boostWeight="1.0000000000000000e+00" itree="180">
      <Node pos="s" depth="0" NCoef="0" IVar="1" Cut="8.1853538751602173e-01" cType="1" res="2.2022954362910241e-04" rms="4.5357680320739746e-01" purity="4.9788904190063477e-01" nType="0">
        <Node pos="l" depth="1" NCoef="0" IVar="0" Cut="8.3874963223934174e-02" cType="1" res="5.0210561603307724e-02" rms="4.4373711943626404e-01" purity="6.5132558345794678e-01" nType="0">
          <Node pos="l" depth="2" NCoef="0" IVar="-1" Cut="0.0000000000000000e+00" cType="1" res="3.5557098453864455e-04" rms="4.6682652831077576e-01" purity="5.1797568798065186e-01" nType="-99"/>
          <Node pos="r" depth="2" NCoef="0" IVar="-1" Cut="0.0000000000000000e+00" cType="1" res="3.1864854972809553e-03" rms="4.3116822838783264e-01" purity="7.1343898773193359e-01" nType="-99"/>
        </Node>
        <Node pos="r" depth="1" NCoef="0" IVar="2" Cut="7.6024401187896729e-01" cType="1" res="-1.2887074612081051e-02" rms="4.5521411299705505e-01" purity="4.5765849947929382e-01" nType="0">
          <Node pos="l" depth="2" NCoef="0" IVar="-1" Cut="0.0000000000000000e+00" cType="1" res="-3.4126434475183487e-03" rms="4.2476803064346313e-01" purity="2.7919501066207886e-01" nType="-99"/>
          <Node pos="r" depth="2" NCoef="0" IVar="-1" Cut="0.0000000000000000e+00" cType="1" res="4.8736928874859586e-06" rms="4.6082046627998352e-01" purity="4.9797254800796509e-01" nType="-99"/>
        </Node>
      </Node>
    </BinaryTree>
    <BinaryTree type="DecisionTree" boostWeight="1.0000000000000000e+00" itree="181">
      <Node pos="s" depth="0" NCoef="0" IVar="1" Cut="8.5958462953567505e-01" cType="1" res="1.4444204280152917e-03" rms="4.5338132977485657e-01" purity="4.9957090616226196e-01" nType="0">
        <Node pos="l" depth="1" NCoef="0" IVar="5" Cut="5.9750323486328125e+02" cType="1" res="5.0296019762754440e-02" rms="4.4563868641853333e-01" purity="6.4878737926483154e-01" nType="0">
          <Node pos="l" depth="2" NCoef="0" IVar="-1" Cut="0.0000000000000000e+00" cType="1" res="3.9351021405309439e-04" rms="4.5809432864189148e-01" purity="5.7725787162780762e-01" nType="-99"/>
          <Node pos="r" depth="2" NCoef="0" IVar="-1" Cut="0.0000000000000000e+00" cType="1" res="3.1515399459749460e-03" rms="4.3807414174079895e-01" purity="6.8340486288070679e-01" nType="-99"/>
        </Node>
        <Node pos="r" depth="1" NCoef="0" IVar="0" Cut="3.3848121762275696e-01" cType="1" res="-1.4234452508389950e-02" rms="4.5472729206085205e-01" purity="4.5168003439903259e-01" nType="0">
          <Node pos="l" depth="2" NCoef="0" IVar="-1" Cut="0.0000000000000000e+00" cType="1" res="-1.2336263898760080e-03" rms="4.5430231094360352e-01" purity="4.1542598605155945e-01" nType="-99"/>
          <Node pos="r" depth="2" NCoef="0" IVar="-1" Cut="0.0000000000000000e+00" cType="1" res="2.2428827360272408e-03" rms="4.5127668976783752e-01" purity="6.3888609409332275e-01" nType="-99"/>
        </Node>
      </Node>
    </BinaryTree>
    <BinaryTree type="DecisionTree" boostWeight="1.0000000000000000e+00" itree="182">
      <Node pos="s" depth="0" NCoef="0" IVar="2" Cut="8.0748909711837769e-01" cType="1" res="2.7582880575209856e-03" rms="4.5243862271308899e-01" purity="5.0261050462722778e-01" nType="0">
        <Node pos="l" depth="1" NCoef="0" IVar="5" Cut="6.6858728027343750e+02" cType="1" res="-4.5452028512954712e-02" rms="4.4129344820976257e-01" purity="3.3399209380149841e-01" nType="0">
          <Node pos="l" depth="2" NCoef="0" IVar="-1" Cut="0.0000000000000000e+00" cType="1" res="-3.7183284293860197e-03" rms="4.1646233201026917e-01" purity="2.6963663101196289e-01" nType="-99"/>
          <Node pos="r" depth="2" NCoef="0" IVar="-1" Cut="0.0000000000000000e+00" cType="1" res="-7.9753133468329906e-04" rms="4.6101924777030945e-01" purity="3.9265054464340210e-01" nType="-99"/>
        </Node>
        <Node pos="r" depth="1" NCoef="0" IVar="3" Cut="2.4176340103149414e+00" cType="1" res="1.7793009057641029e-02" rms="4.5481443405151367e-01" purity="5.5519533157348633e-01" nType="0">
          <Node pos="l" depth="2" NCoef="0" IVar="-1" Cut="0.0000000000000000e+00" cType="1" res="1.1589457280933857e-03" rms="4.5537072420120239e-01" purity="5.7514864206314087e-01" nType="-99"/>
          <Node pos="r" depth="2" NCoef="0" IVar="-1" Cut="0.0000000000000000e+00" cType="1" res="-3.1402986496686935e-03" rms="4.4000554084777832e-01" purity="3.4559112787246704e-01" nType="-99"/>
        </Node>
      </Node>
    </BinaryTree>
    <BinaryTree type="DecisionTree" boostWeight="1.0000000000000000e+00" itree="183">
      <Node pos="s" depth="0" NCoef="0" IVar="4" Cut="8.3083719015121460e-01" cType="1" res="2.1981883328408003e-03" rms="4.5241883397102356e-01" purity="5.0055414438247681e-01" nType="0">
        <Node pos="l" depth="1" NCoef="0" IVar="5" Cut="4.5667633056640625e+02" cType="1" res="-1.3013208284974098e-02" rms="4.5840981602668762e-01" purity="4.2710295319557190e-01" nType="0">
          <Node pos="l" depth="2" NCoef="0" IVar="-1" Cut="0.0000000000000000e+00" cType="1" res="-4.8891780897974968e-03" rms="4.1645699739456177e-01" purity="2.7652809023857117e-01" nType="-99"/>
          <Node pos="r" depth="2" NCoef="0" IVar="-1" Cut="0.0000000000000000e+00" cType="1" res="-1.9653727940749377e-04" rms="4.6137443184852600e-01" purity="4.4173973798751831e-01" nType="-99"/>
        </Node>
        <Node pos="r" depth="1" NCoef="0" IVar="1" Cut="8.5242205858230591e-01" cType="1" res="4.4966652989387512e-02" rms="4.3227398395538330e-01" purity="7.0706993341445923e-01" nType="0">
          <Node pos="l" depth="2" NCoef="0" IVar="-1" Cut="0.0000000000000000e+00" cType="1" res="4.4078188948333263e-03" rms="3.7166395783424377e-01" purity="8.3008313179016113e-01" nType="-99"/>
          <Node pos="r" depth="2" NCoef="0" IVar="-1" Cut="0.0000000000000000e+00" cType="1" res="1.2946990318596363e-03" rms="4.5243275165557861e-01" purity="6.5974467992782593e-01" nType="-99"/>
        </Node>
      </Node>
    </BinaryTree>
    <BinaryTree type="DecisionTree" boostWeight="1.0000000000000000e+00" itree="184">
      <Node pos="s" depth="0" NCoef="0" IVar="0" Cut="2.8191316127777100e-01" cType="1" res="1.3826168142259121e-03" rms="4.5228159427642822e-01" purity="5.0012230873107910e-01" nType="0">
        <Node pos="l" depth="1" NCoef="0" IVar="1" Cut="8.9777469635009766e-01" cType="1" res="-1.3323138467967510e-02" rms="4.5493584871292114e-01" purity="4.4764459133148193e-01" nType="0">
          <Node pos="l" depth="2" NCoef="0" IVar="-1" Cut="0.0000000000000000e+00" cType="1" res="1.2828774051740766e-03" rms="4.6227622032165527e-01" purity="5.8842408657073975e-01" nType="-99"/>
          <Node pos="r" depth="2" NCoef="0" IVar="-1" Cut="0.0000000000000000e+00" cType="1" res="-1.3498456683009863e-03" rms="4.5113289356231689e-01" purity="3.9512932300567627e-01" nType="-99"/>
        </Node>
        <Node pos="r" depth="1" NCoef="0" IVar="2" Cut="8.6775255203247070e-01" cType="1" res="4.7458525747060776e-02" rms="4.4069644808769226e-01" purity="6.6454476118087769e-01" nType="0">
          <Node pos="l" depth="2" NCoef="0" IVar="-1" Cut="0.0000000000000000e+00" cType="1" res="2.1809739700984210e-04" rms="4.7118225693702698e-01" purity="5.3762239217758179e-01" nType="-99"/>
          <Node pos="r" depth="2" NCoef="0" IVar="-1" Cut="0.0000000000000000e+00" cType="1" res="3.1434311531484127e-03" rms="4.2394068837165833e-01" purity="7.2493612766265869e-01" nType="-99"/>
        </Node>
      </Node>
    </BinaryTree>
    <BinaryTree type="DecisionTree" boostWeight="1.0000000000000000e+00" itree="185">
      <Node pos="s" depth="0" NCoef="0" IVar="4" Cut="5.9030735492706299e-01" cType="1" res="6.1984767671674490e-04" rms="4.5144507288932800e-01" purity="5.0029540061950684e-01" nType="0">
        <Node pos="l" depth="1" NCoef="0" IVar="0" Cut="2.8191557526588440e-01" cType="1" res="-4.5062351971864700e-02" rms="4.4188219308853149e-01" purity="3.2858115434646606e-01" nType="0">
          <Node pos="l" depth="2" NCoef="0" IVar="-1" Cut="0.0000000000000000e+00" cType="1" res="-2.8876722790300846e-03" rms="4.3025222420692444e-01" purity="2.7492403984069824e-01" nType="-99"/>
          <Node pos="r" depth="2" NCoef="0" IVar="-1" Cut="0.0000000000000000e+00" cType="1" res="2.3831169528421015e-04" rms="4.7781690955162048e-01" purity="5.2082616090774536e-01" nType="-99"/>
        </Node>
        <Node pos="r" depth="1" NCoef="0" IVar="0" Cut="3.6678448319435120e-01" cType="1" res="1.9420061260461807e-02" rms="4.5398908853530884e-01" purity="5.7096332311630249e-01" nType="0">
          <Node pos="l" depth="2" NCoef="0" IVar="-1" Cut="0.0000000000000000e+00" cType="1" res="3.6499428097158670e-04" rms="4.6021714806556702e-01" purity="5.4060065746307373e-01" nType="-99"/>
          <Node pos="r" depth="2" NCoef="0" IVar="-1" Cut="0.0000000000000000e+00" cType="1" res="3.9804512634873390e-03" rms="4.0907505154609680e-01" purity="7.5032347440719604e-01" nType="-99"/>
        </Node>
      </Node>
    </BinaryTree>
    <BinaryTree type="DecisionTree" boostWeight="1.0000000000000000e+00" itree="186">
      <Node pos="s" depth="0" NCoef="0" IVar="1" Cut="1.4535290002822876e+00" cType="1" res="-2.0130947232246399e-03" rms="4.5220765471458435e-01" purity="4.9698036909103394e-01" nType="0">
        <Node pos="l" depth="1" NCoef="0" IVar="4" Cut="5.3019946813583374e-01" cType="1" res="1.1255206540226936e-02" rms="4.5682448148727417e-01" purity="5.4172796010971069e-01" nType="0">
          <Node pos="l" depth="2" NCoef="0" IVar="-1" Cut="0.0000000000000000e+00" cType="1" res="-2.7009092736989260e-03" rms="4.5205852389335632e-01" purity="3.3275380730628967e-01" nType="-99"/>
          <Node pos="r" depth="2" NCoef="0" IVar="-1" Cut="0.0000000000000000e+00" cType="1" res="9.1194669948890805e-04" rms="4.5665153861045837e-01" purity="5.6892848014831543e-01" nType="-99"/>
        </Node>
        <Node pos="r" depth="1" NCoef="0" IVar="5" Cut="8.1887475585937500e+02" cType="1" res="-5.5292062461376190e-02" rms="4.2906150221824646e-01" purity="3.1729629635810852e-01" nType="0">
          <Node pos="l" depth="2" NCoef="0" IVar="-1" Cut="0.0000000000000000e+00" cType="1" res="-3.6153346300125122e-03" rms="4.1588652133941650e-01" purity="2.8202921152114868e-01" nType="-99"/>
          <Node pos="r" depth="2" NCoef="0" IVar="-1" Cut="0.0000000000000000e+00" cType="1" res="-2.7277730987407267e-04" rms="4.5896059274673462e-01" purity="4.1196355223655701e-01" nType="-99"/>
        </Node>
      </Node>
    </BinaryTree>
    <BinaryTree type="DecisionTree" boostWeight="1.0000000000000000e+00" itree="187">
      <Node pos="s" depth="0" NCoef="0" IVar="6" Cut="1.8953485488891602e+00" cType="1" res="-2.4376814253628254e-03" rms="4.5238792896270752e-01" purity="4.9711546301841736e-01" nType="0">
        <Node pos="l" depth="1" NCoef="0" IVar="0" Cut="6.9740250706672668e-02" cType="1" res="4.8678764142096043e-03" rms="4.5644688606262207e-01" purity="5.2068263292312622e-01" nType="0">
          <Node pos="l" depth="2" NCoef="0" IVar="-1" Cut="0.0000000000000000e+00" cType="1" res="-1.6023128991946578e-03" rms="4.5302087068557739e-01" purity="3.9553582668304443e-01" nType="-99"/>
          <Node pos="r" depth="2" NCoef="0" IVar="-1" Cut="0.0000000000000000e+00" cType="1" res="8.5288874106481671e-04" rms="4.5681110024452209e-01" purity="5.6492245197296143e-01" nType="-99"/>
        </Node>
        <Node pos="r" depth="1" NCoef="0" IVar="-1" Cut="0.0000000000000000e+00" cType="1" res="-5.0276676192879677e-03" rms="3.8559657335281372e-01" purity="1.9857607781887054e-01" nType="-99"/>
      </Node>
    </BinaryTree>
    <BinaryTree type="DecisionTree" boostWeight="1.0000000000000000e+00" itree="188">
      <Node pos="s" depth="0" NCoef="0" IVar="3" Cut="1.8138288259506226e+00" cType="1" res="2.1247893164400011e-04" rms="4.5158538222312927e-01" purity="4.9892759323120117e-01" nType="0">
        <Node pos="l" depth="1" NCoef="0" IVar="2" Cut="6.7560327053070068e-01" cType="1" res="1.4796795323491096e-02" rms="4.5459076762199402e-01" purity="5.3718429803848267e-01" nType="0">
          <Node pos="l" depth="2" NCoef="0" IVar="-1" Cut="0.0000000000000000e+00" cType="1" res="-3.3898814581334591e-03" rms="4.3908575177192688e-01" purity="3.0230271816253662e-01" nType="-99"/>
          <Node pos="r" depth="2" NCoef="0" IVar="-1" Cut="0.0000000000000000e+00" cType="1" res="1.0341337183490396e-03" rms="4.5517435669898987e-01" purity="5.5952388048171997e-01" nType="-99"/>
        </Node>
        <Node pos="r" depth="1" NCoef="0" IVar="7" Cut="8.8873870670795441e-02" cType="1" res="-5.8520127087831497e-02" rms="4.3434518575668335e-01" purity="3.4486365318298340e-01" nType="0">
          <Node pos="l" depth="2" NCoef="0" IVar="-1" Cut="0.0000000000000000e+00" cType="1" res="-3.8565131835639477e-03" rms="4.2427185177803040e-01" purity="3.0774408578872681e-01" nType="-99"/>
          <Node pos="r" depth="2" NCoef="0" IVar="-1" Cut="0.0000000000000000e+00" cType="1" res="-8.7789510143920779e-04" rms="4.4958180189132690e-01" purity="4.1295319795608521e-01" nType="-99"/>
        </Node>
      </Node>
    </BinaryTree>
    <BinaryTree type="DecisionTree" boostWeight="1.0000000000000000e+00" itree="189">
      <Node pos="s" depth="0" NCoef="0" IVar="3" Cut="1.4558310508728027e+00" cType="1" res="-5.4192967945709825e-04" rms="4.5217731595039368e-01" purity="4.9781152606010437e-01" nType="0">
        <Node pos="l" depth="1" NCoef="0" IVar="5" Cut="5.3478564453125000e+02" cType="1" res="1.7705552279949188e-02" rms="4.5462483167648315e-01" purity="5.4892081022262573e-01" nType="0">
          <Node pos="l" depth="2" NCoef="0" IVar="-1" Cut="0.0000000000000000e+00" cType="1" res="-1.4765905216336250e-03" rms="4.5427268743515015e-01" purity="4.5007562637329102e-01" nType="-99"/>
          <Node pos="r" depth="2" NCoef="0" IVar="-1" Cut="0.0000000000000000e+00" cType="1" res="1.3655439252033830e-03" rms="4.5383855700492859e-01" purity="5.7419180870056152e-01" nType="-99"/>
        </Node>
        <Node pos="r" depth="1" NCoef="0" IVar="5" Cut="9.1049920654296875e+02" cType="1" res="-4.2621526867151260e-02" rms="4.4363015890121460e-01" purity="3.7995088100433350e-01" nType="0">
          <Node pos="l" depth="2" NCoef="0" IVar="-1" Cut="0.0000000000000000e+00" cType="1" res="-2.6704687625169754e-03" rms="4.3719938397407532e-01" purity="3.5638618469238281e-01" nType="-99"/>
          <Node pos="r" depth="2" NCoef="0" IVar="-1" Cut="0.0000000000000000e+00" cType="1" res="7.8705797204747796e-04" rms="4.6591523289680481e-01" purity="4.8285558819770813e-01" nType="-99"/>
        </Node>
      </Node>
    </BinaryTree>
    <BinaryTree type="DecisionTree" boostWeight="1.0000000000000000e+00" itree="190">
      <Node pos="s" depth="0" NCoef="0" IVar="6" Cut="1.7318887710571289e+00" cType="1" res="8.0124603118747473e-04" rms="4.5105904340744019e-01" purity="5.0175589323043823e-01" nType="0">
        <Node pos="l" depth="1" NCoef="0" IVar="4" Cut="5.5425423383712769e-01" cType="1" res="1.0546625591814518e-02" rms="4.5617157220840454e-01" purity="5.3540420532226562e-01" nType="0">
          <Node pos="l" depth="2" NCoef="0" IVar="-1" Cut="0.0000000000000000e+00" cType="1" res="-1.7437107162550092e-03" rms="4.5238155126571655e-01" purity="3.5273039340972900e-01" nType="-99"/>
          <Node pos="r" depth="2" NCoef="0" IVar="-1" Cut="0.0000000000000000e+00" cType="1" res="9.8953011911362410e-04" rms="4.5630732178688049e-01" purity="5.7904446125030518e-01" nType="-99"/>
        </Node>
        <Node pos="r" depth="1" NCoef="0" IVar="0" Cut="1.2631288170814514e-01" cType="1" res="-7.7373117208480835e-02" rms="3.9921760559082031e-01" purity="2.3183938860893250e-01" nType="0">
          <Node pos="l" depth="2" NCoef="0" IVar="-1" Cut="0.0000000000000000e+00" cType="1" res="-6.0623791068792343e-03" rms="3.5256034135818481e-01" purity="1.5439872443675995e-01" nType="-99"/>
          <Node pos="r" depth="2" NCoef="0" IVar="-1" Cut="0.0000000000000000e+00" cType="1" res="-2.3213853128254414e-03" rms="4.3751627206802368e-01" purity="3.0614188313484192e-01" nType="-99"/>
        </Node>
      </Node>
    </BinaryTree>
    <BinaryTree type="DecisionTree" boostWeight="1.0000000000000000e+00" itree="191">
      <Node pos="s" depth="0" NCoef="0" IVar="0" Cut="1.1217531561851501e-01" cType="1" res="2.5942747015506029e-03" rms="4.5373940467834473e-01" purity="5.0300765037536621e-01" nType="0">
        <Node pos="l" depth="1" NCoef="0" IVar="4" Cut="9.0299606323242188e-01" cType="1" res="-2.6954459026455879e-02" rms="4.5276352763175964e-01" purity="3.9748466014862061e-01" nType="0">
          <Node pos="l" depth="2" NCoef="0" IVar="-1" Cut="0.0000000000000000e+00" cType="1" res="-1.7415288602933288e-03" rms="4.5217105746269226e-01" purity="3.5300257802009583e-01" nType="-99"/>
          <Node pos="r" depth="2" NCoef="0" IVar="-1" Cut="0.0000000000000000e+00" cType="1" res="1.6025064978748560e-03" rms="4.5117843151092529e-01" purity="6.7017692327499390e-01" nType="-99"/>
        </Node>
        <Node pos="r" depth="1" NCoef="0" IVar="1" Cut="1.5752916336059570e+00" cType="1" res="2.3978821933269501e-02" rms="4.5324438810348511e-01" purity="5.7937508821487427e-01" nType="0">
          <Node pos="l" depth="2" NCoef="0" IVar="-1" Cut="0.0000000000000000e+00" cType="1" res="1.5391028719022870e-03" rms="4.5415729284286499e-01" purity="6.1212277412414551e-01" nType="-99"/>
          <Node pos="r" depth="2" NCoef="0" IVar="-1" Cut="0.0000000000000000e+00" cType="1" res="-2.3069216404110193e-03" rms="4.3966999650001526e-01" purity="3.4698072075843811e-01" nType="-99"/>
        </Node>
      </Node>
    </BinaryTree>
    <BinaryTree type="DecisionTree" boostWeight="1.0000000000000000e+00" itree="192">
      <Node pos="s" depth="0" NCoef="0" IVar="2" Cut="8.4357178211212158e-01" cType="1" res="7.4935710290446877e-04" rms="4.5207333564758301e-01" purity="4.9909472465515137e-01" nType="0">
        <Node pos="l" depth="1" NCoef="0" IVar="5" Cut="9.2768811035156250e+02" cType="1" res="-3.8622498512268066e-02" rms="4.4597253203392029e-01" purity="3.5258832573890686e-01" nType="0">
          <Node pos="l" depth="2" NCoef="0" IVar="-1" Cut="0.0000000000000000e+00" cType="1" res="-2.5707408785820007e-03" rms="4.3665850162506104e-01" purity="3.2235628366470337e-01" nType="-99"/>
          <Node pos="r" depth="2" NCoef="0" IVar="-1" Cut="0.0000000000000000e+00" cType="1" res="7.5054285116493702e-04" rms="4.7372949123382568e-01" purity="4.6107059717178345e-01" nType="-99"/>
        </Node>
        <Node pos="r" depth="1" NCoef="0" IVar="5" Cut="6.1553808593750000e+02" cType="1" res="1.7716649919748306e-02" rms="4.5362481474876404e-01" purity="5.6223160028457642e-01" nType="0">
          <Node pos="l" depth="2" NCoef="0" IVar="-1" Cut="0.0000000000000000e+00" cType="1" res="-7.1546412073075771e-04" rms="4.5361897349357605e-01" purity="4.9427863955497742e-01" nType="-99"/>
          <Node pos="r" depth="2" NCoef="0" IVar="-1" Cut="0.0000000000000000e+00" cType="1" res="1.7526119481772184e-03" rms="4.5233857631683350e-01" purity="6.0558187961578369e-01" nType="-99"/>
        </Node>
      </Node>
    </BinaryTree>
    <BinaryTree type="DecisionTree" boostWeight="1.0000000000000000e+00" itree="193">
      <Node pos="s" depth="0" NCoef="0" IVar="0" Cut="9.8026208579540253e-02" cType="1" res="3.1990383286029100e-04" rms="4.5371493697166443e-01" purity="4.9893775582313538e-01" nType="0">
        <Node pos="l" depth="1" NCoef="0" IVar="2" Cut="8.2031208276748657e-01" cType="1" res="-3.1042089685797691e-02" rms="4.4983696937561035e-01" purity="3.8716858625411987e-01" nType="0">
          <Node pos="l" depth="2" NCoef="0" IVar="-1" Cut="0.0000000000000000e+00" cType="1" res="-3.6612730473279953e-03" rms="4.1009828448295593e-01" purity="2.3440684378147125e-01" nType="-99"/>
          <Node pos="r" depth="2" NCoef="0" IVar="-1" Cut="0.0000000000000000e+00" cType="1" res="-7.0178660098463297e-04" rms="4.6306410431861877e-01" purity="4.4501090049743652e-01" nType="-99"/>
        </Node>
        <Node pos="r" depth="1" NCoef="0" IVar="1" Cut="1.6676855087280273e+00" cType="1" res="1.9152076914906502e-02" rms="4.5499014854431152e-01" purity="5.6605261564254761e-01" nType="0">
          <Node pos="l" depth="2" NCoef="0" IVar="-1" Cut="0.0000000000000000e+00" cType="1" res="1.1998435948044062e-03" rms="4.5638054609298706e-01" purity="5.8963125944137573e-01" nType="-99"/>
          <Node pos="r" depth="2" NCoef="0" IVar="-1" Cut="0.0000000000000000e+00" cType="1" res="-2.9810597188770771e-03" rms="4.3116283416748047e-01" purity="3.0985298752784729e-01" nType="-99"/>
        </Node>
      </Node>
    </BinaryTree>
    <BinaryTree type="DecisionTree" boostWeight="1.0000000000000000e+00" itree="194">
      <Node pos="s" depth="0" NCoef="0" IVar="1" Cut="7.7560776472091675e-01" cType="1" res="-5.2601518109440804e-04" rms="4.5303654670715332e-01" purity="4.9848854541778564e-01" nType="0">
        <Node pos="l" depth="1" NCoef="0" IVar="1" Cut="5.8284467458724976e-01" cType="1" res="5.3227674216032028e-02" rms="4.4153302907943726e-01" purity="6.6445726156234741e-01" nType="0">
          <Node pos="l" depth="2" NCoef="0" IVar="-1" Cut="0.0000000000000000e+00" cType="1" res="3.9451820775866508e-03" rms="4.2767727375030518e-01" purity="7.0842617750167847e-01" nType="-99"/>
          <Node pos="r" depth="2" NCoef="0" IVar="-1" Cut="0.0000000000000000e+00" cType="1" res="1.7097634263336658e-03" rms="4.4699880480766296e-01" purity="6.4401030540466309e-01" nType="-99"/>
        </Node>
        <Node pos="r" depth="1" NCoef="0" IVar="5" Cut="6.0269830322265625e+02" cType="1" res="-1.1546880938112736e-02" rms="4.5457464456558228e-01" purity="4.6446076035499573e-01" nType="0">
          <Node pos="l" depth="2" NCoef="0" IVar="-1" Cut="0.0000000000000000e+00" cType="1" res="-2.0816451869904995e-03" rms="4.4214612245559692e-01" purity="3.9033195376396179e-01" nType="-99"/>
          <Node pos="r" depth="2" NCoef="0" IVar="-1" Cut="0.0000000000000000e+00" cType="1" res="3.1325450981967151e-04" rms="4.6042293310165405e-01" purity="5.0637280941009521e-01" nType="-99"/>
        </Node>
      </Node>
    </BinaryTree>
    <BinaryTree type="DecisionTree" boostWeight="1.0000000000000000e+00" itree="195">
      <Node pos="s" depth="0" NCoef="0" IVar="5" Cut="5.3476428222656250e+02" cType="1" res="1.8740805098786950e-03" rms="4.5179000496864319e-01" purity="5.0055843591690063e-01" nType="0">
        <Node pos="l" depth="1" NCoef="0" IVar="4" Cut="8.3067804574966431e-01" cType="1" res="-4.7601509839296341e-02" rms="4.3893000483512878e-01" purity="3.9744839072227478e-01" nType="0">
          <Node pos="l" depth="2" NCoef="0" IVar="-1" Cut="0.0000000000000000e+00" cType="1" res="-3.1745226588100195e-03" rms="4.3180343508720398e-01" purity="3.1885114312171936e-01" nType="-99"/>
          <Node pos="r" depth="2" NCoef="0" IVar="-1" Cut="0.0000000000000000e+00" cType="1" res="4.2945463792420924e-04" rms="4.5501583814620972e-01" purity="6.3476610183715820e-01" nType="-99"/>
        </Node>
        <Node pos="r" depth="1" NCoef="0" IVar="0" Cut="3.8090127706527710e-01" cType="1" res="1.6087466850876808e-02" rms="4.5442235469818115e-01" purity="5.3017997741699219e-01" nType="0">
          <Node pos="l" depth="2" NCoef="0" IVar="-1" Cut="0.0000000000000000e+00" cType="1" res="3.0963844619691372e-04" rms="4.5817765593528748e-01" purity="5.0287067890167236e-01" nType="-99"/>
          <Node pos="r" depth="2" NCoef="0" IVar="-1" Cut="0.0000000000000000e+00" cType="1" res="3.7850833032280207e-03" rms="4.2063853144645691e-01" purity="7.2598218917846680e-01" nType="-99"/>
        </Node>
      </Node>
    </BinaryTree>
    <BinaryTree type="DecisionTree" boostWeight="1.0000000000000000e+00" itree="196">
      <Node pos="s" depth="0" NCoef="0" IVar="4" Cut="6.0236936807632446e-01" cType="1" res="2.8556114993989468e-03" rms="4.5194256305694580e-01" purity="5.0050270557403564e-01" nType="0">
        <Node pos="l" depth="1" NCoef="0" IVar="0" Cut="3.2433217763900757e-01" cType="1" res="-3.3879734575748444e-02" rms="4.4382181763648987e-01" purity="3.4039252996444702e-01" nType="0">
          <Node pos="l" depth="2" NCoef="0" IVar="-1" Cut="0.0000000000000000e+00" cType="1" res="-2.1992316469550133e-03" rms="4.3579500913619995e-01" purity="2.9884833097457886e-01" nType="-99"/>
          <Node pos="r" depth="2" NCoef="0" IVar="-1" Cut="0.0000000000000000e+00" cType="1" res="1.1012714821845293e-03" rms="4.7866302728652954e-01" purity="5.5485922098159790e-01" nType="-99"/>
        </Node>
        <Node pos="r" depth="1" NCoef="0" IVar="6" Cut="1.7339148521423340e+00" cType="1" res="2.0450344309210777e-02" rms="4.5473095774650574e-01" purity="5.7718896865844727e-01" nType="0">
          <Node pos="l" depth="2" NCoef="0" IVar="-1" Cut="0.0000000000000000e+00" cType="1" res="1.2624907540157437e-03" rms="4.5611727237701416e-01" purity="6.0852634906768799e-01" nType="-99"/>
          <Node pos="r" depth="2" NCoef="0" IVar="-1" Cut="0.0000000000000000e+00" cType="1" res="-2.4596641305834055e-03" rms="4.3538212776184082e-01" purity="2.9022186994552612e-01" nType="-99"/>
        </Node>
      </Node>
    </BinaryTree>
    <BinaryTree type="DecisionTree" boostWeight="1.0000000000000000e+00" itree="197">
      <Node pos="s" depth="0" NCoef="0" IVar="1" Cut="1.5285264253616333e+00" cType="1" res="1.1707083322107792e-03" rms="4.5146924257278442e-01" purity="5.0173056125640869e-01" nType="0">
        <Node pos="l" depth="1" NCoef="0" IVar="0" Cut="3.6677330732345581e-01" cType="1" res="1.1970481835305691e-02" rms="4.5552325248718262e-01" purity="5.3728526830673218e-01" nType="0">
          <Node pos="l" depth="2" NCoef="0" IVar="-1" Cut="0.0000000000000000e+00" cType="1" res="8.7038388301152736e-05" rms="4.6006974577903748e-01" purity="5.0595223903656006e-01" nType="-99"/>
          <Node pos="r" depth="2" NCoef="0" IVar="-1" Cut="0.0000000000000000e+00" cType="1" res="3.4766551107168198e-03" rms="4.2013335227966309e-01" purity="7.3545831441879272e-01" nType="-99"/>
        </Node>
        <Node pos="r" depth="1" NCoef="0" IVar="5" Cut="6.8623559570312500e+02" cType="1" res="-6.1547730118036270e-02" rms="4.2173472046852112e-01" purity="2.9525095224380493e-01" nType="0">
          <Node pos="l" depth="2" NCoef="0" IVar="-1" Cut="0.0000000000000000e+00" cType="1" res="-4.4977949000895023e-03" rms="3.9568009972572327e-01" purity="2.4094876646995544e-01" nType="-99"/>
          <Node pos="r" depth="2" NCoef="0" IVar="-1" Cut="0.0000000000000000e+00" cType="1" res="-1.2438637204468250e-03" rms="4.5096597075462341e-01" purity="3.6579656600952148e-01" nType="-99"/>
        </Node>
      </Node>
    </BinaryTree>
    <BinaryTree type="DecisionTree" boostWeight="1.0000000000000000e+00" itree="198">
      <Node pos="s" depth="0" NCoef="0" IVar="0" Cut="6.9740250706672668e-02" cType="1" res="3.1282624695450068e-03" rms="4.5311883091926575e-01" purity="5.0183647871017456e-01" nType="0">
        <Node pos="l" depth="1" NCoef="0" IVar="1" Cut="9.4292056560516357e-01" cType="1" res="-3.5792395472526550e-02" rms="4.4528979063034058e-01" purity="3.7531203031539917e-01" nType="0">
          <Node pos="l" depth="2" NCoef="0" IVar="-1" Cut="0.0000000000000000e+00" cType="1" res="2.9995344812050462e-04" rms="4.7081074118614197e-01" purity="5.0267827510833740e-01" nType="-99"/>
          <Node pos="r" depth="2" NCoef="0" IVar="-1" Cut="0.0000000000000000e+00" cType="1" res="-2.7191843837499619e-03" rms="4.3104836344718933e-01" purity="3.1435620784759521e-01" nType="-99"/>
        </Node>
        <Node pos="r" depth="1" NCoef="0" IVar="3" Cut="2.3490242958068848e+00" cType="1" res="1.7417367547750473e-02" rms="4.5512488484382629e-01" purity="5.4828786849975586e-01" nType="0">
          <Node pos="l" depth="2" NCoef="0" IVar="-1" Cut="0.0000000000000000e+00" cType="1" res="1.1696198489516973e-03" rms="4.5625197887420654e-01" purity="5.7046687602996826e-01" nType="-99"/>
          <Node pos="r" depth="2" NCoef="0" IVar="-1" Cut="0.0000000000000000e+00" cType="1" res="-2.7371249161660671e-03" rms="4.3779072165489197e-01" purity="3.5162830352783203e-01" nType="-99"/>
        </Node>
      </Node>
    </BinaryTree>
    <BinaryTree type="DecisionTree" boostWeight="1.0000000000000000e+00" itree="199">
      <Node pos="s" depth="0" NCoef="0" IVar="6" Cut="7.5558102130889893e-01" cType="1" res="9.7519997507333755e-04" rms="4.5074945688247681e-01" purity="5.0016498565673828e-01" nType="0">
        <Node pos="l" depth="1" NCoef="0" IVar="4" Cut="5.7833141088485718e-01" cType="1" res="3.5609383136034012e-02" rms="4.4839483499526978e-01" purity="6.0844928026199341e-01" nType="0">
          <Node pos="l" depth="2" NCoef="0" IVar="-1" Cut="0.0000000000000000e+00" cType="1" res="-6.2954577151685953e-04" rms="4.6914330124855042e-01" purity="4.1419252753257751e-01" nType="-99"/>
          <Node pos="r" depth="2" NCoef="0" IVar="-1" Cut="0.0000000000000000e+00" cType="1" res="2.3386287502944469e-03" rms="4.4028896093368530e-01" purity="6.7111974954605103e-01" nType="-99"/>
        </Node>
        <Node pos="r" depth="1" NCoef="0" IVar="3" Cut="2.3677296638488770e+00" cType="1" res="-1.8598677590489388e-02" rms="4.5089969038963318e-01" purity="4.3896692991256714e-01" nType="0">
          <Node pos="l" depth="2" NCoef="0" IVar="-1" Cut="0.0000000000000000e+00" cType="1" res="-4.0422609890811145e-04" rms="4.5629331469535828e-01" purity="4.6375527977943420e-01" nType="-99"/>
          <Node pos="r" depth="2" NCoef="0" IVar="-1" Cut="0.0000000000000000e+00" cType="1" res="-4.3247449211776257e-03" rms="4.0518802404403687e-01" purity="2.6715689897537231e-01" nType="-99"/>
        </Node>
      </Node>
    </BinaryTree>
    <BinaryTree type="DecisionTree" boostWeight="1.0000000000000000e+00" itree="200">
      <Node pos="s" depth="0" NCoef="0" IVar="6" Cut="1.8119114637374878e+00" cType="1" res="2.4198179598897696e-03" rms="4.5233541727066040e-01" purity="5.0000929832458496e-01" nType="0">
        <Node pos="l" depth="1" NCoef="0" IVar="4" Cut="5.5423593521118164e-01" cType="1" res="1.0142806917428970e-02" rms="4.5746669173240662e-01" purity="5.2876174449920654e-01" nType="0">
          <Node pos="l" depth="2" NCoef="0" IVar="-1" Cut="0.0000000000000000e+00" cType="1" res="-1.7986246384680271e-03" rms="4.5038121938705444e-01" purity="3.4371262788772583e-01" nType="-99"/>
          <Node pos="r" depth="2" NCoef="0" IVar="-1" Cut="0.0000000000000000e+00" cType="1" res="9.7796472255140543e-04" rms="4.5837199687957764e-01" purity="5.7293921709060669e-01" nType="-99"/>
        </Node>
        <Node pos="r" depth="1" NCoef="0" IVar="-1" Cut="0.0000000000000000e+00" cType="1" res="-3.8246740587055683e-03" rms="3.9137351512908936e-01" purity="2.2130711376667023e-01" nType="-99"/>
      </Node>
    </BinaryTree>
    <BinaryTree type="DecisionTree" boostWeight="1.0000000000000000e+00" itree="201">
      <Node pos="s" depth="0" NCoef="0" IVar="1" Cut="8.6572468280792236e-01" cType="1" res="3.3627573866397142e-03" rms="4.5159918069839478e-01" purity="5.0362110137939453e-01" nType="0">
        <Node pos="l" depth="1" NCoef="0" IVar="4" Cut="8.1873273849487305e-01" cType="1" res="4.5654278248548508e-02" rms="4.4257101416587830e-01" purity="6.5058225393295288e-01" nType="0">
          <Node pos="l" depth="2" NCoef="0" IVar="-1" Cut="0.0000000000000000e+00" cType="1" res="1.2545201461762190e-03" rms="4.7066304087638855e-01" purity="5.6839036941528320e-01" nType="-99"/>
          <Node pos="r" depth="2" NCoef="0" IVar="-1" Cut="0.0000000000000000e+00" cType="1" res="4.1675292886793613e-03" rms="3.7264645099639893e-01" purity="8.2732599973678589e-01" nType="-99"/>
        </Node>
        <Node pos="r" depth="1" NCoef="0" IVar="0" Cut="3.9507445693016052e-01" cType="1" res="-1.0840799659490585e-02" rms="4.5370763540267944e-01" purity="4.5426434278488159e-01" nType="0">
          <Node pos="l" depth="2" NCoef="0" IVar="-1" Cut="0.0000000000000000e+00" cType="1" res="-8.8961445726454258e-04" rms="4.5409774780273438e-01" purity="4.3057602643966675e-01" nType="-99"/>
          <Node pos="r" depth="2" NCoef="0" IVar="-1" Cut="0.0000000000000000e+00" cType="1" res="2.8475914150476456e-03" rms="4.4322136044502258e-01" purity="6.6381371021270752e-01" nType="-99"/>
        </Node>
      </Node>
    </BinaryTree>
    <BinaryTree type="DecisionTree" boostWeight="1.0000000000000000e+00" itree="202">
      <Node pos="s" depth="0" NCoef="0" IVar="5" Cut="7.0412994384765625e+02" cType="1" res="-2.5244050193578005e-03" rms="4.5210143923759460e-01" purity="4.9711504578590393e-01" nType="0">
        <Node pos="l" depth="1" NCoef="0" IVar="7" Cut="1.0625745356082916e-01" cType="1" res="-2.6096094399690628e-02" rms="4.4610989093780518e-01" purity="4.4614669680595398e-01" nType="0">
          <Node pos="l" depth="2" NCoef="0" IVar="-1" Cut="0.0000000000000000e+00" cType="1" res="-2.6575287338346243e-03" rms="4.3850690126419067e-01" purity="3.8277730345726013e-01" nType="-99"/>
          <Node pos="r" depth="2" NCoef="0" IVar="-1" Cut="0.0000000000000000e+00" cType="1" res="4.6519903116859496e-04" rms="4.5244944095611572e-01" purity="5.2250635623931885e-01" nType="-99"/>
        </Node>
        <Node pos="r" depth="1" NCoef="0" IVar="3" Cut="2.0324571132659912e+00" cType="1" res="2.5389248505234718e-02" rms="4.5752763748168945e-01" purity="5.5747193098068237e-01" nType="0">
          <Node pos="l" depth="2" NCoef="0" IVar="-1" Cut="0.0000000000000000e+00" cType="1" res="1.5517099527642131e-03" rms="4.5736828446388245e-01" purity="5.8240640163421631e-01" nType="-99"/>
          <Node pos="r" depth="2" NCoef="0" IVar="-1" Cut="0.0000000000000000e+00" cType="1" res="-1.7955108778551221e-03" rms="4.5348775386810303e-01" purity="3.8498678803443909e-01" nType="-99"/>
        </Node>
      </Node>
    </BinaryTree>
    <BinaryTree type="DecisionTree" boostWeight="1.0000000000000000e+00" itree="203">
      <Node pos="s" depth="0" NCoef="0" IVar="2" Cut="9.2797410488128662e-01" cType="1" res="6.5667589660733938e-04" rms="4.5142239332199097e-01" purity="4.9968099594116211e-01" nType="0">
        <Node pos="l" depth="1" NCoef="0" IVar="5" Cut="6.8429888916015625e+02" cType="1" res="-2.4077389389276505e-02" rms="4.5296066999435425e-01" purity="4.0846860408782959e-01" nType="0">
          <Node pos="l" depth="2" NCoef="0" IVar="-1" Cut="0.0000000000000000e+00" cType="1" res="-2.2591920569539070e-03" rms="4.3857973814010620e-01" purity="3.5051119327545166e-01" nType="-99"/>
          <Node pos="r" depth="2" NCoef="0" IVar="-1" Cut="0.0000000000000000e+00" cType="1" res="-2.0769570255652070e-05" rms="4.6586838364601135e-01" purity="4.6709406375885010e-01" nType="-99"/>
        </Node>
        <Node pos="r" depth="1" NCoef="0" IVar="8" Cut="2.2038516998291016e+00" cType="1" res="2.5171287357807159e-02" rms="4.4854879379272461e-01" purity="5.9008413553237915e-01" nType="0">
          <Node pos="l" depth="2" NCoef="0" IVar="-1" Cut="0.0000000000000000e+00" cType="1" res="2.2997420746833086e-03" rms="4.3673655390739441e-01" purity="6.6660165786743164e-01" nType="-99"/>
          <Node pos="r" depth="2" NCoef="0" IVar="-1" Cut="0.0000000000000000e+00" cType="1" res="-1.0926554386969656e-04" rms="4.5961651206016541e-01" purity="5.0590479373931885e-01" nType="-99"/>
        </Node>
      </Node>
    </BinaryTree>
    <BinaryTree type="DecisionTree" boostWeight="1.0000000000000000e+00" itree="204">
      <Node pos="s" depth="0" NCoef="0" IVar="5" Cut="5.7021783447265625e+02" cType="1" res="2.7503494638949633e-03" rms="4.5012414455413818e-01" purity="5.0279867649078369e-01" nType="0">
        <Node pos="l" depth="1" NCoef="0" IVar="2" Cut="9.7597980499267578e-01" cType="1" res="-3.7788387387990952e-02" rms="4.4185870885848999e-01" purity="4.1300064325332642e-01" nType="0">
          <Node pos="l" depth="2" NCoef="0" IVar="-1" Cut="0.0000000000000000e+00" cType="1" res="-2.7118506841361523e-03" rms="4.3691346049308777e-01" purity="3.5641083121299744e-01" nType="-99"/>
          <Node pos="r" depth="2" NCoef="0" IVar="-1" Cut="0.0000000000000000e+00" cType="1" res="2.7334914193488657e-04" rms="4.5010706782341003e-01" purity="5.4449409246444702e-01" nType="-99"/>
        </Node>
        <Node pos="r" depth="1" NCoef="0" IVar="7" Cut="9.4667784869670868e-02" cType="1" res="1.9472423940896988e-02" rms="4.5243278145790100e-01" purity="5.3983992338180542e-01" nType="0">
          <Node pos="l" depth="2" NCoef="0" IVar="-1" Cut="0.0000000000000000e+00" cType="1" res="-3.7956411688355729e-05" rms="4.5335087180137634e-01" purity="4.9776685237884521e-01" nType="-99"/>
          <Node pos="r" depth="2" NCoef="0" IVar="-1" Cut="0.0000000000000000e+00" cType="1" res="2.4695754982531071e-03" rms="4.4860413670539856e-01" purity="6.1362129449844360e-01" nType="-99"/>
        </Node>
      </Node>
    </BinaryTree>
    <BinaryTree type="DecisionTree" boostWeight="1.0000000000000000e+00" itree="205">
      <Node pos="s" depth="0" NCoef="0" IVar="5" Cut="5.4004516601562500e+02" cType="1" res="3.9597884751856327e-03" rms="4.5201715826988220e-01" purity="5.0430107116699219e-01" nType="0">
        <Node pos="l" depth="1" NCoef="0" IVar="1" Cut="1.2511811256408691e+00" cType="1" res="-4.1563227772712708e-02" rms="4.4120824337005615e-01" purity="4.0462228655815125e-01" nType="0">
          <Node pos="l" depth="2" NCoef="0" IVar="-1" Cut="0.0000000000000000e+00" cType="1" res="-7.9416611697524786e-04" rms="4.6009993553161621e-01" purity="4.9512031674385071e-01" nType="-99"/>
          <Node pos="r" depth="2" NCoef="0" IVar="-1" Cut="0.0000000000000000e+00" cType="1" res="-4.0208557620644569e-03" rms="4.0699636936187744e-01" purity="2.6274684071540833e-01" nType="-99"/>
        </Node>
        <Node pos="r" depth="1" NCoef="0" IVar="2" Cut="7.1172100305557251e-01" cType="1" res="1.7696039751172066e-02" rms="4.5433333516120911e-01" purity="5.3437846899032593e-01" nType="0">
          <Node pos="l" depth="2" NCoef="0" IVar="-1" Cut="0.0000000000000000e+00" cType="1" res="-2.1613335702568293e-03" rms="4.4518503546714783e-01" purity="3.2737123966217041e-01" nType="-99"/>
          <Node pos="r" depth="2" NCoef="0" IVar="-1" Cut="0.0000000000000000e+00" cType="1" res="1.1989511549472809e-03" rms="4.5489081740379333e-01" purity="5.6327438354492188e-01" nType="-99"/>
        </Node>
      </Node>
    </BinaryTree>
    <BinaryTree type="DecisionTree" boostWeight="1.0000000000000000e+00" itree="206">
      <Node pos="s" depth="0" NCoef="0" IVar="0" Cut="2.6777055859565735e-01" cType="1" res="-1.1518712854012847e-03" rms="4.5066812634468079e-01" purity="4.9753683805465698e-01" nType="0">
        <Node pos="l" depth="1" NCoef="0" IVar="1" Cut="8.0097156763076782e-01" cType="1" res="-1.6751036047935486e-02" rms="4.5309042930603027e-01" purity="4.3937471508979797e-01" nType="0">
          <Node pos="l" depth="2" NCoef="0" IVar="-1" Cut="0.0000000000000000e+00" cType="1" res="1.5950989909470081e-03" rms="4.5725658535957336e-01" purity="6.0019606351852417e-01" nType="-99"/>
          <Node pos="r" depth="2" NCoef="0" IVar="-1" Cut="0.0000000000000000e+00" cType="1" res="-1.3255106750875711e-03" rms="4.5129740238189697e-01" purity="4.0323656797409058e-01" nType="-99"/>
        </Node>
        <Node pos="r" depth="1" NCoef="0" IVar="2" Cut="7.9574471712112427e-01" cType="1" res="4.2717356234788895e-02" rms="4.4083589315414429e-01" purity="6.6110485792160034e-01" nType="0">
          <Node pos="l" depth="2" NCoef="0" IVar="-1" Cut="0.0000000000000000e+00" cType="1" res="-5.7871523313224316e-04" rms="4.7646662592887878e-01" purity="4.9120688438415527e-01" nType="-99"/>
          <Node pos="r" depth="2" NCoef="0" IVar="-1" Cut="0.0000000000000000e+00" cType="1" res="2.6436101179569960e-03" rms="4.3018779158592224e-01" purity="7.0411103963851929e-01" nType="-99"/>
        </Node>
      </Node>
    </BinaryTree>
    <BinaryTree type="DecisionTree" boostWeight="1.0000000000000000e+00" itree="207">
      <Node pos="s" depth="0" NCoef="0" IVar="2" Cut="9.0364682674407959e-01" cType="1" res="-9.2917302390560508e-04" rms="4.4982910156250000e-01" purity="4.9839594960212708e-01" nType="0">
        <Node pos="l" depth="1" NCoef="0" IVar="0" Cut="3.6677607893943787e-01" cType="1" res="-3.1675945967435837e-02" rms="4.4970715045928955e-01" purity="3.8502132892608643e-01" nType="0">
          <Node pos="l" depth="2" NCoef="0" IVar="-1" Cut="0.0000000000000000e+00" cType="1" res="-1.9747638143599033e-03" rms="4.4745773077011108e-01" purity="3.5346671938896179e-01" nType="-99"/>
          <Node pos="r" depth="2" NCoef="0" IVar="-1" Cut="0.0000000000000000e+00" cType="1" res="1.9039033213630319e-03" rms="4.5866021513938904e-01" purity="6.1334598064422607e-01" nType="-99"/>
        </Node>
        <Node pos="r" depth="1" NCoef="0" IVar="7" Cut="1.1159648001194000e-01" cType="1" res="2.2000625729560852e-02" rms="4.4855013489723206e-01" purity="5.8294653892517090e-01" nType="0">
          <Node pos="l" depth="2" NCoef="0" IVar="-1" Cut="0.0000000000000000e+00" cType="1" res="1.3671023771166801e-04" rms="4.5092710852622986e-01" purity="5.4648458957672119e-01" nType="-99"/>
          <Node pos="r" depth="2" NCoef="0" IVar="-1" Cut="0.0000000000000000e+00" cType="1" res="2.5207207072526217e-03" rms="4.4236174225807190e-01" purity="6.4709281921386719e-01" nType="-99"/>
        </Node>
      </Node>
    </BinaryTree>
    <BinaryTree type="DecisionTree" boostWeight="1.0000000000000000e+00" itree="208">
      <Node pos="s" depth="0" NCoef="0" IVar="3" Cut="2.1809732913970947e+00" cType="1" res="6.6262629115954041e-04" rms="4.5127892494201660e-01" purity="4.9938565492630005e-01" nType="0">
        <Node pos="l" depth="1" NCoef="0" IVar="0" Cut="6.9732867181301117e-02" cType="1" res="9.8359845578670502e-03" rms="4.5412409305572510e-01" purity="5.2517396211624146e-01" nType="0">
          <Node pos="l" depth="2" NCoef="0" IVar="-1" Cut="0.0000000000000000e+00" cType="1" res="-1.4003791147843003e-03" rms="4.5140999555587769e-01" purity="3.9446640014648438e-01" nType="-99"/>
          <Node pos="r" depth="2" NCoef="0" IVar="-1" Cut="0.0000000000000000e+00" cType="1" res="1.1062085395678878e-03" rms="4.5422887802124023e-01" purity="5.7265776395797729e-01" nType="-99"/>
        </Node>
        <Node pos="r" depth="1" NCoef="0" IVar="2" Cut="9.2842835187911987e-01" cType="1" res="-6.3783153891563416e-02" rms="4.2521855235099792e-01" purity="3.1821444630622864e-01" nType="0">
          <Node pos="l" depth="2" NCoef="0" IVar="-1" Cut="0.0000000000000000e+00" cType="1" res="-4.6899858862161636e-03" rms="4.0369078516960144e-01" purity="2.3519945144653320e-01" nType="-99"/>
          <Node pos="r" depth="2" NCoef="0" IVar="-1" Cut="0.0000000000000000e+00" cType="1" res="-1.5216764295473695e-03" rms="4.4608569145202637e-01" purity="4.1118344664573669e-01" nType="-99"/>
        </Node>
      </Node>
    </BinaryTree>
    <BinaryTree type="DecisionTree" boostWeight="1.0000000000000000e+00" itree="209">
      <Node pos="s" depth="0" NCoef="0" IVar="0" Cut="8.3877608180046082e-02" cType="1" res="1.6773078823462129e-03" rms="4.5085939764976501e-01" purity="4.9972522258758545e-01" nType="0">
        <Node pos="l" depth="1" NCoef="0" IVar="2" Cut="8.1966316699981689e-01" cType="1" res="-3.3596538007259369e-02" rms="4.4472646713256836e-01" purity="3.7791058421134949e-01" nType="0">
          <Node pos="l" depth="2" NCoef="0" IVar="-1" Cut="0.0000000000000000e+00" cType="1" res="-4.1720243170857430e-03" rms="3.9703375101089478e-01" purity="2.1677801012992859e-01" nType="-99"/>
          <Node pos="r" depth="2" NCoef="0" IVar="-1" Cut="0.0000000000000000e+00" cType="1" res="-7.2539137909188867e-04" rms="4.6031332015991211e-01" purity="4.3900969624519348e-01" nType="-99"/>
        </Node>
        <Node pos="r" depth="1" NCoef="0" IVar="8" Cut="2.4562337398529053e+00" cType="1" res="1.8827509135007858e-02" rms="4.5281961560249329e-01" purity="5.5895167589187622e-01" nType="0">
          <Node pos="l" depth="2" NCoef="0" IVar="-1" Cut="0.0000000000000000e+00" cType="1" res="1.4294609427452087e-03" rms="4.5270419120788574e-01" purity="6.1270356178283691e-01" nType="-99"/>
          <Node pos="r" depth="2" NCoef="0" IVar="-1" Cut="0.0000000000000000e+00" cType="1" res="-1.0698785772547126e-03" rms="4.5067220926284790e-01" purity="3.8378632068634033e-01" nType="-99"/>
        </Node>
      </Node>
    </BinaryTree>
    <BinaryTree type="DecisionTree" boostWeight="1.0000000000000000e+00" itree="210">
      <Node pos="s" depth="0" NCoef="0" IVar="3" Cut="1.6113573312759399e+00" cType="1" res="3.4429759252816439e-03" rms="4.5072540640830994e-01" purity="5.0233250856399536e-01" nType="0">
        <Node pos="l" depth="1" NCoef="0" IVar="0" Cut="1.1216968297958374e-01" cType="1" res="1.7198933288455009e-02" rms="4.5330038666725159e-01" purity="5.4685622453689575e-01" nType="0">
          <Node pos="l" depth="2" NCoef="0" IVar="-1" Cut="0.0000000000000000e+00" cType="1" res="-5.1940942648798227e-04" rms="4.5901435613632202e-01" purity="4.3190225958824158e-01" nType="-99"/>
          <Node pos="r" depth="2" NCoef="0" IVar="-1" Cut="0.0000000000000000e+00" cType="1" res="1.7124643782153726e-03" rms="4.4802573323249817e-01" purity="6.2942463159561157e-01" nType="-99"/>
        </Node>
        <Node pos="r" depth="1" NCoef="0" IVar="4" Cut="8.0678385496139526e-01" cType="1" res="-3.6632563918828964e-02" rms="4.4069749116897583e-01" purity="3.7262085080146790e-01" nType="0">
          <Node pos="l" depth="2" NCoef="0" IVar="-1" Cut="0.0000000000000000e+00" cType="1" res="-2.5852299295365810e-03" rms="4.3011638522148132e-01" purity="2.9663756489753723e-01" nType="-99"/>
          <Node pos="r" depth="2" NCoef="0" IVar="-1" Cut="0.0000000000000000e+00" cType="1" res="3.1073385616764426e-04" rms="4.6559423208236694e-01" purity="5.8025658130645752e-01" nType="-99"/>
        </Node>
      </Node>
    </BinaryTree>
    <BinaryTree type="DecisionTree" boostWeight="1.0000000000000000e+00" itree="211">
      <Node pos="s" depth="0" NCoef="0" IVar="4" Cut="5.7830315828323364e-01" cType="1" res="-1.5465306350961328e-03" rms="4.5180848240852356e-01" purity="4.9689820408821106e-01" nType="0">
        <Node pos="l" depth="1" NCoef="0" IVar="6" Cut="9.6908450126647949e-01" cType="1" res="-4.1003491729497910e-02" rms="4.3862783908843994e-01" purity="3.2551047205924988e-01" nType="0">
          <Node pos="l" depth="2" NCoef="0" IVar="-1" Cut="0.0000000000000000e+00" cType="1" res="-4.8435910139232874e-04" rms="4.6665334701538086e-01" purity="4.0798676013946533e-01" nType="-99"/>
          <Node pos="r" depth="2" NCoef="0" IVar="-1" Cut="0.0000000000000000e+00" cType="1" res="-3.6432074848562479e-03" rms="4.0725156664848328e-01" purity="2.4492597579956055e-01" nType="-99"/>
        </Node>
        <Node pos="r" depth="1" NCoef="0" IVar="7" Cut="7.3882959783077240e-02" cType="1" res="1.2361645698547363e-02" rms="4.5554989576339722e-01" purity="5.5731052160263062e-01" nType="0">
          <Node pos="l" depth="2" NCoef="0" IVar="-1" Cut="0.0000000000000000e+00" cType="1" res="-5.2981829503551126e-04" rms="4.5869761705398560e-01" purity="5.0497198104858398e-01" nType="-99"/>
          <Node pos="r" depth="2" NCoef="0" IVar="-1" Cut="0.0000000000000000e+00" cType="1" res="1.4435546472668648e-03" rms="4.5205128192901611e-01" purity="5.9967148303985596e-01" nType="-99"/>
        </Node>
      </Node>
    </BinaryTree>
    <BinaryTree type="DecisionTree" boostWeight="1.0000000000000000e+00" itree="212">
      <Node pos="s" depth="0" NCoef="0" IVar="4" Cut="9.1520756483078003e-01" cType="1" res="2.2059537004679441e-03" rms="4.5009183883666992e-01" purity="5.0040733814239502e-01" nType="0">
        <Node pos="l" depth="1" NCoef="0" IVar="1" Cut="9.1443777084350586e-01" cType="1" res="-7.0266122929751873e-03" rms="4.5480838418006897e-01" purity="4.6157738566398621e-01" nType="0">
          <Node pos="l" depth="2" NCoef="0" IVar="-1" Cut="0.0000000000000000e+00" cType="1" res="1.3548752758651972e-03" rms="4.5789489150047302e-01" purity="6.0307526588439941e-01" nType="-99"/>
          <Node pos="r" depth="2" NCoef="0" IVar="-1" Cut="0.0000000000000000e+00" cType="1" res="-1.0294301901012659e-03" rms="4.5267441868782043e-01" purity="4.0463808178901672e-01" nType="-99"/>
        </Node>
        <Node pos="r" depth="1" NCoef="0" IVar="6" Cut="9.0517586469650269e-01" cType="1" res="6.1240363866090775e-02" rms="4.1383859515190125e-01" purity="7.4869167804718018e-01" nType="0">
          <Node pos="l" depth="2" NCoef="0" IVar="-1" Cut="0.0000000000000000e+00" cType="1" res="4.4420571066439152e-03" rms="3.6952558159828186e-01" purity="8.3407765626907349e-01" nType="-99"/>
          <Node pos="r" depth="2" NCoef="0" IVar="-1" Cut="0.0000000000000000e+00" cType="1" res="1.4652541140094399e-03" rms="4.5665955543518066e-01" purity="6.5329408645629883e-01" nType="-99"/>
        </Node>
      </Node>
    </BinaryTree>
    <BinaryTree type="DecisionTree" boostWeight="1.0000000000000000e+00" itree="213">
      <Node pos="s" depth="0" NCoef="0" IVar="1" Cut="1.5873163938522339e+00" cType="1" res="-3.0394727946259081e-04" rms="4.5158419013023376e-01" purity="4.9911537766456604e-01" nType="0">
        <Node pos="l" depth="1" NCoef="0" IVar="5" Cut="6.8232287597656250e+02" cType="1" res="8.2350531592965126e-03" rms="4.5523908734321594e-01" purity="5.2801710367202759e-01" nType="0">
          <Node pos="l" depth="2" NCoef="0" IVar="-1" Cut="0.0000000000000000e+00" cType="1" res="-6.4251705771312118e-04" rms="4.5152148604393005e-01" purity="4.7766205668449402e-01" nType="-99"/>
          <Node pos="r" depth="2" NCoef="0" IVar="-1" Cut="0.0000000000000000e+00" cType="1" res="1.3534958707168698e-03" rms="4.5782467722892761e-01" purity="5.7763332128524780e-01" nType="-99"/>
        </Node>
        <Node pos="r" depth="1" NCoef="0" IVar="7" Cut="5.0929471850395203e-02" cType="1" res="-6.5765418112277985e-02" rms="4.1674426198005676e-01" purity="2.7754989266395569e-01" nType="0">
          <Node pos="l" depth="2" NCoef="0" IVar="-1" Cut="0.0000000000000000e+00" cType="1" res="-4.2362413369119167e-03" rms="4.0779271721839905e-01" purity="2.6006186008453369e-01" nType="-99"/>
          <Node pos="r" depth="2" NCoef="0" IVar="-1" Cut="0.0000000000000000e+00" cType="1" res="-2.1478708367794752e-03" rms="4.2666828632354736e-01" purity="2.9963323473930359e-01" nType="-99"/>
        </Node>
      </Node>
    </BinaryTree>
    <BinaryTree type="DecisionTree" boostWeight="1.0000000000000000e+00" itree="214">
      <Node pos="s" depth="0" NCoef="0" IVar="4" Cut="8.7903058528900146e-01" cType="1" res="1.9411635585129261e-03" rms="4.5031344890594482e-01" purity="5.0257152318954468e-01" nType="0">
        <Node pos="l" depth="1" NCoef="0" IVar="3" Cut="2.0143060684204102e+00" cType="1" res="-1.0270341299474239e-02" rms="4.5641952753067017e-01" purity="4.4643813371658325e-01" nType="0">
          <Node pos="l" depth="2" NCoef="0" IVar="-1" Cut="0.0000000000000000e+00" cType="1" res="-9.6431713245692663e-06" rms="4.6205154061317444e-01" purity="4.7710499167442322e-01" nType="-99"/>
          <Node pos="r" depth="2" NCoef="0" IVar="-1" Cut="0.0000000000000000e+00" cType="1" res="-3.1227262225002050e-03" rms="4.2183473706245422e-01" purity="2.8592625260353088e-01" nType="-99"/>
        </Node>
        <Node pos="r" depth="1" NCoef="0" IVar="4" Cut="9.5064026117324829e-01" cType="1" res="5.2400555461645126e-02" rms="4.2040705680847168e-01" purity="7.3452144861221313e-01" nType="0">
          <Node pos="l" depth="2" NCoef="0" IVar="-1" Cut="0.0000000000000000e+00" cType="1" res="1.7400429351255298e-03" rms="4.2762088775634766e-01" purity="7.1372687816619873e-01" nType="-99"/>
          <Node pos="r" depth="2" NCoef="0" IVar="-1" Cut="0.0000000000000000e+00" cType="1" res="3.4629260189831257e-03" rms="4.0979379415512085e-01" purity="7.6197510957717896e-01" nType="-99"/>
        </Node>
      </Node>
    </BinaryTree>
    <BinaryTree type="DecisionTree" boostWeight="1.0000000000000000e+00" itree="215">
      <Node pos="s" depth="0" NCoef="0" IVar="8" Cut="2.8017983436584473e+00" cType="1" res="4.7395192086696625e-04" rms="4.5169147849082947e-01" purity="5.0077772140502930e-01" nType="0">
        <Node pos="l" depth="1" NCoef="0" IVar="4" Cut="9.1511678695678711e-01" cType="1" res="6.9600567221641541e-03" rms="4.5575979351997375e-01" purity="5.2595317363739014e-01" nType="0">
          <Node pos="l" depth="2" NCoef="0" IVar="-1" Cut="0.0000000000000000e+00" cType="1" res="-9.8044707556255162e-05" rms="4.6203568577766418e-01" purity="4.8559153079986572e-01" nType="-99"/>
          <Node pos="r" depth="2" NCoef="0" IVar="-1" Cut="0.0000000000000000e+00" cType="1" res="2.9364181682467461e-03" rms="4.1278097033500671e-01" purity="7.6375955343246460e-01" nType="-99"/>
        </Node>
        <Node pos="r" depth="1" NCoef="0" IVar="-1" Cut="0.0000000000000000e+00" cType="1" res="-3.7809095811098814e-03" rms="3.9727792143821716e-01" purity="2.2367168962955475e-01" nType="-99"/>
      </Node>
    </BinaryTree>
    <BinaryTree type="DecisionTree" boostWeight="1.0000000000000000e+00" itree="216">
      <Node pos="s" depth="0" NCoef="0" IVar="0" Cut="3.6677032709121704e-01" cType="1" res="2.8838990256190300e-03" rms="4.5181119441986084e-01" purity="5.0229305028915405e-01" nType="0">
        <Node pos="l" depth="1" NCoef="0" IVar="5" Cut="4.3834292602539062e+02" cType="1" res="-6.6174636594951153e-03" rms="4.5513659715652466e-01" purity="4.7114747762680054e-01" nType="0">
          <Node pos="l" depth="2" NCoef="0" IVar="-1" Cut="0.0000000000000000e+00" cType="1" res="-4.5919110998511314e-03" rms="4.1576656699180603e-01" purity="3.0849334597587585e-01" nType="-99"/>
          <Node pos="r" depth="2" NCoef="0" IVar="-1" Cut="0.0000000000000000e+00" cType="1" res="-3.2315285352524370e-05" rms="4.5707300305366516e-01" purity="4.8214530944824219e-01" nType="-99"/>
        </Node>
        <Node pos="r" depth="1" NCoef="0" IVar="1" Cut="1.1796450614929199e+00" cType="1" res="6.3909225165843964e-02" rms="4.2480406165122986e-01" purity="7.0233458280563354e-01" nType="0">
          <Node pos="l" depth="2" NCoef="0" IVar="-1" Cut="0.0000000000000000e+00" cType="1" res="4.1256118565797806e-03" rms="3.9452594518661499e-01" purity="7.9044741392135620e-01" nType="-99"/>
          <Node pos="r" depth="2" NCoef="0" IVar="-1" Cut="0.0000000000000000e+00" cType="1" res="1.3679488329216838e-03" rms="4.6522226929664612e-01" purity="5.6842881441116333e-01" nType="-99"/>
        </Node>
      </Node>
    </BinaryTree>
    <BinaryTree type="DecisionTree" boostWeight="1.0000000000000000e+00" itree="217">
      <Node pos="s" depth="0" NCoef="0" IVar="0" Cut="3.6678448319435120e-01" cType="1" res="2.1178410388529301e-03" rms="4.5124700665473938e-01" purity="5.0027608871459961e-01" nType="0">
        <Node pos="l" depth="1" NCoef="0" IVar="1" Cut="7.4012458324432373e-01" cType="1" res="-6.8238931708037853e-03" rms="4.5364689826965332e-01" purity="4.6926224231719971e-01" nType="0">
          <Node pos="l" depth="2" NCoef="0" IVar="-1" Cut="0.0000000000000000e+00" cType="1" res="2.1290869917720556e-03" rms="4.4838085770606995e-01" purity="6.4108932018280029e-01" nType="-99"/>
          <Node pos="r" depth="2" NCoef="0" IVar="-1" Cut="0.0000000000000000e+00" cType="1" res="-7.3220999911427498e-04" rms="4.5388942956924438e-01" purity="4.4067594408988953e-01" nType="-99"/>
        </Node>
        <Node pos="r" depth="1" NCoef="0" IVar="8" Cut="2.1938135623931885e+00" cType="1" res="5.9367641806602478e-02" rms="4.3119639158248901e-01" purity="6.9884395599365234e-01" nType="0">
          <Node pos="l" depth="2" NCoef="0" IVar="-1" Cut="0.0000000000000000e+00" cType="1" res="3.7035285495221615e-03" rms="4.0764918923377991e-01" purity="7.6509159803390503e-01" nType="-99"/>
          <Node pos="r" depth="2" NCoef="0" IVar="-1" Cut="0.0000000000000000e+00" cType="1" res="1.8057485576719046e-03" rms="4.5369336009025574e-01" purity="6.2973672151565552e-01" nType="-99"/>
        </Node>
      </Node>
    </BinaryTree>
    <BinaryTree type="DecisionTree" boostWeight="1.0000000000000000e+00" itree="218">
      <Node pos="s" depth="0" NCoef="0" IVar="4" Cut="5.4221749305725098e-01" cType="1" res="-3.1743030995130539e-03" rms="4.5059391856193542e-01" purity="4.9563199281692505e-01" nType="0">
        <Node pos="l" depth="1" NCoef="0" IVar="2" Cut="6.9951254129409790e-01" cType="1" res="-5.8509025722742081e-02" rms="4.3036371469497681e-01" purity="3.0174520611763000e-01" nType="0">
          <Node pos="l" depth="2" NCoef="0" IVar="-1" Cut="0.0000000000000000e+00" cType="1" res="-4.9616945907473564e-03" rms="4.0470942854881287e-01" purity="2.3546449840068817e-01" nType="-99"/>
          <Node pos="r" depth="2" NCoef="0" IVar="-1" Cut="0.0000000000000000e+00" cType="1" res="-1.9046206725761294e-03" rms="4.4060885906219482e-01" purity="3.3268842101097107e-01" nType="-99"/>
        </Node>
        <Node pos="r" depth="1" NCoef="0" IVar="0" Cut="6.9739177823066711e-02" cType="1" res="7.3804268613457680e-03" rms="4.5358446240425110e-01" purity="5.3261458873748779e-01" nType="0">
          <Node pos="l" depth="2" NCoef="0" IVar="-1" Cut="0.0000000000000000e+00" cType="1" res="-1.5429242048412561e-03" rms="4.5515942573547363e-01" purity="4.0395584702491760e-01" nType="-99"/>
          <Node pos="r" depth="2" NCoef="0" IVar="-1" Cut="0.0000000000000000e+00" cType="1" res="9.8313682246953249e-04" rms="4.5217421650886536e-01" purity="5.7728219032287598e-01" nType="-99"/>
        </Node>
      </Node>
    </BinaryTree>
    <BinaryTree type="DecisionTree" boostWeight="1.0000000000000000e+00" itree="219">
      <Node pos="s" depth="0" NCoef="0" IVar="2" Cut="9.0370011329650879e-01" cType="1" res="4.7181672416627407e-03" rms="4.5064657926559448e-01" purity="5.0432211160659790e-01" nType="0">
        <Node pos="l" depth="1" NCoef="0" IVar="5" Cut="8.6155926513671875e+02" cType="1" res="-2.1413689479231834e-02" rms="4.5116001367568970e-01" purity="3.9557078480720520e-01" nType="0">
          <Node pos="l" depth="2" NCoef="0" IVar="-1" Cut="0.0000000000000000e+00" cType="1" res="-1.8319067312404513e-03" rms="4.4310057163238525e-01" purity="3.5703858733177185e-01" nType="-99"/>
          <Node pos="r" depth="2" NCoef="0" IVar="-1" Cut="0.0000000000000000e+00" cType="1" res="1.0767808416858315e-03" rms="4.6896162629127502e-01" purity="4.9854105710983276e-01" nType="-99"/>
        </Node>
        <Node pos="r" depth="1" NCoef="0" IVar="1" Cut="8.3242726325988770e-01" cType="1" res="2.4176467210054398e-02" rms="4.4927769899368286e-01" purity="5.8530038595199585e-01" nType="0">
          <Node pos="l" depth="2" NCoef="0" IVar="-1" Cut="0.0000000000000000e+00" cType="1" res="2.9710964299738407e-03" rms="4.2055609822273254e-01" purity="7.3130148649215698e-01" nType="-99"/>
          <Node pos="r" depth="2" NCoef="0" IVar="-1" Cut="0.0000000000000000e+00" cType="1" res="5.6918454356491566e-04" rms="4.5707532763481140e-01" purity="5.4063534736633301e-01" nType="-99"/>
        </Node>
      </Node>
    </BinaryTree>
    <BinaryTree type="DecisionTree" boostWeight="1.0000000000000000e+00" itree="220">
      <Node pos="s" depth="0" NCoef="0" IVar="0" Cut="3.3849450945854187e-01" cType="1" res="2.3729358799755573e-03" rms="4.5126461982727051e-01" purity="5.0083076953887939e-01" nType="0">
        <Node pos="l" depth="1" NCoef="0" IVar="8" Cut="2.3071703910827637e+00" cType="1" res="-7.3795276693999767e-03" rms="4.5410758256912231e-01" purity="4.6335929632186890e-01" nType="0">
          <Node pos="l" depth="2" NCoef="0" IVar="-1" Cut="0.0000000000000000e+00" cType="1" res="4.4314941624179482e-04" rms="4.6097043156623840e-01" purity="5.2982282638549805e-01" nType="-99"/>
          <Node pos="r" depth="2" NCoef="0" IVar="-1" Cut="0.0000000000000000e+00" cType="1" res="-1.7304724315181375e-03" rms="4.4110625982284546e-01" purity="3.5392597317695618e-01" nType="-99"/>
        </Node>
        <Node pos="r" depth="1" NCoef="0" IVar="7" Cut="1.1936340481042862e-01" cType="1" res="5.0564996898174286e-02" rms="4.3373727798461914e-01" purity="6.8599724769592285e-01" nType="0">
          <Node pos="l" depth="2" NCoef="0" IVar="-1" Cut="0.0000000000000000e+00" cType="1" res="1.6278953989967704e-03" rms="4.4295799732208252e-01" purity="6.5356957912445068e-01" nType="-99"/>
          <Node pos="r" depth="2" NCoef="0" IVar="-1" Cut="0.0000000000000000e+00" cType="1" res="4.0156496688723564e-03" rms="4.1046100854873657e-01" purity="7.5817185640335083e-01" nType="-99"/>
        </Node>
      </Node>
    </BinaryTree>
    <BinaryTree type="DecisionTree" boostWeight="1.0000000000000000e+00" itree="221">
      <Node pos="s" depth="0" NCoef="0" IVar="4" Cut="5.4220372438430786e-01" cType="1" res="-6.0698919696733356e-04" rms="4.5080581307411194e-01" purity="5.0018411874771118e-01" nType="0">
        <Node pos="l" depth="1" NCoef="0" IVar="3" Cut="8.9449113607406616e-01" cType="1" res="-5.4733369499444962e-02" rms="4.3326470255851746e-01" purity="3.0714818835258484e-01" nType="0">
          <Node pos="l" depth="2" NCoef="0" IVar="-1" Cut="0.0000000000000000e+00" cType="1" res="-1.1377243790775537e-03" rms="4.5538207888603210e-01" purity="3.7682542204856873e-01" nType="-99"/>
          <Node pos="r" depth="2" NCoef="0" IVar="-1" Cut="0.0000000000000000e+00" cType="1" res="-3.8978252559900284e-03" rms="4.1450774669647217e-01" purity="2.5492745637893677e-01" nType="-99"/>
        </Node>
        <Node pos="r" depth="1" NCoef="0" IVar="7" Cut="9.4262033700942993e-02" cType="1" res="9.5418831333518028e-03" rms="4.5330044627189636e-01" purity="5.3637892007827759e-01" nType="0">
          <Node pos="l" depth="2" NCoef="0" IVar="-1" Cut="0.0000000000000000e+00" cType="1" res="-4.1956134373322129e-04" rms="4.5592170953750610e-01" purity="4.9281027913093567e-01" nType="-99"/>
          <Node pos="r" depth="2" NCoef="0" IVar="-1" Cut="0.0000000000000000e+00" cType="1" res="1.5767073491588235e-03" rms="4.4857427477836609e-01" purity="5.9444880485534668e-01" nType="-99"/>
        </Node>
      </Node>
    </BinaryTree>
    <BinaryTree type="DecisionTree" boostWeight="1.0000000000000000e+00" itree="222">
      <Node pos="s" depth="0" NCoef="0" IVar="5" Cut="1.0875654296875000e+03" cType="1" res="-7.6829903991892934e-04" rms="4.5110997557640076e-01" purity="4.9885916709899902e-01" nType="0">
        <Node pos="l" depth="1" NCoef="0" IVar="4" Cut="9.5108515024185181e-01" cType="1" res="-8.8475076481699944e-03" rms="4.5011731982231140e-01" purity="4.8555648326873779e-01" nType="0">
          <Node pos="l" depth="2" NCoef="0" IVar="-1" Cut="0.0000000000000000e+00" cType="1" res="-7.5437873601913452e-04" rms="4.5324197411537170e-01" purity="4.5925152301788330e-01" nType="-99"/>
          <Node pos="r" depth="2" NCoef="0" IVar="-1" Cut="0.0000000000000000e+00" cType="1" res="3.3409225288778543e-03" rms="4.0783110260963440e-01" purity="7.6101207733154297e-01" nType="-99"/>
        </Node>
        <Node pos="r" depth="1" NCoef="0" IVar="6" Cut="8.7715882062911987e-01" cType="1" res="6.4418047666549683e-02" rms="4.5380851626396179e-01" purity="6.0619086027145386e-01" nType="0">
          <Node pos="l" depth="2" NCoef="0" IVar="-1" Cut="0.0000000000000000e+00" cType="1" res="4.5208227820694447e-03" rms="4.3728032708168030e-01" purity="6.9967520236968994e-01" nType="-99"/>
          <Node pos="r" depth="2" NCoef="0" IVar="-1" Cut="0.0000000000000000e+00" cType="1" res="1.1027271393686533e-03" rms="4.6747365593910217e-01" purity="5.0678765773773193e-01" nType="-99"/>
        </Node>
      </Node>
    </BinaryTree>
    <BinaryTree type="DecisionTree" boostWeight="1.0000000000000000e+00" itree="223">
      <Node pos="s" depth="0" NCoef="0" IVar="2" Cut="7.5946676731109619e-01" cType="1" res="1.7329563852399588e-03" rms="4.5038789510726929e-01" purity="5.0072884559631348e-01" nType="0">
        <Node pos="l" depth="1" NCoef="0" IVar="5" Cut="7.6244464111328125e+02" cType="1" res="-4.7491807490587234e-02" rms="4.3441757559776306e-01" purity="3.1164878606796265e-01" nType="0">
          <Node pos="l" depth="2" NCoef="0" IVar="-1" Cut="0.0000000000000000e+00" cType="1" res="-3.4810125362128019e-03" rms="4.1417875885963440e-01" purity="2.6222899556159973e-01" nType="-99"/>
          <Node pos="r" depth="2" NCoef="0" IVar="-1" Cut="0.0000000000000000e+00" cType="1" res="-5.8779265964403749e-04" rms="4.6336555480957031e-01" purity="3.9201837778091431e-01" nType="-99"/>
        </Node>
        <Node pos="r" depth="1" NCoef="0" IVar="6" Cut="1.8183611631393433e+00" cType="1" res="1.2218671850860119e-02" rms="4.5302671194076538e-01" purity="5.4100614786148071e-01" nType="0">
          <Node pos="l" depth="2" NCoef="0" IVar="-1" Cut="0.0000000000000000e+00" cType="1" res="8.7527895811945200e-04" rms="4.5644941926002502e-01" purity="5.6826317310333252e-01" nType="-99"/>
          <Node pos="r" depth="2" NCoef="0" IVar="-1" Cut="0.0000000000000000e+00" cType="1" res="-3.5734542179852724e-03" rms="4.0392774343490601e-01" purity="2.3452369868755341e-01" nType="-99"/>
        </Node>
      </Node>
    </BinaryTree>
    <BinaryTree type="DecisionTree" boostWeight="1.0000000000000000e+00" itree="224">
      <Node pos="s" depth="0" NCoef="0" IVar="4" Cut="9.0292370319366455e-01" cType="1" res="2.0453631877899170e-03" rms="4.5051863789558411e-01" purity="5.0153446197509766e-01" nType="0">
        <Node pos="l" depth="1" NCoef="0" IVar="0" Cut="5.5595230311155319e-02" cType="1" res="-7.5333528220653534e-03" rms="4.5603877305984497e-01" purity="4.5620572566986084e-01" nType="0">
          <Node pos="l" depth="2" NCoef="0" IVar="-1" Cut="0.0000000000000000e+00" cType="1" res="-2.5867463555186987e-03" rms="4.3827548623085022e-01" purity="3.1736013293266296e-01" nType="-99"/>
          <Node pos="r" depth="2" NCoef="0" IVar="-1" Cut="0.0000000000000000e+00" cType="1" res="1.8399911641608924e-04" rms="4.5963588356971741e-01" purity="4.9086412787437439e-01" nType="-99"/>
        </Node>
        <Node pos="r" depth="1" NCoef="0" IVar="0" Cut="1.5877217054367065e-01" cType="1" res="5.3197126835584641e-02" rms="4.1609701514244080e-01" purity="7.4359667301177979e-01" nType="0">
          <Node pos="l" depth="2" NCoef="0" IVar="-1" Cut="0.0000000000000000e+00" cType="1" res="1.4061238616704941e-03" rms="4.4763666391372681e-01" purity="6.7951482534408569e-01" nType="-99"/>
          <Node pos="r" depth="2" NCoef="0" IVar="-1" Cut="0.0000000000000000e+00" cType="1" res="3.9378139190375805e-03" rms="3.8017848134040833e-01" purity="8.0857414007186890e-01" nType="-99"/>
        </Node>
      </Node>
    </BinaryTree>
    <BinaryTree type="DecisionTree" boostWeight="1.0000000000000000e+00" itree="225">
      <Node pos="s" depth="0" NCoef="0" IVar="0" Cut="3.3849564194679260e-01" cType="1" res="-1.0075197787955403e-03" rms="4.5084071159362793e-01" purity="4.9907827377319336e-01" nType="0">
        <Node pos="l" depth="1" NCoef="0" IVar="4" Cut="9.5121562480926514e-01" cType="1" res="-1.1125423014163971e-02" rms="4.5359373092651367e-01" purity="4.6092301607131958e-01" nType="0">
          <Node pos="l" depth="2" NCoef="0" IVar="-1" Cut="0.0000000000000000e+00" cType="1" res="-8.1960158422589302e-04" rms="4.5604056119918823e-01" purity="4.3669736385345459e-01" nType="-99"/>
          <Node pos="r" depth="2" NCoef="0" IVar="-1" Cut="0.0000000000000000e+00" cType="1" res="3.0775021295994520e-03" rms="4.1642075777053833e-01" purity="7.4244183301925659e-01" nType="-99"/>
        </Node>
        <Node pos="r" depth="1" NCoef="0" IVar="1" Cut="1.2253620624542236e+00" cType="1" res="4.8312969505786896e-02" rms="4.3380701541900635e-01" purity="6.8506890535354614e-01" nType="0">
          <Node pos="l" depth="2" NCoef="0" IVar="-1" Cut="0.0000000000000000e+00" cType="1" res="2.9833572916686535e-03" rms="4.0984714031219482e-01" purity="7.6177579164505005e-01" nType="-99"/>
          <Node pos="r" depth="2" NCoef="0" IVar="-1" Cut="0.0000000000000000e+00" cType="1" res="1.1087574530392885e-03" rms="4.7218441963195801e-01" purity="5.5003905296325684e-01" nType="-99"/>
        </Node>
      </Node>
    </BinaryTree>
    <BinaryTree type="DecisionTree" boostWeight="1.0000000000000000e+00" itree="226">
      <Node pos="s" depth="0" NCoef="0" IVar="4" Cut="9.0317541360855103e-01" cType="1" res="-1.3651927001774311e-03" rms="4.5117858052253723e-01" purity="4.9695104360580444e-01" nType="0">
        <Node pos="l" depth="1" NCoef="0" IVar="5" Cut="6.0152331542968750e+02" cType="1" res="-1.0908735916018486e-02" rms="4.5668998360633850e-01" purity="4.5178148150444031e-01" nType="0">
          <Node pos="l" depth="2" NCoef="0" IVar="-1" Cut="0.0000000000000000e+00" cType="1" res="-1.9823212642222643e-03" rms="4.4367325305938721e-01" purity="3.7111368775367737e-01" nType="-99"/>
          <Node pos="r" depth="2" NCoef="0" IVar="-1" Cut="0.0000000000000000e+00" cType="1" res="2.8236806974746287e-04" rms="4.6292379498481750e-01" purity="4.9690628051757812e-01" nType="-99"/>
        </Node>
        <Node pos="r" depth="1" NCoef="0" IVar="2" Cut="9.8153686523437500e-01" cType="1" res="4.9931079149246216e-02" rms="4.1658970713615417e-01" purity="7.3973590135574341e-01" nType="0">
          <Node pos="l" depth="2" NCoef="0" IVar="-1" Cut="0.0000000000000000e+00" cType="1" res="1.1149966157972813e-03" rms="4.2875230312347412e-01" purity="7.0992404222488403e-01" nType="-99"/>
          <Node pos="r" depth="2" NCoef="0" IVar="-1" Cut="0.0000000000000000e+00" cType="1" res="3.2281966414302588e-03" rms="4.0765702724456787e-01" purity="7.5889229774475098e-01" nType="-99"/>
        </Node>
      </Node>
    </BinaryTree>
    <BinaryTree type="DecisionTree" boostWeight="1.0000000000000000e+00" itree="227">
      <Node pos="s" depth="0" NCoef="0" IVar="4" Cut="5.9026718139648438e-01" cType="1" res="1.4027616707608104e-03" rms="4.5086520910263062e-01" purity="5.0161564350128174e-01" nType="0">
        <Node pos="l" depth="1" NCoef="0" IVar="0" Cut="3.1019058823585510e-01" cType="1" res="-3.2262798398733139e-02" rms="4.4053763151168823e-01" purity="3.3406513929367065e-01" nType="0">
          <Node pos="l" depth="2" NCoef="0" IVar="-1" Cut="0.0000000000000000e+00" cType="1" res="-2.1931589581072330e-03" rms="4.3198922276496887e-01" purity="2.8607395291328430e-01" nType="-99"/>
          <Node pos="r" depth="2" NCoef="0" IVar="-1" Cut="0.0000000000000000e+00" cType="1" res="8.9730770559981465e-04" rms="4.7299751639366150e-01" purity="5.4732608795166016e-01" nType="-99"/>
        </Node>
        <Node pos="r" depth="1" NCoef="0" IVar="1" Cut="1.6296972036361694e+00" cType="1" res="1.5008621849119663e-02" rms="4.5426520705223083e-01" purity="5.6933087110519409e-01" nType="0">
          <Node pos="l" depth="2" NCoef="0" IVar="-1" Cut="0.0000000000000000e+00" cType="1" res="9.6494180615991354e-04" rms="4.5512521266937256e-01" purity="5.9258371591567993e-01" nType="-99"/>
          <Node pos="r" depth="2" NCoef="0" IVar="-1" Cut="0.0000000000000000e+00" cType="1" res="-2.3712306283414364e-03" rms="4.4012182950973511e-01" purity="3.2980033755302429e-01" nType="-99"/>
        </Node>
      </Node>
    </BinaryTree>
    <BinaryTree type="DecisionTree" boostWeight="1.0000000000000000e+00" itree="228">
      <Node pos="s" depth="0" NCoef="0" IVar="2" Cut="6.4064389467239380e-01" cType="1" res="1.6825401689857244e-03" rms="4.5183590054512024e-01" purity="5.0026142597198486e-01" nType="0">
        <Node pos="l" depth="1" NCoef="0" IVar="-1" Cut="0.0000000000000000e+00" cType="1" res="-4.0844702161848545e-03" rms="4.0964552760124207e-01" purity="2.5535246729850769e-01" nType="-99"/>
        <Node pos="r" depth="1" NCoef="0" IVar="1" Cut="1.5244715213775635e+00" cType="1" res="7.2509841993451118e-03" rms="4.5399054884910583e-01" purity="5.1672911643981934e-01" nType="0">
          <Node pos="l" depth="2" NCoef="0" IVar="-1" Cut="0.0000000000000000e+00" cType="1" res="7.3454226367175579e-04" rms="4.5717957615852356e-01" purity="5.5256307125091553e-01" nType="-99"/>
          <Node pos="r" depth="2" NCoef="0" IVar="-1" Cut="0.0000000000000000e+00" cType="1" res="-2.0740255713462830e-03" rms="4.3246251344680786e-01" purity="3.1715217232704163e-01" nType="-99"/>
        </Node>
      </Node>
    </BinaryTree>
    <BinaryTree type="DecisionTree" boostWeight="1.0000000000000000e+00" itree="229">
      <Node pos="s" depth="0" NCoef="0" IVar="3" Cut="5.3638660907745361e-01" cType="1" res="-1.3414862332865596e-03" rms="4.5107406377792358e-01" purity="4.9920916557312012e-01" nType="0">
        <Node pos="l" depth="1" NCoef="0" IVar="0" Cut="6.9661103188991547e-02" cType="1" res="3.7896424531936646e-02" rms="4.4694593548774719e-01" purity="5.9994864463806152e-01" nType="0">
          <Node pos="l" depth="2" NCoef="0" IVar="-1" Cut="0.0000000000000000e+00" cType="1" res="-3.0052426154725254e-04" rms="4.6465018391609192e-01" purity="4.5242738723754883e-01" nType="-99"/>
          <Node pos="r" depth="2" NCoef="0" IVar="-1" Cut="0.0000000000000000e+00" cType="1" res="2.4369957391172647e-03" rms="4.3969696760177612e-01" purity="6.5036600828170776e-01" nType="-99"/>
        </Node>
        <Node pos="r" depth="1" NCoef="0" IVar="5" Cut="8.5419384765625000e+02" cType="1" res="-1.3722569681704044e-02" rms="4.5166191458702087e-01" purity="4.6742200851440430e-01" nType="0">
          <Node pos="l" depth="2" NCoef="0" IVar="-1" Cut="0.0000000000000000e+00" cType="1" res="-1.2198020704090595e-03" rms="4.4817441701889038e-01" purity="4.4017532467842102e-01" nType="-99"/>
          <Node pos="r" depth="2" NCoef="0" IVar="-1" Cut="0.0000000000000000e+00" cType="1" res="9.9841458722949028e-04" rms="4.5985689759254456e-01" purity="5.4717141389846802e-01" nType="-99"/>
        </Node>
      </Node>
    </BinaryTree>
    <BinaryTree type="DecisionTree" boostWeight="1.0000000000000000e+00" itree="230">
      <Node pos="s" depth="0" NCoef="0" IVar="6" Cut="1.7414054870605469e+00" cType="1" res="5.6640636175870895e-03" rms="4.5038753747940063e-01" purity="5.0414735078811646e-01" nType="0">
        <Node pos="l" depth="1" NCoef="0" IVar="2" Cut="6.6333347558975220e-01" cType="1" res="1.3486305251717567e-02" rms="4.5528307557106018e-01" purity="5.3672963380813599e-01" nType="0">
          <Node pos="l" depth="2" NCoef="0" IVar="-1" Cut="0.0000000000000000e+00" cType="1" res="-2.8579663485288620e-03" rms="4.3624281883239746e-01" purity="2.9856655001640320e-01" nType="-99"/>
          <Node pos="r" depth="2" NCoef="0" IVar="-1" Cut="0.0000000000000000e+00" cType="1" res="8.8401517132297158e-04" rms="4.5630845427513123e-01" purity="5.5646032094955444e-01" nType="-99"/>
        </Node>
        <Node pos="r" depth="1" NCoef="0" IVar="8" Cut="2.8944582939147949e+00" cType="1" res="-5.9350762516260147e-02" rms="4.0157473087310791e-01" purity="2.3333854973316193e-01" nType="0">
          <Node pos="l" depth="2" NCoef="0" IVar="-1" Cut="0.0000000000000000e+00" cType="1" res="-1.7551151104271412e-03" rms="4.2786762118339539e-01" purity="2.8193119168281555e-01" nType="-99"/>
          <Node pos="r" depth="2" NCoef="0" IVar="-1" Cut="0.0000000000000000e+00" cType="1" res="-4.6114018186926842e-03" rms="3.7468594312667847e-01" purity="1.8924848735332489e-01" nType="-99"/>
        </Node>
      </Node>
    </BinaryTree>
    <BinaryTree type="DecisionTree" boostWeight="1.0000000000000000e+00" itree="231">
      <Node pos="s" depth="0" NCoef="0" IVar="4" Cut="8.7904006242752075e-01" cType="1" res="2.4288864806294441e-03" rms="4.5013704895973206e-01" purity="5.0102716684341431e-01" nType="0">
        <Node pos="l" depth="1" NCoef="0" IVar="5" Cut="9.3283892822265625e+02" cType="1" res="-8.6418818682432175e-03" rms="4.5675763487815857e-01" purity="4.4519922137260437e-01" nType="0">
          <Node pos="l" depth="2" NCoef="0" IVar="-1" Cut="0.0000000000000000e+00" cType="1" res="-9.2364702140912414e-04" rms="4.5315623283386230e-01" purity="4.2134872078895569e-01" nType="-99"/>
          <Node pos="r" depth="2" NCoef="0" IVar="-1" Cut="0.0000000000000000e+00" cType="1" res="1.6119398642331362e-03" rms="4.6816387772560120e-01" purity="5.4044955968856812e-01" nType="-99"/>
        </Node>
        <Node pos="r" depth="1" NCoef="0" IVar="4" Cut="9.5350998640060425e-01" cType="1" res="4.8923302441835403e-02" rms="4.1800829768180847e-01" purity="7.3549038171768188e-01" nType="0">
          <Node pos="l" depth="2" NCoef="0" IVar="-1" Cut="0.0000000000000000e+00" cType="1" res="1.4582084259018302e-03" rms="4.2828506231307983e-01" purity="7.0974177122116089e-01" nType="-99"/>
          <Node pos="r" depth="2" NCoef="0" IVar="-1" Cut="0.0000000000000000e+00" cType="1" res="3.6386190913617611e-03" rms="4.0186366438865662e-01" purity="7.7128404378890991e-01" nType="-99"/>
        </Node>
      </Node>
    </BinaryTree>
    <BinaryTree type="DecisionTree" boostWeight="1.0000000000000000e+00" itree="232">
      <Node pos="s" depth="0" NCoef="0" IVar="0" Cut="5.5594246834516525e-02" cType="1" res="4.9846479669213295e-03" rms="4.5039525628089905e-01" purity="5.0650757551193237e-01" nType="0">
        <Node pos="l" depth="1" NCoef="0" IVar="2" Cut="9.1701066493988037e-01" cType="1" res="-4.0554370731115341e-02" rms="4.4048729538917542e-01" purity="3.6971133947372437e-01" nType="0">
          <Node pos="l" depth="2" NCoef="0" IVar="-1" Cut="0.0000000000000000e+00" cType="1" res="-3.4108343534171581e-03" rms="4.2191687226295471e-01" purity="2.6519367098808289e-01" nType="-99"/>
          <Node pos="r" depth="2" NCoef="0" IVar="-1" Cut="0.0000000000000000e+00" cType="1" res="-7.0139515446498990e-04" rms="4.5547017455101013e-01" purity="4.6581482887268066e-01" nType="-99"/>
        </Node>
        <Node pos="r" depth="1" NCoef="0" IVar="7" Cut="8.9066043496131897e-02" cType="1" res="1.5935977920889854e-02" rms="4.5206186175346375e-01" purity="5.3940474987030029e-01" nType="0">
          <Node pos="l" depth="2" NCoef="0" IVar="-1" Cut="0.0000000000000000e+00" cType="1" res="-2.7134650736115873e-04" rms="4.5379579067230225e-01" purity="4.9122637510299683e-01" nType="-99"/>
          <Node pos="r" depth="2" NCoef="0" IVar="-1" Cut="0.0000000000000000e+00" cType="1" res="1.9519189372658730e-03" rms="4.4849020242691040e-01" purity="5.9838074445724487e-01" nType="-99"/>
        </Node>
      </Node>
    </BinaryTree>
    <BinaryTree type="DecisionTree" boostWeight="1.0000000000000000e+00" itree="233">
      <Node pos="s" depth="0" NCoef="0" IVar="4" Cut="5.5425250530242920e-01" cType="1" res="-1.6070735873654485e-03" rms="4.4999814033508301e-01" purity="4.9829080700874329e-01" nType="0">
        <Node pos="l" depth="1" NCoef="0" IVar="5" Cut="8.3902313232421875e+02" cType="1" res="-4.7983478754758835e-02" rms="4.3335482478141785e-01" purity="3.1143680214881897e-01" nType="0">
          <Node pos="l" depth="2" NCoef="0" IVar="-1" Cut="0.0000000000000000e+00" cType="1" res="-3.0620642937719822e-03" rms="4.1916456818580627e-01" purity="2.7888029813766479e-01" nType="-99"/>
          <Node pos="r" depth="2" NCoef="0" IVar="-1" Cut="0.0000000000000000e+00" cType="1" res="-5.5328733287751675e-04" rms="4.6739825606346130e-01" purity="3.9871537685394287e-01" nType="-99"/>
        </Node>
        <Node pos="r" depth="1" NCoef="0" IVar="5" Cut="5.1596337890625000e+02" cType="1" res="9.6691707149147987e-03" rms="4.5323604345321655e-01" purity="5.4372364282608032e-01" nType="0">
          <Node pos="l" depth="2" NCoef="0" IVar="-1" Cut="0.0000000000000000e+00" cType="1" res="-1.5279860235750675e-03" rms="4.4492265582084656e-01" purity="4.3453669548034668e-01" nType="-99"/>
          <Node pos="r" depth="2" NCoef="0" IVar="-1" Cut="0.0000000000000000e+00" cType="1" res="8.6517713498324156e-04" rms="4.5451036095619202e-01" purity="5.6763154268264771e-01" nType="-99"/>
        </Node>
      </Node>
    </BinaryTree>
    <BinaryTree type="DecisionTree" boostWeight="1.0000000000000000e+00" itree="234">
      <Node pos="s" depth="0" NCoef="0" IVar="1" Cut="9.0182518959045410e-01" cType="1" res="4.5983615564182401e-04" rms="4.4906815886497498e-01" purity="5.0023466348648071e-01" nType="0">
        <Node pos="l" depth="1" NCoef="0" IVar="0" Cut="1.2630037963390350e-01" cType="1" res="3.4451331943273544e-02" rms="4.4227364659309387e-01" purity="6.4183807373046875e-01" nType="0">
          <Node pos="l" depth="2" NCoef="0" IVar="-1" Cut="0.0000000000000000e+00" cType="1" res="4.5947133912704885e-04" rms="4.6639168262481689e-01" purity="5.2838116884231567e-01" nType="-99"/>
          <Node pos="r" depth="2" NCoef="0" IVar="-1" Cut="0.0000000000000000e+00" cType="1" res="2.6210676878690720e-03" rms="4.1988375782966614e-01" purity="7.3717385530471802e-01" nType="-99"/>
        </Node>
        <Node pos="r" depth="1" NCoef="0" IVar="0" Cut="3.6678570508956909e-01" cType="1" res="-1.3097572140395641e-02" rms="4.5103555917739868e-01" purity="4.4375658035278320e-01" nType="0">
          <Node pos="l" depth="2" NCoef="0" IVar="-1" Cut="0.0000000000000000e+00" cType="1" res="-9.8936259746551514e-04" rms="4.5099022984504700e-01" purity="4.1393411159515381e-01" nType="-99"/>
          <Node pos="r" depth="2" NCoef="0" IVar="-1" Cut="0.0000000000000000e+00" cType="1" res="1.8047881312668324e-03" rms="4.4769799709320068e-01" purity="6.4226037263870239e-01" nType="-99"/>
        </Node>
      </Node>
    </BinaryTree>
    <BinaryTree type="DecisionTree" boostWeight="1.0000000000000000e+00" itree="235">
      <Node pos="s" depth="0" NCoef="0" IVar="7" Cut="7.8102551400661469e-02" cType="1" res="3.6968679632991552e-03" rms="4.5060318708419800e-01" purity="5.0365763902664185e-01" nType="0">
        <Node pos="l" depth="1" NCoef="0" IVar="5" Cut="1.0850211181640625e+03" cType="1" res="-2.0193833857774734e-02" rms="4.4953799247741699e-01" purity="4.5165005326271057e-01" nType="0">
          <Node pos="l" depth="2" NCoef="0" IVar="-1" Cut="0.0000000000000000e+00" cType="1" res="-1.5842807479202747e-03" rms="4.4658765196800232e-01" purity="4.2503127455711365e-01" nType="-99"/>
          <Node pos="r" depth="2" NCoef="0" IVar="-1" Cut="0.0000000000000000e+00" cType="1" res="2.0882075186818838e-03" rms="4.5818772912025452e-01" purity="5.8443766832351685e-01" nType="-99"/>
        </Node>
        <Node pos="r" depth="1" NCoef="0" IVar="2" Cut="9.3973040580749512e-01" cType="1" res="2.5620033964514732e-02" rms="4.5046499371528625e-01" purity="5.5138206481933594e-01" nType="0">
          <Node pos="l" depth="2" NCoef="0" IVar="-1" Cut="0.0000000000000000e+00" cType="1" res="1.0181836842093617e-04" rms="4.6083831787109375e-01" purity="4.5968404412269592e-01" nType="-99"/>
          <Node pos="r" depth="2" NCoef="0" IVar="-1" Cut="0.0000000000000000e+00" cType="1" res="2.3450527805835009e-03" rms="4.3781465291976929e-01" purity="6.4875078201293945e-01" nType="-99"/>
        </Node>
      </Node>
    </BinaryTree>
    <BinaryTree type="DecisionTree" boostWeight="1.0000000000000000e+00" itree="236">
      <Node pos="s" depth="0" NCoef="0" IVar="1" Cut="1.6166998147964478e+00" cType="1" res="6.7955348640680313e-04" rms="4.5127120614051819e-01" purity="5.0019586086273193e-01" nType="0">
        <Node pos="l" depth="1" NCoef="0" IVar="4" Cut="8.4301644563674927e-01" cType="1" res="7.8974971547722816e-03" rms="4.5460379123687744e-01" purity="5.2638351917266846e-01" nType="0">
          <Node pos="l" depth="2" NCoef="0" IVar="-1" Cut="0.0000000000000000e+00" cType="1" res="-1.5088338113855571e-04" rms="4.6433770656585693e-01" purity="4.5663350820541382e-01" nType="-99"/>
          <Node pos="r" depth="2" NCoef="0" IVar="-1" Cut="0.0000000000000000e+00" cType="1" res="2.0033665932714939e-03" rms="4.2253965139389038e-01" purity="7.3404169082641602e-01" nType="-99"/>
        </Node>
        <Node pos="r" depth="1" NCoef="0" IVar="4" Cut="6.5027266740798950e-01" cType="1" res="-6.2022250145673752e-02" rms="4.1597646474838257e-01" purity="2.7270522713661194e-01" nType="0">
          <Node pos="l" depth="2" NCoef="0" IVar="-1" Cut="0.0000000000000000e+00" cType="1" res="-4.1609420441091061e-03" rms="3.7438416481018066e-01" purity="1.8658325076103210e-01" nType="-99"/>
          <Node pos="r" depth="2" NCoef="0" IVar="-1" Cut="0.0000000000000000e+00" cType="1" res="-2.4041510187089443e-03" rms="4.5219355821609497e-01" purity="3.5559526085853577e-01" nType="-99"/>
        </Node>
      </Node>
    </BinaryTree>
    <BinaryTree type="DecisionTree" boostWeight="1.0000000000000000e+00" itree="237">
      <Node pos="s" depth="0" NCoef="0" IVar="0" Cut="4.0920209884643555e-01" cType="1" res="-2.4895686656236649e-03" rms="4.5021459460258484e-01" purity="4.9607205390930176e-01" nType="0">
        <Node pos="l" depth="1" NCoef="0" IVar="4" Cut="8.9090126752853394e-01" cType="1" res="-9.2614842578768730e-03" rms="4.5199441909790039e-01" purity="4.7537639737129211e-01" nType="0">
          <Node pos="l" depth="2" NCoef="0" IVar="-1" Cut="0.0000000000000000e+00" cType="1" res="-8.7000930216163397e-04" rms="4.5627185702323914e-01" purity="4.2446756362915039e-01" nType="-99"/>
          <Node pos="r" depth="2" NCoef="0" IVar="-1" Cut="0.0000000000000000e+00" cType="1" res="1.7615660326555371e-03" rms="4.2783027887344360e-01" purity="7.2027105093002319e-01" nType="-99"/>
        </Node>
        <Node pos="r" depth="1" NCoef="0" IVar="-1" Cut="0.0000000000000000e+00" cType="1" res="3.2055380288511515e-03" rms="4.2467743158340454e-01" purity="7.1293401718139648e-01" nType="-99"/>
      </Node>
    </BinaryTree>
    <BinaryTree type="DecisionTree" boostWeight="1.0000000000000000e+00" itree="238">
      <Node pos="s" depth="0" NCoef="0" IVar="4" Cut="5.5423533916473389e-01" cType="1" res="2.8912089765071869e-03" rms="4.5000213384628296e-01" purity="5.0162696838378906e-01" nType="0">
        <Node pos="l" depth="1" NCoef="0" IVar="7" Cut="9.3294009566307068e-02" cType="1" res="-4.2941421270370483e-02" rms="4.3597370386123657e-01" purity="3.1454518437385559e-01" nType="0">
          <Node pos="l" depth="2" NCoef="0" IVar="-1" Cut="0.0000000000000000e+00" cType="1" res="-3.1523257493972778e-03" rms="4.2491617798805237e-01" purity="2.7931553125381470e-01" nType="-99"/>
          <Node pos="r" depth="2" NCoef="0" IVar="-1" Cut="0.0000000000000000e+00" cType="1" res="-5.5409275228157640e-04" rms="4.5080083608627319e-01" purity="3.6913710832595825e-01" nType="-99"/>
        </Node>
        <Node pos="r" depth="1" NCoef="0" IVar="5" Cut="5.1042745971679688e+02" cType="1" res="1.4099941588938236e-02" rms="4.5266118645668030e-01" purity="5.4737931489944458e-01" nType="0">
          <Node pos="l" depth="2" NCoef="0" IVar="-1" Cut="0.0000000000000000e+00" cType="1" res="-1.3610628666356206e-03" rms="4.4878324866294861e-01" purity="4.4023174047470093e-01" nType="-99"/>
          <Node pos="r" depth="2" NCoef="0" IVar="-1" Cut="0.0000000000000000e+00" cType="1" res="1.0492631699889898e-03" rms="4.5294615626335144e-01" purity="5.6943911314010620e-01" nType="-99"/>
        </Node>
      </Node>
    </BinaryTree>
    <BinaryTree type="DecisionTree" boostWeight="1.0000000000000000e+00" itree="239">
      <Node pos="s" depth="0" NCoef="0" IVar="0" Cut="8.3884112536907196e-02" cType="1" res="1.6515419119969010e-03" rms="4.5089703798294067e-01" purity="5.0076848268508911e-01" nType="0">
        <Node pos="l" depth="1" NCoef="0" IVar="2" Cut="9.7601836919784546e-01" cType="1" res="-2.8150558471679688e-02" rms="4.4554907083511353e-01" purity="3.8076204061508179e-01" nType="0">
          <Node pos="l" depth="2" NCoef="0" IVar="-1" Cut="0.0000000000000000e+00" cType="1" res="-2.0816836040467024e-03" rms="4.4092789292335510e-01" purity="3.3258444070816040e-01" nType="-99"/>
          <Node pos="r" depth="2" NCoef="0" IVar="-1" Cut="0.0000000000000000e+00" cType="1" res="5.1008135778829455e-04" rms="4.5541965961456299e-01" purity="5.1053065061569214e-01" nType="-99"/>
        </Node>
        <Node pos="r" depth="1" NCoef="0" IVar="3" Cut="2.4475736618041992e+00" cType="1" res="1.5954950824379921e-02" rms="4.5274519920349121e-01" purity="5.5836510658264160e-01" nType="0">
          <Node pos="l" depth="2" NCoef="0" IVar="-1" Cut="0.0000000000000000e+00" cType="1" res="1.0207238374277949e-03" rms="4.5403397083282471e-01" purity="5.7863789796829224e-01" nType="-99"/>
          <Node pos="r" depth="2" NCoef="0" IVar="-1" Cut="0.0000000000000000e+00" cType="1" res="-2.4298280477523804e-03" rms="4.3347099423408508e-01" purity="3.4633377194404602e-01" nType="-99"/>
        </Node>
      </Node>
    </BinaryTree>
    <BinaryTree type="DecisionTree" boostWeight="1.0000000000000000e+00" itree="240">
      <Node pos="s" depth="0" NCoef="0" IVar="5" Cut="5.6055773925781250e+02" cType="1" res="3.3085010945796967e-03" rms="4.5063456892967224e-01" purity="5.0320798158645630e-01" nType="0">
        <Node pos="l" depth="1" NCoef="0" IVar="7" Cut="1.5804967284202576e-01" cType="1" res="-3.2017882913351059e-02" rms="4.3930917978286743e-01" purity="4.1374403238296509e-01" nType="0">
          <Node pos="l" depth="2" NCoef="0" IVar="-1" Cut="0.0000000000000000e+00" cType="1" res="-2.5330146308988333e-03" rms="4.3234568834304810e-01" purity="3.6993047595024109e-01" nType="-99"/>
          <Node pos="r" depth="2" NCoef="0" IVar="-1" Cut="0.0000000000000000e+00" cType="1" res="1.1129603954032063e-03" rms="4.5363920927047729e-01" purity="5.3685069084167480e-01" nType="-99"/>
        </Node>
        <Node pos="r" depth="1" NCoef="0" IVar="7" Cut="7.3733747005462646e-02" cType="1" res="1.6733746975660324e-02" rms="4.5414465665817261e-01" purity="5.3720742464065552e-01" nType="0">
          <Node pos="l" depth="2" NCoef="0" IVar="-1" Cut="0.0000000000000000e+00" cType="1" res="-2.3997016251087189e-04" rms="4.5435187220573425e-01" purity="4.8391240835189819e-01" nType="-99"/>
          <Node pos="r" depth="2" NCoef="0" IVar="-1" Cut="0.0000000000000000e+00" cType="1" res="1.8109960947185755e-03" rms="4.5280396938323975e-01" purity="5.9264886379241943e-01" nType="-99"/>
        </Node>
      </Node>
    </BinaryTree>
    <BinaryTree type="DecisionTree" boostWeight="1.0000000000000000e+00" itree="241">
      <Node pos="s" depth="0" NCoef="0" IVar="7" Cut="8.9168101549148560e-02" cType="1" res="5.5478923022747040e-03" rms="4.5141214132308960e-01" purity="5.0606948137283325e-01" nType="0">
        <Node pos="l" depth="1" NCoef="0" IVar="5" Cut="5.1788018798828125e+02" cType="1" res="-1.1478642001748085e-02" rms="4.5082670450210571e-01" purity="4.6443086862564087e-01" nType="0">
          <Node pos="l" depth="2" NCoef="0" IVar="-1" Cut="0.0000000000000000e+00" cType="1" res="-3.2751511316746473e-03" rms="4.2571610212326050e-01" purity="3.2121828198432922e-01" nType="-99"/>
          <Node pos="r" depth="2" NCoef="0" IVar="-1" Cut="0.0000000000000000e+00" cType="1" res="-1.3920644414611161e-04" rms="4.5405566692352295e-01" purity="4.8688679933547974e-01" nType="-99"/>
        </Node>
        <Node pos="r" depth="1" NCoef="0" IVar="5" Cut="5.0631732177734375e+02" cType="1" res="2.6510940864682198e-02" rms="4.5125037431716919e-01" purity="5.5733478069305420e-01" nType="0">
          <Node pos="l" depth="2" NCoef="0" IVar="-1" Cut="0.0000000000000000e+00" cType="1" res="-8.8902644347399473e-04" rms="4.4510439038276672e-01" purity="4.4467905163764954e-01" nType="-99"/>
          <Node pos="r" depth="2" NCoef="0" IVar="-1" Cut="0.0000000000000000e+00" cType="1" res="1.8456332618370652e-03" rms="4.5219591259956360e-01" purity="5.9136414527893066e-01" nType="-99"/>
        </Node>
      </Node>
    </BinaryTree>
    <BinaryTree type="DecisionTree" boostWeight="1.0000000000000000e+00" itree="242">
      <Node pos="s" depth="0" NCoef="0" IVar="3" Cut="2.1527690887451172e+00" cType="1" res="5.6371833197772503e-03" rms="4.5049330592155457e-01" purity="5.0582140684127808e-01" nType="0">
        <Node pos="l" depth="1" NCoef="0" IVar="5" Cut="5.3156268310546875e+02" cType="1" res="1.3757162727415562e-02" rms="4.5334151387214661e-01" purity="5.3243380784988403e-01" nType="0">
          <Node pos="l" depth="2" NCoef="0" IVar="-1" Cut="0.0000000000000000e+00" cType="1" res="-1.0071332799270749e-03" rms="4.4797351956367493e-01" purity="4.3563395738601685e-01" nType="-99"/>
          <Node pos="r" depth="2" NCoef="0" IVar="-1" Cut="0.0000000000000000e+00" cType="1" res="1.0498663177713752e-03" rms="4.5429238677024841e-01" purity="5.5782705545425415e-01" nType="-99"/>
        </Node>
        <Node pos="r" depth="1" NCoef="0" IVar="8" Cut="2.2881817817687988e+00" cType="1" res="-4.8035651445388794e-02" rms="4.2733076214790344e-01" purity="3.2991388440132141e-01" nType="0">
          <Node pos="l" depth="2" NCoef="0" IVar="-1" Cut="0.0000000000000000e+00" cType="1" res="-1.0588263394311070e-03" rms="4.5649132132530212e-01" purity="4.2749381065368652e-01" nType="-99"/>
          <Node pos="r" depth="2" NCoef="0" IVar="-1" Cut="0.0000000000000000e+00" cType="1" res="-3.4670929890125990e-03" rms="4.0360903739929199e-01" purity="2.5831505656242371e-01" nType="-99"/>
        </Node>
      </Node>
    </BinaryTree>
    <BinaryTree type="DecisionTree" boostWeight="1.0000000000000000e+00" itree="243">
      <Node pos="s" depth="0" NCoef="0" IVar="2" Cut="7.7172040939331055e-01" cType="1" res="-1.0674666846171021e-03" rms="4.5110493898391724e-01" purity="4.9825084209442139e-01" nType="0">
        <Node pos="l" depth="1" NCoef="0" IVar="5" Cut="7.5309057617187500e+02" cType="1" res="-4.0797606110572815e-02" rms="4.3399530649185181e-01" purity="3.2059949636459351e-01" nType="0">
          <Node pos="l" depth="2" NCoef="0" IVar="-1" Cut="0.0000000000000000e+00" cType="1" res="-3.2100046519190073e-03" rms="4.1421905159950256e-01" purity="2.6632511615753174e-01" nType="-99"/>
          <Node pos="r" depth="2" NCoef="0" IVar="-1" Cut="0.0000000000000000e+00" cType="1" res="-3.3098983112722635e-04" rms="4.6047639846801758e-01" purity="4.0325295925140381e-01" nType="-99"/>
        </Node>
        <Node pos="r" depth="1" NCoef="0" IVar="3" Cut="8.0738437175750732e-01" cType="1" res="8.3371130749583244e-03" rms="4.5455282926559448e-01" purity="5.4030299186706543e-01" nType="0">
          <Node pos="l" depth="2" NCoef="0" IVar="-1" Cut="0.0000000000000000e+00" cType="1" res="1.4036002103239298e-03" rms="4.4976025819778442e-01" purity="6.1444079875946045e-01" nType="-99"/>
          <Node pos="r" depth="2" NCoef="0" IVar="-1" Cut="0.0000000000000000e+00" cType="1" res="-3.0748796416446567e-04" rms="4.5714464783668518e-01" purity="4.9031811952590942e-01" nType="-99"/>
        </Node>
      </Node>
    </BinaryTree>
    <BinaryTree type="DecisionTree" boostWeight="1.0000000000000000e+00" itree="244">
      <Node pos="s" depth="0" NCoef="0" IVar="8" Cut="2.2945301532745361e+00" cType="1" res="7.6078868005424738e-06" rms="4.4984266161918640e-01" purity="4.9907779693603516e-01" nType="0">
        <Node pos="l" depth="1" NCoef="0" IVar="3" Cut="1.5590833425521851e+00" cType="1" res="1.8222955986857414e-02" rms="4.5331838726997375e-01" purity="5.6928741931915283e-01" nType="0">
          <Node pos="l" depth="2" NCoef="0" IVar="-1" Cut="0.0000000000000000e+00" cType="1" res="1.3278613332659006e-03" rms="4.5139181613922119e-01" purity="5.9983956813812256e-01" nType="-99"/>
          <Node pos="r" depth="2" NCoef="0" IVar="-1" Cut="0.0000000000000000e+00" cType="1" res="-1.0931349825114012e-03" rms="4.5828452706336975e-01" purity="4.5075151324272156e-01" nType="-99"/>
        </Node>
        <Node pos="r" depth="1" NCoef="0" IVar="2" Cut="8.1966316699981689e-01" cType="1" res="-2.9310341924428940e-02" rms="4.4261986017227173e-01" purity="3.8607406616210938e-01" nType="0">
          <Node pos="l" depth="2" NCoef="0" IVar="-1" Cut="0.0000000000000000e+00" cType="1" res="-3.4424145705997944e-03" rms="4.0552061796188354e-01" purity="2.4272280931472778e-01" nType="-99"/>
          <Node pos="r" depth="2" NCoef="0" IVar="-1" Cut="0.0000000000000000e+00" cType="1" res="-7.1525003295391798e-04" rms="4.5556315779685974e-01" purity="4.4216915965080261e-01" nType="-99"/>
        </Node>
      </Node>
    </BinaryTree>
    <BinaryTree type="DecisionTree" boostWeight="1.0000000000000000e+00" itree="245">
      <Node pos="s" depth="0" NCoef="0" IVar="8" Cut="2.2593679428100586e+00" cType="1" res="5.5473146494477987e-04" rms="4.5022910833358765e-01" purity="5.0077962875366211e-01" nType="0">
        <Node pos="l" depth="1" NCoef="0" IVar="5" Cut="6.4525610351562500e+02" cType="1" res="1.8323166295886040e-02" rms="4.5353949069976807e-01" purity="5.7321685552597046e-01" nType="0">
          <Node pos="l" depth="2" NCoef="0" IVar="-1" Cut="0.0000000000000000e+00" cType="1" res="-3.0123899341560900e-04" rms="4.5216622948646545e-01" purity="5.1363623142242432e-01" nType="-99"/>
          <Node pos="r" depth="2" NCoef="0" IVar="-1" Cut="0.0000000000000000e+00" cType="1" res="1.6210925532504916e-03" rms="4.5368775725364685e-01" purity="6.1493438482284546e-01" nType="-99"/>
        </Node>
        <Node pos="r" depth="1" NCoef="0" IVar="4" Cut="9.0281033515930176e-01" cType="1" res="-2.3101443424820900e-02" rms="4.4468316435813904e-01" purity="4.0433964133262634e-01" nType="0">
          <Node pos="l" depth="2" NCoef="0" IVar="-1" Cut="0.0000000000000000e+00" cType="1" res="-1.5419287374243140e-03" rms="4.4381335377693176e-01" purity="3.6406454443931580e-01" nType="-99"/>
          <Node pos="r" depth="2" NCoef="0" IVar="-1" Cut="0.0000000000000000e+00" cType="1" res="1.4800445642322302e-03" rms="4.4605150818824768e-01" purity="6.5623086690902710e-01" nType="-99"/>
        </Node>
      </Node>
    </BinaryTree>
    <BinaryTree type="DecisionTree" boostWeight="1.0000000000000000e+00" itree="246">
      <Node pos="s" depth="0" NCoef="0" IVar="7" Cut="1.4464966952800751e-01" cType="1" res="7.9062453005462885e-04" rms="4.5056375861167908e-01" purity="5.0116938352584839e-01" nType="0">
        <Node pos="l" depth="1" NCoef="0" IVar="5" Cut="6.6700561523437500e+02" cType="1" res="-9.1963270679116249e-03" rms="4.5079892873764038e-01" purity="4.7753649950027466e-01" nType="0">
          <Node pos="l" depth="2" NCoef="0" IVar="-1" Cut="0.0000000000000000e+00" cType="1" res="-1.6744046006351709e-03" rms="4.4264119863510132e-01" purity="4.0492406487464905e-01" nType="-99"/>
          <Node pos="r" depth="2" NCoef="0" IVar="-1" Cut="0.0000000000000000e+00" cType="1" res="4.7151691978797317e-04" rms="4.5593529939651489e-01" purity="5.3268152475357056e-01" nType="-99"/>
        </Node>
        <Node pos="r" depth="1" NCoef="0" IVar="5" Cut="5.0769177246093750e+02" cType="1" res="3.8851413875818253e-02" rms="4.4762828946113586e-01" purity="5.9123551845550537e-01" nType="0">
          <Node pos="l" depth="2" NCoef="0" IVar="-1" Cut="0.0000000000000000e+00" cType="1" res="-3.1960464548319578e-04" rms="4.5303934812545776e-01" purity="4.8437809944152832e-01" nType="-99"/>
          <Node pos="r" depth="2" NCoef="0" IVar="-1" Cut="0.0000000000000000e+00" cType="1" res="2.5288928300142288e-03" rms="4.4461360573768616e-01" purity="6.2861692905426025e-01" nType="-99"/>
        </Node>
      </Node>
    </BinaryTree>
    <BinaryTree type="DecisionTree" boostWeight="1.0000000000000000e+00" itree="247">
      <Node pos="s" depth="0" NCoef="0" IVar="0" Cut="3.8093072175979614e-01" cType="1" res="-5.0731853116303682e-04" rms="4.5016232132911682e-01" purity="4.9774184823036194e-01" nType="0">
        <Node pos="l" depth="1" NCoef="0" IVar="5" Cut="9.8637890625000000e+02" cType="1" res="-7.6550031080842018e-03" rms="4.5241737365722656e-01" purity="4.7073212265968323e-01" nType="0">
          <Node pos="l" depth="2" NCoef="0" IVar="-1" Cut="0.0000000000000000e+00" cType="1" res="-7.4256851803511381e-04" rms="4.5017090439796448e-01" purity="4.5379230380058289e-01" nType="-99"/>
          <Node pos="r" depth="2" NCoef="0" IVar="-1" Cut="0.0000000000000000e+00" cType="1" res="1.6505994135513902e-03" rms="4.6194356679916382e-01" purity="5.6302988529205322e-01" nType="-99"/>
        </Node>
        <Node pos="r" depth="1" NCoef="0" IVar="6" Cut="8.1979912519454956e-01" cType="1" res="5.3014531731605530e-02" rms="4.2913654446601868e-01" purity="6.9999063014984131e-01" nType="0">
          <Node pos="l" depth="2" NCoef="0" IVar="-1" Cut="0.0000000000000000e+00" cType="1" res="3.9822035469114780e-03" rms="3.8873520493507385e-01" purity="7.9635369777679443e-01" nType="-99"/>
          <Node pos="r" depth="2" NCoef="0" IVar="-1" Cut="0.0000000000000000e+00" cType="1" res="1.4942449051886797e-03" rms="4.5690146088600159e-01" purity="6.2555640935897827e-01" nType="-99"/>
        </Node>
      </Node>
    </BinaryTree>
    <BinaryTree type="DecisionTree" boostWeight="1.0000000000000000e+00" itree="248">
      <Node pos="s" depth="0" NCoef="0" IVar="7" Cut="1.0052113980054855e-01" cType="1" res="1.4748561661690474e-03" rms="4.5133846998214722e-01" purity="5.0258833169937134e-01" nType="0">
        <Node pos="l" depth="1" NCoef="0" IVar="5" Cut="8.6396197509765625e+02" cType="1" res="-1.4400237239897251e-02" rms="4.5015692710876465e-01" purity="4.6448051929473877e-01" nType="0">
          <Node pos="l" depth="2" NCoef="0" IVar="-1" Cut="0.0000000000000000e+00" cType="1" res="-1.5315031632781029e-03" rms="4.4548782706260681e-01" purity="4.2077806591987610e-01" nType="-99"/>
          <Node pos="r" depth="2" NCoef="0" IVar="-1" Cut="0.0000000000000000e+00" cType="1" res="1.0561222443357110e-03" rms="4.5756706595420837e-01" purity="5.5658406019210815e-01" nType="-99"/>
        </Node>
        <Node pos="r" depth="1" NCoef="0" IVar="5" Cut="5.0631732177734375e+02" cType="1" res="2.5976758450269699e-02" rms="4.5206317305564880e-01" purity="5.6140458583831787e-01" nType="0">
          <Node pos="l" depth="2" NCoef="0" IVar="-1" Cut="0.0000000000000000e+00" cType="1" res="-6.2848551897332072e-04" rms="4.4976496696472168e-01" purity="4.5535594224929810e-01" nType="-99"/>
          <Node pos="r" depth="2" NCoef="0" IVar="-1" Cut="0.0000000000000000e+00" cType="1" res="1.7476554494351149e-03" rms="4.5208027958869934e-01" purity="5.9380823373794556e-01" nType="-99"/>
        </Node>
      </Node>
    </BinaryTree>
    <BinaryTree type="DecisionTree" boostWeight="1.0000000000000000e+00" itree="249">
      <Node pos="s" depth="0" NCoef="0" IVar="0" Cut="3.6678275465965271e-01" cType="1" res="9.2806061729788780e-04" rms="4.5031440258026123e-01" purity="5.0091928243637085e-01" nType="0">
        <Node pos="l" depth="1" NCoef="0" IVar="2" Cut="9.0364682674407959e-01" cType="1" res="-6.4215548336505890e-03" rms="4.5267784595489502e-01" purity="4.7120383381843567e-01" nType="0">
          <Node pos="l" depth="2" NCoef="0" IVar="-1" Cut="0.0000000000000000e+00" cType="1" res="-1.3619378441944718e-03" rms="4.4892564415931702e-01" purity="3.6276584863662720e-01" nType="-99"/>
          <Node pos="r" depth="2" NCoef="0" IVar="-1" Cut="0.0000000000000000e+00" cType="1" res="4.7824601642787457e-04" rms="4.5477616786956787e-01" purity="5.5341219902038574e-01" nType="-99"/>
        </Node>
        <Node pos="r" depth="1" NCoef="0" IVar="0" Cut="4.3044579029083252e-01" cType="1" res="4.9592558294534683e-02" rms="4.3119144439697266e-01" purity="6.9767600297927856e-01" nType="0">
          <Node pos="l" depth="2" NCoef="0" IVar="-1" Cut="0.0000000000000000e+00" cType="1" res="1.6137297498062253e-03" rms="4.3959125876426697e-01" purity="6.7908608913421631e-01" nType="-99"/>
          <Node pos="r" depth="2" NCoef="0" IVar="-1" Cut="0.0000000000000000e+00" cType="1" res="3.1441086903214455e-03" rms="4.2129084467887878e-01" purity="7.1774315834045410e-01" nType="-99"/>
        </Node>
      </Node>
    </BinaryTree>
    <BinaryTree type="DecisionTree" boostWeight="1.0000000000000000e+00" itree="250">
      <Node pos="s" depth="0" NCoef="0" IVar="3" Cut="1.7226228713989258e+00" cType="1" res="-2.1974551491439342e-03" rms="4.5044589042663574e-01" purity="4.9845129251480103e-01" nType="0">
        <Node pos="l" depth="1" NCoef="0" IVar="0" Cut="3.8091796636581421e-01" cType="1" res="9.5098856836557388e-03" rms="4.5415720343589783e-01" purity="5.3925132751464844e-01" nType="0">
          <Node pos="l" depth="2" NCoef="0" IVar="-1" Cut="0.0000000000000000e+00" cType="1" res="9.1188783699180931e-05" rms="4.5880100131034851e-01" purity="5.1016491651535034e-01" nType="-99"/>
          <Node pos="r" depth="2" NCoef="0" IVar="-1" Cut="0.0000000000000000e+00" cType="1" res="2.9338316526263952e-03" rms="4.1736027598381042e-01" purity="7.3841327428817749e-01" nType="-99"/>
        </Node>
        <Node pos="r" depth="1" NCoef="0" IVar="7" Cut="1.0448569059371948e-01" cType="1" res="-4.3156076222658157e-02" rms="4.3473997712135315e-01" purity="3.5571086406707764e-01" nType="0">
          <Node pos="l" depth="2" NCoef="0" IVar="-1" Cut="0.0000000000000000e+00" cType="1" res="-2.7625032234936953e-03" rms="4.2910423874855042e-01" purity="3.2651969790458679e-01" nType="-99"/>
          <Node pos="r" depth="2" NCoef="0" IVar="-1" Cut="0.0000000000000000e+00" cType="1" res="-3.5128084709867835e-04" rms="4.4773995876312256e-01" purity="4.3495255708694458e-01" nType="-99"/>
        </Node>
      </Node>
    </BinaryTree>
    <BinaryTree type="DecisionTree" boostWeight="1.0000000000000000e+00" itree="251">
      <Node pos="s" depth="0" NCoef="0" IVar="0" Cut="2.2532877326011658e-01" cType="1" res="8.9250493329018354e-04" rms="4.4971284270286560e-01" purity="5.0037974119186401e-01" nType="0">
        <Node pos="l" depth="1" NCoef="0" IVar="3" Cut="8.0701404809951782e-01" cType="1" res="-1.3132438994944096e-02" rms="4.5265114307403564e-01" purity="4.2953088879585266e-01" nType="0">
          <Node pos="l" depth="2" NCoef="0" IVar="-1" Cut="0.0000000000000000e+00" cType="1" res="4.6850118087604642e-04" rms="4.6312144398689270e-01" purity="5.0555837154388428e-01" nType="-99"/>
          <Node pos="r" depth="2" NCoef="0" IVar="-1" Cut="0.0000000000000000e+00" cType="1" res="-1.3355397386476398e-03" rms="4.4536224007606506e-01" purity="3.8206592202186584e-01" nType="-99"/>
        </Node>
        <Node pos="r" depth="1" NCoef="0" IVar="8" Cut="2.4487011432647705e+00" cType="1" res="2.9698584228754044e-02" rms="4.4222399592399597e-01" purity="6.4589768648147583e-01" nType="0">
          <Node pos="l" depth="2" NCoef="0" IVar="-1" Cut="0.0000000000000000e+00" cType="1" res="1.9109956920146942e-03" rms="4.3497982621192932e-01" purity="6.9920223951339722e-01" nType="-99"/>
          <Node pos="r" depth="2" NCoef="0" IVar="-1" Cut="0.0000000000000000e+00" cType="1" res="-2.6311542023904622e-04" rms="4.6362200379371643e-01" purity="4.6944743394851685e-01" nType="-99"/>
        </Node>
      </Node>
    </BinaryTree>
    <BinaryTree type="DecisionTree" boostWeight="1.0000000000000000e+00" itree="252">
      <Node pos="s" depth="0" NCoef="0" IVar="0" Cut="6.9739811122417450e-02" cType="1" res="5.2912550745531917e-04" rms="4.5016479492187500e-01" purity="4.9983301758766174e-01" nType="0">
        <Node pos="l" depth="1" NCoef="0" IVar="5" Cut="6.2321936035156250e+02" cType="1" res="-3.2055951654911041e-02" rms="4.4240254163742065e-01" purity="3.7411591410636902e-01" nType="0">
          <Node pos="l" depth="2" NCoef="0" IVar="-1" Cut="0.0000000000000000e+00" cType="1" res="-2.8469734825193882e-03" rms="4.2747744917869568e-01" purity="3.1349289417266846e-01" nType="-99"/>
          <Node pos="r" depth="2" NCoef="0" IVar="-1" Cut="0.0000000000000000e+00" cType="1" res="-4.8271933337673545e-04" rms="4.5371851325035095e-01" purity="4.2617467045783997e-01" nType="-99"/>
        </Node>
        <Node pos="r" depth="1" NCoef="0" IVar="7" Cut="8.9309595525264740e-02" cType="1" res="1.2211251072585583e-02" rms="4.5234400033950806e-01" purity="5.4490405321121216e-01" nType="0">
          <Node pos="l" depth="2" NCoef="0" IVar="-1" Cut="0.0000000000000000e+00" cType="1" res="-2.6196709950454533e-04" rms="4.5378947257995605e-01" purity="4.9875712394714355e-01" nType="-99"/>
          <Node pos="r" depth="2" NCoef="0" IVar="-1" Cut="0.0000000000000000e+00" cType="1" res="1.5884195454418659e-03" rms="4.4955989718437195e-01" purity="6.0216736793518066e-01" nType="-99"/>
        </Node>
      </Node>
    </BinaryTree>
    <BinaryTree type="DecisionTree" boostWeight="1.0000000000000000e+00" itree="253">
      <Node pos="s" depth="0" NCoef="0" IVar="1" Cut="7.8582555055618286e-01" cType="1" res="1.9081071950495243e-03" rms="4.4920894503593445e-01" purity="5.0063169002532959e-01" nType="0">
        <Node pos="l" depth="1" NCoef="0" IVar="1" Cut="6.5537679195404053e-01" cType="1" res="4.5119199901819229e-02" rms="4.3886551260948181e-01" purity="6.6196179389953613e-01" nType="0">
          <Node pos="l" depth="2" NCoef="0" IVar="-1" Cut="0.0000000000000000e+00" cType="1" res="3.0885743908584118e-03" rms="4.2895710468292236e-01" purity="6.8835556507110596e-01" nType="-99"/>
          <Node pos="r" depth="2" NCoef="0" IVar="-1" Cut="0.0000000000000000e+00" cType="1" res="1.1192634701728821e-03" rms="4.4755908846855164e-01" purity="6.3559979200363159e-01" nType="-99"/>
        </Node>
        <Node pos="r" depth="1" NCoef="0" IVar="2" Cut="8.2009911537170410e-01" cType="1" res="-7.6058711856603622e-03" rms="4.5089858770370483e-01" purity="4.6511089801788330e-01" nType="0">
          <Node pos="l" depth="2" NCoef="0" IVar="-1" Cut="0.0000000000000000e+00" cType="1" res="-2.0278962329030037e-03" rms="4.3212074041366577e-01" purity="3.0845159292221069e-01" nType="-99"/>
          <Node pos="r" depth="2" NCoef="0" IVar="-1" Cut="0.0000000000000000e+00" cType="1" res="2.1629814000334591e-04" rms="4.5702919363975525e-01" purity="5.2302294969558716e-01" nType="-99"/>
        </Node>
      </Node>
    </BinaryTree>
    <BinaryTree type="DecisionTree" boostWeight="1.0000000000000000e+00" itree="254">
      <Node pos="s" depth="0" NCoef="0" IVar="5" Cut="4.5354470825195312e+02" cType="1" res="-2.3278575390577316e-03" rms="4.5065459609031677e-01" purity="4.9833929538726807e-01" nType="0">
        <Node pos="l" depth="1" NCoef="0" IVar="-1" Cut="0.0000000000000000e+00" cType="1" res="-3.5107189323753119e-03" rms="4.2692172527313232e-01" purity="3.4772413969039917e-01" nType="-99"/>
        <Node pos="r" depth="1" NCoef="0" IVar="8" Cut="2.8439579010009766e+00" cType="1" res="3.7638959474861622e-03" rms="4.5216995477676392e-01" purity="5.1155894994735718e-01" nType="0">
          <Node pos="l" depth="2" NCoef="0" IVar="-1" Cut="0.0000000000000000e+00" cType="1" res="4.1719587170518935e-04" rms="4.5585569739341736e-01" purity="5.3387570381164551e-01" nType="-99"/>
          <Node pos="r" depth="2" NCoef="0" IVar="-1" Cut="0.0000000000000000e+00" cType="1" res="-3.5746756475418806e-03" rms="3.9438149333000183e-01" purity="2.1990388631820679e-01" nType="-99"/>
        </Node>
      </Node>
    </BinaryTree>
    <BinaryTree type="DecisionTree" boostWeight="1.0000000000000000e+00" itree="255">
      <Node pos="s" depth="0" NCoef="0" IVar="0" Cut="9.8029039800167084e-02" cType="1" res="8.3580019418150187e-04" rms="4.4939118623733521e-01" purity="5.0062739849090576e-01" nType="0">
        <Node pos="l" depth="1" NCoef="0" IVar="2" Cut="9.7586715221405029e-01" cType="1" res="-2.5471467524766922e-02" rms="4.4468089938163757e-01" purity="3.8609525561332703e-01" nType="0">
          <Node pos="l" depth="2" NCoef="0" IVar="-1" Cut="0.0000000000000000e+00" cType="1" res="-1.9072334980592132e-03" rms="4.4028022885322571e-01" purity="3.3710044622421265e-01" nType="-99"/>
          <Node pos="r" depth="2" NCoef="0" IVar="-1" Cut="0.0000000000000000e+00" cType="1" res="5.4209824884310365e-04" rms="4.5427390933036804e-01" purity="5.1889353990554810e-01" nType="-99"/>
        </Node>
        <Node pos="r" depth="1" NCoef="0" IVar="1" Cut="1.6097576618194580e+00" cType="1" res="1.6805374994874001e-02" rms="4.5147952437400818e-01" purity="5.7015299797058105e-01" nType="0">
          <Node pos="l" depth="2" NCoef="0" IVar="-1" Cut="0.0000000000000000e+00" cType="1" res="1.0659856488928199e-03" rms="4.5367535948753357e-01" purity="5.9900534152984619e-01" nType="-99"/>
          <Node pos="r" depth="2" NCoef="0" IVar="-1" Cut="0.0000000000000000e+00" cType="1" res="-1.7854413017630577e-03" rms="4.2887067794799805e-01" purity="3.2782104611396790e-01" nType="-99"/>
        </Node>
      </Node>
    </BinaryTree>
    <BinaryTree type="DecisionTree" boostWeight="1.0000000000000000e+00" itree="256">
      <Node pos="s" depth="0" NCoef="0" IVar="0" Cut="1.2631890177726746e-01" cType="1" res="6.1352277407422662e-04" rms="4.4912627339363098e-01" purity="4.9976941943168640e-01" nType="0">
        <Node pos="l" depth="1" NCoef="0" IVar="5" Cut="5.4441015625000000e+02" cType="1" res="-2.0710377022624016e-02" rms="4.4832170009613037e-01" purity="3.9524236321449280e-01" nType="0">
          <Node pos="l" depth="2" NCoef="0" IVar="-1" Cut="0.0000000000000000e+00" cType="1" res="-2.8909358661621809e-03" rms="4.2427945137023926e-01" purity="3.0620279908180237e-01" nType="-99"/>
          <Node pos="r" depth="2" NCoef="0" IVar="-1" Cut="0.0000000000000000e+00" cType="1" res="-3.0488791526295245e-04" rms="4.5652940869331360e-01" purity="4.2980626225471497e-01" nType="-99"/>
        </Node>
        <Node pos="r" depth="1" NCoef="0" IVar="4" Cut="6.1435186862945557e-01" cType="1" res="1.9061734899878502e-02" rms="4.4900485873222351e-01" purity="5.9020024538040161e-01" nType="0">
          <Node pos="l" depth="2" NCoef="0" IVar="-1" Cut="0.0000000000000000e+00" cType="1" res="-4.2846580618061125e-04" rms="4.6869698166847229e-01" purity="4.3831396102905273e-01" nType="-99"/>
          <Node pos="r" depth="2" NCoef="0" IVar="-1" Cut="0.0000000000000000e+00" cType="1" res="1.5566109213978052e-03" rms="4.3833917379379272e-01" purity="6.6469883918762207e-01" nType="-99"/>
        </Node>
      </Node>
    </BinaryTree>
    <BinaryTree type="DecisionTree" boostWeight="1.0000000000000000e+00" itree="257">
      <Node pos="s" depth="0" NCoef="0" IVar="1" Cut="1.5813341140747070e+00" cType="1" res="3.6552273668348789e-03" rms="4.5053705573081970e-01" purity="5.0227075815200806e-01" nType="0">
        <Node pos="l" depth="1" NCoef="0" IVar="2" Cut="6.5160632133483887e-01" cType="1" res="1.0707359760999680e-02" rms="4.5442950725555420e-01" purity="5.3199505805969238e-01" nType="0">
          <Node pos="l" depth="2" NCoef="0" IVar="-1" Cut="0.0000000000000000e+00" cType="1" res="-2.7337397914379835e-03" rms="4.3317016959190369e-01" purity="2.9274791479110718e-01" nType="-99"/>
          <Node pos="r" depth="2" NCoef="0" IVar="-1" Cut="0.0000000000000000e+00" cType="1" res="7.1420997846871614e-04" rms="4.5557194948196411e-01" purity="5.4949432611465454e-01" nType="-99"/>
        </Node>
        <Node pos="r" depth="1" NCoef="0" IVar="4" Cut="6.3825511932373047e-01" cType="1" res="-4.8155650496482849e-02" rms="4.1719809174537659e-01" purity="2.8389078378677368e-01" nType="0">
          <Node pos="l" depth="2" NCoef="0" IVar="-1" Cut="0.0000000000000000e+00" cType="1" res="-3.9711487479507923e-03" rms="3.7579467892646790e-01" purity="1.8212339282035828e-01" nType="-99"/>
          <Node pos="r" depth="2" NCoef="0" IVar="-1" Cut="0.0000000000000000e+00" cType="1" res="-1.4609914505854249e-03" rms="4.4915655255317688e-01" purity="3.7160173058509827e-01" nType="-99"/>
        </Node>
      </Node>
    </BinaryTree>
    <BinaryTree type="DecisionTree" boostWeight="1.0000000000000000e+00" itree="258">
      <Node pos="s" depth="0" NCoef="0" IVar="4" Cut="5.5425125360488892e-01" cType="1" res="2.1179537288844585e-03" rms="4.4886818528175354e-01" purity="5.0368887186050415e-01" nType="0">
        <Node pos="l" depth="1" NCoef="0" IVar="5" Cut="7.0428729248046875e+02" cType="1" res="-3.9288010448217392e-02" rms="4.3583914637565613e-01" purity="3.1888008117675781e-01" nType="0">
          <Node pos="l" depth="2" NCoef="0" IVar="-1" Cut="0.0000000000000000e+00" cType="1" res="-3.1251197215169668e-03" rms="4.1437458992004395e-01" purity="2.6461857557296753e-01" nType="-99"/>
          <Node pos="r" depth="2" NCoef="0" IVar="-1" Cut="0.0000000000000000e+00" cType="1" res="-6.1805499717593193e-04" rms="4.5922949910163879e-01" purity="3.8476100564002991e-01" nType="-99"/>
        </Node>
        <Node pos="r" depth="1" NCoef="0" IVar="6" Cut="8.3207017183303833e-01" cType="1" res="1.1924592778086662e-02" rms="4.5134297013282776e-01" purity="5.4745918512344360e-01" nType="0">
          <Node pos="l" depth="2" NCoef="0" IVar="-1" Cut="0.0000000000000000e+00" cType="1" res="1.5705745900049806e-03" rms="4.4449567794799805e-01" purity="6.4748072624206543e-01" nType="-99"/>
          <Node pos="r" depth="2" NCoef="0" IVar="-1" Cut="0.0000000000000000e+00" cType="1" res="-2.0950954058207572e-04" rms="4.5571026206016541e-01" purity="4.7255650162696838e-01" nType="-99"/>
        </Node>
      </Node>
    </BinaryTree>
    <BinaryTree type="DecisionTree" boostWeight="1.0000000000000000e+00" itree="259">
      <Node pos="s" depth="0" NCoef="0" IVar="4" Cut="9.1512799263000488e-01" cType="1" res="1.3534044846892357e-03" rms="4.4904732704162598e-01" purity="5.0255435705184937e-01" nType="0">
        <Node pos="l" depth="1" NCoef="0" IVar="5" Cut="4.9816735839843750e+02" cType="1" res="-6.8381601013243198e-03" rms="4.5432823896408081e-01" purity="4.6226650476455688e-01" nType="0">
          <Node pos="l" depth="2" NCoef="0" IVar="-1" Cut="0.0000000000000000e+00" cType="1" res="-2.7414886280894279e-03" rms="4.3110182881355286e-01" purity="3.3702507615089417e-01" nType="-99"/>
          <Node pos="r" depth="2" NCoef="0" IVar="-1" Cut="0.0000000000000000e+00" cType="1" res="9.8806136520579457e-05" rms="4.5790451765060425e-01" purity="4.8530045151710510e-01" nType="-99"/>
        </Node>
        <Node pos="r" depth="1" NCoef="0" IVar="4" Cut="9.6125280857086182e-01" cType="1" res="5.2073463797569275e-02" rms="4.1123813390731812e-01" purity="7.5200623273849487e-01" nType="0">
          <Node pos="l" depth="2" NCoef="0" IVar="-1" Cut="0.0000000000000000e+00" cType="1" res="1.4902033144608140e-03" rms="4.2439171671867371e-01" purity="7.2653102874755859e-01" nType="-99"/>
          <Node pos="r" depth="2" NCoef="0" IVar="-1" Cut="0.0000000000000000e+00" cType="1" res="3.7701120600104332e-03" rms="3.9473158121109009e-01" purity="7.8026413917541504e-01" nType="-99"/>
        </Node>
      </Node>
    </BinaryTree>
    <BinaryTree type="DecisionTree" boostWeight="1.0000000000000000e+00" itree="260">
      <Node pos="s" depth="0" NCoef="0" IVar="3" Cut="2.4944543838500977e+00" cType="1" res="2.3662867024540901e-03" rms="4.5071950554847717e-01" purity="5.0336819887161255e-01" nType="0">
        <Node pos="l" depth="1" NCoef="0" IVar="2" Cut="6.7704862356185913e-01" cType="1" res="8.2276556640863419e-03" rms="4.5334392786026001e-01" purity="5.2271509170532227e-01" nType="0">
          <Node pos="l" depth="2" NCoef="0" IVar="-1" Cut="0.0000000000000000e+00" cType="1" res="-2.6031734887510538e-03" rms="4.3060383200645447e-01" purity="2.9232007265090942e-01" nType="-99"/>
          <Node pos="r" depth="2" NCoef="0" IVar="-1" Cut="0.0000000000000000e+00" cType="1" res="6.5531476866453886e-04" rms="4.5508250594139099e-01" purity="5.4536491632461548e-01" nType="-99"/>
        </Node>
        <Node pos="r" depth="1" NCoef="0" IVar="-1" Cut="0.0000000000000000e+00" cType="1" res="-3.0939611606299877e-03" rms="4.1621336340904236e-01" purity="2.9496642947196960e-01" nType="-99"/>
      </Node>
    </BinaryTree>
    <BinaryTree type="DecisionTree" boostWeight="1.0000000000000000e+00" itree="261">
      <Node pos="s" depth="0" NCoef="0" IVar="2" Cut="7.7165502309799194e-01" cType="1" res="2.5919238105416298e-03" rms="4.5062285661697388e-01" purity="5.0293433666229248e-01" nType="0">
        <Node pos="l" depth="1" NCoef="0" IVar="8" Cut="2.0896847248077393e+00" cType="1" res="-3.3556044101715088e-02" rms="4.3498042225837708e-01" purity="3.1933835148811340e-01" nType="0">
          <Node pos="l" depth="2" NCoef="0" IVar="-1" Cut="0.0000000000000000e+00" cType="1" res="-7.4156196205876768e-05" rms="4.6212291717529297e-01" purity="4.0235725045204163e-01" nType="-99"/>
          <Node pos="r" depth="2" NCoef="0" IVar="-1" Cut="0.0000000000000000e+00" cType="1" res="-2.5149146094918251e-03" rms="4.2037817835807800e-01" purity="2.7924460172653198e-01" nType="-99"/>
        </Node>
        <Node pos="r" depth="1" NCoef="0" IVar="3" Cut="1.0774036645889282e+00" cType="1" res="1.1058585718274117e-02" rms="4.5379281044006348e-01" purity="5.4593658447265625e-01" nType="0">
          <Node pos="l" depth="2" NCoef="0" IVar="-1" Cut="0.0000000000000000e+00" cType="1" res="1.2968960218131542e-03" rms="4.5120811462402344e-01" purity="6.0799032449722290e-01" nType="-99"/>
          <Node pos="r" depth="2" NCoef="0" IVar="-1" Cut="0.0000000000000000e+00" cType="1" res="-4.5619587763212621e-04" rms="4.5607081055641174e-01" purity="4.6995443105697632e-01" nType="-99"/>
        </Node>
      </Node>
    </BinaryTree>
    <BinaryTree type="DecisionTree" boostWeight="1.0000000000000000e+00" itree="262">
      <Node pos="s" depth="0" NCoef="0" IVar="0" Cut="6.9740250706672668e-02" cType="1" res="5.2238991484045982e-03" rms="4.5097169280052185e-01" purity="5.0581330060958862e-01" nType="0">
        <Node pos="l" depth="1" NCoef="0" IVar="7" Cut="7.3608815670013428e-02" cType="1" res="-2.6954455301165581e-02" rms="4.4771358370780945e-01" purity="3.7962338328361511e-01" nType="0">
          <Node pos="l" depth="2" NCoef="0" IVar="-1" Cut="0.0000000000000000e+00" cType="1" res="-2.5203214026987553e-03" rms="4.3445208668708801e-01" purity="3.2665380835533142e-01" nType="-99"/>
          <Node pos="r" depth="2" NCoef="0" IVar="-1" Cut="0.0000000000000000e+00" cType="1" res="-3.7387778866104782e-04" rms="4.5685532689094543e-01" purity="4.2079132795333862e-01" nType="-99"/>
        </Node>
        <Node pos="r" depth="1" NCoef="0" IVar="7" Cut="8.9066043496131897e-02" cType="1" res="1.6894547268748283e-02" rms="4.5158129930496216e-01" purity="5.5158060789108276e-01" nType="0">
          <Node pos="l" depth="2" NCoef="0" IVar="-1" Cut="0.0000000000000000e+00" cType="1" res="8.0430661910213530e-05" rms="4.5355659723281860e-01" purity="5.0705516338348389e-01" nType="-99"/>
          <Node pos="r" depth="2" NCoef="0" IVar="-1" Cut="0.0000000000000000e+00" cType="1" res="1.6660861438140273e-03" rms="4.4837626814842224e-01" purity="6.0729134082794189e-01" nType="-99"/>
        </Node>
      </Node>
    </BinaryTree>
    <BinaryTree type="DecisionTree" boostWeight="1.0000000000000000e+00" itree="263">
      <Node pos="s" depth="0" NCoef="0" IVar="0" Cut="3.3849287033081055e-01" cType="1" res="-1.0737191187217832e-03" rms="4.4981423020362854e-01" purity="4.9985355138778687e-01" nType="0">
        <Node pos="l" depth="1" NCoef="0" IVar="5" Cut="5.0129898071289062e+02" cType="1" res="-9.2527903616428375e-03" rms="4.5247662067413330e-01" purity="4.6223011612892151e-01" nType="0">
          <Node pos="l" depth="2" NCoef="0" IVar="-1" Cut="0.0000000000000000e+00" cType="1" res="-2.3916831705719233e-03" rms="4.3153142929077148e-01" purity="3.5156753659248352e-01" nType="-99"/>
          <Node pos="r" depth="2" NCoef="0" IVar="-1" Cut="0.0000000000000000e+00" cType="1" res="-6.9613102823495865e-05" rms="4.5611390471458435e-01" purity="4.8415163159370422e-01" nType="-99"/>
        </Node>
        <Node pos="r" depth="1" NCoef="0" IVar="0" Cut="4.1629990935325623e-01" cType="1" res="3.8942907005548477e-02" rms="4.3433991074562073e-01" purity="6.8392854928970337e-01" nType="0">
          <Node pos="l" depth="2" NCoef="0" IVar="-1" Cut="0.0000000000000000e+00" cType="1" res="1.0834840359166265e-03" rms="4.4153249263763428e-01" purity="6.6077888011932373e-01" nType="-99"/>
          <Node pos="r" depth="2" NCoef="0" IVar="-1" Cut="0.0000000000000000e+00" cType="1" res="2.6488301809877157e-03" rms="4.2591783404350281e-01" purity="7.0844680070877075e-01" nType="-99"/>
        </Node>
      </Node>
    </BinaryTree>
    <BinaryTree type="DecisionTree" boostWeight="1.0000000000000000e+00" itree="264">
      <Node pos="s" depth="0" NCoef="0" IVar="3" Cut="1.2095019817352295e+00" cType="1" res="-8.4382825298234820e-04" rms="4.5076242089271545e-01" purity="5.0101500749588013e-01" nType="0">
        <Node pos="l" depth="1" NCoef="0" IVar="0" Cut="1.1217531561851501e-01" cType="1" res="1.3567393645644188e-02" rms="4.5294532179832458e-01" purity="5.6002742052078247e-01" nType="0">
          <Node pos="l" depth="2" NCoef="0" IVar="-1" Cut="0.0000000000000000e+00" cType="1" res="-3.3519550925120711e-04" rms="4.6059578657150269e-01" purity="4.4433191418647766e-01" nType="-99"/>
          <Node pos="r" depth="2" NCoef="0" IVar="-1" Cut="0.0000000000000000e+00" cType="1" res="1.3061318313702941e-03" rms="4.4700819253921509e-01" purity="6.4005309343338013e-01" nType="-99"/>
        </Node>
        <Node pos="r" depth="1" NCoef="0" IVar="4" Cut="9.0288835763931274e-01" cType="1" res="-2.2710479795932770e-02" rms="4.4654256105422974e-01" purity="4.1147336363792419e-01" nType="0">
          <Node pos="l" depth="2" NCoef="0" IVar="-1" Cut="0.0000000000000000e+00" cType="1" res="-1.4754977310076356e-03" rms="4.4694659113883972e-01" purity="3.6664175987243652e-01" nType="-99"/>
          <Node pos="r" depth="2" NCoef="0" IVar="-1" Cut="0.0000000000000000e+00" cType="1" res="1.0764965554699302e-03" rms="4.4137752056121826e-01" purity="6.7328166961669922e-01" nType="-99"/>
        </Node>
      </Node>
    </BinaryTree>
    <BinaryTree type="DecisionTree" boostWeight="1.0000000000000000e+00" itree="265">
      <Node pos="s" depth="0" NCoef="0" IVar="0" Cut="6.9736748933792114e-02" cType="1" res="2.8909139800816774e-03" rms="4.4969180226325989e-01" purity="5.0215607881546021e-01" nType="0">
        <Node pos="l" depth="1" NCoef="0" IVar="7" Cut="1.3403445482254028e-01" cType="1" res="-3.2724525779485703e-02" rms="4.4168245792388916e-01" purity="3.6873602867126465e-01" nType="0">
          <Node pos="l" depth="2" NCoef="0" IVar="-1" Cut="0.0000000000000000e+00" cType="1" res="-2.1938476711511612e-03" rms="4.3560090661048889e-01" purity="3.4121116995811462e-01" nType="-99"/>
          <Node pos="r" depth="2" NCoef="0" IVar="-1" Cut="0.0000000000000000e+00" cType="1" res="1.3066432438790798e-04" rms="4.5697641372680664e-01" purity="4.4841963052749634e-01" nType="-99"/>
        </Node>
        <Node pos="r" depth="1" NCoef="0" IVar="7" Cut="8.9066043496131897e-02" cType="1" res="1.5530744567513466e-02" rms="4.5182573795318604e-01" purity="5.4950654506683350e-01" nType="0">
          <Node pos="l" depth="2" NCoef="0" IVar="-1" Cut="0.0000000000000000e+00" cType="1" res="-1.4968655887059867e-04" rms="4.5426353812217712e-01" purity="5.0175464153289795e-01" nType="-99"/>
          <Node pos="r" depth="2" NCoef="0" IVar="-1" Cut="0.0000000000000000e+00" cType="1" res="1.7978668911382556e-03" rms="4.4770878553390503e-01" purity="6.0855424404144287e-01" nType="-99"/>
        </Node>
      </Node>
    </BinaryTree>
    <BinaryTree type="DecisionTree" boostWeight="1.0000000000000000e+00" itree="266">
      <Node pos="s" depth="0" NCoef="0" IVar="3" Cut="2.3654794692993164e+00" cType="1" res="-6.8391603417694569e-04" rms="4.5059782266616821e-01" purity="5.0053411722183228e-01" nType="0">
        <Node pos="l" depth="1" NCoef="0" IVar="5" Cut="5.0239901733398438e+02" cType="1" res="5.4020676761865616e-03" rms="4.5360991358757019e-01" purity="5.2212899923324585e-01" nType="0">
          <Node pos="l" depth="2" NCoef="0" IVar="-1" Cut="0.0000000000000000e+00" cType="1" res="-1.7389924032613635e-03" rms="4.4031947851181030e-01" purity="4.0453374385833740e-01" nType="-99"/>
          <Node pos="r" depth="2" NCoef="0" IVar="-1" Cut="0.0000000000000000e+00" cType="1" res="5.9961091028526425e-04" rms="4.5557510852813721e-01" purity="5.4348564147949219e-01" nType="-99"/>
        </Node>
        <Node pos="r" depth="1" NCoef="0" IVar="-1" Cut="0.0000000000000000e+00" cType="1" res="-2.8751117642968893e-03" rms="4.1774857044219971e-01" purity="3.0191105604171753e-01" nType="-99"/>
      </Node>
    </BinaryTree>
    <BinaryTree type="DecisionTree" boostWeight="1.0000000000000000e+00" itree="267">
      <Node pos="s" depth="0" NCoef="0" IVar="3" Cut="2.8508994579315186e+00" cType="1" res="-1.3833503471687436e-03" rms="4.4891735911369324e-01" purity="4.9925291538238525e-01" nType="0">
        <Node pos="l" depth="1" NCoef="0" IVar="0" Cut="2.6777055859565735e-01" cType="1" res="2.7907015755772591e-03" rms="4.5090326666831970e-01" purity="5.1205897331237793e-01" nType="0">
          <Node pos="l" depth="2" NCoef="0" IVar="-1" Cut="0.0000000000000000e+00" cType="1" res="-4.1467539267614484e-04" rms="4.5481711626052856e-01" purity="4.5288327336311340e-01" nType="-99"/>
          <Node pos="r" depth="2" NCoef="0" IVar="-1" Cut="0.0000000000000000e+00" cType="1" res="1.6415519639849663e-03" rms="4.3839266896247864e-01" purity="6.7430454492568970e-01" nType="-99"/>
        </Node>
        <Node pos="r" depth="1" NCoef="0" IVar="-1" Cut="0.0000000000000000e+00" cType="1" res="-4.1166185401380062e-03" rms="4.0237930417060852e-01" purity="2.6091241836547852e-01" nType="-99"/>
      </Node>
    </BinaryTree>
    <BinaryTree type="DecisionTree" boostWeight="1.0000000000000000e+00" itree="268">
      <Node pos="s" depth="0" NCoef="0" IVar="3" Cut="8.6219274997711182e-01" cType="1" res="-1.8342043040320277e-03" rms="4.4847115874290466e-01" purity="4.9960300326347351e-01" nType="0">
        <Node pos="l" depth="1" NCoef="0" IVar="2" Cut="7.6021736860275269e-01" cType="1" res="2.0384242758154869e-02" rms="4.4977387785911560e-01" purity="5.7840061187744141e-01" nType="0">
          <Node pos="l" depth="2" NCoef="0" IVar="-1" Cut="0.0000000000000000e+00" cType="1" res="-8.1465026596561074e-04" rms="4.5872944593429565e-01" purity="3.8368394970893860e-01" nType="-99"/>
          <Node pos="r" depth="2" NCoef="0" IVar="-1" Cut="0.0000000000000000e+00" cType="1" res="1.2892172671854496e-03" rms="4.4762566685676575e-01" purity="6.1644506454467773e-01" nType="-99"/>
        </Node>
        <Node pos="r" depth="1" NCoef="0" IVar="5" Cut="9.8978289794921875e+02" cType="1" res="-1.8789537250995636e-02" rms="4.4673168659210205e-01" purity="4.3947100639343262e-01" nType="0">
          <Node pos="l" depth="2" NCoef="0" IVar="-1" Cut="0.0000000000000000e+00" cType="1" res="-1.2711602030321956e-03" rms="4.4344371557235718e-01" purity="4.2235809564590454e-01" nType="-99"/>
          <Node pos="r" depth="2" NCoef="0" IVar="-1" Cut="0.0000000000000000e+00" cType="1" res="1.2196510797366500e-03" rms="4.6317356824874878e-01" purity="5.4124844074249268e-01" nType="-99"/>
        </Node>
      </Node>
    </BinaryTree>
    <BinaryTree type="DecisionTree" boostWeight="1.0000000000000000e+00" itree="269">
      <Node pos="s" depth="0" NCoef="0" IVar="4" Cut="9.0317487716674805e-01" cType="1" res="1.2577237794175744e-03" rms="4.4836816191673279e-01" purity="5.0084304809570312e-01" nType="0">
        <Node pos="l" depth="1" NCoef="0" IVar="5" Cut="8.6782257080078125e+02" cType="1" res="-7.4687530286610126e-03" rms="4.5455053448677063e-01" purity="4.5535361766815186e-01" nType="0">
          <Node pos="l" depth="2" NCoef="0" IVar="-1" Cut="0.0000000000000000e+00" cType="1" res="-9.0382742928341031e-04" rms="4.5110014081001282e-01" purity="4.2511633038520813e-01" nType="-99"/>
          <Node pos="r" depth="2" NCoef="0" IVar="-1" Cut="0.0000000000000000e+00" cType="1" res="1.2275697663426399e-03" rms="4.6288558840751648e-01" purity="5.4498612880706787e-01" nType="-99"/>
        </Node>
        <Node pos="r" depth="1" NCoef="0" IVar="6" Cut="1.0388699769973755e+00" cType="1" res="4.8989266157150269e-02" rms="4.0964144468307495e-01" purity="7.4965804815292358e-01" nType="0">
          <Node pos="l" depth="2" NCoef="0" IVar="-1" Cut="0.0000000000000000e+00" cType="1" res="3.5202426370233297e-03" rms="3.7228089570999146e-01" purity="8.2638138532638550e-01" nType="-99"/>
          <Node pos="r" depth="2" NCoef="0" IVar="-1" Cut="0.0000000000000000e+00" cType="1" res="9.2093023704364896e-04" rms="4.6370309591293335e-01" purity="6.2237942218780518e-01" nType="-99"/>
        </Node>
      </Node>
    </BinaryTree>
    <BinaryTree type="DecisionTree" boostWeight="1.0000000000000000e+00" itree="270">
      <Node pos="s" depth="0" NCoef="0" IVar="6" Cut="6.0950791835784912e-01" cType="1" res="-1.2247328413650393e-03" rms="4.4867414236068726e-01" purity="4.9998480081558228e-01" nType="0">
        <Node pos="l" depth="1" NCoef="0" IVar="4" Cut="5.9028059244155884e-01" cType="1" res="3.5557586699724197e-02" rms="4.4186392426490784e-01" purity="6.2249994277954102e-01" nType="0">
          <Node pos="l" depth="2" NCoef="0" IVar="-1" Cut="0.0000000000000000e+00" cType="1" res="-8.1502381362952292e-05" rms="4.6485573053359985e-01" purity="4.2889031767845154e-01" nType="-99"/>
          <Node pos="r" depth="2" NCoef="0" IVar="-1" Cut="0.0000000000000000e+00" cType="1" res="2.3216786794364452e-03" rms="4.3225994706153870e-01" purity="6.9391536712646484e-01" nType="-99"/>
        </Node>
        <Node pos="r" depth="1" NCoef="0" IVar="7" Cut="9.4300322234630585e-02" cType="1" res="-1.3312985189259052e-02" rms="4.5023426413536072e-01" purity="4.5972105860710144e-01" nType="0">
          <Node pos="l" depth="2" NCoef="0" IVar="-1" Cut="0.0000000000000000e+00" cType="1" res="-1.3607982546091080e-03" rms="4.4691488146781921e-01" purity="4.2056617140769958e-01" nType="-99"/>
          <Node pos="r" depth="2" NCoef="0" IVar="-1" Cut="0.0000000000000000e+00" cType="1" res="4.6397477854043245e-04" rms="4.5424976944923401e-01" purity="5.1924872398376465e-01" nType="-99"/>
        </Node>
      </Node>
    </BinaryTree>
    <BinaryTree type="DecisionTree" boostWeight="1.0000000000000000e+00" itree="271">
      <Node pos="s" depth="0" NCoef="0" IVar="5" Cut="1.0265631103515625e+03" cType="1" res="2.9245084151625633e-03" rms="4.5147857069969177e-01" purity="5.0367420911788940e-01" nType="0">
        <Node pos="l" depth="1" NCoef="0" IVar="4" Cut="9.5093166828155518e-01" cType="1" res="-4.8850132152438164e-03" rms="4.5046699047088623e-01" purity="4.8704957962036133e-01" nType="0">
          <Node pos="l" depth="2" NCoef="0" IVar="-1" Cut="0.0000000000000000e+00" cType="1" res="-4.8939936095848680e-04" rms="4.5361420512199402e-01" purity="4.6157264709472656e-01" nType="-99"/>
          <Node pos="r" depth="2" NCoef="0" IVar="-1" Cut="0.0000000000000000e+00" cType="1" res="2.6176113169640303e-03" rms="4.1159513592720032e-01" purity="7.5404161214828491e-01" nType="-99"/>
        </Node>
        <Node pos="r" depth="1" NCoef="0" IVar="8" Cut="2.0415987968444824e+00" cType="1" res="5.0891429185867310e-02" rms="4.5471042394638062e-01" purity="6.0578435659408569e-01" nType="0">
          <Node pos="l" depth="2" NCoef="0" IVar="-1" Cut="0.0000000000000000e+00" cType="1" res="3.7616388872265816e-03" rms="4.3415269255638123e-01" purity="6.8063694238662720e-01" nType="-99"/>
          <Node pos="r" depth="2" NCoef="0" IVar="-1" Cut="0.0000000000000000e+00" cType="1" res="1.2740453239530325e-03" rms="4.6741819381713867e-01" purity="5.5267906188964844e-01" nType="-99"/>
        </Node>
      </Node>
    </BinaryTree>
    <BinaryTree type="DecisionTree" boostWeight="1.0000000000000000e+00" itree="272">
      <Node pos="s" depth="0" NCoef="0" IVar="3" Cut="5.2530872821807861e-01" cType="1" res="-2.2179185179993510e-04" rms="4.4828411936759949e-01" purity="5.0045436620712280e-01" nType="0">
        <Node pos="l" depth="1" NCoef="0" IVar="0" Cut="6.9733172655105591e-02" cType="1" res="3.3541571348905563e-02" rms="4.4357159733772278e-01" purity="6.0002005100250244e-01" nType="0">
          <Node pos="l" depth="2" NCoef="0" IVar="-1" Cut="0.0000000000000000e+00" cType="1" res="-4.3391477083787322e-04" rms="4.5665398240089417e-01" purity="4.4751465320587158e-01" nType="-99"/>
          <Node pos="r" depth="2" NCoef="0" IVar="-1" Cut="0.0000000000000000e+00" cType="1" res="2.2212548647075891e-03" rms="4.3823340535163879e-01" purity="6.5041846036911011e-01" nType="-99"/>
        </Node>
        <Node pos="r" depth="1" NCoef="0" IVar="4" Cut="9.2714500427246094e-01" cType="1" res="-1.0480310767889023e-02" rms="4.4920378923416138e-01" purity="4.7020268440246582e-01" nType="0">
          <Node pos="l" depth="2" NCoef="0" IVar="-1" Cut="0.0000000000000000e+00" cType="1" res="-8.1238296115770936e-04" rms="4.5241886377334595e-01" purity="4.3432247638702393e-01" nType="-99"/>
          <Node pos="r" depth="2" NCoef="0" IVar="-1" Cut="0.0000000000000000e+00" cType="1" res="1.8585093785077333e-03" rms="4.2225885391235352e-01" purity="7.2754096984863281e-01" nType="-99"/>
        </Node>
      </Node>
    </BinaryTree>
    <BinaryTree type="DecisionTree" boostWeight="1.0000000000000000e+00" itree="273">
      <Node pos="s" depth="0" NCoef="0" IVar="5" Cut="9.4441326904296875e+02" cType="1" res="-1.0146551067009568e-03" rms="4.5012474060058594e-01" purity="4.9917116761207581e-01" nType="0">
        <Node pos="l" depth="1" NCoef="0" IVar="7" Cut="9.9487744271755219e-02" cType="1" res="-9.8073482513427734e-03" rms="4.4858771562576294e-01" purity="4.7839617729187012e-01" nType="0">
          <Node pos="l" depth="2" NCoef="0" IVar="-1" Cut="0.0000000000000000e+00" cType="1" res="-1.3609747402369976e-03" rms="4.4471102952957153e-01" purity="4.2666444182395935e-01" nType="-99"/>
          <Node pos="r" depth="2" NCoef="0" IVar="-1" Cut="0.0000000000000000e+00" cType="1" res="6.7558750743046403e-04" rms="4.5242431759834290e-01" purity="5.4560202360153198e-01" nType="-99"/>
        </Node>
        <Node pos="r" depth="1" NCoef="0" IVar="8" Cut="1.8831951618194580e+00" cType="1" res="3.7925500422716141e-02" rms="4.5483094453811646e-01" purity="5.9117722511291504e-01" nType="0">
          <Node pos="l" depth="2" NCoef="0" IVar="-1" Cut="0.0000000000000000e+00" cType="1" res="3.5310080274939537e-03" rms="4.3567982316017151e-01" purity="6.7504203319549561e-01" nType="-99"/>
          <Node pos="r" depth="2" NCoef="0" IVar="-1" Cut="0.0000000000000000e+00" cType="1" res="9.3352806288748980e-04" rms="4.6196138858795166e-01" purity="5.5405914783477783e-01" nType="-99"/>
        </Node>
      </Node>
    </BinaryTree>
    <BinaryTree type="DecisionTree" boostWeight="1.0000000000000000e+00" itree="274">
      <Node pos="s" depth="0" NCoef="0" IVar="7" Cut="1.4540956914424896e-01" cType="1" res="1.5817305538803339e-03" rms="4.4775596261024475e-01" purity="5.0082296133041382e-01" nType="0">
        <Node pos="l" depth="1" NCoef="0" IVar="5" Cut="8.0907775878906250e+02" cType="1" res="-8.1321531906723976e-03" rms="4.4737306237220764e-01" purity="4.7789308428764343e-01" nType="0">
          <Node pos="l" depth="2" NCoef="0" IVar="-1" Cut="0.0000000000000000e+00" cType="1" res="-1.1569054331630468e-03" rms="4.4377589225769043e-01" purity="4.3439167737960815e-01" nType="-99"/>
          <Node pos="r" depth="2" NCoef="0" IVar="-1" Cut="0.0000000000000000e+00" cType="1" res="1.0239453986287117e-03" rms="4.5255565643310547e-01" purity="5.6033331155776978e-01" nType="-99"/>
        </Node>
        <Node pos="r" depth="1" NCoef="0" IVar="5" Cut="5.1865197753906250e+02" cType="1" res="3.7956338375806808e-02" rms="4.4731685519218445e-01" purity="5.8668631315231323e-01" nType="0">
          <Node pos="l" depth="2" NCoef="0" IVar="-1" Cut="0.0000000000000000e+00" cType="1" res="1.9063802028540522e-04" rms="4.4689053297042847e-01" purity="4.8838812112808228e-01" nType="-99"/>
          <Node pos="r" depth="2" NCoef="0" IVar="-1" Cut="0.0000000000000000e+00" cType="1" res="2.4253097362816334e-03" rms="4.4671720266342163e-01" purity="6.2864309549331665e-01" nType="-99"/>
        </Node>
      </Node>
    </BinaryTree>
    <BinaryTree type="DecisionTree" boostWeight="1.0000000000000000e+00" itree="275">
      <Node pos="s" depth="0" NCoef="0" IVar="0" Cut="2.8191557526588440e-01" cType="1" res="1.8723318353295326e-03" rms="4.4923466444015503e-01" purity="5.0153803825378418e-01" nType="0">
        <Node pos="l" depth="1" NCoef="0" IVar="4" Cut="9.0317571163177490e-01" cType="1" res="-7.8965239226818085e-03" rms="4.5250117778778076e-01" purity="4.4844108819961548e-01" nType="0">
          <Node pos="l" depth="2" NCoef="0" IVar="-1" Cut="0.0000000000000000e+00" cType="1" res="-7.6022744178771973e-04" rms="4.5573368668556213e-01" purity="4.0182477235794067e-01" nType="-99"/>
          <Node pos="r" depth="2" NCoef="0" IVar="-1" Cut="0.0000000000000000e+00" cType="1" res="1.8818165408447385e-03" rms="4.3043380975723267e-01" purity="7.1517324447631836e-01" nType="-99"/>
        </Node>
        <Node pos="r" depth="1" NCoef="0" IVar="7" Cut="6.1663649976253510e-02" cType="1" res="3.2620288431644440e-02" rms="4.3737250566482544e-01" purity="6.6866320371627808e-01" nType="0">
          <Node pos="l" depth="2" NCoef="0" IVar="-1" Cut="0.0000000000000000e+00" cType="1" res="1.9270868506282568e-04" rms="4.5436224341392517e-01" purity="5.9990119934082031e-01" nType="-99"/>
          <Node pos="r" depth="2" NCoef="0" IVar="-1" Cut="0.0000000000000000e+00" cType="1" res="2.3704231716692448e-03" rms="4.2628684639930725e-01" purity="7.0872884988784790e-01" nType="-99"/>
        </Node>
      </Node>
    </BinaryTree>
    <BinaryTree type="DecisionTree" boostWeight="1.0000000000000000e+00" itree="276">
      <Node pos="s" depth="0" NCoef="0" IVar="5" Cut="6.8391937255859375e+02" cType="1" res="-1.2297122739255428e-03" rms="4.4877988100051880e-01" purity="4.9840113520622253e-01" nType="0">
        <Node pos="l" depth="1" NCoef="0" IVar="7" Cut="1.0725906491279602e-01" cType="1" res="-1.9691638648509979e-02" rms="4.4364312291145325e-01" purity="4.4445693492889404e-01" nType="0">
          <Node pos="l" depth="2" NCoef="0" IVar="-1" Cut="0.0000000000000000e+00" cType="1" res="-1.9130589207634330e-03" rms="4.3860179185867310e-01" purity="3.8522776961326599e-01" nType="-99"/>
          <Node pos="r" depth="2" NCoef="0" IVar="-1" Cut="0.0000000000000000e+00" cType="1" res="1.7582255532033741e-04" rms="4.4849690794944763e-01" purity="5.1554477214813232e-01" nType="-99"/>
        </Node>
        <Node pos="r" depth="1" NCoef="0" IVar="6" Cut="9.1093033552169800e-01" cType="1" res="1.7792565748095512e-02" rms="4.5322579145431519e-01" purity="5.5398255586624146e-01" nType="0">
          <Node pos="l" depth="2" NCoef="0" IVar="-1" Cut="0.0000000000000000e+00" cType="1" res="1.7805779352784157e-03" rms="4.4602975249290466e-01" purity="6.4315581321716309e-01" nType="-99"/>
          <Node pos="r" depth="2" NCoef="0" IVar="-1" Cut="0.0000000000000000e+00" cType="1" res="-1.5969361993484199e-04" rms="4.5956152677536011e-01" purity="4.6204411983489990e-01" nType="-99"/>
        </Node>
      </Node>
    </BinaryTree>
    <BinaryTree type="DecisionTree" boostWeight="1.0000000000000000e+00" itree="277">
      <Node pos="s" depth="0" NCoef="0" IVar="6" Cut="1.7339148521423340e+00" cType="1" res="2.8680197428911924e-03" rms="4.4932180643081665e-01" purity="5.0276815891265869e-01" nType="0">
        <Node pos="l" depth="1" NCoef="0" IVar="0" Cut="4.1449841111898422e-02" cType="1" res="9.1753844171762466e-03" rms="4.5451378822326660e-01" purity="5.3548133373260498e-01" nType="0">
          <Node pos="l" depth="2" NCoef="0" IVar="-1" Cut="0.0000000000000000e+00" cType="1" res="-1.8582048360258341e-03" rms="4.4868266582489014e-01" purity="3.8296103477478027e-01" nType="-99"/>
          <Node pos="r" depth="2" NCoef="0" IVar="-1" Cut="0.0000000000000000e+00" cType="1" res="7.1398855652660131e-04" rms="4.5487913489341736e-01" purity="5.5518883466720581e-01" nType="-99"/>
        </Node>
        <Node pos="r" depth="1" NCoef="0" IVar="1" Cut="1.5302487611770630e+00" cType="1" res="-4.9236971884965897e-02" rms="4.0010011196136475e-01" purity="2.3252558708190918e-01" nType="0">
          <Node pos="l" depth="2" NCoef="0" IVar="-1" Cut="0.0000000000000000e+00" cType="1" res="-1.2595031876116991e-03" rms="4.3040895462036133e-01" purity="2.9127067327499390e-01" nType="-99"/>
          <Node pos="r" depth="2" NCoef="0" IVar="-1" Cut="0.0000000000000000e+00" cType="1" res="-4.4180909171700478e-03" rms="3.6489769816398621e-01" purity="1.7259764671325684e-01" nType="-99"/>
        </Node>
      </Node>
    </BinaryTree>
    <BinaryTree type="DecisionTree" boostWeight="1.0000000000000000e+00" itree="278">
      <Node pos="s" depth="0" NCoef="0" IVar="1" Cut="1.5543669462203979e+00" cType="1" res="3.1872948165982962e-03" rms="4.4776758551597595e-01" purity="5.0419664382934570e-01" nType="0">
        <Node pos="l" depth="1" NCoef="0" IVar="2" Cut="8.2017433643341064e-01" cType="1" res="1.0493513196706772e-02" rms="4.5179399847984314e-01" purity="5.3734230995178223e-01" nType="0">
          <Node pos="l" depth="2" NCoef="0" IVar="-1" Cut="0.0000000000000000e+00" cType="1" res="-9.8173948936164379e-04" rms="4.5228639245033264e-01" purity="3.7193098664283752e-01" nType="-99"/>
          <Node pos="r" depth="2" NCoef="0" IVar="-1" Cut="0.0000000000000000e+00" cType="1" res="9.6202595159411430e-04" rms="4.5115563273429871e-01" purity="5.9178972244262695e-01" nType="-99"/>
        </Node>
        <Node pos="r" depth="1" NCoef="0" IVar="0" Cut="1.6875369846820831e-01" cType="1" res="-4.3807752430438995e-02" rms="4.1790717840194702e-01" purity="2.9099720716476440e-01" nType="0">
          <Node pos="l" depth="2" NCoef="0" IVar="-1" Cut="0.0000000000000000e+00" cType="1" res="-3.4893844276666641e-03" rms="3.9108887314796448e-01" purity="2.2171507775783539e-01" nType="-99"/>
          <Node pos="r" depth="2" NCoef="0" IVar="-1" Cut="0.0000000000000000e+00" cType="1" res="-8.5746002150699496e-04" rms="4.5170682668685913e-01" purity="3.8835912942886353e-01" nType="-99"/>
        </Node>
      </Node>
    </BinaryTree>
    <BinaryTree type="DecisionTree" boostWeight="1.0000000000000000e+00" itree="279">
      <Node pos="s" depth="0" NCoef="0" IVar="5" Cut="5.2080279541015625e+02" cType="1" res="-2.8546641115099192e-03" rms="4.4903829693794250e-01" purity="4.9755451083183289e-01" nType="0">
        <Node pos="l" depth="1" NCoef="0" IVar="2" Cut="8.7992525100708008e-01" cType="1" res="-3.9940416812896729e-02" rms="4.3515056371688843e-01" purity="3.8726919889450073e-01" nType="0">
          <Node pos="l" depth="2" NCoef="0" IVar="-1" Cut="0.0000000000000000e+00" cType="1" res="-3.4906922373920679e-03" rms="4.0738031268119812e-01" purity="2.5847080349922180e-01" nType="-99"/>
          <Node pos="r" depth="2" NCoef="0" IVar="-1" Cut="0.0000000000000000e+00" cType="1" res="-1.0843358468264341e-03" rms="4.5089855790138245e-01" purity="4.6812134981155396e-01" nType="-99"/>
        </Node>
        <Node pos="r" depth="1" NCoef="0" IVar="6" Cut="8.9249289035797119e-01" cType="1" res="6.2336027622222900e-03" rms="4.5191255211830139e-01" purity="5.2458113431930542e-01" nType="0">
          <Node pos="l" depth="2" NCoef="0" IVar="-1" Cut="0.0000000000000000e+00" cType="1" res="1.2628159020096064e-03" rms="4.5045158267021179e-01" purity="6.1974924802780151e-01" nType="-99"/>
          <Node pos="r" depth="2" NCoef="0" IVar="-1" Cut="0.0000000000000000e+00" cType="1" res="-6.3318852335214615e-04" rms="4.5238959789276123e-01" purity="4.3552160263061523e-01" nType="-99"/>
        </Node>
      </Node>
    </BinaryTree>
    <BinaryTree type="DecisionTree" boostWeight="1.0000000000000000e+00" itree="280">
      <Node pos="s" depth="0" NCoef="0" IVar="3" Cut="2.3676755428314209e+00" cType="1" res="2.4241094943135977e-03" rms="4.4898337125778198e-01" purity="5.0262010097503662e-01" nType="0">
        <Node pos="l" depth="1" NCoef="0" IVar="2" Cut="9.1592657566070557e-01" cType="1" res="8.2241622731089592e-03" rms="4.5140331983566284e-01" purity="5.2463901042938232e-01" nType="0">
          <Node pos="l" depth="2" NCoef="0" IVar="-1" Cut="0.0000000000000000e+00" cType="1" res="-4.6173608279787004e-04" rms="4.5487734675407410e-01" purity="4.2433050274848938e-01" nType="-99"/>
          <Node pos="r" depth="2" NCoef="0" IVar="-1" Cut="0.0000000000000000e+00" cType="1" res="1.1154699604958296e-03" rms="4.4780030846595764e-01" purity="6.1104422807693481e-01" nType="-99"/>
        </Node>
        <Node pos="r" depth="1" NCoef="0" IVar="-1" Cut="0.0000000000000000e+00" cType="1" res="-2.5880113244056702e-03" rms="4.2256972193717957e-01" purity="3.0146113038063049e-01" nType="-99"/>
      </Node>
    </BinaryTree>
    <BinaryTree type="DecisionTree" boostWeight="1.0000000000000000e+00" itree="281">
      <Node pos="s" depth="0" NCoef="0" IVar="4" Cut="6.5047729015350342e-01" cType="1" res="-1.3149186270311475e-03" rms="4.4879451394081116e-01" purity="4.9719923734664917e-01" nType="0">
        <Node pos="l" depth="1" NCoef="0" IVar="0" Cut="3.3849564194679260e-01" cType="1" res="-2.0575597882270813e-02" rms="4.4514921307563782e-01" purity="3.5395491123199463e-01" nType="0">
          <Node pos="l" depth="2" NCoef="0" IVar="-1" Cut="0.0000000000000000e+00" cType="1" res="-1.3973743189126253e-03" rms="4.4079944491386414e-01" purity="3.1547337770462036e-01" nType="-99"/>
          <Node pos="r" depth="2" NCoef="0" IVar="-1" Cut="0.0000000000000000e+00" cType="1" res="1.0463765356689692e-03" rms="4.6673434972763062e-01" purity="5.7403498888015747e-01" nType="-99"/>
        </Node>
        <Node pos="r" depth="1" NCoef="0" IVar="1" Cut="1.6081420183181763e+00" cType="1" res="1.3188962824642658e-02" rms="4.5097744464874268e-01" purity="6.0506659746170044e-01" nType="0">
          <Node pos="l" depth="2" NCoef="0" IVar="-1" Cut="0.0000000000000000e+00" cType="1" res="8.5509923519566655e-04" rms="4.5102292299270630e-01" purity="6.3020044565200806e-01" nType="-99"/>
          <Node pos="r" depth="2" NCoef="0" IVar="-1" Cut="0.0000000000000000e+00" cType="1" res="-1.7190993530675769e-03" rms="4.4746834039688110e-01" purity="3.6667776107788086e-01" nType="-99"/>
        </Node>
      </Node>
    </BinaryTree>
    <BinaryTree type="DecisionTree" boostWeight="1.0000000000000000e+00" itree="282">
      <Node pos="s" depth="0" NCoef="0" IVar="0" Cut="4.1450209915637970e-02" cType="1" res="1.6766573535278440e-03" rms="4.4913256168365479e-01" purity="5.0194239616394043e-01" nType="0">
        <Node pos="l" depth="1" NCoef="0" IVar="6" Cut="9.7821617126464844e-01" cType="1" res="-5.0544749945402145e-02" rms="4.3432781100273132e-01" purity="3.4888365864753723e-01" nType="0">
          <Node pos="l" depth="2" NCoef="0" IVar="-1" Cut="0.0000000000000000e+00" cType="1" res="-1.4100301777943969e-03" rms="4.5697757601737976e-01" purity="4.3655663728713989e-01" nType="-99"/>
          <Node pos="r" depth="2" NCoef="0" IVar="-1" Cut="0.0000000000000000e+00" cType="1" res="-3.6699164193123579e-03" rms="4.0891999006271362e-01" purity="2.5929594039916992e-01" nType="-99"/>
        </Node>
        <Node pos="r" depth="1" NCoef="0" IVar="5" Cut="9.9017987060546875e+02" cType="1" res="8.3108516409993172e-03" rms="4.5054545998573303e-01" purity="5.2138698101043701e-01" nType="0">
          <Node pos="l" depth="2" NCoef="0" IVar="-1" Cut="0.0000000000000000e+00" cType="1" res="3.3935200917767361e-05" rms="4.4969087839126587e-01" purity="5.0453913211822510e-01" nType="-99"/>
          <Node pos="r" depth="2" NCoef="0" IVar="-1" Cut="0.0000000000000000e+00" cType="1" res="2.1251626312732697e-03" rms="4.5289108157157898e-01" purity="6.0582119226455688e-01" nType="-99"/>
        </Node>
      </Node>
    </BinaryTree>
    <BinaryTree type="DecisionTree" boostWeight="1.0000000000000000e+00" itree="283">
      <Node pos="s" depth="0" NCoef="0" IVar="0" Cut="5.5594824254512787e-02" cType="1" res="-1.7483764095231891e-03" rms="4.4874003529548645e-01" purity="4.9830204248428345e-01" nType="0">
        <Node pos="l" depth="1" NCoef="0" IVar="7" Cut="6.4469531178474426e-02" cType="1" res="-3.9934348315000534e-02" rms="4.3709668517112732e-01" purity="3.6036863923072815e-01" nType="0">
          <Node pos="l" depth="2" NCoef="0" IVar="-1" Cut="0.0000000000000000e+00" cType="1" res="-3.6103704478591681e-03" rms="4.1732493042945862e-01" purity="2.9642727971076965e-01" nType="-99"/>
          <Node pos="r" depth="2" NCoef="0" IVar="-1" Cut="0.0000000000000000e+00" cType="1" res="-1.0464570950716734e-03" rms="4.4701686501502991e-01" purity="3.9691254496574402e-01" nType="-99"/>
        </Node>
        <Node pos="r" depth="1" NCoef="0" IVar="4" Cut="5.5424261093139648e-01" cType="1" res="7.3840403929352760e-03" rms="4.5100131630897522e-01" purity="5.3128963708877563e-01" nType="0">
          <Node pos="l" depth="2" NCoef="0" IVar="-1" Cut="0.0000000000000000e+00" cType="1" res="-1.2192497961223125e-03" rms="4.4811993837356567e-01" purity="3.5288470983505249e-01" nType="-99"/>
          <Node pos="r" depth="2" NCoef="0" IVar="-1" Cut="0.0000000000000000e+00" cType="1" res="7.1761308936402202e-04" rms="4.5133471488952637e-01" purity="5.7442313432693481e-01" nType="-99"/>
        </Node>
      </Node>
    </BinaryTree>
    <BinaryTree type="DecisionTree" boostWeight="1.0000000000000000e+00" itree="284">
      <Node pos="s" depth="0" NCoef="0" IVar="0" Cut="5.5594824254512787e-02" cType="1" res="-1.3576458441093564e-03" rms="4.4894927740097046e-01" purity="4.9877226352691650e-01" nType="0">
        <Node pos="l" depth="1" NCoef="0" IVar="6" Cut="1.0107781887054443e+00" cType="1" res="-3.8338925689458847e-02" rms="4.3753966689109802e-01" purity="3.6001437902450562e-01" nType="0">
          <Node pos="l" depth="2" NCoef="0" IVar="-1" Cut="0.0000000000000000e+00" cType="1" res="-8.4264198085293174e-04" rms="4.5804664492607117e-01" purity="4.4552040100097656e-01" nType="-99"/>
          <Node pos="r" depth="2" NCoef="0" IVar="-1" Cut="0.0000000000000000e+00" cType="1" res="-3.1987589318305254e-03" rms="4.1152608394622803e-01" purity="2.6171121001243591e-01" nType="-99"/>
        </Node>
        <Node pos="r" depth="1" NCoef="0" IVar="2" Cut="8.8013064861297607e-01" cType="1" res="7.6926457695662975e-03" rms="4.5123624801635742e-01" purity="5.3272998332977295e-01" nType="0">
          <Node pos="l" depth="2" NCoef="0" IVar="-1" Cut="0.0000000000000000e+00" cType="1" res="-7.2581530548632145e-04" rms="4.5658817887306213e-01" purity="4.0541759133338928e-01" nType="-99"/>
          <Node pos="r" depth="2" NCoef="0" IVar="-1" Cut="0.0000000000000000e+00" cType="1" res="9.9136400967836380e-04" rms="4.4754409790039062e-01" purity="6.0673671960830688e-01" nType="-99"/>
        </Node>
      </Node>
    </BinaryTree>
    <BinaryTree type="DecisionTree" boostWeight="1.0000000000000000e+00" itree="285">
      <Node pos="s" depth="0" NCoef="0" IVar="6" Cut="1.8857364654541016e+00" cType="1" res="-2.4954834952950478e-03" rms="4.4923731684684753e-01" purity="4.9809202551841736e-01" nType="0">
        <Node pos="l" depth="1" NCoef="0" IVar="4" Cut="5.4219299554824829e-01" cType="1" res="2.4529725778847933e-03" rms="4.5376843214035034e-01" purity="5.2202248573303223e-01" nType="0">
          <Node pos="l" depth="2" NCoef="0" IVar="-1" Cut="0.0000000000000000e+00" cType="1" res="-1.8697889754548669e-03" rms="4.4250643253326416e-01" purity="3.2651665806770325e-01" nType="-99"/>
          <Node pos="r" depth="2" NCoef="0" IVar="-1" Cut="0.0000000000000000e+00" cType="1" res="4.6191673027351499e-04" rms="4.5539253950119019e-01" purity="5.5774962902069092e-01" nType="-99"/>
        </Node>
        <Node pos="r" depth="1" NCoef="0" IVar="-1" Cut="0.0000000000000000e+00" cType="1" res="-3.6539980210363865e-03" rms="3.8331604003906250e-01" purity="2.0095966756343842e-01" nType="-99"/>
      </Node>
    </BinaryTree>
    <BinaryTree type="DecisionTree" boostWeight="1.0000000000000000e+00" itree="286">
      <Node pos="s" depth="0" NCoef="0" IVar="1" Cut="7.7768445014953613e-01" cType="1" res="-8.9060288155451417e-04" rms="4.4762644171714783e-01" purity="4.9945205450057983e-01" nType="0">
        <Node pos="l" depth="1" NCoef="0" IVar="4" Cut="7.5841307640075684e-01" cType="1" res="3.8603398948907852e-02" rms="4.3315634131431580e-01" purity="6.6591387987136841e-01" nType="0">
          <Node pos="l" depth="2" NCoef="0" IVar="-1" Cut="0.0000000000000000e+00" cType="1" res="8.4777403390035033e-04" rms="4.7272887825965881e-01" purity="5.4822093248367310e-01" nType="-99"/>
          <Node pos="r" depth="2" NCoef="0" IVar="-1" Cut="0.0000000000000000e+00" cType="1" res="3.4961444325745106e-03" rms="3.7155425548553467e-01" purity="8.2483494281768799e-01" nType="-99"/>
        </Node>
        <Node pos="r" depth="1" NCoef="0" IVar="5" Cut="9.8705187988281250e+02" cType="1" res="-9.1800084337592125e-03" rms="4.5016485452651978e-01" purity="4.6451336145401001e-01" nType="0">
          <Node pos="l" depth="2" NCoef="0" IVar="-1" Cut="0.0000000000000000e+00" cType="1" res="-8.2698283949866891e-04" rms="4.4734814763069153e-01" purity="4.4455251097679138e-01" nType="-99"/>
          <Node pos="r" depth="2" NCoef="0" IVar="-1" Cut="0.0000000000000000e+00" cType="1" res="1.5108772786334157e-03" rms="4.6219491958618164e-01" purity="5.6813520193099976e-01" nType="-99"/>
        </Node>
      </Node>
    </BinaryTree>
    <BinaryTree type="DecisionTree" boostWeight="1.0000000000000000e+00" itree="287">
      <Node pos="s" depth="0" NCoef="0" IVar="2" Cut="8.4410125017166138e-01" cType="1" res="2.7288601268082857e-03" rms="4.4944542646408081e-01" purity="5.0100439786911011e-01" nType="0">
        <Node pos="l" depth="1" NCoef="0" IVar="5" Cut="9.2951495361328125e+02" cType="1" res="-2.3184871301054955e-02" rms="4.4391953945159912e-01" purity="3.5578703880310059e-01" nType="0">
          <Node pos="l" depth="2" NCoef="0" IVar="-1" Cut="0.0000000000000000e+00" cType="1" res="-1.6488917171955109e-03" rms="4.3595013022422791e-01" purity="3.2643479108810425e-01" nType="-99"/>
          <Node pos="r" depth="2" NCoef="0" IVar="-1" Cut="0.0000000000000000e+00" cType="1" res="6.8738672416657209e-04" rms="4.7084131836891174e-01" purity="4.6672025322914124e-01" nType="-99"/>
        </Node>
        <Node pos="r" depth="1" NCoef="0" IVar="7" Cut="1.3684584200382233e-01" cType="1" res="1.3953574001789093e-02" rms="4.5135647058486938e-01" purity="5.6390625238418579e-01" nType="0">
          <Node pos="l" depth="2" NCoef="0" IVar="-1" Cut="0.0000000000000000e+00" cType="1" res="2.3303640773519874e-04" rms="4.5317533612251282e-01" purity="5.3902506828308105e-01" nType="-99"/>
          <Node pos="r" depth="2" NCoef="0" IVar="-1" Cut="0.0000000000000000e+00" cType="1" res="1.9231257028877735e-03" rms="4.4470462203025818e-01" purity="6.3924956321716309e-01" nType="-99"/>
        </Node>
      </Node>
    </BinaryTree>
    <BinaryTree type="DecisionTree" boostWeight="1.0000000000000000e+00" itree="288">
      <Node pos="s" depth="0" NCoef="0" IVar="0" Cut="3.6677032709121704e-01" cType="1" res="5.1112391520291567e-04" rms="4.4876214861869812e-01" purity="5.0206643342971802e-01" nType="0">
        <Node pos="l" depth="1" NCoef="0" IVar="6" Cut="1.8086363077163696e+00" cType="1" res="-6.1077107675373554e-03" rms="4.5113283395767212e-01" purity="4.7162619233131409e-01" nType="0">
          <Node pos="l" depth="2" NCoef="0" IVar="-1" Cut="0.0000000000000000e+00" cType="1" res="-4.0275339415529743e-05" rms="4.5753940939903259e-01" purity="4.9918577075004578e-01" nType="-99"/>
          <Node pos="r" depth="2" NCoef="0" IVar="-1" Cut="0.0000000000000000e+00" cType="1" res="-3.4140001516789198e-03" rms="3.7736320495605469e-01" purity="1.9651184976100922e-01" nType="-99"/>
        </Node>
        <Node pos="r" depth="1" NCoef="0" IVar="2" Cut="9.0418368577957153e-01" cType="1" res="4.2815554887056351e-02" rms="4.3090870976448059e-01" purity="6.9662541151046753e-01" nType="0">
          <Node pos="l" depth="2" NCoef="0" IVar="-1" Cut="0.0000000000000000e+00" cType="1" res="8.9467235375195742e-04" rms="4.6046891808509827e-01" purity="6.0325759649276733e-01" nType="-99"/>
          <Node pos="r" depth="2" NCoef="0" IVar="-1" Cut="0.0000000000000000e+00" cType="1" res="2.9615650419145823e-03" rms="4.0913590788841248e-01" purity="7.5935852527618408e-01" nType="-99"/>
        </Node>
      </Node>
    </BinaryTree>
    <BinaryTree type="DecisionTree" boostWeight="1.0000000000000000e+00" itree="289">
      <Node pos="s" depth="0" NCoef="0" IVar="4" Cut="5.3017395734786987e-01" cType="1" res="1.9443788332864642e-03" rms="4.4984781742095947e-01" purity="5.0011855363845825e-01" nType="0">
        <Node pos="l" depth="1" NCoef="0" IVar="5" Cut="6.2190478515625000e+02" cType="1" res="-4.5742709189653397e-02" rms="4.2918404936790466e-01" purity="3.0012977123260498e-01" nType="0">
          <Node pos="l" depth="2" NCoef="0" IVar="-1" Cut="0.0000000000000000e+00" cType="1" res="-4.1775316931307316e-03" rms="3.8892853260040283e-01" purity="2.2333461046218872e-01" nType="-99"/>
          <Node pos="r" depth="2" NCoef="0" IVar="-1" Cut="0.0000000000000000e+00" cType="1" res="-1.1300051119178534e-03" rms="4.5359763503074646e-01" purity="3.5309454798698425e-01" nType="-99"/>
        </Node>
        <Node pos="r" depth="1" NCoef="0" IVar="3" Cut="2.6184923648834229e+00" cType="1" res="8.6743272840976715e-03" rms="4.5228341221809387e-01" purity="5.2834242582321167e-01" nType="0">
          <Node pos="l" depth="2" NCoef="0" IVar="-1" Cut="0.0000000000000000e+00" cType="1" res="6.1139505123719573e-04" rms="4.5402225852012634e-01" purity="5.4476857185363770e-01" nType="-99"/>
          <Node pos="r" depth="2" NCoef="0" IVar="-1" Cut="0.0000000000000000e+00" cType="1" res="-2.5648439768701792e-03" rms="4.2399662733078003e-01" purity="3.0906346440315247e-01" nType="-99"/>
        </Node>
      </Node>
    </BinaryTree>
    <BinaryTree type="DecisionTree" boostWeight="1.0000000000000000e+00" itree="290">
      <Node pos="s" depth="0" NCoef="0" IVar="4" Cut="8.6708134412765503e-01" cType="1" res="-1.1180731235072017e-03" rms="4.4781216979026794e-01" purity="4.9906820058822632e-01" nType="0">
        <Node pos="l" depth="1" NCoef="0" IVar="0" Cut="6.9740250706672668e-02" cType="1" res="-1.0300885885953903e-02" rms="4.5386740565299988e-01" purity="4.3821957707405090e-01" nType="0">
          <Node pos="l" depth="2" NCoef="0" IVar="-1" Cut="0.0000000000000000e+00" cType="1" res="-2.0165643654763699e-03" rms="4.3319088220596313e-01" purity="3.0759298801422119e-01" nType="-99"/>
          <Node pos="r" depth="2" NCoef="0" IVar="-1" Cut="0.0000000000000000e+00" cType="1" res="5.3923526138532907e-05" rms="4.6088784933090210e-01" purity="4.8738786578178406e-01" nType="-99"/>
        </Node>
        <Node pos="r" depth="1" NCoef="0" IVar="2" Cut="9.7463876008987427e-01" cType="1" res="3.3166747540235519e-02" rms="4.2268252372741699e-01" purity="7.2625184059143066e-01" nType="0">
          <Node pos="l" depth="2" NCoef="0" IVar="-1" Cut="0.0000000000000000e+00" cType="1" res="5.6306418264284730e-04" rms="4.3433809280395508e-01" purity="6.9149774312973022e-01" nType="-99"/>
          <Node pos="r" depth="2" NCoef="0" IVar="-1" Cut="0.0000000000000000e+00" cType="1" res="2.2919152397662401e-03" rms="4.1500625014305115e-01" purity="7.4706536531448364e-01" nType="-99"/>
        </Node>
      </Node>
    </BinaryTree>
    <BinaryTree type="DecisionTree" boostWeight="1.0000000000000000e+00" itree="291">
      <Node pos="s" depth="0" NCoef="0" IVar="2" Cut="9.2771011590957642e-01" cType="1" res="-1.1782594956457615e-03" rms="4.4874420762062073e-01" purity="4.9944162368774414e-01" nType="0">
        <Node pos="l" depth="1" NCoef="0" IVar="5" Cut="7.6343261718750000e+02" cType="1" res="-1.7729826271533966e-02" rms="4.5023781061172485e-01" purity="4.0761289000511169e-01" nType="0">
          <Node pos="l" depth="2" NCoef="0" IVar="-1" Cut="0.0000000000000000e+00" cType="1" res="-1.5865687746554613e-03" rms="4.3950727581977844e-01" purity="3.5952362418174744e-01" nType="-99"/>
          <Node pos="r" depth="2" NCoef="0" IVar="-1" Cut="0.0000000000000000e+00" cType="1" res="2.5074684526771307e-04" rms="4.6571627259254456e-01" purity="4.8347494006156921e-01" nType="-99"/>
        </Node>
        <Node pos="r" depth="1" NCoef="0" IVar="7" Cut="1.4658318459987640e-01" cType="1" res="1.5422406606376171e-02" rms="4.4662544131278992e-01" purity="5.9154278039932251e-01" nType="0">
          <Node pos="l" depth="2" NCoef="0" IVar="-1" Cut="0.0000000000000000e+00" cType="1" res="3.1285895965993404e-04" rms="4.4882681965827942e-01" purity="5.6863629817962646e-01" nType="-99"/>
          <Node pos="r" depth="2" NCoef="0" IVar="-1" Cut="0.0000000000000000e+00" cType="1" res="2.2164161782711744e-03" rms="4.3729460239410400e-01" purity="6.7296624183654785e-01" nType="-99"/>
        </Node>
      </Node>
    </BinaryTree>
    <BinaryTree type="DecisionTree" boostWeight="1.0000000000000000e+00" itree="292">
      <Node pos="s" depth="0" NCoef="0" IVar="0" Cut="4.3750739097595215e-01" cType="1" res="-1.5501813322771341e-04" rms="4.4925615191459656e-01" purity="4.9927920103073120e-01" nType="0">
        <Node pos="l" depth="1" NCoef="0" IVar="4" Cut="5.3019481897354126e-01" cType="1" res="-4.6411934308707714e-03" rms="4.5096546411514282e-01" purity="4.8500972986221313e-01" nType="0">
          <Node pos="l" depth="2" NCoef="0" IVar="-1" Cut="0.0000000000000000e+00" cType="1" res="-2.4816240184009075e-03" rms="4.2600974440574646e-01" purity="2.8732278943061829e-01" nType="-99"/>
          <Node pos="r" depth="2" NCoef="0" IVar="-1" Cut="0.0000000000000000e+00" cType="1" res="7.3539980803616345e-05" rms="4.5399335026741028e-01" purity="5.1260328292846680e-01" nType="-99"/>
        </Node>
        <Node pos="r" depth="1" NCoef="0" IVar="-1" Cut="0.0000000000000000e+00" cType="1" res="3.4813771490007639e-03" rms="4.1406309604644775e-01" purity="7.2945517301559448e-01" nType="-99"/>
      </Node>
    </BinaryTree>
    <BinaryTree type="DecisionTree" boostWeight="1.0000000000000000e+00" itree="293">
      <Node pos="s" depth="0" NCoef="0" IVar="2" Cut="6.6681331396102905e-01" cType="1" res="-1.1642895406112075e-03" rms="4.5038449764251709e-01" purity="4.9592795968055725e-01" nType="0">
        <Node pos="l" depth="1" NCoef="0" IVar="-1" Cut="0.0000000000000000e+00" cType="1" res="-2.9476222116500139e-03" rms="4.2026019096374512e-01" purity="2.6946777105331421e-01" nType="-99"/>
        <Node pos="r" depth="1" NCoef="0" IVar="0" Cut="3.6675950884819031e-01" cType="1" res="3.7825908511877060e-03" rms="4.5263093709945679e-01" purity="5.1603478193283081e-01" nType="0">
          <Node pos="l" depth="2" NCoef="0" IVar="-1" Cut="0.0000000000000000e+00" cType="1" res="-1.4161445142235607e-04" rms="4.5611441135406494e-01" purity="4.8597979545593262e-01" nType="-99"/>
          <Node pos="r" depth="2" NCoef="0" IVar="-1" Cut="0.0000000000000000e+00" cType="1" res="2.3271052632480860e-03" rms="4.2678174376487732e-01" purity="7.1055418252944946e-01" nType="-99"/>
        </Node>
      </Node>
    </BinaryTree>
    <BinaryTree type="DecisionTree" boostWeight="1.0000000000000000e+00" itree="294">
      <Node pos="s" depth="0" NCoef="0" IVar="4" Cut="5.3019702434539795e-01" cType="1" res="1.7742849886417389e-03" rms="4.4873473048210144e-01" purity="5.0098615884780884e-01" nType="0">
        <Node pos="l" depth="1" NCoef="0" IVar="3" Cut="8.7868118286132812e-01" cType="1" res="-4.5285280793905258e-02" rms="4.2829436063766479e-01" purity="3.0046981573104858e-01" nType="0">
          <Node pos="l" depth="2" NCoef="0" IVar="-1" Cut="0.0000000000000000e+00" cType="1" res="-9.5683475956320763e-04" rms="4.5361539721488953e-01" purity="3.7645202875137329e-01" nType="-99"/>
          <Node pos="r" depth="2" NCoef="0" IVar="-1" Cut="0.0000000000000000e+00" cType="1" res="-3.3274879679083824e-03" rms="4.0864530205726624e-01" purity="2.4699401855468750e-01" nType="-99"/>
        </Node>
        <Node pos="r" depth="1" NCoef="0" IVar="8" Cut="2.1815197467803955e+00" cType="1" res="8.4904618561267853e-03" rms="4.5117640495300293e-01" purity="5.2960312366485596e-01" nType="0">
          <Node pos="l" depth="2" NCoef="0" IVar="-1" Cut="0.0000000000000000e+00" cType="1" res="1.2537249131128192e-03" rms="4.4932162761688232e-01" purity="6.0829591751098633e-01" nType="-99"/>
          <Node pos="r" depth="2" NCoef="0" IVar="-1" Cut="0.0000000000000000e+00" cType="1" res="-3.9491811185143888e-04" rms="4.5220565795898438e-01" purity="4.5788010954856873e-01" nType="-99"/>
        </Node>
      </Node>
    </BinaryTree>
    <BinaryTree type="DecisionTree" boostWeight="1.0000000000000000e+00" itree="295">
      <Node pos="s" depth="0" NCoef="0" IVar="2" Cut="9.6369558572769165e-01" cType="1" res="-1.4446417335420847e-03" rms="4.4845163822174072e-01" purity="4.9803271889686584e-01" nType="0">
        <Node pos="l" depth="1" NCoef="0" IVar="0" Cut="1.2631288170814514e-01" cType="1" res="-1.3410220853984356e-02" rms="4.5249029994010925e-01" purity="4.3890735507011414e-01" nType="0">
          <Node pos="l" depth="2" NCoef="0" IVar="-1" Cut="0.0000000000000000e+00" cType="1" res="-1.4362460933625698e-03" rms="4.4258812069892883e-01" purity="3.3849528431892395e-01" nType="-99"/>
          <Node pos="r" depth="2" NCoef="0" IVar="-1" Cut="0.0000000000000000e+00" cType="1" res="2.1523399482248351e-05" rms="4.6067425608634949e-01" purity="5.2821034193038940e-01" nType="-99"/>
        </Node>
        <Node pos="r" depth="1" NCoef="0" IVar="1" Cut="1.4433258771896362e+00" cType="1" res="2.0498929545283318e-02" rms="4.4010454416275024e-01" purity="6.0646206140518188e-01" nType="0">
          <Node pos="l" depth="2" NCoef="0" IVar="-1" Cut="0.0000000000000000e+00" cType="1" res="1.4214719412848353e-03" rms="4.3902403116226196e-01" purity="6.5089958906173706e-01" nType="-99"/>
          <Node pos="r" depth="2" NCoef="0" IVar="-1" Cut="0.0000000000000000e+00" cType="1" res="-1.0182724799960852e-03" rms="4.4244882464408875e-01" purity="4.0763026475906372e-01" nType="-99"/>
        </Node>
      </Node>
    </BinaryTree>
    <BinaryTree type="DecisionTree" boostWeight="1.0000000000000000e+00" itree="296">
      <Node pos="s" depth="0" NCoef="0" IVar="8" Cut="2.2726938724517822e+00" cType="1" res="-1.6745959874242544e-03" rms="4.4872361421585083e-01" purity="5.0026196241378784e-01" nType="0">
        <Node pos="l" depth="1" NCoef="0" IVar="5" Cut="7.1858886718750000e+02" cType="1" res="1.2110318988561630e-02" rms="4.5214149355888367e-01" purity="5.7096141576766968e-01" nType="0">
          <Node pos="l" depth="2" NCoef="0" IVar="-1" Cut="0.0000000000000000e+00" cType="1" res="-1.7546155140735209e-04" rms="4.5289465785026550e-01" purity="5.2481740713119507e-01" nType="-99"/>
          <Node pos="r" depth="2" NCoef="0" IVar="-1" Cut="0.0000000000000000e+00" cType="1" res="1.4086472801864147e-03" rms="4.5057100057601929e-01" purity="6.2438976764678955e-01" nType="-99"/>
        </Node>
        <Node pos="r" depth="1" NCoef="0" IVar="6" Cut="1.8540143966674805e+00" cType="1" res="-2.1682722494006157e-02" rms="4.4295334815979004e-01" purity="3.9764517545700073e-01" nType="0">
          <Node pos="l" depth="2" NCoef="0" IVar="-1" Cut="0.0000000000000000e+00" cType="1" res="-6.2885147053748369e-04" rms="4.5478320121765137e-01" purity="4.4115486741065979e-01" nType="-99"/>
          <Node pos="r" depth="2" NCoef="0" IVar="-1" Cut="0.0000000000000000e+00" cType="1" res="-3.4006931819021702e-03" rms="3.8367468118667603e-01" purity="2.0383355021476746e-01" nType="-99"/>
        </Node>
      </Node>
    </BinaryTree>
    <BinaryTree type="DecisionTree" boostWeight="1.0000000000000000e+00" itree="297">
      <Node pos="s" depth="0" NCoef="0" IVar="6" Cut="8.3643490076065063e-01" cType="1" res="8.3111831918358803e-04" rms="4.5052942633628845e-01" purity="5.0106245279312134e-01" nType="0">
        <Node pos="l" depth="1" NCoef="0" IVar="5" Cut="5.2302905273437500e+02" cType="1" res="2.0291173830628395e-02" rms="4.4961562752723694e-01" purity="6.0130256414413452e-01" nType="0">
          <Node pos="l" depth="2" NCoef="0" IVar="-1" Cut="0.0000000000000000e+00" cType="1" res="-7.6972914393991232e-04" rms="4.5310229063034058e-01" purity="4.9101638793945312e-01" nType="-99"/>
          <Node pos="r" depth="2" NCoef="0" IVar="-1" Cut="0.0000000000000000e+00" cType="1" res="1.3007683446630836e-03" rms="4.4851985573768616e-01" purity="6.2401837110519409e-01" nType="-99"/>
        </Node>
        <Node pos="r" depth="1" NCoef="0" IVar="0" Cut="5.5590111762285233e-02" cType="1" res="-1.3430058956146240e-02" rms="4.5066469907760620e-01" purity="4.2760208249092102e-01" nType="0">
          <Node pos="l" depth="2" NCoef="0" IVar="-1" Cut="0.0000000000000000e+00" cType="1" res="-2.5437721051275730e-03" rms="4.2450889945030212e-01" purity="2.9744976758956909e-01" nType="-99"/>
          <Node pos="r" depth="2" NCoef="0" IVar="-1" Cut="0.0000000000000000e+00" cType="1" res="-1.9687249732669443e-04" rms="4.5656451582908630e-01" purity="4.6044924855232239e-01" nType="-99"/>
        </Node>
      </Node>
    </BinaryTree>
    <BinaryTree type="DecisionTree" boostWeight="1.0000000000000000e+00" itree="298">
      <Node pos="s" depth="0" NCoef="0" IVar="4" Cut="6.5041655302047729e-01" cType="1" res="3.1886508804745972e-04" rms="4.4913971424102783e-01" purity="4.9978986382484436e-01" nType="0">
        <Node pos="l" depth="1" NCoef="0" IVar="5" Cut="1.0157830810546875e+03" cType="1" res="-1.8067531287670135e-02" rms="4.4705566763877869e-01" purity="3.5612440109252930e-01" nType="0">
          <Node pos="l" depth="2" NCoef="0" IVar="-1" Cut="0.0000000000000000e+00" cType="1" res="-1.2472122907638550e-03" rms="4.4216644763946533e-01" purity="3.3675903081893921e-01" nType="-99"/>
          <Node pos="r" depth="2" NCoef="0" IVar="-1" Cut="0.0000000000000000e+00" cType="1" res="1.1202116729691625e-03" rms="4.7257864475250244e-01" purity="4.7029545903205872e-01" nType="-99"/>
        </Node>
        <Node pos="r" depth="1" NCoef="0" IVar="5" Cut="5.1812274169921875e+02" cType="1" res="1.4213923364877701e-02" rms="4.5021039247512817e-01" purity="6.0836142301559448e-01" nType="0">
          <Node pos="l" depth="2" NCoef="0" IVar="-1" Cut="0.0000000000000000e+00" cType="1" res="-7.5113336788490415e-04" rms="4.5617386698722839e-01" purity="5.0830435752868652e-01" nType="-99"/>
          <Node pos="r" depth="2" NCoef="0" IVar="-1" Cut="0.0000000000000000e+00" cType="1" res="9.7413233015686274e-04" rms="4.4863936305046082e-01" purity="6.2996983528137207e-01" nType="-99"/>
        </Node>
      </Node>
    </BinaryTree>
    <BinaryTree type="DecisionTree" boostWeight="1.0000000000000000e+00" itree="299">
      <Node pos="s" depth="0" NCoef="0" IVar="4" Cut="9.6333283185958862e-01" cType="1" res="-2.0698108710348606e-03" rms="4.4950979948043823e-01" purity="4.9719315767288208e-01" nType="0">
        <Node pos="l" depth="1" NCoef="0" IVar="1" Cut="6.9300627708435059e-01" cType="1" res="-6.0796174220740795e-03" rms="4.5217114686965942e-01" purity="4.7943612933158875e-01" nType="0">
          <Node pos="l" depth="2" NCoef="0" IVar="-1" Cut="0.0000000000000000e+00" cType="1" res="1.7685443162918091e-03" rms="4.4244056940078735e-01" purity="6.5596395730972290e-01" nType="-99"/>
          <Node pos="r" depth="2" NCoef="0" IVar="-1" Cut="0.0000000000000000e+00" cType="1" res="-5.5210600839927793e-04" rms="4.5309180021286011e-01" purity="4.5693427324295044e-01" nType="-99"/>
        </Node>
        <Node pos="r" depth="1" NCoef="0" IVar="-1" Cut="0.0000000000000000e+00" cType="1" res="3.0574991833418608e-03" rms="4.0061590075492859e-01" purity="7.7400243282318115e-01" nType="-99"/>
      </Node>
    </BinaryTree>
    <BinaryTree type="DecisionTree" boostWeight="1.0000000000000000e+00" itree="300">
      <Node pos="s" depth="0" NCoef="0" IVar="5" Cut="6.0282366943359375e+02" cType="1" res="-1.3975169276818633e-03" rms="4.4900164008140564e-01" purity="4.9864140152931213e-01" nType="0">
        <Node pos="l" depth="1" NCoef="0" IVar="7" Cut="1.4610277116298676e-01" cType="1" res="-2.3468475788831711e-02" rms="4.4185894727706909e-01" purity="4.2230144143104553e-01" nType="0">
          <Node pos="l" depth="2" NCoef="0" IVar="-1" Cut="0.0000000000000000e+00" cType="1" res="-1.7808796837925911e-03" rms="4.3659278750419617e-01" purity="3.8137006759643555e-01" nType="-99"/>
          <Node pos="r" depth="2" NCoef="0" IVar="-1" Cut="0.0000000000000000e+00" cType="1" res="2.5735647068358958e-04" rms="4.5242843031883240e-01" purity="5.1655364036560059e-01" nType="-99"/>
        </Node>
        <Node pos="r" depth="1" NCoef="0" IVar="6" Cut="8.3250021934509277e-01" cType="1" res="1.0959188453853130e-02" rms="4.5248153805732727e-01" purity="5.4138135910034180e-01" nType="0">
          <Node pos="l" depth="2" NCoef="0" IVar="-1" Cut="0.0000000000000000e+00" cType="1" res="1.4943815767765045e-03" rms="4.4550824165344238e-01" purity="6.3600552082061768e-01" nType="-99"/>
          <Node pos="r" depth="2" NCoef="0" IVar="-1" Cut="0.0000000000000000e+00" cType="1" res="-2.9539680690504611e-04" rms="4.5736196637153625e-01" purity="4.6424725651741028e-01" nType="-99"/>
        </Node>
      </Node>
    </BinaryTree>
    <BinaryTree type="DecisionTree" boostWeight="1.0000000000000000e+00" itree="301">
      <Node pos="s" depth="0" NCoef="0" IVar="3" Cut="1.0767152309417725e+00" cType="1" res="1.3793713878840208e-03" rms="4.4900423288345337e-01" purity="5.0199842453002930e-01" nType="0">
        <Node pos="l" depth="1" NCoef="0" IVar="0" Cut="1.3564758002758026e-01" cType="1" res="1.6658939421176910e-02" rms="4.5054304599761963e-01" purity="5.6894493103027344e-01" nType="0">
          <Node pos="l" depth="2" NCoef="0" IVar="-1" Cut="0.0000000000000000e+00" cType="1" res="-6.4058331190608442e-05" rms="4.6130323410034180e-01" purity="4.5970007777214050e-01" nType="-99"/>
          <Node pos="r" depth="2" NCoef="0" IVar="-1" Cut="0.0000000000000000e+00" cType="1" res="1.5615049051120877e-03" rms="4.4003441929817200e-01" purity="6.6697198152542114e-01" nType="-99"/>
        </Node>
        <Node pos="r" depth="1" NCoef="0" IVar="4" Cut="5.7824599742889404e-01" cType="1" res="-1.6585836187005043e-02" rms="4.4651991128921509e-01" purity="4.2328500747680664e-01" nType="0">
          <Node pos="l" depth="2" NCoef="0" IVar="-1" Cut="0.0000000000000000e+00" cType="1" res="-2.4125494528561831e-03" rms="4.1338613629341125e-01" purity="2.6366895437240601e-01" nType="-99"/>
          <Node pos="r" depth="2" NCoef="0" IVar="-1" Cut="0.0000000000000000e+00" cType="1" res="-2.7009009500034153e-04" rms="4.5780593156814575e-01" purity="4.8285886645317078e-01" nType="-99"/>
        </Node>
      </Node>
    </BinaryTree>
    <BinaryTree type="DecisionTree" boostWeight="1.0000000000000000e+00" itree="302">
      <Node pos="s" depth="0" NCoef="0" IVar="7" Cut="3.4045703709125519e-02" cType="1" res="2.8259688988327980e-03" rms="4.5039215683937073e-01" purity="5.0111508369445801e-01" nType="0">
        <Node pos="l" depth="1" NCoef="0" IVar="5" Cut="8.5594750976562500e+02" cType="1" res="-2.8751589357852936e-02" rms="4.4637599587440491e-01" purity="4.1974079608917236e-01" nType="0">
          <Node pos="l" depth="2" NCoef="0" IVar="-1" Cut="0.0000000000000000e+00" cType="1" res="-2.8456763830035925e-03" rms="4.2971512675285339e-01" purity="3.4580254554748535e-01" nType="-99"/>
          <Node pos="r" depth="2" NCoef="0" IVar="-1" Cut="0.0000000000000000e+00" cType="1" res="1.6812734247650951e-04" rms="4.6275082230567932e-01" purity="5.0508290529251099e-01" nType="-99"/>
        </Node>
        <Node pos="r" depth="1" NCoef="0" IVar="5" Cut="4.3306207275390625e+02" cType="1" res="8.9407786726951599e-03" rms="4.5091024041175842e-01" purity="5.1687276363372803e-01" nType="0">
          <Node pos="l" depth="2" NCoef="0" IVar="-1" Cut="0.0000000000000000e+00" cType="1" res="-2.7811003383249044e-03" rms="4.2937347292900085e-01" purity="3.4871733188629150e-01" nType="-99"/>
          <Node pos="r" depth="2" NCoef="0" IVar="-1" Cut="0.0000000000000000e+00" cType="1" res="6.2363140750676394e-04" rms="4.5197001099586487e-01" purity="5.2797687053680420e-01" nType="-99"/>
        </Node>
      </Node>
    </BinaryTree>
    <BinaryTree type="DecisionTree" boostWeight="1.0000000000000000e+00" itree="303">
      <Node pos="s" depth="0" NCoef="0" IVar="4" Cut="8.7904071807861328e-01" cType="1" res="1.6047504032030702e-03" rms="4.4932943582534790e-01" purity="5.0091564655303955e-01" nType="0">
        <Node pos="l" depth="1" NCoef="0" IVar="8" Cut="2.2945301532745361e+00" cType="1" res="-6.6061294637620449e-03" rms="4.5583426952362061e-01" purity="4.4621813297271729e-01" nType="0">
          <Node pos="l" depth="2" NCoef="0" IVar="-1" Cut="0.0000000000000000e+00" cType="1" res="2.9489537701010704e-04" rms="4.6479490399360657e-01" purity="5.1422566175460815e-01" nType="-99"/>
          <Node pos="r" depth="2" NCoef="0" IVar="-1" Cut="0.0000000000000000e+00" cType="1" res="-1.3271423522382975e-03" rms="4.4111454486846924e-01" purity="3.4282591938972473e-01" nType="-99"/>
        </Node>
        <Node pos="r" depth="1" NCoef="0" IVar="4" Cut="9.5637631416320801e-01" cType="1" res="3.6508392542600632e-02" rms="4.1876378655433655e-01" purity="7.3342937231063843e-01" nType="0">
          <Node pos="l" depth="2" NCoef="0" IVar="-1" Cut="0.0000000000000000e+00" cType="1" res="1.1092436034232378e-03" rms="4.2696857452392578e-01" purity="7.1069651842117310e-01" nType="-99"/>
          <Node pos="r" depth="2" NCoef="0" IVar="-1" Cut="0.0000000000000000e+00" cType="1" res="3.0195296276360750e-03" rms="4.0368542075157166e-01" purity="7.7120906114578247e-01" nType="-99"/>
        </Node>
      </Node>
    </BinaryTree>
    <BinaryTree type="DecisionTree" boostWeight="1.0000000000000000e+00" itree="304">
      <Node pos="s" depth="0" NCoef="0" IVar="0" Cut="1.8289458751678467e-01" cType="1" res="1.3455338776111603e-03" rms="4.4968625903129578e-01" purity="5.0268137454986572e-01" nType="0">
        <Node pos="l" depth="1" NCoef="0" IVar="8" Cut="1.7012693881988525e+00" cType="1" res="-1.2433178722858429e-02" rms="4.5320668816566467e-01" purity="4.1985109448432922e-01" nType="0">
          <Node pos="l" depth="2" NCoef="0" IVar="-1" Cut="0.0000000000000000e+00" cType="1" res="9.8590715788304806e-04" rms="4.6303567290306091e-01" purity="5.2448648214340210e-01" nType="-99"/>
          <Node pos="r" depth="2" NCoef="0" IVar="-1" Cut="0.0000000000000000e+00" cType="1" res="-8.7911554146558046e-04" rms="4.5123848319053650e-01" purity="4.0189608931541443e-01" nType="-99"/>
        </Node>
        <Node pos="r" depth="1" NCoef="0" IVar="2" Cut="7.3570919036865234e-01" cType="1" res="2.1674199029803276e-02" rms="4.4366070628166199e-01" purity="6.2488639354705811e-01" nType="0">
          <Node pos="l" depth="2" NCoef="0" IVar="-1" Cut="0.0000000000000000e+00" cType="1" res="-1.4049370074644685e-03" rms="4.6605855226516724e-01" purity="4.2347213625907898e-01" nType="-99"/>
          <Node pos="r" depth="2" NCoef="0" IVar="-1" Cut="0.0000000000000000e+00" cType="1" res="1.4207004569470882e-03" rms="4.3952065706253052e-01" purity="6.5604847669601440e-01" nType="-99"/>
        </Node>
      </Node>
    </BinaryTree>
    <BinaryTree type="DecisionTree" boostWeight="1.0000000000000000e+00" itree="305">
      <Node pos="s" depth="0" NCoef="0" IVar="0" Cut="4.0921944379806519e-01" cType="1" res="-1.6951278666965663e-05" rms="4.4942903518676758e-01" purity="5.0075268745422363e-01" nType="0">
        <Node pos="l" depth="1" NCoef="0" IVar="1" Cut="6.6746622323989868e-01" cType="1" res="-4.8357546329498291e-03" rms="4.5145696401596069e-01" purity="4.8075544834136963e-01" nType="0">
          <Node pos="l" depth="2" NCoef="0" IVar="-1" Cut="0.0000000000000000e+00" cType="1" res="1.9831322133541107e-03" rms="4.3845468759536743e-01" purity="6.6398972272872925e-01" nType="-99"/>
          <Node pos="r" depth="2" NCoef="0" IVar="-1" Cut="0.0000000000000000e+00" cType="1" res="-4.6592290163971484e-04" rms="4.5252841711044312e-01" purity="4.6136572957038879e-01" nType="-99"/>
        </Node>
        <Node pos="r" depth="1" NCoef="0" IVar="-1" Cut="0.0000000000000000e+00" cType="1" res="2.4377603549510241e-03" rms="4.2433097958564758e-01" purity="7.1023416519165039e-01" nType="-99"/>
      </Node>
    </BinaryTree>
    <BinaryTree type="DecisionTree" boostWeight="1.0000000000000000e+00" itree="306">
      <Node pos="s" depth="0" NCoef="0" IVar="7" Cut="6.6915683448314667e-02" cType="1" res="1.6496429452672601e-03" rms="4.4958493113517761e-01" purity="5.0033688545227051e-01" nType="0">
        <Node pos="l" depth="1" NCoef="0" IVar="5" Cut="1.0524041748046875e+03" cType="1" res="-1.7153993248939514e-02" rms="4.4661504030227661e-01" purity="4.4605231285095215e-01" nType="0">
          <Node pos="l" depth="2" NCoef="0" IVar="-1" Cut="0.0000000000000000e+00" cType="1" res="-1.3653872301802039e-03" rms="4.4228911399841309e-01" purity="4.1668993234634399e-01" nType="-99"/>
          <Node pos="r" depth="2" NCoef="0" IVar="-1" Cut="0.0000000000000000e+00" cType="1" res="1.2899829307571054e-03" rms="4.6118807792663574e-01" purity="5.6638836860656738e-01" nType="-99"/>
        </Node>
        <Node pos="r" depth="1" NCoef="0" IVar="5" Cut="6.0047827148437500e+02" cType="1" res="1.4605973847210407e-02" rms="4.5116412639617920e-01" purity="5.3774070739746094e-01" nType="0">
          <Node pos="l" depth="2" NCoef="0" IVar="-1" Cut="0.0000000000000000e+00" cType="1" res="-2.6078743394464254e-04" rms="4.4881919026374817e-01" purity="4.6503260731697083e-01" nType="-99"/>
          <Node pos="r" depth="2" NCoef="0" IVar="-1" Cut="0.0000000000000000e+00" cType="1" res="1.3990954030305147e-03" rms="4.5235720276832581e-01" purity="5.9371280670166016e-01" nType="-99"/>
        </Node>
      </Node>
    </BinaryTree>
    <BinaryTree type="DecisionTree" boostWeight="1.0000000000000000e+00" itree="307">
      <Node pos="s" depth="0" NCoef="0" IVar="3" Cut="1.6376527547836304e+00" cType="1" res="2.8437119908630848e-03" rms="4.4744533300399780e-01" purity="5.0400465726852417e-01" nType="0">
        <Node pos="l" depth="1" NCoef="0" IVar="5" Cut="6.5388146972656250e+02" cType="1" res="1.1927288956940174e-02" rms="4.5097476243972778e-01" purity="5.4701560735702515e-01" nType="0">
          <Node pos="l" depth="2" NCoef="0" IVar="-1" Cut="0.0000000000000000e+00" cType="1" res="-3.0148419318720698e-04" rms="4.4952672719955444e-01" purity="4.8773965239524841e-01" nType="-99"/>
          <Node pos="r" depth="2" NCoef="0" IVar="-1" Cut="0.0000000000000000e+00" cType="1" res="1.2064253678545356e-03" rms="4.5158419013023376e-01" purity="5.9282696247100830e-01" nType="-99"/>
        </Node>
        <Node pos="r" depth="1" NCoef="0" IVar="6" Cut="1.5904934406280518e+00" cType="1" res="-2.5819055736064911e-02" rms="4.3487906455993652e-01" purity="3.6828559637069702e-01" nType="0">
          <Node pos="l" depth="2" NCoef="0" IVar="-1" Cut="0.0000000000000000e+00" cType="1" res="-6.4430292695760727e-04" rms="4.5479890704154968e-01" purity="4.3534588813781738e-01" nType="-99"/>
          <Node pos="r" depth="2" NCoef="0" IVar="-1" Cut="0.0000000000000000e+00" cType="1" res="-3.2371652778238058e-03" rms="3.7992620468139648e-01" purity="2.0353920757770538e-01" nType="-99"/>
        </Node>
      </Node>
    </BinaryTree>
    <BinaryTree type="DecisionTree" boostWeight="1.0000000000000000e+00" itree="308">
      <Node pos="s" depth="0" NCoef="0" IVar="8" Cut="2.9402968883514404e+00" cType="1" res="5.2678033171105199e-06" rms="4.4904044270515442e-01" purity="4.9945828318595886e-01" nType="0">
        <Node pos="l" depth="1" NCoef="0" IVar="5" Cut="5.3789593505859375e+02" cType="1" res="3.7031772080808878e-03" rms="4.5249775052070618e-01" purity="5.1701164245605469e-01" nType="0">
          <Node pos="l" depth="2" NCoef="0" IVar="-1" Cut="0.0000000000000000e+00" cType="1" res="-1.1071223998442292e-03" rms="4.4396921992301941e-01" purity="4.1954186558723450e-01" nType="-99"/>
          <Node pos="r" depth="2" NCoef="0" IVar="-1" Cut="0.0000000000000000e+00" cType="1" res="5.3898425539955497e-04" rms="4.5469179749488831e-01" purity="5.4583674669265747e-01" nType="-99"/>
        </Node>
        <Node pos="r" depth="1" NCoef="0" IVar="-1" Cut="0.0000000000000000e+00" cType="1" res="-3.8879704661667347e-03" rms="3.7669563293457031e-01" purity="1.8855586647987366e-01" nType="-99"/>
      </Node>
    </BinaryTree>
    <BinaryTree type="DecisionTree" boostWeight="1.0000000000000000e+00" itree="309">
      <Node pos="s" depth="0" NCoef="0" IVar="7" Cut="7.3748312890529633e-02" cType="1" res="1.6670639161020517e-03" rms="4.4937929511070251e-01" purity="5.0343418121337891e-01" nType="0">
        <Node pos="l" depth="1" NCoef="0" IVar="5" Cut="7.3925024414062500e+02" cType="1" res="-1.5309837646782398e-02" rms="4.4961407780647278e-01" purity="4.5087289810180664e-01" nType="0">
          <Node pos="l" depth="2" NCoef="0" IVar="-1" Cut="0.0000000000000000e+00" cType="1" res="-1.6554662724956870e-03" rms="4.4263881444931030e-01" purity="3.7705546617507935e-01" nType="-99"/>
          <Node pos="r" depth="2" NCoef="0" IVar="-1" Cut="0.0000000000000000e+00" cType="1" res="4.9847702030092478e-05" rms="4.5522281527519226e-01" purity="5.1776665449142456e-01" nType="-99"/>
        </Node>
        <Node pos="r" depth="1" NCoef="0" IVar="5" Cut="5.1726495361328125e+02" cType="1" res="1.5717392787337303e-02" rms="4.4869938492774963e-01" purity="5.4693460464477539e-01" nType="0">
          <Node pos="l" depth="2" NCoef="0" IVar="-1" Cut="0.0000000000000000e+00" cType="1" res="-5.5914605036377907e-04" rms="4.4498172402381897e-01" purity="4.3960434198379517e-01" nType="-99"/>
          <Node pos="r" depth="2" NCoef="0" IVar="-1" Cut="0.0000000000000000e+00" cType="1" res="1.1435829801484942e-03" rms="4.4952172040939331e-01" purity="5.8076524734497070e-01" nType="-99"/>
        </Node>
      </Node>
    </BinaryTree>
    <BinaryTree type="DecisionTree" boostWeight="1.0000000000000000e+00" itree="310">
      <Node pos="s" depth="0" NCoef="0" IVar="5" Cut="6.7558233642578125e+02" cType="1" res="-3.1048138043843210e-04" rms="4.4877335429191589e-01" purity="4.9980136752128601e-01" nType="0">
        <Node pos="l" depth="1" NCoef="0" IVar="1" Cut="1.3948018550872803e+00" cType="1" res="-1.6206549480557442e-02" rms="4.4291976094245911e-01" purity="4.4306805729866028e-01" nType="0">
          <Node pos="l" depth="2" NCoef="0" IVar="-1" Cut="0.0000000000000000e+00" cType="1" res="-2.0248089276719838e-04" rms="4.5433342456817627e-01" purity="5.0404888391494751e-01" nType="-99"/>
          <Node pos="r" depth="2" NCoef="0" IVar="-1" Cut="0.0000000000000000e+00" cType="1" res="-2.7306522242724895e-03" rms="4.0577548742294312e-01" purity="2.6499584317207336e-01" nType="-99"/>
        </Node>
        <Node pos="r" depth="1" NCoef="0" IVar="8" Cut="1.6733579635620117e+00" cType="1" res="1.5057433396577835e-02" rms="4.5383170247077942e-01" purity="5.5464971065521240e-01" nType="0">
          <Node pos="l" depth="2" NCoef="0" IVar="-1" Cut="0.0000000000000000e+00" cType="1" res="2.2793696261942387e-03" rms="4.3869170546531677e-01" purity="6.5189552307128906e-01" nType="-99"/>
          <Node pos="r" depth="2" NCoef="0" IVar="-1" Cut="0.0000000000000000e+00" cType="1" res="3.6906148307025433e-04" rms="4.5659819245338440e-01" purity="5.3438323736190796e-01" nType="-99"/>
        </Node>
      </Node>
    </BinaryTree>
    <BinaryTree type="DecisionTree" boostWeight="1.0000000000000000e+00" itree="311">
      <Node pos="s" depth="0" NCoef="0" IVar="4" Cut="9.5120316743850708e-01" cType="1" res="-8.1608694745227695e-04" rms="4.4816854596138000e-01" purity="4.9941849708557129e-01" nType="0">
        <Node pos="l" depth="1" NCoef="0" IVar="7" Cut="1.5563648939132690e-01" cType="1" res="-5.6497529149055481e-03" rms="4.5188021659851074e-01" purity="4.7474262118339539e-01" nType="0">
          <Node pos="l" depth="2" NCoef="0" IVar="-1" Cut="0.0000000000000000e+00" cType="1" res="-5.8842787984758615e-04" rms="4.5135283470153809e-01" purity="4.5604652166366577e-01" nType="-99"/>
          <Node pos="r" depth="2" NCoef="0" IVar="-1" Cut="0.0000000000000000e+00" cType="1" res="1.2241686927154660e-03" rms="4.5300617814064026e-01" purity="5.6320494413375854e-01" nType="-99"/>
        </Node>
        <Node pos="r" depth="1" NCoef="0" IVar="-1" Cut="0.0000000000000000e+00" cType="1" res="2.6436187326908112e-03" rms="4.0193185210227966e-01" purity="7.6750487089157104e-01" nType="-99"/>
      </Node>
    </BinaryTree>
    <BinaryTree type="DecisionTree" boostWeight="1.0000000000000000e+00" itree="312">
      <Node pos="s" depth="0" NCoef="0" IVar="0" Cut="5.5588465183973312e-02" cType="1" res="-2.1877579856663942e-03" rms="4.4889041781425476e-01" purity="4.9728611111640930e-01" nType="0">
        <Node pos="l" depth="1" NCoef="0" IVar="7" Cut="6.3903622329235077e-02" cType="1" res="-3.6507885903120041e-02" rms="4.3832454085350037e-01" purity="3.5839799046516418e-01" nType="0">
          <Node pos="l" depth="2" NCoef="0" IVar="-1" Cut="0.0000000000000000e+00" cType="1" res="-3.1916741281747818e-03" rms="4.2097118496894836e-01" purity="2.9416546225547791e-01" nType="-99"/>
          <Node pos="r" depth="2" NCoef="0" IVar="-1" Cut="0.0000000000000000e+00" cType="1" res="-1.0791877284646034e-03" rms="4.4676092267036438e-01" purity="3.9299768209457397e-01" nType="-99"/>
        </Node>
        <Node pos="r" depth="1" NCoef="0" IVar="0" Cut="4.3142586946487427e-01" cType="1" res="6.1364425346255302e-03" rms="4.5102250576019287e-01" purity="5.3097283840179443e-01" nType="0">
          <Node pos="l" depth="2" NCoef="0" IVar="-1" Cut="0.0000000000000000e+00" cType="1" res="6.3829465943854302e-05" rms="4.5319157838821411e-01" purity="5.1490527391433716e-01" nType="-99"/>
          <Node pos="r" depth="2" NCoef="0" IVar="-1" Cut="0.0000000000000000e+00" cType="1" res="3.1024524942040443e-03" rms="4.1958230733871460e-01" purity="7.2549510002136230e-01" nType="-99"/>
        </Node>
      </Node>
    </BinaryTree>
    <BinaryTree type="DecisionTree" boostWeight="1.0000000000000000e+00" itree="313">
      <Node pos="s" depth="0" NCoef="0" IVar="4" Cut="9.5108556747436523e-01" cType="1" res="-4.2014304199256003e-04" rms="4.4911551475524902e-01" purity="4.9994826316833496e-01" nType="0">
        <Node pos="l" depth="1" NCoef="0" IVar="8" Cut="1.8534907102584839e+00" cType="1" res="-5.4537728428840637e-03" rms="4.5291090011596680e-01" purity="4.7544369101524353e-01" nType="0">
          <Node pos="l" depth="2" NCoef="0" IVar="-1" Cut="0.0000000000000000e+00" cType="1" res="9.7303249640390277e-04" rms="4.5677331089973450e-01" purity="5.6916403770446777e-01" nType="-99"/>
          <Node pos="r" depth="2" NCoef="0" IVar="-1" Cut="0.0000000000000000e+00" cType="1" res="-6.2302756123244762e-04" rms="4.5152038335800171e-01" purity="4.4883117079734802e-01" nType="-99"/>
        </Node>
        <Node pos="r" depth="1" NCoef="0" IVar="-1" Cut="0.0000000000000000e+00" cType="1" res="2.8058732859790325e-03" rms="4.0065258741378784e-01" purity="7.7059155702590942e-01" nType="-99"/>
      </Node>
    </BinaryTree>
    <BinaryTree type="DecisionTree" boostWeight="1.0000000000000000e+00" itree="314">
      <Node pos="s" depth="0" NCoef="0" IVar="7" Cut="1.7547877132892609e-01" cType="1" res="6.2525423345505260e-06" rms="4.4806501269340515e-01" purity="5.0104832649230957e-01" nType="0">
        <Node pos="l" depth="1" NCoef="0" IVar="0" Cut="9.8030291497707367e-02" cType="1" res="-6.4945505000650883e-03" rms="4.4775855541229248e-01" purity="4.8513349890708923e-01" nType="0">
          <Node pos="l" depth="2" NCoef="0" IVar="-1" Cut="0.0000000000000000e+00" cType="1" res="-1.3474180595949292e-03" rms="4.4160369038581848e-01" purity="3.7129434943199158e-01" nType="-99"/>
          <Node pos="r" depth="2" NCoef="0" IVar="-1" Cut="0.0000000000000000e+00" cType="1" res="3.0413377680815756e-04" rms="4.5100280642509460e-01" purity="5.5498194694519043e-01" nType="-99"/>
        </Node>
        <Node pos="r" depth="1" NCoef="0" IVar="2" Cut="9.5166444778442383e-01" cType="1" res="4.3457798659801483e-02" rms="4.4769045710563660e-01" purity="6.0742372274398804e-01" nType="0">
          <Node pos="l" depth="2" NCoef="0" IVar="-1" Cut="0.0000000000000000e+00" cType="1" res="1.2086873175576329e-03" rms="4.6535131335258484e-01" purity="5.2114218473434448e-01" nType="-99"/>
          <Node pos="r" depth="2" NCoef="0" IVar="-1" Cut="0.0000000000000000e+00" cType="1" res="3.0210632830858231e-03" rms="4.2662331461906433e-01" purity="7.0237106084823608e-01" nType="-99"/>
        </Node>
      </Node>
    </BinaryTree>
    <BinaryTree type="DecisionTree" boostWeight="1.0000000000000000e+00" itree="315">
      <Node pos="s" depth="0" NCoef="0" IVar="6" Cut="1.9725438356399536e+00" cType="1" res="1.5152769628912210e-04" rms="4.4800832867622375e-01" purity="4.9955278635025024e-01" nType="0">
        <Node pos="l" depth="1" NCoef="0" IVar="0" Cut="4.0920209884643555e-01" cType="1" res="3.9165578782558441e-03" rms="4.5187282562255859e-01" purity="5.1899987459182739e-01" nType="0">
          <Node pos="l" depth="2" NCoef="0" IVar="-1" Cut="0.0000000000000000e+00" cType="1" res="-2.6084502678713761e-05" rms="4.5490580797195435e-01" purity="4.9864026904106140e-01" nType="-99"/>
          <Node pos="r" depth="2" NCoef="0" IVar="-1" Cut="0.0000000000000000e+00" cType="1" res="2.4607814848423004e-03" rms="4.1647037863731384e-01" purity="7.2924882173538208e-01" nType="-99"/>
        </Node>
        <Node pos="r" depth="1" NCoef="0" IVar="-1" Cut="0.0000000000000000e+00" cType="1" res="-3.6160827148705721e-03" rms="3.7538415193557739e-01" purity="1.8691562116146088e-01" nType="-99"/>
      </Node>
    </BinaryTree>
    <BinaryTree type="DecisionTree" boostWeight="1.0000000000000000e+00" itree="316">
      <Node pos="s" depth="0" NCoef="0" IVar="6" Cut="1.9595332145690918e+00" cType="1" res="-2.0855732727795839e-03" rms="4.4778263568878174e-01" purity="4.9710333347320557e-01" nType="0">
        <Node pos="l" depth="1" NCoef="0" IVar="0" Cut="2.6775708794593811e-01" cType="1" res="1.7992868088185787e-03" rms="4.5219877362251282e-01" purity="5.1722329854965210e-01" nType="0">
          <Node pos="l" depth="2" NCoef="0" IVar="-1" Cut="0.0000000000000000e+00" cType="1" res="-3.2362973433919251e-04" rms="4.5616757869720459e-01" purity="4.5921143889427185e-01" nType="-99"/>
          <Node pos="r" depth="2" NCoef="0" IVar="-1" Cut="0.0000000000000000e+00" cType="1" res="1.2426027096807957e-03" rms="4.4013407826423645e-01" purity="6.7769533395767212e-01" nType="-99"/>
        </Node>
        <Node pos="r" depth="1" NCoef="0" IVar="-1" Cut="0.0000000000000000e+00" cType="1" res="-3.7476303987205029e-03" rms="3.6749753355979919e-01" purity="1.8528385460376740e-01" nType="-99"/>
      </Node>
    </BinaryTree>
    <BinaryTree type="DecisionTree" boostWeight="1.0000000000000000e+00" itree="317">
      <Node pos="s" depth="0" NCoef="0" IVar="5" Cut="6.0078192138671875e+02" cType="1" res="1.2995263095945120e-03" rms="4.4790926575660706e-01" purity="5.0177735090255737e-01" nType="0">
        <Node pos="l" depth="1" NCoef="0" IVar="5" Cut="4.4169573974609375e+02" cType="1" res="-2.0466396585106850e-02" rms="4.3874961137771606e-01" purity="4.2238050699234009e-01" nType="0">
          <Node pos="l" depth="2" NCoef="0" IVar="-1" Cut="0.0000000000000000e+00" cType="1" res="-3.3119614236056805e-03" rms="4.2521020770072937e-01" purity="3.3923918008804321e-01" nType="-99"/>
          <Node pos="r" depth="2" NCoef="0" IVar="-1" Cut="0.0000000000000000e+00" cType="1" res="-5.0665147136896849e-04" rms="4.4109714031219482e-01" purity="4.4102734327316284e-01" nType="-99"/>
        </Node>
        <Node pos="r" depth="1" NCoef="0" IVar="5" Cut="1.2808488769531250e+03" cType="1" res="1.3067478314042091e-02" rms="4.5234835147857666e-01" purity="5.4470396041870117e-01" nType="0">
          <Node pos="l" depth="2" NCoef="0" IVar="-1" Cut="0.0000000000000000e+00" cType="1" res="4.0389847708866000e-04" rms="4.5212391018867493e-01" purity="5.3743565082550049e-01" nType="-99"/>
          <Node pos="r" depth="2" NCoef="0" IVar="-1" Cut="0.0000000000000000e+00" cType="1" res="2.8210701420903206e-03" rms="4.5192214846611023e-01" purity="6.2409138679504395e-01" nType="-99"/>
        </Node>
      </Node>
    </BinaryTree>
    <BinaryTree type="DecisionTree" boostWeight="1.0000000000000000e+00" itree="318">
      <Node pos="s" depth="0" NCoef="0" IVar="4" Cut="5.1816326379776001e-01" cType="1" res="8.0309546319767833e-05" rms="4.4943603873252869e-01" purity="5.0016337633132935e-01" nType="0">
        <Node pos="l" depth="1" NCoef="0" IVar="-1" Cut="0.0000000000000000e+00" cType="1" res="-2.4308280553668737e-03" rms="4.2654916644096375e-01" purity="2.9629951715469360e-01" nType="-99"/>
        <Node pos="r" depth="1" NCoef="0" IVar="5" Cut="4.6573895263671875e+02" cType="1" res="4.5592254027724266e-03" rms="4.5124074816703796e-01" purity="5.1909267902374268e-01" nType="0">
          <Node pos="l" depth="2" NCoef="0" IVar="-1" Cut="0.0000000000000000e+00" cType="1" res="-1.8796452786773443e-03" rms="4.4027835130691528e-01" purity="3.8373342156410217e-01" nType="-99"/>
          <Node pos="r" depth="2" NCoef="0" IVar="-1" Cut="0.0000000000000000e+00" cType="1" res="4.3207072303630412e-04" rms="4.5216733217239380e-01" purity="5.3367853164672852e-01" nType="-99"/>
        </Node>
      </Node>
    </BinaryTree>
    <BinaryTree type="DecisionTree" boostWeight="1.0000000000000000e+00" itree="319">
      <Node pos="s" depth="0" NCoef="0" IVar="6" Cut="8.3132499456405640e-01" cType="1" res="-6.1578197346534580e-05" rms="4.5001679658889771e-01" purity="4.9906021356582642e-01" nType="0">
        <Node pos="l" depth="1" NCoef="0" IVar="7" Cut="5.3279779851436615e-02" cType="1" res="1.8359614536166191e-02" rms="4.5126983523368835e-01" purity="5.9895169734954834e-01" nType="0">
          <Node pos="l" depth="2" NCoef="0" IVar="-1" Cut="0.0000000000000000e+00" cType="1" res="-2.6694478583522141e-04" rms="4.5634356141090393e-01" purity="5.4915559291839600e-01" nType="-99"/>
          <Node pos="r" depth="2" NCoef="0" IVar="-1" Cut="0.0000000000000000e+00" cType="1" res="1.2749435845762491e-03" rms="4.4910129904747009e-01" purity="6.1696183681488037e-01" nType="-99"/>
        </Node>
        <Node pos="r" depth="1" NCoef="0" IVar="0" Cut="3.9505943655967712e-01" cType="1" res="-1.3151285238564014e-02" rms="4.4866487383842468e-01" purity="4.2807951569557190e-01" nType="0">
          <Node pos="l" depth="2" NCoef="0" IVar="-1" Cut="0.0000000000000000e+00" cType="1" res="-8.7021669605746865e-04" rms="4.4835469126701355e-01" purity="4.0475749969482422e-01" nType="-99"/>
          <Node pos="r" depth="2" NCoef="0" IVar="-1" Cut="0.0000000000000000e+00" cType="1" res="1.4549402985721827e-03" rms="4.4903883337974548e-01" purity="6.4016371965408325e-01" nType="-99"/>
        </Node>
      </Node>
    </BinaryTree>
    <BinaryTree type="DecisionTree" boostWeight="1.0000000000000000e+00" itree="320">
      <Node pos="s" depth="0" NCoef="0" IVar="1" Cut="6.3040977716445923e-01" cType="1" res="1.2837884714826941e-03" rms="4.4932904839515686e-01" purity="4.9934804439544678e-01" nType="0">
        <Node pos="l" depth="1" NCoef="0" IVar="-1" Cut="0.0000000000000000e+00" cType="1" res="2.8289819601923227e-03" rms="4.2159882187843323e-01" purity="6.9664072990417480e-01" nType="-99"/>
        <Node pos="r" depth="1" NCoef="0" IVar="0" Cut="4.2336246371269226e-01" cType="1" res="-3.4008258953690529e-03" rms="4.5118367671966553e-01" purity="4.8331886529922485e-01" nType="0">
          <Node pos="l" depth="2" NCoef="0" IVar="-1" Cut="0.0000000000000000e+00" cType="1" res="-3.5590573679655790e-04" rms="4.5262458920478821e-01" purity="4.6628609299659729e-01" nType="-99"/>
          <Node pos="r" depth="2" NCoef="0" IVar="-1" Cut="0.0000000000000000e+00" cType="1" res="2.3407358676195145e-03" rms="4.2885869741439819e-01" purity="7.0170980691909790e-01" nType="-99"/>
        </Node>
      </Node>
    </BinaryTree>
    <BinaryTree type="DecisionTree" boostWeight="1.0000000000000000e+00" itree="321">
      <Node pos="s" depth="0" NCoef="0" IVar="3" Cut="2.5467617511749268e+00" cType="1" res="-2.9318192973732948e-03" rms="4.4878441095352173e-01" purity="4.9710151553153992e-01" nType="0">
        <Node pos="l" depth="1" NCoef="0" IVar="0" Cut="6.9736748933792114e-02" cType="1" res="1.2741510290652514e-03" rms="4.5183479785919189e-01" purity="5.1468414068222046e-01" nType="0">
          <Node pos="l" depth="2" NCoef="0" IVar="-1" Cut="0.0000000000000000e+00" cType="1" res="-1.2138286838307977e-03" rms="4.4637435674667358e-01" purity="3.8137093186378479e-01" nType="-99"/>
          <Node pos="r" depth="2" NCoef="0" IVar="-1" Cut="0.0000000000000000e+00" cType="1" res="5.0186389125883579e-04" rms="4.5339298248291016e-01" purity="5.6216341257095337e-01" nType="-99"/>
        </Node>
        <Node pos="r" depth="1" NCoef="0" IVar="-1" Cut="0.0000000000000000e+00" cType="1" res="-2.8013607952743769e-03" rms="4.0746322274208069e-01" purity="2.8801578283309937e-01" nType="-99"/>
      </Node>
    </BinaryTree>
    <BinaryTree type="DecisionTree" boostWeight="1.0000000000000000e+00" itree="322">
      <Node pos="s" depth="0" NCoef="0" IVar="3" Cut="1.9231909513473511e+00" cType="1" res="-6.6461623646318913e-05" rms="4.4835573434829712e-01" purity="5.0077772140502930e-01" nType="0">
        <Node pos="l" depth="1" NCoef="0" IVar="5" Cut="5.3476428222656250e+02" cType="1" res="6.7090676166117191e-03" rms="4.5133268833160400e-01" purity="5.3390902280807495e-01" nType="0">
          <Node pos="l" depth="2" NCoef="0" IVar="-1" Cut="0.0000000000000000e+00" cType="1" res="-1.2012231163680553e-03" rms="4.4382154941558838e-01" purity="4.2720136046409607e-01" nType="-99"/>
          <Node pos="r" depth="2" NCoef="0" IVar="-1" Cut="0.0000000000000000e+00" cType="1" res="7.0276652695611119e-04" rms="4.5293396711349487e-01" purity="5.6215500831604004e-01" nType="-99"/>
        </Node>
        <Node pos="r" depth="1" NCoef="0" IVar="7" Cut="5.7712439447641373e-02" cType="1" res="-3.2806240022182465e-02" rms="4.3218886852264404e-01" purity="3.4068527817726135e-01" nType="0">
          <Node pos="l" depth="2" NCoef="0" IVar="-1" Cut="0.0000000000000000e+00" cType="1" res="-2.9297219589352608e-03" rms="4.2534518241882324e-01" purity="2.9141813516616821e-01" nType="-99"/>
          <Node pos="r" depth="2" NCoef="0" IVar="-1" Cut="0.0000000000000000e+00" cType="1" res="-6.3678697915747762e-04" rms="4.3698090314865112e-01" purity="3.8299775123596191e-01" nType="-99"/>
        </Node>
      </Node>
    </BinaryTree>
    <BinaryTree type="DecisionTree" boostWeight="1.0000000000000000e+00" itree="323">
      <Node pos="s" depth="0" NCoef="0" IVar="5" Cut="4.5354470825195312e+02" cType="1" res="-1.5680203214287758e-03" rms="4.4829639792442322e-01" purity="4.9728497862815857e-01" nType="0">
        <Node pos="l" depth="1" NCoef="0" IVar="-1" Cut="0.0000000000000000e+00" cType="1" res="-3.0841233674436808e-03" rms="4.2614656686782837e-01" purity="3.4030100703239441e-01" nType="-99"/>
        <Node pos="r" depth="1" NCoef="0" IVar="4" Cut="5.6628209352493286e-01" cType="1" res="3.5876273177564144e-03" rms="4.4979211688041687e-01" purity="5.1087623834609985e-01" nType="0">
          <Node pos="l" depth="2" NCoef="0" IVar="-1" Cut="0.0000000000000000e+00" cType="1" res="-1.1380392825230956e-03" rms="4.4069176912307739e-01" purity="3.3241069316864014e-01" nType="-99"/>
          <Node pos="r" depth="2" NCoef="0" IVar="-1" Cut="0.0000000000000000e+00" cType="1" res="5.3334591211751103e-04" rms="4.5211735367774963e-01" purity="5.6292706727981567e-01" nType="-99"/>
        </Node>
      </Node>
    </BinaryTree>
    <BinaryTree type="DecisionTree" boostWeight="1.0000000000000000e+00" itree="324">
      <Node pos="s" depth="0" NCoef="0" IVar="1" Cut="8.5577344894409180e-01" cType="1" res="1.6339814756065607e-03" rms="4.4820997118949890e-01" purity="5.0098127126693726e-01" nType="0">
        <Node pos="l" depth="1" NCoef="0" IVar="3" Cut="6.4202404022216797e-01" cType="1" res="2.9869796708226204e-02" rms="4.4247356057167053e-01" purity="6.5034145116806030e-01" nType="0">
          <Node pos="l" depth="2" NCoef="0" IVar="-1" Cut="0.0000000000000000e+00" cType="1" res="2.3878973443061113e-03" rms="4.3272644281387329e-01" purity="6.8302184343338013e-01" nType="-99"/>
          <Node pos="r" depth="2" NCoef="0" IVar="-1" Cut="0.0000000000000000e+00" cType="1" res="4.4884745148010552e-04" rms="4.5132747292518616e-01" purity="6.1689597368240356e-01" nType="-99"/>
        </Node>
        <Node pos="r" depth="1" NCoef="0" IVar="5" Cut="1.0265631103515625e+03" cType="1" res="-7.1832379326224327e-03" rms="4.4962313771247864e-01" purity="4.5434039831161499e-01" nType="0">
          <Node pos="l" depth="2" NCoef="0" IVar="-1" Cut="0.0000000000000000e+00" cType="1" res="-6.7970296368002892e-04" rms="4.4757759571075439e-01" purity="4.3567898869514465e-01" nType="-99"/>
          <Node pos="r" depth="2" NCoef="0" IVar="-1" Cut="0.0000000000000000e+00" cType="1" res="1.6546158585697412e-03" rms="4.5988139510154724e-01" purity="5.7170981168746948e-01" nType="-99"/>
        </Node>
      </Node>
    </BinaryTree>
    <BinaryTree type="DecisionTree" boostWeight="1.0000000000000000e+00" itree="325">
      <Node pos="s" depth="0" NCoef="0" IVar="0" Cut="3.6678275465965271e-01" cType="1" res="-8.0924795474857092e-04" rms="4.4858556985855103e-01" purity="4.9858036637306213e-01" nType="0">
        <Node pos="l" depth="1" NCoef="0" IVar="7" Cut="7.3790490627288818e-02" cType="1" res="-6.4396513625979424e-03" rms="4.5213249325752258e-01" purity="4.6688276529312134e-01" nType="0">
          <Node pos="l" depth="2" NCoef="0" IVar="-1" Cut="0.0000000000000000e+00" cType="1" res="-1.0455092415213585e-03" rms="4.4821712374687195e-01" purity="4.1633981466293335e-01" nType="-99"/>
          <Node pos="r" depth="2" NCoef="0" IVar="-1" Cut="0.0000000000000000e+00" cType="1" res="2.8145976830273867e-04" rms="4.5492357015609741e-01" purity="5.0810945034027100e-01" nType="-99"/>
        </Node>
        <Node pos="r" depth="1" NCoef="0" IVar="8" Cut="2.2486941814422607e+00" cType="1" res="3.4732852131128311e-02" rms="4.2379063367843628e-01" purity="6.9867271184921265e-01" nType="0">
          <Node pos="l" depth="2" NCoef="0" IVar="-1" Cut="0.0000000000000000e+00" cType="1" res="2.6743158232420683e-03" rms="4.0176266431808472e-01" purity="7.6899790763854980e-01" nType="-99"/>
          <Node pos="r" depth="2" NCoef="0" IVar="-1" Cut="0.0000000000000000e+00" cType="1" res="5.0620781257748604e-04" rms="4.5167508721351624e-01" purity="6.0053664445877075e-01" nType="-99"/>
        </Node>
      </Node>
    </BinaryTree>
    <BinaryTree type="DecisionTree" boostWeight="1.0000000000000000e+00" itree="326">
      <Node pos="s" depth="0" NCoef="0" IVar="0" Cut="4.0921944379806519e-01" cType="1" res="2.5559824425727129e-03" rms="4.4756278395652771e-01" purity="5.0187480449676514e-01" nType="0">
        <Node pos="l" depth="1" NCoef="0" IVar="7" Cut="8.9340046048164368e-02" cType="1" res="-2.8160945512354374e-03" rms="4.4987767934799194e-01" purity="4.8043066263198853e-01" nType="0">
          <Node pos="l" depth="2" NCoef="0" IVar="-1" Cut="0.0000000000000000e+00" cType="1" res="-7.9802051186561584e-04" rms="4.4737407565116882e-01" purity="4.3667620420455933e-01" nType="-99"/>
          <Node pos="r" depth="2" NCoef="0" IVar="-1" Cut="0.0000000000000000e+00" cType="1" res="6.5963657107204199e-04" rms="4.5235508680343628e-01" purity="5.3403848409652710e-01" nType="-99"/>
        </Node>
        <Node pos="r" depth="1" NCoef="0" IVar="-1" Cut="0.0000000000000000e+00" cType="1" res="2.8582774102687836e-03" rms="4.1865649819374084e-01" purity="7.2498804330825806e-01" nType="-99"/>
      </Node>
    </BinaryTree>
    <BinaryTree type="DecisionTree" boostWeight="1.0000000000000000e+00" itree="327">
      <Node pos="s" depth="0" NCoef="0" IVar="0" Cut="4.1449841111898422e-02" cType="1" res="3.8813999854028225e-03" rms="4.4900831580162048e-01" purity="5.0431895256042480e-01" nType="0">
        <Node pos="l" depth="1" NCoef="0" IVar="4" Cut="6.6236966848373413e-01" cType="1" res="-3.5958342254161835e-02" rms="4.3323713541030884e-01" purity="3.5697403550148010e-01" nType="0">
          <Node pos="l" depth="2" NCoef="0" IVar="-1" Cut="0.0000000000000000e+00" cType="1" res="-2.9831484425812960e-03" rms="3.9772152900695801e-01" purity="2.1822635829448700e-01" nType="-99"/>
          <Node pos="r" depth="2" NCoef="0" IVar="-1" Cut="0.0000000000000000e+00" cType="1" res="-8.3031802205368876e-04" rms="4.6347615122795105e-01" purity="4.8738765716552734e-01" nType="-99"/>
        </Node>
        <Node pos="r" depth="1" NCoef="0" IVar="2" Cut="6.6509723663330078e-01" cType="1" res="8.8820019736886024e-03" rms="4.5070022344589233e-01" purity="5.2281337976455688e-01" nType="0">
          <Node pos="l" depth="2" NCoef="0" IVar="-1" Cut="0.0000000000000000e+00" cType="1" res="-1.8087879288941622e-03" rms="4.3160554766654968e-01" purity="2.9675275087356567e-01" nType="-99"/>
          <Node pos="r" depth="2" NCoef="0" IVar="-1" Cut="0.0000000000000000e+00" cType="1" res="5.9774302644655108e-04" rms="4.5209825038909912e-01" purity="5.4219353199005127e-01" nType="-99"/>
        </Node>
      </Node>
    </BinaryTree>
    <BinaryTree type="DecisionTree" boostWeight="1.0000000000000000e+00" itree="328">
      <Node pos="s" depth="0" NCoef="0" IVar="6" Cut="8.3144146203994751e-01" cType="1" res="3.2477846252731979e-04" rms="4.4880822300910950e-01" purity="4.9932903051376343e-01" nType="0">
        <Node pos="l" depth="1" NCoef="0" IVar="2" Cut="9.7568333148956299e-01" cType="1" res="1.8193505704402924e-02" rms="4.4930449128150940e-01" purity="6.0085803270339966e-01" nType="0">
          <Node pos="l" depth="2" NCoef="0" IVar="-1" Cut="0.0000000000000000e+00" cType="1" res="3.9563214522786438e-04" rms="4.6018645167350769e-01" purity="5.5328440666198730e-01" nType="-99"/>
          <Node pos="r" depth="2" NCoef="0" IVar="-1" Cut="0.0000000000000000e+00" cType="1" res="2.0615642424672842e-03" rms="4.2104244232177734e-01" purity="7.1545469760894775e-01" nType="-99"/>
        </Node>
        <Node pos="r" depth="1" NCoef="0" IVar="4" Cut="5.6627416610717773e-01" cType="1" res="-1.2452091090381145e-02" rms="4.4801622629165649e-01" purity="4.2673161625862122e-01" nType="0">
          <Node pos="l" depth="2" NCoef="0" IVar="-1" Cut="0.0000000000000000e+00" cType="1" res="-2.2348938509821892e-03" rms="4.1393405199050903e-01" purity="2.6453432440757751e-01" nType="-99"/>
          <Node pos="r" depth="2" NCoef="0" IVar="-1" Cut="0.0000000000000000e+00" cType="1" res="-1.6429011884611100e-04" rms="4.5761993527412415e-01" purity="4.7662770748138428e-01" nType="-99"/>
        </Node>
      </Node>
    </BinaryTree>
    <BinaryTree type="DecisionTree" boostWeight="1.0000000000000000e+00" itree="329">
      <Node pos="s" depth="0" NCoef="0" IVar="8" Cut="2.7158272266387939e+00" cType="1" res="-9.2489283997565508e-04" rms="4.4727790355682373e-01" purity="5.0011909008026123e-01" nType="0">
        <Node pos="l" depth="1" NCoef="0" IVar="0" Cut="5.5577319115400314e-02" cType="1" res="4.4395234435796738e-03" rms="4.5218932628631592e-01" purity="5.3222328424453735e-01" nType="0">
          <Node pos="l" depth="2" NCoef="0" IVar="-1" Cut="0.0000000000000000e+00" cType="1" res="-1.2275454355403781e-03" rms="4.4817593693733215e-01" purity="3.9005511999130249e-01" nType="-99"/>
          <Node pos="r" depth="2" NCoef="0" IVar="-1" Cut="0.0000000000000000e+00" cType="1" res="5.3667399333789945e-04" rms="4.5283019542694092e-01" purity="5.6530147790908813e-01" nType="-99"/>
        </Node>
        <Node pos="r" depth="1" NCoef="0" IVar="8" Cut="2.9465987682342529e+00" cType="1" res="-4.4367719441652298e-02" rms="4.0269279479980469e-01" purity="2.4012911319732666e-01" nType="0">
          <Node pos="l" depth="2" NCoef="0" IVar="-1" Cut="0.0000000000000000e+00" cType="1" res="-1.4675825368613005e-03" rms="4.3052971363067627e-01" purity="2.9186666011810303e-01" nType="-99"/>
          <Node pos="r" depth="2" NCoef="0" IVar="-1" Cut="0.0000000000000000e+00" cType="1" res="-3.8251988589763641e-03" rms="3.6767661571502686e-01" purity="1.8139462172985077e-01" nType="-99"/>
        </Node>
      </Node>
    </BinaryTree>
    <BinaryTree type="DecisionTree" boostWeight="1.0000000000000000e+00" itree="330">
      <Node pos="s" depth="0" NCoef="0" IVar="6" Cut="6.8397498130798340e-01" cType="1" res="1.2820285046473145e-03" rms="4.4742006063461304e-01" purity="5.0199633836746216e-01" nType="0">
        <Node pos="l" depth="1" NCoef="0" IVar="2" Cut="8.7971103191375732e-01" cType="1" res="2.4607287719845772e-02" rms="4.4603198766708374e-01" purity="6.1675137281417847e-01" nType="0">
          <Node pos="l" depth="2" NCoef="0" IVar="-1" Cut="0.0000000000000000e+00" cType="1" res="9.0741095846169628e-06" rms="4.6916490793228149e-01" purity="4.7599431872367859e-01" nType="-99"/>
          <Node pos="r" depth="2" NCoef="0" IVar="-1" Cut="0.0000000000000000e+00" cType="1" res="1.8249228596687317e-03" rms="4.3267819285392761e-01" purity="6.9154345989227295e-01" nType="-99"/>
        </Node>
        <Node pos="r" depth="1" NCoef="0" IVar="0" Cut="3.2434952259063721e-01" cType="1" res="-8.8513037189841270e-03" rms="4.4764322042465210e-01" purity="4.5214265584945679e-01" nType="0">
          <Node pos="l" depth="2" NCoef="0" IVar="-1" Cut="0.0000000000000000e+00" cType="1" res="-8.0210837768390775e-04" rms="4.4743388891220093e-01" purity="4.1066223382949829e-01" nType="-99"/>
          <Node pos="r" depth="2" NCoef="0" IVar="-1" Cut="0.0000000000000000e+00" cType="1" res="1.1883662082254887e-03" rms="4.4696497917175293e-01" purity="6.3584506511688232e-01" nType="-99"/>
        </Node>
      </Node>
    </BinaryTree>
    <BinaryTree type="DecisionTree" boostWeight="1.0000000000000000e+00" itree="331">
      <Node pos="s" depth="0" NCoef="0" IVar="2" Cut="6.7562228441238403e-01" cType="1" res="5.0168805755674839e-03" rms="4.4774001836776733e-01" purity="5.0603884458541870e-01" nType="0">
        <Node pos="l" depth="1" NCoef="0" IVar="-1" Cut="0.0000000000000000e+00" cType="1" res="-2.1950814407318830e-03" rms="4.1975289583206177e-01" purity="2.8150087594985962e-01" nType="-99"/>
        <Node pos="r" depth="1" NCoef="0" IVar="1" Cut="1.5026253461837769e+00" cType="1" res="9.7078857943415642e-03" rms="4.5015391707420349e-01" purity="5.2833694219589233e-01" nType="0">
          <Node pos="l" depth="2" NCoef="0" IVar="-1" Cut="0.0000000000000000e+00" cType="1" res="7.3296832852065563e-04" rms="4.5343106985092163e-01" purity="5.6627506017684937e-01" nType="-99"/>
          <Node pos="r" depth="2" NCoef="0" IVar="-1" Cut="0.0000000000000000e+00" cType="1" res="-1.1066795559599996e-03" rms="4.3123832345008850e-01" purity="3.2979905605316162e-01" nType="-99"/>
        </Node>
      </Node>
    </BinaryTree>
    <BinaryTree type="DecisionTree" boostWeight="1.0000000000000000e+00" itree="332">
      <Node pos="s" depth="0" NCoef="0" IVar="7" Cut="8.9023150503635406e-02" cType="1" res="1.6565027181059122e-03" rms="4.4839033484458923e-01" purity="5.0220602750778198e-01" nType="0">
        <Node pos="l" depth="1" NCoef="0" IVar="5" Cut="1.0774411621093750e+03" cType="1" res="-1.0642300359904766e-02" rms="4.4703179597854614e-01" purity="4.5904538035392761e-01" nType="0">
          <Node pos="l" depth="2" NCoef="0" IVar="-1" Cut="0.0000000000000000e+00" cType="1" res="-9.4292091671377420e-04" rms="4.4529873132705688e-01" purity="4.3520060181617737e-01" nType="-99"/>
          <Node pos="r" depth="2" NCoef="0" IVar="-1" Cut="0.0000000000000000e+00" cType="1" res="1.6415170393884182e-03" rms="4.5322102308273315e-01" purity="5.8425694704055786e-01" nType="-99"/>
        </Node>
        <Node pos="r" depth="1" NCoef="0" IVar="5" Cut="5.2245300292968750e+02" cType="1" res="1.6613947227597237e-02" rms="4.4958388805389404e-01" purity="5.5469673871994019e-01" nType="0">
          <Node pos="l" depth="2" NCoef="0" IVar="-1" Cut="0.0000000000000000e+00" cType="1" res="-3.4971733111888170e-04" rms="4.4859087467193604e-01" purity="4.5067462325096130e-01" nType="-99"/>
          <Node pos="r" depth="2" NCoef="0" IVar="-1" Cut="0.0000000000000000e+00" cType="1" res="1.2030606158077717e-03" rms="4.4963029026985168e-01" purity="5.9322345256805420e-01" nType="-99"/>
        </Node>
      </Node>
    </BinaryTree>
    <BinaryTree type="DecisionTree" boostWeight="1.0000000000000000e+00" itree="333">
      <Node pos="s" depth="0" NCoef="0" IVar="4" Cut="9.1512757539749146e-01" cType="1" res="9.3351345276460052e-04" rms="4.4824713468551636e-01" purity="4.9971991777420044e-01" nType="0">
        <Node pos="l" depth="1" NCoef="0" IVar="5" Cut="6.0671838378906250e+02" cType="1" res="-4.8742080107331276e-03" rms="4.5378747582435608e-01" purity="4.6033722162246704e-01" nType="0">
          <Node pos="l" depth="2" NCoef="0" IVar="-1" Cut="0.0000000000000000e+00" cType="1" res="-1.1462402762845159e-03" rms="4.4138050079345703e-01" purity="3.8298878073692322e-01" nType="-99"/>
          <Node pos="r" depth="2" NCoef="0" IVar="-1" Cut="0.0000000000000000e+00" cType="1" res="2.7034580125473440e-04" rms="4.6052441000938416e-01" purity="5.0541418790817261e-01" nType="-99"/>
        </Node>
        <Node pos="r" depth="1" NCoef="0" IVar="7" Cut="1.0762400180101395e-01" cType="1" res="3.7766657769680023e-02" rms="4.0946277976036072e-01" purity="7.4948894977569580e-01" nType="0">
          <Node pos="l" depth="2" NCoef="0" IVar="-1" Cut="0.0000000000000000e+00" cType="1" res="1.1596614494919777e-03" rms="4.2588710784912109e-01" purity="7.1271055936813354e-01" nType="-99"/>
          <Node pos="r" depth="2" NCoef="0" IVar="-1" Cut="0.0000000000000000e+00" cType="1" res="3.1098872423171997e-03" rms="3.8456293940544128e-01" purity="8.0061572790145874e-01" nType="-99"/>
        </Node>
      </Node>
    </BinaryTree>
    <BinaryTree type="DecisionTree" boostWeight="1.0000000000000000e+00" itree="334">
      <Node pos="s" depth="0" NCoef="0" IVar="3" Cut="2.1099278926849365e+00" cType="1" res="6.5571884624660015e-04" rms="4.4795843958854675e-01" purity="5.0061285495758057e-01" nType="0">
        <Node pos="l" depth="1" NCoef="0" IVar="5" Cut="5.0344821166992188e+02" cType="1" res="6.2745064496994019e-03" rms="4.5106139779090881e-01" purity="5.2812528610229492e-01" nType="0">
          <Node pos="l" depth="2" NCoef="0" IVar="-1" Cut="0.0000000000000000e+00" cType="1" res="-1.4452011091634631e-03" rms="4.3910947442054749e-01" purity="4.1128921508789062e-01" nType="-99"/>
          <Node pos="r" depth="2" NCoef="0" IVar="-1" Cut="0.0000000000000000e+00" cType="1" res="5.9815205167979002e-04" rms="4.5288839936256409e-01" purity="5.4923593997955322e-01" nType="-99"/>
        </Node>
        <Node pos="r" depth="1" NCoef="0" IVar="7" Cut="7.4718490242958069e-02" cType="1" res="-3.4939337521791458e-02" rms="4.2606046795845032e-01" purity="3.2632139325141907e-01" nType="0">
          <Node pos="l" depth="2" NCoef="0" IVar="-1" Cut="0.0000000000000000e+00" cType="1" res="-2.6436639018356800e-03" rms="4.1604337096214294e-01" purity="2.8868371248245239e-01" nType="-99"/>
          <Node pos="r" depth="2" NCoef="0" IVar="-1" Cut="0.0000000000000000e+00" cType="1" res="-6.3875940395519137e-04" rms="4.3942394852638245e-01" purity="3.8157668709754944e-01" nType="-99"/>
        </Node>
      </Node>
    </BinaryTree>
    <BinaryTree type="DecisionTree" boostWeight="1.0000000000000000e+00" itree="335">
      <Node pos="s" depth="0" NCoef="0" IVar="4" Cut="5.5424886941909790e-01" cType="1" res="-8.1973685882985592e-04" rms="4.4713133573532104e-01" purity="5.0025475025177002e-01" nType="0">
        <Node pos="l" depth="1" NCoef="0" IVar="7" Cut="6.3374690711498260e-02" cType="1" res="-3.4331101924180984e-02" rms="4.3012353777885437e-01" purity="3.1451940536499023e-01" nType="0">
          <Node pos="l" depth="2" NCoef="0" IVar="-1" Cut="0.0000000000000000e+00" cType="1" res="-3.1069610267877579e-03" rms="4.0835306048393250e-01" purity="2.6617684960365295e-01" nType="-99"/>
          <Node pos="r" depth="2" NCoef="0" IVar="-1" Cut="0.0000000000000000e+00" cType="1" res="-8.1421143840998411e-04" rms="4.4382050633430481e-01" purity="3.4823945164680481e-01" nType="-99"/>
        </Node>
        <Node pos="r" depth="1" NCoef="0" IVar="8" Cut="2.2689385414123535e+00" cType="1" res="7.2563411667943001e-03" rms="4.5076185464859009e-01" purity="5.4501599073410034e-01" nType="0">
          <Node pos="l" depth="2" NCoef="0" IVar="-1" Cut="0.0000000000000000e+00" cType="1" res="8.9448393555358052e-04" rms="4.4905495643615723e-01" purity="6.1710065603256226e-01" nType="-99"/>
          <Node pos="r" depth="2" NCoef="0" IVar="-1" Cut="0.0000000000000000e+00" cType="1" res="-4.7075020847842097e-04" rms="4.5268797874450684e-01" purity="4.4004887342453003e-01" nType="-99"/>
        </Node>
      </Node>
    </BinaryTree>
    <BinaryTree type="DecisionTree" boostWeight="1.0000000000000000e+00" itree="336">
      <Node pos="s" depth="0" NCoef="0" IVar="3" Cut="2.3649399280548096e+00" cType="1" res="1.5582082560285926e-03" rms="4.4853088259696960e-01" purity="5.0360900163650513e-01" nType="0">
        <Node pos="l" depth="1" NCoef="0" IVar="0" Cut="8.3880394697189331e-02" cType="1" res="6.9377906620502472e-03" rms="4.5165616273880005e-01" purity="5.2566856145858765e-01" nType="0">
          <Node pos="l" depth="2" NCoef="0" IVar="-1" Cut="0.0000000000000000e+00" cType="1" res="-7.4690015753731132e-04" rms="4.4923558831214905e-01" purity="3.9837279915809631e-01" nType="-99"/>
          <Node pos="r" depth="2" NCoef="0" IVar="-1" Cut="0.0000000000000000e+00" cType="1" res="8.2907598698511720e-04" rms="4.5241159200668335e-01" purity="5.8632522821426392e-01" nType="-99"/>
        </Node>
        <Node pos="r" depth="1" NCoef="0" IVar="-1" Cut="0.0000000000000000e+00" cType="1" res="-2.4853348731994629e-03" rms="4.1565391421318054e-01" purity="3.0188232660293579e-01" nType="-99"/>
      </Node>
    </BinaryTree>
    <BinaryTree type="DecisionTree" boostWeight="1.0000000000000000e+00" itree="337">
      <Node pos="s" depth="0" NCoef="0" IVar="2" Cut="6.2855380773544312e-01" cType="1" res="-1.0375563288107514e-03" rms="4.4866985082626343e-01" purity="4.9904295802116394e-01" nType="0">
        <Node pos="l" depth="1" NCoef="0" IVar="-1" Cut="0.0000000000000000e+00" cType="1" res="-3.5513050388544798e-03" rms="4.0228638052940369e-01" purity="2.4200290441513062e-01" nType="-99"/>
        <Node pos="r" depth="1" NCoef="0" IVar="3" Cut="2.7974486351013184e+00" cType="1" res="2.6524520944803953e-03" rms="4.5090177655220032e-01" purity="5.1375591754913330e-01" nType="0">
          <Node pos="l" depth="2" NCoef="0" IVar="-1" Cut="0.0000000000000000e+00" cType="1" res="2.8672793996520340e-04" rms="4.5306915044784546e-01" purity="5.2824068069458008e-01" nType="-99"/>
          <Node pos="r" depth="2" NCoef="0" IVar="-1" Cut="0.0000000000000000e+00" cType="1" res="-2.8346285689622164e-03" rms="4.0964746475219727e-01" purity="2.7569591999053955e-01" nType="-99"/>
        </Node>
      </Node>
    </BinaryTree>
    <BinaryTree type="DecisionTree" boostWeight="1.0000000000000000e+00" itree="338">
      <Node pos="s" depth="0" NCoef="0" IVar="0" Cut="1.2631890177726746e-01" cType="1" res="-1.1977475369349122e-03" rms="4.4554078578948975e-01" purity="4.9962860345840454e-01" nType="0">
        <Node pos="l" depth="1" NCoef="0" IVar="2" Cut="9.7570991516113281e-01" cType="1" res="-1.7967099323868752e-02" rms="4.4524836540222168e-01" purity="3.9512827992439270e-01" nType="0">
          <Node pos="l" depth="2" NCoef="0" IVar="-1" Cut="0.0000000000000000e+00" cType="1" res="-1.3931043213233352e-03" rms="4.4168853759765625e-01" purity="3.4640717506408691e-01" nType="-99"/>
          <Node pos="r" depth="2" NCoef="0" IVar="-1" Cut="0.0000000000000000e+00" cType="1" res="3.9965016185306013e-04" rms="4.5347157120704651e-01" purity="5.2424740791320801e-01" nType="-99"/>
        </Node>
        <Node pos="r" depth="1" NCoef="0" IVar="4" Cut="6.0230833292007446e-01" cType="1" res="1.3336080126464367e-02" rms="4.4528350234031677e-01" purity="5.9019798040390015e-01" nType="0">
          <Node pos="l" depth="2" NCoef="0" IVar="-1" Cut="0.0000000000000000e+00" cType="1" res="-5.9096986660733819e-04" rms="4.6396133303642273e-01" purity="4.3068510293960571e-01" nType="-99"/>
          <Node pos="r" depth="2" NCoef="0" IVar="-1" Cut="0.0000000000000000e+00" cType="1" res="1.2017041444778442e-03" rms="4.3635553121566772e-01" purity="6.6001182794570923e-01" nType="-99"/>
        </Node>
      </Node>
    </BinaryTree>
    <BinaryTree type="DecisionTree" boostWeight="1.0000000000000000e+00" itree="339">
      <Node pos="s" depth="0" NCoef="0" IVar="2" Cut="9.6372050046920776e-01" cType="1" res="4.0927130612544715e-04" rms="4.4785320758819580e-01" purity="5.0150090456008911e-01" nType="0">
        <Node pos="l" depth="1" NCoef="0" IVar="5" Cut="9.2884179687500000e+02" cType="1" res="-1.0120118036866188e-02" rms="4.5233982801437378e-01" purity="4.4164678454399109e-01" nType="0">
          <Node pos="l" depth="2" NCoef="0" IVar="-1" Cut="0.0000000000000000e+00" cType="1" res="-8.3678722148761153e-04" rms="4.4764462113380432e-01" purity="4.1505753993988037e-01" nType="-99"/>
          <Node pos="r" depth="2" NCoef="0" IVar="-1" Cut="0.0000000000000000e+00" cType="1" res="7.3009845800697803e-04" rms="4.6822431683540344e-01" purity="5.3910881280899048e-01" nType="-99"/>
        </Node>
        <Node pos="r" depth="1" NCoef="0" IVar="8" Cut="2.2527594566345215e+00" cType="1" res="1.9488783553242683e-02" rms="4.3896368145942688e-01" purity="6.0995805263519287e-01" nType="0">
          <Node pos="l" depth="2" NCoef="0" IVar="-1" Cut="0.0000000000000000e+00" cType="1" res="1.7879335209727287e-03" rms="4.2859435081481934e-01" purity="6.8365401029586792e-01" nType="-99"/>
          <Node pos="r" depth="2" NCoef="0" IVar="-1" Cut="0.0000000000000000e+00" cType="1" res="-2.8259711689315736e-04" rms="4.5270475745201111e-01" purity="5.0065654516220093e-01" nType="-99"/>
        </Node>
      </Node>
    </BinaryTree>
    <BinaryTree type="DecisionTree" boostWeight="1.0000000000000000e+00" itree="340">
      <Node pos="s" depth="0" NCoef="0" IVar="4" Cut="9.3907338380813599e-01" cType="1" res="2.3123023565858603e-03" rms="4.4771316647529602e-01" purity="5.0255584716796875e-01" nType="0">
        <Node pos="l" depth="1" NCoef="0" IVar="0" Cut="6.9735750555992126e-02" cType="1" res="-2.5597007479518652e-03" rms="4.5182472467422485e-01" purity="4.7325056791305542e-01" nType="0">
          <Node pos="l" depth="2" NCoef="0" IVar="-1" Cut="0.0000000000000000e+00" cType="1" res="-1.3576943892985582e-03" rms="4.3951705098152161e-01" purity="3.3958515524864197e-01" nType="-99"/>
          <Node pos="r" depth="2" NCoef="0" IVar="-1" Cut="0.0000000000000000e+00" cType="1" res="3.0257148318924010e-04" rms="4.5590469241142273e-01" purity="5.2209305763244629e-01" nType="-99"/>
        </Node>
        <Node pos="r" depth="1" NCoef="0" IVar="-1" Cut="0.0000000000000000e+00" cType="1" res="2.3170092608779669e-03" rms="4.0730133652687073e-01" purity="7.6014953851699829e-01" nType="-99"/>
      </Node>
    </BinaryTree>
    <BinaryTree type="DecisionTree" boostWeight="1.0000000000000000e+00" itree="341">
      <Node pos="s" depth="0" NCoef="0" IVar="0" Cut="3.3847737312316895e-01" cType="1" res="1.7961858247872442e-04" rms="4.4839420914649963e-01" purity="4.9850913882255554e-01" nType="0">
        <Node pos="l" depth="1" NCoef="0" IVar="5" Cut="5.9876074218750000e+02" cType="1" res="-6.5923626534640789e-03" rms="4.5203307271003723e-01" purity="4.5971393585205078e-01" nType="0">
          <Node pos="l" depth="2" NCoef="0" IVar="-1" Cut="0.0000000000000000e+00" cType="1" res="-1.3440916081890464e-03" rms="4.4087556004524231e-01" purity="3.8376861810684204e-01" nType="-99"/>
          <Node pos="r" depth="2" NCoef="0" IVar="-1" Cut="0.0000000000000000e+00" cType="1" res="2.3265069467015564e-04" rms="4.5782995223999023e-01" purity="5.0274699926376343e-01" nType="-99"/>
        </Node>
        <Node pos="r" depth="1" NCoef="0" IVar="0" Cut="3.9034065604209900e-01" cType="1" res="3.3959619700908661e-02" rms="4.2818629741668701e-01" purity="6.9202750921249390e-01" nType="0">
          <Node pos="l" depth="2" NCoef="0" IVar="-1" Cut="0.0000000000000000e+00" cType="1" res="6.4766110153868794e-04" rms="4.4326439499855042e-01" purity="6.4619767665863037e-01" nType="-99"/>
          <Node pos="r" depth="2" NCoef="0" IVar="-1" Cut="0.0000000000000000e+00" cType="1" res="2.2489633411169052e-03" rms="4.1916501522064209e-01" purity="7.1743458509445190e-01" nType="-99"/>
        </Node>
      </Node>
    </BinaryTree>
    <BinaryTree type="DecisionTree" boostWeight="1.0000000000000000e+00" itree="342">
      <Node pos="s" depth="0" NCoef="0" IVar="8" Cut="2.4145450592041016e+00" cType="1" res="2.9357972089201212e-03" rms="4.4757676124572754e-01" purity="5.0301992893218994e-01" nType="0">
        <Node pos="l" depth="1" NCoef="0" IVar="4" Cut="5.5425119400024414e-01" cType="1" res="1.1315631680190563e-02" rms="4.5165815949440002e-01" purity="5.6083458662033081e-01" nType="0">
          <Node pos="l" depth="2" NCoef="0" IVar="-1" Cut="0.0000000000000000e+00" cType="1" res="-7.9029117478057742e-04" rms="4.5407909154891968e-01" purity="3.6589089035987854e-01" nType="-99"/>
          <Node pos="r" depth="2" NCoef="0" IVar="-1" Cut="0.0000000000000000e+00" cType="1" res="8.3672511391341686e-04" rms="4.5083945989608765e-01" purity="6.0641801357269287e-01" nType="-99"/>
        </Node>
        <Node pos="r" depth="1" NCoef="0" IVar="8" Cut="2.9511046409606934e+00" cType="1" res="-1.9375331699848175e-02" rms="4.3573904037475586e-01" purity="3.4908965229988098e-01" nType="0">
          <Node pos="l" depth="2" NCoef="0" IVar="-1" Cut="0.0000000000000000e+00" cType="1" res="-5.8925291523337364e-04" rms="4.4721934199333191e-01" purity="3.8428395986557007e-01" nType="-99"/>
          <Node pos="r" depth="2" NCoef="0" IVar="-1" Cut="0.0000000000000000e+00" cType="1" res="-3.1027200166136026e-03" rms="3.8022774457931519e-01" purity="1.9614368677139282e-01" nType="-99"/>
        </Node>
      </Node>
    </BinaryTree>
    <BinaryTree type="DecisionTree" boostWeight="1.0000000000000000e+00" itree="343">
      <Node pos="s" depth="0" NCoef="0" IVar="1" Cut="1.7537696361541748e+00" cType="1" res="-2.4357703514397144e-03" rms="4.4802346825599670e-01" purity="4.9651104211807251e-01" nType="0">
        <Node pos="l" depth="1" NCoef="0" IVar="2" Cut="8.1967145204544067e-01" cType="1" res="6.2452716520056129e-04" rms="4.5058643817901611e-01" purity="5.1091605424880981e-01" nType="0">
          <Node pos="l" depth="2" NCoef="0" IVar="-1" Cut="0.0000000000000000e+00" cType="1" res="-1.0752753587439656e-03" rms="4.4765996932983398e-01" purity="3.4841391444206238e-01" nType="-99"/>
          <Node pos="r" depth="2" NCoef="0" IVar="-1" Cut="0.0000000000000000e+00" cType="1" res="3.9572687819600105e-04" rms="4.5132946968078613e-01" purity="5.6687831878662109e-01" nType="-99"/>
        </Node>
        <Node pos="r" depth="1" NCoef="0" IVar="-1" Cut="0.0000000000000000e+00" cType="1" res="-3.2539428211748600e-03" rms="3.9439639449119568e-01" purity="2.3441064357757568e-01" nType="-99"/>
      </Node>
    </BinaryTree>
    <BinaryTree type="DecisionTree" boostWeight="1.0000000000000000e+00" itree="344">
      <Node pos="s" depth="0" NCoef="0" IVar="7" Cut="1.4470632374286652e-01" cType="1" res="-9.5923569460865110e-05" rms="4.4800201058387756e-01" purity="5.0163674354553223e-01" nType="0">
        <Node pos="l" depth="1" NCoef="0" IVar="5" Cut="6.7490362548828125e+02" cType="1" res="-6.8951076827943325e-03" rms="4.4801256060600281e-01" purity="4.7962388396263123e-01" nType="0">
          <Node pos="l" depth="2" NCoef="0" IVar="-1" Cut="0.0000000000000000e+00" cType="1" res="-1.2515845010057092e-03" rms="4.3995055556297302e-01" purity="4.0485665202140808e-01" nType="-99"/>
          <Node pos="r" depth="2" NCoef="0" IVar="-1" Cut="0.0000000000000000e+00" cType="1" res="3.5915686748921871e-04" rms="4.5376259088516235e-01" purity="5.3878605365753174e-01" nType="-99"/>
        </Node>
        <Node pos="r" depth="1" NCoef="0" IVar="5" Cut="5.3100915527343750e+02" cType="1" res="2.5271231308579445e-02" rms="4.4705101847648621e-01" purity="5.8376461267471313e-01" nType="0">
          <Node pos="l" depth="2" NCoef="0" IVar="-1" Cut="0.0000000000000000e+00" cType="1" res="-4.7866058594081551e-05" rms="4.5368674397468567e-01" purity="4.8974698781967163e-01" nType="-99"/>
          <Node pos="r" depth="2" NCoef="0" IVar="-1" Cut="0.0000000000000000e+00" cType="1" res="1.8252970185130835e-03" rms="4.4306337833404541e-01" purity="6.3132309913635254e-01" nType="-99"/>
        </Node>
      </Node>
    </BinaryTree>
    <BinaryTree type="DecisionTree" boostWeight="1.0000000000000000e+00" itree="345">
      <Node pos="s" depth="0" NCoef="0" IVar="5" Cut="1.0877612304687500e+03" cType="1" res="8.0196105409413576e-04" rms="4.4783303141593933e-01" purity="5.0111299753189087e-01" nType="0">
        <Node pos="l" depth="1" NCoef="0" IVar="4" Cut="9.1520607471466064e-01" cType="1" res="-4.4112442992627621e-03" rms="4.4731646776199341e-01" purity="4.8708888888359070e-01" nType="0">
          <Node pos="l" depth="2" NCoef="0" IVar="-1" Cut="0.0000000000000000e+00" cType="1" res="-5.1195215201005340e-04" rms="4.5228096842765808e-01" purity="4.4442075490951538e-01" nType="-99"/>
          <Node pos="r" depth="2" NCoef="0" IVar="-1" Cut="0.0000000000000000e+00" cType="1" res="1.7208871431648731e-03" rms="4.1419163346290588e-01" purity="7.4354672431945801e-01" nType="-99"/>
        </Node>
        <Node pos="r" depth="1" NCoef="0" IVar="2" Cut="9.0372896194458008e-01" cType="1" res="4.2880367487668991e-02" rms="4.4977408647537231e-01" purity="6.1430877447128296e-01" nType="0">
          <Node pos="l" depth="2" NCoef="0" IVar="-1" Cut="0.0000000000000000e+00" cType="1" res="1.0897776810452342e-03" rms="4.6966892480850220e-01" purity="5.2289885282516479e-01" nType="-99"/>
          <Node pos="r" depth="2" NCoef="0" IVar="-1" Cut="0.0000000000000000e+00" cType="1" res="2.7672860305756330e-03" rms="4.3170717358589172e-01" purity="6.9123595952987671e-01" nType="-99"/>
        </Node>
      </Node>
    </BinaryTree>
    <BinaryTree type="DecisionTree" boostWeight="1.0000000000000000e+00" itree="346">
      <Node pos="s" depth="0" NCoef="0" IVar="3" Cut="8.0786061286926270e-01" cType="1" res="-2.3006608244031668e-03" rms="4.4681933522224426e-01" purity="4.9815261363983154e-01" nType="0">
        <Node pos="l" depth="1" NCoef="0" IVar="5" Cut="5.4366674804687500e+02" cType="1" res="1.4800529927015305e-02" rms="4.4784164428710938e-01" purity="5.7890325784683228e-01" nType="0">
          <Node pos="l" depth="2" NCoef="0" IVar="-1" Cut="0.0000000000000000e+00" cType="1" res="-4.2275333544239402e-04" rms="4.5090469717979431e-01" purity="4.8011961579322815e-01" nType="-99"/>
          <Node pos="r" depth="2" NCoef="0" IVar="-1" Cut="0.0000000000000000e+00" cType="1" res="1.0003997012972832e-03" rms="4.4680628180503845e-01" purity="6.0535120964050293e-01" nType="-99"/>
        </Node>
        <Node pos="r" depth="1" NCoef="0" IVar="0" Cut="1.1216608434915543e-01" cType="1" res="-1.3876765966415405e-02" rms="4.4575375318527222e-01" purity="4.4349107146263123e-01" nType="0">
          <Node pos="l" depth="2" NCoef="0" IVar="-1" Cut="0.0000000000000000e+00" cType="1" res="-1.6420115716755390e-03" rms="4.3545737862586975e-01" purity="3.4153863787651062e-01" nType="-99"/>
          <Node pos="r" depth="2" NCoef="0" IVar="-1" Cut="0.0000000000000000e+00" cType="1" res="5.1452370826154947e-06" rms="4.5285609364509583e-01" purity="5.2031993865966797e-01" nType="-99"/>
        </Node>
      </Node>
    </BinaryTree>
    <BinaryTree type="DecisionTree" boostWeight="1.0000000000000000e+00" itree="347">
      <Node pos="s" depth="0" NCoef="0" IVar="2" Cut="6.2771755456924438e-01" cType="1" res="-2.7499436400830746e-03" rms="4.4786369800567627e-01" purity="4.9730420112609863e-01" nType="0">
        <Node pos="l" depth="1" NCoef="0" IVar="-1" Cut="0.0000000000000000e+00" cType="1" res="-3.5254687536507845e-03" rms="4.0093129873275757e-01" purity="2.3950980603694916e-01" nType="-99"/>
        <Node pos="r" depth="1" NCoef="0" IVar="7" Cut="5.6315153837203979e-02" cType="1" res="7.4795295950025320e-04" rms="4.5007160305976868e-01" purity="5.1163733005523682e-01" nType="0">
          <Node pos="l" depth="2" NCoef="0" IVar="-1" Cut="0.0000000000000000e+00" cType="1" res="-9.5246848650276661e-04" rms="4.4733625650405884e-01" purity="4.5237666368484497e-01" nType="-99"/>
          <Node pos="r" depth="2" NCoef="0" IVar="-1" Cut="0.0000000000000000e+00" cType="1" res="5.2243325626477599e-04" rms="4.5107710361480713e-01" purity="5.4110801219940186e-01" nType="-99"/>
        </Node>
      </Node>
    </BinaryTree>
    <BinaryTree type="DecisionTree" boostWeight="1.0000000000000000e+00" itree="348">
      <Node pos="s" depth="0" NCoef="0" IVar="6" Cut="1.8122345209121704e+00" cType="1" res="-1.5361261321231723e-03" rms="4.4876798987388611e-01" purity="4.9810031056404114e-01" nType="0">
        <Node pos="l" depth="1" NCoef="0" IVar="0" Cut="3.8092768192291260e-01" cType="1" res="2.8240792453289032e-03" rms="4.5393395423889160e-01" purity="5.2675753831863403e-01" nType="0">
          <Node pos="l" depth="2" NCoef="0" IVar="-1" Cut="0.0000000000000000e+00" cType="1" res="-9.2016409325879067e-05" rms="4.5797351002693176e-01" purity="4.9909135699272156e-01" nType="-99"/>
          <Node pos="r" depth="2" NCoef="0" IVar="-1" Cut="0.0000000000000000e+00" cType="1" res="1.9004381028935313e-03" rms="4.2161065340042114e-01" purity="7.2886240482330322e-01" nType="-99"/>
        </Node>
        <Node pos="r" depth="1" NCoef="0" IVar="-1" Cut="0.0000000000000000e+00" cType="1" res="-2.6063807308673859e-03" rms="3.9156928658485413e-01" purity="2.1525585651397705e-01" nType="-99"/>
      </Node>
    </BinaryTree>
    <BinaryTree type="DecisionTree" boostWeight="1.0000000000000000e+00" itree="349">
      <Node pos="s" depth="0" NCoef="0" IVar="6" Cut="1.8857558965682983e+00" cType="1" res="-1.7169370548799634e-03" rms="4.4948235154151917e-01" purity="4.9921545386314392e-01" nType="0">
        <Node pos="l" depth="1" NCoef="0" IVar="2" Cut="6.6524344682693481e-01" cType="1" res="2.0580624695867300e-03" rms="4.5462170243263245e-01" purity="5.2341759204864502e-01" nType="0">
          <Node pos="l" depth="2" NCoef="0" IVar="-1" Cut="0.0000000000000000e+00" cType="1" res="-2.1215260494500399e-03" rms="4.3470376729965210e-01" purity="2.9615929722785950e-01" nType="-99"/>
          <Node pos="r" depth="2" NCoef="0" IVar="-1" Cut="0.0000000000000000e+00" cType="1" res="2.7396195218898356e-04" rms="4.5608812570571899e-01" purity="5.4287618398666382e-01" nType="-99"/>
        </Node>
        <Node pos="r" depth="1" NCoef="0" IVar="-1" Cut="0.0000000000000000e+00" cType="1" res="-2.9049820732325315e-03" rms="3.7717750668525696e-01" purity="2.0013889670372009e-01" nType="-99"/>
      </Node>
    </BinaryTree>
    <BinaryTree type="DecisionTree" boostWeight="1.0000000000000000e+00" itree="350">
      <Node pos="s" depth="0" NCoef="0" IVar="2" Cut="7.7165192365646362e-01" cType="1" res="2.0616110414266586e-03" rms="4.4890555739402771e-01" purity="5.0339132547378540e-01" nType="0">
        <Node pos="l" depth="1" NCoef="0" IVar="1" Cut="9.4077908992767334e-01" cType="1" res="-2.4384014308452606e-02" rms="4.3440654873847961e-01" purity="3.2165798544883728e-01" nType="0">
          <Node pos="l" depth="2" NCoef="0" IVar="-1" Cut="0.0000000000000000e+00" cType="1" res="1.6483954095747322e-04" rms="4.7169408202171326e-01" purity="4.5766741037368774e-01" nType="-99"/>
          <Node pos="r" depth="2" NCoef="0" IVar="-1" Cut="0.0000000000000000e+00" cType="1" res="-1.9178737420588732e-03" rms="4.1814401745796204e-01" purity="2.6760855317115784e-01" nType="-99"/>
        </Node>
        <Node pos="r" depth="1" NCoef="0" IVar="8" Cut="1.8595880270004272e+00" cType="1" res="8.1886313855648041e-03" rms="4.5197769999504089e-01" purity="5.4549598693847656e-01" nType="0">
          <Node pos="l" depth="2" NCoef="0" IVar="-1" Cut="0.0000000000000000e+00" cType="1" res="1.5390790067613125e-03" rms="4.4444692134857178e-01" purity="6.3790529966354370e-01" nType="-99"/>
          <Node pos="r" depth="2" NCoef="0" IVar="-1" Cut="0.0000000000000000e+00" cType="1" res="5.3942778322380036e-05" rms="4.5388618111610413e-01" purity="5.1879620552062988e-01" nType="-99"/>
        </Node>
      </Node>
    </BinaryTree>
    <BinaryTree type="DecisionTree" boostWeight="1.0000000000000000e+00" itree="351">
      <Node pos="s" depth="0" NCoef="0" IVar="1" Cut="8.9887654781341553e-01" cType="1" res="-2.6391919236630201e-03" rms="4.4837296009063721e-01" purity="4.9775263667106628e-01" nType="0">
        <Node pos="l" depth="1" NCoef="0" IVar="0" Cut="8.3874963223934174e-02" cType="1" res="1.9373832270503044e-02" rms="4.4309538602828979e-01" purity="6.3831853866577148e-01" nType="0">
          <Node pos="l" depth="2" NCoef="0" IVar="-1" Cut="0.0000000000000000e+00" cType="1" res="-4.0773631189949811e-04" rms="4.6402037143707275e-01" purity="4.9992451071739197e-01" nType="-99"/>
          <Node pos="r" depth="2" NCoef="0" IVar="-1" Cut="0.0000000000000000e+00" cType="1" res="1.6439383616670966e-03" rms="4.3185797333717346e-01" purity="7.0572483539581299e-01" nType="-99"/>
        </Node>
        <Node pos="r" depth="1" NCoef="0" IVar="5" Cut="8.5317633056640625e+02" cType="1" res="-1.1174912564456463e-02" rms="4.5011317729949951e-01" purity="4.4324716925621033e-01" nType="0">
          <Node pos="l" depth="2" NCoef="0" IVar="-1" Cut="0.0000000000000000e+00" cType="1" res="-1.0290024802088737e-03" rms="4.4539168477058411e-01" purity="4.1105440258979797e-01" nType="-99"/>
          <Node pos="r" depth="2" NCoef="0" IVar="-1" Cut="0.0000000000000000e+00" cType="1" res="7.2891876334324479e-04" rms="4.6178698539733887e-01" purity="5.3186374902725220e-01" nType="-99"/>
        </Node>
      </Node>
    </BinaryTree>
    <BinaryTree type="DecisionTree" boostWeight="1.0000000000000000e+00" itree="352">
      <Node pos="s" depth="0" NCoef="0" IVar="0" Cut="4.1447293013334274e-02" cType="1" res="1.9001459004357457e-03" rms="4.4726234674453735e-01" purity="5.0078755617141724e-01" nType="0">
        <Node pos="l" depth="1" NCoef="0" IVar="1" Cut="1.0806882381439209e+00" cType="1" res="-4.2234491556882858e-02" rms="4.3254986405372620e-01" purity="3.4819588065147400e-01" nType="0">
          <Node pos="l" depth="2" NCoef="0" IVar="-1" Cut="0.0000000000000000e+00" cType="1" res="-1.2323823757469654e-03" rms="4.5610666275024414e-01" purity="4.4365039467811584e-01" nType="-99"/>
          <Node pos="r" depth="2" NCoef="0" IVar="-1" Cut="0.0000000000000000e+00" cType="1" res="-3.0590326059609652e-03" rms="4.0871393680572510e-01" purity="2.5864875316619873e-01" nType="-99"/>
        </Node>
        <Node pos="r" depth="1" NCoef="0" IVar="7" Cut="1.5771605074405670e-01" cType="1" res="7.7568655833601952e-03" rms="4.4885244965553284e-01" purity="5.2103668451309204e-01" nType="0">
          <Node pos="l" depth="2" NCoef="0" IVar="-1" Cut="0.0000000000000000e+00" cType="1" res="5.9495672758203000e-05" rms="4.4957944750785828e-01" purity="5.0110870599746704e-01" nType="-99"/>
          <Node pos="r" depth="2" NCoef="0" IVar="-1" Cut="0.0000000000000000e+00" cType="1" res="1.8960931338369846e-03" rms="4.4387459754943848e-01" purity="6.1897730827331543e-01" nType="-99"/>
        </Node>
      </Node>
    </BinaryTree>
    <BinaryTree type="DecisionTree" boostWeight="1.0000000000000000e+00" itree="353">
      <Node pos="s" depth="0" NCoef="0" IVar="7" Cut="1.4444193243980408e-01" cType="1" res="-2.8893605340272188e-03" rms="4.4780471920967102e-01" purity="4.9761104583740234e-01" nType="0">
        <Node pos="l" depth="1" NCoef="0" IVar="5" Cut="8.1012280273437500e+02" cType="1" res="-9.8655177280306816e-03" rms="4.4747439026832581e-01" purity="4.7483745217323303e-01" nType="0">
          <Node pos="l" depth="2" NCoef="0" IVar="-1" Cut="0.0000000000000000e+00" cType="1" res="-1.0085934773087502e-03" rms="4.4312274456024170e-01" purity="4.3240386247634888e-01" nType="-99"/>
          <Node pos="r" depth="2" NCoef="0" IVar="-1" Cut="0.0000000000000000e+00" cType="1" res="4.7240767162293196e-04" rms="4.5480117201805115e-01" purity="5.5390781164169312e-01" nType="-99"/>
        </Node>
        <Node pos="r" depth="1" NCoef="0" IVar="8" Cut="1.9685207605361938e+00" cType="1" res="2.3273156955838203e-02" rms="4.4807496666908264e-01" purity="5.8301824331283569e-01" nType="0">
          <Node pos="l" depth="2" NCoef="0" IVar="-1" Cut="0.0000000000000000e+00" cType="1" res="2.3680885788053274e-03" rms="4.3605375289916992e-01" purity="6.4912420511245728e-01" nType="-99"/>
          <Node pos="r" depth="2" NCoef="0" IVar="-1" Cut="0.0000000000000000e+00" cType="1" res="5.3956027841195464e-04" rms="4.5291319489479065e-01" purity="5.5306369066238403e-01" nType="-99"/>
        </Node>
      </Node>
    </BinaryTree>
    <BinaryTree type="DecisionTree" boostWeight="1.0000000000000000e+00" itree="354">
      <Node pos="s" depth="0" NCoef="0" IVar="7" Cut="1.5656970441341400e-01" cType="1" res="-2.8063124045729637e-03" rms="4.4790351390838623e-01" purity="4.9706703424453735e-01" nType="0">
        <Node pos="l" depth="1" NCoef="0" IVar="5" Cut="8.0995385742187500e+02" cType="1" res="-9.6227731555700302e-03" rms="4.4730874896049500e-01" purity="4.7707143425941467e-01" nType="0">
          <Node pos="l" depth="2" NCoef="0" IVar="-1" Cut="0.0000000000000000e+00" cType="1" res="-1.0008304379880428e-03" rms="4.4260501861572266e-01" purity="4.3557617068290710e-01" nType="-99"/>
          <Node pos="r" depth="2" NCoef="0" IVar="-1" Cut="0.0000000000000000e+00" cType="1" res="5.3612788906320930e-04" rms="4.5554530620574951e-01" purity="5.5744463205337524e-01" nType="-99"/>
        </Node>
        <Node pos="r" depth="1" NCoef="0" IVar="8" Cut="1.9580857753753662e+00" cType="1" res="2.9180329293012619e-02" rms="4.4930493831634521e-01" purity="5.9089761972427368e-01" nType="0">
          <Node pos="l" depth="2" NCoef="0" IVar="-1" Cut="0.0000000000000000e+00" cType="1" res="3.0278577469289303e-03" rms="4.3853724002838135e-01" purity="6.6609299182891846e-01" nType="-99"/>
          <Node pos="r" depth="2" NCoef="0" IVar="-1" Cut="0.0000000000000000e+00" cType="1" res="6.4256839687004685e-04" rms="4.5326280593872070e-01" purity="5.5655056238174438e-01" nType="-99"/>
        </Node>
      </Node>
    </BinaryTree>
    <BinaryTree type="DecisionTree" boostWeight="1.0000000000000000e+00" itree="355">
      <Node pos="s" depth="0" NCoef="0" IVar="5" Cut="8.0610272216796875e+02" cType="1" res="-8.0317904939875007e-04" rms="4.4670471549034119e-01" purity="4.9861621856689453e-01" nType="0">
        <Node pos="l" depth="1" NCoef="0" IVar="7" Cut="5.6486699730157852e-02" cType="1" res="-1.1678583920001984e-02" rms="4.4407835602760315e-01" purity="4.6307644248008728e-01" nType="0">
          <Node pos="l" depth="2" NCoef="0" IVar="-1" Cut="0.0000000000000000e+00" cType="1" res="-2.1004360169172287e-03" rms="4.3334376811981201e-01" purity="3.6029589176177979e-01" nType="-99"/>
          <Node pos="r" depth="2" NCoef="0" IVar="-1" Cut="0.0000000000000000e+00" cType="1" res="-5.5620217608520761e-05" rms="4.4733202457427979e-01" purity="4.9935612082481384e-01" nType="-99"/>
        </Node>
        <Node pos="r" depth="1" NCoef="0" IVar="8" Cut="1.7012405395507812e+00" cType="1" res="2.2825254127383232e-02" rms="4.5145630836486816e-01" purity="5.7583165168762207e-01" nType="0">
          <Node pos="l" depth="2" NCoef="0" IVar="-1" Cut="0.0000000000000000e+00" cType="1" res="2.7881194837391376e-03" rms="4.3408641219139099e-01" purity="6.7719799280166626e-01" nType="-99"/>
          <Node pos="r" depth="2" NCoef="0" IVar="-1" Cut="0.0000000000000000e+00" cType="1" res="6.2738975975662470e-04" rms="4.5536187291145325e-01" purity="5.4964375495910645e-01" nType="-99"/>
        </Node>
      </Node>
    </BinaryTree>
    <BinaryTree type="DecisionTree" boostWeight="1.0000000000000000e+00" itree="356">
      <Node pos="s" depth="0" NCoef="0" IVar="5" Cut="4.5384313964843750e+02" cType="1" res="7.6100253500044346e-03" rms="4.4835585355758667e-01" purity="5.0804173946380615e-01" nType="0">
        <Node pos="l" depth="1" NCoef="0" IVar="-1" Cut="0.0000000000000000e+00" cType="1" res="-2.1598944440484047e-03" rms="4.2855906486511230e-01" purity="3.5565948486328125e-01" nType="-99"/>
        <Node pos="r" depth="1" NCoef="0" IVar="8" Cut="2.2527594566345215e+00" cType="1" res="1.1985838413238525e-02" rms="4.4976851344108582e-01" purity="5.2128094434738159e-01" nType="0">
          <Node pos="l" depth="2" NCoef="0" IVar="-1" Cut="0.0000000000000000e+00" cType="1" res="1.1224618647247553e-03" rms="4.5050850510597229e-01" purity="5.9258478879928589e-01" nType="-99"/>
          <Node pos="r" depth="2" NCoef="0" IVar="-1" Cut="0.0000000000000000e+00" cType="1" res="-1.8729778821580112e-04" rms="4.4829139113426208e-01" purity="4.2612153291702271e-01" nType="-99"/>
        </Node>
      </Node>
    </BinaryTree>
    <BinaryTree type="DecisionTree" boostWeight="1.0000000000000000e+00" itree="357">
      <Node pos="s" depth="0" NCoef="0" IVar="1" Cut="7.3439747095108032e-01" cType="1" res="2.0610752981156111e-03" rms="4.4694197177886963e-01" purity="5.0235611200332642e-01" nType="0">
        <Node pos="l" depth="1" NCoef="0" IVar="2" Cut="9.6416467428207397e-01" cType="1" res="3.1096642836928368e-02" rms="4.3716073036193848e-01" purity="6.6930764913558960e-01" nType="0">
          <Node pos="l" depth="2" NCoef="0" IVar="-1" Cut="0.0000000000000000e+00" cType="1" res="9.7153201932087541e-04" rms="4.5883280038833618e-01" purity="6.1021238565444946e-01" nType="-99"/>
          <Node pos="r" depth="2" NCoef="0" IVar="-1" Cut="0.0000000000000000e+00" cType="1" res="2.5049601681530476e-03" rms="3.9894786477088928e-01" purity="7.6523405313491821e-01" nType="-99"/>
        </Node>
        <Node pos="r" depth="1" NCoef="0" IVar="2" Cut="6.5239870548248291e-01" cType="1" res="-2.7894193772226572e-03" rms="4.4837194681167603e-01" purity="4.7446632385253906e-01" nType="0">
          <Node pos="l" depth="2" NCoef="0" IVar="-1" Cut="0.0000000000000000e+00" cType="1" res="-2.6490497402846813e-03" rms="4.0513974428176880e-01" purity="2.4537171423435211e-01" nType="-99"/>
          <Node pos="r" depth="2" NCoef="0" IVar="-1" Cut="0.0000000000000000e+00" cType="1" res="3.6696950701298192e-05" rms="4.5139786601066589e-01" purity="4.9245125055313110e-01" nType="-99"/>
        </Node>
      </Node>
    </BinaryTree>
    <BinaryTree type="DecisionTree" boostWeight="1.0000000000000000e+00" itree="358">
      <Node pos="s" depth="0" NCoef="0" IVar="2" Cut="9.6386909484863281e-01" cType="1" res="2.5148801505565643e-03" rms="4.4794306159019470e-01" purity="5.0091296434402466e-01" nType="0">
        <Node pos="l" depth="1" NCoef="0" IVar="1" Cut="1.6669342517852783e+00" cType="1" res="-6.9143637083470821e-03" rms="4.5152455568313599e-01" purity="4.4188511371612549e-01" nType="0">
          <Node pos="l" depth="2" NCoef="0" IVar="-1" Cut="0.0000000000000000e+00" cType="1" res="-1.4535516675096005e-04" rms="4.5627462863922119e-01" purity="4.6225684881210327e-01" nType="-99"/>
          <Node pos="r" depth="2" NCoef="0" IVar="-1" Cut="0.0000000000000000e+00" cType="1" res="-2.7328117284923792e-03" rms="3.9589688181877136e-01" purity="2.2762595117092133e-01" nType="-99"/>
        </Node>
        <Node pos="r" depth="1" NCoef="0" IVar="6" Cut="7.5680685043334961e-01" cType="1" res="1.9915986806154251e-02" rms="4.4072791934013367e-01" purity="6.0984539985656738e-01" nType="0">
          <Node pos="l" depth="2" NCoef="0" IVar="-1" Cut="0.0000000000000000e+00" cType="1" res="2.0112320780754089e-03" rms="4.1959869861602783e-01" purity="7.1393305063247681e-01" nType="-99"/>
          <Node pos="r" depth="2" NCoef="0" IVar="-1" Cut="0.0000000000000000e+00" cType="1" res="3.5095316707156599e-04" rms="4.5273500680923462e-01" purity="5.4607945680618286e-01" nType="-99"/>
        </Node>
      </Node>
    </BinaryTree>
    <BinaryTree type="DecisionTree" boostWeight="1.0000000000000000e+00" itree="359">
      <Node pos="s" depth="0" NCoef="0" IVar="3" Cut="7.2993594408035278e-01" cType="1" res="-2.9957358492538333e-04" rms="4.4934374094009399e-01" purity="5.0017786026000977e-01" nType="0">
        <Node pos="l" depth="1" NCoef="0" IVar="1" Cut="9.5282745361328125e-01" cType="1" res="1.6762260347604752e-02" rms="4.4969612360000610e-01" purity="5.8139353990554810e-01" nType="0">
          <Node pos="l" depth="2" NCoef="0" IVar="-1" Cut="0.0000000000000000e+00" cType="1" res="1.5120848547667265e-03" rms="4.4124040007591248e-01" purity="6.5907609462738037e-01" nType="-99"/>
          <Node pos="r" depth="2" NCoef="0" IVar="-1" Cut="0.0000000000000000e+00" cType="1" res="8.5134706750977784e-05" rms="4.5759162306785583e-01" purity="5.0294655561447144e-01" nType="-99"/>
        </Node>
        <Node pos="r" depth="1" NCoef="0" IVar="0" Cut="2.9603636264801025e-01" cType="1" res="-9.7516886889934540e-03" rms="4.4886934757232666e-01" purity="4.5518499612808228e-01" nType="0">
          <Node pos="l" depth="2" NCoef="0" IVar="-1" Cut="0.0000000000000000e+00" cType="1" res="-8.3191721932962537e-04" rms="4.4828423857688904e-01" purity="4.0774714946746826e-01" nType="-99"/>
          <Node pos="r" depth="2" NCoef="0" IVar="-1" Cut="0.0000000000000000e+00" cType="1" res="7.9765706323087215e-04" rms="4.5000174641609192e-01" purity="6.2836408615112305e-01" nType="-99"/>
        </Node>
      </Node>
    </BinaryTree>
    <BinaryTree type="DecisionTree" boostWeight="1.0000000000000000e+00" itree="360">
      <Node pos="s" depth="0" NCoef="0" IVar="0" Cut="2.8191557526588440e-01" cType="1" res="-2.5740917772054672e-03" rms="4.4842320680618286e-01" purity="4.9667066335678101e-01" nType="0">
        <Node pos="l" depth="1" NCoef="0" IVar="5" Cut="4.5763272094726562e+02" cType="1" res="-1.0668790899217129e-02" rms="4.5179674029350281e-01" purity="4.4356280565261841e-01" nType="0">
          <Node pos="l" depth="2" NCoef="0" IVar="-1" Cut="0.0000000000000000e+00" cType="1" res="-2.9359578620642424e-03" rms="4.1638487577438354e-01" purity="3.0061787366867065e-01" nType="-99"/>
          <Node pos="r" depth="2" NCoef="0" IVar="-1" Cut="0.0000000000000000e+00" cType="1" res="-2.9517390066757798e-04" rms="4.5489829778671265e-01" purity="4.5766577124595642e-01" nType="-99"/>
        </Node>
        <Node pos="r" depth="1" NCoef="0" IVar="2" Cut="8.8041353225708008e-01" cType="1" res="2.3059878498315811e-02" rms="4.3657940626144409e-01" purity="6.6485053300857544e-01" nType="0">
          <Node pos="l" depth="2" NCoef="0" IVar="-1" Cut="0.0000000000000000e+00" cType="1" res="4.1258550481870770e-05" rms="4.7043573856353760e-01" purity="5.4686146974563599e-01" nType="-99"/>
          <Node pos="r" depth="2" NCoef="0" IVar="-1" Cut="0.0000000000000000e+00" cType="1" res="1.8029152415692806e-03" rms="4.1643330454826355e-01" purity="7.2929024696350098e-01" nType="-99"/>
        </Node>
      </Node>
    </BinaryTree>
    <BinaryTree type="DecisionTree" boostWeight="1.0000000000000000e+00" itree="361">
      <Node pos="s" depth="0" NCoef="0" IVar="0" Cut="3.1020560860633850e-01" cType="1" res="-2.2797081619501114e-03" rms="4.4790837168693542e-01" purity="4.9654635787010193e-01" nType="0">
        <Node pos="l" depth="1" NCoef="0" IVar="4" Cut="9.2723834514617920e-01" cType="1" res="-9.1262822970747948e-03" rms="4.5111829042434692e-01" purity="4.5116281509399414e-01" nType="0">
          <Node pos="l" depth="2" NCoef="0" IVar="-1" Cut="0.0000000000000000e+00" cType="1" res="-6.8505958188325167e-04" rms="4.5409396290779114e-01" purity="4.1625374555587769e-01" nType="-99"/>
          <Node pos="r" depth="2" NCoef="0" IVar="-1" Cut="0.0000000000000000e+00" cType="1" res="1.5253892634063959e-03" rms="4.2515107989311218e-01" purity="7.2238099575042725e-01" nType="-99"/>
        </Node>
        <Node pos="r" depth="1" NCoef="0" IVar="4" Cut="5.9027045965194702e-01" cType="1" res="2.4735424667596817e-02" rms="4.3395885825157166e-01" purity="6.7562049627304077e-01" nType="0">
          <Node pos="l" depth="2" NCoef="0" IVar="-1" Cut="0.0000000000000000e+00" cType="1" res="1.5902827726677060e-04" rms="4.7665211558341980e-01" purity="5.3627979755401611e-01" nType="-99"/>
          <Node pos="r" depth="2" NCoef="0" IVar="-1" Cut="0.0000000000000000e+00" cType="1" res="1.6535770846530795e-03" rms="4.1748222708702087e-01" purity="7.2513288259506226e-01" nType="-99"/>
        </Node>
      </Node>
    </BinaryTree>
    <BinaryTree type="DecisionTree" boostWeight="1.0000000000000000e+00" itree="362">
      <Node pos="s" depth="0" NCoef="0" IVar="5" Cut="1.0239011840820312e+03" cType="1" res="-1.0175178758800030e-03" rms="4.4790858030319214e-01" purity="5.0012999773025513e-01" nType="0">
        <Node pos="l" depth="1" NCoef="0" IVar="7" Cut="5.3627066314220428e-02" cType="1" res="-6.1223488301038742e-03" rms="4.4769668579101562e-01" purity="4.8367738723754883e-01" nType="0">
          <Node pos="l" depth="2" NCoef="0" IVar="-1" Cut="0.0000000000000000e+00" cType="1" res="-1.4920524554327130e-03" rms="4.4109213352203369e-01" purity="4.0091794729232788e-01" nType="-99"/>
          <Node pos="r" depth="2" NCoef="0" IVar="-1" Cut="0.0000000000000000e+00" cType="1" res="1.4684832422062755e-04" rms="4.4984731078147888e-01" purity="5.1519352197647095e-01" nType="-99"/>
        </Node>
        <Node pos="r" depth="1" NCoef="0" IVar="4" Cut="6.3806957006454468e-01" cType="1" res="2.9898256063461304e-02" rms="4.4794830679893494e-01" purity="5.9977030754089355e-01" nType="0">
          <Node pos="l" depth="2" NCoef="0" IVar="-1" Cut="0.0000000000000000e+00" cType="1" res="2.9483108664862812e-04" rms="4.6850129961967468e-01" purity="4.5895710587501526e-01" nType="-99"/>
          <Node pos="r" depth="2" NCoef="0" IVar="-1" Cut="0.0000000000000000e+00" cType="1" res="2.2154275793582201e-03" rms="4.3231710791587830e-01" purity="6.9782602787017822e-01" nType="-99"/>
        </Node>
      </Node>
    </BinaryTree>
    <BinaryTree type="DecisionTree" boostWeight="1.0000000000000000e+00" itree="363">
      <Node pos="s" depth="0" NCoef="0" IVar="4" Cut="9.6312642097473145e-01" cType="1" res="-2.1795814391225576e-03" rms="4.4787874817848206e-01" purity="4.9814283847808838e-01" nType="0">
        <Node pos="l" depth="1" NCoef="0" IVar="5" Cut="1.1032044677734375e+03" cType="1" res="-5.5459719151258469e-03" rms="4.5064032077789307e-01" purity="4.7924253344535828e-01" nType="0">
          <Node pos="l" depth="2" NCoef="0" IVar="-1" Cut="0.0000000000000000e+00" cType="1" res="-4.7838591854088008e-04" rms="4.4960054755210876e-01" purity="4.6553093194961548e-01" nType="-99"/>
          <Node pos="r" depth="2" NCoef="0" IVar="-1" Cut="0.0000000000000000e+00" cType="1" res="1.4621784212067723e-03" rms="4.5767444372177124e-01" purity="5.9547638893127441e-01" nType="-99"/>
        </Node>
        <Node pos="r" depth="1" NCoef="0" IVar="-1" Cut="0.0000000000000000e+00" cType="1" res="2.4425918236374855e-03" rms="4.0256980061531067e-01" purity="7.7224344015121460e-01" nType="-99"/>
      </Node>
    </BinaryTree>
    <BinaryTree type="DecisionTree" boostWeight="1.0000000000000000e+00" itree="364">
      <Node pos="s" depth="0" NCoef="0" IVar="6" Cut="7.5942409038543701e-01" cType="1" res="1.2195438612252474e-03" rms="4.4913646578788757e-01" purity="5.0159537792205811e-01" nType="0">
        <Node pos="l" depth="1" NCoef="0" IVar="5" Cut="1.0113015747070312e+03" cType="1" res="1.8880007788538933e-02" rms="4.4690272212028503e-01" purity="6.0725224018096924e-01" nType="0">
          <Node pos="l" depth="2" NCoef="0" IVar="-1" Cut="0.0000000000000000e+00" cType="1" res="6.0386391123756766e-04" rms="4.4835337996482849e-01" purity="5.8994883298873901e-01" nType="-99"/>
          <Node pos="r" depth="2" NCoef="0" IVar="-1" Cut="0.0000000000000000e+00" cType="1" res="2.3633204400539398e-03" rms="4.3836581707000732e-01" purity="6.9310551881790161e-01" nType="-99"/>
        </Node>
        <Node pos="r" depth="1" NCoef="0" IVar="3" Cut="6.4814037084579468e-01" cType="1" res="-8.9430557563900948e-03" rms="4.5010286569595337e-01" purity="4.4079583883285522e-01" nType="0">
          <Node pos="l" depth="2" NCoef="0" IVar="-1" Cut="0.0000000000000000e+00" cType="1" res="4.7961558448150754e-04" rms="4.5591405034065247e-01" purity="5.3109937906265259e-01" nType="-99"/>
          <Node pos="r" depth="2" NCoef="0" IVar="-1" Cut="0.0000000000000000e+00" cType="1" res="-7.5416761683300138e-04" rms="4.4795617461204529e-01" purity="4.1053274273872375e-01" nType="-99"/>
        </Node>
      </Node>
    </BinaryTree>
    <BinaryTree type="DecisionTree" boostWeight="1.0000000000000000e+00" itree="365">
      <Node pos="s" depth="0" NCoef="0" IVar="5" Cut="5.3899597167968750e+02" cType="1" res="4.0766038000583649e-04" rms="4.4868513941764832e-01" purity="5.0142264366149902e-01" nType="0">
        <Node pos="l" depth="1" NCoef="0" IVar="4" Cut="5.6626522541046143e-01" cType="1" res="-2.1568026393651962e-02" rms="4.3902853131294250e-01" purity="4.0258342027664185e-01" nType="0">
          <Node pos="l" depth="2" NCoef="0" IVar="-1" Cut="0.0000000000000000e+00" cType="1" res="-2.8339158743619919e-03" rms="3.9750653505325317e-01" purity="2.2364041209220886e-01" nType="-99"/>
          <Node pos="r" depth="2" NCoef="0" IVar="-1" Cut="0.0000000000000000e+00" cType="1" res="-6.0214928817003965e-04" rms="4.5147281885147095e-01" purity="4.6136254072189331e-01" nType="-99"/>
        </Node>
        <Node pos="r" depth="1" NCoef="0" IVar="3" Cut="1.2093086242675781e+00" cType="1" res="7.0532457903027534e-03" rms="4.5135402679443359e-01" purity="5.3131222724914551e-01" nType="0">
          <Node pos="l" depth="2" NCoef="0" IVar="-1" Cut="0.0000000000000000e+00" cType="1" res="8.3014072151854634e-04" rms="4.5133996009826660e-01" purity="5.8891826868057251e-01" nType="-99"/>
          <Node pos="r" depth="2" NCoef="0" IVar="-1" Cut="0.0000000000000000e+00" cType="1" res="-4.9593992298468947e-04" rms="4.5084494352340698e-01" purity="4.3647778034210205e-01" nType="-99"/>
        </Node>
      </Node>
    </BinaryTree>
    <BinaryTree type="DecisionTree" boostWeight="1.0000000000000000e+00" itree="366">
      <Node pos="s" depth="0" NCoef="0" IVar="2" Cut="6.6361629962921143e-01" cType="1" res="6.3478568335995078e-05" rms="4.4778758287429810e-01" purity="4.9880024790763855e-01" nType="0">
        <Node pos="l" depth="1" NCoef="0" IVar="-1" Cut="0.0000000000000000e+00" cType="1" res="-2.3432171437889338e-03" rms="4.1668429970741272e-01" purity="2.7020737528800964e-01" nType="-99"/>
        <Node pos="r" depth="1" NCoef="0" IVar="7" Cut="6.7173562943935394e-02" cType="1" res="3.8927982095628977e-03" rms="4.5018863677978516e-01" purity="5.1868826150894165e-01" nType="0">
          <Node pos="l" depth="2" NCoef="0" IVar="-1" Cut="0.0000000000000000e+00" cType="1" res="-5.0890218699350953e-04" rms="4.4908401370048523e-01" purity="4.6370765566825867e-01" nType="-99"/>
          <Node pos="r" depth="2" NCoef="0" IVar="-1" Cut="0.0000000000000000e+00" cType="1" res="6.4830010524019599e-04" rms="4.5066902041435242e-01" purity="5.5562996864318848e-01" nType="-99"/>
        </Node>
      </Node>
    </BinaryTree>
    <BinaryTree type="DecisionTree" boostWeight="1.0000000000000000e+00" itree="367">
      <Node pos="s" depth="0" NCoef="0" IVar="7" Cut="1.4685295522212982e-01" cType="1" res="4.6796309761703014e-03" rms="4.4840261340141296e-01" purity="5.0356405973434448e-01" nType="0">
        <Node pos="l" depth="1" NCoef="0" IVar="5" Cut="1.1020046386718750e+03" cType="1" res="-2.0415664184838533e-03" rms="4.4854494929313660e-01" purity="4.8130297660827637e-01" nType="0">
          <Node pos="l" depth="2" NCoef="0" IVar="-1" Cut="0.0000000000000000e+00" cType="1" res="-3.4655342460609972e-04" rms="4.4772386550903320e-01" purity="4.6548396348953247e-01" nType="-99"/>
          <Node pos="r" depth="2" NCoef="0" IVar="-1" Cut="0.0000000000000000e+00" cType="1" res="1.6302358126267791e-03" rms="4.5275762677192688e-01" purity="5.9657984972000122e-01" nType="-99"/>
        </Node>
        <Node pos="r" depth="1" NCoef="0" IVar="8" Cut="1.8540077209472656e+00" cType="1" res="3.1023316085338593e-02" rms="4.4687062501907349e-01" purity="5.9081614017486572e-01" nType="0">
          <Node pos="l" depth="2" NCoef="0" IVar="-1" Cut="0.0000000000000000e+00" cType="1" res="2.6355264708399773e-03" rms="4.3262502551078796e-01" purity="6.5750932693481445e-01" nType="-99"/>
          <Node pos="r" depth="2" NCoef="0" IVar="-1" Cut="0.0000000000000000e+00" cType="1" res="1.0933518642559648e-03" rms="4.5126935839653015e-01" purity="5.6837439537048340e-01" nType="-99"/>
        </Node>
      </Node>
    </BinaryTree>
    <BinaryTree type="DecisionTree" boostWeight="1.0000000000000000e+00" itree="368">
      <Node pos="s" depth="0" NCoef="0" IVar="1" Cut="1.5340507030487061e+00" cType="1" res="8.5042905993759632e-04" rms="4.4870302081108093e-01" purity="5.0130623579025269e-01" nType="0">
        <Node pos="l" depth="1" NCoef="0" IVar="2" Cut="7.9568344354629517e-01" cType="1" res="5.7999887503683567e-03" rms="4.5294257998466492e-01" purity="5.3643500804901123e-01" nType="0">
          <Node pos="l" depth="2" NCoef="0" IVar="-1" Cut="0.0000000000000000e+00" cType="1" res="-7.1061338530853391e-04" rms="4.5138114690780640e-01" purity="3.6328214406967163e-01" nType="-99"/>
          <Node pos="r" depth="2" NCoef="0" IVar="-1" Cut="0.0000000000000000e+00" cType="1" res="5.3568457951769233e-04" rms="4.5320689678192139e-01" purity="5.8362764120101929e-01" nType="-99"/>
        </Node>
        <Node pos="r" depth="1" NCoef="0" IVar="1" Cut="1.7516546249389648e+00" cType="1" res="-2.8212625533342361e-02" rms="4.2178243398666382e-01" purity="2.9503530263900757e-01" nType="0">
          <Node pos="l" depth="2" NCoef="0" IVar="-1" Cut="0.0000000000000000e+00" cType="1" res="-8.2450924674049020e-04" rms="4.3449258804321289e-01" purity="3.2589709758758545e-01" nType="-99"/>
          <Node pos="r" depth="2" NCoef="0" IVar="-1" Cut="0.0000000000000000e+00" cType="1" res="-2.8375347610563040e-03" rms="3.9710009098052979e-01" purity="2.3985995352268219e-01" nType="-99"/>
        </Node>
      </Node>
    </BinaryTree>
    <BinaryTree type="DecisionTree" boostWeight="1.0000000000000000e+00" itree="369">
      <Node pos="s" depth="0" NCoef="0" IVar="5" Cut="1.0812496337890625e+03" cType="1" res="-5.4384605027735233e-04" rms="4.4778829813003540e-01" purity="4.9987557530403137e-01" nType="0">
        <Node pos="l" depth="1" NCoef="0" IVar="7" Cut="7.7990867197513580e-02" cType="1" res="-5.3698597475886345e-03" rms="4.4689759612083435e-01" purity="4.8534002900123596e-01" nType="0">
          <Node pos="l" depth="2" NCoef="0" IVar="-1" Cut="0.0000000000000000e+00" cType="1" res="-1.1350752320140600e-03" rms="4.4333180785179138e-01" purity="4.2216733098030090e-01" nType="-99"/>
          <Node pos="r" depth="2" NCoef="0" IVar="-1" Cut="0.0000000000000000e+00" cType="1" res="4.4988084118813276e-04" rms="4.4930490851402283e-01" purity="5.3783339262008667e-01" nType="-99"/>
        </Node>
        <Node pos="r" depth="1" NCoef="0" IVar="6" Cut="8.5311675071716309e-01" cType="1" res="3.6550790071487427e-02" rms="4.5286279916763306e-01" purity="6.1160176992416382e-01" nType="0">
          <Node pos="l" depth="2" NCoef="0" IVar="-1" Cut="0.0000000000000000e+00" cType="1" res="2.6145116426050663e-03" rms="4.3695071339607239e-01" purity="6.9683873653411865e-01" nType="-99"/>
          <Node pos="r" depth="2" NCoef="0" IVar="-1" Cut="0.0000000000000000e+00" cType="1" res="7.9705531243234873e-04" rms="4.6767282485961914e-01" purity="5.2511894702911377e-01" nType="-99"/>
        </Node>
      </Node>
    </BinaryTree>
    <BinaryTree type="DecisionTree" boostWeight="1.0000000000000000e+00" itree="370">
      <Node pos="s" depth="0" NCoef="0" IVar="5" Cut="6.9438989257812500e+02" cType="1" res="-2.8065450023859739e-03" rms="4.4832220673561096e-01" purity="4.9745488166809082e-01" nType="0">
        <Node pos="l" depth="1" NCoef="0" IVar="7" Cut="1.4844803512096405e-01" cType="1" res="-1.4929607510566711e-02" rms="4.4408205151557922e-01" purity="4.4630303978919983e-01" nType="0">
          <Node pos="l" depth="2" NCoef="0" IVar="-1" Cut="0.0000000000000000e+00" cType="1" res="-1.2568876845762134e-03" rms="4.4131836295127869e-01" purity="4.0854847431182861e-01" nType="-99"/>
          <Node pos="r" depth="2" NCoef="0" IVar="-1" Cut="0.0000000000000000e+00" cType="1" res="6.4691249281167984e-04" rms="4.5033872127532959e-01" purity="5.4977309703826904e-01" nType="-99"/>
        </Node>
        <Node pos="r" depth="1" NCoef="0" IVar="8" Cut="1.6510460376739502e+00" cType="1" res="1.0814379900693893e-02" rms="4.5265173912048340e-01" purity="5.5492681264877319e-01" nType="0">
          <Node pos="l" depth="2" NCoef="0" IVar="-1" Cut="0.0000000000000000e+00" cType="1" res="2.2725586313754320e-03" rms="4.3639743328094482e-01" purity="6.6018128395080566e-01" nType="-99"/>
          <Node pos="r" depth="2" NCoef="0" IVar="-1" Cut="0.0000000000000000e+00" cType="1" res="1.5880356659181416e-04" rms="4.5546692609786987e-01" purity="5.3387480974197388e-01" nType="-99"/>
        </Node>
      </Node>
    </BinaryTree>
    <BinaryTree type="DecisionTree" boostWeight="1.0000000000000000e+00" itree="371">
      <Node pos="s" depth="0" NCoef="0" IVar="4" Cut="5.3019481897354126e-01" cType="1" res="-8.5773472164873965e-06" rms="4.4688087701797485e-01" purity="4.9832275509834290e-01" nType="0">
        <Node pos="l" depth="1" NCoef="0" IVar="7" Cut="7.7284023165702820e-02" cType="1" res="-3.4116465598344803e-02" rms="4.2563512921333313e-01" purity="3.0416899919509888e-01" nType="0">
          <Node pos="l" depth="2" NCoef="0" IVar="-1" Cut="0.0000000000000000e+00" cType="1" res="-2.7902750298380852e-03" rms="4.0968257188796997e-01" purity="2.6166683435440063e-01" nType="-99"/>
          <Node pos="r" depth="2" NCoef="0" IVar="-1" Cut="0.0000000000000000e+00" cType="1" res="-7.9884304432198405e-04" rms="4.4019326567649841e-01" purity="3.4643080830574036e-01" nType="-99"/>
        </Node>
        <Node pos="r" depth="1" NCoef="0" IVar="3" Cut="1.2922832965850830e+00" cType="1" res="4.8300367780029774e-03" rms="4.4960406422615051e-01" purity="5.2586579322814941e-01" nType="0">
          <Node pos="l" depth="2" NCoef="0" IVar="-1" Cut="0.0000000000000000e+00" cType="1" res="6.6761660855263472e-04" rms="4.4973385334014893e-01" purity="5.8121740818023682e-01" nType="-99"/>
          <Node pos="r" depth="2" NCoef="0" IVar="-1" Cut="0.0000000000000000e+00" cType="1" res="-5.6032661814242601e-04" rms="4.4890680909156799e-01" purity="4.2739284038543701e-01" nType="-99"/>
        </Node>
      </Node>
    </BinaryTree>
    <BinaryTree type="DecisionTree" boostWeight="1.0000000000000000e+00" itree="372">
      <Node pos="s" depth="0" NCoef="0" IVar="8" Cut="2.0319726467132568e+00" cType="1" res="1.9167402060702443e-03" rms="4.4791862368583679e-01" purity="5.0181674957275391e-01" nType="0">
        <Node pos="l" depth="1" NCoef="0" IVar="5" Cut="6.8232287597656250e+02" cType="1" res="2.0082660019397736e-02" rms="4.4682443141937256e-01" purity="5.8419448137283325e-01" nType="0">
          <Node pos="l" depth="2" NCoef="0" IVar="-1" Cut="0.0000000000000000e+00" cType="1" res="4.2357900383649394e-05" rms="4.5259711146354675e-01" purity="5.2375936508178711e-01" nType="-99"/>
          <Node pos="r" depth="2" NCoef="0" IVar="-1" Cut="0.0000000000000000e+00" cType="1" res="1.7415611073374748e-03" rms="4.4096750020980835e-01" purity="6.3758707046508789e-01" nType="-99"/>
        </Node>
        <Node pos="r" depth="1" NCoef="0" IVar="0" Cut="3.6678448319435120e-01" cType="1" res="-6.5118633210659027e-03" rms="4.4817540049552917e-01" purity="4.6359527111053467e-01" nType="0">
          <Node pos="l" depth="2" NCoef="0" IVar="-1" Cut="0.0000000000000000e+00" cType="1" res="-5.6074169697239995e-04" rms="4.4878402352333069e-01" purity="4.3326488137245178e-01" nType="-99"/>
          <Node pos="r" depth="2" NCoef="0" IVar="-1" Cut="0.0000000000000000e+00" cType="1" res="1.2998448219150305e-03" rms="4.4267174601554871e-01" purity="6.6514605283737183e-01" nType="-99"/>
        </Node>
      </Node>
    </BinaryTree>
    <BinaryTree type="DecisionTree" boostWeight="1.0000000000000000e+00" itree="373">
      <Node pos="s" depth="0" NCoef="0" IVar="6" Cut="1.9709955453872681e+00" cType="1" res="-2.4657438043504953e-03" rms="4.4781914353370667e-01" purity="4.9759602546691895e-01" nType="0">
        <Node pos="l" depth="1" NCoef="0" IVar="2" Cut="6.5273553133010864e-01" cType="1" res="4.2608083458617330e-04" rms="4.5203876495361328e-01" purity="5.1709979772567749e-01" nType="0">
          <Node pos="l" depth="2" NCoef="0" IVar="-1" Cut="0.0000000000000000e+00" cType="1" res="-2.0200388971716166e-03" rms="4.2648884654045105e-01" purity="2.8472113609313965e-01" nType="-99"/>
          <Node pos="r" depth="2" NCoef="0" IVar="-1" Cut="0.0000000000000000e+00" cType="1" res="1.5888331108726561e-04" rms="4.5374402403831482e-01" purity="5.3437387943267822e-01" nType="-99"/>
        </Node>
        <Node pos="r" depth="1" NCoef="0" IVar="-1" Cut="0.0000000000000000e+00" cType="1" res="-2.9791234992444515e-03" rms="3.7187990546226501e-01" purity="1.8927322328090668e-01" nType="-99"/>
      </Node>
    </BinaryTree>
    <BinaryTree type="DecisionTree" boostWeight="1.0000000000000000e+00" itree="374">
      <Node pos="s" depth="0" NCoef="0" IVar="5" Cut="5.7343566894531250e+02" cType="1" res="-4.4736894778907299e-03" rms="4.4775614142417908e-01" purity="4.9650409817695618e-01" nType="0">
        <Node pos="l" depth="1" NCoef="0" IVar="5" Cut="4.3854565429687500e+02" cType="1" res="-2.4881944060325623e-02" rms="4.3797066807746887e-01" purity="4.0904867649078369e-01" nType="0">
          <Node pos="l" depth="2" NCoef="0" IVar="-1" Cut="0.0000000000000000e+00" cType="1" res="-3.5425808746367693e-03" rms="4.1677862405776978e-01" purity="3.2342958450317383e-01" nType="-99"/>
          <Node pos="r" depth="2" NCoef="0" IVar="-1" Cut="0.0000000000000000e+00" cType="1" res="-6.9255585549399257e-04" rms="4.4246020913124084e-01" purity="4.3052721023559570e-01" nType="-99"/>
        </Node>
        <Node pos="r" depth="1" NCoef="0" IVar="8" Cut="1.7595900297164917e+00" cType="1" res="4.1845608502626419e-03" rms="4.5156505703926086e-01" purity="5.3360724449157715e-01" nType="0">
          <Node pos="l" depth="2" NCoef="0" IVar="-1" Cut="0.0000000000000000e+00" cType="1" res="1.7269506352022290e-03" rms="4.4034290313720703e-01" purity="6.3653415441513062e-01" nType="-99"/>
          <Node pos="r" depth="2" NCoef="0" IVar="-1" Cut="0.0000000000000000e+00" cType="1" res="-1.6579779912717640e-04" rms="4.5386201143264771e-01" purity="5.0908648967742920e-01" nType="-99"/>
        </Node>
      </Node>
    </BinaryTree>
    <BinaryTree type="DecisionTree" boostWeight="1.0000000000000000e+00" itree="375">
      <Node pos="s" depth="0" NCoef="0" IVar="5" Cut="6.8778460693359375e+02" cType="1" res="-1.1065652361139655e-03" rms="4.4741818308830261e-01" purity="5.0041109323501587e-01" nType="0">
        <Node pos="l" depth="1" NCoef="0" IVar="7" Cut="9.4494670629501343e-02" cType="1" res="-1.2331188656389713e-02" rms="4.4258201122283936e-01" purity="4.4735759496688843e-01" nType="0">
          <Node pos="l" depth="2" NCoef="0" IVar="-1" Cut="0.0000000000000000e+00" cType="1" res="-1.4757954049855471e-03" rms="4.3516266345977783e-01" purity="3.7856057286262512e-01" nType="-99"/>
          <Node pos="r" depth="2" NCoef="0" IVar="-1" Cut="0.0000000000000000e+00" cType="1" res="1.6061581845860928e-04" rms="4.4875180721282959e-01" purity="5.1084953546524048e-01" nType="-99"/>
        </Node>
        <Node pos="r" depth="1" NCoef="0" IVar="8" Cut="2.1393132209777832e+00" cType="1" res="1.0933892801403999e-02" rms="4.5223876833915710e-01" purity="5.5732059478759766e-01" nType="0">
          <Node pos="l" depth="2" NCoef="0" IVar="-1" Cut="0.0000000000000000e+00" cType="1" res="1.5206775860860944e-03" rms="4.4611194729804993e-01" purity="6.3539272546768188e-01" nType="-99"/>
          <Node pos="r" depth="2" NCoef="0" IVar="-1" Cut="0.0000000000000000e+00" cType="1" res="-3.2550754258409142e-04" rms="4.5653289556503296e-01" purity="4.9210959672927856e-01" nType="-99"/>
        </Node>
      </Node>
    </BinaryTree>
    <BinaryTree type="DecisionTree" boostWeight="1.0000000000000000e+00" itree="376">
      <Node pos="s" depth="0" NCoef="0" IVar="4" Cut="5.5421549081802368e-01" cType="1" res="2.9681476298719645e-03" rms="4.4758337736129761e-01" purity="5.0342905521392822e-01" nType="0">
        <Node pos="l" depth="1" NCoef="0" IVar="3" Cut="1.0534958839416504e+00" cType="1" res="-2.6094147935509682e-02" rms="4.3223944306373596e-01" purity="3.1493216753005981e-01" nType="0">
          <Node pos="l" depth="2" NCoef="0" IVar="-1" Cut="0.0000000000000000e+00" cType="1" res="-2.8414427652023733e-04" rms="4.5654761791229248e-01" purity="3.8242331147193909e-01" nType="-99"/>
          <Node pos="r" depth="2" NCoef="0" IVar="-1" Cut="0.0000000000000000e+00" cType="1" res="-2.5879759341478348e-03" rms="4.0489405393600464e-01" purity="2.4603193998336792e-01" nType="-99"/>
        </Node>
        <Node pos="r" depth="1" NCoef="0" IVar="0" Cut="4.0921753644943237e-01" cType="1" res="9.9759167060256004e-03" rms="4.5092499256134033e-01" purity="5.4888111352920532e-01" nType="0">
          <Node pos="l" depth="2" NCoef="0" IVar="-1" Cut="0.0000000000000000e+00" cType="1" res="2.6022241218015552e-04" rms="4.5464655756950378e-01" purity="5.2863103151321411e-01" nType="-99"/>
          <Node pos="r" depth="2" NCoef="0" IVar="-1" Cut="0.0000000000000000e+00" cType="1" res="2.7535832487046719e-03" rms="4.0982717275619507e-01" purity="7.4859458208084106e-01" nType="-99"/>
        </Node>
      </Node>
    </BinaryTree>
    <BinaryTree type="DecisionTree" boostWeight="1.0000000000000000e+00" itree="377">
      <Node pos="s" depth="0" NCoef="0" IVar="0" Cut="4.1447293013334274e-02" cType="1" res="-7.0034177042543888e-04" rms="4.4688755273818970e-01" purity="4.9912521243095398e-01" nType="0">
        <Node pos="l" depth="1" NCoef="0" IVar="4" Cut="6.7436611652374268e-01" cType="1" res="-4.4723652303218842e-02" rms="4.2948091030120850e-01" purity="3.4788584709167480e-01" nType="0">
          <Node pos="l" depth="2" NCoef="0" IVar="-1" Cut="0.0000000000000000e+00" cType="1" res="-3.3697581384330988e-03" rms="3.9109188318252563e-01" purity="2.0568463206291199e-01" nType="-99"/>
          <Node pos="r" depth="2" NCoef="0" IVar="-1" Cut="0.0000000000000000e+00" cType="1" res="-1.3405540958046913e-03" rms="4.6362888813018799e-01" purity="4.8759227991104126e-01" nType="-99"/>
        </Node>
        <Node pos="r" depth="1" NCoef="0" IVar="8" Cut="2.8023583889007568e+00" cType="1" res="5.1457965746521950e-03" rms="4.4882369041442871e-01" purity="5.1920926570892334e-01" nType="0">
          <Node pos="l" depth="2" NCoef="0" IVar="-1" Cut="0.0000000000000000e+00" cType="1" res="4.4531401363201439e-04" rms="4.5322892069816589e-01" purity="5.4518818855285645e-01" nType="-99"/>
          <Node pos="r" depth="2" NCoef="0" IVar="-1" Cut="0.0000000000000000e+00" cType="1" res="-2.3749500978738070e-03" rms="3.9401212334632874e-01" purity="2.3281869292259216e-01" nType="-99"/>
        </Node>
      </Node>
    </BinaryTree>
    <BinaryTree type="DecisionTree" boostWeight="1.0000000000000000e+00" itree="378">
      <Node pos="s" depth="0" NCoef="0" IVar="2" Cut="6.6334670782089233e-01" cType="1" res="5.0700590945780277e-03" rms="4.4719305634498596e-01" purity="5.0559389591217041e-01" nType="0">
        <Node pos="l" depth="1" NCoef="0" IVar="-1" Cut="0.0000000000000000e+00" cType="1" res="-2.4233877193182707e-03" rms="4.1437506675720215e-01" purity="2.6299092173576355e-01" nType="-99"/>
        <Node pos="r" depth="1" NCoef="0" IVar="1" Cut="1.7033411264419556e+00" cType="1" res="9.5918700098991394e-03" rms="4.4976678490638733e-01" purity="5.2751815319061279e-01" nType="0">
          <Node pos="l" depth="2" NCoef="0" IVar="-1" Cut="0.0000000000000000e+00" cType="1" res="6.0918828239664435e-04" rms="4.5200529694557190e-01" purity="5.4577851295471191e-01" nType="-99"/>
          <Node pos="r" depth="2" NCoef="0" IVar="-1" Cut="0.0000000000000000e+00" cType="1" res="-2.0141035784035921e-03" rms="4.1362181305885315e-01" purity="2.6585465669631958e-01" nType="-99"/>
        </Node>
      </Node>
    </BinaryTree>
    <BinaryTree type="DecisionTree" boostWeight="1.0000000000000000e+00" itree="379">
      <Node pos="s" depth="0" NCoef="0" IVar="0" Cut="4.3750938773155212e-01" cType="1" res="-1.5668453415855765e-03" rms="4.4785225391387939e-01" purity="4.9814623594284058e-01" nType="0">
        <Node pos="l" depth="1" NCoef="0" IVar="6" Cut="8.2919311523437500e-01" cType="1" res="-4.9899602308869362e-03" rms="4.4994089007377625e-01" purity="4.8313835263252258e-01" nType="0">
          <Node pos="l" depth="2" NCoef="0" IVar="-1" Cut="0.0000000000000000e+00" cType="1" res="4.6584577648900449e-04" rms="4.5428210496902466e-01" purity="5.8722251653671265e-01" nType="-99"/>
          <Node pos="r" depth="2" NCoef="0" IVar="-1" Cut="0.0000000000000000e+00" cType="1" res="-7.6042138971388340e-04" rms="4.4654697179794312e-01" purity="4.0953838825225830e-01" nType="-99"/>
        </Node>
        <Node pos="r" depth="1" NCoef="0" IVar="-1" Cut="0.0000000000000000e+00" cType="1" res="2.6424764655530453e-03" rms="4.0984171628952026e-01" purity="7.3436319828033447e-01" nType="-99"/>
      </Node>
    </BinaryTree>
    <BinaryTree type="DecisionTree" boostWeight="1.0000000000000000e+00" itree="380">
      <Node pos="s" depth="0" NCoef="0" IVar="4" Cut="5.1816064119338989e-01" cType="1" res="2.9057892970740795e-04" rms="4.4701892137527466e-01" purity="4.9903818964958191e-01" nType="0">
        <Node pos="l" depth="1" NCoef="0" IVar="-1" Cut="0.0000000000000000e+00" cType="1" res="-2.2612796165049076e-03" rms="4.2938008904457092e-01" purity="2.9128968715667725e-01" nType="-99"/>
        <Node pos="r" depth="1" NCoef="0" IVar="0" Cut="3.2433295249938965e-01" cType="1" res="4.3496363796293736e-03" rms="4.4839018583297729e-01" purity="5.1816529035568237e-01" nType="0">
          <Node pos="l" depth="2" NCoef="0" IVar="-1" Cut="0.0000000000000000e+00" cType="1" res="-7.1461545303463936e-05" rms="4.5329517126083374e-01" purity="4.7706907987594604e-01" nType="-99"/>
          <Node pos="r" depth="2" NCoef="0" IVar="-1" Cut="0.0000000000000000e+00" cType="1" res="1.5092368703335524e-03" rms="4.2523348331451416e-01" purity="6.9861698150634766e-01" nType="-99"/>
        </Node>
      </Node>
    </BinaryTree>
    <BinaryTree type="DecisionTree" boostWeight="1.0000000000000000e+00" itree="381">
      <Node pos="s" depth="0" NCoef="0" IVar="2" Cut="8.1972545385360718e-01" cType="1" res="1.0930424323305488e-03" rms="4.4866862893104553e-01" purity="5.0214135646820068e-01" nType="0">
        <Node pos="l" depth="1" NCoef="0" IVar="5" Cut="9.4645947265625000e+02" cType="1" res="-2.0045094192028046e-02" rms="4.3982607126235962e-01" purity="3.4082001447677612e-01" nType="0">
          <Node pos="l" depth="2" NCoef="0" IVar="-1" Cut="0.0000000000000000e+00" cType="1" res="-1.4689585659652948e-03" rms="4.3192028999328613e-01" purity="3.1086030602455139e-01" nType="-99"/>
          <Node pos="r" depth="2" NCoef="0" IVar="-1" Cut="0.0000000000000000e+00" cType="1" res="5.8516568969935179e-04" rms="4.6818819642066956e-01" purity="4.5870363712310791e-01" nType="-99"/>
        </Node>
        <Node pos="r" depth="1" NCoef="0" IVar="5" Cut="5.0936434936523438e+02" cType="1" res="8.4272660315036774e-03" rms="4.5146507024765015e-01" purity="5.5811440944671631e-01" nType="0">
          <Node pos="l" depth="2" NCoef="0" IVar="-1" Cut="0.0000000000000000e+00" cType="1" res="-7.9183053458109498e-04" rms="4.4677397608757019e-01" purity="4.4365599751472473e-01" nType="-99"/>
          <Node pos="r" depth="2" NCoef="0" IVar="-1" Cut="0.0000000000000000e+00" cType="1" res="6.4090546220541000e-04" rms="4.5224702358245850e-01" purity="5.8138614892959595e-01" nType="-99"/>
        </Node>
      </Node>
    </BinaryTree>
    <BinaryTree type="DecisionTree" boostWeight="1.0000000000000000e+00" itree="382">
      <Node pos="s" depth="0" NCoef="0" IVar="5" Cut="5.5554534912109375e+02" cType="1" res="-7.7248789602890611e-04" rms="4.4877344369888306e-01" purity="4.9741894006729126e-01" nType="0">
        <Node pos="l" depth="1" NCoef="0" IVar="7" Cut="1.7762829363346100e-01" cType="1" res="-2.1661940962076187e-02" rms="4.3953594565391541e-01" purity="4.0406733751296997e-01" nType="0">
          <Node pos="l" depth="2" NCoef="0" IVar="-1" Cut="0.0000000000000000e+00" cType="1" res="-1.5198157634586096e-03" rms="4.3415856361389160e-01" purity="3.7415769696235657e-01" nType="-99"/>
          <Node pos="r" depth="2" NCoef="0" IVar="-1" Cut="0.0000000000000000e+00" cType="1" res="5.2004080498591065e-04" rms="4.5903846621513367e-01" purity="5.2411031723022461e-01" nType="-99"/>
        </Node>
        <Node pos="r" depth="1" NCoef="0" IVar="7" Cut="7.3599100112915039e-02" cType="1" res="6.5130162984132767e-03" rms="4.5172360539436340e-01" purity="5.2997672557830811e-01" nType="0">
          <Node pos="l" depth="2" NCoef="0" IVar="-1" Cut="0.0000000000000000e+00" cType="1" res="-2.4218839826062322e-04" rms="4.5213824510574341e-01" purity="4.7730356454849243e-01" nType="-99"/>
          <Node pos="r" depth="2" NCoef="0" IVar="-1" Cut="0.0000000000000000e+00" cType="1" res="8.7470741709694266e-04" rms="4.5099130272865295e-01" purity="5.8388257026672363e-01" nType="-99"/>
        </Node>
      </Node>
    </BinaryTree>
    <BinaryTree type="DecisionTree" boostWeight="1.0000000000000000e+00" itree="383">
      <Node pos="s" depth="0" NCoef="0" IVar="4" Cut="9.6300446987152100e-01" cType="1" res="2.7641165070235729e-03" rms="4.5007064938545227e-01" purity="5.0190174579620361e-01" nType="0">
        <Node pos="l" depth="1" NCoef="0" IVar="1" Cut="6.9926375150680542e-01" cType="1" res="-5.3197913803160191e-04" rms="4.5302468538284302e-01" purity="4.8369732499122620e-01" nType="0">
          <Node pos="l" depth="2" NCoef="0" IVar="-1" Cut="0.0000000000000000e+00" cType="1" res="1.5361428959295154e-03" rms="4.4586005806922913e-01" purity="6.5533584356307983e-01" nType="-99"/>
          <Node pos="r" depth="2" NCoef="0" IVar="-1" Cut="0.0000000000000000e+00" cType="1" res="-2.3407395929098129e-04" rms="4.5378521084785461e-01" purity="4.6103036403656006e-01" nType="-99"/>
        </Node>
        <Node pos="r" depth="1" NCoef="0" IVar="-1" Cut="0.0000000000000000e+00" cType="1" res="2.7211774140596390e-03" rms="4.0004605054855347e-01" purity="7.7437883615493774e-01" nType="-99"/>
      </Node>
    </BinaryTree>
    <BinaryTree type="DecisionTree" boostWeight="1.0000000000000000e+00" itree="384">
      <Node pos="s" depth="0" NCoef="0" IVar="5" Cut="5.5165747070312500e+02" cType="1" res="-1.1206540511921048e-03" rms="4.4658076763153076e-01" purity="4.9827614426612854e-01" nType="0">
        <Node pos="l" depth="1" NCoef="0" IVar="7" Cut="1.5130521357059479e-01" cType="1" res="-2.4523317813873291e-02" rms="4.3595355749130249e-01" purity="3.9771431684494019e-01" nType="0">
          <Node pos="l" depth="2" NCoef="0" IVar="-1" Cut="0.0000000000000000e+00" cType="1" res="-2.0359556656330824e-03" rms="4.2915987968444824e-01" purity="3.5103499889373779e-01" nType="-99"/>
          <Node pos="r" depth="2" NCoef="0" IVar="-1" Cut="0.0000000000000000e+00" cType="1" res="5.7993229711428285e-04" rms="4.4998207688331604e-01" purity="5.1147329807281494e-01" nType="-99"/>
        </Node>
        <Node pos="r" depth="1" NCoef="0" IVar="7" Cut="1.2523443996906281e-01" cType="1" res="6.8817739374935627e-03" rms="4.4987791776657104e-01" purity="5.3266268968582153e-01" nType="0">
          <Node pos="l" depth="2" NCoef="0" IVar="-1" Cut="0.0000000000000000e+00" cType="1" res="-1.8586359146866016e-05" rms="4.5159342885017395e-01" purity="5.0491809844970703e-01" nType="-99"/>
          <Node pos="r" depth="2" NCoef="0" IVar="-1" Cut="0.0000000000000000e+00" cType="1" res="1.4782254584133625e-03" rms="4.4336274266242981e-01" purity="6.2373715639114380e-01" nType="-99"/>
        </Node>
      </Node>
    </BinaryTree>
    <BinaryTree type="DecisionTree" boostWeight="1.0000000000000000e+00" itree="385">
      <Node pos="s" depth="0" NCoef="0" IVar="7" Cut="7.4187867343425751e-02" cType="1" res="-3.4289020113646984e-03" rms="4.4616603851318359e-01" purity="4.9623739719390869e-01" nType="0">
        <Node pos="l" depth="1" NCoef="0" IVar="5" Cut="7.3792565917968750e+02" cType="1" res="-1.9406583160161972e-02" rms="4.4466400146484375e-01" purity="4.4138294458389282e-01" nType="0">
          <Node pos="l" depth="2" NCoef="0" IVar="-1" Cut="0.0000000000000000e+00" cType="1" res="-1.6904211370274425e-03" rms="4.3289747834205627e-01" purity="3.6696499586105347e-01" nType="-99"/>
          <Node pos="r" depth="2" NCoef="0" IVar="-1" Cut="0.0000000000000000e+00" cType="1" res="-3.2342117629013956e-04" rms="4.5472493767738342e-01" purity="5.0899142026901245e-01" nType="-99"/>
        </Node>
        <Node pos="r" depth="1" NCoef="0" IVar="2" Cut="8.2027733325958252e-01" cType="1" res="9.9599696695804596e-03" rms="4.4698122143745422e-01" purity="5.4220396280288696e-01" nType="0">
          <Node pos="l" depth="2" NCoef="0" IVar="-1" Cut="0.0000000000000000e+00" cType="1" res="-7.5196078978478909e-04" rms="4.4472301006317139e-01" purity="3.6386483907699585e-01" nType="-99"/>
          <Node pos="r" depth="2" NCoef="0" IVar="-1" Cut="0.0000000000000000e+00" cType="1" res="8.6769810877740383e-04" rms="4.4740161299705505e-01" purity="5.9977179765701294e-01" nType="-99"/>
        </Node>
      </Node>
    </BinaryTree>
    <BinaryTree type="DecisionTree" boostWeight="1.0000000000000000e+00" itree="386">
      <Node pos="s" depth="0" NCoef="0" IVar="5" Cut="5.6049353027343750e+02" cType="1" res="1.5937440330162644e-03" rms="4.4967094063758850e-01" purity="5.0075340270996094e-01" nType="0">
        <Node pos="l" depth="1" NCoef="0" IVar="0" Cut="5.5545743554830551e-02" cType="1" res="-1.7429903149604797e-02" rms="4.4015195965766907e-01" purity="4.0967485308647156e-01" nType="0">
          <Node pos="l" depth="2" NCoef="0" IVar="-1" Cut="0.0000000000000000e+00" cType="1" res="-2.5201044045388699e-03" rms="4.1399943828582764e-01" purity="2.8686982393264771e-01" nType="-99"/>
          <Node pos="r" depth="2" NCoef="0" IVar="-1" Cut="0.0000000000000000e+00" cType="1" res="-3.8783988566137850e-04" rms="4.4789150357246399e-01" purity="4.4951087236404419e-01" nType="-99"/>
        </Node>
        <Node pos="r" depth="1" NCoef="0" IVar="8" Cut="1.5239728689193726e+00" cType="1" res="8.6954655125737190e-03" rms="4.5296847820281982e-01" purity="5.3475403785705566e-01" nType="0">
          <Node pos="l" depth="2" NCoef="0" IVar="-1" Cut="0.0000000000000000e+00" cType="1" res="2.1100146695971489e-03" rms="4.4328054785728455e-01" purity="6.4941942691802979e-01" nType="-99"/>
          <Node pos="r" depth="2" NCoef="0" IVar="-1" Cut="0.0000000000000000e+00" cType="1" res="2.0358999609015882e-04" rms="4.5395508408546448e-01" purity="5.2058202028274536e-01" nType="-99"/>
        </Node>
      </Node>
    </BinaryTree>
    <BinaryTree type="DecisionTree" boostWeight="1.0000000000000000e+00" itree="387">
      <Node pos="s" depth="0" NCoef="0" IVar="0" Cut="5.5594824254512787e-02" cType="1" res="2.1271239966154099e-03" rms="4.4769501686096191e-01" purity="5.0204956531524658e-01" nType="0">
        <Node pos="l" depth="1" NCoef="0" IVar="7" Cut="1.2288042157888412e-01" cType="1" res="-2.0115066319704056e-02" rms="4.4036471843719482e-01" purity="3.6576634645462036e-01" nType="0">
          <Node pos="l" depth="2" NCoef="0" IVar="-1" Cut="0.0000000000000000e+00" cType="1" res="-1.5870963688939810e-03" rms="4.3457940220832825e-01" purity="3.3275994658470154e-01" nType="-99"/>
          <Node pos="r" depth="2" NCoef="0" IVar="-1" Cut="0.0000000000000000e+00" cType="1" res="2.0616376423276961e-04" rms="4.5214736461639404e-01" purity="4.3996146321296692e-01" nType="-99"/>
        </Node>
        <Node pos="r" depth="1" NCoef="0" IVar="5" Cut="1.0774411621093750e+03" cType="1" res="7.4728145264089108e-03" rms="4.4927486777305603e-01" purity="5.3480386734008789e-01" nType="0">
          <Node pos="l" depth="2" NCoef="0" IVar="-1" Cut="0.0000000000000000e+00" cType="1" res="1.3591181777883321e-04" rms="4.4874367117881775e-01" purity="5.2119213342666626e-01" nType="-99"/>
          <Node pos="r" depth="2" NCoef="0" IVar="-1" Cut="0.0000000000000000e+00" cType="1" res="1.8690596334636211e-03" rms="4.5161586999893188e-01" purity="6.2852323055267334e-01" nType="-99"/>
        </Node>
      </Node>
    </BinaryTree>
    <BinaryTree type="DecisionTree" boostWeight="1.0000000000000000e+00" itree="388">
      <Node pos="s" depth="0" NCoef="0" IVar="4" Cut="5.1817125082015991e-01" cType="1" res="-5.3608394227921963e-04" rms="4.4955238699913025e-01" purity="4.9954256415367126e-01" nType="0">
        <Node pos="l" depth="1" NCoef="0" IVar="-1" Cut="0.0000000000000000e+00" cType="1" res="-1.9533094018697739e-03" rms="4.3118935823440552e-01" purity="3.0056938529014587e-01" nType="-99"/>
        <Node pos="r" depth="1" NCoef="0" IVar="7" Cut="2.1823218092322350e-02" cType="1" res="2.8227984439581633e-03" rms="4.5100989937782288e-01" purity="5.1737815141677856e-01" nType="0">
          <Node pos="l" depth="2" NCoef="0" IVar="-1" Cut="0.0000000000000000e+00" cType="1" res="-1.7398868221789598e-03" rms="4.4530367851257324e-01" purity="4.2620906233787537e-01" nType="-99"/>
          <Node pos="r" depth="2" NCoef="0" IVar="-1" Cut="0.0000000000000000e+00" cType="1" res="2.8278786339797080e-04" rms="4.5131814479827881e-01" purity="5.2461725473403931e-01" nType="-99"/>
        </Node>
      </Node>
    </BinaryTree>
    <BinaryTree type="DecisionTree" boostWeight="1.0000000000000000e+00" itree="389">
      <Node pos="s" depth="0" NCoef="0" IVar="2" Cut="6.5162456035614014e-01" cType="1" res="8.6819619173184037e-04" rms="4.4797149300575256e-01" purity="4.9994555115699768e-01" nType="0">
        <Node pos="l" depth="1" NCoef="0" IVar="-1" Cut="0.0000000000000000e+00" cType="1" res="-2.2443057969212532e-03" rms="4.1339483857154846e-01" purity="2.6581135392189026e-01" nType="-99"/>
        <Node pos="r" depth="1" NCoef="0" IVar="5" Cut="5.0492755126953125e+02" cType="1" res="4.1899844072759151e-03" rms="4.5038217306137085e-01" purity="5.1817142963409424e-01" nType="0">
          <Node pos="l" depth="2" NCoef="0" IVar="-1" Cut="0.0000000000000000e+00" cType="1" res="-1.0502893710508943e-03" rms="4.3903893232345581e-01" purity="4.0093740820884705e-01" nType="-99"/>
          <Node pos="r" depth="2" NCoef="0" IVar="-1" Cut="0.0000000000000000e+00" cType="1" res="4.3234848999418318e-04" rms="4.5239594578742981e-01" purity="5.4099726676940918e-01" nType="-99"/>
        </Node>
      </Node>
    </BinaryTree>
    <BinaryTree type="DecisionTree" boostWeight="1.0000000000000000e+00" itree="390">
      <Node pos="s" depth="0" NCoef="0" IVar="7" Cut="8.9168101549148560e-02" cType="1" res="7.9126606578938663e-05" rms="4.4803458452224731e-01" purity="4.9823874235153198e-01" nType="0">
        <Node pos="l" depth="1" NCoef="0" IVar="5" Cut="1.1041781005859375e+03" cType="1" res="-1.2066812254488468e-02" rms="4.4690290093421936e-01" purity="4.5304101705551147e-01" nType="0">
          <Node pos="l" depth="2" NCoef="0" IVar="-1" Cut="0.0000000000000000e+00" cType="1" res="-9.0198876569047570e-04" rms="4.4500005245208740e-01" purity="4.3183436989784241e-01" nType="-99"/>
          <Node pos="r" depth="2" NCoef="0" IVar="-1" Cut="0.0000000000000000e+00" cType="1" res="1.2118404265493155e-03" rms="4.5643687248229980e-01" purity="5.8171570301055908e-01" nType="-99"/>
        </Node>
        <Node pos="r" depth="1" NCoef="0" IVar="5" Cut="5.2245300292968750e+02" cType="1" res="1.4791832305490971e-02" rms="4.4896170496940613e-01" purity="5.5298799276351929e-01" nType="0">
          <Node pos="l" depth="2" NCoef="0" IVar="-1" Cut="0.0000000000000000e+00" cType="1" res="-7.6676259050145745e-04" rms="4.4424283504486084e-01" purity="4.3569710850715637e-01" nType="-99"/>
          <Node pos="r" depth="2" NCoef="0" IVar="-1" Cut="0.0000000000000000e+00" cType="1" res="1.2281369417905807e-03" rms="4.5014926791191101e-01" purity="5.9540456533432007e-01" nType="-99"/>
        </Node>
      </Node>
    </BinaryTree>
    <BinaryTree type="DecisionTree" boostWeight="1.0000000000000000e+00" itree="391">
      <Node pos="s" depth="0" NCoef="0" IVar="4" Cut="9.3926984071731567e-01" cType="1" res="1.5658626798540354e-03" rms="4.4641506671905518e-01" purity="5.0163698196411133e-01" nType="0">
        <Node pos="l" depth="1" NCoef="0" IVar="7" Cut="1.7838977277278900e-01" cType="1" res="-2.6980885304510593e-03" rms="4.5070126652717590e-01" purity="4.7185274958610535e-01" nType="0">
          <Node pos="l" depth="2" NCoef="0" IVar="-1" Cut="0.0000000000000000e+00" cType="1" res="-3.3581160823814571e-04" rms="4.5017397403717041e-01" purity="4.5852860808372498e-01" nType="-99"/>
          <Node pos="r" depth="2" NCoef="0" IVar="-1" Cut="0.0000000000000000e+00" cType="1" res="1.3640696415677667e-03" rms="4.5333421230316162e-01" purity="5.7063579559326172e-01" nType="-99"/>
        </Node>
        <Node pos="r" depth="1" NCoef="0" IVar="-1" Cut="0.0000000000000000e+00" cType="1" res="2.0127196330577135e-03" rms="4.0559804439544678e-01" purity="7.5925421714782715e-01" nType="-99"/>
      </Node>
    </BinaryTree>
    <BinaryTree type="DecisionTree" boostWeight="1.0000000000000000e+00" itree="392">
      <Node pos="s" depth="0" NCoef="0" IVar="2" Cut="9.1569948196411133e-01" cType="1" res="2.4114137049764395e-03" rms="4.4819945096969604e-01" purity="5.0284641981124878e-01" nType="0">
        <Node pos="l" depth="1" NCoef="0" IVar="8" Cut="1.6766519546508789e+00" cType="1" res="-9.7581893205642700e-03" rms="4.5031252503395081e-01" purity="4.0126627683639526e-01" nType="0">
          <Node pos="l" depth="2" NCoef="0" IVar="-1" Cut="0.0000000000000000e+00" cType="1" res="8.2252017455175519e-04" rms="4.6471330523490906e-01" purity="5.1279956102371216e-01" nType="-99"/>
          <Node pos="r" depth="2" NCoef="0" IVar="-1" Cut="0.0000000000000000e+00" cType="1" res="-7.0503097958862782e-04" rms="4.4776514172554016e-01" purity="3.8313135504722595e-01" nType="-99"/>
        </Node>
        <Node pos="r" depth="1" NCoef="0" IVar="5" Cut="6.6964361572265625e+02" cType="1" res="1.2724660336971283e-02" rms="4.4614106416702271e-01" purity="5.8893138170242310e-01" nType="0">
          <Node pos="l" depth="2" NCoef="0" IVar="-1" Cut="0.0000000000000000e+00" cType="1" res="3.3207797969225794e-05" rms="4.5190218091011047e-01" purity="5.3634172677993774e-01" nType="-99"/>
          <Node pos="r" depth="2" NCoef="0" IVar="-1" Cut="0.0000000000000000e+00" cType="1" res="1.1806422844529152e-03" rms="4.4018071889877319e-01" purity="6.3982766866683960e-01" nType="-99"/>
        </Node>
      </Node>
    </BinaryTree>
    <BinaryTree type="DecisionTree" boostWeight="1.0000000000000000e+00" itree="393">
      <Node pos="s" depth="0" NCoef="0" IVar="7" Cut="7.3313914239406586e-02" cType="1" res="2.0912704057991505e-03" rms="4.4848051667213440e-01" purity="5.0115650892257690e-01" nType="0">
        <Node pos="l" depth="1" NCoef="0" IVar="6" Cut="1.7459479570388794e+00" cType="1" res="-1.0153121314942837e-02" rms="4.4698664546012878e-01" purity="4.4931095838546753e-01" nType="0">
          <Node pos="l" depth="2" NCoef="0" IVar="-1" Cut="0.0000000000000000e+00" cType="1" res="-1.7725469660945237e-04" rms="4.5743790268898010e-01" purity="4.9340957403182983e-01" nType="-99"/>
          <Node pos="r" depth="2" NCoef="0" IVar="-1" Cut="0.0000000000000000e+00" cType="1" res="-2.6962761767208576e-03" rms="3.8303115963935852e-01" purity="2.0840834081172943e-01" nType="-99"/>
        </Node>
        <Node pos="r" depth="1" NCoef="0" IVar="5" Cut="5.2616522216796875e+02" cType="1" res="1.2080162763595581e-02" rms="4.4944852590560913e-01" purity="5.4345172643661499e-01" nType="0">
          <Node pos="l" depth="2" NCoef="0" IVar="-1" Cut="0.0000000000000000e+00" cType="1" res="-4.5346337719820440e-04" rms="4.4220975041389465e-01" purity="4.3391519784927368e-01" nType="-99"/>
          <Node pos="r" depth="2" NCoef="0" IVar="-1" Cut="0.0000000000000000e+00" cType="1" res="9.4704714138060808e-04" rms="4.5179450511932373e-01" purity="5.8311647176742554e-01" nType="-99"/>
        </Node>
      </Node>
    </BinaryTree>
    <BinaryTree type="DecisionTree" boostWeight="1.0000000000000000e+00" itree="394">
      <Node pos="s" depth="0" NCoef="0" IVar="4" Cut="5.9031045436859131e-01" cType="1" res="9.2408526688814163e-04" rms="4.4653281569480896e-01" purity="4.9892815947532654e-01" nType="0">
        <Node pos="l" depth="1" NCoef="0" IVar="2" Cut="6.5312129259109497e-01" cType="1" res="-1.8862677738070488e-02" rms="4.3859267234802246e-01" purity="3.3116957545280457e-01" nType="0">
          <Node pos="l" depth="2" NCoef="0" IVar="-1" Cut="0.0000000000000000e+00" cType="1" res="-2.8890441171824932e-03" rms="4.0886685252189636e-01" purity="2.4422122538089752e-01" nType="-99"/>
          <Node pos="r" depth="2" NCoef="0" IVar="-1" Cut="0.0000000000000000e+00" cType="1" res="-4.9374415539205074e-04" rms="4.4584894180297852e-01" purity="3.5461941361427307e-01" nType="-99"/>
        </Node>
        <Node pos="r" depth="1" NCoef="0" IVar="0" Cut="4.2336440086364746e-01" cType="1" res="8.9923422783613205e-03" rms="4.4948035478591919e-01" purity="5.6733345985412598e-01" nType="0">
          <Node pos="l" depth="2" NCoef="0" IVar="-1" Cut="0.0000000000000000e+00" cType="1" res="2.5883864145725965e-04" rms="4.5317563414573669e-01" purity="5.5101591348648071e-01" nType="-99"/>
          <Node pos="r" depth="2" NCoef="0" IVar="-1" Cut="0.0000000000000000e+00" cType="1" res="2.7828449383378029e-03" rms="3.9854142069816589e-01" purity="7.6871281862258911e-01" nType="-99"/>
        </Node>
      </Node>
    </BinaryTree>
    <BinaryTree type="DecisionTree" boostWeight="1.0000000000000000e+00" itree="395">
      <Node pos="s" depth="0" NCoef="0" IVar="1" Cut="6.9779384136199951e-01" cType="1" res="3.0693339649587870e-03" rms="4.4837000966072083e-01" purity="5.0155591964721680e-01" nType="0">
        <Node pos="l" depth="1" NCoef="0" IVar="1" Cut="5.8410656452178955e-01" cType="1" res="3.5372328013181686e-02" rms="4.3672570586204529e-01" purity="6.7565083503723145e-01" nType="0">
          <Node pos="l" depth="2" NCoef="0" IVar="-1" Cut="0.0000000000000000e+00" cType="1" res="2.2762913722544909e-03" rms="4.3180054426193237e-01" purity="6.9521844387054443e-01" nType="-99"/>
          <Node pos="r" depth="2" NCoef="0" IVar="-1" Cut="0.0000000000000000e+00" cType="1" res="1.1934193316847086e-03" rms="4.4097915291786194e-01" purity="6.5750563144683838e-01" nType="-99"/>
        </Node>
        <Node pos="r" depth="1" NCoef="0" IVar="4" Cut="5.4222065210342407e-01" cType="1" res="-1.1908111628144979e-03" rms="4.4971001148223877e-01" purity="4.7859621047973633e-01" nType="0">
          <Node pos="l" depth="2" NCoef="0" IVar="-1" Cut="0.0000000000000000e+00" cType="1" res="-1.5963814221322536e-03" rms="4.2561271786689758e-01" purity="2.8642752766609192e-01" nType="-99"/>
          <Node pos="r" depth="2" NCoef="0" IVar="-1" Cut="0.0000000000000000e+00" cType="1" res="2.0579603733494878e-04" rms="4.5396223664283752e-01" purity="5.1532924175262451e-01" nType="-99"/>
        </Node>
      </Node>
    </BinaryTree>
    <BinaryTree type="DecisionTree" boostWeight="1.0000000000000000e+00" itree="396">
      <Node pos="s" depth="0" NCoef="0" IVar="3" Cut="8.9141988754272461e-01" cType="1" res="2.1820061374455690e-03" rms="4.4915968179702759e-01" purity="5.0248503684997559e-01" nType="0">
        <Node pos="l" depth="1" NCoef="0" IVar="8" Cut="1.6184856891632080e+00" cType="1" res="1.5341510064899921e-02" rms="4.5086529850959778e-01" purity="5.7656514644622803e-01" nType="0">
          <Node pos="l" depth="2" NCoef="0" IVar="-1" Cut="0.0000000000000000e+00" cType="1" res="2.4803879205137491e-03" rms="4.3006420135498047e-01" purity="6.7391037940979004e-01" nType="-99"/>
          <Node pos="r" depth="2" NCoef="0" IVar="-1" Cut="0.0000000000000000e+00" cType="1" res="4.2334984755143523e-04" rms="4.5415845513343811e-01" purity="5.5926257371902466e-01" nType="-99"/>
        </Node>
        <Node pos="r" depth="1" NCoef="0" IVar="3" Cut="2.6166515350341797e+00" cType="1" res="-8.5662845522165298e-03" rms="4.4747471809387207e-01" purity="4.4197866320610046e-01" nType="0">
          <Node pos="l" depth="2" NCoef="0" IVar="-1" Cut="0.0000000000000000e+00" cType="1" res="-1.5963266196195036e-04" rms="4.5230427384376526e-01" purity="4.6536993980407715e-01" nType="-99"/>
          <Node pos="r" depth="2" NCoef="0" IVar="-1" Cut="0.0000000000000000e+00" cType="1" res="-2.4146372452378273e-03" rms="4.1135689616203308e-01" purity="2.8293949365615845e-01" nType="-99"/>
        </Node>
      </Node>
    </BinaryTree>
    <BinaryTree type="DecisionTree" boostWeight="1.0000000000000000e+00" itree="397">
      <Node pos="s" depth="0" NCoef="0" IVar="5" Cut="4.6580480957031250e+02" cType="1" res="1.9525261595845222e-03" rms="4.4872048497200012e-01" purity="5.0236618518829346e-01" nType="0">
        <Node pos="l" depth="1" NCoef="0" IVar="-1" Cut="0.0000000000000000e+00" cType="1" res="-1.9165958510711789e-03" rms="4.2441016435623169e-01" purity="3.6024132370948792e-01" nType="-99"/>
        <Node pos="r" depth="1" NCoef="0" IVar="4" Cut="5.4221957921981812e-01" cType="1" res="6.2736696563661098e-03" rms="4.5111307501792908e-01" purity="5.1804047822952271e-01" nType="0">
          <Node pos="l" depth="2" NCoef="0" IVar="-1" Cut="0.0000000000000000e+00" cType="1" res="-9.6454174490645528e-04" rms="4.3889114260673523e-01" purity="3.2988801598548889e-01" nType="-99"/>
          <Node pos="r" depth="2" NCoef="0" IVar="-1" Cut="0.0000000000000000e+00" cType="1" res="5.2103569032624364e-04" rms="4.5315542817115784e-01" purity="5.5239272117614746e-01" nType="-99"/>
        </Node>
      </Node>
    </BinaryTree>
    <BinaryTree type="DecisionTree" boostWeight="1.0000000000000000e+00" itree="398">
      <Node pos="s" depth="0" NCoef="0" IVar="0" Cut="1.5460513532161713e-01" cType="1" res="1.7893408657982945e-03" rms="4.4733846187591553e-01" purity="5.0232261419296265e-01" nType="0">
        <Node pos="l" depth="1" NCoef="0" IVar="4" Cut="9.2704820632934570e-01" cType="1" res="-1.0049022734165192e-02" rms="4.4986200332641602e-01" purity="4.0952786803245544e-01" nType="0">
          <Node pos="l" depth="2" NCoef="0" IVar="-1" Cut="0.0000000000000000e+00" cType="1" res="-7.2298024315387011e-04" rms="4.5092517137527466e-01" purity="3.7414461374282837e-01" nType="-99"/>
          <Node pos="r" depth="2" NCoef="0" IVar="-1" Cut="0.0000000000000000e+00" cType="1" res="1.3459795154631138e-03" rms="4.3918743729591370e-01" purity="6.9866627454757690e-01" nType="-99"/>
        </Node>
        <Node pos="r" depth="1" NCoef="0" IVar="4" Cut="5.4217201471328735e-01" cType="1" res="1.5603795647621155e-02" rms="4.4397664070129395e-01" purity="6.1060684919357300e-01" nType="0">
          <Node pos="l" depth="2" NCoef="0" IVar="-1" Cut="0.0000000000000000e+00" cType="1" res="-1.0174101917073131e-03" rms="4.6334570646286011e-01" purity="4.1371142864227295e-01" nType="-99"/>
          <Node pos="r" depth="2" NCoef="0" IVar="-1" Cut="0.0000000000000000e+00" cType="1" res="1.0757705895230174e-03" rms="4.4022282958030701e-01" purity="6.4454847574234009e-01" nType="-99"/>
        </Node>
      </Node>
    </BinaryTree>
    <BinaryTree type="DecisionTree" boostWeight="1.0000000000000000e+00" itree="399">
      <Node pos="s" depth="0" NCoef="0" IVar="0" Cut="4.2336440086364746e-01" cType="1" res="4.1126376017928123e-03" rms="4.4755139946937561e-01" purity="5.0408422946929932e-01" nType="0">
        <Node pos="l" depth="1" NCoef="0" IVar="4" Cut="5.3019410371780396e-01" cType="1" res="6.7233893787488341e-04" rms="4.4974559545516968e-01" purity="4.8637595772743225e-01" nType="0">
          <Node pos="l" depth="2" NCoef="0" IVar="-1" Cut="0.0000000000000000e+00" cType="1" res="-1.7270947573706508e-03" rms="4.2479777336120605e-01" purity="2.8549870848655701e-01" nType="-99"/>
          <Node pos="r" depth="2" NCoef="0" IVar="-1" Cut="0.0000000000000000e+00" cType="1" res="2.5634621852077544e-04" rms="4.5294633507728577e-01" purity="5.1462006568908691e-01" nType="-99"/>
        </Node>
        <Node pos="r" depth="1" NCoef="0" IVar="-1" Cut="0.0000000000000000e+00" cType="1" res="2.3979241959750652e-03" rms="4.1655689477920532e-01" purity="7.2679674625396729e-01" nType="-99"/>
      </Node>
    </BinaryTree>
    <BinaryTree type="DecisionTree" boostWeight="1.0000000000000000e+00" itree="400">
      <Node pos="s" depth="0" NCoef="0" IVar="1" Cut="1.5360758304595947e+00" cType="1" res="-2.0392702426761389e-03" rms="4.4668287038803101e-01" purity="4.9708712100982666e-01" nType="0">
        <Node pos="l" depth="1" NCoef="0" IVar="2" Cut="9.7570800781250000e-01" cType="1" res="3.1485441140830517e-03" rms="4.5151671767234802e-01" purity="5.3354877233505249e-01" nType="0">
          <Node pos="l" depth="2" NCoef="0" IVar="-1" Cut="0.0000000000000000e+00" cType="1" res="-1.5548702504020184e-04" rms="4.5736899971961975e-01" purity="4.8907673358917236e-01" nType="-99"/>
          <Node pos="r" depth="2" NCoef="0" IVar="-1" Cut="0.0000000000000000e+00" cType="1" res="9.3238084809854627e-04" rms="4.3633657693862915e-01" purity="6.4326214790344238e-01" nType="-99"/>
        </Node>
        <Node pos="r" depth="1" NCoef="0" IVar="8" Cut="2.6121394634246826e+00" cType="1" res="-3.1992137432098389e-02" rms="4.1641932725906372e-01" purity="2.8656810522079468e-01" nType="0">
          <Node pos="l" depth="2" NCoef="0" IVar="-1" Cut="0.0000000000000000e+00" cType="1" res="-8.7187247117981315e-04" rms="4.4525501132011414e-01" purity="3.5744675993919373e-01" nType="-99"/>
          <Node pos="r" depth="2" NCoef="0" IVar="-1" Cut="0.0000000000000000e+00" cType="1" res="-3.4430131781846285e-03" rms="3.6620867252349854e-01" purity="1.7677137255668640e-01" nType="-99"/>
        </Node>
      </Node>
    </BinaryTree>
    <BinaryTree type="DecisionTree" boostWeight="1.0000000000000000e+00" itree="401">
      <Node pos="s" depth="0" NCoef="0" IVar="5" Cut="4.5354470825195312e+02" cType="1" res="-1.1476548388600349e-03" rms="4.4748178124427795e-01" purity="4.9890410900115967e-01" nType="0">
        <Node pos="l" depth="1" NCoef="0" IVar="-1" Cut="0.0000000000000000e+00" cType="1" res="-2.4839991237968206e-03" rms="4.2512142658233643e-01" purity="3.4137892723083496e-01" nType="-99"/>
        <Node pos="r" depth="1" NCoef="0" IVar="7" Cut="1.4464966952800751e-01" cType="1" res="3.0086422339081764e-03" rms="4.4917458295822144e-01" purity="5.1287078857421875e-01" nType="0">
          <Node pos="l" depth="2" NCoef="0" IVar="-1" Cut="0.0000000000000000e+00" cType="1" res="-1.3169662270229310e-04" rms="4.4898968935012817e-01" purity="4.9070230126380920e-01" nType="-99"/>
          <Node pos="r" depth="2" NCoef="0" IVar="-1" Cut="0.0000000000000000e+00" cType="1" res="1.2653046287596226e-03" rms="4.4917437434196472e-01" purity="6.0276758670806885e-01" nType="-99"/>
        </Node>
      </Node>
    </BinaryTree>
    <BinaryTree type="DecisionTree" boostWeight="1.0000000000000000e+00" itree="402">
      <Node pos="s" depth="0" NCoef="0" IVar="4" Cut="5.3018110990524292e-01" cType="1" res="5.2621361101046205e-04" rms="4.4692856073379517e-01" purity="5.0174784660339355e-01" nType="0">
        <Node pos="l" depth="1" NCoef="0" IVar="6" Cut="9.9124020338058472e-01" cType="1" res="-3.6496855318546295e-02" rms="4.2466282844543457e-01" purity="2.9741248488426208e-01" nType="0">
          <Node pos="l" depth="2" NCoef="0" IVar="-1" Cut="0.0000000000000000e+00" cType="1" res="-8.0652709584683180e-04" rms="4.5807427167892456e-01" purity="3.8340833783149719e-01" nType="-99"/>
          <Node pos="r" depth="2" NCoef="0" IVar="-1" Cut="0.0000000000000000e+00" cType="1" res="-3.3174881245940924e-03" rms="3.8657251000404358e-01" purity="2.0955392718315125e-01" nType="-99"/>
        </Node>
        <Node pos="r" depth="1" NCoef="0" IVar="8" Cut="2.8408956527709961e+00" cType="1" res="5.5842925794422626e-03" rms="4.4964832067489624e-01" purity="5.2966409921646118e-01" nType="0">
          <Node pos="l" depth="2" NCoef="0" IVar="-1" Cut="0.0000000000000000e+00" cType="1" res="4.2669640970416367e-04" rms="4.5326837897300720e-01" purity="5.5291718244552612e-01" nType="-99"/>
          <Node pos="r" depth="2" NCoef="0" IVar="-1" Cut="0.0000000000000000e+00" cType="1" res="-2.2157353814691305e-03" rms="3.9736700057983398e-01" purity="2.2927719354629517e-01" nType="-99"/>
        </Node>
      </Node>
    </BinaryTree>
    <BinaryTree type="DecisionTree" boostWeight="1.0000000000000000e+00" itree="403">
      <Node pos="s" depth="0" NCoef="0" IVar="0" Cut="4.0921944379806519e-01" cType="1" res="4.2880228720605373e-03" rms="4.4681397080421448e-01" purity="5.0309884548187256e-01" nType="0">
        <Node pos="l" depth="1" NCoef="0" IVar="7" Cut="4.2604893445968628e-02" cType="1" res="4.1397224413231015e-04" rms="4.4957771897315979e-01" purity="4.8176681995391846e-01" nType="0">
          <Node pos="l" depth="2" NCoef="0" IVar="-1" Cut="0.0000000000000000e+00" cType="1" res="-1.1155632091686130e-03" rms="4.4058921933174133e-01" purity="4.0761721134185791e-01" nType="-99"/>
          <Node pos="r" depth="2" NCoef="0" IVar="-1" Cut="0.0000000000000000e+00" cType="1" res="3.4618313657119870e-04" rms="4.5197224617004395e-01" purity="5.0364214181900024e-01" nType="-99"/>
        </Node>
        <Node pos="r" depth="1" NCoef="0" IVar="-1" Cut="0.0000000000000000e+00" cType="1" res="2.2180348169058561e-03" rms="4.1552683711051941e-01" purity="7.2065764665603638e-01" nType="-99"/>
      </Node>
    </BinaryTree>
    <BinaryTree type="DecisionTree" boostWeight="1.0000000000000000e+00" itree="404">
      <Node pos="s" depth="0" NCoef="0" IVar="5" Cut="4.5354470825195312e+02" cType="1" res="5.6200328981503844e-04" rms="4.4616842269897461e-01" purity="5.0185316801071167e-01" nType="0">
        <Node pos="l" depth="1" NCoef="0" IVar="-1" Cut="0.0000000000000000e+00" cType="1" res="-2.3603043518960476e-03" rms="4.1864484548568726e-01" purity="3.4480091929435730e-01" nType="-99"/>
        <Node pos="r" depth="1" NCoef="0" IVar="7" Cut="3.3559136092662811e-02" cType="1" res="4.6584932133555412e-03" rms="4.4830799102783203e-01" purity="5.1583498716354370e-01" nType="0">
          <Node pos="l" depth="2" NCoef="0" IVar="-1" Cut="0.0000000000000000e+00" cType="1" res="-1.0607619769871235e-03" rms="4.4562175869941711e-01" purity="4.2745354771614075e-01" nType="-99"/>
          <Node pos="r" depth="2" NCoef="0" IVar="-1" Cut="0.0000000000000000e+00" cType="1" res="4.7789324889890850e-04" rms="4.4865736365318298e-01" purity="5.3344857692718506e-01" nType="-99"/>
        </Node>
      </Node>
    </BinaryTree>
    <BinaryTree type="DecisionTree" boostWeight="1.0000000000000000e+00" itree="405">
      <Node pos="s" depth="0" NCoef="0" IVar="0" Cut="4.1450209915637970e-02" cType="1" res="-1.2328736484050751e-03" rms="4.4737297296524048e-01" purity="5.0009489059448242e-01" nType="0">
        <Node pos="l" depth="1" NCoef="0" IVar="0" Cut="3.1336050480604172e-02" cType="1" res="-3.6360543221235275e-02" rms="4.3847033381462097e-01" purity="3.5071218013763428e-01" nType="0">
          <Node pos="l" depth="2" NCoef="0" IVar="-1" Cut="0.0000000000000000e+00" cType="1" res="-2.2041178308427334e-03" rms="4.3980434536933899e-01" purity="3.4167629480361938e-01" nType="-99"/>
          <Node pos="r" depth="2" NCoef="0" IVar="-1" Cut="0.0000000000000000e+00" cType="1" res="-1.4631520025432110e-03" rms="4.3699142336845398e-01" purity="3.5992997884750366e-01" nType="-99"/>
        </Node>
        <Node pos="r" depth="1" NCoef="0" IVar="2" Cut="8.6771291494369507e-01" cType="1" res="3.3259619958698750e-03" rms="4.4831365346908569e-01" purity="5.1948165893554688e-01" nType="0">
          <Node pos="l" depth="2" NCoef="0" IVar="-1" Cut="0.0000000000000000e+00" cType="1" res="-7.1637379005551338e-04" rms="4.4880613684654236e-01" purity="3.8370633125305176e-01" nType="-99"/>
          <Node pos="r" depth="2" NCoef="0" IVar="-1" Cut="0.0000000000000000e+00" cType="1" res="6.1815662775188684e-04" rms="4.4776079058647156e-01" purity="5.9120196104049683e-01" nType="-99"/>
        </Node>
      </Node>
    </BinaryTree>
    <BinaryTree type="DecisionTree" boostWeight="1.0000000000000000e+00" itree="406">
      <Node pos="s" depth="0" NCoef="0" IVar="5" Cut="4.3729373168945312e+02" cType="1" res="2.4526279885321856e-03" rms="4.4671675562858582e-01" purity="5.0352150201797485e-01" nType="0">
        <Node pos="l" depth="1" NCoef="0" IVar="-1" Cut="0.0000000000000000e+00" cType="1" res="-2.4375976063311100e-03" rms="4.2360693216323853e-01" purity="3.3931207656860352e-01" nType="-99"/>
        <Node pos="r" depth="1" NCoef="0" IVar="8" Cut="2.6819541454315186e+00" cType="1" res="5.4805325344204903e-03" rms="4.4791340827941895e-01" purity="5.1356101036071777e-01" nType="0">
          <Node pos="l" depth="2" NCoef="0" IVar="-1" Cut="0.0000000000000000e+00" cType="1" res="4.6893890248611569e-04" rms="4.5241966843605042e-01" purity="5.4784685373306274e-01" nType="-99"/>
          <Node pos="r" depth="2" NCoef="0" IVar="-1" Cut="0.0000000000000000e+00" cType="1" res="-1.4735122676938772e-03" rms="4.1226980090141296e-01" purity="2.6425176858901978e-01" nType="-99"/>
        </Node>
      </Node>
    </BinaryTree>
    <BinaryTree type="DecisionTree" boostWeight="1.0000000000000000e+00" itree="407">
      <Node pos="s" depth="0" NCoef="0" IVar="3" Cut="2.6181046962738037e+00" cType="1" res="2.0347482059150934e-03" rms="4.4644376635551453e-01" purity="5.0235265493392944e-01" nType="0">
        <Node pos="l" depth="1" NCoef="0" IVar="3" Cut="3.7560456991195679e-01" cType="1" res="5.5823167786002159e-03" rms="4.4965773820877075e-01" purity="5.1901167631149292e-01" nType="0">
          <Node pos="l" depth="2" NCoef="0" IVar="-1" Cut="0.0000000000000000e+00" cType="1" res="1.4187203487381339e-03" rms="4.4691997766494751e-01" purity="6.0976159572601318e-01" nType="-99"/>
          <Node pos="r" depth="2" NCoef="0" IVar="-1" Cut="0.0000000000000000e+00" cType="1" res="5.2779054385609925e-05" rms="4.5002490282058716e-01" purity="5.0206291675567627e-01" nType="-99"/>
        </Node>
        <Node pos="r" depth="1" NCoef="0" IVar="-1" Cut="0.0000000000000000e+00" cType="1" res="-2.4900862481445074e-03" rms="3.9834564924240112e-01" purity="2.8112584352493286e-01" nType="-99"/>
      </Node>
    </BinaryTree>
    <BinaryTree type="DecisionTree" boostWeight="1.0000000000000000e+00" itree="408">
      <Node pos="s" depth="0" NCoef="0" IVar="1" Cut="8.1898385286331177e-01" cType="1" res="3.6225494113750756e-04" rms="4.4637665152549744e-01" purity="4.9798864126205444e-01" nType="0">
        <Node pos="l" depth="1" NCoef="0" IVar="2" Cut="8.4526151418685913e-01" cType="1" res="2.5917323306202888e-02" rms="4.3734991550445557e-01" purity="6.5984404087066650e-01" nType="0">
          <Node pos="l" depth="2" NCoef="0" IVar="-1" Cut="0.0000000000000000e+00" cType="1" res="1.6181675891857594e-04" rms="4.7203773260116577e-01" purity="5.0180077552795410e-01" nType="-99"/>
          <Node pos="r" depth="2" NCoef="0" IVar="-1" Cut="0.0000000000000000e+00" cType="1" res="1.7319640610367060e-03" rms="4.2345267534255981e-01" purity="7.1851468086242676e-01" nType="-99"/>
        </Node>
        <Node pos="r" depth="1" NCoef="0" IVar="0" Cut="3.1020453572273254e-01" cType="1" res="-6.3435160554945469e-03" rms="4.4847410917282104e-01" purity="4.5551699399948120e-01" nType="0">
          <Node pos="l" depth="2" NCoef="0" IVar="-1" Cut="0.0000000000000000e+00" cType="1" res="-5.6108081480488181e-04" rms="4.4776660203933716e-01" purity="4.1265842318534851e-01" nType="-99"/>
          <Node pos="r" depth="2" NCoef="0" IVar="-1" Cut="0.0000000000000000e+00" cType="1" res="6.9172430085018277e-04" rms="4.5076423883438110e-01" purity="6.3142973184585571e-01" nType="-99"/>
        </Node>
      </Node>
    </BinaryTree>
    <BinaryTree type="DecisionTree" boostWeight="1.0000000000000000e+00" itree="409">
      <Node pos="s" depth="0" NCoef="0" IVar="7" Cut="1.5771605074405670e-01" cType="1" res="1.7373912269249558e-03" rms="4.4891017675399780e-01" purity="5.0183796882629395e-01" nType="0">
        <Node pos="l" depth="1" NCoef="0" IVar="5" Cut="1.2471798095703125e+03" cType="1" res="-4.1481368243694305e-03" rms="4.4909203052520752e-01" purity="4.8178935050964355e-01" nType="0">
          <Node pos="l" depth="2" NCoef="0" IVar="-1" Cut="0.0000000000000000e+00" cType="1" res="-3.9532713708467782e-04" rms="4.4873794913291931e-01" purity="4.7137162089347839e-01" nType="-99"/>
          <Node pos="r" depth="2" NCoef="0" IVar="-1" Cut="0.0000000000000000e+00" cType="1" res="2.2531102877110243e-03" rms="4.5050427317619324e-01" purity="6.2067478895187378e-01" nType="-99"/>
        </Node>
        <Node pos="r" depth="1" NCoef="0" IVar="0" Cut="8.3869054913520813e-02" cType="1" res="3.0453737825155258e-02" rms="4.4691154360771179e-01" purity="5.9965789318084717e-01" nType="0">
          <Node pos="l" depth="2" NCoef="0" IVar="-1" Cut="0.0000000000000000e+00" cType="1" res="7.8777287853881717e-04" rms="4.5849534869194031e-01" purity="4.6825006604194641e-01" nType="-99"/>
          <Node pos="r" depth="2" NCoef="0" IVar="-1" Cut="0.0000000000000000e+00" cType="1" res="1.8331226892769337e-03" rms="4.4074493646621704e-01" purity="6.6639965772628784e-01" nType="-99"/>
        </Node>
      </Node>
    </BinaryTree>
    <BinaryTree type="DecisionTree" boostWeight="1.0000000000000000e+00" itree="410">
      <Node pos="s" depth="0" NCoef="0" IVar="0" Cut="4.2334395647048950e-01" cType="1" res="-1.0271956853102893e-04" rms="4.4701114296913147e-01" purity="4.9950867891311646e-01" nType="0">
        <Node pos="l" depth="1" NCoef="0" IVar="1" Cut="6.7639791965484619e-01" cType="1" res="-3.4316133242100477e-03" rms="4.4898349046707153e-01" purity="4.8245000839233398e-01" nType="0">
          <Node pos="l" depth="2" NCoef="0" IVar="-1" Cut="0.0000000000000000e+00" cType="1" res="1.5393458306789398e-03" rms="4.3368673324584961e-01" purity="6.6906189918518066e-01" nType="-99"/>
          <Node pos="r" depth="2" NCoef="0" IVar="-1" Cut="0.0000000000000000e+00" cType="1" res="-3.5451835719868541e-04" rms="4.5047307014465332e-01" purity="4.6184101700782776e-01" nType="-99"/>
        </Node>
        <Node pos="r" depth="1" NCoef="0" IVar="-1" Cut="0.0000000000000000e+00" cType="1" res="2.1565130446106195e-03" rms="4.1839599609375000e-01" purity="7.1939903497695923e-01" nType="-99"/>
      </Node>
    </BinaryTree>
    <BinaryTree type="DecisionTree" boostWeight="1.0000000000000000e+00" itree="411">
      <Node pos="s" depth="0" NCoef="0" IVar="1" Cut="6.9034165143966675e-01" cType="1" res="2.7599066961556673e-03" rms="4.4922685623168945e-01" purity="5.0516587495803833e-01" nType="0">
        <Node pos="l" depth="1" NCoef="0" IVar="1" Cut="5.8339452743530273e-01" cType="1" res="3.3809617161750793e-02" rms="4.2867770791053772e-01" purity="6.8073523044586182e-01" nType="0">
          <Node pos="l" depth="2" NCoef="0" IVar="-1" Cut="0.0000000000000000e+00" cType="1" res="2.3881394881755114e-03" rms="4.2317718267440796e-01" purity="7.0311254262924194e-01" nType="-99"/>
          <Node pos="r" depth="2" NCoef="0" IVar="-1" Cut="0.0000000000000000e+00" cType="1" res="9.5612875884398818e-04" rms="4.3359923362731934e-01" purity="6.5853178501129150e-01" nType="-99"/>
        </Node>
        <Node pos="r" depth="1" NCoef="0" IVar="5" Cut="1.2023918457031250e+03" cType="1" res="-1.0879882611334324e-03" rms="4.5155969262123108e-01" purity="4.8340812325477600e-01" nType="0">
          <Node pos="l" depth="2" NCoef="0" IVar="-1" Cut="0.0000000000000000e+00" cType="1" res="-1.9918024190701544e-04" rms="4.5091229677200317e-01" purity="4.7382014989852905e-01" nType="-99"/>
          <Node pos="r" depth="2" NCoef="0" IVar="-1" Cut="0.0000000000000000e+00" cType="1" res="1.7676199786365032e-03" rms="4.5809501409530640e-01" purity="6.0775399208068848e-01" nType="-99"/>
        </Node>
      </Node>
    </BinaryTree>
    <BinaryTree type="DecisionTree" boostWeight="1.0000000000000000e+00" itree="412">
      <Node pos="s" depth="0" NCoef="0" IVar="8" Cut="2.9287891387939453e+00" cType="1" res="3.1262382981367409e-04" rms="4.4743654131889343e-01" purity="5.0014847517013550e-01" nType="0">
        <Node pos="l" depth="1" NCoef="0" IVar="2" Cut="9.0372765064239502e-01" cType="1" res="2.9022833332419395e-03" rms="4.5140674710273743e-01" purity="5.1771831512451172e-01" nType="0">
          <Node pos="l" depth="2" NCoef="0" IVar="-1" Cut="0.0000000000000000e+00" cType="1" res="-4.8001177492551506e-04" rms="4.5432135462760925e-01" purity="4.0531605482101440e-01" nType="-99"/>
          <Node pos="r" depth="2" NCoef="0" IVar="-1" Cut="0.0000000000000000e+00" cType="1" res="5.9161789249628782e-04" rms="4.4902154803276062e-01" purity="6.0018861293792725e-01" nType="-99"/>
        </Node>
        <Node pos="r" depth="1" NCoef="0" IVar="-1" Cut="0.0000000000000000e+00" cType="1" res="-2.8507448732852936e-03" rms="3.6780405044555664e-01" purity="1.9130314886569977e-01" nType="-99"/>
      </Node>
    </BinaryTree>
    <BinaryTree type="DecisionTree" boostWeight="1.0000000000000000e+00" itree="413">
      <Node pos="s" depth="0" NCoef="0" IVar="2" Cut="7.8347736597061157e-01" cType="1" res="1.0562546085566282e-03" rms="4.4509992003440857e-01" purity="5.0108772516250610e-01" nType="0">
        <Node pos="l" depth="1" NCoef="0" IVar="7" Cut="1.2473251670598984e-01" cType="1" res="-2.3944033309817314e-02" rms="4.3366485834121704e-01" purity="3.2114392518997192e-01" nType="0">
          <Node pos="l" depth="2" NCoef="0" IVar="-1" Cut="0.0000000000000000e+00" cType="1" res="-1.6525217797607183e-03" rms="4.2708444595336914e-01" purity="3.0162718892097473e-01" nType="-99"/>
          <Node pos="r" depth="2" NCoef="0" IVar="-1" Cut="0.0000000000000000e+00" cType="1" res="-9.7146323241759092e-05" rms="4.5151492953300476e-01" purity="3.7781918048858643e-01" nType="-99"/>
        </Node>
        <Node pos="r" depth="1" NCoef="0" IVar="1" Cut="6.8011695146560669e-01" cType="1" res="7.5411745347082615e-03" rms="4.4779050350189209e-01" purity="5.4776406288146973e-01" nType="0">
          <Node pos="l" depth="2" NCoef="0" IVar="-1" Cut="0.0000000000000000e+00" cType="1" res="2.2736815735697746e-03" rms="4.0894165635108948e-01" purity="7.3010241985321045e-01" nType="-99"/>
          <Node pos="r" depth="2" NCoef="0" IVar="-1" Cut="0.0000000000000000e+00" cType="1" res="1.4993743388913572e-04" rms="4.5195394754409790e-01" purity="5.2623796463012695e-01" nType="-99"/>
        </Node>
      </Node>
    </BinaryTree>
    <BinaryTree type="DecisionTree" boostWeight="1.0000000000000000e+00" itree="414">
      <Node pos="s" depth="0" NCoef="0" IVar="0" Cut="1.6875539720058441e-01" cType="1" res="-3.4525431692600250e-03" rms="4.4657769799232483e-01" purity="4.9614721536636353e-01" nType="0">
        <Node pos="l" depth="1" NCoef="0" IVar="5" Cut="9.3218786621093750e+02" cType="1" res="-1.3763234019279480e-02" rms="4.4723612070083618e-01" purity="4.0897423028945923e-01" nType="0">
          <Node pos="l" depth="2" NCoef="0" IVar="-1" Cut="0.0000000000000000e+00" cType="1" res="-9.4548380002379417e-04" rms="4.4225534796714783e-01" purity="3.8989576697349548e-01" nType="-99"/>
          <Node pos="r" depth="2" NCoef="0" IVar="-1" Cut="0.0000000000000000e+00" cType="1" res="5.2346772281453013e-04" rms="4.6928104758262634e-01" purity="4.9927768111228943e-01" nType="-99"/>
        </Node>
        <Node pos="r" depth="1" NCoef="0" IVar="6" Cut="8.3600413799285889e-01" cType="1" res="9.9665252491831779e-03" rms="4.4536200165748596e-01" purity="6.0960036516189575e-01" nType="0">
          <Node pos="l" depth="2" NCoef="0" IVar="-1" Cut="0.0000000000000000e+00" cType="1" res="1.3306844048202038e-03" rms="4.2640736699104309e-01" purity="7.1535468101501465e-01" nType="-99"/>
          <Node pos="r" depth="2" NCoef="0" IVar="-1" Cut="0.0000000000000000e+00" cType="1" res="-1.1186557821929455e-04" rms="4.5892089605331421e-01" purity="5.2886897325515747e-01" nType="-99"/>
        </Node>
      </Node>
    </BinaryTree>
    <BinaryTree type="DecisionTree" boostWeight="1.0000000000000000e+00" itree="415">
      <Node pos="s" depth="0" NCoef="0" IVar="4" Cut="9.6333307027816772e-01" cType="1" res="3.5641766153275967e-03" rms="4.4893670082092285e-01" purity="5.0095075368881226e-01" nType="0">
        <Node pos="l" depth="1" NCoef="0" IVar="7" Cut="5.5813699960708618e-02" cType="1" res="8.6544535588473082e-04" rms="4.5169150829315186e-01" purity="4.8277130722999573e-01" nType="0">
          <Node pos="l" depth="2" NCoef="0" IVar="-1" Cut="0.0000000000000000e+00" cType="1" res="-6.8680703407153487e-04" rms="4.4710713624954224e-01" purity="4.2334133386611938e-01" nType="-99"/>
          <Node pos="r" depth="2" NCoef="0" IVar="-1" Cut="0.0000000000000000e+00" cType="1" res="3.9310171268880367e-04" rms="4.5376828312873840e-01" purity="5.1223045587539673e-01" nType="-99"/>
        </Node>
        <Node pos="r" depth="1" NCoef="0" IVar="-1" Cut="0.0000000000000000e+00" cType="1" res="2.2942048963159323e-03" rms="4.0396562218666077e-01" purity="7.6955944299697876e-01" nType="-99"/>
      </Node>
    </BinaryTree>
    <BinaryTree type="DecisionTree" boostWeight="1.0000000000000000e+00" itree="416">
      <Node pos="s" depth="0" NCoef="0" IVar="2" Cut="8.6831766366958618e-01" cType="1" res="-5.5803800933063030e-03" rms="4.4773873686790466e-01" purity="4.9466112256050110e-01" nType="0">
        <Node pos="l" depth="1" NCoef="0" IVar="0" Cut="6.9709800183773041e-02" cType="1" res="-2.0313514396548271e-02" rms="4.4257208704948425e-01" purity="3.6142328381538391e-01" nType="0">
          <Node pos="l" depth="2" NCoef="0" IVar="-1" Cut="0.0000000000000000e+00" cType="1" res="-2.2988719865679741e-03" rms="4.0903991460800171e-01" purity="2.3725816607475281e-01" nType="-99"/>
          <Node pos="r" depth="2" NCoef="0" IVar="-1" Cut="0.0000000000000000e+00" cType="1" res="-5.7891942560672760e-04" rms="4.5483374595642090e-01" purity="4.1030141711235046e-01" nType="-99"/>
        </Node>
        <Node pos="r" depth="1" NCoef="0" IVar="0" Cut="3.7845212221145630e-01" cType="1" res="2.2025262005627155e-03" rms="4.5024958252906799e-01" purity="5.6504517793655396e-01" nType="0">
          <Node pos="l" depth="2" NCoef="0" IVar="-1" Cut="0.0000000000000000e+00" cType="1" res="-6.1650425777770579e-05" rms="4.5582708716392517e-01" purity="5.3819763660430908e-01" nType="-99"/>
          <Node pos="r" depth="2" NCoef="0" IVar="-1" Cut="0.0000000000000000e+00" cType="1" res="1.4012914616614580e-03" rms="4.0948176383972168e-01" purity="7.4777853488922119e-01" nType="-99"/>
        </Node>
      </Node>
    </BinaryTree>
    <BinaryTree type="DecisionTree" boostWeight="1.0000000000000000e+00" itree="417">
      <Node pos="s" depth="0" NCoef="0" IVar="7" Cut="1.4745362102985382e-01" cType="1" res="-1.8917453708127141e-03" rms="4.4630807638168335e-01" purity="4.9990007281303406e-01" nType="0">
        <Node pos="l" depth="1" NCoef="0" IVar="4" Cut="8.7894320487976074e-01" cType="1" res="-7.3617259040474892e-03" rms="4.4678714871406555e-01" purity="4.7777283191680908e-01" nType="0">
          <Node pos="l" depth="2" NCoef="0" IVar="-1" Cut="0.0000000000000000e+00" cType="1" res="-6.0124468291178346e-04" rms="4.5067423582077026e-01" purity="4.2379432916641235e-01" nType="-99"/>
          <Node pos="r" depth="2" NCoef="0" IVar="-1" Cut="0.0000000000000000e+00" cType="1" res="7.1939051849767566e-04" rms="4.2905828356742859e-01" purity="7.0918351411819458e-01" nType="-99"/>
        </Node>
        <Node pos="r" depth="1" NCoef="0" IVar="4" Cut="6.6240811347961426e-01" cType="1" res="1.9715331494808197e-02" rms="4.4375190138816833e-01" purity="5.8730548620223999e-01" nType="0">
          <Node pos="l" depth="2" NCoef="0" IVar="-1" Cut="0.0000000000000000e+00" cType="1" res="5.2777169912587851e-05" rms="4.5874324440956116e-01" purity="4.2572090029716492e-01" nType="-99"/>
          <Node pos="r" depth="2" NCoef="0" IVar="-1" Cut="0.0000000000000000e+00" cType="1" res="1.6379939625039697e-03" rms="4.3231046199798584e-01" purity="7.0200502872467041e-01" nType="-99"/>
        </Node>
      </Node>
    </BinaryTree>
    <BinaryTree type="DecisionTree" boostWeight="1.0000000000000000e+00" itree="418">
      <Node pos="s" depth="0" NCoef="0" IVar="0" Cut="4.3750938773155212e-01" cType="1" res="-1.9824833143502474e-03" rms="4.4674566388130188e-01" purity="4.9583995342254639e-01" nType="0">
        <Node pos="l" depth="1" NCoef="0" IVar="3" Cut="9.6049034595489502e-01" cType="1" res="-4.5440150424838066e-03" rms="4.4813600182533264e-01" purity="4.8221710324287415e-01" nType="0">
          <Node pos="l" depth="2" NCoef="0" IVar="-1" Cut="0.0000000000000000e+00" cType="1" res="2.7389978640712798e-04" rms="4.5155352354049683e-01" purity="5.5169171094894409e-01" nType="-99"/>
          <Node pos="r" depth="2" NCoef="0" IVar="-1" Cut="0.0000000000000000e+00" cType="1" res="-6.9581763818860054e-04" rms="4.4474071264266968e-01" purity="4.1797769069671631e-01" nType="-99"/>
        </Node>
        <Node pos="r" depth="1" NCoef="0" IVar="-1" Cut="0.0000000000000000e+00" cType="1" res="2.0267125219106674e-03" rms="4.2085590958595276e-01" purity="7.2097307443618774e-01" nType="-99"/>
      </Node>
    </BinaryTree>
    <BinaryTree type="DecisionTree" boostWeight="1.0000000000000000e+00" itree="419">
      <Node pos="s" depth="0" NCoef="0" IVar="4" Cut="5.1815873384475708e-01" cType="1" res="-1.5655327588319778e-03" rms="4.4661560654640198e-01" purity="4.9832409620285034e-01" nType="0">
        <Node pos="l" depth="1" NCoef="0" IVar="-1" Cut="0.0000000000000000e+00" cType="1" res="-2.0595127716660500e-03" rms="4.2253267765045166e-01" purity="2.9120582342147827e-01" nType="-99"/>
        <Node pos="r" depth="1" NCoef="0" IVar="0" Cut="8.3878539502620697e-02" cType="1" res="1.8662440124899149e-03" rms="4.4857683777809143e-01" purity="5.1709860563278198e-01" nType="0">
          <Node pos="l" depth="2" NCoef="0" IVar="-1" Cut="0.0000000000000000e+00" cType="1" res="-6.8969541462138295e-04" rms="4.4730222225189209e-01" purity="3.9553254842758179e-01" nType="-99"/>
          <Node pos="r" depth="2" NCoef="0" IVar="-1" Cut="0.0000000000000000e+00" cType="1" res="4.5014781062491238e-04" rms="4.4897753000259399e-01" purity="5.7400780916213989e-01" nType="-99"/>
        </Node>
      </Node>
    </BinaryTree>
    <BinaryTree type="DecisionTree" boostWeight="1.0000000000000000e+00" itree="420">
      <Node pos="s" depth="0" NCoef="0" IVar="0" Cut="3.8093072175979614e-01" cType="1" res="2.5467260275036097e-03" rms="4.4783893227577209e-01" purity="5.0050985813140869e-01" nType="0">
        <Node pos="l" depth="1" NCoef="0" IVar="6" Cut="5.3691631555557251e-01" cType="1" res="-1.1546553578227758e-03" rms="4.5069560408592224e-01" purity="4.7323560714721680e-01" nType="0">
          <Node pos="l" depth="2" NCoef="0" IVar="-1" Cut="0.0000000000000000e+00" cType="1" res="9.7120192367583513e-04" rms="4.5186179876327515e-01" purity="5.9828072786331177e-01" nType="-99"/>
          <Node pos="r" depth="2" NCoef="0" IVar="-1" Cut="0.0000000000000000e+00" cType="1" res="-3.1338803819380701e-04" rms="4.5025393366813660e-01" purity="4.4298386573791504e-01" nType="-99"/>
        </Node>
        <Node pos="r" depth="1" NCoef="0" IVar="8" Cut="2.1675469875335693e+00" cType="1" res="3.0026482418179512e-02" rms="4.2502495646476746e-01" purity="7.0299953222274780e-01" nType="0">
          <Node pos="l" depth="2" NCoef="0" IVar="-1" Cut="0.0000000000000000e+00" cType="1" res="1.0780964512377977e-03" rms="4.1104540228843689e-01" purity="7.5510340929031372e-01" nType="-99"/>
          <Node pos="r" depth="2" NCoef="0" IVar="-1" Cut="0.0000000000000000e+00" cType="1" res="1.8933424726128578e-03" rms="4.3746677041053772e-01" purity="6.5434926748275757e-01" nType="-99"/>
        </Node>
      </Node>
    </BinaryTree>
    <BinaryTree type="DecisionTree" boostWeight="1.0000000000000000e+00" itree="421">
      <Node pos="s" depth="0" NCoef="0" IVar="2" Cut="7.1227890253067017e-01" cType="1" res="-1.5476349508389831e-03" rms="4.4768416881561279e-01" purity="4.9720373749732971e-01" nType="0">
        <Node pos="l" depth="1" NCoef="0" IVar="3" Cut="1.1711026430130005e+00" cType="1" res="-3.0163759365677834e-02" rms="4.2128366231918335e-01" purity="2.8813803195953369e-01" nType="0">
          <Node pos="l" depth="2" NCoef="0" IVar="-1" Cut="0.0000000000000000e+00" cType="1" res="-1.0185634018853307e-03" rms="4.4166871905326843e-01" purity="3.4473565220832825e-01" nType="-99"/>
          <Node pos="r" depth="2" NCoef="0" IVar="-1" Cut="0.0000000000000000e+00" cType="1" res="-2.5045489892363548e-03" rms="3.9463898539543152e-01" purity="2.1900755167007446e-01" nType="-99"/>
        </Node>
        <Node pos="r" depth="1" NCoef="0" IVar="4" Cut="9.3918687105178833e-01" cType="1" res="2.4397149682044983e-03" rms="4.5109611749649048e-01" purity="5.2633482217788696e-01" nType="0">
          <Node pos="l" depth="2" NCoef="0" IVar="-1" Cut="0.0000000000000000e+00" cType="1" res="-4.4308628275757656e-05" rms="4.5577228069305420e-01" purity="4.9727523326873779e-01" nType="-99"/>
          <Node pos="r" depth="2" NCoef="0" IVar="-1" Cut="0.0000000000000000e+00" cType="1" res="1.5127188526093960e-03" rms="4.1222846508026123e-01" purity="7.5102764368057251e-01" nType="-99"/>
        </Node>
      </Node>
    </BinaryTree>
    <BinaryTree type="DecisionTree" boostWeight="1.0000000000000000e+00" itree="422">
      <Node pos="s" depth="0" NCoef="0" IVar="7" Cut="1.4470632374286652e-01" cType="1" res="-1.6218556556850672e-03" rms="4.4787442684173584e-01" purity="4.9780336022377014e-01" nType="0">
        <Node pos="l" depth="1" NCoef="0" IVar="5" Cut="1.2131103515625000e+03" cType="1" res="-7.5307423248887062e-03" rms="4.4778442382812500e-01" purity="4.7488707304000854e-01" nType="0">
          <Node pos="l" depth="2" NCoef="0" IVar="-1" Cut="0.0000000000000000e+00" cType="1" res="-5.3293199744075537e-04" rms="4.4692090153694153e-01" purity="4.6290582418441772e-01" nType="-99"/>
          <Node pos="r" depth="2" NCoef="0" IVar="-1" Cut="0.0000000000000000e+00" cType="1" res="1.3848625821992755e-03" rms="4.5563054084777832e-01" purity="6.0809719562530518e-01" nType="-99"/>
        </Node>
        <Node pos="r" depth="1" NCoef="0" IVar="5" Cut="5.6635003662109375e+02" cType="1" res="2.0397843793034554e-02" rms="4.4752302765846252e-01" purity="5.8320176601409912e-01" nType="0">
          <Node pos="l" depth="2" NCoef="0" IVar="-1" Cut="0.0000000000000000e+00" cType="1" res="1.6978319035843015e-04" rms="4.5648905634880066e-01" purity="5.0595617294311523e-01" nType="-99"/>
          <Node pos="r" depth="2" NCoef="0" IVar="-1" Cut="0.0000000000000000e+00" cType="1" res="1.5889519127085805e-03" rms="4.4040468335151672e-01" purity="6.3997000455856323e-01" nType="-99"/>
        </Node>
      </Node>
    </BinaryTree>
    <BinaryTree type="DecisionTree" boostWeight="1.0000000000000000e+00" itree="423">
      <Node pos="s" depth="0" NCoef="0" IVar="5" Cut="9.7046881103515625e+02" cType="1" res="2.4106793571263552e-03" rms="4.4798305630683899e-01" purity="4.9951145052909851e-01" nType="0">
        <Node pos="l" depth="1" NCoef="0" IVar="7" Cut="3.3989146351814270e-02" cType="1" res="-3.3244716469198465e-03" rms="4.4572687149047852e-01" purity="4.7879767417907715e-01" nType="0">
          <Node pos="l" depth="2" NCoef="0" IVar="-1" Cut="0.0000000000000000e+00" cType="1" res="-2.4192223791033030e-03" rms="4.3327069282531738e-01" purity="3.4994798898696899e-01" nType="-99"/>
          <Node pos="r" depth="2" NCoef="0" IVar="-1" Cut="0.0000000000000000e+00" cType="1" res="1.6180756210815161e-04" rms="4.4719195365905762e-01" purity="4.9816191196441650e-01" nType="-99"/>
        </Node>
        <Node pos="r" depth="1" NCoef="0" IVar="4" Cut="6.6228306293487549e-01" cType="1" res="3.0024442821741104e-02" rms="4.5768582820892334e-01" purity="5.9924459457397461e-01" nType="0">
          <Node pos="l" depth="2" NCoef="0" IVar="-1" Cut="0.0000000000000000e+00" cType="1" res="2.1223276853561401e-03" rms="4.7476485371589661e-01" purity="5.0459760427474976e-01" nType="-99"/>
          <Node pos="r" depth="2" NCoef="0" IVar="-1" Cut="0.0000000000000000e+00" cType="1" res="7.7694159699603915e-04" rms="4.4265952706336975e-01" purity="6.7698991298675537e-01" nType="-99"/>
        </Node>
      </Node>
    </BinaryTree>
    <BinaryTree type="DecisionTree" boostWeight="1.0000000000000000e+00" itree="424">
      <Node pos="s" depth="0" NCoef="0" IVar="2" Cut="6.9937568902969360e-01" cType="1" res="-9.5683254767209291e-04" rms="4.4789007306098938e-01" purity="4.9998921155929565e-01" nType="0">
        <Node pos="l" depth="1" NCoef="0" IVar="5" Cut="6.5153857421875000e+02" cType="1" res="-3.1047655269503593e-02" rms="4.2289108037948608e-01" purity="2.8619760274887085e-01" nType="0">
          <Node pos="l" depth="2" NCoef="0" IVar="-1" Cut="0.0000000000000000e+00" cType="1" res="-2.9229735955595970e-03" rms="3.8924598693847656e-01" purity="2.1137949824333191e-01" nType="-99"/>
          <Node pos="r" depth="2" NCoef="0" IVar="-1" Cut="0.0000000000000000e+00" cType="1" res="-7.9889112384989858e-04" rms="4.4824242591857910e-01" purity="3.4799596667289734e-01" nType="-99"/>
        </Node>
        <Node pos="r" depth="1" NCoef="0" IVar="0" Cut="3.6678570508956909e-01" cType="1" res="2.9150943737477064e-03" rms="4.5086038112640381e-01" purity="5.2749878168106079e-01" nType="0">
          <Node pos="l" depth="2" NCoef="0" IVar="-1" Cut="0.0000000000000000e+00" cType="1" res="-7.4627852882258594e-05" rms="4.5550245046615601e-01" purity="4.9603688716888428e-01" nType="-99"/>
          <Node pos="r" depth="2" NCoef="0" IVar="-1" Cut="0.0000000000000000e+00" cType="1" res="1.5590447001159191e-03" rms="4.2031872272491455e-01" purity="7.1993583440780640e-01" nType="-99"/>
        </Node>
      </Node>
    </BinaryTree>
    <BinaryTree type="DecisionTree" boostWeight="1.0000000000000000e+00" itree="425">
      <Node pos="s" depth="0" NCoef="0" IVar="4" Cut="9.2693543434143066e-01" cType="1" res="2.3897101636976004e-03" rms="4.4592076539993286e-01" purity="5.0241339206695557e-01" nType="0">
        <Node pos="l" depth="1" NCoef="0" IVar="1" Cut="8.5779732465744019e-01" cType="1" res="-2.0572333596646786e-03" rms="4.5074978470802307e-01" purity="4.6716237068176270e-01" nType="0">
          <Node pos="l" depth="2" NCoef="0" IVar="-1" Cut="0.0000000000000000e+00" cType="1" res="8.6761201964691281e-04" rms="4.5369094610214233e-01" purity="6.2158101797103882e-01" nType="-99"/>
          <Node pos="r" depth="2" NCoef="0" IVar="-1" Cut="0.0000000000000000e+00" cType="1" res="-4.1647697798907757e-04" rms="4.4962361454963684e-01" purity="4.1848084330558777e-01" nType="-99"/>
        </Node>
        <Node pos="r" depth="1" NCoef="0" IVar="2" Cut="9.8956060409545898e-01" cType="1" res="3.4664385020732880e-02" rms="4.0771782398223877e-01" purity="7.5825560092926025e-01" nType="0">
          <Node pos="l" depth="2" NCoef="0" IVar="-1" Cut="0.0000000000000000e+00" cType="1" res="1.2356895022094250e-03" rms="4.1481164097785950e-01" purity="7.4341547489166260e-01" nType="-99"/>
          <Node pos="r" depth="2" NCoef="0" IVar="-1" Cut="0.0000000000000000e+00" cType="1" res="2.4736737832427025e-03" rms="3.9983293414115906e-01" purity="7.7375280857086182e-01" nType="-99"/>
        </Node>
      </Node>
    </BinaryTree>
    <BinaryTree type="DecisionTree" boostWeight="1.0000000000000000e+00" itree="426">
      <Node pos="s" depth="0" NCoef="0" IVar="4" Cut="5.4223680496215820e-01" cType="1" res="1.6710165073163807e-04" rms="4.4690400362014771e-01" purity="4.9919468164443970e-01" nType="0">
        <Node pos="l" depth="1" NCoef="0" IVar="3" Cut="6.9421267509460449e-01" cType="1" res="-2.6370745152235031e-02" rms="4.3017628788948059e-01" purity="3.0842423439025879e-01" nType="0">
          <Node pos="l" depth="2" NCoef="0" IVar="-1" Cut="0.0000000000000000e+00" cType="1" res="2.8472475241869688e-04" rms="4.6316528320312500e-01" purity="4.0425121784210205e-01" nType="-99"/>
          <Node pos="r" depth="2" NCoef="0" IVar="-1" Cut="0.0000000000000000e+00" cType="1" res="-2.2971024736762047e-03" rms="4.1229790449142456e-01" purity="2.6191532611846924e-01" nType="-99"/>
        </Node>
        <Node pos="r" depth="1" NCoef="0" IVar="2" Cut="9.6711653470993042e-01" cType="1" res="5.1979776471853256e-03" rms="4.4982853531837463e-01" purity="5.3535979986190796e-01" nType="0">
          <Node pos="l" depth="2" NCoef="0" IVar="-1" Cut="0.0000000000000000e+00" cType="1" res="-7.7779281127732247e-05" rms="4.5628380775451660e-01" purity="4.8137474060058594e-01" nType="-99"/>
          <Node pos="r" depth="2" NCoef="0" IVar="-1" Cut="0.0000000000000000e+00" cType="1" res="8.5069402121007442e-04" rms="4.3789479136466980e-01" purity="6.3102257251739502e-01" nType="-99"/>
        </Node>
      </Node>
    </BinaryTree>
    <BinaryTree type="DecisionTree" boostWeight="1.0000000000000000e+00" itree="427">
      <Node pos="s" depth="0" NCoef="0" IVar="7" Cut="1.4745362102985382e-01" cType="1" res="-1.9216134387534112e-04" rms="4.4639626145362854e-01" purity="5.0077807903289795e-01" nType="0">
        <Node pos="l" depth="1" NCoef="0" IVar="5" Cut="6.7348681640625000e+02" cType="1" res="-6.1282766982913017e-03" rms="4.4600877165794373e-01" purity="4.7824874520301819e-01" nType="0">
          <Node pos="l" depth="2" NCoef="0" IVar="-1" Cut="0.0000000000000000e+00" cType="1" res="-9.0042891679331660e-04" rms="4.3813869357109070e-01" purity="4.0562194585800171e-01" nType="-99"/>
          <Node pos="r" depth="2" NCoef="0" IVar="-1" Cut="0.0000000000000000e+00" cType="1" res="1.5781074762344360e-04" rms="4.5202195644378662e-01" purity="5.3669291734695435e-01" nType="-99"/>
        </Node>
        <Node pos="r" depth="1" NCoef="0" IVar="5" Cut="5.6635003662109375e+02" cType="1" res="2.3478845134377480e-02" rms="4.4715508818626404e-01" purity="5.9061646461486816e-01" nType="0">
          <Node pos="l" depth="2" NCoef="0" IVar="-1" Cut="0.0000000000000000e+00" cType="1" res="2.2076004825066775e-04" rms="4.5628792047500610e-01" purity="5.1225906610488892e-01" nType="-99"/>
          <Node pos="r" depth="2" NCoef="0" IVar="-1" Cut="0.0000000000000000e+00" cType="1" res="1.8234957242384553e-03" rms="4.3970623612403870e-01" purity="6.4893376827239990e-01" nType="-99"/>
        </Node>
      </Node>
    </BinaryTree>
    <BinaryTree type="DecisionTree" boostWeight="1.0000000000000000e+00" itree="428">
      <Node pos="s" depth="0" NCoef="0" IVar="0" Cut="1.2631890177726746e-01" cType="1" res="-2.0764344371855259e-03" rms="4.4674313068389893e-01" purity="4.9688887596130371e-01" nType="0">
        <Node pos="l" depth="1" NCoef="0" IVar="5" Cut="5.4183654785156250e+02" cType="1" res="-1.3469759374856949e-02" rms="4.4578477740287781e-01" purity="3.9396235346794128e-01" nType="0">
          <Node pos="l" depth="2" NCoef="0" IVar="-1" Cut="0.0000000000000000e+00" cType="1" res="-1.6385405324399471e-03" rms="4.2230752110481262e-01" purity="3.0817577242851257e-01" nType="-99"/>
          <Node pos="r" depth="2" NCoef="0" IVar="-1" Cut="0.0000000000000000e+00" cType="1" res="-3.4085137303918600e-04" rms="4.5409113168716431e-01" purity="4.2605087161064148e-01" nType="-99"/>
        </Node>
        <Node pos="r" depth="1" NCoef="0" IVar="7" Cut="1.8785929679870605e-01" cType="1" res="7.9533038660883904e-03" rms="4.4734498858451843e-01" purity="5.8749687671661377e-01" nType="0">
          <Node pos="l" depth="2" NCoef="0" IVar="-1" Cut="0.0000000000000000e+00" cType="1" res="2.0388881966937333e-04" rms="4.4958978891372681e-01" purity="5.7352668046951294e-01" nType="-99"/>
          <Node pos="r" depth="2" NCoef="0" IVar="-1" Cut="0.0000000000000000e+00" cType="1" res="1.9846011418849230e-03" rms="4.2647770047187805e-01" purity="7.0623284578323364e-01" nType="-99"/>
        </Node>
      </Node>
    </BinaryTree>
    <BinaryTree type="DecisionTree" boostWeight="1.0000000000000000e+00" itree="429">
      <Node pos="s" depth="0" NCoef="0" IVar="0" Cut="3.5262098908424377e-01" cType="1" res="-2.7628694660961628e-03" rms="4.4805267453193665e-01" purity="4.9803423881530762e-01" nType="0">
        <Node pos="l" depth="1" NCoef="0" IVar="3" Cut="8.3946168422698975e-01" cType="1" res="-7.5379828922450542e-03" rms="4.5123228430747986e-01" purity="4.6327006816864014e-01" nType="0">
          <Node pos="l" depth="2" NCoef="0" IVar="-1" Cut="0.0000000000000000e+00" cType="1" res="2.5452318368479609e-04" rms="4.5791697502136230e-01" purity="5.3974527120590210e-01" nType="-99"/>
          <Node pos="r" depth="2" NCoef="0" IVar="-1" Cut="0.0000000000000000e+00" cType="1" res="-8.1968627637252212e-04" rms="4.4626715779304504e-01" purity="4.0970224142074585e-01" nType="-99"/>
        </Node>
        <Node pos="r" depth="1" NCoef="0" IVar="1" Cut="1.0281132459640503e+00" cType="1" res="2.3999761790037155e-02" rms="4.2881414294242859e-01" purity="6.9287383556365967e-01" nType="0">
          <Node pos="l" depth="2" NCoef="0" IVar="-1" Cut="0.0000000000000000e+00" cType="1" res="2.0784093067049980e-03" rms="3.8910672068595886e-01" purity="8.0051040649414062e-01" nType="-99"/>
          <Node pos="r" depth="2" NCoef="0" IVar="-1" Cut="0.0000000000000000e+00" cType="1" res="6.5021484624594450e-04" rms="4.5759794116020203e-01" purity="6.0755360126495361e-01" nType="-99"/>
        </Node>
      </Node>
    </BinaryTree>
    <BinaryTree type="DecisionTree" boostWeight="1.0000000000000000e+00" itree="430">
      <Node pos="s" depth="0" NCoef="0" IVar="5" Cut="1.0877612304687500e+03" cType="1" res="2.2334617096930742e-04" rms="4.4791376590728760e-01" purity="4.9989286065101624e-01" nType="0">
        <Node pos="l" depth="1" NCoef="0" IVar="7" Cut="3.2490663230419159e-02" cType="1" res="-3.9447499439120293e-03" rms="4.4689136743545532e-01" purity="4.8546373844146729e-01" nType="0">
          <Node pos="l" depth="2" NCoef="0" IVar="-1" Cut="0.0000000000000000e+00" cType="1" res="-1.7259157029911876e-03" rms="4.4275420904159546e-01" purity="3.7831833958625793e-01" nType="-99"/>
          <Node pos="r" depth="2" NCoef="0" IVar="-1" Cut="0.0000000000000000e+00" cType="1" res="2.0152532670181245e-05" rms="4.4731798768043518e-01" purity="5.0094431638717651e-01" nType="-99"/>
        </Node>
        <Node pos="r" depth="1" NCoef="0" IVar="1" Cut="1.0914177894592285e+00" cType="1" res="3.2349068671464920e-02" rms="4.5443597435951233e-01" purity="6.1110585927963257e-01" nType="0">
          <Node pos="l" depth="2" NCoef="0" IVar="-1" Cut="0.0000000000000000e+00" cType="1" res="7.8406592365354300e-04" rms="4.4425907731056213e-01" purity="6.7160409688949585e-01" nType="-99"/>
          <Node pos="r" depth="2" NCoef="0" IVar="-1" Cut="0.0000000000000000e+00" cType="1" res="2.1798529196530581e-03" rms="4.6337431669235229e-01" purity="5.5358690023422241e-01" nType="-99"/>
        </Node>
      </Node>
    </BinaryTree>
    <BinaryTree type="DecisionTree" boostWeight="1.0000000000000000e+00" itree="431">
      <Node pos="s" depth="0" NCoef="0" IVar="7" Cut="1.4483496546745300e-01" cType="1" res="-2.2603997495025396e-03" rms="4.4731178879737854e-01" purity="4.9673190712928772e-01" nType="0">
        <Node pos="l" depth="1" NCoef="0" IVar="1" Cut="6.9300627708435059e-01" cType="1" res="-8.0976262688636780e-03" rms="4.4698458909988403e-01" purity="4.7306060791015625e-01" nType="0">
          <Node pos="l" depth="2" NCoef="0" IVar="-1" Cut="0.0000000000000000e+00" cType="1" res="1.3836262514814734e-03" rms="4.2912909388542175e-01" purity="6.7620056867599487e-01" nType="-99"/>
          <Node pos="r" depth="2" NCoef="0" IVar="-1" Cut="0.0000000000000000e+00" cType="1" res="-5.8941182214766741e-04" rms="4.4870233535766602e-01" purity="4.5103004574775696e-01" nType="-99"/>
        </Node>
        <Node pos="r" depth="1" NCoef="0" IVar="8" Cut="2.2469542026519775e+00" cType="1" res="1.9994497299194336e-02" rms="4.4785961508750916e-01" purity="5.8698081970214844e-01" nType="0">
          <Node pos="l" depth="2" NCoef="0" IVar="-1" Cut="0.0000000000000000e+00" cType="1" res="1.4748090179637074e-03" rms="4.4254526495933533e-01" purity="6.3587290048599243e-01" nType="-99"/>
          <Node pos="r" depth="2" NCoef="0" IVar="-1" Cut="0.0000000000000000e+00" cType="1" res="4.1776809666771442e-05" rms="4.5703506469726562e-01" purity="4.9539753794670105e-01" nType="-99"/>
        </Node>
      </Node>
    </BinaryTree>
    <BinaryTree type="DecisionTree" boostWeight="1.0000000000000000e+00" itree="432">
      <Node pos="s" depth="0" NCoef="0" IVar="3" Cut="8.0794477462768555e-01" cType="1" res="-1.5308064175769687e-03" rms="4.4754976034164429e-01" purity="4.9781396985054016e-01" nType="0">
        <Node pos="l" depth="1" NCoef="0" IVar="2" Cut="9.8772883415222168e-01" cType="1" res="1.0434951633214951e-02" rms="4.4769889116287231e-01" purity="5.7614463567733765e-01" nType="0">
          <Node pos="l" depth="2" NCoef="0" IVar="-1" Cut="0.0000000000000000e+00" cType="1" res="1.5327887376770377e-04" rms="4.5375740528106689e-01" purity="5.4636412858963013e-01" nType="-99"/>
          <Node pos="r" depth="2" NCoef="0" IVar="-1" Cut="0.0000000000000000e+00" cType="1" res="2.2547200787812471e-03" rms="4.1634872555732727e-01" purity="7.1622729301452637e-01" nType="-99"/>
        </Node>
        <Node pos="r" depth="1" NCoef="0" IVar="4" Cut="8.5504871606826782e-01" cType="1" res="-9.5195611938834190e-03" rms="4.4727200269699097e-01" purity="4.4551765918731689e-01" nType="0">
          <Node pos="l" depth="2" NCoef="0" IVar="-1" Cut="0.0000000000000000e+00" cType="1" res="-7.9988635843619704e-04" rms="4.4883054494857788e-01" purity="3.8123217225074768e-01" nType="-99"/>
          <Node pos="r" depth="2" NCoef="0" IVar="-1" Cut="0.0000000000000000e+00" cType="1" res="7.1096629835665226e-04" rms="4.4074216485023499e-01" purity="6.7838162183761597e-01" nType="-99"/>
        </Node>
      </Node>
    </BinaryTree>
    <BinaryTree type="DecisionTree" boostWeight="1.0000000000000000e+00" itree="433">
      <Node pos="s" depth="0" NCoef="0" IVar="6" Cut="1.7339148521423340e+00" cType="1" res="-8.6234824266284704e-04" rms="4.4731292128562927e-01" purity="5.0013637542724609e-01" nType="0">
        <Node pos="l" depth="1" NCoef="0" IVar="4" Cut="9.2723834514617920e-01" cType="1" res="2.7802158147096634e-03" rms="4.5307448506355286e-01" purity="5.3278833627700806e-01" nType="0">
          <Node pos="l" depth="2" NCoef="0" IVar="-1" Cut="0.0000000000000000e+00" cType="1" res="-2.6243091269861907e-05" rms="4.5873433351516724e-01" purity="4.9913579225540161e-01" nType="-99"/>
          <Node pos="r" depth="2" NCoef="0" IVar="-1" Cut="0.0000000000000000e+00" cType="1" res="1.4223497128114104e-03" rms="4.0996989607810974e-01" purity="7.7121281623840332e-01" nType="-99"/>
        </Node>
        <Node pos="r" depth="1" NCoef="0" IVar="6" Cut="2.0061831474304199e+00" cType="1" res="-3.1307011842727661e-02" rms="3.9457908272743225e-01" purity="2.2723026573657990e-01" nType="0">
          <Node pos="l" depth="2" NCoef="0" IVar="-1" Cut="0.0000000000000000e+00" cType="1" res="-8.5796311032027006e-04" rms="4.2126855254173279e-01" purity="2.7819254994392395e-01" nType="-99"/>
          <Node pos="r" depth="2" NCoef="0" IVar="-1" Cut="0.0000000000000000e+00" cType="1" res="-3.1258203089237213e-03" rms="3.6354261636734009e-01" purity="1.7340771853923798e-01" nType="-99"/>
        </Node>
      </Node>
    </BinaryTree>
    <BinaryTree type="DecisionTree" boostWeight="1.0000000000000000e+00" itree="434">
      <Node pos="s" depth="0" NCoef="0" IVar="4" Cut="5.4220527410507202e-01" cType="1" res="5.4849835578352213e-04" rms="4.4519314169883728e-01" purity="4.9934509396553040e-01" nType="0">
        <Node pos="l" depth="1" NCoef="0" IVar="6" Cut="1.1291290521621704e+00" cType="1" res="-2.8284473344683647e-02" rms="4.2500635981559753e-01" purity="3.0140882730484009e-01" nType="0">
          <Node pos="l" depth="2" NCoef="0" IVar="-1" Cut="0.0000000000000000e+00" cType="1" res="-7.5449160067364573e-04" rms="4.5211634039878845e-01" purity="3.6936676502227783e-01" nType="-99"/>
          <Node pos="r" depth="2" NCoef="0" IVar="-1" Cut="0.0000000000000000e+00" cType="1" res="-2.9078836087137461e-03" rms="3.7979441881179810e-01" purity="1.9906817376613617e-01" nType="-99"/>
        </Node>
        <Node pos="r" depth="1" NCoef="0" IVar="4" Cut="9.4472330808639526e-01" cType="1" res="6.0132080689072609e-03" rms="4.4870799779891968e-01" purity="5.3685998916625977e-01" nType="0">
          <Node pos="l" depth="2" NCoef="0" IVar="-1" Cut="0.0000000000000000e+00" cType="1" res="9.4668714154977351e-05" rms="4.5457196235656738e-01" purity="5.0759726762771606e-01" nType="-99"/>
          <Node pos="r" depth="2" NCoef="0" IVar="-1" Cut="0.0000000000000000e+00" cType="1" res="2.0434230100363493e-03" rms="3.9737805724143982e-01" purity="7.7035760879516602e-01" nType="-99"/>
        </Node>
      </Node>
    </BinaryTree>
    <BinaryTree type="DecisionTree" boostWeight="1.0000000000000000e+00" itree="435">
      <Node pos="s" depth="0" NCoef="0" IVar="5" Cut="4.3722476196289062e+02" cType="1" res="-1.0499627096578479e-03" rms="4.4740104675292969e-01" purity="4.9828130006790161e-01" nType="0">
        <Node pos="l" depth="1" NCoef="0" IVar="-1" Cut="0.0000000000000000e+00" cType="1" res="-2.5177241768687963e-03" rms="4.2266583442687988e-01" purity="3.2960793375968933e-01" nType="-99"/>
        <Node pos="r" depth="1" NCoef="0" IVar="7" Cut="3.3674065023660660e-02" cType="1" res="1.9089092966169119e-03" rms="4.4874674081802368e-01" purity="5.0889229774475098e-01" nType="0">
          <Node pos="l" depth="2" NCoef="0" IVar="-1" Cut="0.0000000000000000e+00" cType="1" res="-1.0740637080743909e-03" rms="4.4459775090217590e-01" purity="4.2155382037162781e-01" nType="-99"/>
          <Node pos="r" depth="2" NCoef="0" IVar="-1" Cut="0.0000000000000000e+00" cType="1" res="3.1986247631721199e-04" rms="4.4941088557243347e-01" purity="5.2608960866928101e-01" nType="-99"/>
        </Node>
      </Node>
    </BinaryTree>
    <BinaryTree type="DecisionTree" boostWeight="1.0000000000000000e+00" itree="436">
      <Node pos="s" depth="0" NCoef="0" IVar="4" Cut="9.6296602487564087e-01" cType="1" res="2.8938194736838341e-03" rms="4.4783496856689453e-01" purity="5.0283181667327881e-01" nType="0">
        <Node pos="l" depth="1" NCoef="0" IVar="5" Cut="8.7300744628906250e+02" cType="1" res="7.3575538408476859e-05" rms="4.5088070631027222e-01" purity="4.8437961935997009e-01" nType="0">
          <Node pos="l" depth="2" NCoef="0" IVar="-1" Cut="0.0000000000000000e+00" cType="1" res="-3.2380071934312582e-04" rms="4.4826313853263855e-01" purity="4.5528984069824219e-01" nType="-99"/>
          <Node pos="r" depth="2" NCoef="0" IVar="-1" Cut="0.0000000000000000e+00" cType="1" res="9.5109333051368594e-04" rms="4.5808979868888855e-01" purity="5.7202577590942383e-01" nType="-99"/>
        </Node>
        <Node pos="r" depth="1" NCoef="0" IVar="-1" Cut="0.0000000000000000e+00" cType="1" res="2.4268038105219603e-03" rms="3.9762356877326965e-01" purity="7.7642416954040527e-01" nType="-99"/>
      </Node>
    </BinaryTree>
    <BinaryTree type="DecisionTree" boostWeight="1.0000000000000000e+00" itree="437">
      <Node pos="s" depth="0" NCoef="0" IVar="0" Cut="1.1217094212770462e-01" cType="1" res="-1.6318428097292781e-03" rms="4.4710847735404968e-01" purity="4.9861904978752136e-01" nType="0">
        <Node pos="l" depth="1" NCoef="0" IVar="1" Cut="1.5509673357009888e+00" cType="1" res="-1.5884827822446823e-02" rms="4.4283819198608398e-01" purity="3.8682341575622559e-01" nType="0">
          <Node pos="l" depth="2" NCoef="0" IVar="-1" Cut="0.0000000000000000e+00" cType="1" res="-5.2112777484580874e-04" rms="4.5292285084724426e-01" purity="4.1736230254173279e-01" nType="-99"/>
          <Node pos="r" depth="2" NCoef="0" IVar="-1" Cut="0.0000000000000000e+00" cType="1" res="-3.0388871673494577e-03" rms="3.7111824750900269e-01" purity="1.9347150623798370e-01" nType="-99"/>
        </Node>
        <Node pos="r" depth="1" NCoef="0" IVar="1" Cut="7.3688173294067383e-01" cType="1" res="8.6045386269688606e-03" rms="4.4987183809280396e-01" purity="5.7890969514846802e-01" nType="0">
          <Node pos="l" depth="2" NCoef="0" IVar="-1" Cut="0.0000000000000000e+00" cType="1" res="2.3044042754918337e-03" rms="4.0884804725646973e-01" purity="7.6386684179306030e-01" nType="-99"/>
          <Node pos="r" depth="2" NCoef="0" IVar="-1" Cut="0.0000000000000000e+00" cType="1" res="1.2581337068695575e-04" rms="4.5620989799499512e-01" purity="5.4747021198272705e-01" nType="-99"/>
        </Node>
      </Node>
    </BinaryTree>
    <BinaryTree type="DecisionTree" boostWeight="1.0000000000000000e+00" itree="438">
      <Node pos="s" depth="0" NCoef="0" IVar="5" Cut="6.0908776855468750e+02" cType="1" res="1.9416225841268897e-03" rms="4.4892251491546631e-01" purity="5.0154823064804077e-01" nType="0">
        <Node pos="l" depth="1" NCoef="0" IVar="5" Cut="4.8228356933593750e+02" cType="1" res="-1.1521589942276478e-02" rms="4.4173529744148254e-01" purity="4.2521461844444275e-01" nType="0">
          <Node pos="l" depth="2" NCoef="0" IVar="-1" Cut="0.0000000000000000e+00" cType="1" res="-1.5425680903717875e-03" rms="4.3427199125289917e-01" purity="3.6462384462356567e-01" nType="-99"/>
          <Node pos="r" depth="2" NCoef="0" IVar="-1" Cut="0.0000000000000000e+00" cType="1" res="-1.0732099326560274e-04" rms="4.4522815942764282e-01" purity="4.5632225275039673e-01" nType="-99"/>
        </Node>
        <Node pos="r" depth="1" NCoef="0" IVar="7" Cut="1.5828217566013336e-01" cType="1" res="9.7415177151560783e-03" rms="4.5285117626190186e-01" purity="5.4577207565307617e-01" nType="0">
          <Node pos="l" depth="2" NCoef="0" IVar="-1" Cut="0.0000000000000000e+00" cType="1" res="2.8542865766212344e-04" rms="4.5381325483322144e-01" purity="5.2930778264999390e-01" nType="-99"/>
          <Node pos="r" depth="2" NCoef="0" IVar="-1" Cut="0.0000000000000000e+00" cType="1" res="1.7635733820497990e-03" rms="4.4512420892715454e-01" purity="6.6147994995117188e-01" nType="-99"/>
        </Node>
      </Node>
    </BinaryTree>
    <BinaryTree type="DecisionTree" boostWeight="1.0000000000000000e+00" itree="439">
      <Node pos="s" depth="0" NCoef="0" IVar="1" Cut="6.5814161300659180e-01" cType="1" res="4.5799065264873207e-04" rms="4.4724732637405396e-01" purity="5.0125187635421753e-01" nType="0">
        <Node pos="l" depth="1" NCoef="0" IVar="-1" Cut="0.0000000000000000e+00" cType="1" res="1.5449525089934468e-03" rms="4.2961293458938599e-01" purity="6.8321156501770020e-01" nType="-99"/>
        <Node pos="r" depth="1" NCoef="0" IVar="4" Cut="5.3019875288009644e-01" cType="1" res="-2.7047416660934687e-03" rms="4.4890692830085754e-01" purity="4.8249146342277527e-01" nType="0">
          <Node pos="l" depth="2" NCoef="0" IVar="-1" Cut="0.0000000000000000e+00" cType="1" res="-1.4440215891227126e-03" rms="4.2529281973838806e-01" purity="2.8802081942558289e-01" nType="-99"/>
          <Node pos="r" depth="2" NCoef="0" IVar="-1" Cut="0.0000000000000000e+00" cType="1" res="3.2520754757570103e-05" rms="4.5197930932044983e-01" purity="5.0944912433624268e-01" nType="-99"/>
        </Node>
      </Node>
    </BinaryTree>
    <BinaryTree type="DecisionTree" boostWeight="1.0000000000000000e+00" itree="440">
      <Node pos="s" depth="0" NCoef="0" IVar="7" Cut="1.0048036277294159e-01" cType="1" res="-9.6738158026710153e-04" rms="4.4773116707801819e-01" purity="4.9766409397125244e-01" nType="0">
        <Node pos="l" depth="1" NCoef="0" IVar="5" Cut="9.9438726806640625e+02" cType="1" res="-9.8629305139183998e-03" rms="4.4783607125282288e-01" purity="4.5920658111572266e-01" nType="0">
          <Node pos="l" depth="2" NCoef="0" IVar="-1" Cut="0.0000000000000000e+00" cType="1" res="-8.4081711247563362e-04" rms="4.4465252757072449e-01" purity="4.2988362908363342e-01" nType="-99"/>
          <Node pos="r" depth="2" NCoef="0" IVar="-1" Cut="0.0000000000000000e+00" cType="1" res="8.0617133062332869e-04" rms="4.5881563425064087e-01" purity="5.7137095928192139e-01" nType="-99"/>
        </Node>
        <Node pos="r" depth="1" NCoef="0" IVar="4" Cut="9.0310198068618774e-01" cType="1" res="1.3188438490033150e-02" rms="4.4719949364662170e-01" purity="5.5886274576187134e-01" nType="0">
          <Node pos="l" depth="2" NCoef="0" IVar="-1" Cut="0.0000000000000000e+00" cType="1" res="3.5204150481149554e-04" rms="4.5850268006324768e-01" purity="5.0825297832489014e-01" nType="-99"/>
          <Node pos="r" depth="2" NCoef="0" IVar="-1" Cut="0.0000000000000000e+00" cType="1" res="2.2590267471969128e-03" rms="3.8835918903350830e-01" purity="7.9752480983734131e-01" nType="-99"/>
        </Node>
      </Node>
    </BinaryTree>
    <BinaryTree type="DecisionTree" boostWeight="1.0000000000000000e+00" itree="441">
      <Node pos="s" depth="0" NCoef="0" IVar="7" Cut="1.7784889042377472e-01" cType="1" res="6.1951961833983660e-04" rms="4.4798979163169861e-01" purity="5.0210279226303101e-01" nType="0">
        <Node pos="l" depth="1" NCoef="0" IVar="0" Cut="3.1020560860633850e-01" cType="1" res="-4.0448941290378571e-03" rms="4.4825336337089539e-01" purity="4.8632881045341492e-01" nType="0">
          <Node pos="l" depth="2" NCoef="0" IVar="-1" Cut="0.0000000000000000e+00" cType="1" res="-4.8210093518719077e-04" rms="4.5137256383895874e-01" purity="4.3956136703491211e-01" nType="-99"/>
          <Node pos="r" depth="2" NCoef="0" IVar="-1" Cut="0.0000000000000000e+00" cType="1" res="9.0681441361084580e-04" rms="4.3538555502891541e-01" purity="6.6537588834762573e-01" nType="-99"/>
        </Node>
        <Node pos="r" depth="1" NCoef="0" IVar="3" Cut="7.7298742532730103e-01" cType="1" res="3.2990593463182449e-02" rms="4.4481059908866882e-01" purity="6.1157488822937012e-01" nType="0">
          <Node pos="l" depth="2" NCoef="0" IVar="-1" Cut="0.0000000000000000e+00" cType="1" res="2.1977541036903858e-03" rms="4.3830099701881409e-01" purity="6.6273266077041626e-01" nType="-99"/>
          <Node pos="r" depth="2" NCoef="0" IVar="-1" Cut="0.0000000000000000e+00" cType="1" res="1.0643471032381058e-03" rms="4.5038703083992004e-01" purity="5.6492543220520020e-01" nType="-99"/>
        </Node>
      </Node>
    </BinaryTree>
    <BinaryTree type="DecisionTree" boostWeight="1.0000000000000000e+00" itree="442">
      <Node pos="s" depth="0" NCoef="0" IVar="2" Cut="9.7572469711303711e-01" cType="1" res="1.9474873552098870e-03" rms="4.4763168692588806e-01" purity="5.0169396400451660e-01" nType="0">
        <Node pos="l" depth="1" NCoef="0" IVar="7" Cut="1.1055995523929596e-01" cType="1" res="-5.8258846402168274e-03" rms="4.5184838771820068e-01" purity="4.5254743099212646e-01" nType="0">
          <Node pos="l" depth="2" NCoef="0" IVar="-1" Cut="0.0000000000000000e+00" cType="1" res="-5.8430770877748728e-04" rms="4.4852569699287415e-01" purity="4.2337486147880554e-01" nType="-99"/>
          <Node pos="r" depth="2" NCoef="0" IVar="-1" Cut="0.0000000000000000e+00" cType="1" res="3.1358801061287522e-04" rms="4.5834872126579285e-01" purity="5.1246827840805054e-01" nType="-99"/>
        </Node>
        <Node pos="r" depth="1" NCoef="0" IVar="0" Cut="3.2433935999870300e-01" cType="1" res="2.1840436384081841e-02" rms="4.3602457642555237e-01" purity="6.2746560573577881e-01" nType="0">
          <Node pos="l" depth="2" NCoef="0" IVar="-1" Cut="0.0000000000000000e+00" cType="1" res="7.4073765426874161e-04" rms="4.4738665223121643e-01" purity="5.8699536323547363e-01" nType="-99"/>
          <Node pos="r" depth="2" NCoef="0" IVar="-1" Cut="0.0000000000000000e+00" cType="1" res="2.6108208112418652e-03" rms="3.8692483305931091e-01" purity="7.8718256950378418e-01" nType="-99"/>
        </Node>
      </Node>
    </BinaryTree>
    <BinaryTree type="DecisionTree" boostWeight="1.0000000000000000e+00" itree="443">
      <Node pos="s" depth="0" NCoef="0" IVar="3" Cut="1.7219902276992798e+00" cType="1" res="-6.3523038988932967e-04" rms="4.4720542430877686e-01" purity="5.0083786249160767e-01" nType="0">
        <Node pos="l" depth="1" NCoef="0" IVar="5" Cut="1.2140200195312500e+03" cType="1" res="5.1268460229039192e-03" rms="4.5065391063690186e-01" purity="5.4066699743270874e-01" nType="0">
          <Node pos="l" depth="2" NCoef="0" IVar="-1" Cut="0.0000000000000000e+00" cType="1" res="8.1509693700354546e-05" rms="4.5099571347236633e-01" purity="5.3200238943099976e-01" nType="-99"/>
          <Node pos="r" depth="2" NCoef="0" IVar="-1" Cut="0.0000000000000000e+00" cType="1" res="2.2726920433342457e-03" rms="4.4412463903427124e-01" purity="6.4890420436859131e-01" nType="-99"/>
        </Node>
        <Node pos="r" depth="1" NCoef="0" IVar="7" Cut="9.7114540636539459e-02" cType="1" res="-2.1040135994553566e-02" rms="4.3415915966033936e-01" purity="3.5979324579238892e-01" nType="0">
          <Node pos="l" depth="2" NCoef="0" IVar="-1" Cut="0.0000000000000000e+00" cType="1" res="-1.7811231082305312e-03" rms="4.2768201231956482e-01" purity="3.2443052530288696e-01" nType="-99"/>
          <Node pos="r" depth="2" NCoef="0" IVar="-1" Cut="0.0000000000000000e+00" cType="1" res="3.8393758586607873e-04" rms="4.4693312048912048e-01" purity="4.3869909644126892e-01" nType="-99"/>
        </Node>
      </Node>
    </BinaryTree>
    <BinaryTree type="DecisionTree" boostWeight="1.0000000000000000e+00" itree="444">
      <Node pos="s" depth="0" NCoef="0" IVar="7" Cut="3.3690150827169418e-02" cType="1" res="-2.9394775629043579e-03" rms="4.4766193628311157e-01" purity="4.9747285246849060e-01" nType="0">
        <Node pos="l" depth="1" NCoef="0" IVar="5" Cut="8.7591979980468750e+02" cType="1" res="-2.6473002508282661e-02" rms="4.4003200531005859e-01" purity="4.1454276442527771e-01" nType="0">
          <Node pos="l" depth="2" NCoef="0" IVar="-1" Cut="0.0000000000000000e+00" cType="1" res="-2.2188008297234774e-03" rms="4.2426836490631104e-01" purity="3.4234359860420227e-01" nType="-99"/>
          <Node pos="r" depth="2" NCoef="0" IVar="-1" Cut="0.0000000000000000e+00" cType="1" res="-3.0707856058143079e-04" rms="4.5779749751091003e-01" purity="5.0289249420166016e-01" nType="-99"/>
        </Node>
        <Node pos="r" depth="1" NCoef="0" IVar="4" Cut="5.6627255678176880e-01" cType="1" res="1.5104241902008653e-03" rms="4.4895145297050476e-01" purity="5.1315391063690186e-01" nType="0">
          <Node pos="l" depth="2" NCoef="0" IVar="-1" Cut="0.0000000000000000e+00" cType="1" res="-8.3772203652188182e-04" rms="4.3940779566764832e-01" purity="3.2840213179588318e-01" nType="-99"/>
          <Node pos="r" depth="2" NCoef="0" IVar="-1" Cut="0.0000000000000000e+00" cType="1" res="3.1828801729716361e-04" rms="4.5150041580200195e-01" purity="5.6571429967880249e-01" nType="-99"/>
        </Node>
      </Node>
    </BinaryTree>
    <BinaryTree type="DecisionTree" boostWeight="1.0000000000000000e+00" itree="445">
      <Node pos="s" depth="0" NCoef="0" IVar="5" Cut="6.4366351318359375e+02" cType="1" res="3.9680753834545612e-03" rms="4.4760006666183472e-01" purity="5.0485438108444214e-01" nType="0">
        <Node pos="l" depth="1" NCoef="0" IVar="4" Cut="5.7829225063323975e-01" cType="1" res="-8.4524312987923622e-03" rms="4.4234210252761841e-01" purity="4.4006410241127014e-01" nType="0">
          <Node pos="l" depth="2" NCoef="0" IVar="-1" Cut="0.0000000000000000e+00" cType="1" res="-1.6466990346089005e-03" rms="4.1159155964851379e-01" purity="2.6173880696296692e-01" nType="-99"/>
          <Node pos="r" depth="2" NCoef="0" IVar="-1" Cut="0.0000000000000000e+00" cType="1" res="-4.0356255340157077e-05" rms="4.5288494229316711e-01" purity="5.0562387704849243e-01" nType="-99"/>
        </Node>
        <Node pos="r" depth="1" NCoef="0" IVar="8" Cut="1.6794610023498535e+00" cType="1" res="1.3675157912075520e-02" rms="4.5142892003059387e-01" purity="5.5549037456512451e-01" nType="0">
          <Node pos="l" depth="2" NCoef="0" IVar="-1" Cut="0.0000000000000000e+00" cType="1" res="1.9345959881320596e-03" rms="4.3390852212905884e-01" purity="6.5771561861038208e-01" nType="-99"/>
          <Node pos="r" depth="2" NCoef="0" IVar="-1" Cut="0.0000000000000000e+00" cType="1" res="3.9040599949657917e-04" rms="4.5479133725166321e-01" purity="5.3423243761062622e-01" nType="-99"/>
        </Node>
      </Node>
    </BinaryTree>
    <BinaryTree type="DecisionTree" boostWeight="1.0000000000000000e+00" itree="446">
      <Node pos="s" depth="0" NCoef="0" IVar="0" Cut="1.6875469684600830e-01" cType="1" res="4.7381017357110977e-03" rms="4.4635164737701416e-01" purity="5.0447762012481689e-01" nType="0">
        <Node pos="l" depth="1" NCoef="0" IVar="1" Cut="8.6144989728927612e-01" cType="1" res="-5.6978249922394753e-03" rms="4.4879001379013062e-01" purity="4.1644519567489624e-01" nType="0">
          <Node pos="l" depth="2" NCoef="0" IVar="-1" Cut="0.0000000000000000e+00" cType="1" res="5.2959279855713248e-04" rms="4.6268016099929810e-01" purity="5.6346338987350464e-01" nType="-99"/>
          <Node pos="r" depth="2" NCoef="0" IVar="-1" Cut="0.0000000000000000e+00" cType="1" res="-5.6114158360287547e-04" rms="4.4421556591987610e-01" purity="3.7043693661689758e-01" nType="-99"/>
        </Node>
        <Node pos="r" depth="1" NCoef="0" IVar="3" Cut="2.0025637149810791e+00" cType="1" res="1.8620746210217476e-02" rms="4.4270598888397217e-01" purity="6.2158483266830444e-01" nType="0">
          <Node pos="l" depth="2" NCoef="0" IVar="-1" Cut="0.0000000000000000e+00" cType="1" res="1.1828085407614708e-03" rms="4.4039970636367798e-01" purity="6.5443295240402222e-01" nType="-99"/>
          <Node pos="r" depth="2" NCoef="0" IVar="-1" Cut="0.0000000000000000e+00" cType="1" res="-6.6277751466259360e-04" rms="4.5457932353019714e-01" purity="4.2978951334953308e-01" nType="-99"/>
        </Node>
      </Node>
    </BinaryTree>
    <BinaryTree type="DecisionTree" boostWeight="1.0000000000000000e+00" itree="447">
      <Node pos="s" depth="0" NCoef="0" IVar="0" Cut="4.1449315845966339e-02" cType="1" res="-6.9803383667021990e-04" rms="4.4697406888008118e-01" purity="4.9870139360427856e-01" nType="0">
        <Node pos="l" depth="1" NCoef="0" IVar="7" Cut="8.5712090134620667e-02" cType="1" res="-2.8395617380738258e-02" rms="4.3512535095214844e-01" purity="3.5574540495872498e-01" nType="0">
          <Node pos="l" depth="2" NCoef="0" IVar="-1" Cut="0.0000000000000000e+00" cType="1" res="-2.1654546726495028e-03" rms="4.1864922642707825e-01" purity="3.0761381983757019e-01" nType="-99"/>
          <Node pos="r" depth="2" NCoef="0" IVar="-1" Cut="0.0000000000000000e+00" cType="1" res="-7.7326782047748566e-04" rms="4.5019736886024475e-01" purity="4.0248045325279236e-01" nType="-99"/>
        </Node>
        <Node pos="r" depth="1" NCoef="0" IVar="8" Cut="2.8498501777648926e+00" cType="1" res="3.0205005314201117e-03" rms="4.4841071963310242e-01" purity="5.1789385080337524e-01" nType="0">
          <Node pos="l" depth="2" NCoef="0" IVar="-1" Cut="0.0000000000000000e+00" cType="1" res="2.7743977261707187e-04" rms="4.5236235857009888e-01" purity="5.4072999954223633e-01" nType="-99"/>
          <Node pos="r" depth="2" NCoef="0" IVar="-1" Cut="0.0000000000000000e+00" cType="1" res="-1.9355867989361286e-03" rms="3.9228650927543640e-01" purity="2.2370694577693939e-01" nType="-99"/>
        </Node>
      </Node>
    </BinaryTree>
    <BinaryTree type="DecisionTree" boostWeight="1.0000000000000000e+00" itree="448">
      <Node pos="s" depth="0" NCoef="0" IVar="8" Cut="1.6832635402679443e+00" cType="1" res="-3.9892698987387121e-04" rms="4.4715726375579834e-01" purity="4.9887749552726746e-01" nType="0">
        <Node pos="l" depth="1" NCoef="0" IVar="5" Cut="8.4469702148437500e+02" cType="1" res="2.6004698127508163e-02" rms="4.4325605034828186e-01" purity="6.1199349164962769e-01" nType="0">
          <Node pos="l" depth="2" NCoef="0" IVar="-1" Cut="0.0000000000000000e+00" cType="1" res="6.6464324481785297e-04" rms="4.4863820075988770e-01" purity="5.7265740633010864e-01" nType="-99"/>
          <Node pos="r" depth="2" NCoef="0" IVar="-1" Cut="0.0000000000000000e+00" cType="1" res="2.2313648369163275e-03" rms="4.3323343992233276e-01" purity="6.7846089601516724e-01" nType="-99"/>
        </Node>
        <Node pos="r" depth="1" NCoef="0" IVar="0" Cut="3.3848661184310913e-01" cType="1" res="-5.0441087223589420e-03" rms="4.4767901301383972e-01" purity="4.7897702455520630e-01" nType="0">
          <Node pos="l" depth="2" NCoef="0" IVar="-1" Cut="0.0000000000000000e+00" cType="1" res="-4.6864419709891081e-04" rms="4.5006304979324341e-01" purity="4.4045063853263855e-01" nType="-99"/>
          <Node pos="r" depth="2" NCoef="0" IVar="-1" Cut="0.0000000000000000e+00" cType="1" res="8.7674567475914955e-04" rms="4.3486893177032471e-01" purity="6.7150020599365234e-01" nType="-99"/>
        </Node>
      </Node>
    </BinaryTree>
    <BinaryTree type="DecisionTree" boostWeight="1.0000000000000000e+00" itree="449">
      <Node pos="s" depth="0" NCoef="0" IVar="7" Cut="3.3690150827169418e-02" cType="1" res="1.8453318625688553e-03" rms="4.4715538620948792e-01" purity="5.0219208002090454e-01" nType="0">
        <Node pos="l" depth="1" NCoef="0" IVar="5" Cut="9.4387005615234375e+02" cType="1" res="-2.3316912353038788e-02" rms="4.4437161087989807e-01" purity="4.2124849557876587e-01" nType="0">
          <Node pos="l" depth="2" NCoef="0" IVar="-1" Cut="0.0000000000000000e+00" cType="1" res="-2.0661584567278624e-03" rms="4.3303719162940979e-01" purity="3.5870096087455750e-01" nType="-99"/>
          <Node pos="r" depth="2" NCoef="0" IVar="-1" Cut="0.0000000000000000e+00" cType="1" res="2.1761805692221969e-04" rms="4.6109119057655334e-01" purity="5.2436977624893188e-01" nType="-99"/>
        </Node>
        <Node pos="r" depth="1" NCoef="0" IVar="5" Cut="4.8611297607421875e+02" cType="1" res="6.6340025514364243e-03" rms="4.4752299785614014e-01" purity="5.1759654283523560e-01" nType="0">
          <Node pos="l" depth="2" NCoef="0" IVar="-1" Cut="0.0000000000000000e+00" cType="1" res="-9.8108709789812565e-04" rms="4.3167117238044739e-01" purity="3.8922026753425598e-01" nType="-99"/>
          <Node pos="r" depth="2" NCoef="0" IVar="-1" Cut="0.0000000000000000e+00" cType="1" res="5.4455624194815755e-04" rms="4.5013442635536194e-01" purity="5.4046678543090820e-01" nType="-99"/>
        </Node>
      </Node>
    </BinaryTree>
    <BinaryTree type="DecisionTree" boostWeight="1.0000000000000000e+00" itree="450">
      <Node pos="s" depth="0" NCoef="0" IVar="5" Cut="1.0251256103515625e+03" cType="1" res="6.9018220528960228e-04" rms="4.4814276695251465e-01" purity="5.0187659263610840e-01" nType="0">
        <Node pos="l" depth="1" NCoef="0" IVar="4" Cut="5.4221957921981812e-01" cType="1" res="-3.6847135052084923e-03" rms="4.4752353429794312e-01" purity="4.8521524667739868e-01" nType="0">
          <Node pos="l" depth="2" NCoef="0" IVar="-1" Cut="0.0000000000000000e+00" cType="1" res="-1.4580312417820096e-03" rms="4.2304995656013489e-01" purity="2.8758290410041809e-01" nType="-99"/>
          <Node pos="r" depth="2" NCoef="0" IVar="-1" Cut="0.0000000000000000e+00" cType="1" res="3.8632715586572886e-05" rms="4.5190414786338806e-01" purity="5.2292579412460327e-01" nType="-99"/>
        </Node>
        <Node pos="r" depth="1" NCoef="0" IVar="6" Cut="7.5371551513671875e-01" cType="1" res="2.7347590774297714e-02" rms="4.5098137855529785e-01" purity="6.0339856147766113e-01" nType="0">
          <Node pos="l" depth="2" NCoef="0" IVar="-1" Cut="0.0000000000000000e+00" cType="1" res="2.1447481121867895e-03" rms="4.3438026309013367e-01" purity="6.9460374116897583e-01" nType="-99"/>
          <Node pos="r" depth="2" NCoef="0" IVar="-1" Cut="0.0000000000000000e+00" cType="1" res="6.8666838342323899e-04" rms="4.6237328648567200e-01" purity="5.3649795055389404e-01" nType="-99"/>
        </Node>
      </Node>
    </BinaryTree>
    <BinaryTree type="DecisionTree" boostWeight="1.0000000000000000e+00" itree="451">
      <Node pos="s" depth="0" NCoef="0" IVar="4" Cut="9.5097768306732178e-01" cType="1" res="2.9484059195965528e-03" rms="4.4554772973060608e-01" purity="5.0433117151260376e-01" nType="0">
        <Node pos="l" depth="1" NCoef="0" IVar="1" Cut="6.6746622323989868e-01" cType="1" res="-1.0554133914411068e-03" rms="4.4966408610343933e-01" purity="4.7936806082725525e-01" nType="0">
          <Node pos="l" depth="2" NCoef="0" IVar="-1" Cut="0.0000000000000000e+00" cType="1" res="1.4414016623049974e-03" rms="4.3600937724113464e-01" purity="6.5983527898788452e-01" nType="-99"/>
          <Node pos="r" depth="2" NCoef="0" IVar="-1" Cut="0.0000000000000000e+00" cType="1" res="-2.1262701193336397e-04" rms="4.5097473263740540e-01" purity="4.6005797386169434e-01" nType="-99"/>
        </Node>
        <Node pos="r" depth="1" NCoef="0" IVar="-1" Cut="0.0000000000000000e+00" cType="1" res="2.5265628937631845e-03" rms="3.9468383789062500e-01" purity="7.7945804595947266e-01" nType="-99"/>
      </Node>
    </BinaryTree>
    <BinaryTree type="DecisionTree" boostWeight="1.0000000000000000e+00" itree="452">
      <Node pos="s" depth="0" NCoef="0" IVar="0" Cut="3.3849564194679260e-01" cType="1" res="9.7190932137891650e-04" rms="4.4617322087287903e-01" purity="5.0064283609390259e-01" nType="0">
        <Node pos="l" depth="1" NCoef="0" IVar="7" Cut="4.2494691908359528e-02" cType="1" res="-4.0017622523009777e-03" rms="4.4984143972396851e-01" purity="4.6095567941665649e-01" nType="0">
          <Node pos="l" depth="2" NCoef="0" IVar="-1" Cut="0.0000000000000000e+00" cType="1" res="-1.0110480943694711e-03" rms="4.4317641854286194e-01" purity="3.9382600784301758e-01" nType="-99"/>
          <Node pos="r" depth="2" NCoef="0" IVar="-1" Cut="0.0000000000000000e+00" cType="1" res="4.3489326344570145e-05" rms="4.5172321796417236e-01" purity="4.8125639557838440e-01" nType="-99"/>
        </Node>
        <Node pos="r" depth="1" NCoef="0" IVar="0" Cut="4.4223004579544067e-01" cType="1" res="2.4893982335925102e-02" rms="4.2728292942047119e-01" purity="6.9152814149856567e-01" nType="0">
          <Node pos="l" depth="2" NCoef="0" IVar="-1" Cut="0.0000000000000000e+00" cType="1" res="8.2842609845101833e-04" rms="4.3325042724609375e-01" purity="6.7389404773712158e-01" nType="-99"/>
          <Node pos="r" depth="2" NCoef="0" IVar="-1" Cut="0.0000000000000000e+00" cType="1" res="2.2341920994222164e-03" rms="4.1329979896545410e-01" purity="7.3018723726272583e-01" nType="-99"/>
        </Node>
      </Node>
    </BinaryTree>
    <BinaryTree type="DecisionTree" boostWeight="1.0000000000000000e+00" itree="453">
      <Node pos="s" depth="0" NCoef="0" IVar="0" Cut="4.0921944379806519e-01" cType="1" res="5.6509854039177299e-04" rms="4.4667196273803711e-01" purity="5.0268620252609253e-01" nType="0">
        <Node pos="l" depth="1" NCoef="0" IVar="5" Cut="9.2884179687500000e+02" cType="1" res="-2.1248136181384325e-03" rms="4.4918864965438843e-01" purity="4.8214396834373474e-01" nType="0">
          <Node pos="l" depth="2" NCoef="0" IVar="-1" Cut="0.0000000000000000e+00" cType="1" res="-3.4071961999870837e-04" rms="4.4698756933212280e-01" purity="4.6005102992057800e-01" nType="-99"/>
          <Node pos="r" depth="2" NCoef="0" IVar="-1" Cut="0.0000000000000000e+00" cType="1" res="8.0018205335363746e-04" rms="4.5738410949707031e-01" purity="5.7047033309936523e-01" nType="-99"/>
        </Node>
        <Node pos="r" depth="1" NCoef="0" IVar="-1" Cut="0.0000000000000000e+00" cType="1" res="1.4512648340314627e-03" rms="4.1912737488746643e-01" purity="7.1242582798004150e-01" nType="-99"/>
      </Node>
    </BinaryTree>
    <BinaryTree type="DecisionTree" boostWeight="1.0000000000000000e+00" itree="454">
      <Node pos="s" depth="0" NCoef="0" IVar="1" Cut="6.7237496376037598e-01" cType="1" res="-1.7102604033425450e-03" rms="4.4704446196556091e-01" purity="4.9702036380767822e-01" nType="0">
        <Node pos="l" depth="1" NCoef="0" IVar="-1" Cut="0.0000000000000000e+00" cType="1" res="1.4539099065586925e-03" rms="4.2929640412330627e-01" purity="6.8349337577819824e-01" nType="-99"/>
        <Node pos="r" depth="1" NCoef="0" IVar="0" Cut="5.5595230311155319e-02" cType="1" res="-5.0340644083917141e-03" rms="4.4879883527755737e-01" purity="4.7682234644889832e-01" nType="0">
          <Node pos="l" depth="2" NCoef="0" IVar="-1" Cut="0.0000000000000000e+00" cType="1" res="-1.3034401927143335e-03" rms="4.3365964293479919e-01" purity="3.4382194280624390e-01" nType="-99"/>
          <Node pos="r" depth="2" NCoef="0" IVar="-1" Cut="0.0000000000000000e+00" cType="1" res="-2.6394607175461715e-06" rms="4.5228049159049988e-01" purity="5.0931215286254883e-01" nType="-99"/>
        </Node>
      </Node>
    </BinaryTree>
    <BinaryTree type="DecisionTree" boostWeight="1.0000000000000000e+00" itree="455">
      <Node pos="s" depth="0" NCoef="0" IVar="4" Cut="5.4222333431243896e-01" cType="1" res="1.1520853731781244e-03" rms="4.4732978940010071e-01" purity="4.9991267919540405e-01" nType="0">
        <Node pos="l" depth="1" NCoef="0" IVar="8" Cut="2.0556819438934326e+00" cType="1" res="-2.1642189472913742e-02" rms="4.3037089705467224e-01" purity="3.0952787399291992e-01" nType="0">
          <Node pos="l" depth="2" NCoef="0" IVar="-1" Cut="0.0000000000000000e+00" cType="1" res="-1.7209530051331967e-04" rms="4.5615679025650024e-01" purity="3.8532224297523499e-01" nType="-99"/>
          <Node pos="r" depth="2" NCoef="0" IVar="-1" Cut="0.0000000000000000e+00" cType="1" res="-1.6470563132315874e-03" rms="4.1768795251846313e-01" purity="2.7459329366683960e-01" nType="-99"/>
        </Node>
        <Node pos="r" depth="1" NCoef="0" IVar="0" Cut="4.1449315845966339e-02" cType="1" res="5.5260187946259975e-03" rms="4.5037907361984253e-01" purity="5.3644514083862305e-01" nType="0">
          <Node pos="l" depth="2" NCoef="0" IVar="-1" Cut="0.0000000000000000e+00" cType="1" res="-1.0292269289493561e-03" rms="4.4997003674507141e-01" purity="3.9493894577026367e-01" nType="-99"/>
          <Node pos="r" depth="2" NCoef="0" IVar="-1" Cut="0.0000000000000000e+00" cType="1" res="4.3356732930988073e-04" rms="4.5031681656837463e-01" purity="5.5453801155090332e-01" nType="-99"/>
        </Node>
      </Node>
    </BinaryTree>
    <BinaryTree type="DecisionTree" boostWeight="1.0000000000000000e+00" itree="456">
      <Node pos="s" depth="0" NCoef="0" IVar="0" Cut="5.5589534342288971e-02" cType="1" res="2.9796539456583560e-04" rms="4.4531780481338501e-01" purity="5.0096726417541504e-01" nType="0">
        <Node pos="l" depth="1" NCoef="0" IVar="2" Cut="9.6388149261474609e-01" cType="1" res="-2.4747075513005257e-02" rms="4.3759220838546753e-01" purity="3.6369365453720093e-01" nType="0">
          <Node pos="l" depth="2" NCoef="0" IVar="-1" Cut="0.0000000000000000e+00" cType="1" res="-1.7967877211049199e-03" rms="4.2786750197410583e-01" purity="3.0096817016601562e-01" nType="-99"/>
          <Node pos="r" depth="2" NCoef="0" IVar="-1" Cut="0.0000000000000000e+00" cType="1" res="-3.4874872653745115e-04" rms="4.5489877462387085e-01" purity="4.8222842812538147e-01" nType="-99"/>
        </Node>
        <Node pos="r" depth="1" NCoef="0" IVar="0" Cut="3.8966977596282959e-01" cType="1" res="6.2356931157410145e-03" rms="4.4692406058311462e-01" purity="5.3351235389709473e-01" nType="0">
          <Node pos="l" depth="2" NCoef="0" IVar="-1" Cut="0.0000000000000000e+00" cType="1" res="1.0359525185776874e-04" rms="4.5088782906532288e-01" purity="5.0504577159881592e-01" nType="-99"/>
          <Node pos="r" depth="2" NCoef="0" IVar="-1" Cut="0.0000000000000000e+00" cType="1" res="1.6691597411409020e-03" rms="4.1981157660484314e-01" purity="7.1516108512878418e-01" nType="-99"/>
        </Node>
      </Node>
    </BinaryTree>
    <BinaryTree type="DecisionTree" boostWeight="1.0000000000000000e+00" itree="457">
      <Node pos="s" depth="0" NCoef="0" IVar="7" Cut="2.1763322874903679e-02" cType="1" res="2.3231490049511194e-03" rms="4.4688779115676880e-01" purity="5.0349497795104980e-01" nType="0">
        <Node pos="l" depth="1" NCoef="0" IVar="-1" Cut="0.0000000000000000e+00" cType="1" res="-1.6807593638077378e-03" rms="4.3805253505706787e-01" purity="4.0777221322059631e-01" nType="-99"/>
        <Node pos="r" depth="1" NCoef="0" IVar="5" Cut="6.0078192138671875e+02" cType="1" res="5.3272419609129429e-03" rms="4.4747850298881531e-01" purity="5.1140969991683960e-01" nType="0">
          <Node pos="l" depth="2" NCoef="0" IVar="-1" Cut="0.0000000000000000e+00" cType="1" res="-3.7943830830045044e-04" rms="4.4055658578872681e-01" purity="4.3358629941940308e-01" nType="-99"/>
          <Node pos="r" depth="2" NCoef="0" IVar="-1" Cut="0.0000000000000000e+00" cType="1" res="6.2259979313239455e-04" rms="4.5135477185249329e-01" purity="5.5748963356018066e-01" nType="-99"/>
        </Node>
      </Node>
    </BinaryTree>
    <BinaryTree type="DecisionTree" boostWeight="1.0000000000000000e+00" itree="458">
      <Node pos="s" depth="0" NCoef="0" IVar="2" Cut="7.3732966184616089e-01" cType="1" res="-1.8202246865257621e-03" rms="4.4591477513313293e-01" purity="4.9929064512252808e-01" nType="0">
        <Node pos="l" depth="1" NCoef="0" IVar="8" Cut="2.2247855663299561e+00" cType="1" res="-2.6266455650329590e-02" rms="4.2754548788070679e-01" purity="2.9743829369544983e-01" nType="0">
          <Node pos="l" depth="2" NCoef="0" IVar="-1" Cut="0.0000000000000000e+00" cType="1" res="-6.0831289738416672e-04" rms="4.5489916205406189e-01" purity="3.6473205685615540e-01" nType="-99"/>
          <Node pos="r" depth="2" NCoef="0" IVar="-1" Cut="0.0000000000000000e+00" cType="1" res="-2.3431133013218641e-03" rms="3.9829233288764954e-01" purity="2.3111271858215332e-01" nType="-99"/>
        </Node>
        <Node pos="r" depth="1" NCoef="0" IVar="0" Cut="4.1447293013334274e-02" cType="1" res="2.5307291653007269e-03" rms="4.4896587729454041e-01" purity="5.3521639108657837e-01" nType="0">
          <Node pos="l" depth="2" NCoef="0" IVar="-1" Cut="0.0000000000000000e+00" cType="1" res="-1.4970301417633891e-03" rms="4.4462117552757263e-01" purity="3.8108977675437927e-01" nType="-99"/>
          <Node pos="r" depth="2" NCoef="0" IVar="-1" Cut="0.0000000000000000e+00" cType="1" res="3.2421448850072920e-04" rms="4.4934031367301941e-01" purity="5.5470705032348633e-01" nType="-99"/>
        </Node>
      </Node>
    </BinaryTree>
    <BinaryTree type="DecisionTree" boostWeight="1.0000000000000000e+00" itree="459">
      <Node pos="s" depth="0" NCoef="0" IVar="4" Cut="5.3017997741699219e-01" cType="1" res="2.5151062291115522e-03" rms="4.4744944572448730e-01" purity="5.0160497426986694e-01" nType="0">
        <Node pos="l" depth="1" NCoef="0" IVar="5" Cut="6.2614355468750000e+02" cType="1" res="-2.8261346742510796e-02" rms="4.2618620395660400e-01" purity="2.9274249076843262e-01" nType="0">
          <Node pos="l" depth="2" NCoef="0" IVar="-1" Cut="0.0000000000000000e+00" cType="1" res="-2.5692021008580923e-03" rms="3.9014935493469238e-01" purity="2.2378084063529968e-01" nType="-99"/>
          <Node pos="r" depth="2" NCoef="0" IVar="-1" Cut="0.0000000000000000e+00" cType="1" res="-8.4783276543021202e-04" rms="4.5033076405525208e-01" purity="3.4303995966911316e-01" nType="-99"/>
        </Node>
        <Node pos="r" depth="1" NCoef="0" IVar="3" Cut="1.2088321447372437e+00" cType="1" res="6.7659476771950722e-03" rms="4.5014205574989319e-01" purity="5.3045308589935303e-01" nType="0">
          <Node pos="l" depth="2" NCoef="0" IVar="-1" Cut="0.0000000000000000e+00" cType="1" res="6.3577824039384723e-04" rms="4.4797435402870178e-01" purity="5.8928948640823364e-01" nType="-99"/>
          <Node pos="r" depth="2" NCoef="0" IVar="-1" Cut="0.0000000000000000e+00" cType="1" res="-1.4887322322465479e-04" rms="4.5325911045074463e-01" purity="4.4055959582328796e-01" nType="-99"/>
        </Node>
      </Node>
    </BinaryTree>
    <BinaryTree type="DecisionTree" boostWeight="1.0000000000000000e+00" itree="460">
      <Node pos="s" depth="0" NCoef="0" IVar="6" Cut="1.9712939262390137e+00" cType="1" res="-3.8318962324410677e-03" rms="4.4704869389533997e-01" purity="4.9564614892005920e-01" nType="0">
        <Node pos="l" depth="1" NCoef="0" IVar="3" Cut="7.1395653486251831e-01" cType="1" res="-1.3068332336843014e-03" rms="4.5137339830398560e-01" purity="5.1520794630050659e-01" nType="0">
          <Node pos="l" depth="2" NCoef="0" IVar="-1" Cut="0.0000000000000000e+00" cType="1" res="5.9825158677995205e-04" rms="4.4974488019943237e-01" purity="5.8845227956771851e-01" nType="-99"/>
          <Node pos="r" depth="2" NCoef="0" IVar="-1" Cut="0.0000000000000000e+00" cType="1" res="-4.3495601858012378e-04" rms="4.5209762454032898e-01" purity="4.7439715266227722e-01" nType="-99"/>
        </Node>
        <Node pos="r" depth="1" NCoef="0" IVar="-1" Cut="0.0000000000000000e+00" cType="1" res="-2.9273503459990025e-03" rms="3.6738029122352600e-01" purity="1.7796251177787781e-01" nType="-99"/>
      </Node>
    </BinaryTree>
    <BinaryTree type="DecisionTree" boostWeight="1.0000000000000000e+00" itree="461">
      <Node pos="s" depth="0" NCoef="0" IVar="4" Cut="9.1502195596694946e-01" cType="1" res="9.3465665122494102e-04" rms="4.4634842872619629e-01" purity="5.0156825780868530e-01" nType="0">
        <Node pos="l" depth="1" NCoef="0" IVar="5" Cut="6.7455938720703125e+02" cType="1" res="-2.9756373260170221e-03" rms="4.5164251327514648e-01" purity="4.6157988905906677e-01" nType="0">
          <Node pos="l" depth="2" NCoef="0" IVar="-1" Cut="0.0000000000000000e+00" cType="1" res="-6.4080482115969062e-04" rms="4.4357517361640930e-01" purity="3.9845269918441772e-01" nType="-99"/>
          <Node pos="r" depth="2" NCoef="0" IVar="-1" Cut="0.0000000000000000e+00" cType="1" res="2.9434901080094278e-04" rms="4.5892402529716492e-01" purity="5.2106523513793945e-01" nType="-99"/>
        </Node>
        <Node pos="r" depth="1" NCoef="0" IVar="2" Cut="9.8796308040618896e-01" cType="1" res="2.4940349161624908e-02" rms="4.1154742240905762e-01" purity="7.4706083536148071e-01" nType="0">
          <Node pos="l" depth="2" NCoef="0" IVar="-1" Cut="0.0000000000000000e+00" cType="1" res="6.9628591882064939e-04" rms="4.2111679911613464e-01" purity="7.2901827096939087e-01" nType="-99"/>
          <Node pos="r" depth="2" NCoef="0" IVar="-1" Cut="0.0000000000000000e+00" cType="1" res="1.9532821606844664e-03" rms="4.0158012509346008e-01" purity="7.6481091976165771e-01" nType="-99"/>
        </Node>
      </Node>
    </BinaryTree>
    <BinaryTree type="DecisionTree" boostWeight="1.0000000000000000e+00" itree="462">
      <Node pos="s" depth="0" NCoef="0" IVar="4" Cut="9.0317487716674805e-01" cType="1" res="-1.1151059297844768e-03" rms="4.4639274477958679e-01" purity="4.9983200430870056e-01" nType="0">
        <Node pos="l" depth="1" NCoef="0" IVar="5" Cut="9.4466870117187500e+02" cType="1" res="-5.8327415026724339e-03" rms="4.5225739479064941e-01" purity="4.5334634184837341e-01" nType="0">
          <Node pos="l" depth="2" NCoef="0" IVar="-1" Cut="0.0000000000000000e+00" cType="1" res="-5.3221714915707707e-04" rms="4.4940218329429626e-01" purity="4.2906960844993591e-01" nType="-99"/>
          <Node pos="r" depth="2" NCoef="0" IVar="-1" Cut="0.0000000000000000e+00" cType="1" res="6.9808244006708264e-04" rms="4.6336910128593445e-01" purity="5.5436462163925171e-01" nType="-99"/>
        </Node>
        <Node pos="r" depth="1" NCoef="0" IVar="2" Cut="9.8397630453109741e-01" cType="1" res="2.3802120238542557e-02" rms="4.1314893960952759e-01" purity="7.4535620212554932e-01" nType="0">
          <Node pos="l" depth="2" NCoef="0" IVar="-1" Cut="0.0000000000000000e+00" cType="1" res="2.4904086603783071e-04" rms="4.2482215166091919e-01" purity="7.1643847227096558e-01" nType="-99"/>
          <Node pos="r" depth="2" NCoef="0" IVar="-1" Cut="0.0000000000000000e+00" cType="1" res="2.0374683663249016e-03" rms="4.0363204479217529e-01" purity="7.6693743467330933e-01" nType="-99"/>
        </Node>
      </Node>
    </BinaryTree>
    <BinaryTree type="DecisionTree" boostWeight="1.0000000000000000e+00" itree="463">
      <Node pos="s" depth="0" NCoef="0" IVar="1" Cut="5.7999211549758911e-01" cType="1" res="1.6630482859909534e-03" rms="4.4598177075386047e-01" purity="5.0139647722244263e-01" nType="0">
        <Node pos="l" depth="1" NCoef="0" IVar="-1" Cut="0.0000000000000000e+00" cType="1" res="2.1887458860874176e-03" rms="4.2719936370849609e-01" purity="7.0077335834503174e-01" nType="-99"/>
        <Node pos="r" depth="1" NCoef="0" IVar="0" Cut="8.3884112536907196e-02" cType="1" res="-6.4358627423644066e-04" rms="4.4687816500663757e-01" purity="4.9042659997940063e-01" nType="0">
          <Node pos="l" depth="2" NCoef="0" IVar="-1" Cut="0.0000000000000000e+00" cType="1" res="-6.8770640064030886e-04" rms="4.4036656618118286e-01" purity="3.6939421296119690e-01" nType="-99"/>
          <Node pos="r" depth="2" NCoef="0" IVar="-1" Cut="0.0000000000000000e+00" cType="1" res="2.6850320864468813e-04" rms="4.4982153177261353e-01" purity="5.4820728302001953e-01" nType="-99"/>
        </Node>
      </Node>
    </BinaryTree>
    <BinaryTree type="DecisionTree" boostWeight="1.0000000000000000e+00" itree="464">
      <Node pos="s" depth="0" NCoef="0" IVar="7" Cut="2.2511912509799004e-02" cType="1" res="-1.1448761215433478e-03" rms="4.4648948311805725e-01" purity="4.9778455495834351e-01" nType="0">
        <Node pos="l" depth="1" NCoef="0" IVar="-1" Cut="0.0000000000000000e+00" cType="1" res="-1.8083900213241577e-03" rms="4.3758812546730042e-01" purity="3.9939883351325989e-01" nType="-99"/>
        <Node pos="r" depth="1" NCoef="0" IVar="0" Cut="4.1450209915637970e-02" cType="1" res="1.9537955522537231e-03" rms="4.4713249802589417e-01" purity="5.0645124912261963e-01" nType="0">
          <Node pos="l" depth="2" NCoef="0" IVar="-1" Cut="0.0000000000000000e+00" cType="1" res="-1.4008083380758762e-03" rms="4.2870110273361206e-01" purity="3.5407757759094238e-01" nType="-99"/>
          <Node pos="r" depth="2" NCoef="0" IVar="-1" Cut="0.0000000000000000e+00" cType="1" res="2.9049438307993114e-04" rms="4.4939580559730530e-01" purity="5.2686554193496704e-01" nType="-99"/>
        </Node>
      </Node>
    </BinaryTree>
    <BinaryTree type="DecisionTree" boostWeight="1.0000000000000000e+00" itree="465">
      <Node pos="s" depth="0" NCoef="0" IVar="0" Cut="2.3947350680828094e-01" cType="1" res="2.2650230675935745e-03" rms="4.4695496559143066e-01" purity="5.0221723318099976e-01" nType="0">
        <Node pos="l" depth="1" NCoef="0" IVar="6" Cut="1.8972899913787842e+00" cType="1" res="-4.5793019235134125e-03" rms="4.5070049166679382e-01" purity="4.3572303652763367e-01" nType="0">
          <Node pos="l" depth="2" NCoef="0" IVar="-1" Cut="0.0000000000000000e+00" cType="1" res="-7.6281503424979746e-05" rms="4.5777413249015808e-01" purity="4.5841300487518311e-01" nType="-99"/>
          <Node pos="r" depth="2" NCoef="0" IVar="-1" Cut="0.0000000000000000e+00" cType="1" res="-2.9220113065093756e-03" rms="3.5005107522010803e-01" purity="1.5632192790508270e-01" nType="-99"/>
        </Node>
        <Node pos="r" depth="1" NCoef="0" IVar="6" Cut="5.3079003095626831e-01" cType="1" res="1.7854403704404831e-02" rms="4.3790510296821594e-01" purity="6.5367168188095093e-01" nType="0">
          <Node pos="l" depth="2" NCoef="0" IVar="-1" Cut="0.0000000000000000e+00" cType="1" res="2.0608708728104830e-03" rms="3.9874064922332764e-01" purity="7.7186310291290283e-01" nType="-99"/>
          <Node pos="r" depth="2" NCoef="0" IVar="-1" Cut="0.0000000000000000e+00" cType="1" res="6.1675324104726315e-04" rms="4.4715282320976257e-01" purity="6.2368005514144897e-01" nType="-99"/>
        </Node>
      </Node>
    </BinaryTree>
    <BinaryTree type="DecisionTree" boostWeight="1.0000000000000000e+00" itree="466">
      <Node pos="s" depth="0" NCoef="0" IVar="4" Cut="9.5130133628845215e-01" cType="1" res="-1.3643718557432294e-03" rms="4.4703242182731628e-01" purity="4.9813190102577209e-01" nType="0">
        <Node pos="l" depth="1" NCoef="0" IVar="7" Cut="3.3856417983770370e-02" cType="1" res="-4.8603960312902927e-03" rms="4.5057877898216248e-01" purity="4.7405377030372620e-01" nType="0">
          <Node pos="l" depth="2" NCoef="0" IVar="-1" Cut="0.0000000000000000e+00" cType="1" res="-1.2781147379428148e-03" rms="4.3831419944763184e-01" purity="3.9670646190643311e-01" nType="-99"/>
          <Node pos="r" depth="2" NCoef="0" IVar="-1" Cut="0.0000000000000000e+00" cType="1" res="-3.5830678825732321e-05" rms="4.5286288857460022e-01" purity="4.8942214250564575e-01" nType="-99"/>
        </Node>
        <Node pos="r" depth="1" NCoef="0" IVar="-1" Cut="0.0000000000000000e+00" cType="1" res="2.0762484055012465e-03" rms="4.0225633978843689e-01" purity="7.7269852161407471e-01" nType="-99"/>
      </Node>
    </BinaryTree>
    <BinaryTree type="DecisionTree" boostWeight="1.0000000000000000e+00" itree="467">
      <Node pos="s" depth="0" NCoef="0" IVar="2" Cut="6.7571949958801270e-01" cType="1" res="-5.9059500927105546e-04" rms="4.4728147983551025e-01" purity="5.0169575214385986e-01" nType="0">
        <Node pos="l" depth="1" NCoef="0" IVar="-1" Cut="0.0000000000000000e+00" cType="1" res="-1.8897004192695022e-03" rms="4.2094305157661438e-01" purity="2.7344915270805359e-01" nType="-99"/>
        <Node pos="r" depth="1" NCoef="0" IVar="5" Cut="4.5109255981445312e+02" cType="1" res="2.7515997644513845e-03" rms="4.4964957237243652e-01" purity="5.2414125204086304e-01" nType="0">
          <Node pos="l" depth="2" NCoef="0" IVar="-1" Cut="0.0000000000000000e+00" cType="1" res="-1.4236123533919454e-03" rms="4.2437079548835754e-01" purity="3.6584460735321045e-01" nType="-99"/>
          <Node pos="r" depth="2" NCoef="0" IVar="-1" Cut="0.0000000000000000e+00" cType="1" res="2.4982757167890668e-04" rms="4.5151063799858093e-01" purity="5.3672140836715698e-01" nType="-99"/>
        </Node>
      </Node>
    </BinaryTree>
    <BinaryTree type="DecisionTree" boostWeight="1.0000000000000000e+00" itree="468">
      <Node pos="s" depth="0" NCoef="0" IVar="6" Cut="8.3418095111846924e-01" cType="1" res="-7.1956240572035313e-04" rms="4.4809511303901672e-01" purity="4.9862229824066162e-01" nType="0">
        <Node pos="l" depth="1" NCoef="0" IVar="5" Cut="9.3951177978515625e+02" cType="1" res="1.0240625590085983e-02" rms="4.4782200455665588e-01" purity="5.9978878498077393e-01" nType="0">
          <Node pos="l" depth="2" NCoef="0" IVar="-1" Cut="0.0000000000000000e+00" cType="1" res="1.7257953004445881e-04" rms="4.4922247529029846e-01" purity="5.7763820886611938e-01" nType="-99"/>
          <Node pos="r" depth="2" NCoef="0" IVar="-1" Cut="0.0000000000000000e+00" cType="1" res="1.6829543747007847e-03" rms="4.4183868169784546e-01" purity="6.8042594194412231e-01" nType="-99"/>
        </Node>
        <Node pos="r" depth="1" NCoef="0" IVar="7" Cut="1.7650334537029266e-01" cType="1" res="-8.7035922333598137e-03" rms="4.4812524318695068e-01" purity="4.2492681741714478e-01" nType="0">
          <Node pos="l" depth="2" NCoef="0" IVar="-1" Cut="0.0000000000000000e+00" cType="1" res="-6.0608098283410072e-04" rms="4.4742527604103088e-01" purity="4.1202756762504578e-01" nType="-99"/>
          <Node pos="r" depth="2" NCoef="0" IVar="-1" Cut="0.0000000000000000e+00" cType="1" res="1.0272832587361336e-03" rms="4.5311856269836426e-01" purity="5.3826665878295898e-01" nType="-99"/>
        </Node>
      </Node>
    </BinaryTree>
    <BinaryTree type="DecisionTree" boostWeight="1.0000000000000000e+00" itree="469">
      <Node pos="s" depth="0" NCoef="0" IVar="2" Cut="6.6333144903182983e-01" cType="1" res="4.2793173342943192e-03" rms="4.4689726829528809e-01" purity="5.0513261556625366e-01" nType="0">
        <Node pos="l" depth="1" NCoef="0" IVar="-1" Cut="0.0000000000000000e+00" cType="1" res="-1.7442258540540934e-03" rms="4.1638550162315369e-01" purity="2.6618197560310364e-01" nType="-99"/>
        <Node pos="r" depth="1" NCoef="0" IVar="4" Cut="9.6333312988281250e-01" cType="1" res="7.4887955561280251e-03" rms="4.4939306378364563e-01" purity="5.2656078338623047e-01" nType="0">
          <Node pos="l" depth="2" NCoef="0" IVar="-1" Cut="0.0000000000000000e+00" cType="1" res="2.4104087788145989e-04" rms="4.5319512486457825e-01" purity="5.0750380754470825e-01" nType="-99"/>
          <Node pos="r" depth="2" NCoef="0" IVar="-1" Cut="0.0000000000000000e+00" cType="1" res="2.2336130496114492e-03" rms="3.9374348521232605e-01" purity="7.8050124645233154e-01" nType="-99"/>
        </Node>
      </Node>
    </BinaryTree>
    <BinaryTree type="DecisionTree" boostWeight="1.0000000000000000e+00" itree="470">
      <Node pos="s" depth="0" NCoef="0" IVar="3" Cut="2.7978830337524414e+00" cType="1" res="2.2151293233036995e-03" rms="4.4733563065528870e-01" purity="5.0118881464004517e-01" nType="0">
        <Node pos="l" depth="1" NCoef="0" IVar="5" Cut="4.5777636718750000e+02" cType="1" res="4.4896416366100311e-03" rms="4.4970947504043579e-01" purity="5.1408243179321289e-01" nType="0">
          <Node pos="l" depth="2" NCoef="0" IVar="-1" Cut="0.0000000000000000e+00" cType="1" res="-1.2943057809025049e-03" rms="4.3667769432067871e-01" purity="3.7262856960296631e-01" nType="-99"/>
          <Node pos="r" depth="2" NCoef="0" IVar="-1" Cut="0.0000000000000000e+00" cType="1" res="3.4797331318259239e-04" rms="4.5077109336853027e-01" purity="5.2683448791503906e-01" nType="-99"/>
        </Node>
        <Node pos="r" depth="1" NCoef="0" IVar="-1" Cut="0.0000000000000000e+00" cType="1" res="-2.1246145479381084e-03" rms="4.0155348181724548e-01" purity="2.7597326040267944e-01" nType="-99"/>
      </Node>
    </BinaryTree>
    <BinaryTree type="DecisionTree" boostWeight="1.0000000000000000e+00" itree="471">
      <Node pos="s" depth="0" NCoef="0" IVar="8" Cut="1.9211510419845581e+00" cType="1" res="-4.4852010905742645e-03" rms="4.4712981581687927e-01" purity="4.9483320116996765e-01" nType="0">
        <Node pos="l" depth="1" NCoef="0" IVar="0" Cut="7.8417390584945679e-02" cType="1" res="1.5797717496752739e-02" rms="4.4657132029533386e-01" purity="5.8625841140747070e-01" nType="0">
          <Node pos="l" depth="2" NCoef="0" IVar="-1" Cut="0.0000000000000000e+00" cType="1" res="-7.3211696872022003e-05" rms="4.5554915070533752e-01" purity="4.5918011665344238e-01" nType="-99"/>
          <Node pos="r" depth="2" NCoef="0" IVar="-1" Cut="0.0000000000000000e+00" cType="1" res="1.1029967572540045e-03" rms="4.4275483489036560e-01" purity="6.3687843084335327e-01" nType="-99"/>
        </Node>
        <Node pos="r" depth="1" NCoef="0" IVar="4" Cut="5.3017473220825195e-01" cType="1" res="-1.1277427896857262e-02" rms="4.4711109995841980e-01" purity="4.6421727538108826e-01" nType="0">
          <Node pos="l" depth="2" NCoef="0" IVar="-1" Cut="0.0000000000000000e+00" cType="1" res="-1.9722590222954750e-03" rms="4.1433078050613403e-01" purity="2.7188786864280701e-01" nType="-99"/>
          <Node pos="r" depth="2" NCoef="0" IVar="-1" Cut="0.0000000000000000e+00" cType="1" res="-3.8477539783343673e-04" rms="4.5137584209442139e-01" purity="4.9096637964248657e-01" nType="-99"/>
        </Node>
      </Node>
    </BinaryTree>
    <BinaryTree type="DecisionTree" boostWeight="1.0000000000000000e+00" itree="472">
      <Node pos="s" depth="0" NCoef="0" IVar="0" Cut="6.9740250706672668e-02" cType="1" res="-5.0139648374170065e-04" rms="4.4720026850700378e-01" purity="4.9794122576713562e-01" nType="0">
        <Node pos="l" depth="1" NCoef="0" IVar="7" Cut="6.8009279668331146e-02" cType="1" res="-1.4946205541491508e-02" rms="4.3986278772354126e-01" purity="3.6872890591621399e-01" nType="0">
          <Node pos="l" depth="2" NCoef="0" IVar="-1" Cut="0.0000000000000000e+00" cType="1" res="-1.6798565629869699e-03" rms="4.2853742837905884e-01" purity="3.1089788675308228e-01" nType="-99"/>
          <Node pos="r" depth="2" NCoef="0" IVar="-1" Cut="0.0000000000000000e+00" cType="1" res="-1.7602926527615637e-04" rms="4.4711029529571533e-01" purity="4.0839457511901855e-01" nType="-99"/>
        </Node>
        <Node pos="r" depth="1" NCoef="0" IVar="8" Cut="2.1954836845397949e+00" cType="1" res="4.8130708746612072e-03" rms="4.4975298643112183e-01" purity="5.4548043012619019e-01" nType="0">
          <Node pos="l" depth="2" NCoef="0" IVar="-1" Cut="0.0000000000000000e+00" cType="1" res="6.9139519473537803e-04" rms="4.4481536746025085e-01" purity="6.2151175737380981e-01" nType="-99"/>
          <Node pos="r" depth="2" NCoef="0" IVar="-1" Cut="0.0000000000000000e+00" cType="1" res="-2.3165046877693385e-04" rms="4.5455586910247803e-01" purity="4.6761584281921387e-01" nType="-99"/>
        </Node>
      </Node>
    </BinaryTree>
    <BinaryTree type="DecisionTree" boostWeight="1.0000000000000000e+00" itree="473">
      <Node pos="s" depth="0" NCoef="0" IVar="8" Cut="2.6863563060760498e+00" cType="1" res="2.4404695723205805e-03" rms="4.4660195708274841e-01" purity="5.0246500968933105e-01" nType="0">
        <Node pos="l" depth="1" NCoef="0" IVar="5" Cut="4.7713436889648438e+02" cType="1" res="6.4690653234720230e-03" rms="4.5220139622688293e-01" purity="5.3793841600418091e-01" nType="0">
          <Node pos="l" depth="2" NCoef="0" IVar="-1" Cut="0.0000000000000000e+00" cType="1" res="-9.9822494667023420e-04" rms="4.4770219922065735e-01" purity="4.0410777926445007e-01" nType="-99"/>
          <Node pos="r" depth="2" NCoef="0" IVar="-1" Cut="0.0000000000000000e+00" cType="1" res="4.6984336222521961e-04" rms="4.5265418291091919e-01" purity="5.5473619699478149e-01" nType="-99"/>
        </Node>
        <Node pos="r" depth="1" NCoef="0" IVar="7" Cut="5.7395223528146744e-02" cType="1" res="-2.6074483990669250e-02" rms="4.0361189842224121e-01" purity="2.5137951970100403e-01" nType="0">
          <Node pos="l" depth="2" NCoef="0" IVar="-1" Cut="0.0000000000000000e+00" cType="1" res="-2.6388545520603657e-03" rms="3.8364577293395996e-01" purity="2.1127921342849731e-01" nType="-99"/>
          <Node pos="r" depth="2" NCoef="0" IVar="-1" Cut="0.0000000000000000e+00" cType="1" res="-4.6811156789772213e-04" rms="4.2251464724540710e-01" purity="2.9278287291526794e-01" nType="-99"/>
        </Node>
      </Node>
    </BinaryTree>
    <BinaryTree type="DecisionTree" boostWeight="1.0000000000000000e+00" itree="474">
      <Node pos="s" depth="0" NCoef="0" IVar="5" Cut="5.6886566162109375e+02" cType="1" res="3.1485137878917158e-04" rms="4.4656690955162048e-01" purity="5.0136530399322510e-01" nType="0">
        <Node pos="l" depth="1" NCoef="0" IVar="7" Cut="1.7950111627578735e-01" cType="1" res="-1.5219388529658318e-02" rms="4.3590432405471802e-01" purity="4.1074362397193909e-01" nType="0">
          <Node pos="l" depth="2" NCoef="0" IVar="-1" Cut="0.0000000000000000e+00" cType="1" res="-1.2141513871029019e-03" rms="4.3260285258293152e-01" purity="3.7848797440528870e-01" nType="-99"/>
          <Node pos="r" depth="2" NCoef="0" IVar="-1" Cut="0.0000000000000000e+00" cType="1" res="9.7742595244199038e-04" rms="4.4794142246246338e-01" purity="5.4781740903854370e-01" nType="-99"/>
        </Node>
        <Node pos="r" depth="1" NCoef="0" IVar="2" Cut="7.5944894552230835e-01" cType="1" res="6.7065521143376827e-03" rms="4.5072546601295471e-01" purity="5.3865236043930054e-01" nType="0">
          <Node pos="l" depth="2" NCoef="0" IVar="-1" Cut="0.0000000000000000e+00" cType="1" res="-5.9673195937648416e-04" rms="4.4729369878768921e-01" purity="3.5253575444221497e-01" nType="-99"/>
          <Node pos="r" depth="2" NCoef="0" IVar="-1" Cut="0.0000000000000000e+00" cType="1" res="5.1429989980533719e-04" rms="4.5134812593460083e-01" purity="5.7797670364379883e-01" nType="-99"/>
        </Node>
      </Node>
    </BinaryTree>
    <BinaryTree type="DecisionTree" boostWeight="1.0000000000000000e+00" itree="475">
      <Node pos="s" depth="0" NCoef="0" IVar="7" Cut="1.5600726008415222e-01" cType="1" res="-4.7791231190785766e-04" rms="4.4574207067489624e-01" purity="4.9961817264556885e-01" nType="0">
        <Node pos="l" depth="1" NCoef="0" IVar="1" Cut="6.8688678741455078e-01" cType="1" res="-5.4757273755967617e-03" rms="4.4608715176582336e-01" purity="4.7843077778816223e-01" nType="0">
          <Node pos="l" depth="2" NCoef="0" IVar="-1" Cut="0.0000000000000000e+00" cType="1" res="1.0351180098950863e-03" rms="4.2933061718940735e-01" purity="6.7388331890106201e-01" nType="-99"/>
          <Node pos="r" depth="2" NCoef="0" IVar="-1" Cut="0.0000000000000000e+00" cType="1" res="-4.0472834371030331e-04" rms="4.4770812988281250e-01" purity="4.5807534456253052e-01" nType="-99"/>
        </Node>
        <Node pos="r" depth="1" NCoef="0" IVar="3" Cut="5.9344005584716797e-01" cType="1" res="2.2794626653194427e-02" rms="4.4339036941528320e-01" purity="5.9827816486358643e-01" nType="0">
          <Node pos="l" depth="2" NCoef="0" IVar="-1" Cut="0.0000000000000000e+00" cType="1" res="1.9205575808882713e-03" rms="4.3445575237274170e-01" purity="6.6384941339492798e-01" nType="-99"/>
          <Node pos="r" depth="2" NCoef="0" IVar="-1" Cut="0.0000000000000000e+00" cType="1" res="6.9456658093258739e-04" rms="4.4783610105514526e-01" purity="5.6340557336807251e-01" nType="-99"/>
        </Node>
      </Node>
    </BinaryTree>
    <BinaryTree type="DecisionTree" boostWeight="1.0000000000000000e+00" itree="476">
      <Node pos="s" depth="0" NCoef="0" IVar="0" Cut="4.1450209915637970e-02" cType="1" res="-3.9342921227216721e-03" rms="4.4774657487869263e-01" purity="4.9675446748733521e-01" nType="0">
        <Node pos="l" depth="1" NCoef="0" IVar="1" Cut="1.0872700214385986e+00" cType="1" res="-3.4477975219488144e-02" rms="4.3033075332641602e-01" purity="3.4467357397079468e-01" nType="0">
          <Node pos="l" depth="2" NCoef="0" IVar="-1" Cut="0.0000000000000000e+00" cType="1" res="-7.7609746949747205e-04" rms="4.6020960807800293e-01" purity="4.4583418965339661e-01" nType="-99"/>
          <Node pos="r" depth="2" NCoef="0" IVar="-1" Cut="0.0000000000000000e+00" cType="1" res="-2.9764585196971893e-03" rms="3.9787137508392334e-01" purity="2.4479104578495026e-01" nType="-99"/>
        </Node>
        <Node pos="r" depth="1" NCoef="0" IVar="4" Cut="5.3017777204513550e-01" cType="1" res="2.6900042939814739e-06" rms="4.4979149103164673e-01" purity="5.1635718345642090e-01" nType="0">
          <Node pos="l" depth="2" NCoef="0" IVar="-1" Cut="0.0000000000000000e+00" cType="1" res="-1.2934153201058507e-03" rms="4.3645447492599487e-01" purity="3.1653720140457153e-01" nType="-99"/>
          <Node pos="r" depth="2" NCoef="0" IVar="-1" Cut="0.0000000000000000e+00" cType="1" res="1.6680276894476265e-04" rms="4.5148390531539917e-01" purity="5.4378944635391235e-01" nType="-99"/>
        </Node>
      </Node>
    </BinaryTree>
    <BinaryTree type="DecisionTree" boostWeight="1.0000000000000000e+00" itree="477">
      <Node pos="s" depth="0" NCoef="0" IVar="2" Cut="6.3930696249008179e-01" cType="1" res="-2.0692744292318821e-03" rms="4.4685554504394531e-01" purity="4.9758893251419067e-01" nType="0">
        <Node pos="l" depth="1" NCoef="0" IVar="-1" Cut="0.0000000000000000e+00" cType="1" res="-2.1673210430890322e-03" rms="4.0578836202621460e-01" purity="2.5623121857643127e-01" nType="-99"/>
        <Node pos="r" depth="1" NCoef="0" IVar="7" Cut="2.1105776727199554e-01" cType="1" res="3.7129860720597208e-04" rms="4.4934311509132385e-01" purity="5.1361489295959473e-01" nType="0">
          <Node pos="l" depth="2" NCoef="0" IVar="-1" Cut="0.0000000000000000e+00" cType="1" res="-1.1419907241361216e-04" rms="4.4967055320739746e-01" purity="5.0426602363586426e-01" nType="-99"/>
          <Node pos="r" depth="2" NCoef="0" IVar="-1" Cut="0.0000000000000000e+00" cType="1" res="1.6412672121077776e-03" rms="4.4391125440597534e-01" purity="6.2919539213180542e-01" nType="-99"/>
        </Node>
      </Node>
    </BinaryTree>
    <BinaryTree type="DecisionTree" boostWeight="1.0000000000000000e+00" itree="478">
      <Node pos="s" depth="0" NCoef="0" IVar="0" Cut="6.9736748933792114e-02" cType="1" res="1.4071828918531537e-03" rms="4.4685634970664978e-01" purity="5.0152266025543213e-01" nType="0">
        <Node pos="l" depth="1" NCoef="0" IVar="7" Cut="7.9485625028610229e-02" cType="1" res="-1.2363744899630547e-02" rms="4.4292312860488892e-01" purity="3.7604057788848877e-01" nType="0">
          <Node pos="l" depth="2" NCoef="0" IVar="-1" Cut="0.0000000000000000e+00" cType="1" res="-1.1651491513475776e-03" rms="4.3082693219184875e-01" purity="3.2707649469375610e-01" nType="-99"/>
          <Node pos="r" depth="2" NCoef="0" IVar="-1" Cut="0.0000000000000000e+00" cType="1" res="-1.7234419647138566e-04" rms="4.5344680547714233e-01" purity="4.2049989104270935e-01" nType="-99"/>
        </Node>
        <Node pos="r" depth="1" NCoef="0" IVar="1" Cut="1.6593846082687378e+00" cType="1" res="6.4492421224713326e-03" rms="4.4818201661109924e-01" purity="5.4746645689010620e-01" nType="0">
          <Node pos="l" depth="2" NCoef="0" IVar="-1" Cut="0.0000000000000000e+00" cType="1" res="4.5183699694462121e-04" rms="4.5090711116790771e-01" purity="5.7064503431320190e-01" nType="-99"/>
          <Node pos="r" depth="2" NCoef="0" IVar="-1" Cut="0.0000000000000000e+00" cType="1" res="-1.3174484483897686e-03" rms="4.1663131117820740e-01" purity="2.9921808838844299e-01" nType="-99"/>
        </Node>
      </Node>
    </BinaryTree>
    <BinaryTree type="DecisionTree" boostWeight="1.0000000000000000e+00" itree="479">
      <Node pos="s" depth="0" NCoef="0" IVar="5" Cut="4.5667633056640625e+02" cType="1" res="4.3213232420384884e-03" rms="4.4654399156570435e-01" purity="5.0442302227020264e-01" nType="0">
        <Node pos="l" depth="1" NCoef="0" IVar="-1" Cut="0.0000000000000000e+00" cType="1" res="-1.4801064971834421e-03" rms="4.3173840641975403e-01" purity="3.5626256465911865e-01" nType="-99"/>
        <Node pos="r" depth="1" NCoef="0" IVar="7" Cut="1.4474850893020630e-01" cType="1" res="7.3703005909919739e-03" rms="4.4778257608413696e-01" purity="5.1828223466873169e-01" nType="0">
          <Node pos="l" depth="2" NCoef="0" IVar="-1" Cut="0.0000000000000000e+00" cType="1" res="1.3945756654720753e-04" rms="4.4851019978523254e-01" purity="4.9465107917785645e-01" nType="-99"/>
          <Node pos="r" depth="2" NCoef="0" IVar="-1" Cut="0.0000000000000000e+00" cType="1" res="1.2469530338421464e-03" rms="4.4440469145774841e-01" purity="6.1269521713256836e-01" nType="-99"/>
        </Node>
      </Node>
    </BinaryTree>
    <BinaryTree type="DecisionTree" boostWeight="1.0000000000000000e+00" itree="480">
      <Node pos="s" depth="0" NCoef="0" IVar="7" Cut="7.8102551400661469e-02" cType="1" res="8.6996675236150622e-04" rms="4.4626459479331970e-01" purity="5.0176215171813965e-01" nType="0">
        <Node pos="l" depth="1" NCoef="0" IVar="5" Cut="7.3290881347656250e+02" cType="1" res="-9.6859317272901535e-03" rms="4.4535475969314575e-01" purity="4.5170179009437561e-01" nType="0">
          <Node pos="l" depth="2" NCoef="0" IVar="-1" Cut="0.0000000000000000e+00" cType="1" res="-1.1127073084935546e-03" rms="4.3576696515083313e-01" purity="3.7364467978477478e-01" nType="-99"/>
          <Node pos="r" depth="2" NCoef="0" IVar="-1" Cut="0.0000000000000000e+00" cType="1" res="4.3452735553728417e-05" rms="4.5356068015098572e-01" purity="5.2204543352127075e-01" nType="-99"/>
        </Node>
        <Node pos="r" depth="1" NCoef="0" IVar="5" Cut="4.5660861206054688e+02" cType="1" res="1.0579086840152740e-02" rms="4.4687971472740173e-01" purity="5.4780679941177368e-01" nType="0">
          <Node pos="l" depth="2" NCoef="0" IVar="-1" Cut="0.0000000000000000e+00" cType="1" res="-6.7071086959913373e-04" rms="4.4162592291831970e-01" purity="4.0206962823867798e-01" nType="-99"/>
          <Node pos="r" depth="2" NCoef="0" IVar="-1" Cut="0.0000000000000000e+00" cType="1" res="6.6253589466214180e-04" rms="4.4745442271232605e-01" purity="5.6641292572021484e-01" nType="-99"/>
        </Node>
      </Node>
    </BinaryTree>
    <BinaryTree type="DecisionTree" boostWeight="1.0000000000000000e+00" itree="481">
      <Node pos="s" depth="0" NCoef="0" IVar="7" Cut="6.7211717367172241e-02" cType="1" res="2.6056823116960004e-05" rms="4.4715371727943420e-01" purity="4.9948114156723022e-01" nType="0">
        <Node pos="l" depth="1" NCoef="0" IVar="5" Cut="9.4893817138671875e+02" cType="1" res="-1.3701382093131542e-02" rms="4.4533890485763550e-01" purity="4.4013866782188416e-01" nType="0">
          <Node pos="l" depth="2" NCoef="0" IVar="-1" Cut="0.0000000000000000e+00" cType="1" res="-1.2010656064376235e-03" rms="4.3952313065528870e-01" purity="3.9566722512245178e-01" nType="-99"/>
          <Node pos="r" depth="2" NCoef="0" IVar="-1" Cut="0.0000000000000000e+00" cType="1" res="5.6414963910356164e-04" rms="4.5896309614181519e-01" purity="5.5449390411376953e-01" nType="-99"/>
        </Node>
        <Node pos="r" depth="1" NCoef="0" IVar="8" Cut="1.8372254371643066e+00" cType="1" res="9.5610208809375763e-03" rms="4.4816252589225769e-01" purity="5.4069983959197998e-01" nType="0">
          <Node pos="l" depth="2" NCoef="0" IVar="-1" Cut="0.0000000000000000e+00" cType="1" res="1.2435722164809704e-03" rms="4.3972739577293396e-01" purity="6.2517035007476807e-01" nType="-99"/>
          <Node pos="r" depth="2" NCoef="0" IVar="-1" Cut="0.0000000000000000e+00" cType="1" res="2.5564723182469606e-04" rms="4.5035046339035034e-01" purity="5.1753574609756470e-01" nType="-99"/>
        </Node>
      </Node>
    </BinaryTree>
    <BinaryTree type="DecisionTree" boostWeight="1.0000000000000000e+00" itree="482">
      <Node pos="s" depth="0" NCoef="0" IVar="7" Cut="3.4180086106061935e-02" cType="1" res="7.2113791247829795e-04" rms="4.4847014546394348e-01" purity="5.0181257724761963e-01" nType="0">
        <Node pos="l" depth="1" NCoef="0" IVar="5" Cut="9.7728515625000000e+02" cType="1" res="-2.2695560008287430e-02" rms="4.4478550553321838e-01" purity="4.1629648208618164e-01" nType="0">
          <Node pos="l" depth="2" NCoef="0" IVar="-1" Cut="0.0000000000000000e+00" cType="1" res="-1.6143476823344827e-03" rms="4.3650299310684204e-01" purity="3.6486059427261353e-01" nType="-99"/>
          <Node pos="r" depth="2" NCoef="0" IVar="-1" Cut="0.0000000000000000e+00" cType="1" res="-2.4831981863826513e-04" rms="4.6027553081512451e-01" purity="5.1829838752746582e-01" nType="-99"/>
        </Node>
        <Node pos="r" depth="1" NCoef="0" IVar="1" Cut="7.4296599626541138e-01" cType="1" res="5.2329930476844311e-03" rms="4.4903632998466492e-01" purity="5.1828950643539429e-01" nType="0">
          <Node pos="l" depth="2" NCoef="0" IVar="-1" Cut="0.0000000000000000e+00" cType="1" res="1.1974567314609885e-03" rms="4.3429252505302429e-01" purity="6.7086124420166016e-01" nType="-99"/>
          <Node pos="r" depth="2" NCoef="0" IVar="-1" Cut="0.0000000000000000e+00" cType="1" res="7.9872108472045511e-05" rms="4.5171302556991577e-01" purity="4.8909598588943481e-01" nType="-99"/>
        </Node>
      </Node>
    </BinaryTree>
    <BinaryTree type="DecisionTree" boostWeight="1.0000000000000000e+00" itree="483">
      <Node pos="s" depth="0" NCoef="0" IVar="7" Cut="7.3733747005462646e-02" cType="1" res="-9.8477551091491478e-07" rms="4.4628718495368958e-01" purity="5.0093919038772583e-01" nType="0">
        <Node pos="l" depth="1" NCoef="0" IVar="5" Cut="1.0896418457031250e+03" cType="1" res="-1.1868814006447792e-02" rms="4.4449284672737122e-01" purity="4.4630935788154602e-01" nType="0">
          <Node pos="l" depth="2" NCoef="0" IVar="-1" Cut="0.0000000000000000e+00" cType="1" res="-9.7571825608611107e-04" rms="4.4253337383270264e-01" purity="4.1900384426116943e-01" nType="-99"/>
          <Node pos="r" depth="2" NCoef="0" IVar="-1" Cut="0.0000000000000000e+00" cType="1" res="1.2599218171089888e-03" rms="4.5241737365722656e-01" purity="5.8594447374343872e-01" nType="-99"/>
        </Node>
        <Node pos="r" depth="1" NCoef="0" IVar="5" Cut="4.8885568237304688e+02" cType="1" res="9.7134178504347801e-03" rms="4.4751635193824768e-01" purity="5.4565644264221191e-01" nType="0">
          <Node pos="l" depth="2" NCoef="0" IVar="-1" Cut="0.0000000000000000e+00" cType="1" res="-5.7431700406596065e-04" rms="4.4430884718894958e-01" purity="4.1649228334426880e-01" nType="-99"/>
          <Node pos="r" depth="2" NCoef="0" IVar="-1" Cut="0.0000000000000000e+00" cType="1" res="6.9378933403640985e-04" rms="4.4807374477386475e-01" purity="5.7345402240753174e-01" nType="-99"/>
        </Node>
      </Node>
    </BinaryTree>
    <BinaryTree type="DecisionTree" boostWeight="1.0000000000000000e+00" itree="484">
      <Node pos="s" depth="0" NCoef="0" IVar="2" Cut="6.6362947225570679e-01" cType="1" res="-1.2231864966452122e-03" rms="4.4614207744598389e-01" purity="4.9837923049926758e-01" nType="0">
        <Node pos="l" depth="1" NCoef="0" IVar="-1" Cut="0.0000000000000000e+00" cType="1" res="-2.4998807348310947e-03" rms="4.1052305698394775e-01" purity="2.5079834461212158e-01" nType="-99"/>
        <Node pos="r" depth="1" NCoef="0" IVar="5" Cut="9.4177191162109375e+02" cType="1" res="2.5495616719126701e-03" rms="4.4890344142913818e-01" purity="5.1987838745117188e-01" nType="0">
          <Node pos="l" depth="2" NCoef="0" IVar="-1" Cut="0.0000000000000000e+00" cType="1" res="-5.7919474784284830e-05" rms="4.4729107618331909e-01" purity="4.9910205602645874e-01" nType="-99"/>
          <Node pos="r" depth="2" NCoef="0" IVar="-1" Cut="0.0000000000000000e+00" cType="1" res="8.7147532030940056e-04" rms="4.5529919862747192e-01" purity="6.0742086172103882e-01" nType="-99"/>
        </Node>
      </Node>
    </BinaryTree>
    <BinaryTree type="DecisionTree" boostWeight="1.0000000000000000e+00" itree="485">
      <Node pos="s" depth="0" NCoef="0" IVar="1" Cut="7.8551357984542847e-01" cType="1" res="-1.1864884290844202e-03" rms="4.4729122519493103e-01" purity="5.0005596876144409e-01" nType="0">
        <Node pos="l" depth="1" NCoef="0" IVar="3" Cut="5.0425851345062256e-01" cType="1" res="1.8334019929170609e-02" rms="4.3567797541618347e-01" purity="6.6378235816955566e-01" nType="0">
          <Node pos="l" depth="2" NCoef="0" IVar="-1" Cut="0.0000000000000000e+00" cType="1" res="1.7014390323311090e-03" rms="4.2491447925567627e-01" purity="6.9529420137405396e-01" nType="-99"/>
          <Node pos="r" depth="2" NCoef="0" IVar="-1" Cut="0.0000000000000000e+00" cType="1" res="3.6089582135900855e-04" rms="4.4291061162948608e-01" purity="6.4117938280105591e-01" nType="-99"/>
        </Node>
        <Node pos="r" depth="1" NCoef="0" IVar="5" Cut="7.3933105468750000e+02" cType="1" res="-5.4995040409266949e-03" rms="4.4970241189002991e-01" purity="4.6388089656829834e-01" nType="0">
          <Node pos="l" depth="2" NCoef="0" IVar="-1" Cut="0.0000000000000000e+00" cType="1" res="-7.1824301267042756e-04" rms="4.4449794292449951e-01" purity="4.1703912615776062e-01" nType="-99"/>
          <Node pos="r" depth="2" NCoef="0" IVar="-1" Cut="0.0000000000000000e+00" cType="1" res="3.5761081380769610e-04" rms="4.5702150464057922e-01" purity="5.3352898359298706e-01" nType="-99"/>
        </Node>
      </Node>
    </BinaryTree>
    <BinaryTree type="DecisionTree" boostWeight="1.0000000000000000e+00" itree="486">
      <Node pos="s" depth="0" NCoef="0" IVar="6" Cut="2.0347392559051514e+00" cType="1" res="3.2183006405830383e-03" rms="4.4872757792472839e-01" purity="5.0342214107513428e-01" nType="0">
        <Node pos="l" depth="1" NCoef="0" IVar="0" Cut="5.5592022836208344e-02" cType="1" res="5.3429636172950268e-03" rms="4.5253461599349976e-01" purity="5.2048408985137939e-01" nType="0">
          <Node pos="l" depth="2" NCoef="0" IVar="-1" Cut="0.0000000000000000e+00" cType="1" res="-5.0689146155491471e-04" rms="4.4491589069366455e-01" purity="3.8875207304954529e-01" nType="-99"/>
          <Node pos="r" depth="2" NCoef="0" IVar="-1" Cut="0.0000000000000000e+00" cType="1" res="4.4457713374868035e-04" rms="4.5431548357009888e-01" purity="5.5304169654846191e-01" nType="-99"/>
        </Node>
        <Node pos="r" depth="1" NCoef="0" IVar="-1" Cut="0.0000000000000000e+00" cType="1" res="-2.4671098217368126e-03" rms="3.6693802475929260e-01" purity="1.8016360700130463e-01" nType="-99"/>
      </Node>
    </BinaryTree>
    <BinaryTree type="DecisionTree" boostWeight="1.0000000000000000e+00" itree="487">
      <Node pos="s" depth="0" NCoef="0" IVar="4" Cut="9.6312618255615234e-01" cType="1" res="-3.6800391972064972e-03" rms="4.4501784443855286e-01" purity="4.9749600887298584e-01" nType="0">
        <Node pos="l" depth="1" NCoef="0" IVar="6" Cut="1.8921629190444946e+00" cType="1" res="-6.3770622946321964e-03" rms="4.4809314608573914e-01" purity="4.7841301560401917e-01" nType="0">
          <Node pos="l" depth="2" NCoef="0" IVar="-1" Cut="0.0000000000000000e+00" cType="1" res="-1.7460627714172006e-04" rms="4.5365858078002930e-01" purity="5.0162619352340698e-01" nType="-99"/>
          <Node pos="r" depth="2" NCoef="0" IVar="-1" Cut="0.0000000000000000e+00" cType="1" res="-2.6996852830052376e-03" rms="3.6792236566543579e-01" purity="1.8194898962974548e-01" nType="-99"/>
        </Node>
        <Node pos="r" depth="1" NCoef="0" IVar="-1" Cut="0.0000000000000000e+00" cType="1" res="1.9553331658244133e-03" rms="3.9558151364326477e-01" purity="7.7481693029403687e-01" nType="-99"/>
      </Node>
    </BinaryTree>
    <BinaryTree type="DecisionTree" boostWeight="1.0000000000000000e+00" itree="488">
      <Node pos="s" depth="0" NCoef="0" IVar="2" Cut="6.2771445512771606e-01" cType="1" res="2.1392032504081726e-03" rms="4.4587108492851257e-01" purity="5.0209951400756836e-01" nType="0">
        <Node pos="l" depth="1" NCoef="0" IVar="-1" Cut="0.0000000000000000e+00" cType="1" res="-1.9583448302000761e-03" rms="4.0485596656799316e-01" purity="2.5185728073120117e-01" nType="-99"/>
        <Node pos="r" depth="1" NCoef="0" IVar="3" Cut="2.6180539131164551e+00" cType="1" res="4.1778241284191608e-03" rms="4.4795683026313782e-01" purity="5.1603507995605469e-01" nType="0">
          <Node pos="l" depth="2" NCoef="0" IVar="-1" Cut="0.0000000000000000e+00" cType="1" res="3.0716796754859388e-04" rms="4.4980311393737793e-01" purity="5.3180265426635742e-01" nType="-99"/>
          <Node pos="r" depth="2" NCoef="0" IVar="-1" Cut="0.0000000000000000e+00" cType="1" res="-1.3809408992528915e-03" rms="4.2092970013618469e-01" purity="3.0124053359031677e-01" nType="-99"/>
        </Node>
      </Node>
    </BinaryTree>
    <BinaryTree type="DecisionTree" boostWeight="1.0000000000000000e+00" itree="489">
      <Node pos="s" depth="0" NCoef="0" IVar="3" Cut="7.2904682159423828e-01" cType="1" res="5.3338758880272508e-04" rms="4.4626379013061523e-01" purity="5.0197756290435791e-01" nType="0">
        <Node pos="l" depth="1" NCoef="0" IVar="7" Cut="7.4883066117763519e-02" cType="1" res="1.3678242452442646e-02" rms="4.4668403267860413e-01" purity="5.8677655458450317e-01" nType="0">
          <Node pos="l" depth="2" NCoef="0" IVar="-1" Cut="0.0000000000000000e+00" cType="1" res="-7.8234197644633241e-06" rms="4.4822159409523010e-01" purity="5.3666621446609497e-01" nType="-99"/>
          <Node pos="r" depth="2" NCoef="0" IVar="-1" Cut="0.0000000000000000e+00" cType="1" res="1.1288580717518926e-03" rms="4.4539210200309753e-01" purity="6.2079638242721558e-01" nType="-99"/>
        </Node>
        <Node pos="r" depth="1" NCoef="0" IVar="0" Cut="4.1446454823017120e-02" cType="1" res="-6.7084510810673237e-03" rms="4.4586658477783203e-01" purity="4.5525959134101868e-01" nType="0">
          <Node pos="l" depth="2" NCoef="0" IVar="-1" Cut="0.0000000000000000e+00" cType="1" res="-2.1475346293300390e-03" rms="4.1830453276634216e-01" purity="3.1247755885124207e-01" nType="-99"/>
          <Node pos="r" depth="2" NCoef="0" IVar="-1" Cut="0.0000000000000000e+00" cType="1" res="-1.1554955563042313e-04" rms="4.4913333654403687e-01" purity="4.7377887368202209e-01" nType="-99"/>
        </Node>
      </Node>
    </BinaryTree>
    <BinaryTree type="DecisionTree" boostWeight="1.0000000000000000e+00" itree="490">
      <Node pos="s" depth="0" NCoef="0" IVar="4" Cut="5.4220956563949585e-01" cType="1" res="2.9521961696445942e-03" rms="4.4689220190048218e-01" purity="5.0421595573425293e-01" nType="0">
        <Node pos="l" depth="1" NCoef="0" IVar="7" Cut="8.8850878179073334e-02" cType="1" res="-1.6098847612738609e-02" rms="4.3109887838363647e-01" purity="3.1122094392776489e-01" nType="0">
          <Node pos="l" depth="2" NCoef="0" IVar="-1" Cut="0.0000000000000000e+00" cType="1" res="-1.5973807312548161e-03" rms="4.1989371180534363e-01" purity="2.7427601814270020e-01" nType="-99"/>
          <Node pos="r" depth="2" NCoef="0" IVar="-1" Cut="0.0000000000000000e+00" cType="1" res="4.0457049180986360e-05" rms="4.4475397467613220e-01" purity="3.5951173305511475e-01" nType="-99"/>
        </Node>
        <Node pos="r" depth="1" NCoef="0" IVar="1" Cut="1.2827934026718140e+00" cType="1" res="6.4018466509878635e-03" rms="4.4960632920265198e-01" purity="5.3916227817535400e-01" nType="0">
          <Node pos="l" depth="2" NCoef="0" IVar="-1" Cut="0.0000000000000000e+00" cType="1" res="4.9123551434604451e-05" rms="4.5059558749198914e-01" purity="6.0033768415451050e-01" nType="-99"/>
          <Node pos="r" depth="2" NCoef="0" IVar="-1" Cut="0.0000000000000000e+00" cType="1" res="8.6163822561502457e-04" rms="4.4738948345184326e-01" purity="4.1483408212661743e-01" nType="-99"/>
        </Node>
      </Node>
    </BinaryTree>
    <BinaryTree type="DecisionTree" boostWeight="1.0000000000000000e+00" itree="491">
      <Node pos="s" depth="0" NCoef="0" IVar="0" Cut="2.9605808854103088e-01" cType="1" res="-3.8573573692701757e-04" rms="4.4717150926589966e-01" purity="5.0148087739944458e-01" nType="0">
        <Node pos="l" depth="1" NCoef="0" IVar="0" Cut="5.0874151289463043e-02" cType="1" res="-4.3358602561056614e-03" rms="4.5026090741157532e-01" purity="4.5197615027427673e-01" nType="0">
          <Node pos="l" depth="2" NCoef="0" IVar="-1" Cut="0.0000000000000000e+00" cType="1" res="-9.4615505076944828e-04" rms="4.3163767457008362e-01" purity="3.6055907607078552e-01" nType="-99"/>
          <Node pos="r" depth="2" NCoef="0" IVar="-1" Cut="0.0000000000000000e+00" cType="1" res="-2.1259258573991247e-05" rms="4.5519223809242249e-01" purity="4.7722008824348450e-01" nType="-99"/>
        </Node>
        <Node pos="r" depth="1" NCoef="0" IVar="7" Cut="6.2738820910453796e-02" cType="1" res="1.3216359540820122e-02" rms="4.3609234690666199e-01" purity="6.7194837331771851e-01" nType="0">
          <Node pos="l" depth="2" NCoef="0" IVar="-1" Cut="0.0000000000000000e+00" cType="1" res="-2.0368107652757317e-04" rms="4.5214676856994629e-01" purity="6.0310727357864380e-01" nType="-99"/>
          <Node pos="r" depth="2" NCoef="0" IVar="-1" Cut="0.0000000000000000e+00" cType="1" res="1.2125518405809999e-03" rms="4.2617821693420410e-01" purity="7.1187430620193481e-01" nType="-99"/>
        </Node>
      </Node>
    </BinaryTree>
    <BinaryTree type="DecisionTree" boostWeight="1.0000000000000000e+00" itree="492">
      <Node pos="s" depth="0" NCoef="0" IVar="3" Cut="2.5829153060913086e+00" cType="1" res="-3.1641148962080479e-03" rms="4.4602587819099426e-01" purity="4.9641221761703491e-01" nType="0">
        <Node pos="l" depth="1" NCoef="0" IVar="0" Cut="3.8093072175979614e-01" cType="1" res="-5.2033644169569016e-04" rms="4.4924113154411316e-01" purity="5.1352614164352417e-01" nType="0">
          <Node pos="l" depth="2" NCoef="0" IVar="-1" Cut="0.0000000000000000e+00" cType="1" res="-1.9630485621746629e-04" rms="4.5296877622604370e-01" purity="4.8469799757003784e-01" nType="-99"/>
          <Node pos="r" depth="2" NCoef="0" IVar="-1" Cut="0.0000000000000000e+00" cType="1" res="1.3015604345127940e-03" rms="4.2043685913085938e-01" purity="7.2188472747802734e-01" nType="-99"/>
        </Node>
        <Node pos="r" depth="1" NCoef="0" IVar="-1" Cut="0.0000000000000000e+00" cType="1" res="-2.0535865332931280e-03" rms="4.0186843276023865e-01" purity="2.8092166781425476e-01" nType="-99"/>
      </Node>
    </BinaryTree>
    <BinaryTree type="DecisionTree" boostWeight="1.0000000000000000e+00" itree="493">
      <Node pos="s" depth="0" NCoef="0" IVar="0" Cut="2.8191557526588440e-01" cType="1" res="3.4130592830479145e-03" rms="4.4751015305519104e-01" purity="5.0265496969223022e-01" nType="0">
        <Node pos="l" depth="1" NCoef="0" IVar="5" Cut="5.0129898071289062e+02" cType="1" res="-1.4493900816887617e-03" rms="4.5060485601425171e-01" purity="4.4985878467559814e-01" nType="0">
          <Node pos="l" depth="2" NCoef="0" IVar="-1" Cut="0.0000000000000000e+00" cType="1" res="-1.1321158381178975e-03" rms="4.2968007922172546e-01" purity="3.4028455615043640e-01" nType="-99"/>
          <Node pos="r" depth="2" NCoef="0" IVar="-1" Cut="0.0000000000000000e+00" cType="1" res="1.2937602878082544e-04" rms="4.5471161603927612e-01" purity="4.7256723046302795e-01" nType="-99"/>
        </Node>
        <Node pos="r" depth="1" NCoef="0" IVar="0" Cut="3.2233199477195740e-01" cType="1" res="1.8607407808303833e-02" rms="4.3735042214393616e-01" purity="6.6763430833816528e-01" nType="0">
          <Node pos="l" depth="2" NCoef="0" IVar="-1" Cut="0.0000000000000000e+00" cType="1" res="1.5903600724413991e-03" rms="4.4302111864089966e-01" purity="6.4390307664871216e-01" nType="-99"/>
          <Node pos="r" depth="2" NCoef="0" IVar="-1" Cut="0.0000000000000000e+00" cType="1" res="7.3010561754927039e-04" rms="4.3556642532348633e-01" purity="6.7466795444488525e-01" nType="-99"/>
        </Node>
      </Node>
    </BinaryTree>
    <BinaryTree type="DecisionTree" boostWeight="1.0000000000000000e+00" itree="494">
      <Node pos="s" depth="0" NCoef="0" IVar="5" Cut="1.2081379394531250e+03" cType="1" res="-1.4545673038810492e-03" rms="4.4580572843551636e-01" purity="4.9690270423889160e-01" nType="0">
        <Node pos="l" depth="1" NCoef="0" IVar="7" Cut="3.4399528056383133e-02" cType="1" res="-3.6927065812051296e-03" rms="4.4519004225730896e-01" purity="4.8805582523345947e-01" nType="0">
          <Node pos="l" depth="2" NCoef="0" IVar="-1" Cut="0.0000000000000000e+00" cType="1" res="-1.5193592989817262e-03" rms="4.3923008441925049e-01" purity="3.8839238882064819e-01" nType="-99"/>
          <Node pos="r" depth="2" NCoef="0" IVar="-1" Cut="0.0000000000000000e+00" cType="1" res="4.3532043491723016e-05" rms="4.4606572389602661e-01" purity="5.0547206401824951e-01" nType="-99"/>
        </Node>
        <Node pos="r" depth="1" NCoef="0" IVar="-1" Cut="0.0000000000000000e+00" cType="1" res="1.3248733012005687e-03" rms="4.5276317000389099e-01" purity="6.1260294914245605e-01" nType="-99"/>
      </Node>
    </BinaryTree>
    <BinaryTree type="DecisionTree" boostWeight="1.0000000000000000e+00" itree="495">
      <Node pos="s" depth="0" NCoef="0" IVar="1" Cut="5.8900314569473267e-01" cType="1" res="-2.0224829204380512e-03" rms="4.4752407073974609e-01" purity="4.9543914198875427e-01" nType="0">
        <Node pos="l" depth="1" NCoef="0" IVar="-1" Cut="0.0000000000000000e+00" cType="1" res="1.5334890922531486e-03" rms="4.2507475614547729e-01" purity="6.9413059949874878e-01" nType="-99"/>
        <Node pos="r" depth="1" NCoef="0" IVar="0" Cut="4.2336577177047729e-01" cType="1" res="-3.9230515249073505e-03" rms="4.4874677062034607e-01" purity="4.8366868495941162e-01" nType="0">
          <Node pos="l" depth="2" NCoef="0" IVar="-1" Cut="0.0000000000000000e+00" cType="1" res="-3.0101323500275612e-04" rms="4.5062407851219177e-01" purity="4.6624517440795898e-01" nType="-99"/>
          <Node pos="r" depth="2" NCoef="0" IVar="-1" Cut="0.0000000000000000e+00" cType="1" res="1.1868044966831803e-03" rms="4.2376783490180969e-01" purity="7.0030802488327026e-01" nType="-99"/>
        </Node>
      </Node>
    </BinaryTree>
    <BinaryTree type="DecisionTree" boostWeight="1.0000000000000000e+00" itree="496">
      <Node pos="s" depth="0" NCoef="0" IVar="2" Cut="6.8736159801483154e-01" cType="1" res="5.1752431318163872e-03" rms="4.4635951519012451e-01" purity="5.0461775064468384e-01" nType="0">
        <Node pos="l" depth="1" NCoef="0" IVar="0" Cut="1.2498041242361069e-01" cType="1" res="-1.8588863313198090e-02" rms="4.1924059391021729e-01" purity="2.8392598032951355e-01" nType="0">
          <Node pos="l" depth="2" NCoef="0" IVar="-1" Cut="0.0000000000000000e+00" cType="1" res="-1.5829200856387615e-03" rms="3.8537594676017761e-01" purity="1.9760084152221680e-01" nType="-99"/>
          <Node pos="r" depth="2" NCoef="0" IVar="-1" Cut="0.0000000000000000e+00" cType="1" res="-5.9783505275845528e-04" rms="4.5020237565040588e-01" purity="3.6945652961730957e-01" nType="-99"/>
        </Node>
        <Node pos="r" depth="1" NCoef="0" IVar="7" Cut="2.3157084360718727e-02" cType="1" res="7.8779291361570358e-03" rms="4.4926050305366516e-01" purity="5.2971702814102173e-01" nType="0">
          <Node pos="l" depth="2" NCoef="0" IVar="-1" Cut="0.0000000000000000e+00" cType="1" res="-1.0380370076745749e-03" rms="4.5082849264144897e-01" purity="4.3201506137847900e-01" nType="-99"/>
          <Node pos="r" depth="2" NCoef="0" IVar="-1" Cut="0.0000000000000000e+00" cType="1" res="5.1131681539118290e-04" rms="4.4902804493904114e-01" purity="5.3848558664321899e-01" nType="-99"/>
        </Node>
      </Node>
    </BinaryTree>
    <BinaryTree type="DecisionTree" boostWeight="1.0000000000000000e+00" itree="497">
      <Node pos="s" depth="0" NCoef="0" IVar="2" Cut="9.8777312040328979e-01" cType="1" res="-2.3859157226979733e-03" rms="4.4778046011924744e-01" purity="4.9761810898780823e-01" nType="0">
        <Node pos="l" depth="1" NCoef="0" IVar="8" Cut="1.6758614778518677e+00" cType="1" res="-6.8885395303368568e-03" rms="4.5050865411758423e-01" purity="4.6966117620468140e-01" nType="0">
          <Node pos="l" depth="2" NCoef="0" IVar="-1" Cut="0.0000000000000000e+00" cType="1" res="6.9901300594210625e-04" rms="4.4693398475646973e-01" purity="5.8424299955368042e-01" nType="-99"/>
          <Node pos="r" depth="2" NCoef="0" IVar="-1" Cut="0.0000000000000000e+00" cType="1" res="-5.2572478307411075e-04" rms="4.5102083683013916e-01" purity="4.4981071352958679e-01" nType="-99"/>
        </Node>
        <Node pos="r" depth="1" NCoef="0" IVar="7" Cut="1.2153195589780807e-01" cType="1" res="1.8658000975847244e-02" rms="4.3418407440185547e-01" purity="6.2828052043914795e-01" nType="0">
          <Node pos="l" depth="2" NCoef="0" IVar="-1" Cut="0.0000000000000000e+00" cType="1" res="5.6002533528953791e-04" rms="4.4191467761993408e-01" purity="5.9405201673507690e-01" nType="-99"/>
          <Node pos="r" depth="2" NCoef="0" IVar="-1" Cut="0.0000000000000000e+00" cType="1" res="1.6834427369758487e-03" rms="4.1852411627769470e-01" purity="6.9424510002136230e-01" nType="-99"/>
        </Node>
      </Node>
    </BinaryTree>
    <BinaryTree type="DecisionTree" boostWeight="1.0000000000000000e+00" itree="498">
      <Node pos="s" depth="0" NCoef="0" IVar="2" Cut="8.0747282505035400e-01" cType="1" res="-2.2282972931861877e-03" rms="4.4674667716026306e-01" purity="4.9667587876319885e-01" nType="0">
        <Node pos="l" depth="1" NCoef="0" IVar="4" Cut="6.0488462448120117e-01" cType="1" res="-1.5249971300363541e-02" rms="4.3715476989746094e-01" purity="3.2998460531234741e-01" nType="0">
          <Node pos="l" depth="2" NCoef="0" IVar="-1" Cut="0.0000000000000000e+00" cType="1" res="-3.9408259908668697e-04" rms="4.2752692103385925e-01" purity="2.9943102598190308e-01" nType="-99"/>
          <Node pos="r" depth="2" NCoef="0" IVar="-1" Cut="0.0000000000000000e+00" cType="1" res="-1.3857000740244985e-03" rms="4.5258957147598267e-01" purity="3.8145267963409424e-01" nType="-99"/>
        </Node>
        <Node pos="r" depth="1" NCoef="0" IVar="7" Cut="2.1530712023377419e-02" cType="1" res="1.9306318135932088e-03" rms="4.4968765974044800e-01" purity="5.4991465806961060e-01" nType="0">
          <Node pos="l" depth="2" NCoef="0" IVar="-1" Cut="0.0000000000000000e+00" cType="1" res="-1.2638207990676165e-03" rms="4.5346078276634216e-01" purity="4.5877024531364441e-01" nType="-99"/>
          <Node pos="r" depth="2" NCoef="0" IVar="-1" Cut="0.0000000000000000e+00" cType="1" res="1.9533088197931647e-04" rms="4.4933688640594482e-01" purity="5.5667555332183838e-01" nType="-99"/>
        </Node>
      </Node>
    </BinaryTree>
    <BinaryTree type="DecisionTree" boostWeight="1.0000000000000000e+00" itree="499">
      <Node pos="s" depth="0" NCoef="0" IVar="5" Cut="1.0265631103515625e+03" cType="1" res="1.2978926533833146e-03" rms="4.4605380296707153e-01" purity="5.0152540206909180e-01" nType="0">
        <Node pos="l" depth="1" NCoef="0" IVar="7" Cut="6.2096368521451950e-02" cType="1" res="-3.1670872122049332e-03" rms="4.4520491361618042e-01" purity="4.8494285345077515e-01" nType="0">
          <Node pos="l" depth="2" NCoef="0" IVar="-1" Cut="0.0000000000000000e+00" cType="1" res="-8.5362046957015991e-04" rms="4.4094407558441162e-01" purity="4.0677234530448914e-01" nType="-99"/>
          <Node pos="r" depth="2" NCoef="0" IVar="-1" Cut="0.0000000000000000e+00" cType="1" res="1.8738811195362359e-04" rms="4.4720330834388733e-01" purity="5.2485042810440063e-01" nType="-99"/>
        </Node>
        <Node pos="r" depth="1" NCoef="0" IVar="8" Cut="2.1645123958587646e+00" cType="1" res="2.9010865837335587e-02" rms="4.5029801130294800e-01" purity="6.0444885492324829e-01" nType="0">
          <Node pos="l" depth="2" NCoef="0" IVar="-1" Cut="0.0000000000000000e+00" cType="1" res="2.2072147112339735e-03" rms="4.3925428390502930e-01" purity="6.7317134141921997e-01" nType="-99"/>
          <Node pos="r" depth="2" NCoef="0" IVar="-1" Cut="0.0000000000000000e+00" cType="1" res="4.6373062650673091e-04" rms="4.6170327067375183e-01" purity="5.2682429552078247e-01" nType="-99"/>
        </Node>
      </Node>
    </BinaryTree>
    <BinaryTree type="DecisionTree" boostWeight="1.0000000000000000e+00" itree="500">
      <Node pos="s" depth="0" NCoef="0" IVar="2" Cut="6.7573165893554688e-01" cType="1" res="1.3047144748270512e-03" rms="4.4475039839744568e-01" purity="5.0087493658065796e-01" nType="0">
        <Node pos="l" depth="1" NCoef="0" IVar="-1" Cut="0.0000000000000000e+00" cType="1" res="-1.7906326102092862e-03" rms="4.1279157996177673e-01" purity="2.6555857062339783e-01" nType="-99"/>
        <Node pos="r" depth="1" NCoef="0" IVar="7" Cut="7.3333382606506348e-02" cType="1" res="4.5961099676787853e-03" rms="4.4763574004173279e-01" purity="5.2402204275131226e-01" nType="0">
          <Node pos="l" depth="2" NCoef="0" IVar="-1" Cut="0.0000000000000000e+00" cType="1" res="-2.3696212156210095e-04" rms="4.4782197475433350e-01" purity="4.7276759147644043e-01" nType="-99"/>
          <Node pos="r" depth="2" NCoef="0" IVar="-1" Cut="0.0000000000000000e+00" cType="1" res="5.9310731012374163e-04" rms="4.4734317064285278e-01" purity="5.6509464979171753e-01" nType="-99"/>
        </Node>
      </Node>
    </BinaryTree>
    <BinaryTree type="DecisionTree" boostWeight="1.0000000000000000e+00" itree="501">
      <Node pos="s" depth="0" NCoef="0" IVar="5" Cut="6.4768359375000000e+02" cType="1" res="1.9469951803330332e-04" rms="4.4786840677261353e-01" purity="4.9949195981025696e-01" nType="0">
        <Node pos="l" depth="1" NCoef="0" IVar="5" Cut="4.3063821411132812e+02" cType="1" res="-9.6956444904208183e-03" rms="4.4238781929016113e-01" purity="4.3560183048248291e-01" nType="0">
          <Node pos="l" depth="2" NCoef="0" IVar="-1" Cut="0.0000000000000000e+00" cType="1" res="-2.0902163814753294e-03" rms="4.2210173606872559e-01" purity="3.3066171407699585e-01" nType="-99"/>
          <Node pos="r" depth="2" NCoef="0" IVar="-1" Cut="0.0000000000000000e+00" cType="1" res="-2.9460559017024934e-04" rms="4.4482648372650146e-01" purity="4.4930708408355713e-01" nType="-99"/>
        </Node>
        <Node pos="r" depth="1" NCoef="0" IVar="8" Cut="2.1340789794921875e+00" cType="1" res="8.1250742077827454e-03" rms="4.5205864310264587e-01" purity="5.5072098970413208e-01" nType="0">
          <Node pos="l" depth="2" NCoef="0" IVar="-1" Cut="0.0000000000000000e+00" cType="1" res="9.0083334362134337e-04" rms="4.4547280669212341e-01" purity="6.2467700242996216e-01" nType="-99"/>
          <Node pos="r" depth="2" NCoef="0" IVar="-1" Cut="0.0000000000000000e+00" cType="1" res="-2.6404461550555425e-06" rms="4.5696774125099182e-01" purity="4.9297878146171570e-01" nType="-99"/>
        </Node>
      </Node>
    </BinaryTree>
    <BinaryTree type="DecisionTree" boostWeight="1.0000000000000000e+00" itree="502">
      <Node pos="s" depth="0" NCoef="0" IVar="5" Cut="9.4556762695312500e+02" cType="1" res="-3.5012322477996349e-03" rms="4.4788825511932373e-01" purity="4.9640840291976929e-01" nType="0">
        <Node pos="l" depth="1" NCoef="0" IVar="5" Cut="4.4536022949218750e+02" cType="1" res="-7.2914478369057178e-03" rms="4.4665169715881348e-01" purity="4.7591558098793030e-01" nType="0">
          <Node pos="l" depth="2" NCoef="0" IVar="-1" Cut="0.0000000000000000e+00" cType="1" res="-1.8123660702258348e-03" rms="4.2165029048919678e-01" purity="3.4393084049224854e-01" nType="-99"/>
          <Node pos="r" depth="2" NCoef="0" IVar="-1" Cut="0.0000000000000000e+00" cType="1" res="-2.3980722471605986e-04" rms="4.4878187775611877e-01" purity="4.8794141411781311e-01" nType="-99"/>
        </Node>
        <Node pos="r" depth="1" NCoef="0" IVar="1" Cut="1.0796713829040527e+00" cType="1" res="1.2753608636558056e-02" rms="4.5279350876808167e-01" purity="5.8429443836212158e-01" nType="0">
          <Node pos="l" depth="2" NCoef="0" IVar="-1" Cut="0.0000000000000000e+00" cType="1" res="-5.1947572501376271e-05" rms="4.4234862923622131e-01" purity="6.5661925077438354e-01" nType="-99"/>
          <Node pos="r" depth="2" NCoef="0" IVar="-1" Cut="0.0000000000000000e+00" cType="1" res="1.1709752725437284e-03" rms="4.6147966384887695e-01" purity="5.2041131258010864e-01" nType="-99"/>
        </Node>
      </Node>
    </BinaryTree>
    <BinaryTree type="DecisionTree" boostWeight="1.0000000000000000e+00" itree="503">
      <Node pos="s" depth="0" NCoef="0" IVar="5" Cut="1.1141123046875000e+03" cType="1" res="-3.8236915133893490e-03" rms="4.4547680020332336e-01" purity="4.9471938610076904e-01" nType="0">
        <Node pos="l" depth="1" NCoef="0" IVar="7" Cut="3.4496929496526718e-02" cType="1" res="-6.7706815898418427e-03" rms="4.4473683834075928e-01" purity="4.8233535885810852e-01" nType="0">
          <Node pos="l" depth="2" NCoef="0" IVar="-1" Cut="0.0000000000000000e+00" cType="1" res="-1.5152406413108110e-03" rms="4.3390145897865295e-01" purity="3.7966850399971008e-01" nType="-99"/>
          <Node pos="r" depth="2" NCoef="0" IVar="-1" Cut="0.0000000000000000e+00" cType="1" res="-1.4425240806303918e-04" rms="4.4642758369445801e-01" purity="4.9969372153282166e-01" nType="-99"/>
        </Node>
        <Node pos="r" depth="1" NCoef="0" IVar="-1" Cut="0.0000000000000000e+00" cType="1" res="1.0615207720547915e-03" rms="4.5109543204307556e-01" purity="6.0344350337982178e-01" nType="-99"/>
      </Node>
    </BinaryTree>
    <BinaryTree type="DecisionTree" boostWeight="1.0000000000000000e+00" itree="504">
      <Node pos="s" depth="0" NCoef="0" IVar="1" Cut="1.6294465065002441e+00" cType="1" res="3.6164994817227125e-03" rms="4.4601690769195557e-01" purity="5.0266396999359131e-01" nType="0">
        <Node pos="l" depth="1" NCoef="0" IVar="7" Cut="5.5813699960708618e-02" cType="1" res="7.1901576593518257e-03" rms="4.4969081878662109e-01" purity="5.2718281745910645e-01" nType="0">
          <Node pos="l" depth="2" NCoef="0" IVar="-1" Cut="0.0000000000000000e+00" cType="1" res="-3.1469578971154988e-04" rms="4.5138087868690491e-01" purity="4.7711217403411865e-01" nType="-99"/>
          <Node pos="r" depth="2" NCoef="0" IVar="-1" Cut="0.0000000000000000e+00" cType="1" res="6.3134648371487856e-04" rms="4.4885018467903137e-01" purity="5.4832899570465088e-01" nType="-99"/>
        </Node>
        <Node pos="r" depth="1" NCoef="0" IVar="-1" Cut="0.0000000000000000e+00" cType="1" res="-1.7966694431379437e-03" rms="4.0679985284805298e-01" purity="2.6345533132553101e-01" nType="-99"/>
      </Node>
    </BinaryTree>
    <BinaryTree type="DecisionTree" boostWeight="1.0000000000000000e+00" itree="505">
      <Node pos="s" depth="0" NCoef="0" IVar="7" Cut="1.9001594185829163e-01" cType="1" res="8.9563033543527126e-04" rms="4.4801074266433716e-01" purity="4.9968087673187256e-01" nType="0">
        <Node pos="l" depth="1" NCoef="0" IVar="0" Cut="2.5361824035644531e-01" cType="1" res="-1.6167432768270373e-03" rms="4.4900906085968018e-01" purity="4.8718017339706421e-01" nType="0">
          <Node pos="l" depth="2" NCoef="0" IVar="-1" Cut="0.0000000000000000e+00" cType="1" res="-2.9408873524516821e-04" rms="4.5079997181892395e-01" purity="4.2770737409591675e-01" nType="-99"/>
          <Node pos="r" depth="2" NCoef="0" IVar="-1" Cut="0.0000000000000000e+00" cType="1" res="4.6018161810934544e-04" rms="4.4426614046096802e-01" purity="6.3735669851303101e-01" nType="-99"/>
        </Node>
        <Node pos="r" depth="1" NCoef="0" IVar="2" Cut="9.4006651639938354e-01" cType="1" res="2.2827520966529846e-02" rms="4.3858879804611206e-01" purity="6.0880655050277710e-01" nType="0">
          <Node pos="l" depth="2" NCoef="0" IVar="-1" Cut="0.0000000000000000e+00" cType="1" res="5.6918238988146186e-04" rms="4.5818227529525757e-01" purity="5.1876932382583618e-01" nType="-99"/>
          <Node pos="r" depth="2" NCoef="0" IVar="-1" Cut="0.0000000000000000e+00" cType="1" res="1.6821229364722967e-03" rms="4.1877672076225281e-01" purity="6.9473421573638916e-01" nType="-99"/>
        </Node>
      </Node>
    </BinaryTree>
    <BinaryTree type="DecisionTree" boostWeight="1.0000000000000000e+00" itree="506">
      <Node pos="s" depth="0" NCoef="0" IVar="0" Cut="1.1217476427555084e-01" cType="1" res="3.9353491738438606e-03" rms="4.4510009884834290e-01" purity="5.0354349613189697e-01" nType="0">
        <Node pos="l" depth="1" NCoef="0" IVar="4" Cut="5.4220002889633179e-01" cType="1" res="-6.6027166321873665e-03" rms="4.4565027952194214e-01" purity="3.9248037338256836e-01" nType="0">
          <Node pos="l" depth="2" NCoef="0" IVar="-1" Cut="0.0000000000000000e+00" cType="1" res="-1.5486932825297117e-03" rms="3.9336684346199036e-01" purity="2.0910292863845825e-01" nType="-99"/>
          <Node pos="r" depth="2" NCoef="0" IVar="-1" Cut="0.0000000000000000e+00" cType="1" res="-1.3588977162726223e-04" rms="4.5552328228950500e-01" purity="4.3002766370773315e-01" nType="-99"/>
        </Node>
        <Node pos="r" depth="1" NCoef="0" IVar="3" Cut="2.4468326568603516e+00" cType="1" res="1.1521828360855579e-02" rms="4.4454896450042725e-01" purity="5.8349913358688354e-01" nType="0">
          <Node pos="l" depth="2" NCoef="0" IVar="-1" Cut="0.0000000000000000e+00" cType="1" res="7.4923899956047535e-04" rms="4.4574052095413208e-01" purity="6.0662400722503662e-01" nType="-99"/>
          <Node pos="r" depth="2" NCoef="0" IVar="-1" Cut="0.0000000000000000e+00" cType="1" res="-1.4550951309502125e-03" rms="4.3010270595550537e-01" purity="3.4600308537483215e-01" nType="-99"/>
        </Node>
      </Node>
    </BinaryTree>
    <BinaryTree type="DecisionTree" boostWeight="1.0000000000000000e+00" itree="507">
      <Node pos="s" depth="0" NCoef="0" IVar="8" Cut="1.8455078601837158e+00" cType="1" res="-2.8713098727166653e-03" rms="4.4624167680740356e-01" purity="4.9834665656089783e-01" nType="0">
        <Node pos="l" depth="1" NCoef="0" IVar="5" Cut="5.8451794433593750e+02" cType="1" res="1.5814905986189842e-02" rms="4.4240993261337280e-01" purity="5.9667390584945679e-01" nType="0">
          <Node pos="l" depth="2" NCoef="0" IVar="-1" Cut="0.0000000000000000e+00" cType="1" res="-6.7131500691175461e-04" rms="4.5169141888618469e-01" purity="5.0014007091522217e-01" nType="-99"/>
          <Node pos="r" depth="2" NCoef="0" IVar="-1" Cut="0.0000000000000000e+00" cType="1" res="1.3144694967195392e-03" rms="4.3824470043182373e-01" purity="6.3391751050949097e-01" nType="-99"/>
        </Node>
        <Node pos="r" depth="1" NCoef="0" IVar="0" Cut="3.9506259560585022e-01" cType="1" res="-7.9614408314228058e-03" rms="4.4714444875717163e-01" purity="4.7156229615211487e-01" nType="0">
          <Node pos="l" depth="2" NCoef="0" IVar="-1" Cut="0.0000000000000000e+00" cType="1" res="-5.2546348888427019e-04" rms="4.4900223612785339e-01" purity="4.4774258136749268e-01" nType="-99"/>
          <Node pos="r" depth="2" NCoef="0" IVar="-1" Cut="0.0000000000000000e+00" cType="1" res="7.8385026426985860e-04" rms="4.2956843972206116e-01" purity="6.8339920043945312e-01" nType="-99"/>
        </Node>
      </Node>
    </BinaryTree>
    <BinaryTree type="DecisionTree" boostWeight="1.0000000000000000e+00" itree="508">
      <Node pos="s" depth="0" NCoef="0" IVar="2" Cut="9.7581601142883301e-01" cType="1" res="3.0365830752998590e-03" rms="4.4772481918334961e-01" purity="5.0348836183547974e-01" nType="0">
        <Node pos="l" depth="1" NCoef="0" IVar="8" Cut="1.6766519546508789e+00" cType="1" res="-2.2475773002952337e-03" rms="4.5041906833648682e-01" purity="4.5830836892127991e-01" nType="0">
          <Node pos="l" depth="2" NCoef="0" IVar="-1" Cut="0.0000000000000000e+00" cType="1" res="9.4144174363464117e-04" rms="4.5914459228515625e-01" purity="5.7030963897705078e-01" nType="-99"/>
          <Node pos="r" depth="2" NCoef="0" IVar="-1" Cut="0.0000000000000000e+00" cType="1" res="-2.9671899392269552e-04" rms="4.4882243871688843e-01" purity="4.3940970301628113e-01" nType="-99"/>
        </Node>
        <Node pos="r" depth="1" NCoef="0" IVar="8" Cut="2.0311026573181152e+00" cType="1" res="1.6624491661787033e-02" rms="4.4043010473251343e-01" purity="6.1966615915298462e-01" nType="0">
          <Node pos="l" depth="2" NCoef="0" IVar="-1" Cut="0.0000000000000000e+00" cType="1" res="1.5730471350252628e-03" rms="4.2305418848991394e-01" purity="6.9928407669067383e-01" nType="-99"/>
          <Node pos="r" depth="2" NCoef="0" IVar="-1" Cut="0.0000000000000000e+00" cType="1" res="4.8525791498832405e-04" rms="4.4844466447830200e-01" purity="5.8112865686416626e-01" nType="-99"/>
        </Node>
      </Node>
    </BinaryTree>
    <BinaryTree type="DecisionTree" boostWeight="1.0000000000000000e+00" itree="509">
      <Node pos="s" depth="0" NCoef="0" IVar="6" Cut="1.8854984045028687e+00" cType="1" res="-1.9752404186874628e-03" rms="4.4699791073799133e-01" purity="4.9866238236427307e-01" nType="0">
        <Node pos="l" depth="1" NCoef="0" IVar="3" Cut="5.2725625038146973e-01" cType="1" res="2.6428926503285766e-04" rms="4.5204138755798340e-01" purity="5.2325516939163208e-01" nType="0">
          <Node pos="l" depth="2" NCoef="0" IVar="-1" Cut="0.0000000000000000e+00" cType="1" res="6.4781174296513200e-04" rms="4.4902807474136353e-01" purity="6.0122746229171753e-01" nType="-99"/>
          <Node pos="r" depth="2" NCoef="0" IVar="-1" Cut="0.0000000000000000e+00" cType="1" res="-1.9325122411828488e-04" rms="4.5294085144996643e-01" purity="4.9777469038963318e-01" nType="-99"/>
        </Node>
        <Node pos="r" depth="1" NCoef="0" IVar="-1" Cut="0.0000000000000000e+00" cType="1" res="-1.9193643238395452e-03" rms="3.7851089239120483e-01" purity="1.9646398723125458e-01" nType="-99"/>
      </Node>
    </BinaryTree>
    <BinaryTree type="DecisionTree" boostWeight="1.0000000000000000e+00" itree="510">
      <Node pos="s" depth="0" NCoef="0" IVar="1" Cut="1.7543668746948242e+00" cType="1" res="-2.1800505928695202e-03" rms="4.4615647196769714e-01" purity="4.9753063917160034e-01" nType="0">
        <Node pos="l" depth="1" NCoef="0" IVar="1" Cut="6.5335828065872192e-01" cType="1" res="-1.3687218597624451e-04" rms="4.4875958561897278e-01" purity="5.1193064451217651e-01" nType="0">
          <Node pos="l" depth="2" NCoef="0" IVar="-1" Cut="0.0000000000000000e+00" cType="1" res="1.3048540567979217e-03" rms="4.2783701419830322e-01" purity="6.8583220243453979e-01" nType="-99"/>
          <Node pos="r" depth="2" NCoef="0" IVar="-1" Cut="0.0000000000000000e+00" cType="1" res="-1.3475735613610595e-04" rms="4.5073202252388000e-01" purity="4.9439650774002075e-01" nType="-99"/>
        </Node>
        <Node pos="r" depth="1" NCoef="0" IVar="-1" Cut="0.0000000000000000e+00" cType="1" res="-2.4569905363023281e-03" rms="3.9211425185203552e-01" purity="2.2708763182163239e-01" nType="-99"/>
      </Node>
    </BinaryTree>
    <BinaryTree type="DecisionTree" boostWeight="1.0000000000000000e+00" itree="511">
      <Node pos="s" depth="0" NCoef="0" IVar="0" Cut="4.1439380496740341e-02" cType="1" res="-3.2405502861365676e-04" rms="4.4505321979522705e-01" purity="4.9992874264717102e-01" nType="0">
        <Node pos="l" depth="1" NCoef="0" IVar="8" Cut="2.2329263687133789e+00" cType="1" res="-2.5962119922041893e-02" rms="4.3378651142120361e-01" purity="3.4702739119529724e-01" nType="0">
          <Node pos="l" depth="2" NCoef="0" IVar="-1" Cut="0.0000000000000000e+00" cType="1" res="-2.0521865226328373e-03" rms="4.5045173168182373e-01" purity="3.9150109887123108e-01" nType="-99"/>
          <Node pos="r" depth="2" NCoef="0" IVar="-1" Cut="0.0000000000000000e+00" cType="1" res="-4.4699388672597706e-04" rms="4.1459631919860840e-01" purity="2.9978138208389282e-01" nType="-99"/>
        </Node>
        <Node pos="r" depth="1" NCoef="0" IVar="2" Cut="9.7569912672042847e-01" cType="1" res="2.9964186251163483e-03" rms="4.4638392329216003e-01" purity="5.1973152160644531e-01" nType="0">
          <Node pos="l" depth="2" NCoef="0" IVar="-1" Cut="0.0000000000000000e+00" cType="1" res="-8.8910404883790761e-05" rms="4.4983807206153870e-01" purity="4.7422066330909729e-01" nType="-99"/>
          <Node pos="r" depth="2" NCoef="0" IVar="-1" Cut="0.0000000000000000e+00" cType="1" res="7.6720793731510639e-04" rms="4.3723797798156738e-01" purity="6.3547319173812866e-01" nType="-99"/>
        </Node>
      </Node>
    </BinaryTree>
    <BinaryTree type="DecisionTree" boostWeight="1.0000000000000000e+00" itree="512">
      <Node pos="s" depth="0" NCoef="0" IVar="5" Cut="6.3853802490234375e+02" cType="1" res="-1.3065326493233442e-03" rms="4.4797345995903015e-01" purity="4.9776422977447510e-01" nType="0">
        <Node pos="l" depth="1" NCoef="0" IVar="4" Cut="9.0299552679061890e-01" cType="1" res="-1.1468603275716305e-02" rms="4.4143497943878174e-01" purity="4.3165361881256104e-01" nType="0">
          <Node pos="l" depth="2" NCoef="0" IVar="-1" Cut="0.0000000000000000e+00" cType="1" res="-7.7472906559705734e-04" rms="4.4335433840751648e-01" purity="3.8119587302207947e-01" nType="-99"/>
          <Node pos="r" depth="2" NCoef="0" IVar="-1" Cut="0.0000000000000000e+00" cType="1" res="4.6379622654058039e-04" rms="4.3044221401214600e-01" purity="7.0155769586563110e-01" nType="-99"/>
        </Node>
        <Node pos="r" depth="1" NCoef="0" IVar="7" Cut="4.1887246072292328e-02" cType="1" res="6.3250004313886166e-03" rms="4.5267173647880554e-01" purity="5.4741215705871582e-01" nType="0">
          <Node pos="l" depth="2" NCoef="0" IVar="-1" Cut="0.0000000000000000e+00" cType="1" res="-3.1484398641623557e-04" rms="4.4966384768486023e-01" purity="4.6610653400421143e-01" nType="-99"/>
          <Node pos="r" depth="2" NCoef="0" IVar="-1" Cut="0.0000000000000000e+00" cType="1" res="5.6255207164213061e-04" rms="4.5380124449729919e-01" purity="5.8094525337219238e-01" nType="-99"/>
        </Node>
      </Node>
    </BinaryTree>
    <BinaryTree type="DecisionTree" boostWeight="1.0000000000000000e+00" itree="513">
      <Node pos="s" depth="0" NCoef="0" IVar="4" Cut="9.3926924467086792e-01" cType="1" res="6.2502413056790829e-03" rms="4.4572049379348755e-01" purity="5.0432360172271729e-01" nType="0">
        <Node pos="l" depth="1" NCoef="0" IVar="0" Cut="1.1217476427555084e-01" cType="1" res="3.7637858185917139e-03" rms="4.4978433847427368e-01" purity="4.7588074207305908e-01" nType="0">
          <Node pos="l" depth="2" NCoef="0" IVar="-1" Cut="0.0000000000000000e+00" cType="1" res="-2.8049698448739946e-04" rms="4.4420328736305237e-01" purity="3.6491650342941284e-01" nType="-99"/>
          <Node pos="r" depth="2" NCoef="0" IVar="-1" Cut="0.0000000000000000e+00" cType="1" res="5.1944295410066843e-04" rms="4.5383876562118530e-01" purity="5.5992591381072998e-01" nType="-99"/>
        </Node>
        <Node pos="r" depth="1" NCoef="0" IVar="-1" Cut="0.0000000000000000e+00" cType="1" res="1.5519497683271766e-03" rms="4.0680631995201111e-01" purity="7.5929600000381470e-01" nType="-99"/>
      </Node>
    </BinaryTree>
    <BinaryTree type="DecisionTree" boostWeight="1.0000000000000000e+00" itree="514">
      <Node pos="s" depth="0" NCoef="0" IVar="5" Cut="1.1040274658203125e+03" cType="1" res="1.7711665714159608e-03" rms="4.4637903571128845e-01" purity="5.0122052431106567e-01" nType="0">
        <Node pos="l" depth="1" NCoef="0" IVar="2" Cut="7.3625421524047852e-01" cType="1" res="-1.0447094682604074e-03" rms="4.4608759880065918e-01" purity="4.8826897144317627e-01" nType="0">
          <Node pos="l" depth="2" NCoef="0" IVar="-1" Cut="0.0000000000000000e+00" cType="1" res="-1.1104345321655273e-03" rms="4.2252862453460693e-01" purity="2.8573018312454224e-01" nType="-99"/>
          <Node pos="r" depth="2" NCoef="0" IVar="-1" Cut="0.0000000000000000e+00" cType="1" res="1.0879614274017513e-04" rms="4.4993674755096436e-01" purity="5.2312827110290527e-01" nType="-99"/>
        </Node>
        <Node pos="r" depth="1" NCoef="0" IVar="0" Cut="1.8539330363273621e-01" cType="1" res="2.6085335761308670e-02" rms="4.4815227389335632e-01" purity="6.1305296421051025e-01" nType="0">
          <Node pos="l" depth="2" NCoef="0" IVar="-1" Cut="0.0000000000000000e+00" cType="1" res="1.0939352214336395e-03" rms="4.6641126275062561e-01" purity="5.3441458940505981e-01" nType="-99"/>
          <Node pos="r" depth="2" NCoef="0" IVar="-1" Cut="0.0000000000000000e+00" cType="1" res="1.4315486187115312e-03" rms="4.2767745256423950e-01" purity="6.9744187593460083e-01" nType="-99"/>
        </Node>
      </Node>
    </BinaryTree>
    <BinaryTree type="DecisionTree" boostWeight="1.0000000000000000e+00" itree="515">
      <Node pos="s" depth="0" NCoef="0" IVar="4" Cut="9.1512870788574219e-01" cType="1" res="-8.0113054718822241e-04" rms="4.4644033908843994e-01" purity="4.9827879667282104e-01" nType="0">
        <Node pos="l" depth="1" NCoef="0" IVar="8" Cut="1.6736727952957153e+00" cType="1" res="-4.8585138283669949e-03" rms="4.5186805725097656e-01" purity="4.5730608701705933e-01" nType="0">
          <Node pos="l" depth="2" NCoef="0" IVar="-1" Cut="0.0000000000000000e+00" cType="1" res="7.9244753578677773e-04" rms="4.5348984003067017e-01" purity="5.6547671556472778e-01" nType="-99"/>
          <Node pos="r" depth="2" NCoef="0" IVar="-1" Cut="0.0000000000000000e+00" cType="1" res="-4.2596715502440929e-04" rms="4.5147785544395447e-01" purity="4.3847495317459106e-01" nType="-99"/>
        </Node>
        <Node pos="r" depth="1" NCoef="0" IVar="2" Cut="9.8977029323577881e-01" cType="1" res="2.4388130754232407e-02" rms="4.1024652123451233e-01" purity="7.5264769792556763e-01" nType="0">
          <Node pos="l" depth="2" NCoef="0" IVar="-1" Cut="0.0000000000000000e+00" cType="1" res="6.3968013273552060e-04" rms="4.1786170005798340e-01" purity="7.3390698432922363e-01" nType="-99"/>
          <Node pos="r" depth="2" NCoef="0" IVar="-1" Cut="0.0000000000000000e+00" cType="1" res="2.2102082148194313e-03" rms="3.9976650476455688e-01" purity="7.7654504776000977e-01" nType="-99"/>
        </Node>
      </Node>
    </BinaryTree>
    <BinaryTree type="DecisionTree" boostWeight="1.0000000000000000e+00" itree="516">
      <Node pos="s" depth="0" NCoef="0" IVar="2" Cut="6.6333144903182983e-01" cType="1" res="2.2795437835156918e-03" rms="4.4778990745544434e-01" purity="5.0380921363830566e-01" nType="0">
        <Node pos="l" depth="1" NCoef="0" IVar="-1" Cut="0.0000000000000000e+00" cType="1" res="-1.2231800938025117e-03" rms="4.1621825098991394e-01" purity="2.7364718914031982e-01" nType="-99"/>
        <Node pos="r" depth="1" NCoef="0" IVar="0" Cut="1.1217531561851501e-01" cType="1" res="4.4041518121957779e-03" rms="4.5039281249046326e-01" purity="5.2400749921798706e-01" nType="0">
          <Node pos="l" depth="2" NCoef="0" IVar="-1" Cut="0.0000000000000000e+00" cType="1" res="-2.0158328698016703e-04" rms="4.5526525378227234e-01" purity="4.1565853357315063e-01" nType="-99"/>
          <Node pos="r" depth="2" NCoef="0" IVar="-1" Cut="0.0000000000000000e+00" cType="1" res="5.2461522864177823e-04" rms="4.4666886329650879e-01" purity="6.0375273227691650e-01" nType="-99"/>
        </Node>
      </Node>
    </BinaryTree>
    <BinaryTree type="DecisionTree" boostWeight="1.0000000000000000e+00" itree="517">
      <Node pos="s" depth="0" NCoef="0" IVar="0" Cut="4.1449841111898422e-02" cType="1" res="-1.2418032856658101e-03" rms="4.4695058465003967e-01" purity="4.9987292289733887e-01" nType="0">
        <Node pos="l" depth="1" NCoef="0" IVar="0" Cut="3.1342860311269760e-02" cType="1" res="-2.2918982431292534e-02" rms="4.3823137879371643e-01" purity="3.5167255997657776e-01" nType="0">
          <Node pos="l" depth="2" NCoef="0" IVar="-1" Cut="0.0000000000000000e+00" cType="1" res="-8.8854506611824036e-04" rms="4.3776443600654602e-01" purity="3.6062836647033691e-01" nType="-99"/>
          <Node pos="r" depth="2" NCoef="0" IVar="-1" Cut="0.0000000000000000e+00" cType="1" res="-1.4652450336143374e-03" rms="4.3863952159881592e-01" purity="3.4244969487190247e-01" nType="-99"/>
        </Node>
        <Node pos="r" depth="1" NCoef="0" IVar="2" Cut="9.6368503570556641e-01" cType="1" res="1.6350914957001805e-03" rms="4.4801616668701172e-01" purity="5.1954144239425659e-01" nType="0">
          <Node pos="l" depth="2" NCoef="0" IVar="-1" Cut="0.0000000000000000e+00" cType="1" res="-2.2598424402531236e-04" rms="4.5531934499740601e-01" purity="4.5992794632911682e-01" nType="-99"/>
          <Node pos="r" depth="2" NCoef="0" IVar="-1" Cut="0.0000000000000000e+00" cType="1" res="6.5868301317095757e-04" rms="4.3405836820602417e-01" purity="6.2894880771636963e-01" nType="-99"/>
        </Node>
      </Node>
    </BinaryTree>
    <BinaryTree type="DecisionTree" boostWeight="1.0000000000000000e+00" itree="518">
      <Node pos="s" depth="0" NCoef="0" IVar="0" Cut="4.0922075510025024e-01" cType="1" res="-1.3534293975681067e-03" rms="4.4565504789352417e-01" purity="4.9847006797790527e-01" nType="0">
        <Node pos="l" depth="1" NCoef="0" IVar="0" Cut="5.7610549032688141e-02" cType="1" res="-4.0095206350088120e-03" rms="4.4838440418243408e-01" purity="4.7734960913658142e-01" nType="0">
          <Node pos="l" depth="2" NCoef="0" IVar="-1" Cut="0.0000000000000000e+00" cType="1" res="-9.7708951216191053e-04" rms="4.3941536545753479e-01" purity="3.6202588677406311e-01" nType="-99"/>
          <Node pos="r" depth="2" NCoef="0" IVar="-1" Cut="0.0000000000000000e+00" cType="1" res="2.2095917302067392e-05" rms="4.5090478658676147e-01" purity="5.1144009828567505e-01" nType="-99"/>
        </Node>
        <Node pos="r" depth="1" NCoef="0" IVar="-1" Cut="0.0000000000000000e+00" cType="1" res="1.3483089860528708e-03" rms="4.1581007838249207e-01" purity="7.1401935815811157e-01" nType="-99"/>
      </Node>
    </BinaryTree>
    <BinaryTree type="DecisionTree" boostWeight="1.0000000000000000e+00" itree="519">
      <Node pos="s" depth="0" NCoef="0" IVar="5" Cut="6.7043353271484375e+02" cType="1" res="1.3559170765802264e-03" rms="4.4637215137481689e-01" purity="5.0173538923263550e-01" nType="0">
        <Node pos="l" depth="1" NCoef="0" IVar="7" Cut="1.2078684568405151e-01" cType="1" res="-6.7257150076329708e-03" rms="4.4301471114158630e-01" purity="4.4470819830894470e-01" nType="0">
          <Node pos="l" depth="2" NCoef="0" IVar="-1" Cut="0.0000000000000000e+00" cType="1" res="-8.9111109264194965e-04" rms="4.3669101595878601e-01" purity="3.9047026634216309e-01" nType="-99"/>
          <Node pos="r" depth="2" NCoef="0" IVar="-1" Cut="0.0000000000000000e+00" cType="1" res="4.8310420243069530e-04" rms="4.5227774977684021e-01" purity="5.2998328208923340e-01" nType="-99"/>
        </Node>
        <Node pos="r" depth="1" NCoef="0" IVar="4" Cut="6.1435359716415405e-01" cType="1" res="9.0604545548558235e-03" rms="4.4941428303718567e-01" purity="5.5610167980194092e-01" nType="0">
          <Node pos="l" depth="2" NCoef="0" IVar="-1" Cut="0.0000000000000000e+00" cType="1" res="-3.3747122506611049e-04" rms="4.5953360199928284e-01" purity="3.9606839418411255e-01" nType="-99"/>
          <Node pos="r" depth="2" NCoef="0" IVar="-1" Cut="0.0000000000000000e+00" cType="1" res="8.4746553329750896e-04" rms="4.4389340281486511e-01" purity="6.3839745521545410e-01" nType="-99"/>
        </Node>
      </Node>
    </BinaryTree>
    <BinaryTree type="DecisionTree" boostWeight="1.0000000000000000e+00" itree="520">
      <Node pos="s" depth="0" NCoef="0" IVar="6" Cut="9.8573356866836548e-01" cType="1" res="-1.9237704109400511e-03" rms="4.4738599658012390e-01" purity="4.9551734328269958e-01" nType="0">
        <Node pos="l" depth="1" NCoef="0" IVar="6" Cut="4.0430474281311035e-01" cType="1" res="4.8968531191349030e-03" rms="4.5054894685745239e-01" purity="5.8808207511901855e-01" nType="0">
          <Node pos="l" depth="2" NCoef="0" IVar="-1" Cut="0.0000000000000000e+00" cType="1" res="-4.3177086627110839e-04" rms="4.5189726352691650e-01" purity="5.9829515218734741e-01" nType="-99"/>
          <Node pos="r" depth="2" NCoef="0" IVar="-1" Cut="0.0000000000000000e+00" cType="1" res="4.1215668898075819e-04" rms="4.5012217760086060e-01" purity="5.8537900447845459e-01" nType="-99"/>
        </Node>
        <Node pos="r" depth="1" NCoef="0" IVar="3" Cut="1.0075695514678955e+00" cType="1" res="-9.6422545611858368e-03" rms="4.4365307688713074e-01" purity="3.9076751470565796e-01" nType="0">
          <Node pos="l" depth="2" NCoef="0" IVar="-1" Cut="0.0000000000000000e+00" cType="1" res="-8.8760728249326348e-04" rms="4.5228430628776550e-01" purity="4.4518458843231201e-01" nType="-99"/>
          <Node pos="r" depth="2" NCoef="0" IVar="-1" Cut="0.0000000000000000e+00" cType="1" res="-2.1122732141520828e-04" rms="4.3788015842437744e-01" purity="3.5551971197128296e-01" nType="-99"/>
        </Node>
      </Node>
    </BinaryTree>
    <BinaryTree type="DecisionTree" boostWeight="1.0000000000000000e+00" itree="521">
      <Node pos="s" depth="0" NCoef="0" IVar="3" Cut="2.6180539131164551e+00" cType="1" res="-2.5840483140200377e-03" rms="4.4849643111228943e-01" purity="4.9766269326210022e-01" nType="0">
        <Node pos="l" depth="1" NCoef="0" IVar="5" Cut="6.3579962158203125e+02" cType="1" res="-3.6301271757110953e-04" rms="4.5135167241096497e-01" purity="5.1408523321151733e-01" nType="0">
          <Node pos="l" depth="2" NCoef="0" IVar="-1" Cut="0.0000000000000000e+00" cType="1" res="-4.2963080340996385e-04" rms="4.4543477892875671e-01" purity="4.5137301087379456e-01" nType="-99"/>
          <Node pos="r" depth="2" NCoef="0" IVar="-1" Cut="0.0000000000000000e+00" cType="1" res="2.6341131888329983e-04" rms="4.5541515946388245e-01" purity="5.5859547853469849e-01" nType="-99"/>
        </Node>
        <Node pos="r" depth="1" NCoef="0" IVar="-1" Cut="0.0000000000000000e+00" cType="1" res="-1.7942953854799271e-03" rms="4.0833011269569397e-01" purity="2.8345763683319092e-01" nType="-99"/>
      </Node>
    </BinaryTree>
    <BinaryTree type="DecisionTree" boostWeight="1.0000000000000000e+00" itree="522">
      <Node pos="s" depth="0" NCoef="0" IVar="7" Cut="3.3559136092662811e-02" cType="1" res="5.4150725190993398e-05" rms="4.4759908318519592e-01" purity="4.9943846464157104e-01" nType="0">
        <Node pos="l" depth="1" NCoef="0" IVar="5" Cut="7.8529809570312500e+02" cType="1" res="-1.6465781256556511e-02" rms="4.4307565689086914e-01" purity="4.1883751749992371e-01" nType="0">
          <Node pos="l" depth="2" NCoef="0" IVar="-1" Cut="0.0000000000000000e+00" cType="1" res="-2.1270371507853270e-03" rms="4.2337861657142639e-01" purity="3.1955599784851074e-01" nType="-99"/>
          <Node pos="r" depth="2" NCoef="0" IVar="-1" Cut="0.0000000000000000e+00" cType="1" res="2.5060344341909513e-05" rms="4.5632255077362061e-01" purity="4.9210146069526672e-01" nType="-99"/>
        </Node>
        <Node pos="r" depth="1" NCoef="0" IVar="7" Cut="1.7566533386707306e-01" cType="1" res="3.2154668588191271e-03" rms="4.4839012622833252e-01" purity="5.1486253738403320e-01" nType="0">
          <Node pos="l" depth="2" NCoef="0" IVar="-1" Cut="0.0000000000000000e+00" cType="1" res="3.9349415601463988e-05" rms="4.4912773370742798e-01" purity="4.9974453449249268e-01" nType="-99"/>
          <Node pos="r" depth="2" NCoef="0" IVar="-1" Cut="0.0000000000000000e+00" cType="1" res="8.1687507918104529e-04" rms="4.4407227635383606e-01" purity="5.9807109832763672e-01" nType="-99"/>
        </Node>
      </Node>
    </BinaryTree>
    <BinaryTree type="DecisionTree" boostWeight="1.0000000000000000e+00" itree="523">
      <Node pos="s" depth="0" NCoef="0" IVar="8" Cut="1.9333803653717041e+00" cType="1" res="-9.7561051370576024e-04" rms="4.4671383500099182e-01" purity="4.9825876951217651e-01" nType="0">
        <Node pos="l" depth="1" NCoef="0" IVar="4" Cut="8.5499429702758789e-01" cType="1" res="1.2026337906718254e-02" rms="4.4500747323036194e-01" purity="5.8987218141555786e-01" nType="0">
          <Node pos="l" depth="2" NCoef="0" IVar="-1" Cut="0.0000000000000000e+00" cType="1" res="3.2744844793342054e-04" rms="4.6118110418319702e-01" purity="5.2207493782043457e-01" nType="-99"/>
          <Node pos="r" depth="2" NCoef="0" IVar="-1" Cut="0.0000000000000000e+00" cType="1" res="1.5635532326996326e-03" rms="3.9057829976081848e-01" purity="7.9883021116256714e-01" nType="-99"/>
        </Node>
        <Node pos="r" depth="1" NCoef="0" IVar="4" Cut="5.3018707036972046e-01" cType="1" res="-5.4868157021701336e-03" rms="4.4721606373786926e-01" purity="4.6647226810455322e-01" nType="0">
          <Node pos="l" depth="2" NCoef="0" IVar="-1" Cut="0.0000000000000000e+00" cType="1" res="-1.5359396347776055e-03" rms="4.1827157139778137e-01" purity="2.7255719900131226e-01" nType="-99"/>
          <Node pos="r" depth="2" NCoef="0" IVar="-1" Cut="0.0000000000000000e+00" cType="1" res="-1.1370152060408145e-04" rms="4.5112940669059753e-01" purity="4.9430575966835022e-01" nType="-99"/>
        </Node>
      </Node>
    </BinaryTree>
    <BinaryTree type="DecisionTree" boostWeight="1.0000000000000000e+00" itree="524">
      <Node pos="s" depth="0" NCoef="0" IVar="3" Cut="1.9473682641983032e+00" cType="1" res="3.6834464408457279e-03" rms="4.4422733783721924e-01" purity="5.0425368547439575e-01" nType="0">
        <Node pos="l" depth="1" NCoef="0" IVar="1" Cut="8.9944285154342651e-01" cType="1" res="7.9568764194846153e-03" rms="4.4747930765151978e-01" purity="5.3743487596511841e-01" nType="0">
          <Node pos="l" depth="2" NCoef="0" IVar="-1" Cut="0.0000000000000000e+00" cType="1" res="8.8390847668051720e-04" rms="4.3769368529319763e-01" purity="6.5602916479110718e-01" nType="-99"/>
          <Node pos="r" depth="2" NCoef="0" IVar="-1" Cut="0.0000000000000000e+00" cType="1" res="1.5981070464476943e-04" rms="4.5197603106498718e-01" purity="4.8113283514976501e-01" nType="-99"/>
        </Node>
        <Node pos="r" depth="1" NCoef="0" IVar="7" Cut="8.7777256965637207e-02" cType="1" res="-1.7196554690599442e-02" rms="4.2736899852752686e-01" purity="3.4213015437126160e-01" nType="0">
          <Node pos="l" depth="2" NCoef="0" IVar="-1" Cut="0.0000000000000000e+00" cType="1" res="-1.5314571792259812e-03" rms="4.2155188322067261e-01" purity="3.0309373140335083e-01" nType="-99"/>
          <Node pos="r" depth="2" NCoef="0" IVar="-1" Cut="0.0000000000000000e+00" cType="1" res="1.5674741007387638e-04" rms="4.3735536932945251e-01" purity="4.1538867354393005e-01" nType="-99"/>
        </Node>
      </Node>
    </BinaryTree>
    <BinaryTree type="DecisionTree" boostWeight="1.0000000000000000e+00" itree="525">
      <Node pos="s" depth="0" NCoef="0" IVar="4" Cut="9.5093142986297607e-01" cType="1" res="-1.7430013976991177e-03" rms="4.4573214650154114e-01" purity="4.9819624423980713e-01" nType="0">
        <Node pos="l" depth="1" NCoef="0" IVar="4" Cut="5.2673071622848511e-01" cType="1" res="-4.5581534504890442e-03" rms="4.4936791062355042e-01" purity="4.7380542755126953e-01" nType="0">
          <Node pos="l" depth="2" NCoef="0" IVar="-1" Cut="0.0000000000000000e+00" cType="1" res="-1.3226647861301899e-03" rms="4.2640417814254761e-01" purity="2.9682779312133789e-01" nType="-99"/>
          <Node pos="r" depth="2" NCoef="0" IVar="-1" Cut="0.0000000000000000e+00" cType="1" res="-8.6937965534161776e-05" rms="4.5238605141639709e-01" purity="4.9831107258796692e-01" nType="-99"/>
        </Node>
        <Node pos="r" depth="1" NCoef="0" IVar="-1" Cut="0.0000000000000000e+00" cType="1" res="1.6321883304044604e-03" rms="4.0188625454902649e-01" purity="7.6877003908157349e-01" nType="-99"/>
      </Node>
    </BinaryTree>
    <BinaryTree type="DecisionTree" boostWeight="1.0000000000000000e+00" itree="526">
      <Node pos="s" depth="0" NCoef="0" IVar="2" Cut="9.2772996425628662e-01" cType="1" res="5.4941698908805847e-04" rms="4.4733133912086487e-01" purity="5.0216060876846313e-01" nType="0">
        <Node pos="l" depth="1" NCoef="0" IVar="0" Cut="3.8091489672660828e-01" cType="1" res="-7.1657365188002586e-03" rms="4.4839805364608765e-01" purity="4.0918460488319397e-01" nType="0">
          <Node pos="l" depth="2" NCoef="0" IVar="-1" Cut="0.0000000000000000e+00" cType="1" res="-5.3516810294240713e-04" rms="4.4910132884979248e-01" purity="3.8073694705963135e-01" nType="-99"/>
          <Node pos="r" depth="2" NCoef="0" IVar="-1" Cut="0.0000000000000000e+00" cType="1" res="9.8742567934095860e-04" rms="4.4173705577850342e-01" purity="6.3660395145416260e-01" nType="-99"/>
        </Node>
        <Node pos="r" depth="1" NCoef="0" IVar="7" Cut="1.8890842795372009e-01" cType="1" res="8.1585254520177841e-03" rms="4.4614613056182861e-01" purity="5.9385865926742554e-01" nType="0">
          <Node pos="l" depth="2" NCoef="0" IVar="-1" Cut="0.0000000000000000e+00" cType="1" res="2.7706183027476072e-04" rms="4.4845968484878540e-01" purity="5.8125817775726318e-01" nType="-99"/>
          <Node pos="r" depth="2" NCoef="0" IVar="-1" Cut="0.0000000000000000e+00" cType="1" res="1.3714398955926299e-03" rms="4.2812725901603699e-01" purity="6.8733865022659302e-01" nType="-99"/>
        </Node>
      </Node>
    </BinaryTree>
    <BinaryTree type="DecisionTree" boostWeight="1.0000000000000000e+00" itree="527">
      <Node pos="s" depth="0" NCoef="0" IVar="4" Cut="9.5121562480926514e-01" cType="1" res="-1.2117088772356510e-03" rms="4.4440731406211853e-01" purity="4.9821791052818298e-01" nType="0">
        <Node pos="l" depth="1" NCoef="0" IVar="3" Cut="5.2082544565200806e-01" cType="1" res="-4.0228525176644325e-03" rms="4.4821536540985107e-01" purity="4.7326344251632690e-01" nType="0">
          <Node pos="l" depth="2" NCoef="0" IVar="-1" Cut="0.0000000000000000e+00" cType="1" res="4.7412453568540514e-04" rms="4.5100042223930359e-01" purity="5.6987690925598145e-01" nType="-99"/>
          <Node pos="r" depth="2" NCoef="0" IVar="-1" Cut="0.0000000000000000e+00" cType="1" res="-4.0150366839952767e-04" rms="4.4731354713439941e-01" purity="4.4492340087890625e-01" nType="-99"/>
        </Node>
        <Node pos="r" depth="1" NCoef="0" IVar="-1" Cut="0.0000000000000000e+00" cType="1" res="1.6334200045093894e-03" rms="3.9931988716125488e-01" purity="7.6998281478881836e-01" nType="-99"/>
      </Node>
    </BinaryTree>
    <BinaryTree type="DecisionTree" boostWeight="1.0000000000000000e+00" itree="528">
      <Node pos="s" depth="0" NCoef="0" IVar="8" Cut="1.6517961025238037e+00" cType="1" res="2.3657022393308580e-04" rms="4.4611293077468872e-01" purity="4.9841803312301636e-01" nType="0">
        <Node pos="l" depth="1" NCoef="0" IVar="1" Cut="1.1143447160720825e+00" cType="1" res="1.9447969272732735e-02" rms="4.4275915622711182e-01" purity="6.0775333642959595e-01" nType="0">
          <Node pos="l" depth="2" NCoef="0" IVar="-1" Cut="0.0000000000000000e+00" cType="1" res="1.6559613868594170e-03" rms="4.3364301323890686e-01" purity="6.7200237512588501e-01" nType="-99"/>
          <Node pos="r" depth="2" NCoef="0" IVar="-1" Cut="0.0000000000000000e+00" cType="1" res="-1.2149688700446859e-04" rms="4.5586821436882019e-01" purity="5.0665104389190674e-01" nType="-99"/>
        </Node>
        <Node pos="r" depth="1" NCoef="0" IVar="4" Cut="9.3917369842529297e-01" cType="1" res="-2.9475283809006214e-03" rms="4.4658651947975159e-01" purity="4.8029679059982300e-01" nType="0">
          <Node pos="l" depth="2" NCoef="0" IVar="-1" Cut="0.0000000000000000e+00" cType="1" res="-2.5939408806152642e-04" rms="4.4983282685279846e-01" purity="4.5125612616539001e-01" nType="-99"/>
          <Node pos="r" depth="2" NCoef="0" IVar="-1" Cut="0.0000000000000000e+00" cType="1" res="9.5562421483919024e-04" rms="4.1571024060249329e-01" purity="7.4124842882156372e-01" nType="-99"/>
        </Node>
      </Node>
    </BinaryTree>
    <BinaryTree type="DecisionTree" boostWeight="1.0000000000000000e+00" itree="529">
      <Node pos="s" depth="0" NCoef="0" IVar="3" Cut="5.2530872821807861e-01" cType="1" res="9.3832612037658691e-04" rms="4.4722983241081238e-01" purity="5.0104969739913940e-01" nType="0">
        <Node pos="l" depth="1" NCoef="0" IVar="4" Cut="8.0664926767349243e-01" cType="1" res="1.7945203930139542e-02" rms="4.4669228792190552e-01" purity="5.9618622064590454e-01" nType="0">
          <Node pos="l" depth="2" NCoef="0" IVar="-1" Cut="0.0000000000000000e+00" cType="1" res="1.1745670344680548e-03" rms="4.6012192964553833e-01" purity="5.2710318565368652e-01" nType="-99"/>
          <Node pos="r" depth="2" NCoef="0" IVar="-1" Cut="0.0000000000000000e+00" cType="1" res="5.2106130169704556e-05" rms="4.1449508070945740e-01" purity="7.5110203027725220e-01" nType="-99"/>
        </Node>
        <Node pos="r" depth="1" NCoef="0" IVar="0" Cut="2.8191316127777100e-01" cType="1" res="-4.3213325552642345e-03" rms="4.4726502895355225e-01" purity="4.7162714600563049e-01" nType="0">
          <Node pos="l" depth="2" NCoef="0" IVar="-1" Cut="0.0000000000000000e+00" cType="1" res="-4.7627303865738213e-04" rms="4.4929593801498413e-01" purity="4.1898018121719360e-01" nType="-99"/>
          <Node pos="r" depth="2" NCoef="0" IVar="-1" Cut="0.0000000000000000e+00" cType="1" res="6.2048272229731083e-04" rms="4.4020605087280273e-01" purity="6.4199006557464600e-01" nType="-99"/>
        </Node>
      </Node>
    </BinaryTree>
    <BinaryTree type="DecisionTree" boostWeight="1.0000000000000000e+00" itree="530">
      <Node pos="s" depth="0" NCoef="0" IVar="1" Cut="1.6296972036361694e+00" cType="1" res="-4.3646632693707943e-03" rms="4.4643720984458923e-01" purity="4.9398544430732727e-01" nType="0">
        <Node pos="l" depth="1" NCoef="0" IVar="4" Cut="5.3017485141754150e-01" cType="1" res="-1.9131500739604235e-03" rms="4.5057708024978638e-01" purity="5.1943343877792358e-01" nType="0">
          <Node pos="l" depth="2" NCoef="0" IVar="-1" Cut="0.0000000000000000e+00" cType="1" res="-1.1082699056714773e-03" rms="4.3534749746322632e-01" purity="3.1827589869499207e-01" nType="-99"/>
          <Node pos="r" depth="2" NCoef="0" IVar="-1" Cut="0.0000000000000000e+00" cType="1" res="3.0881816201144829e-05" rms="4.5247599482536316e-01" purity="5.4583591222763062e-01" nType="-99"/>
        </Node>
        <Node pos="r" depth="1" NCoef="0" IVar="-1" Cut="0.0000000000000000e+00" cType="1" res="-1.5742266550660133e-03" rms="4.0548861026763916e-01" purity="2.5882190465927124e-01" nType="-99"/>
      </Node>
    </BinaryTree>
    <BinaryTree type="DecisionTree" boostWeight="1.0000000000000000e+00" itree="531">
      <Node pos="s" depth="0" NCoef="0" IVar="0" Cut="3.6678570508956909e-01" cType="1" res="7.0854084333404899e-04" rms="4.4596984982490540e-01" purity="5.0204920768737793e-01" nType="0">
        <Node pos="l" depth="1" NCoef="0" IVar="2" Cut="9.7573685646057129e-01" cType="1" res="-2.9559026006609201e-03" rms="4.5026305317878723e-01" purity="4.6977517008781433e-01" nType="0">
          <Node pos="l" depth="2" NCoef="0" IVar="-1" Cut="0.0000000000000000e+00" cType="1" res="-4.2570420191623271e-04" rms="4.5068046450614929e-01" purity="4.2294120788574219e-01" nType="-99"/>
          <Node pos="r" depth="2" NCoef="0" IVar="-1" Cut="0.0000000000000000e+00" cType="1" res="5.7556503452360630e-04" rms="4.4883632659912109e-01" purity="5.9205484390258789e-01" nType="-99"/>
        </Node>
        <Node pos="r" depth="1" NCoef="0" IVar="0" Cut="4.4257017970085144e-01" cType="1" res="2.4111019447445869e-02" rms="4.1675260663032532e-01" purity="7.0816284418106079e-01" nType="0">
          <Node pos="l" depth="2" NCoef="0" IVar="-1" Cut="0.0000000000000000e+00" cType="1" res="8.2765624392777681e-04" rms="4.2421698570251465e-01" purity="6.9334697723388672e-01" nType="-99"/>
          <Node pos="r" depth="2" NCoef="0" IVar="-1" Cut="0.0000000000000000e+00" cType="1" res="1.9643786363303661e-03" rms="4.0394145250320435e-01" purity="7.3229163885116577e-01" nType="-99"/>
        </Node>
      </Node>
    </BinaryTree>
    <BinaryTree type="DecisionTree" boostWeight="1.0000000000000000e+00" itree="532">
      <Node pos="s" depth="0" NCoef="0" IVar="5" Cut="4.5354470825195312e+02" cType="1" res="-4.2522820876911283e-04" rms="4.4586101174354553e-01" purity="5.0044173002243042e-01" nType="0">
        <Node pos="l" depth="1" NCoef="0" IVar="-1" Cut="0.0000000000000000e+00" cType="1" res="-1.4790309360250831e-03" rms="4.1877010464668274e-01" purity="3.5028129816055298e-01" nType="-99"/>
        <Node pos="r" depth="1" NCoef="0" IVar="0" Cut="3.3848401904106140e-01" cType="1" res="1.9889238756150007e-03" rms="4.4808647036552429e-01" purity="5.1365715265274048e-01" nType="0">
          <Node pos="l" depth="2" NCoef="0" IVar="-1" Cut="0.0000000000000000e+00" cType="1" res="-7.0106740167830139e-05" rms="4.5283168554306030e-01" purity="4.7545391321182251e-01" nType="-99"/>
          <Node pos="r" depth="2" NCoef="0" IVar="-1" Cut="0.0000000000000000e+00" cType="1" res="9.4931019702926278e-04" rms="4.2434382438659668e-01" purity="6.9587618112564087e-01" nType="-99"/>
        </Node>
      </Node>
    </BinaryTree>
    <BinaryTree type="DecisionTree" boostWeight="1.0000000000000000e+00" itree="533">
      <Node pos="s" depth="0" NCoef="0" IVar="8" Cut="2.9287891387939453e+00" cType="1" res="2.1876473911106586e-03" rms="4.4781744480133057e-01" purity="5.0230002403259277e-01" nType="0">
        <Node pos="l" depth="1" NCoef="0" IVar="1" Cut="1.2673504352569580e+00" cType="1" res="3.7252621259540319e-03" rms="4.5140725374221802e-01" purity="5.1986432075500488e-01" nType="0">
          <Node pos="l" depth="2" NCoef="0" IVar="-1" Cut="0.0000000000000000e+00" cType="1" res="-8.5558094724547118e-05" rms="4.5084702968597412e-01" purity="5.7211273908615112e-01" nType="-99"/>
          <Node pos="r" depth="2" NCoef="0" IVar="-1" Cut="0.0000000000000000e+00" cType="1" res="7.5823353836312890e-04" rms="4.5235574245452881e-01" purity="4.1134461760520935e-01" nType="-99"/>
        </Node>
        <Node pos="r" depth="1" NCoef="0" IVar="-1" Cut="0.0000000000000000e+00" cType="1" res="-1.6020218608900905e-03" rms="3.7943279743194580e-01" purity="1.9855637848377228e-01" nType="-99"/>
      </Node>
    </BinaryTree>
    <BinaryTree type="DecisionTree" boostWeight="1.0000000000000000e+00" itree="534">
      <Node pos="s" depth="0" NCoef="0" IVar="3" Cut="6.6800749301910400e-01" cType="1" res="1.2227097759023309e-03" rms="4.4755238294601440e-01" purity="4.9947732686996460e-01" nType="0">
        <Node pos="l" depth="1" NCoef="0" IVar="1" Cut="9.2395055294036865e-01" cType="1" res="1.4136292971670628e-02" rms="4.4728612899780273e-01" purity="5.8774751424789429e-01" nType="0">
          <Node pos="l" depth="2" NCoef="0" IVar="-1" Cut="0.0000000000000000e+00" cType="1" res="1.1720125330612063e-03" rms="4.3772444128990173e-01" purity="6.7020392417907715e-01" nType="-99"/>
          <Node pos="r" depth="2" NCoef="0" IVar="-1" Cut="0.0000000000000000e+00" cType="1" res="2.7714335010387003e-04" rms="4.5556089282035828e-01" purity="5.1350992918014526e-01" nType="-99"/>
        </Node>
        <Node pos="r" depth="1" NCoef="0" IVar="5" Cut="1.1413266601562500e+03" cType="1" res="-4.8262304626405239e-03" rms="4.4754889607429504e-01" purity="4.5813015103340149e-01" nType="0">
          <Node pos="l" depth="2" NCoef="0" IVar="-1" Cut="0.0000000000000000e+00" cType="1" res="-3.6421968252398074e-04" rms="4.4620931148529053e-01" purity="4.4734522700309753e-01" nType="-99"/>
          <Node pos="r" depth="2" NCoef="0" IVar="-1" Cut="0.0000000000000000e+00" cType="1" res="1.0391768300905824e-03" rms="4.6127122640609741e-01" purity="5.7756346464157104e-01" nType="-99"/>
        </Node>
      </Node>
    </BinaryTree>
    <BinaryTree type="DecisionTree" boostWeight="1.0000000000000000e+00" itree="535">
      <Node pos="s" depth="0" NCoef="0" IVar="0" Cut="5.5592022836208344e-02" cType="1" res="-2.3372641298919916e-03" rms="4.4629240036010742e-01" purity="4.9809151887893677e-01" nType="0">
        <Node pos="l" depth="1" NCoef="0" IVar="5" Cut="6.5621789550781250e+02" cType="1" res="-2.1702846512198448e-02" rms="4.3618825078010559e-01" purity="3.5700994729995728e-01" nType="0">
          <Node pos="l" depth="2" NCoef="0" IVar="-1" Cut="0.0000000000000000e+00" cType="1" res="-1.6520136268809438e-03" rms="4.2296850681304932e-01" purity="3.1135800480842590e-01" nType="-99"/>
          <Node pos="r" depth="2" NCoef="0" IVar="-1" Cut="0.0000000000000000e+00" cType="1" res="-5.1356019685044885e-04" rms="4.5177355408668518e-01" purity="4.1353708505630493e-01" nType="-99"/>
        </Node>
        <Node pos="r" depth="1" NCoef="0" IVar="0" Cut="4.1055741906166077e-01" cType="1" res="2.2911035921424627e-03" rms="4.4854983687400818e-01" purity="5.3180998563766479e-01" nType="0">
          <Node pos="l" depth="2" NCoef="0" IVar="-1" Cut="0.0000000000000000e+00" cType="1" res="-2.8998385459999554e-05" rms="4.5176512002944946e-01" purity="5.0876033306121826e-01" nType="-99"/>
          <Node pos="r" depth="2" NCoef="0" IVar="-1" Cut="0.0000000000000000e+00" cType="1" res="1.3603784609586000e-03" rms="4.2080879211425781e-01" purity="7.1894168853759766e-01" nType="-99"/>
        </Node>
      </Node>
    </BinaryTree>
    <BinaryTree type="DecisionTree" boostWeight="1.0000000000000000e+00" itree="536">
      <Node pos="s" depth="0" NCoef="0" IVar="5" Cut="1.0812496337890625e+03" cType="1" res="6.7229085834696889e-04" rms="4.4651150703430176e-01" purity="5.0031381845474243e-01" nType="0">
        <Node pos="l" depth="1" NCoef="0" IVar="5" Cut="4.4216271972656250e+02" cType="1" res="-2.6171787176281214e-03" rms="4.4532102346420288e-01" purity="4.8643630743026733e-01" nType="0">
          <Node pos="l" depth="2" NCoef="0" IVar="-1" Cut="0.0000000000000000e+00" cType="1" res="-1.9860675092786551e-03" rms="4.1769775748252869e-01" purity="3.2971194386482239e-01" nType="-99"/>
          <Node pos="r" depth="2" NCoef="0" IVar="-1" Cut="0.0000000000000000e+00" cType="1" res="9.8545742730493657e-06" rms="4.4739609956741333e-01" purity="4.9930164217948914e-01" nType="-99"/>
        </Node>
        <Node pos="r" depth="1" NCoef="0" IVar="1" Cut="1.1038486957550049e+00" cType="1" res="2.6512179523706436e-02" rms="4.5492839813232422e-01" purity="6.0932612419128418e-01" nType="0">
          <Node pos="l" depth="2" NCoef="0" IVar="-1" Cut="0.0000000000000000e+00" cType="1" res="3.4259032690897584e-04" rms="4.5007133483886719e-01" purity="6.6533911228179932e-01" nType="-99"/>
          <Node pos="r" depth="2" NCoef="0" IVar="-1" Cut="0.0000000000000000e+00" cType="1" res="2.1352837793529034e-03" rms="4.5890635251998901e-01" purity="5.5314850807189941e-01" nType="-99"/>
        </Node>
      </Node>
    </BinaryTree>
    <BinaryTree type="DecisionTree" boostWeight="1.0000000000000000e+00" itree="537">
      <Node pos="s" depth="0" NCoef="0" IVar="0" Cut="4.2336440086364746e-01" cType="1" res="4.1817328892648220e-03" rms="4.4711777567863464e-01" purity="5.0258260965347290e-01" nType="0">
        <Node pos="l" depth="1" NCoef="0" IVar="5" Cut="5.1571765136718750e+02" cType="1" res="1.7214169492945075e-03" rms="4.4913330674171448e-01" purity="4.8515006899833679e-01" nType="0">
          <Node pos="l" depth="2" NCoef="0" IVar="-1" Cut="0.0000000000000000e+00" cType="1" res="-6.7935819970443845e-04" rms="4.3708217144012451e-01" purity="3.7722080945968628e-01" nType="-99"/>
          <Node pos="r" depth="2" NCoef="0" IVar="-1" Cut="0.0000000000000000e+00" cType="1" res="2.5095816818065941e-04" rms="4.5182469487190247e-01" purity="5.1028037071228027e-01" nType="-99"/>
        </Node>
        <Node pos="r" depth="1" NCoef="0" IVar="-1" Cut="0.0000000000000000e+00" cType="1" res="1.8590048421174288e-03" rms="4.1929268836975098e-01" purity="7.2497874498367310e-01" nType="-99"/>
      </Node>
    </BinaryTree>
    <BinaryTree type="DecisionTree" boostWeight="1.0000000000000000e+00" itree="538">
      <Node pos="s" depth="0" NCoef="0" IVar="5" Cut="8.1012280273437500e+02" cType="1" res="-2.2615821217186749e-04" rms="4.4595530629158020e-01" purity="4.9819239974021912e-01" nType="0">
        <Node pos="l" depth="1" NCoef="0" IVar="2" Cut="8.9195191860198975e-01" cType="1" res="-6.6537098027765751e-03" rms="4.4297662377357483e-01" purity="4.6451172232627869e-01" nType="0">
          <Node pos="l" depth="2" NCoef="0" IVar="-1" Cut="0.0000000000000000e+00" cType="1" res="-1.1470039607957006e-03" rms="4.3396374583244324e-01" purity="3.3281964063644409e-01" nType="-99"/>
          <Node pos="r" depth="2" NCoef="0" IVar="-1" Cut="0.0000000000000000e+00" cType="1" res="1.5294055629055947e-04" rms="4.4839903712272644e-01" purity="5.4911261796951294e-01" nType="-99"/>
        </Node>
        <Node pos="r" depth="1" NCoef="0" IVar="8" Cut="1.6474802494049072e+00" cType="1" res="1.4078913256525993e-02" rms="4.5218646526336670e-01" purity="5.7315152883529663e-01" nType="0">
          <Node pos="l" depth="2" NCoef="0" IVar="-1" Cut="0.0000000000000000e+00" cType="1" res="2.0103116985410452e-03" rms="4.3709683418273926e-01" purity="6.7727798223495483e-01" nType="-99"/>
          <Node pos="r" depth="2" NCoef="0" IVar="-1" Cut="0.0000000000000000e+00" cType="1" res="3.7690787576138973e-04" rms="4.5536363124847412e-01" purity="5.4914146661758423e-01" nType="-99"/>
        </Node>
      </Node>
    </BinaryTree>
    <BinaryTree type="DecisionTree" boostWeight="1.0000000000000000e+00" itree="539">
      <Node pos="s" depth="0" NCoef="0" IVar="4" Cut="9.6324503421783447e-01" cType="1" res="2.9836427420377731e-03" rms="4.4686293601989746e-01" purity="5.0221234560012817e-01" nType="0">
        <Node pos="l" depth="1" NCoef="0" IVar="8" Cut="2.0192198753356934e+00" cType="1" res="5.3852552082389593e-04" rms="4.5036268234252930e-01" purity="4.8301616311073303e-01" nType="0">
          <Node pos="l" depth="2" NCoef="0" IVar="-1" Cut="0.0000000000000000e+00" cType="1" res="6.2401517061516643e-04" rms="4.4978964328765869e-01" purity="5.6720107793807983e-01" nType="-99"/>
          <Node pos="r" depth="2" NCoef="0" IVar="-1" Cut="0.0000000000000000e+00" cType="1" res="-2.4594226852059364e-04" rms="4.5050376653671265e-01" purity="4.4625085592269897e-01" nType="-99"/>
        </Node>
        <Node pos="r" depth="1" NCoef="0" IVar="-1" Cut="0.0000000000000000e+00" cType="1" res="2.1939279977232218e-03" rms="3.8928383588790894e-01" purity="7.8789734840393066e-01" nType="-99"/>
      </Node>
    </BinaryTree>
    <BinaryTree type="DecisionTree" boostWeight="1.0000000000000000e+00" itree="540">
      <Node pos="s" depth="0" NCoef="0" IVar="8" Cut="1.7015538215637207e+00" cType="1" res="-2.5352492230013013e-04" rms="4.4825762510299683e-01" purity="5.0186967849731445e-01" nType="0">
        <Node pos="l" depth="1" NCoef="0" IVar="5" Cut="6.3976391601562500e+02" cType="1" res="2.3065840825438499e-02" rms="4.4326069951057434e-01" purity="6.1099916696548462e-01" nType="0">
          <Node pos="l" depth="2" NCoef="0" IVar="-1" Cut="0.0000000000000000e+00" cType="1" res="-2.4402017879765481e-04" rms="4.5560243725776672e-01" purity="5.1975172758102417e-01" nType="-99"/>
          <Node pos="r" depth="2" NCoef="0" IVar="-1" Cut="0.0000000000000000e+00" cType="1" res="1.8543869955465198e-03" rms="4.3577131628990173e-01" purity="6.5983772277832031e-01" nType="-99"/>
        </Node>
        <Node pos="r" depth="1" NCoef="0" IVar="1" Cut="6.9779384136199951e-01" cType="1" res="-4.5983460731804371e-03" rms="4.4904869794845581e-01" purity="4.8153689503669739e-01" nType="0">
          <Node pos="l" depth="2" NCoef="0" IVar="-1" Cut="0.0000000000000000e+00" cType="1" res="9.1618706937879324e-04" rms="4.3923309445381165e-01" purity="6.7132216691970825e-01" nType="-99"/>
          <Node pos="r" depth="2" NCoef="0" IVar="-1" Cut="0.0000000000000000e+00" cType="1" res="-3.6238387110643089e-04" rms="4.5011052489280701e-01" purity="4.5926818251609802e-01" nType="-99"/>
        </Node>
      </Node>
    </BinaryTree>
    <BinaryTree type="DecisionTree" boostWeight="1.0000000000000000e+00" itree="541">
      <Node pos="s" depth="0" NCoef="0" IVar="5" Cut="8.9659863281250000e+02" cType="1" res="1.6560256481170654e-03" rms="4.4667470455169678e-01" purity="5.0002998113632202e-01" nType="0">
        <Node pos="l" depth="1" NCoef="0" IVar="7" Cut="3.3674065023660660e-02" cType="1" res="-2.2719409316778183e-03" rms="4.4473484158515930e-01" purity="4.7514688968658447e-01" nType="0">
          <Node pos="l" depth="2" NCoef="0" IVar="-1" Cut="0.0000000000000000e+00" cType="1" res="-1.6839802265167236e-03" rms="4.3019938468933105e-01" purity="3.4096589684486389e-01" nType="-99"/>
          <Node pos="r" depth="2" NCoef="0" IVar="-1" Cut="0.0000000000000000e+00" cType="1" res="8.1258076534140855e-05" rms="4.4647338986396790e-01" purity="4.9287080764770508e-01" nType="-99"/>
        </Node>
        <Node pos="r" depth="1" NCoef="0" IVar="0" Cut="1.4977332949638367e-01" cType="1" res="1.5238102525472641e-02" rms="4.5305591821670532e-01" purity="5.8607059717178345e-01" nType="0">
          <Node pos="l" depth="2" NCoef="0" IVar="-1" Cut="0.0000000000000000e+00" cType="1" res="1.3752165250480175e-03" rms="4.6433964371681213e-01" purity="5.0798964500427246e-01" nType="-99"/>
          <Node pos="r" depth="2" NCoef="0" IVar="-1" Cut="0.0000000000000000e+00" cType="1" res="1.4251837274059653e-04" rms="4.4277000427246094e-01" purity="6.5306890010833740e-01" nType="-99"/>
        </Node>
      </Node>
    </BinaryTree>
    <BinaryTree type="DecisionTree" boostWeight="1.0000000000000000e+00" itree="542">
      <Node pos="s" depth="0" NCoef="0" IVar="5" Cut="1.1772191162109375e+03" cType="1" res="2.6773090939968824e-03" rms="4.4688770174980164e-01" purity="5.0375097990036011e-01" nType="0">
        <Node pos="l" depth="1" NCoef="0" IVar="7" Cut="3.3962465822696686e-02" cType="1" res="6.1677198391407728e-04" rms="4.4636312127113342e-01" purity="4.9368146061897278e-01" nType="0">
          <Node pos="l" depth="2" NCoef="0" IVar="-1" Cut="0.0000000000000000e+00" cType="1" res="-8.8908866746351123e-04" rms="4.4118756055831909e-01" purity="3.9971801638603210e-01" nType="-99"/>
          <Node pos="r" depth="2" NCoef="0" IVar="-1" Cut="0.0000000000000000e+00" cType="1" res="1.8036543042398989e-04" rms="4.4715040922164917e-01" purity="5.0937354564666748e-01" nType="-99"/>
        </Node>
        <Node pos="r" depth="1" NCoef="0" IVar="-1" Cut="0.0000000000000000e+00" cType="1" res="1.2562148040160537e-03" rms="4.5216125249862671e-01" purity="6.1853241920471191e-01" nType="-99"/>
      </Node>
    </BinaryTree>
    <BinaryTree type="DecisionTree" boostWeight="1.0000000000000000e+00" itree="543">
      <Node pos="s" depth="0" NCoef="0" IVar="4" Cut="5.1816064119338989e-01" cType="1" res="-2.3086012806743383e-03" rms="4.4555374979972839e-01" purity="4.9993866682052612e-01" nType="0">
        <Node pos="l" depth="1" NCoef="0" IVar="-1" Cut="0.0000000000000000e+00" cType="1" res="-1.8217070028185844e-03" rms="4.2154279351234436e-01" purity="2.8855806589126587e-01" nType="-99"/>
        <Node pos="r" depth="1" NCoef="0" IVar="5" Cut="5.6023254394531250e+02" cType="1" res="5.3475843742489815e-04" rms="4.4754415750503540e-01" purity="5.1897990703582764e-01" nType="0">
          <Node pos="l" depth="2" NCoef="0" IVar="-1" Cut="0.0000000000000000e+00" cType="1" res="-7.0421781856566668e-04" rms="4.3920588493347168e-01" purity="4.2580085992813110e-01" nType="-99"/>
          <Node pos="r" depth="2" NCoef="0" IVar="-1" Cut="0.0000000000000000e+00" cType="1" res="2.8559789643622935e-04" rms="4.5048072934150696e-01" purity="5.5353045463562012e-01" nType="-99"/>
        </Node>
      </Node>
    </BinaryTree>
    <BinaryTree type="DecisionTree" boostWeight="1.0000000000000000e+00" itree="544">
      <Node pos="s" depth="0" NCoef="0" IVar="7" Cut="7.4053220450878143e-02" cType="1" res="2.8687701560556889e-03" rms="4.4616186618804932e-01" purity="5.0429135560989380e-01" nType="0">
        <Node pos="l" depth="1" NCoef="0" IVar="0" Cut="6.9740250706672668e-02" cType="1" res="-5.8772847987711430e-03" rms="4.4451105594635010e-01" purity="4.4929775595664978e-01" nType="0">
          <Node pos="l" depth="2" NCoef="0" IVar="-1" Cut="0.0000000000000000e+00" cType="1" res="-1.1718976311385632e-03" rms="4.2565405368804932e-01" purity="3.1570035219192505e-01" nType="-99"/>
          <Node pos="r" depth="2" NCoef="0" IVar="-1" Cut="0.0000000000000000e+00" cType="1" res="-1.8169635950471275e-05" rms="4.5070001482963562e-01" purity="4.9536943435668945e-01" nType="-99"/>
        </Node>
        <Node pos="r" depth="1" NCoef="0" IVar="2" Cut="7.0215326547622681e-01" cType="1" res="1.0183098725974560e-02" rms="4.4740653038024902e-01" purity="5.5028247833251953e-01" nType="0">
          <Node pos="l" depth="2" NCoef="0" IVar="-1" Cut="0.0000000000000000e+00" cType="1" res="-1.1123255826532841e-03" rms="4.3011471629142761e-01" purity="3.1065785884857178e-01" nType="-99"/>
          <Node pos="r" depth="2" NCoef="0" IVar="-1" Cut="0.0000000000000000e+00" cType="1" res="6.7310454323887825e-04" rms="4.4921010732650757e-01" purity="5.7778793573379517e-01" nType="-99"/>
        </Node>
      </Node>
    </BinaryTree>
    <BinaryTree type="DecisionTree" boostWeight="1.0000000000000000e+00" itree="545">
      <Node pos="s" depth="0" NCoef="0" IVar="2" Cut="7.4828714132308960e-01" cType="1" res="-4.6826479956507683e-04" rms="4.4576975703239441e-01" purity="4.9980840086936951e-01" nType="0">
        <Node pos="l" depth="1" NCoef="0" IVar="8" Cut="2.3875384330749512e+00" cType="1" res="-1.5456373803317547e-02" rms="4.2988312244415283e-01" purity="3.0723604559898376e-01" nType="0">
          <Node pos="l" depth="2" NCoef="0" IVar="-1" Cut="0.0000000000000000e+00" cType="1" res="-1.1156962718814611e-03" rms="4.4689619541168213e-01" purity="3.4865939617156982e-01" nType="-99"/>
          <Node pos="r" depth="2" NCoef="0" IVar="-1" Cut="0.0000000000000000e+00" cType="1" res="-6.5514810557942837e-05" rms="3.9234212040901184e-01" purity="2.2238475084304810e-01" nType="-99"/>
        </Node>
        <Node pos="r" depth="1" NCoef="0" IVar="5" Cut="5.5933489990234375e+02" cType="1" res="2.3960580583661795e-03" rms="4.4868481159210205e-01" purity="5.3661018610000610e-01" nType="0">
          <Node pos="l" depth="2" NCoef="0" IVar="-1" Cut="0.0000000000000000e+00" cType="1" res="-4.7137125511653721e-04" rms="4.4353595376014709e-01" purity="4.4938689470291138e-01" nType="-99"/>
          <Node pos="r" depth="2" NCoef="0" IVar="-1" Cut="0.0000000000000000e+00" cType="1" res="3.3455289667472243e-04" rms="4.5052674412727356e-01" purity="5.6943595409393311e-01" nType="-99"/>
        </Node>
      </Node>
    </BinaryTree>
    <BinaryTree type="DecisionTree" boostWeight="1.0000000000000000e+00" itree="546">
      <Node pos="s" depth="0" NCoef="0" IVar="1" Cut="5.9722071886062622e-01" cType="1" res="8.1119040260091424e-04" rms="4.4673153758049011e-01" purity="4.9908772110939026e-01" nType="0">
        <Node pos="l" depth="1" NCoef="0" IVar="-1" Cut="0.0000000000000000e+00" cType="1" res="1.4835337642580271e-03" rms="4.1911762952804565e-01" purity="6.9983738660812378e-01" nType="-99"/>
        <Node pos="r" depth="1" NCoef="0" IVar="7" Cut="1.0513480752706528e-01" cType="1" res="-1.0253716027364135e-03" rms="4.4841948151588440e-01" purity="4.8594051599502563e-01" nType="0">
          <Node pos="l" depth="2" NCoef="0" IVar="-1" Cut="0.0000000000000000e+00" cType="1" res="-3.0964118195697665e-04" rms="4.4703003764152527e-01" purity="4.5124310255050659e-01" nType="-99"/>
          <Node pos="r" depth="2" NCoef="0" IVar="-1" Cut="0.0000000000000000e+00" cType="1" res="4.1305093327537179e-04" rms="4.5078542828559875e-01" purity="5.4910647869110107e-01" nType="-99"/>
        </Node>
      </Node>
    </BinaryTree>
    <BinaryTree type="DecisionTree" boostWeight="1.0000000000000000e+00" itree="547">
      <Node pos="s" depth="0" NCoef="0" IVar="8" Cut="2.9473514556884766e+00" cType="1" res="-2.1310374140739441e-03" rms="4.4708892703056335e-01" purity="4.9590271711349487e-01" nType="0">
        <Node pos="l" depth="1" NCoef="0" IVar="5" Cut="5.0492755126953125e+02" cType="1" res="2.3263054026756436e-04" rms="4.5136007666587830e-01" purity="5.1363408565521240e-01" nType="0">
          <Node pos="l" depth="2" NCoef="0" IVar="-1" Cut="0.0000000000000000e+00" cType="1" res="-8.1076490459963679e-04" rms="4.4054988026618958e-01" purity="3.9790049195289612e-01" nType="-99"/>
          <Node pos="r" depth="2" NCoef="0" IVar="-1" Cut="0.0000000000000000e+00" cType="1" res="1.6835564747452736e-04" rms="4.5343503355979919e-01" purity="5.3692048788070679e-01" nType="-99"/>
        </Node>
        <Node pos="r" depth="1" NCoef="0" IVar="-1" Cut="0.0000000000000000e+00" cType="1" res="-3.0547713395208120e-03" rms="3.5771632194519043e-01" purity="1.7260129749774933e-01" nType="-99"/>
      </Node>
    </BinaryTree>
    <BinaryTree type="DecisionTree" boostWeight="1.0000000000000000e+00" itree="548">
      <Node pos="s" depth="0" NCoef="0" IVar="0" Cut="4.1450209915637970e-02" cType="1" res="1.1855319608002901e-03" rms="4.4729253649711609e-01" purity="5.0195962190628052e-01" nType="0">
        <Node pos="l" depth="1" NCoef="0" IVar="0" Cut="3.1340733170509338e-02" cType="1" res="-2.0698176696896553e-02" rms="4.3451723456382751e-01" purity="3.5280469059944153e-01" nType="0">
          <Node pos="l" depth="2" NCoef="0" IVar="-1" Cut="0.0000000000000000e+00" cType="1" res="-1.6955290921032429e-03" rms="4.2570170760154724e-01" purity="3.3979737758636475e-01" nType="-99"/>
          <Node pos="r" depth="2" NCoef="0" IVar="-1" Cut="0.0000000000000000e+00" cType="1" res="-4.2506866157054901e-04" rms="4.4304814934730530e-01" purity="3.6616745591163635e-01" nType="-99"/>
        </Node>
        <Node pos="r" depth="1" NCoef="0" IVar="6" Cut="1.6704006195068359e+00" cType="1" res="4.0107858367264271e-03" rms="4.4883760809898376e-01" purity="5.2121603488922119e-01" nType="0">
          <Node pos="l" depth="2" NCoef="0" IVar="-1" Cut="0.0000000000000000e+00" cType="1" res="3.2995478250086308e-04" rms="4.5385771989822388e-01" purity="5.5871814489364624e-01" nType="-99"/>
          <Node pos="r" depth="2" NCoef="0" IVar="-1" Cut="0.0000000000000000e+00" cType="1" res="-9.3262683367356658e-04" rms="4.1090694069862366e-01" purity="2.5511527061462402e-01" nType="-99"/>
        </Node>
      </Node>
    </BinaryTree>
    <BinaryTree type="DecisionTree" boostWeight="1.0000000000000000e+00" itree="549">
      <Node pos="s" depth="0" NCoef="0" IVar="7" Cut="1.7818352580070496e-01" cType="1" res="-2.5119187775999308e-03" rms="4.4722405076026917e-01" purity="4.9884578585624695e-01" nType="0">
        <Node pos="l" depth="1" NCoef="0" IVar="2" Cut="6.6458469629287720e-01" cType="1" res="-5.4135546088218689e-03" rms="4.4736504554748535e-01" purity="4.8401594161987305e-01" nType="0">
          <Node pos="l" depth="2" NCoef="0" IVar="-1" Cut="0.0000000000000000e+00" cType="1" res="-1.6807287465780973e-03" rms="4.1125187277793884e-01" purity="2.5884914398193359e-01" nType="-99"/>
          <Node pos="r" depth="2" NCoef="0" IVar="-1" Cut="0.0000000000000000e+00" cType="1" res="-1.6247862367890775e-04" rms="4.5037755370140076e-01" purity="5.0405067205429077e-01" nType="-99"/>
        </Node>
        <Node pos="r" depth="1" NCoef="0" IVar="1" Cut="9.7311371564865112e-01" cType="1" res="1.7040273174643517e-02" rms="4.4578069448471069e-01" purity="5.9877425432205200e-01" nType="0">
          <Node pos="l" depth="2" NCoef="0" IVar="-1" Cut="0.0000000000000000e+00" cType="1" res="2.1028501214459538e-04" rms="4.4295126199722290e-01" purity="6.4128452539443970e-01" nType="-99"/>
          <Node pos="r" depth="2" NCoef="0" IVar="-1" Cut="0.0000000000000000e+00" cType="1" res="1.6371443634852767e-03" rms="4.4892528653144836e-01" purity="5.4266202449798584e-01" nType="-99"/>
        </Node>
      </Node>
    </BinaryTree>
    <BinaryTree type="DecisionTree" boostWeight="1.0000000000000000e+00" itree="550">
      <Node pos="s" depth="0" NCoef="0" IVar="7" Cut="8.9415460824966431e-02" cType="1" res="1.8125294009223580e-03" rms="4.4767037034034729e-01" purity="5.0145649909973145e-01" nType="0">
        <Node pos="l" depth="1" NCoef="0" IVar="5" Cut="1.0986192626953125e+03" cType="1" res="-4.6486421488225460e-03" rms="4.4612726569175720e-01" purity="4.5678573846817017e-01" nType="0">
          <Node pos="l" depth="2" NCoef="0" IVar="-1" Cut="0.0000000000000000e+00" cType="1" res="-4.6952569391578436e-04" rms="4.4451943039894104e-01" purity="4.3341910839080811e-01" nType="-99"/>
          <Node pos="r" depth="2" NCoef="0" IVar="-1" Cut="0.0000000000000000e+00" cType="1" res="1.0382378241047263e-03" rms="4.5428612828254700e-01" purity="5.9003561735153198e-01" nType="-99"/>
        </Node>
        <Node pos="r" depth="1" NCoef="0" IVar="1" Cut="1.0754560232162476e+00" cType="1" res="9.7341947257518768e-03" rms="4.4942829012870789e-01" purity="5.5622470378875732e-01" nType="0">
          <Node pos="l" depth="2" NCoef="0" IVar="-1" Cut="0.0000000000000000e+00" cType="1" res="9.4194147095549852e-05" rms="4.4637149572372437e-01" purity="6.1420619487762451e-01" nType="-99"/>
          <Node pos="r" depth="2" NCoef="0" IVar="-1" Cut="0.0000000000000000e+00" cType="1" res="1.0173998307436705e-03" rms="4.5345798134803772e-01" purity="4.7480154037475586e-01" nType="-99"/>
        </Node>
      </Node>
    </BinaryTree>
    <BinaryTree type="DecisionTree" boostWeight="1.0000000000000000e+00" itree="551">
      <Node pos="s" depth="0" NCoef="0" IVar="3" Cut="8.9141988754272461e-01" cType="1" res="1.4996752142906189e-03" rms="4.4623702764511108e-01" purity="5.0194638967514038e-01" nType="0">
        <Node pos="l" depth="1" NCoef="0" IVar="0" Cut="8.3877608180046082e-02" cType="1" res="1.0201763361692429e-02" rms="4.4825205206871033e-01" purity="5.7824903726577759e-01" nType="0">
          <Node pos="l" depth="2" NCoef="0" IVar="-1" Cut="0.0000000000000000e+00" cType="1" res="-1.3454759027808905e-04" rms="4.5966136455535889e-01" purity="4.4442594051361084e-01" nType="-99"/>
          <Node pos="r" depth="2" NCoef="0" IVar="-1" Cut="0.0000000000000000e+00" cType="1" res="7.9364702105522156e-04" rms="4.4292205572128296e-01" purity="6.3819319009780884e-01" nType="-99"/>
        </Node>
        <Node pos="r" depth="1" NCoef="0" IVar="7" Cut="9.9507398903369904e-02" cType="1" res="-5.5977879092097282e-03" rms="4.4446066021919250e-01" purity="4.3971365690231323e-01" nType="0">
          <Node pos="l" depth="2" NCoef="0" IVar="-1" Cut="0.0000000000000000e+00" cType="1" res="-6.3373206648975611e-04" rms="4.4029670953750610e-01" purity="4.0268501639366150e-01" nType="-99"/>
          <Node pos="r" depth="2" NCoef="0" IVar="-1" Cut="0.0000000000000000e+00" cType="1" res="3.3891023485921323e-04" rms="4.5175832509994507e-01" purity="5.0788694620132446e-01" nType="-99"/>
        </Node>
      </Node>
    </BinaryTree>
    <BinaryTree type="DecisionTree" boostWeight="1.0000000000000000e+00" itree="552">
      <Node pos="s" depth="0" NCoef="0" IVar="3" Cut="2.7702462673187256e+00" cType="1" res="3.4228208824060857e-04" rms="4.4499641656875610e-01" purity="5.0219124555587769e-01" nType="0">
        <Node pos="l" depth="1" NCoef="0" IVar="0" Cut="3.9507573843002319e-01" cType="1" res="2.3430113214999437e-03" rms="4.4697335362434387e-01" purity="5.1589530706405640e-01" nType="0">
          <Node pos="l" depth="2" NCoef="0" IVar="-1" Cut="0.0000000000000000e+00" cType="1" res="-2.4427119569736533e-05" rms="4.5070922374725342e-01" purity="4.9034875631332397e-01" nType="-99"/>
          <Node pos="r" depth="2" NCoef="0" IVar="-1" Cut="0.0000000000000000e+00" cType="1" res="1.3808460207656026e-03" rms="4.1370111703872681e-01" purity="7.2922849655151367e-01" nType="-99"/>
        </Node>
        <Node pos="r" depth="1" NCoef="0" IVar="-1" Cut="0.0000000000000000e+00" cType="1" res="-1.8781378166750073e-03" rms="4.0935316681861877e-01" purity="2.7462702989578247e-01" nType="-99"/>
      </Node>
    </BinaryTree>
    <BinaryTree type="DecisionTree" boostWeight="1.0000000000000000e+00" itree="553">
      <Node pos="s" depth="0" NCoef="0" IVar="3" Cut="2.3672652244567871e+00" cType="1" res="-4.2411073809489608e-04" rms="4.4648614525794983e-01" purity="4.9921491742134094e-01" nType="0">
        <Node pos="l" depth="1" NCoef="0" IVar="2" Cut="7.0038712024688721e-01" cType="1" res="2.1371820475906134e-03" rms="4.4974598288536072e-01" purity="5.2039849758148193e-01" nType="0">
          <Node pos="l" depth="2" NCoef="0" IVar="-1" Cut="0.0000000000000000e+00" cType="1" res="-7.7751162461936474e-04" rms="4.3609270453453064e-01" purity="3.0639681220054626e-01" nType="-99"/>
          <Node pos="r" depth="2" NCoef="0" IVar="-1" Cut="0.0000000000000000e+00" cType="1" res="2.0752585260197520e-04" rms="4.5140954852104187e-01" purity="5.4763054847717285e-01" nType="-99"/>
        </Node>
        <Node pos="r" depth="1" NCoef="0" IVar="-1" Cut="0.0000000000000000e+00" cType="1" res="-1.2997604208067060e-03" rms="4.1536080837249756e-01" purity="3.0897435545921326e-01" nType="-99"/>
      </Node>
    </BinaryTree>
    <BinaryTree type="DecisionTree" boostWeight="1.0000000000000000e+00" itree="554">
      <Node pos="s" depth="0" NCoef="0" IVar="8" Cut="1.6573820114135742e+00" cType="1" res="1.6222528647631407e-03" rms="4.4569456577301025e-01" purity="5.0237685441970825e-01" nType="0">
        <Node pos="l" depth="1" NCoef="0" IVar="5" Cut="7.1592364501953125e+02" cType="1" res="2.0227424800395966e-02" rms="4.4163179397583008e-01" purity="6.1812138557434082e-01" nType="0">
          <Node pos="l" depth="2" NCoef="0" IVar="-1" Cut="0.0000000000000000e+00" cType="1" res="1.1679017916321754e-04" rms="4.5351931452751160e-01" purity="5.5659580230712891e-01" nType="-99"/>
          <Node pos="r" depth="2" NCoef="0" IVar="-1" Cut="0.0000000000000000e+00" cType="1" res="1.7518076347187161e-03" rms="4.3052655458450317e-01" purity="6.7116755247116089e-01" nType="-99"/>
        </Node>
        <Node pos="r" depth="1" NCoef="0" IVar="0" Cut="9.8029777407646179e-02" cType="1" res="-1.4512381749227643e-03" rms="4.4628751277923584e-01" purity="4.8325634002685547e-01" nType="0">
          <Node pos="l" depth="2" NCoef="0" IVar="-1" Cut="0.0000000000000000e+00" cType="1" res="-5.7500955881550908e-04" rms="4.4019123911857605e-01" purity="3.6970683932304382e-01" nType="-99"/>
          <Node pos="r" depth="2" NCoef="0" IVar="-1" Cut="0.0000000000000000e+00" cType="1" res="2.2495716984849423e-04" rms="4.4990894198417664e-01" purity="5.5345809459686279e-01" nType="-99"/>
        </Node>
      </Node>
    </BinaryTree>
    <BinaryTree type="DecisionTree" boostWeight="1.0000000000000000e+00" itree="555">
      <Node pos="s" depth="0" NCoef="0" IVar="4" Cut="5.4221749305725098e-01" cType="1" res="4.9683036195347086e-05" rms="4.4728636741638184e-01" purity="5.0117826461791992e-01" nType="0">
        <Node pos="l" depth="1" NCoef="0" IVar="3" Cut="8.9437186717987061e-01" cType="1" res="-1.8932560458779335e-02" rms="4.2866954207420349e-01" purity="3.0210626125335693e-01" nType="0">
          <Node pos="l" depth="2" NCoef="0" IVar="-1" Cut="0.0000000000000000e+00" cType="1" res="-1.5386435552500188e-04" rms="4.5320490002632141e-01" purity="3.8015305995941162e-01" nType="-99"/>
          <Node pos="r" depth="2" NCoef="0" IVar="-1" Cut="0.0000000000000000e+00" cType="1" res="-1.7719387542456388e-03" rms="4.0942320227622986e-01" purity="2.4505966901779175e-01" nType="-99"/>
        </Node>
        <Node pos="r" depth="1" NCoef="0" IVar="4" Cut="7.2724151611328125e-01" cType="1" res="3.6162128672003746e-03" rms="4.5060920715332031e-01" purity="5.3858143091201782e-01" nType="0">
          <Node pos="l" depth="2" NCoef="0" IVar="-1" Cut="0.0000000000000000e+00" cType="1" res="5.2549416432157159e-04" rms="4.5748227834701538e-01" purity="4.3164023756980896e-01" nType="-99"/>
          <Node pos="r" depth="2" NCoef="0" IVar="-1" Cut="0.0000000000000000e+00" cType="1" res="-1.7537522944621742e-04" rms="4.4369184970855713e-01" purity="6.4281260967254639e-01" nType="-99"/>
        </Node>
      </Node>
    </BinaryTree>
    <BinaryTree type="DecisionTree" boostWeight="1.0000000000000000e+00" itree="556">
      <Node pos="s" depth="0" NCoef="0" IVar="7" Cut="2.2614970803260803e-02" cType="1" res="4.3648830614984035e-03" rms="4.4834470748901367e-01" purity="5.0436341762542725e-01" nType="0">
        <Node pos="l" depth="1" NCoef="0" IVar="-1" Cut="0.0000000000000000e+00" cType="1" res="-9.6667016623541713e-04" rms="4.4317075610160828e-01" purity="4.0481692552566528e-01" nType="-99"/>
        <Node pos="r" depth="1" NCoef="0" IVar="7" Cut="1.8083231151103973e-01" cType="1" res="6.3596325926482677e-03" rms="4.4872909784317017e-01" purity="5.1289325952529907e-01" nType="0">
          <Node pos="l" depth="2" NCoef="0" IVar="-1" Cut="0.0000000000000000e+00" cType="1" res="2.0707142539322376e-04" rms="4.4948104023933411e-01" purity="4.9903711676597595e-01" nType="-99"/>
          <Node pos="r" depth="2" NCoef="0" IVar="-1" Cut="0.0000000000000000e+00" cType="1" res="1.0418504243716598e-03" rms="4.4336655735969543e-01" purity="6.0596680641174316e-01" nType="-99"/>
        </Node>
      </Node>
    </BinaryTree>
    <BinaryTree type="DecisionTree" boostWeight="1.0000000000000000e+00" itree="557">
      <Node pos="s" depth="0" NCoef="0" IVar="0" Cut="4.2336246371269226e-01" cType="1" res="-4.5470177428796887e-04" rms="4.4565480947494507e-01" purity="5.0088655948638916e-01" nType="0">
        <Node pos="l" depth="1" NCoef="0" IVar="6" Cut="1.9710698127746582e+00" cType="1" res="-2.5767236948013306e-03" rms="4.4778838753700256e-01" purity="4.8356387019157410e-01" nType="0">
          <Node pos="l" depth="2" NCoef="0" IVar="-1" Cut="0.0000000000000000e+00" cType="1" res="-3.6078163248021156e-05" rms="4.5214104652404785e-01" purity="5.0256127119064331e-01" nType="-99"/>
          <Node pos="r" depth="2" NCoef="0" IVar="-1" Cut="0.0000000000000000e+00" cType="1" res="-2.2201165556907654e-03" rms="3.6924999952316284e-01" purity="1.7687563598155975e-01" nType="-99"/>
        </Node>
        <Node pos="r" depth="1" NCoef="0" IVar="-1" Cut="0.0000000000000000e+00" cType="1" res="1.4164411695674062e-03" rms="4.1662520170211792e-01" purity="7.2122043371200562e-01" nType="-99"/>
      </Node>
    </BinaryTree>
    <BinaryTree type="DecisionTree" boostWeight="1.0000000000000000e+00" itree="558">
      <Node pos="s" depth="0" NCoef="0" IVar="7" Cut="4.1453432291746140e-02" cType="1" res="-1.5032878145575523e-03" rms="4.4840767979621887e-01" purity="4.9793073534965515e-01" nType="0">
        <Node pos="l" depth="1" NCoef="0" IVar="5" Cut="9.2884179687500000e+02" cType="1" res="-2.0225957036018372e-02" rms="4.4269686937332153e-01" purity="4.1624614596366882e-01" nType="0">
          <Node pos="l" depth="2" NCoef="0" IVar="-1" Cut="0.0000000000000000e+00" cType="1" res="-1.6070329584181309e-03" rms="4.3474844098091125e-01" purity="3.5808560252189636e-01" nType="-99"/>
          <Node pos="r" depth="2" NCoef="0" IVar="-1" Cut="0.0000000000000000e+00" cType="1" res="-7.3090232035610825e-05" rms="4.5623418688774109e-01" purity="5.2224242687225342e-01" nType="-99"/>
        </Node>
        <Node pos="r" depth="1" NCoef="0" IVar="3" Cut="1.6788388490676880e+00" cType="1" res="3.6027960013598204e-03" rms="4.4981735944747925e-01" purity="5.2020788192749023e-01" nType="0">
          <Node pos="l" depth="2" NCoef="0" IVar="-1" Cut="0.0000000000000000e+00" cType="1" res="1.0228070550510893e-06" rms="4.5183348655700684e-01" purity="5.5033856630325317e-01" nType="-99"/>
          <Node pos="r" depth="2" NCoef="0" IVar="-1" Cut="0.0000000000000000e+00" cType="1" res="8.7724876357242465e-04" rms="4.4189622998237610e-01" purity="4.0693867206573486e-01" nType="-99"/>
        </Node>
      </Node>
    </BinaryTree>
    <BinaryTree type="DecisionTree" boostWeight="1.0000000000000000e+00" itree="559">
      <Node pos="s" depth="0" NCoef="0" IVar="4" Cut="9.1512918472290039e-01" cType="1" res="2.4678799672983587e-04" rms="4.4655948877334595e-01" purity="5.0056594610214233e-01" nType="0">
        <Node pos="l" depth="1" NCoef="0" IVar="5" Cut="1.2131103515625000e+03" cType="1" res="-2.9742908664047718e-03" rms="4.5223674178123474e-01" purity="4.6025133132934570e-01" nType="0">
          <Node pos="l" depth="2" NCoef="0" IVar="-1" Cut="0.0000000000000000e+00" cType="1" res="-2.5318225380033255e-04" rms="4.5150196552276611e-01" purity="4.5002636313438416e-01" nType="-99"/>
          <Node pos="r" depth="2" NCoef="0" IVar="-1" Cut="0.0000000000000000e+00" cType="1" res="1.1946026934310794e-03" rms="4.6077409386634827e-01" purity="5.9352844953536987e-01" nType="-99"/>
        </Node>
        <Node pos="r" depth="1" NCoef="0" IVar="2" Cut="9.8796308040618896e-01" cType="1" res="2.0124807953834534e-02" rms="4.0922641754150391e-01" purity="7.4935674667358398e-01" nType="0">
          <Node pos="l" depth="2" NCoef="0" IVar="-1" Cut="0.0000000000000000e+00" cType="1" res="6.0327106621116400e-04" rms="4.1828045248985291e-01" purity="7.2924166917800903e-01" nType="-99"/>
          <Node pos="r" depth="2" NCoef="0" IVar="-1" Cut="0.0000000000000000e+00" cType="1" res="1.6271070344373584e-03" rms="3.9936155080795288e-01" purity="7.7033549547195435e-01" nType="-99"/>
        </Node>
      </Node>
    </BinaryTree>
    <BinaryTree type="DecisionTree" boostWeight="1.0000000000000000e+00" itree="560">
      <Node pos="s" depth="0" NCoef="0" IVar="7" Cut="1.7547877132892609e-01" cType="1" res="2.4982190225273371e-03" rms="4.4726487994194031e-01" purity="5.0289690494537354e-01" nType="0">
        <Node pos="l" depth="1" NCoef="0" IVar="0" Cut="5.5592022836208344e-02" cType="1" res="-7.4032705742865801e-04" rms="4.4773837924003601e-01" purity="4.8629403114318848e-01" nType="0">
          <Node pos="l" depth="2" NCoef="0" IVar="-1" Cut="0.0000000000000000e+00" cType="1" res="-7.9162360634654760e-04" rms="4.3505379557609558e-01" purity="3.5090354084968567e-01" nType="-99"/>
          <Node pos="r" depth="2" NCoef="0" IVar="-1" Cut="0.0000000000000000e+00" cType="1" res="1.3745189062319696e-04" rms="4.5069772005081177e-01" purity="5.1920819282531738e-01" nType="-99"/>
        </Node>
        <Node pos="r" depth="1" NCoef="0" IVar="6" Cut="8.8811361789703369e-01" cType="1" res="2.3976700380444527e-02" rms="4.4351372122764587e-01" purity="6.1300921440124512e-01" nType="0">
          <Node pos="l" depth="2" NCoef="0" IVar="-1" Cut="0.0000000000000000e+00" cType="1" res="4.9502681940793991e-04" rms="4.3807888031005859e-01" purity="6.4968520402908325e-01" nType="-99"/>
          <Node pos="r" depth="2" NCoef="0" IVar="-1" Cut="0.0000000000000000e+00" cType="1" res="2.1041759755462408e-03" rms="4.5021560788154602e-01" purity="5.6201028823852539e-01" nType="-99"/>
        </Node>
      </Node>
    </BinaryTree>
    <BinaryTree type="DecisionTree" boostWeight="1.0000000000000000e+00" itree="561">
      <Node pos="s" depth="0" NCoef="0" IVar="4" Cut="8.9097064733505249e-01" cType="1" res="-5.2708951989188790e-04" rms="4.4660079479217529e-01" purity="4.9985721707344055e-01" nType="0">
        <Node pos="l" depth="1" NCoef="0" IVar="3" Cut="8.7467670440673828e-01" cType="1" res="-4.4653490185737610e-03" rms="4.5281252264976501e-01" purity="4.4922775030136108e-01" nType="0">
          <Node pos="l" depth="2" NCoef="0" IVar="-1" Cut="0.0000000000000000e+00" cType="1" res="2.9901752714067698e-04" rms="4.5851320028305054e-01" purity="5.2910238504409790e-01" nType="-99"/>
          <Node pos="r" depth="2" NCoef="0" IVar="-1" Cut="0.0000000000000000e+00" cType="1" res="-6.5224629361182451e-04" rms="4.4812816381454468e-01" purity="3.8683363795280457e-01" nType="-99"/>
        </Node>
        <Node pos="r" depth="1" NCoef="0" IVar="0" Cut="1.0095925629138947e-01" cType="1" res="1.8381128087639809e-02" rms="4.1496571898460388e-01" purity="7.4293780326843262e-01" nType="0">
          <Node pos="l" depth="2" NCoef="0" IVar="-1" Cut="0.0000000000000000e+00" cType="1" res="1.4777043834328651e-03" rms="4.3548759818077087e-01" purity="6.8966263532638550e-01" nType="-99"/>
          <Node pos="r" depth="2" NCoef="0" IVar="-1" Cut="0.0000000000000000e+00" cType="1" res="6.8907713284716010e-04" rms="4.0382567048072815e-01" purity="7.7038878202438354e-01" nType="-99"/>
        </Node>
      </Node>
    </BinaryTree>
    <BinaryTree type="DecisionTree" boostWeight="1.0000000000000000e+00" itree="562">
      <Node pos="s" depth="0" NCoef="0" IVar="5" Cut="6.7043353271484375e+02" cType="1" res="-7.5165269663557410e-04" rms="4.4508504867553711e-01" purity="4.9953648447990417e-01" nType="0">
        <Node pos="l" depth="1" NCoef="0" IVar="0" Cut="1.1217476427555084e-01" cType="1" res="-8.7698753923177719e-03" rms="4.3891394138336182e-01" purity="4.4023719429969788e-01" nType="0">
          <Node pos="l" depth="2" NCoef="0" IVar="-1" Cut="0.0000000000000000e+00" cType="1" res="-1.3091203290969133e-03" rms="4.2934253811836243e-01" purity="3.3157712221145630e-01" nType="-99"/>
          <Node pos="r" depth="2" NCoef="0" IVar="-1" Cut="0.0000000000000000e+00" cType="1" res="2.4993901024572551e-04" rms="4.4664403796195984e-01" purity="5.3513699769973755e-01" nType="-99"/>
        </Node>
        <Node pos="r" depth="1" NCoef="0" IVar="3" Cut="4.8659503459930420e-01" cType="1" res="6.8859546445310116e-03" rms="4.5075204968452454e-01" purity="5.5602097511291504e-01" nType="0">
          <Node pos="l" depth="2" NCoef="0" IVar="-1" Cut="0.0000000000000000e+00" cType="1" res="-6.3425611006096005e-04" rms="4.4499817490577698e-01" purity="6.1401456594467163e-01" nType="-99"/>
          <Node pos="r" depth="2" NCoef="0" IVar="-1" Cut="0.0000000000000000e+00" cType="1" res="6.1230885330587626e-04" rms="4.5226201415061951e-01" purity="5.3903841972351074e-01" nType="-99"/>
        </Node>
      </Node>
    </BinaryTree>
    <BinaryTree type="DecisionTree" boostWeight="1.0000000000000000e+00" itree="563">
      <Node pos="s" depth="0" NCoef="0" IVar="8" Cut="1.6949287652969360e+00" cType="1" res="-1.3981276424601674e-03" rms="4.4724169373512268e-01" purity="4.9982345104217529e-01" nType="0">
        <Node pos="l" depth="1" NCoef="0" IVar="7" Cut="8.2412742078304291e-02" cType="1" res="1.3782816007733345e-02" rms="4.4564279913902283e-01" purity="6.0522931814193726e-01" nType="0">
          <Node pos="l" depth="2" NCoef="0" IVar="-1" Cut="0.0000000000000000e+00" cType="1" res="1.0797728318721056e-03" rms="4.4800537824630737e-01" purity="5.8742123842239380e-01" nType="-99"/>
          <Node pos="r" depth="2" NCoef="0" IVar="-1" Cut="0.0000000000000000e+00" cType="1" res="2.6210813666693866e-04" rms="4.4312924146652222e-01" purity="6.2285149097442627e-01" nType="-99"/>
        </Node>
        <Node pos="r" depth="1" NCoef="0" IVar="0" Cut="4.0921026468276978e-01" cType="1" res="-4.2090779170393944e-03" rms="4.4748061895370483e-01" purity="4.8030611872673035e-01" nType="0">
          <Node pos="l" depth="2" NCoef="0" IVar="-1" Cut="0.0000000000000000e+00" cType="1" res="-3.2885291147977114e-04" rms="4.4951543211936951e-01" purity="4.5933279395103455e-01" nType="-99"/>
          <Node pos="r" depth="2" NCoef="0" IVar="-1" Cut="0.0000000000000000e+00" cType="1" res="1.0621643159538507e-03" rms="4.2518022656440735e-01" purity="6.9616192579269409e-01" nType="-99"/>
        </Node>
      </Node>
    </BinaryTree>
    <BinaryTree type="DecisionTree" boostWeight="1.0000000000000000e+00" itree="564">
      <Node pos="s" depth="0" NCoef="0" IVar="0" Cut="4.1449841111898422e-02" cType="1" res="3.0531128868460655e-04" rms="4.4647082686424255e-01" purity="5.0179225206375122e-01" nType="0">
        <Node pos="l" depth="1" NCoef="0" IVar="2" Cut="9.1627079248428345e-01" cType="1" res="-1.8157618120312691e-02" rms="4.3187364935874939e-01" purity="3.5550519824028015e-01" nType="0">
          <Node pos="l" depth="2" NCoef="0" IVar="-1" Cut="0.0000000000000000e+00" cType="1" res="-1.7009526491165161e-03" rms="4.0845245122909546e-01" purity="2.4820439517498016e-01" nType="-99"/>
          <Node pos="r" depth="2" NCoef="0" IVar="-1" Cut="0.0000000000000000e+00" cType="1" res="-3.6601934698410332e-04" rms="4.5209804177284241e-01" purity="4.5422688126564026e-01" nType="-99"/>
        </Node>
        <Node pos="r" depth="1" NCoef="0" IVar="7" Cut="6.6915683448314667e-02" cType="1" res="2.6624442543834448e-03" rms="4.4824546575546265e-01" purity="5.2046853303909302e-01" nType="0">
          <Node pos="l" depth="2" NCoef="0" IVar="-1" Cut="0.0000000000000000e+00" cType="1" res="-2.5422059115953743e-04" rms="4.4857192039489746e-01" purity="4.6136301755905151e-01" nType="-99"/>
          <Node pos="r" depth="2" NCoef="0" IVar="-1" Cut="0.0000000000000000e+00" cType="1" res="3.9867911254987121e-04" rms="4.4793736934661865e-01" purity="5.6179177761077881e-01" nType="-99"/>
        </Node>
      </Node>
    </BinaryTree>
    <BinaryTree type="DecisionTree" boostWeight="1.0000000000000000e+00" itree="565">
      <Node pos="s" depth="0" NCoef="0" IVar="0" Cut="2.9606059193611145e-01" cType="1" res="1.3853533891960979e-03" rms="4.4553345441818237e-01" purity="5.0146359205245972e-01" nType="0">
        <Node pos="l" depth="1" NCoef="0" IVar="3" Cut="1.2481364011764526e+00" cType="1" res="-2.5469721294939518e-03" rms="4.4883847236633301e-01" purity="4.5204880833625793e-01" nType="0">
          <Node pos="l" depth="2" NCoef="0" IVar="-1" Cut="0.0000000000000000e+00" cType="1" res="1.9389772205613554e-04" rms="4.5735502243041992e-01" purity="5.0920784473419189e-01" nType="-99"/>
          <Node pos="r" depth="2" NCoef="0" IVar="-1" Cut="0.0000000000000000e+00" cType="1" res="-6.8076286697760224e-04" rms="4.3477883934974670e-01" purity="3.6136582493782043e-01" nType="-99"/>
        </Node>
        <Node pos="r" depth="1" NCoef="0" IVar="1" Cut="1.2232741117477417e+00" cType="1" res="1.5084790065884590e-02" rms="4.3354436755180359e-01" purity="6.7361485958099365e-01" nType="0">
          <Node pos="l" depth="2" NCoef="0" IVar="-1" Cut="0.0000000000000000e+00" cType="1" res="4.0103518404066563e-04" rms="4.1604894399642944e-01" purity="7.4334919452667236e-01" nType="-99"/>
          <Node pos="r" depth="2" NCoef="0" IVar="-1" Cut="0.0000000000000000e+00" cType="1" res="1.2908806093037128e-03" rms="4.6142122149467468e-01" purity="5.5527502298355103e-01" nType="-99"/>
        </Node>
      </Node>
    </BinaryTree>
    <BinaryTree type="DecisionTree" boostWeight="1.0000000000000000e+00" itree="566">
      <Node pos="s" depth="0" NCoef="0" IVar="5" Cut="4.4961322021484375e+02" cType="1" res="1.6329525969922543e-03" rms="4.4681033492088318e-01" purity="5.0238692760467529e-01" nType="0">
        <Node pos="l" depth="1" NCoef="0" IVar="-1" Cut="0.0000000000000000e+00" cType="1" res="-1.4022772666066885e-03" rms="4.1814878582954407e-01" purity="3.4921598434448242e-01" nType="-99"/>
        <Node pos="r" depth="1" NCoef="0" IVar="7" Cut="2.2186096012592316e-01" cType="1" res="3.9882124401628971e-03" rms="4.4907864928245544e-01" purity="5.1538068056106567e-01" nType="0">
          <Node pos="l" depth="2" NCoef="0" IVar="-1" Cut="0.0000000000000000e+00" cType="1" res="1.0904730152105913e-04" rms="4.4952902197837830e-01" purity="5.0791239738464355e-01" nType="-99"/>
          <Node pos="r" depth="2" NCoef="0" IVar="-1" Cut="0.0000000000000000e+00" cType="1" res="1.7339315963909030e-03" rms="4.4008919596672058e-01" purity="6.4426863193511963e-01" nType="-99"/>
        </Node>
      </Node>
    </BinaryTree>
    <BinaryTree type="DecisionTree" boostWeight="1.0000000000000000e+00" itree="567">
      <Node pos="s" depth="0" NCoef="0" IVar="8" Cut="1.8439444303512573e+00" cType="1" res="-3.6692075082100928e-04" rms="4.4736647605895996e-01" purity="4.9971175193786621e-01" nType="0">
        <Node pos="l" depth="1" NCoef="0" IVar="0" Cut="1.0112955421209335e-01" cType="1" res="1.4273949898779392e-02" rms="4.4058862328529358e-01" purity="5.9825474023818970e-01" nType="0">
          <Node pos="l" depth="2" NCoef="0" IVar="-1" Cut="0.0000000000000000e+00" cType="1" res="-4.5763747766613960e-04" rms="4.5557302236557007e-01" purity="4.6301192045211792e-01" nType="-99"/>
          <Node pos="r" depth="2" NCoef="0" IVar="-1" Cut="0.0000000000000000e+00" cType="1" res="1.4109628973528743e-03" rms="4.3103855848312378e-01" purity="6.7675852775573730e-01" nType="-99"/>
        </Node>
        <Node pos="r" depth="1" NCoef="0" IVar="1" Cut="1.2349296808242798e+00" cType="1" res="-4.4111544266343117e-03" rms="4.4913658499717712e-01" purity="4.7249129414558411e-01" nType="0">
          <Node pos="l" depth="2" NCoef="0" IVar="-1" Cut="0.0000000000000000e+00" cType="1" res="-5.7386094704270363e-04" rms="4.5602670311927795e-01" purity="5.4713928699493408e-01" nType="-99"/>
          <Node pos="r" depth="2" NCoef="0" IVar="-1" Cut="0.0000000000000000e+00" cType="1" res="3.1818935531191528e-04" rms="4.3898355960845947e-01" purity="3.6681059002876282e-01" nType="-99"/>
        </Node>
      </Node>
    </BinaryTree>
    <BinaryTree type="DecisionTree" boostWeight="1.0000000000000000e+00" itree="568">
      <Node pos="s" depth="0" NCoef="0" IVar="3" Cut="2.7978830337524414e+00" cType="1" res="3.6452631466090679e-03" rms="4.4680991768836975e-01" purity="5.0443005561828613e-01" nType="0">
        <Node pos="l" depth="1" NCoef="0" IVar="4" Cut="9.6333265304565430e-01" cType="1" res="5.3334347903728485e-03" rms="4.4883254170417786e-01" purity="5.1766473054885864e-01" nType="0">
          <Node pos="l" depth="2" NCoef="0" IVar="-1" Cut="0.0000000000000000e+00" cType="1" res="1.6747691552154720e-04" rms="4.5191445946693420e-01" purity="4.9941441416740417e-01" nType="-99"/>
          <Node pos="r" depth="2" NCoef="0" IVar="-1" Cut="0.0000000000000000e+00" cType="1" res="1.8902290612459183e-03" rms="3.9948087930679321e-01" purity="7.8733527660369873e-01" nType="-99"/>
        </Node>
        <Node pos="r" depth="1" NCoef="0" IVar="-1" Cut="0.0000000000000000e+00" cType="1" res="-1.4880144735798240e-03" rms="4.0903696417808533e-01" purity="2.7487605810165405e-01" nType="-99"/>
      </Node>
    </BinaryTree>
    <BinaryTree type="DecisionTree" boostWeight="1.0000000000000000e+00" itree="569">
      <Node pos="s" depth="0" NCoef="0" IVar="1" Cut="5.9567737579345703e-01" cType="1" res="-2.7538818540051579e-04" rms="4.4746565818786621e-01" purity="4.9888688325881958e-01" nType="0">
        <Node pos="l" depth="1" NCoef="0" IVar="-1" Cut="0.0000000000000000e+00" cType="1" res="1.3044727966189384e-03" rms="4.2711144685745239e-01" purity="6.9388014078140259e-01" nType="-99"/>
        <Node pos="r" depth="1" NCoef="0" IVar="0" Cut="3.6677330732345581e-01" cType="1" res="-1.8970217788591981e-03" rms="4.4867292046546936e-01" purity="4.8655182123184204e-01" nType="0">
          <Node pos="l" depth="2" NCoef="0" IVar="-1" Cut="0.0000000000000000e+00" cType="1" res="-2.2393808467313647e-04" rms="4.5180881023406982e-01" purity="4.5560702681541443e-01" nType="-99"/>
          <Node pos="r" depth="2" NCoef="0" IVar="-1" Cut="0.0000000000000000e+00" cType="1" res="7.9916458344087005e-04" rms="4.2701086401939392e-01" purity="6.9062900543212891e-01" nType="-99"/>
        </Node>
      </Node>
    </BinaryTree>
    <BinaryTree type="DecisionTree" boostWeight="1.0000000000000000e+00" itree="570">
      <Node pos="s" depth="0" NCoef="0" IVar="5" Cut="4.5667633056640625e+02" cType="1" res="1.7423357348889112e-03" rms="4.4559505581855774e-01" purity="5.0224882364273071e-01" nType="0">
        <Node pos="l" depth="1" NCoef="0" IVar="-1" Cut="0.0000000000000000e+00" cType="1" res="-1.5555206919088960e-03" rms="4.2081326246261597e-01" purity="3.4080660343170166e-01" nType="-99"/>
        <Node pos="r" depth="1" NCoef="0" IVar="8" Cut="2.6906616687774658e+00" cType="1" res="4.6303714625537395e-03" rms="4.4774791598320007e-01" purity="5.1743900775909424e-01" nType="0">
          <Node pos="l" depth="2" NCoef="0" IVar="-1" Cut="0.0000000000000000e+00" cType="1" res="3.7357129622250795e-04" rms="4.5249807834625244e-01" purity="5.5160593986511230e-01" nType="-99"/>
          <Node pos="r" depth="2" NCoef="0" IVar="-1" Cut="0.0000000000000000e+00" cType="1" res="-1.0363673791289330e-03" rms="4.0999317169189453e-01" purity="2.6332646608352661e-01" nType="-99"/>
        </Node>
      </Node>
    </BinaryTree>
    <BinaryTree type="DecisionTree" boostWeight="1.0000000000000000e+00" itree="571">
      <Node pos="s" depth="0" NCoef="0" IVar="0" Cut="4.1447293013334274e-02" cType="1" res="-8.4456446347758174e-04" rms="4.4560560584068298e-01" purity="4.9779954552650452e-01" nType="0">
        <Node pos="l" depth="1" NCoef="0" IVar="8" Cut="2.2375230789184570e+00" cType="1" res="-2.0847929641604424e-02" rms="4.3564319610595703e-01" purity="3.4911206364631653e-01" nType="0">
          <Node pos="l" depth="2" NCoef="0" IVar="-1" Cut="0.0000000000000000e+00" cType="1" res="-1.4086746377870440e-03" rms="4.5226189494132996e-01" purity="4.0668696165084839e-01" nType="-99"/>
          <Node pos="r" depth="2" NCoef="0" IVar="-1" Cut="0.0000000000000000e+00" cType="1" res="-6.8248418392613530e-04" rms="4.1729041934013367e-01" purity="2.8861680626869202e-01" nType="-99"/>
        </Node>
        <Node pos="r" depth="1" NCoef="0" IVar="4" Cut="5.3017812967300415e-01" cType="1" res="1.7862332751974463e-03" rms="4.4683271646499634e-01" purity="5.1735460758209229e-01" nType="0">
          <Node pos="l" depth="2" NCoef="0" IVar="-1" Cut="0.0000000000000000e+00" cType="1" res="-8.5455534281209111e-04" rms="4.3087410926818848e-01" purity="3.1355240941047668e-01" nType="-99"/>
          <Node pos="r" depth="2" NCoef="0" IVar="-1" Cut="0.0000000000000000e+00" cType="1" res="2.0688719814643264e-04" rms="4.4888159632682800e-01" purity="5.4477119445800781e-01" nType="-99"/>
        </Node>
      </Node>
    </BinaryTree>
    <BinaryTree type="DecisionTree" boostWeight="1.0000000000000000e+00" itree="572">
      <Node pos="s" depth="0" NCoef="0" IVar="2" Cut="6.7562025785446167e-01" cType="1" res="3.8048389833420515e-03" rms="4.4608339667320251e-01" purity="5.0431948900222778e-01" nType="0">
        <Node pos="l" depth="1" NCoef="0" IVar="-1" Cut="0.0000000000000000e+00" cType="1" res="-1.0302471928298473e-03" rms="4.1951599717140198e-01" purity="2.7523064613342285e-01" nType="-99"/>
        <Node pos="r" depth="1" NCoef="0" IVar="0" Cut="3.1019058823585510e-01" cType="1" res="5.9733283706009388e-03" rms="4.4854617118835449e-01" purity="5.2679240703582764e-01" nType="0">
          <Node pos="l" depth="2" NCoef="0" IVar="-1" Cut="0.0000000000000000e+00" cType="1" res="1.3816115097142756e-04" rms="4.5432618260383606e-01" purity="4.8149064183235168e-01" nType="-99"/>
          <Node pos="r" depth="2" NCoef="0" IVar="-1" Cut="0.0000000000000000e+00" cType="1" res="9.4505475135520101e-04" rms="4.2524674534797668e-01" purity="7.0191901922225952e-01" nType="-99"/>
        </Node>
      </Node>
    </BinaryTree>
    <BinaryTree type="DecisionTree" boostWeight="1.0000000000000000e+00" itree="573">
      <Node pos="s" depth="0" NCoef="0" IVar="7" Cut="1.4719177782535553e-01" cType="1" res="-2.6082014665007591e-03" rms="4.4738239049911499e-01" purity="4.9927273392677307e-01" nType="0">
        <Node pos="l" depth="1" NCoef="0" IVar="5" Cut="6.7348681640625000e+02" cType="1" res="-5.7089556939899921e-03" rms="4.4735950231552124e-01" purity="4.7732698917388916e-01" nType="0">
          <Node pos="l" depth="2" NCoef="0" IVar="-1" Cut="0.0000000000000000e+00" cType="1" res="-7.5560860568657517e-04" rms="4.3964189291000366e-01" purity="4.0066686272621155e-01" nType="-99"/>
          <Node pos="r" depth="2" NCoef="0" IVar="-1" Cut="0.0000000000000000e+00" cType="1" res="6.8886831286363304e-05" rms="4.5332753658294678e-01" purity="5.3879886865615845e-01" nType="-99"/>
        </Node>
        <Node pos="r" depth="1" NCoef="0" IVar="2" Cut="9.2813205718994141e-01" cType="1" res="9.5717338845133781e-03" rms="4.4726419448852539e-01" purity="5.8547675609588623e-01" nType="0">
          <Node pos="l" depth="2" NCoef="0" IVar="-1" Cut="0.0000000000000000e+00" cType="1" res="1.0417441371828318e-03" rms="4.5993587374687195e-01" purity="5.0341004133224487e-01" nType="-99"/>
          <Node pos="r" depth="2" NCoef="0" IVar="-1" Cut="0.0000000000000000e+00" cType="1" res="-3.3308635465800762e-05" rms="4.3627339601516724e-01" purity="6.5315097570419312e-01" nType="-99"/>
        </Node>
      </Node>
    </BinaryTree>
    <BinaryTree type="DecisionTree" boostWeight="1.0000000000000000e+00" itree="574">
      <Node pos="s" depth="0" NCoef="0" IVar="4" Cut="5.4223096370697021e-01" cType="1" res="8.8348175631836057e-04" rms="4.4585645198822021e-01" purity="5.0116562843322754e-01" nType="0">
        <Node pos="l" depth="1" NCoef="0" IVar="3" Cut="1.3767012357711792e+00" cType="1" res="-1.8073881044983864e-02" rms="4.2706924676895142e-01" purity="3.0503347516059875e-01" nType="0">
          <Node pos="l" depth="2" NCoef="0" IVar="-1" Cut="0.0000000000000000e+00" cType="1" res="-1.3277523685246706e-03" rms="4.4220867753028870e-01" purity="3.4134596586227417e-01" nType="-99"/>
          <Node pos="r" depth="2" NCoef="0" IVar="-1" Cut="0.0000000000000000e+00" cType="1" res="-1.6338043496944010e-04" rms="3.9768850803375244e-01" purity="2.3919971287250519e-01" nType="-99"/>
        </Node>
        <Node pos="r" depth="1" NCoef="0" IVar="0" Cut="5.5595230311155319e-02" cType="1" res="4.4885668903589249e-03" rms="4.4924977421760559e-01" purity="5.3846365213394165e-01" nType="0">
          <Node pos="l" depth="2" NCoef="0" IVar="-1" Cut="0.0000000000000000e+00" cType="1" res="-4.2772904271259904e-04" rms="4.4665604829788208e-01" purity="4.0375429391860962e-01" nType="-99"/>
          <Node pos="r" depth="2" NCoef="0" IVar="-1" Cut="0.0000000000000000e+00" cType="1" res="3.7166668334975839e-04" rms="4.4979646801948547e-01" purity="5.6986361742019653e-01" nType="-99"/>
        </Node>
      </Node>
    </BinaryTree>
    <BinaryTree type="DecisionTree" boostWeight="1.0000000000000000e+00" itree="575">
      <Node pos="s" depth="0" NCoef="0" IVar="7" Cut="5.3335044533014297e-02" cType="1" res="1.8495412950869650e-04" rms="4.4720995426177979e-01" purity="4.9957767128944397e-01" nType="0">
        <Node pos="l" depth="1" NCoef="0" IVar="5" Cut="7.6228106689453125e+02" cType="1" res="-8.8440272957086563e-03" rms="4.4373607635498047e-01" purity="4.3823575973510742e-01" nType="0">
          <Node pos="l" depth="2" NCoef="0" IVar="-1" Cut="0.0000000000000000e+00" cType="1" res="-1.1546168243512511e-03" rms="4.3183922767639160e-01" purity="3.5707241296768188e-01" nType="-99"/>
          <Node pos="r" depth="2" NCoef="0" IVar="-1" Cut="0.0000000000000000e+00" cType="1" res="1.0509879939490929e-04" rms="4.5338648557662964e-01" purity="5.0774788856506348e-01" nType="-99"/>
        </Node>
        <Node pos="r" depth="1" NCoef="0" IVar="5" Cut="4.4272467041015625e+02" cType="1" res="4.2072772048413754e-03" rms="4.4869038462638855e-01" purity="5.2690494060516357e-01" nType="0">
          <Node pos="l" depth="2" NCoef="0" IVar="-1" Cut="0.0000000000000000e+00" cType="1" res="-8.9708023006096482e-04" rms="4.3495881557464600e-01" purity="3.7725469470024109e-01" nType="-99"/>
          <Node pos="r" depth="2" NCoef="0" IVar="-1" Cut="0.0000000000000000e+00" cType="1" res="3.0098384013399482e-04" rms="4.4984331727027893e-01" purity="5.4022800922393799e-01" nType="-99"/>
        </Node>
      </Node>
    </BinaryTree>
    <BinaryTree type="DecisionTree" boostWeight="1.0000000000000000e+00" itree="576">
      <Node pos="s" depth="0" NCoef="0" IVar="4" Cut="9.5108556747436523e-01" cType="1" res="-3.9737964980304241e-03" rms="4.4594177603721619e-01" purity="4.9646151065826416e-01" nType="0">
        <Node pos="l" depth="1" NCoef="0" IVar="8" Cut="1.6766810417175293e+00" cType="1" res="-6.1242263764142990e-03" rms="4.4968390464782715e-01" purity="4.7209227085113525e-01" nType="0">
          <Node pos="l" depth="2" NCoef="0" IVar="-1" Cut="0.0000000000000000e+00" cType="1" res="4.3541839113458991e-04" rms="4.5141124725341797e-01" purity="5.7972824573516846e-01" nType="-99"/>
          <Node pos="r" depth="2" NCoef="0" IVar="-1" Cut="0.0000000000000000e+00" cType="1" res="-4.3508716044016182e-04" rms="4.4933453202247620e-01" purity="4.5358777046203613e-01" nType="-99"/>
        </Node>
        <Node pos="r" depth="1" NCoef="0" IVar="-1" Cut="0.0000000000000000e+00" cType="1" res="1.1170980287715793e-03" rms="4.0119618177413940e-01" purity="7.6754057407379150e-01" nType="-99"/>
      </Node>
    </BinaryTree>
    <BinaryTree type="DecisionTree" boostWeight="1.0000000000000000e+00" itree="577">
      <Node pos="s" depth="0" NCoef="0" IVar="1" Cut="6.1461323499679565e-01" cType="1" res="-2.5039853062480688e-04" rms="4.4662919640541077e-01" purity="5.0096541643142700e-01" nType="0">
        <Node pos="l" depth="1" NCoef="0" IVar="-1" Cut="0.0000000000000000e+00" cType="1" res="1.5311250463128090e-03" rms="4.2631626129150391e-01" purity="6.9977623224258423e-01" nType="-99"/>
        <Node pos="r" depth="1" NCoef="0" IVar="4" Cut="9.5120269060134888e-01" cType="1" res="-2.4436572566628456e-03" rms="4.4800266623497009e-01" purity="4.8639872670173645e-01" nType="0">
          <Node pos="l" depth="2" NCoef="0" IVar="-1" Cut="0.0000000000000000e+00" cType="1" res="-2.1274290338624269e-04" rms="4.5124903321266174e-01" purity="4.6329993009567261e-01" nType="-99"/>
          <Node pos="r" depth="2" NCoef="0" IVar="-1" Cut="0.0000000000000000e+00" cType="1" res="1.0268251644447446e-03" rms="4.0846499800682068e-01" purity="7.5042605400085449e-01" nType="-99"/>
        </Node>
      </Node>
    </BinaryTree>
    <BinaryTree type="DecisionTree" boostWeight="1.0000000000000000e+00" itree="578">
      <Node pos="s" depth="0" NCoef="0" IVar="5" Cut="4.5882556152343750e+02" cType="1" res="-8.0200721276924014e-04" rms="4.4838020205497742e-01" purity="4.9880126118659973e-01" nType="0">
        <Node pos="l" depth="1" NCoef="0" IVar="-1" Cut="0.0000000000000000e+00" cType="1" res="-1.1978908441960812e-03" rms="4.2459854483604431e-01" purity="3.5272908210754395e-01" nType="-99"/>
        <Node pos="r" depth="1" NCoef="0" IVar="7" Cut="2.1763322874903679e-02" cType="1" res="1.3287813635542989e-03" rms="4.5060911774635315e-01" purity="5.1325440406799316e-01" nType="0">
          <Node pos="l" depth="2" NCoef="0" IVar="-1" Cut="0.0000000000000000e+00" cType="1" res="-8.6877046851441264e-04" rms="4.4277569651603699e-01" purity="4.2023950815200806e-01" nType="-99"/>
          <Node pos="r" depth="2" NCoef="0" IVar="-1" Cut="0.0000000000000000e+00" cType="1" res="1.4726434892509133e-04" rms="4.5126169919967651e-01" purity="5.2151721715927124e-01" nType="-99"/>
        </Node>
      </Node>
    </BinaryTree>
    <BinaryTree type="DecisionTree" boostWeight="1.0000000000000000e+00" itree="579">
      <Node pos="s" depth="0" NCoef="0" IVar="4" Cut="5.3017735481262207e-01" cType="1" res="-1.5393760986626148e-04" rms="4.4648122787475586e-01" purity="4.9915301799774170e-01" nType="0">
        <Node pos="l" depth="1" NCoef="0" IVar="4" Cut="5.1128214597702026e-01" cType="1" res="-2.0297436043620110e-02" rms="4.2750751972198486e-01" purity="2.9723834991455078e-01" nType="0">
          <Node pos="l" depth="2" NCoef="0" IVar="-1" Cut="0.0000000000000000e+00" cType="1" res="-3.5723191103897989e-04" rms="4.3262362480163574e-01" purity="3.0533039569854736e-01" nType="-99"/>
          <Node pos="r" depth="2" NCoef="0" IVar="-1" Cut="0.0000000000000000e+00" cType="1" res="-1.8291452433913946e-03" rms="4.2192485928535461e-01" purity="2.8920465707778931e-01" nType="-99"/>
        </Node>
        <Node pos="r" depth="1" NCoef="0" IVar="1" Cut="1.4004260301589966e+00" cType="1" res="2.6289336383342743e-03" rms="4.4896844029426575e-01" purity="5.2704799175262451e-01" nType="0">
          <Node pos="l" depth="2" NCoef="0" IVar="-1" Cut="0.0000000000000000e+00" cType="1" res="-6.5418556914664805e-05" rms="4.5109927654266357e-01" purity="5.7368320226669312e-01" nType="-99"/>
          <Node pos="r" depth="2" NCoef="0" IVar="-1" Cut="0.0000000000000000e+00" cType="1" res="8.1908254651352763e-04" rms="4.4164791703224182e-01" purity="3.7391430139541626e-01" nType="-99"/>
        </Node>
      </Node>
    </BinaryTree>
    <BinaryTree type="DecisionTree" boostWeight="1.0000000000000000e+00" itree="580">
      <Node pos="s" depth="0" NCoef="0" IVar="3" Cut="2.1525971889495850e+00" cType="1" res="3.4712234628386796e-04" rms="4.4629588723182678e-01" purity="5.0062561035156250e-01" nType="0">
        <Node pos="l" depth="1" NCoef="0" IVar="2" Cut="9.7586333751678467e-01" cType="1" res="3.0529866926372051e-03" rms="4.4935876131057739e-01" purity="5.2726006507873535e-01" nType="0">
          <Node pos="l" depth="2" NCoef="0" IVar="-1" Cut="0.0000000000000000e+00" cType="1" res="-6.8143177486490458e-05" rms="4.5623520016670227e-01" purity="4.8141932487487793e-01" nType="-99"/>
          <Node pos="r" depth="2" NCoef="0" IVar="-1" Cut="0.0000000000000000e+00" cType="1" res="7.1764009771868587e-04" rms="4.3149054050445557e-01" purity="6.4184689521789551e-01" nType="-99"/>
        </Node>
        <Node pos="r" depth="1" NCoef="0" IVar="7" Cut="6.6769242286682129e-02" cType="1" res="-1.7765205353498459e-02" rms="4.2478236556053162e-01" purity="3.2234191894531250e-01" nType="0">
          <Node pos="l" depth="2" NCoef="0" IVar="-1" Cut="0.0000000000000000e+00" cType="1" res="-1.8129101954400539e-03" rms="4.1467466950416565e-01" purity="2.8159803152084351e-01" nType="-99"/>
          <Node pos="r" depth="2" NCoef="0" IVar="-1" Cut="0.0000000000000000e+00" cType="1" res="-1.0479984666744713e-05" rms="4.3604621291160583e-01" purity="3.7160921096801758e-01" nType="-99"/>
        </Node>
      </Node>
    </BinaryTree>
    <BinaryTree type="DecisionTree" boostWeight="1.0000000000000000e+00" itree="581">
      <Node pos="s" depth="0" NCoef="0" IVar="2" Cut="9.5183390378952026e-01" cType="1" res="1.2795074144378304e-04" rms="4.4653886556625366e-01" purity="5.0103968381881714e-01" nType="0">
        <Node pos="l" depth="1" NCoef="0" IVar="7" Cut="6.1037059873342514e-02" cType="1" res="-6.0803224332630634e-03" rms="4.5122459530830383e-01" purity="4.3094599246978760e-01" nType="0">
          <Node pos="l" depth="2" NCoef="0" IVar="-1" Cut="0.0000000000000000e+00" cType="1" res="-8.1480439985170960e-04" rms="4.4567045569419861e-01" purity="3.8261955976486206e-01" nType="-99"/>
          <Node pos="r" depth="2" NCoef="0" IVar="-1" Cut="0.0000000000000000e+00" cType="1" res="1.4717334124725312e-05" rms="4.5465871691703796e-01" purity="4.6213310956954956e-01" nType="-99"/>
        </Node>
        <Node pos="r" depth="1" NCoef="0" IVar="1" Cut="8.6300063133239746e-01" cType="1" res="9.1082230210304260e-03" rms="4.3951743841171265e-01" purity="6.0243010520935059e-01" nType="0">
          <Node pos="l" depth="2" NCoef="0" IVar="-1" Cut="0.0000000000000000e+00" cType="1" res="1.2509435182437301e-03" rms="4.0837100148200989e-01" purity="7.4555534124374390e-01" nType="-99"/>
          <Node pos="r" depth="2" NCoef="0" IVar="-1" Cut="0.0000000000000000e+00" cType="1" res="2.0335547742433846e-04" rms="4.5005443692207336e-01" purity="5.5113178491592407e-01" nType="-99"/>
        </Node>
      </Node>
    </BinaryTree>
    <BinaryTree type="DecisionTree" boostWeight="1.0000000000000000e+00" itree="582">
      <Node pos="s" depth="0" NCoef="0" IVar="2" Cut="9.3964231014251709e-01" cType="1" res="3.9765443652868271e-03" rms="4.4682931900024414e-01" purity="5.0165069103240967e-01" nType="0">
        <Node pos="l" depth="1" NCoef="0" IVar="4" Cut="7.3768514394760132e-01" cType="1" res="-1.7286259680986404e-03" rms="4.5083230733871460e-01" purity="4.2172411084175110e-01" nType="0">
          <Node pos="l" depth="2" NCoef="0" IVar="-1" Cut="0.0000000000000000e+00" cType="1" res="1.6762987070251256e-04" rms="4.4793304800987244e-01" purity="3.7402877211570740e-01" nType="-99"/>
          <Node pos="r" depth="2" NCoef="0" IVar="-1" Cut="0.0000000000000000e+00" cType="1" res="-8.3781720604747534e-04" rms="4.5946216583251953e-01" purity="5.7151764631271362e-01" nType="-99"/>
        </Node>
        <Node pos="r" depth="1" NCoef="0" IVar="6" Cut="6.8682867288589478e-01" cType="1" res="1.0675258003175259e-02" rms="4.4198897480964661e-01" purity="5.9549629688262939e-01" nType="0">
          <Node pos="l" depth="2" NCoef="0" IVar="-1" Cut="0.0000000000000000e+00" cType="1" res="1.1136619141325355e-03" rms="4.2429047822952271e-01" purity="7.0686501264572144e-01" nType="-99"/>
          <Node pos="r" depth="2" NCoef="0" IVar="-1" Cut="0.0000000000000000e+00" cType="1" res="2.7749012224376202e-04" rms="4.5001807808876038e-01" purity="5.4290789365768433e-01" nType="-99"/>
        </Node>
      </Node>
    </BinaryTree>
    <BinaryTree type="DecisionTree" boostWeight="1.0000000000000000e+00" itree="583">
      <Node pos="s" depth="0" NCoef="0" IVar="8" Cut="2.1797995567321777e+00" cType="1" res="2.6511065661907196e-03" rms="4.4630417227745056e-01" purity="5.0188273191452026e-01" nType="0">
        <Node pos="l" depth="1" NCoef="0" IVar="4" Cut="5.6629157066345215e-01" cType="1" res="1.3187069445848465e-02" rms="4.4706887006759644e-01" purity="5.8568125963211060e-01" nType="0">
          <Node pos="l" depth="2" NCoef="0" IVar="-1" Cut="0.0000000000000000e+00" cType="1" res="1.5311745228245854e-03" rms="4.6094968914985657e-01" purity="4.2232510447502136e-01" nType="-99"/>
          <Node pos="r" depth="2" NCoef="0" IVar="-1" Cut="0.0000000000000000e+00" cType="1" res="3.8496224442496896e-04" rms="4.4289454817771912e-01" purity="6.3212609291076660e-01" nType="-99"/>
        </Node>
        <Node pos="r" depth="1" NCoef="0" IVar="1" Cut="1.6866836547851562e+00" cType="1" res="-6.8580061197280884e-03" rms="4.4539898633956909e-01" purity="4.2625132203102112e-01" nType="0">
          <Node pos="l" depth="2" NCoef="0" IVar="-1" Cut="0.0000000000000000e+00" cType="1" res="-2.2517687466461211e-04" rms="4.5196229219436646e-01" purity="4.5183828473091125e-01" nType="-99"/>
          <Node pos="r" depth="2" NCoef="0" IVar="-1" Cut="0.0000000000000000e+00" cType="1" res="-1.5908172354102135e-03" rms="3.8847538828849792e-01" purity="2.2171075642108917e-01" nType="-99"/>
        </Node>
      </Node>
    </BinaryTree>
    <BinaryTree type="DecisionTree" boostWeight="1.0000000000000000e+00" itree="584">
      <Node pos="s" depth="0" NCoef="0" IVar="7" Cut="3.1539503484964371e-02" cType="1" res="-3.7911802064627409e-04" rms="4.4585070013999939e-01" purity="4.9947053194046021e-01" nType="0">
        <Node pos="l" depth="1" NCoef="0" IVar="5" Cut="9.5586907958984375e+02" cType="1" res="-1.4487207867205143e-02" rms="4.4138559699058533e-01" purity="4.1326692700386047e-01" nType="0">
          <Node pos="l" depth="2" NCoef="0" IVar="-1" Cut="0.0000000000000000e+00" cType="1" res="-1.6361001180484891e-03" rms="4.3234479427337646e-01" purity="3.4439831972122192e-01" nType="-99"/>
          <Node pos="r" depth="2" NCoef="0" IVar="-1" Cut="0.0000000000000000e+00" cType="1" res="6.3854677136987448e-04" rms="4.5506742596626282e-01" purity="5.3100180625915527e-01" nType="-99"/>
        </Node>
        <Node pos="r" depth="1" NCoef="0" IVar="3" Cut="1.2006710767745972e+00" cType="1" res="1.9914058502763510e-03" rms="4.4655284285545349e-01" purity="5.1395493745803833e-01" nType="0">
          <Node pos="l" depth="2" NCoef="0" IVar="-1" Cut="0.0000000000000000e+00" cType="1" res="3.3782437094487250e-04" rms="4.4704675674438477e-01" purity="5.6991660594940186e-01" nType="-99"/>
          <Node pos="r" depth="2" NCoef="0" IVar="-1" Cut="0.0000000000000000e+00" cType="1" res="-2.9928327421657741e-04" rms="4.4564110040664673e-01" purity="4.2360973358154297e-01" nType="-99"/>
        </Node>
      </Node>
    </BinaryTree>
    <BinaryTree type="DecisionTree" boostWeight="1.0000000000000000e+00" itree="585">
      <Node pos="s" depth="0" NCoef="0" IVar="1" Cut="1.7011600732803345e+00" cType="1" res="-1.2709294678643346e-03" rms="4.4634532928466797e-01" purity="4.9808594584465027e-01" nType="0">
        <Node pos="l" depth="1" NCoef="0" IVar="1" Cut="1.1343275308609009e+00" cType="1" res="5.3994194604456425e-04" rms="4.4946646690368652e-01" purity="5.1605492830276489e-01" nType="0">
          <Node pos="l" depth="2" NCoef="0" IVar="-1" Cut="0.0000000000000000e+00" cType="1" res="-2.6020518271252513e-04" rms="4.4994604587554932e-01" purity="5.8933895826339722e-01" nType="-99"/>
          <Node pos="r" depth="2" NCoef="0" IVar="-1" Cut="0.0000000000000000e+00" cType="1" res="3.7978167529217899e-04" rms="4.4878339767456055e-01" purity="4.2734509706497192e-01" nType="-99"/>
        </Node>
        <Node pos="r" depth="1" NCoef="0" IVar="-1" Cut="0.0000000000000000e+00" cType="1" res="-1.5467834891751409e-03" rms="4.0028324723243713e-01" purity="2.5170722603797913e-01" nType="-99"/>
      </Node>
    </BinaryTree>
    <BinaryTree type="DecisionTree" boostWeight="1.0000000000000000e+00" itree="586">
      <Node pos="s" depth="0" NCoef="0" IVar="3" Cut="8.6233055591583252e-01" cType="1" res="-2.2924705408513546e-03" rms="4.4852635264396667e-01" purity="4.9697607755661011e-01" nType="0">
        <Node pos="l" depth="1" NCoef="0" IVar="4" Cut="6.1439764499664307e-01" cType="1" res="3.7070007529109716e-03" rms="4.5063945651054382e-01" purity="5.7372164726257324e-01" nType="0">
          <Node pos="l" depth="2" NCoef="0" IVar="-1" Cut="0.0000000000000000e+00" cType="1" res="8.2339945947751403e-04" rms="4.6211385726928711e-01" purity="4.3132942914962769e-01" nType="-99"/>
          <Node pos="r" depth="2" NCoef="0" IVar="-1" Cut="0.0000000000000000e+00" cType="1" res="-1.5305516717489809e-04" rms="4.4469523429870605e-01" purity="6.4420044422149658e-01" nType="-99"/>
        </Node>
        <Node pos="r" depth="1" NCoef="0" IVar="1" Cut="1.0710210800170898e+00" cType="1" res="-6.8853157572448254e-03" rms="4.4684752821922302e-01" purity="4.3822410702705383e-01" nType="0">
          <Node pos="l" depth="2" NCoef="0" IVar="-1" Cut="0.0000000000000000e+00" cType="1" res="-9.3794683925807476e-04" rms="4.5581936836242676e-01" purity="5.4654967784881592e-01" nType="-99"/>
          <Node pos="r" depth="2" NCoef="0" IVar="-1" Cut="0.0000000000000000e+00" cType="1" res="-4.2008039599750191e-05" rms="4.4231247901916504e-01" purity="3.8579973578453064e-01" nType="-99"/>
        </Node>
      </Node>
    </BinaryTree>
    <BinaryTree type="DecisionTree" boostWeight="1.0000000000000000e+00" itree="587">
      <Node pos="s" depth="0" NCoef="0" IVar="0" Cut="3.8092768192291260e-01" cType="1" res="-1.6279335832223296e-03" rms="4.4648221135139465e-01" purity="4.9874210357666016e-01" nType="0">
        <Node pos="l" depth="1" NCoef="0" IVar="5" Cut="4.5809490966796875e+02" cType="1" res="-4.0708910673856735e-03" rms="4.4934660196304321e-01" purity="4.7120842337608337e-01" nType="0">
          <Node pos="l" depth="2" NCoef="0" IVar="-1" Cut="0.0000000000000000e+00" cType="1" res="-1.4480225509032607e-03" rms="4.2382207512855530e-01" purity="3.2978641986846924e-01" nType="-99"/>
          <Node pos="r" depth="2" NCoef="0" IVar="-1" Cut="0.0000000000000000e+00" cType="1" res="-8.9864362962543964e-05" rms="4.5170918107032776e-01" purity="4.8507472872734070e-01" nType="-99"/>
        </Node>
        <Node pos="r" depth="1" NCoef="0" IVar="3" Cut="1.0390489101409912e+00" cType="1" res="1.6546338796615601e-02" rms="4.2412489652633667e-01" purity="7.0357739925384521e-01" nType="0">
          <Node pos="l" depth="2" NCoef="0" IVar="-1" Cut="0.0000000000000000e+00" cType="1" res="4.4477678602561355e-04" rms="4.0962508320808411e-01" purity="7.4704021215438843e-01" nType="-99"/>
          <Node pos="r" depth="2" NCoef="0" IVar="-1" Cut="0.0000000000000000e+00" cType="1" res="1.3654389185830951e-03" rms="4.4236892461776733e-01" purity="6.4592951536178589e-01" nType="-99"/>
        </Node>
      </Node>
    </BinaryTree>
    <BinaryTree type="DecisionTree" boostWeight="1.0000000000000000e+00" itree="588">
      <Node pos="s" depth="0" NCoef="0" IVar="4" Cut="6.8652081489562988e-01" cType="1" res="-7.5930351158604026e-04" rms="4.4643253087997437e-01" purity="4.9805647134780884e-01" nType="0">
        <Node pos="l" depth="1" NCoef="0" IVar="5" Cut="1.0267888183593750e+03" cType="1" res="-8.0879647284746170e-03" rms="4.4711858034133911e-01" purity="3.6705520749092102e-01" nType="0">
          <Node pos="l" depth="2" NCoef="0" IVar="-1" Cut="0.0000000000000000e+00" cType="1" res="-5.9503607917577028e-04" rms="4.4284698367118835e-01" purity="3.4675860404968262e-01" nType="-99"/>
          <Node pos="r" depth="2" NCoef="0" IVar="-1" Cut="0.0000000000000000e+00" cType="1" res="6.0940888943150640e-04" rms="4.7195634245872498e-01" purity="4.9179953336715698e-01" nType="-99"/>
        </Node>
        <Node pos="r" depth="1" NCoef="0" IVar="6" Cut="1.3602068424224854e+00" cType="1" res="6.6925468854606152e-03" rms="4.4561031460762024e-01" purity="6.3125991821289062e-01" nType="0">
          <Node pos="l" depth="2" NCoef="0" IVar="-1" Cut="0.0000000000000000e+00" cType="1" res="9.6882671641651541e-05" rms="4.3986079096794128e-01" purity="6.8507599830627441e-01" nType="-99"/>
          <Node pos="r" depth="2" NCoef="0" IVar="-1" Cut="0.0000000000000000e+00" cType="1" res="1.0975742479786277e-03" rms="4.6500858664512634e-01" purity="4.4067588448524475e-01" nType="-99"/>
        </Node>
      </Node>
    </BinaryTree>
    <BinaryTree type="DecisionTree" boostWeight="1.0000000000000000e+00" itree="589">
      <Node pos="s" depth="0" NCoef="0" IVar="6" Cut="4.5124533772468567e-01" cType="1" res="1.5545809874311090e-03" rms="4.4790861010551453e-01" purity="5.0101894140243530e-01" nType="0">
        <Node pos="l" depth="1" NCoef="0" IVar="2" Cut="9.2766714096069336e-01" cType="1" res="1.4939364977180958e-02" rms="4.4482871890068054e-01" purity="6.1639773845672607e-01" nType="0">
          <Node pos="l" depth="2" NCoef="0" IVar="-1" Cut="0.0000000000000000e+00" cType="1" res="-1.0618462692946196e-04" rms="4.6220049262046814e-01" purity="5.1191580295562744e-01" nType="-99"/>
          <Node pos="r" depth="2" NCoef="0" IVar="-1" Cut="0.0000000000000000e+00" cType="1" res="1.6819244483485818e-03" rms="4.2650637030601501e-01" purity="7.1846103668212891e-01" nType="-99"/>
        </Node>
        <Node pos="r" depth="1" NCoef="0" IVar="8" Cut="1.6681920289993286e+00" cType="1" res="-5.9040641644969583e-04" rms="4.4836309552192688e-01" purity="4.8252883553504944e-01" nType="0">
          <Node pos="l" depth="2" NCoef="0" IVar="-1" Cut="0.0000000000000000e+00" cType="1" res="6.3763168873265386e-04" rms="4.4663086533546448e-01" purity="5.9865546226501465e-01" nType="-99"/>
          <Node pos="r" depth="2" NCoef="0" IVar="-1" Cut="0.0000000000000000e+00" cType="1" res="-1.2887277989648283e-04" rms="4.4858187437057495e-01" purity="4.6552285552024841e-01" nType="-99"/>
        </Node>
      </Node>
    </BinaryTree>
    <BinaryTree type="DecisionTree" boostWeight="1.0000000000000000e+00" itree="590">
      <Node pos="s" depth="0" NCoef="0" IVar="7" Cut="3.3969517797231674e-02" cType="1" res="-4.4241236173547804e-04" rms="4.4584560394287109e-01" purity="4.9961766600608826e-01" nType="0">
        <Node pos="l" depth="1" NCoef="0" IVar="5" Cut="9.3431274414062500e+02" cType="1" res="-2.1648444235324860e-02" rms="4.4323933124542236e-01" purity="4.1339951753616333e-01" nType="0">
          <Node pos="l" depth="2" NCoef="0" IVar="-1" Cut="0.0000000000000000e+00" cType="1" res="-1.9203327829018235e-03" rms="4.3379163742065430e-01" purity="3.4709227085113525e-01" nType="-99"/>
          <Node pos="r" depth="2" NCoef="0" IVar="-1" Cut="0.0000000000000000e+00" cType="1" res="8.4774634160567075e-05" rms="4.5681974291801453e-01" purity="5.1838040351867676e-01" nType="-99"/>
        </Node>
        <Node pos="r" depth="1" NCoef="0" IVar="2" Cut="6.7536169290542603e-01" cType="1" res="3.5804144572466612e-03" rms="4.4622457027435303e-01" purity="5.1597344875335693e-01" nType="0">
          <Node pos="l" depth="2" NCoef="0" IVar="-1" Cut="0.0000000000000000e+00" cType="1" res="-1.2174283619970083e-03" rms="4.2145577073097229e-01" purity="2.7619501948356628e-01" nType="-99"/>
          <Node pos="r" depth="2" NCoef="0" IVar="-1" Cut="0.0000000000000000e+00" cType="1" res="2.9984355205669999e-04" rms="4.4851005077362061e-01" purity="5.3956222534179688e-01" nType="-99"/>
        </Node>
      </Node>
    </BinaryTree>
    <BinaryTree type="DecisionTree" boostWeight="1.0000000000000000e+00" itree="591">
      <Node pos="s" depth="0" NCoef="0" IVar="7" Cut="2.0003272593021393e-01" cType="1" res="2.1109408698976040e-03" rms="4.4574782252311707e-01" purity="5.0063902139663696e-01" nType="0">
        <Node pos="l" depth="1" NCoef="0" IVar="7" Cut="2.4702664464712143e-02" cType="1" res="-4.3211883166804910e-04" rms="4.4632482528686523e-01" purity="4.8935434222221375e-01" nType="0">
          <Node pos="l" depth="2" NCoef="0" IVar="-1" Cut="0.0000000000000000e+00" cType="1" res="-1.0649441974237561e-03" rms="4.4063922762870789e-01" purity="4.0780547261238098e-01" nType="-99"/>
          <Node pos="r" depth="2" NCoef="0" IVar="-1" Cut="0.0000000000000000e+00" cType="1" res="9.7590113000478595e-05" rms="4.4692087173461914e-01" purity="4.9884629249572754e-01" nType="-99"/>
        </Node>
        <Node pos="r" depth="1" NCoef="0" IVar="-1" Cut="0.0000000000000000e+00" cType="1" res="1.4457040233537555e-03" rms="4.3866240978240967e-01" purity="6.2051951885223389e-01" nType="-99"/>
      </Node>
    </BinaryTree>
    <BinaryTree type="DecisionTree" boostWeight="1.0000000000000000e+00" itree="592">
      <Node pos="s" depth="0" NCoef="0" IVar="4" Cut="5.4221361875534058e-01" cType="1" res="-3.7337010726332664e-03" rms="4.4672226905822754e-01" purity="4.9713662266731262e-01" nType="0">
        <Node pos="l" depth="1" NCoef="0" IVar="7" Cut="5.0279289484024048e-02" cType="1" res="-1.8314681947231293e-02" rms="4.2964407801628113e-01" purity="3.0618441104888916e-01" nType="0">
          <Node pos="l" depth="2" NCoef="0" IVar="-1" Cut="0.0000000000000000e+00" cType="1" res="-1.9329516217112541e-03" rms="4.0882578492164612e-01" purity="2.5529605150222778e-01" nType="-99"/>
          <Node pos="r" depth="2" NCoef="0" IVar="-1" Cut="0.0000000000000000e+00" cType="1" res="-5.8466551126912236e-04" rms="4.3856814503669739e-01" purity="3.2924491167068481e-01" nType="-99"/>
        </Node>
        <Node pos="r" depth="1" NCoef="0" IVar="4" Cut="5.7485485076904297e-01" cType="1" res="-9.4088312471285462e-04" rms="4.4986552000045776e-01" purity="5.3371131420135498e-01" nType="0">
          <Node pos="l" depth="2" NCoef="0" IVar="-1" Cut="0.0000000000000000e+00" cType="1" res="9.6287211636081338e-04" rms="4.4760656356811523e-01" purity="3.7975555658340454e-01" nType="-99"/>
          <Node pos="r" depth="2" NCoef="0" IVar="-1" Cut="0.0000000000000000e+00" cType="1" res="-1.6882085765246302e-04" rms="4.5008471608161926e-01" purity="5.5294829607009888e-01" nType="-99"/>
        </Node>
      </Node>
    </BinaryTree>
    <BinaryTree type="DecisionTree" boostWeight="1.0000000000000000e+00" itree="593">
      <Node pos="s" depth="0" NCoef="0" IVar="1" Cut="1.7316550016403198e+00" cType="1" res="-2.9299526941031218e-03" rms="4.4828575849533081e-01" purity="4.9616873264312744e-01" nType="0">
        <Node pos="l" depth="1" NCoef="0" IVar="0" Cut="4.1449315845966339e-02" cType="1" res="-1.7550360644236207e-03" rms="4.5084419846534729e-01" purity="5.1127755641937256e-01" nType="0">
          <Node pos="l" depth="2" NCoef="0" IVar="-1" Cut="0.0000000000000000e+00" cType="1" res="-8.3388038910925388e-04" rms="4.3679916858673096e-01" purity="3.6577510833740234e-01" nType="-99"/>
          <Node pos="r" depth="2" NCoef="0" IVar="-1" Cut="0.0000000000000000e+00" cType="1" res="1.2079852240276523e-05" rms="4.5269337296485901e-01" purity="5.3116571903228760e-01" nType="-99"/>
        </Node>
        <Node pos="r" depth="1" NCoef="0" IVar="-1" Cut="0.0000000000000000e+00" cType="1" res="-1.3316038530319929e-03" rms="4.0381640195846558e-01" purity="2.4985080957412720e-01" nType="-99"/>
      </Node>
    </BinaryTree>
    <BinaryTree type="DecisionTree" boostWeight="1.0000000000000000e+00" itree="594">
      <Node pos="s" depth="0" NCoef="0" IVar="3" Cut="2.7979881763458252e+00" cType="1" res="4.3225400149822235e-03" rms="4.4844123721122742e-01" purity="5.0234180688858032e-01" nType="0">
        <Node pos="l" depth="1" NCoef="0" IVar="6" Cut="3.8411024212837219e-01" cType="1" res="6.3591506332159042e-03" rms="4.5087450742721558e-01" purity="5.1592087745666504e-01" nType="0">
          <Node pos="l" depth="2" NCoef="0" IVar="-1" Cut="0.0000000000000000e+00" cType="1" res="-5.8794947108253837e-04" rms="4.5066702365875244e-01" purity="6.0077720880508423e-01" nType="-99"/>
          <Node pos="r" depth="2" NCoef="0" IVar="-1" Cut="0.0000000000000000e+00" cType="1" res="4.1963261901400983e-04" rms="4.5085048675537109e-01" purity="5.0589573383331299e-01" nType="-99"/>
        </Node>
        <Node pos="r" depth="1" NCoef="0" IVar="-1" Cut="0.0000000000000000e+00" cType="1" res="-1.7487814184278250e-03" rms="4.0345644950866699e-01" purity="2.7235510945320129e-01" nType="-99"/>
      </Node>
    </BinaryTree>
    <BinaryTree type="DecisionTree" boostWeight="1.0000000000000000e+00" itree="595">
      <Node pos="s" depth="0" NCoef="0" IVar="1" Cut="7.2571057081222534e-01" cType="1" res="8.0588425043970346e-04" rms="4.4620075821876526e-01" purity="4.9931523203849792e-01" nType="0">
        <Node pos="l" depth="1" NCoef="0" IVar="8" Cut="2.0026066303253174e+00" cType="1" res="2.0344853401184082e-02" rms="4.3105208873748779e-01" purity="6.7154079675674438e-01" nType="0">
          <Node pos="l" depth="2" NCoef="0" IVar="-1" Cut="0.0000000000000000e+00" cType="1" res="2.0866307895630598e-03" rms="4.1956019401550293e-01" purity="7.0379173755645752e-01" nType="-99"/>
          <Node pos="r" depth="2" NCoef="0" IVar="-1" Cut="0.0000000000000000e+00" cType="1" res="2.9403006192296743e-04" rms="4.3838715553283691e-01" purity="6.4881414175033569e-01" nType="-99"/>
        </Node>
        <Node pos="r" depth="1" NCoef="0" IVar="3" Cut="2.7969379425048828e+00" cType="1" res="-2.2181288804858923e-03" rms="4.4842350482940674e-01" purity="4.7266021370887756e-01" nType="0">
          <Node pos="l" depth="2" NCoef="0" IVar="-1" Cut="0.0000000000000000e+00" cType="1" res="-2.3134220100473613e-05" rms="4.5130574703216553e-01" purity="4.8678982257843018e-01" nType="-99"/>
          <Node pos="r" depth="2" NCoef="0" IVar="-1" Cut="0.0000000000000000e+00" cType="1" res="-1.6524536767974496e-03" rms="4.0258240699768066e-01" purity="2.6398378610610962e-01" nType="-99"/>
        </Node>
      </Node>
    </BinaryTree>
    <BinaryTree type="DecisionTree" boostWeight="1.0000000000000000e+00" itree="596">
      <Node pos="s" depth="0" NCoef="0" IVar="6" Cut="1.0614036321640015e+00" cType="1" res="2.9135760851204395e-03" rms="4.4762122631072998e-01" purity="5.0231689214706421e-01" nType="0">
        <Node pos="l" depth="1" NCoef="0" IVar="4" Cut="9.1483265161514282e-01" cType="1" res="-3.2414777670055628e-03" rms="4.4990110397338867e-01" purity="5.7776594161987305e-01" nType="0">
          <Node pos="l" depth="2" NCoef="0" IVar="-1" Cut="0.0000000000000000e+00" cType="1" res="-3.2164435833692551e-04" rms="4.6083191037178040e-01" purity="5.3528827428817749e-01" nType="-99"/>
          <Node pos="r" depth="2" NCoef="0" IVar="-1" Cut="0.0000000000000000e+00" cType="1" res="1.0328060016036034e-03" rms="3.8226819038391113e-01" purity="8.1591850519180298e-01" nType="-99"/>
        </Node>
        <Node pos="r" depth="1" NCoef="0" IVar="3" Cut="2.1380977630615234e+00" cType="1" res="1.1435420252382755e-02" rms="4.4430464506149292e-01" purity="3.9785555005073547e-01" nType="0">
          <Node pos="l" depth="2" NCoef="0" IVar="-1" Cut="0.0000000000000000e+00" cType="1" res="8.0606370465829968e-04" rms="4.5188131928443909e-01" purity="4.3031972646713257e-01" nType="-99"/>
          <Node pos="r" depth="2" NCoef="0" IVar="-1" Cut="0.0000000000000000e+00" cType="1" res="-4.4629990588873625e-04" rms="4.1260227560997009e-01" purity="2.7013045549392700e-01" nType="-99"/>
        </Node>
      </Node>
    </BinaryTree>
    <BinaryTree type="DecisionTree" boostWeight="1.0000000000000000e+00" itree="597">
      <Node pos="s" depth="0" NCoef="0" IVar="4" Cut="9.6324539184570312e-01" cType="1" res="2.3374157026410103e-03" rms="4.4687938690185547e-01" purity="5.0246238708496094e-01" nType="0">
        <Node pos="l" depth="1" NCoef="0" IVar="4" Cut="7.3984336853027344e-01" cType="1" res="6.7003414733335376e-04" rms="4.4992375373840332e-01" purity="4.8439392447471619e-01" nType="0">
          <Node pos="l" depth="2" NCoef="0" IVar="-1" Cut="0.0000000000000000e+00" cType="1" res="2.9574867221526802e-04" rms="4.5141348242759705e-01" purity="4.0090394020080566e-01" nType="-99"/>
          <Node pos="r" depth="2" NCoef="0" IVar="-1" Cut="0.0000000000000000e+00" cType="1" res="-4.1462411172688007e-04" rms="4.4720110297203064e-01" purity="6.2814646959304810e-01" nType="-99"/>
        </Node>
        <Node pos="r" depth="1" NCoef="0" IVar="-1" Cut="0.0000000000000000e+00" cType="1" res="1.5404700534418225e-03" rms="3.9743107557296753e-01" purity="7.7431946992874146e-01" nType="-99"/>
      </Node>
    </BinaryTree>
    <BinaryTree type="DecisionTree" boostWeight="1.0000000000000000e+00" itree="598">
      <Node pos="s" depth="0" NCoef="0" IVar="7" Cut="2.1398652344942093e-02" cType="1" res="-5.2872538799419999e-04" rms="4.4588917493820190e-01" purity="5.0022429227828979e-01" nType="0">
        <Node pos="l" depth="1" NCoef="0" IVar="-1" Cut="0.0000000000000000e+00" cType="1" res="-1.2559324968606234e-03" rms="4.3880820274353027e-01" purity="4.0567243099212646e-01" nType="-99"/>
        <Node pos="r" depth="1" NCoef="0" IVar="8" Cut="1.6774531602859497e+00" cType="1" res="1.3798366999253631e-03" rms="4.4638317823410034e-01" purity="5.0763374567031860e-01" nType="0">
          <Node pos="l" depth="2" NCoef="0" IVar="-1" Cut="0.0000000000000000e+00" cType="1" res="9.5543201314285398e-04" rms="4.4170692563056946e-01" purity="6.1891251802444458e-01" nType="-99"/>
          <Node pos="r" depth="2" NCoef="0" IVar="-1" Cut="0.0000000000000000e+00" cType="1" res="-8.5667787061538547e-05" rms="4.4710597395896912e-01" purity="4.8857724666595459e-01" nType="-99"/>
        </Node>
      </Node>
    </BinaryTree>
    <BinaryTree type="DecisionTree" boostWeight="1.0000000000000000e+00" itree="599">
      <Node pos="s" depth="0" NCoef="0" IVar="2" Cut="9.6362531185150146e-01" cType="1" res="2.8664204291999340e-03" rms="4.4655367732048035e-01" purity="5.0340145826339722e-01" nType="0">
        <Node pos="l" depth="1" NCoef="0" IVar="5" Cut="6.2068695068359375e+02" cType="1" res="-2.1458070259541273e-03" rms="4.5075821876525879e-01" purity="4.4432124495506287e-01" nType="0">
          <Node pos="l" depth="2" NCoef="0" IVar="-1" Cut="0.0000000000000000e+00" cType="1" res="-5.2692776080220938e-04" rms="4.3694138526916504e-01" purity="3.6732420325279236e-01" nType="-99"/>
          <Node pos="r" depth="2" NCoef="0" IVar="-1" Cut="0.0000000000000000e+00" cType="1" res="1.3584613043349236e-04" rms="4.5918670296669006e-01" purity="4.9287092685699463e-01" nType="-99"/>
        </Node>
        <Node pos="r" depth="1" NCoef="0" IVar="3" Cut="1.0086185932159424e+00" cType="1" res="1.2015277519822121e-02" rms="4.3862757086753845e-01" purity="6.1124092340469360e-01" nType="0">
          <Node pos="l" depth="2" NCoef="0" IVar="-1" Cut="0.0000000000000000e+00" cType="1" res="1.0495400056242943e-03" rms="4.2781388759613037e-01" purity="6.8378579616546631e-01" nType="-99"/>
          <Node pos="r" depth="2" NCoef="0" IVar="-1" Cut="0.0000000000000000e+00" cType="1" res="1.4369773271027952e-04" rms="4.5002353191375732e-01" purity="5.3161078691482544e-01" nType="-99"/>
        </Node>
      </Node>
    </BinaryTree>
    <BinaryTree type="DecisionTree" boostWeight="1.0000000000000000e+00" itree="600">
      <Node pos="s" depth="0" NCoef="0" IVar="2" Cut="6.2867289781570435e-01" cType="1" res="-1.7872817115858197e-03" rms="4.4565144181251526e-01" purity="4.9919131398200989e-01" nType="0">
        <Node pos="l" depth="1" NCoef="0" IVar="-1" Cut="0.0000000000000000e+00" cType="1" res="-1.9481965573504567e-03" rms="4.0844497084617615e-01" purity="2.4767170846462250e-01" nType="-99"/>
        <Node pos="r" depth="1" NCoef="0" IVar="5" Cut="9.8581738281250000e+02" cType="1" res="-3.0731571314390749e-05" rms="4.4754022359848022e-01" purity="5.1301282644271851e-01" nType="0">
          <Node pos="l" depth="2" NCoef="0" IVar="-1" Cut="0.0000000000000000e+00" cType="1" res="-1.6025594959501177e-04" rms="4.4621470570564270e-01" purity="4.9457171559333801e-01" nType="-99"/>
          <Node pos="r" depth="2" NCoef="0" IVar="-1" Cut="0.0000000000000000e+00" cType="1" res="7.8499555820599198e-04" rms="4.5388653874397278e-01" purity="6.0700130462646484e-01" nType="-99"/>
        </Node>
      </Node>
    </BinaryTree>
    <BinaryTree type="DecisionTree" boostWeight="1.0000000000000000e+00" itree="601">
      <Node pos="s" depth="0" NCoef="0" IVar="0" Cut="4.3751078844070435e-01" cType="1" res="-1.9886258523911238e-03" rms="4.4738480448722839e-01" purity="4.9844717979431152e-01" nType="0">
        <Node pos="l" depth="1" NCoef="0" IVar="2" Cut="6.6333538293838501e-01" cType="1" res="-3.5509043373167515e-03" rms="4.4862887263298035e-01" purity="4.8530995845794678e-01" nType="0">
          <Node pos="l" depth="2" NCoef="0" IVar="-1" Cut="0.0000000000000000e+00" cType="1" res="-1.4602992450818419e-03" rms="4.1049015522003174e-01" purity="2.5361904501914978e-01" nType="-99"/>
          <Node pos="r" depth="2" NCoef="0" IVar="-1" Cut="0.0000000000000000e+00" cType="1" res="-7.7672979386989027e-05" rms="4.5187598466873169e-01" purity="5.0631648302078247e-01" nType="-99"/>
        </Node>
        <Node pos="r" depth="1" NCoef="0" IVar="-1" Cut="0.0000000000000000e+00" cType="1" res="1.3014513533562422e-03" rms="4.2475563287734985e-01" purity="7.2220498323440552e-01" nType="-99"/>
      </Node>
    </BinaryTree>
    <BinaryTree type="DecisionTree" boostWeight="1.0000000000000000e+00" itree="602">
      <Node pos="s" depth="0" NCoef="0" IVar="4" Cut="5.1815098524093628e-01" cType="1" res="-1.9389213412068784e-04" rms="4.4730925559997559e-01" purity="4.9891149997711182e-01" nType="0">
        <Node pos="l" depth="1" NCoef="0" IVar="-1" Cut="0.0000000000000000e+00" cType="1" res="-1.2607127428054810e-03" rms="4.2323750257492065e-01" purity="2.9209142923355103e-01" nType="-99"/>
        <Node pos="r" depth="1" NCoef="0" IVar="6" Cut="1.9676746129989624e+00" cType="1" res="1.8768883310258389e-03" rms="4.4935309886932373e-01" purity="5.1751154661178589e-01" nType="0">
          <Node pos="l" depth="2" NCoef="0" IVar="-1" Cut="0.0000000000000000e+00" cType="1" res="1.5768173034302890e-04" rms="4.5305755734443665e-01" purity="5.3690665960311890e-01" nType="-99"/>
          <Node pos="r" depth="2" NCoef="0" IVar="-1" Cut="0.0000000000000000e+00" cType="1" res="-1.3233907520771027e-03" rms="3.8340654969215393e-01" purity="2.0187969505786896e-01" nType="-99"/>
        </Node>
      </Node>
    </BinaryTree>
    <BinaryTree type="DecisionTree" boostWeight="1.0000000000000000e+00" itree="603">
      <Node pos="s" depth="0" NCoef="0" IVar="0" Cut="4.1450209915637970e-02" cType="1" res="-1.6266793245449662e-03" rms="4.4705995917320251e-01" purity="4.9702832102775574e-01" nType="0">
        <Node pos="l" depth="1" NCoef="0" IVar="6" Cut="9.6571469306945801e-01" cType="1" res="-2.1568180993199348e-02" rms="4.3227356672286987e-01" purity="3.4768757224082947e-01" nType="0">
          <Node pos="l" depth="2" NCoef="0" IVar="-1" Cut="0.0000000000000000e+00" cType="1" res="-6.7604862852022052e-04" rms="4.4954159855842590e-01" purity="4.3582001328468323e-01" nType="-99"/>
          <Node pos="r" depth="2" NCoef="0" IVar="-1" Cut="0.0000000000000000e+00" cType="1" res="-1.6617967048659921e-03" rms="4.1420927643775940e-01" purity="2.5981059670448303e-01" nType="-99"/>
        </Node>
        <Node pos="r" depth="1" NCoef="0" IVar="4" Cut="5.1816749572753906e-01" cType="1" res="9.7897148225456476e-04" rms="4.4889062643051147e-01" purity="5.1654189825057983e-01" nType="0">
          <Node pos="l" depth="2" NCoef="0" IVar="-1" Cut="0.0000000000000000e+00" cType="1" res="-1.2432005023583770e-03" rms="4.3071463704109192e-01" purity="3.0979403853416443e-01" nType="-99"/>
          <Node pos="r" depth="2" NCoef="0" IVar="-1" Cut="0.0000000000000000e+00" cType="1" res="1.5641743084415793e-04" rms="4.5040896534919739e-01" purity="5.3495693206787109e-01" nType="-99"/>
        </Node>
      </Node>
    </BinaryTree>
    <BinaryTree type="DecisionTree" boostWeight="1.0000000000000000e+00" itree="604">
      <Node pos="s" depth="0" NCoef="0" IVar="4" Cut="9.1520714759826660e-01" cType="1" res="-2.1121930330991745e-03" rms="4.4712010025978088e-01" purity="4.9946150183677673e-01" nType="0">
        <Node pos="l" depth="1" NCoef="0" IVar="2" Cut="7.9563158750534058e-01" cType="1" res="-4.3944311328232288e-03" rms="4.5250657200813293e-01" purity="4.5977964997291565e-01" nType="0">
          <Node pos="l" depth="2" NCoef="0" IVar="-1" Cut="0.0000000000000000e+00" cType="1" res="3.1502783531323075e-04" rms="4.4118979573249817e-01" purity="3.4182465076446533e-01" nType="-99"/>
          <Node pos="r" depth="2" NCoef="0" IVar="-1" Cut="0.0000000000000000e+00" cType="1" res="-3.8550840690732002e-04" rms="4.5632371306419373e-01" purity="5.0082492828369141e-01" nType="-99"/>
        </Node>
        <Node pos="r" depth="1" NCoef="0" IVar="2" Cut="9.8794054985046387e-01" cType="1" res="1.1980270035564899e-02" rms="4.1202369332313538e-01" purity="7.4449050426483154e-01" nType="0">
          <Node pos="l" depth="2" NCoef="0" IVar="-1" Cut="0.0000000000000000e+00" cType="1" res="-9.5715142379049212e-05" rms="4.2297261953353882e-01" purity="7.1946811676025391e-01" nType="-99"/>
          <Node pos="r" depth="2" NCoef="0" IVar="-1" Cut="0.0000000000000000e+00" cType="1" res="1.4663465553894639e-03" rms="3.9998587965965271e-01" purity="7.7016741037368774e-01" nType="-99"/>
        </Node>
      </Node>
    </BinaryTree>
    <BinaryTree type="DecisionTree" boostWeight="1.0000000000000000e+00" itree="605">
      <Node pos="s" depth="0" NCoef="0" IVar="3" Cut="2.6251766681671143e+00" cType="1" res="4.4333626283332705e-04" rms="4.4783845543861389e-01" purity="4.9997887015342712e-01" nType="0">
        <Node pos="l" depth="1" NCoef="0" IVar="6" Cut="5.3370302915573120e-01" cType="1" res="2.0514917559921741e-03" rms="4.5079249143600464e-01" purity="5.1602810621261597e-01" nType="0">
          <Node pos="l" depth="2" NCoef="0" IVar="-1" Cut="0.0000000000000000e+00" cType="1" res="-4.3929548701271415e-04" rms="4.4875305891036987e-01" purity="6.0111063718795776e-01" nType="-99"/>
          <Node pos="r" depth="2" NCoef="0" IVar="-1" Cut="0.0000000000000000e+00" cType="1" res="2.3899402003735304e-04" rms="4.5126721262931824e-01" purity="4.9439993500709534e-01" nType="-99"/>
        </Node>
        <Node pos="r" depth="1" NCoef="0" IVar="-1" Cut="0.0000000000000000e+00" cType="1" res="-1.1898203520104289e-03" rms="4.0623521804809570e-01" purity="2.8808626532554626e-01" nType="-99"/>
      </Node>
    </BinaryTree>
    <BinaryTree type="DecisionTree" boostWeight="1.0000000000000000e+00" itree="606">
      <Node pos="s" depth="0" NCoef="0" IVar="7" Cut="2.1079114079475403e-01" cType="1" res="3.7138997577130795e-03" rms="4.4602242112159729e-01" purity="5.0338941812515259e-01" nType="0">
        <Node pos="l" depth="1" NCoef="0" IVar="2" Cut="9.3969184160232544e-01" cType="1" res="1.4835516922175884e-03" rms="4.4598284363746643e-01" purity="4.9442690610885620e-01" nType="0">
          <Node pos="l" depth="2" NCoef="0" IVar="-1" Cut="0.0000000000000000e+00" cType="1" res="-2.5270262267440557e-04" rms="4.4770619273185730e-01" purity="4.1546228528022766e-01" nType="-99"/>
          <Node pos="r" depth="2" NCoef="0" IVar="-1" Cut="0.0000000000000000e+00" cType="1" res="4.6731511247344315e-04" rms="4.4374480843544006e-01" purity="5.9062707424163818e-01" nType="-99"/>
        </Node>
        <Node pos="r" depth="1" NCoef="0" IVar="-1" Cut="0.0000000000000000e+00" cType="1" res="1.6096951439976692e-03" rms="4.4552323222160339e-01" purity="6.1978071928024292e-01" nType="-99"/>
      </Node>
    </BinaryTree>
    <BinaryTree type="DecisionTree" boostWeight="1.0000000000000000e+00" itree="607">
      <Node pos="s" depth="0" NCoef="0" IVar="5" Cut="1.2337513427734375e+03" cType="1" res="-5.9180142125114799e-04" rms="4.4613122940063477e-01" purity="4.9729847908020020e-01" nType="0">
        <Node pos="l" depth="1" NCoef="0" IVar="7" Cut="5.3447395563125610e-02" cType="1" res="-2.1156733855605125e-03" rms="4.4590103626251221e-01" purity="4.8903167247772217e-01" nType="0">
          <Node pos="l" depth="2" NCoef="0" IVar="-1" Cut="0.0000000000000000e+00" cType="1" res="-6.0007488355040550e-04" rms="4.4225561618804932e-01" purity="4.1613918542861938e-01" nType="-99"/>
          <Node pos="r" depth="2" NCoef="0" IVar="-1" Cut="0.0000000000000000e+00" cType="1" res="9.1511537902988493e-05" rms="4.4732886552810669e-01" purity="5.1895421743392944e-01" nType="-99"/>
        </Node>
        <Node pos="r" depth="1" NCoef="0" IVar="-1" Cut="0.0000000000000000e+00" cType="1" res="1.0480972705408931e-03" rms="4.4888821244239807e-01" purity="6.1790865659713745e-01" nType="-99"/>
      </Node>
    </BinaryTree>
    <BinaryTree type="DecisionTree" boostWeight="1.0000000000000000e+00" itree="608">
      <Node pos="s" depth="0" NCoef="0" IVar="1" Cut="1.2135728597640991e+00" cType="1" res="1.9286756287328899e-04" rms="4.4780611991882324e-01" purity="5.0195223093032837e-01" nType="0">
        <Node pos="l" depth="1" NCoef="0" IVar="8" Cut="1.9330067634582520e+00" cType="1" res="-5.2921585738658905e-03" rms="4.5143845677375793e-01" purity="5.7550001144409180e-01" nType="0">
          <Node pos="l" depth="2" NCoef="0" IVar="-1" Cut="0.0000000000000000e+00" cType="1" res="4.9734610365703702e-04" rms="4.4195988774299622e-01" purity="6.3306337594985962e-01" nType="-99"/>
          <Node pos="r" depth="2" NCoef="0" IVar="-1" Cut="0.0000000000000000e+00" cType="1" res="-5.7961017591878772e-04" rms="4.5532494783401489e-01" purity="5.5055272579193115e-01" nType="-99"/>
        </Node>
        <Node pos="r" depth="1" NCoef="0" IVar="5" Cut="1.0112174072265625e+03" cType="1" res="8.2832826301455498e-03" rms="4.4226983189582825e-01" purity="3.9346930384635925e-01" nType="0">
          <Node pos="l" depth="2" NCoef="0" IVar="-1" Cut="0.0000000000000000e+00" cType="1" res="1.9066200184170157e-04" rms="4.3882763385772705e-01" purity="3.7331646680831909e-01" nType="-99"/>
          <Node pos="r" depth="2" NCoef="0" IVar="-1" Cut="0.0000000000000000e+00" cType="1" res="1.7323388019576669e-03" rms="4.6200099587440491e-01" purity="5.1841014623641968e-01" nType="-99"/>
        </Node>
      </Node>
    </BinaryTree>
    <BinaryTree type="DecisionTree" boostWeight="1.0000000000000000e+00" itree="609">
      <Node pos="s" depth="0" NCoef="0" IVar="4" Cut="5.7828831672668457e-01" cType="1" res="-1.0328058851882815e-03" rms="4.4627255201339722e-01" purity="4.9889823794364929e-01" nType="0">
        <Node pos="l" depth="1" NCoef="0" IVar="5" Cut="9.0030133056640625e+02" cType="1" res="-9.9960193037986755e-03" rms="4.3661111593246460e-01" purity="3.2548087835311890e-01" nType="0">
          <Node pos="l" depth="2" NCoef="0" IVar="-1" Cut="0.0000000000000000e+00" cType="1" res="-8.1776455044746399e-04" rms="4.2757618427276611e-01" purity="2.9670751094818115e-01" nType="-99"/>
          <Node pos="r" depth="2" NCoef="0" IVar="-1" Cut="0.0000000000000000e+00" cType="1" res="3.7305781734175980e-04" rms="4.6739459037780762e-01" purity="4.2953482270240784e-01" nType="-99"/>
        </Node>
        <Node pos="r" depth="1" NCoef="0" IVar="0" Cut="8.3885274827480316e-02" cType="1" res="2.1506000775843859e-03" rms="4.4961097836494446e-01" purity="5.6048977375030518e-01" nType="0">
          <Node pos="l" depth="2" NCoef="0" IVar="-1" Cut="0.0000000000000000e+00" cType="1" res="-2.8101808857172728e-04" rms="4.5783933997154236e-01" purity="4.4179910421371460e-01" nType="-99"/>
          <Node pos="r" depth="2" NCoef="0" IVar="-1" Cut="0.0000000000000000e+00" cType="1" res="2.8795521939173341e-04" rms="4.4575551152229309e-01" purity="6.1468213796615601e-01" nType="-99"/>
        </Node>
      </Node>
    </BinaryTree>
    <BinaryTree type="DecisionTree" boostWeight="1.0000000000000000e+00" itree="610">
      <Node pos="s" depth="0" NCoef="0" IVar="3" Cut="5.4672211408615112e-01" cType="1" res="2.0389016717672348e-03" rms="4.4661450386047363e-01" purity="5.0232130289077759e-01" nType="0">
        <Node pos="l" depth="1" NCoef="0" IVar="3" Cut="4.5575329661369324e-01" cType="1" res="1.5556083992123604e-02" rms="4.4476804137229919e-01" purity="5.9615850448608398e-01" nType="0">
          <Node pos="l" depth="2" NCoef="0" IVar="-1" Cut="0.0000000000000000e+00" cType="1" res="1.0472685098648071e-03" rms="4.4269186258316040e-01" purity="6.0633850097656250e-01" nType="-99"/>
          <Node pos="r" depth="2" NCoef="0" IVar="-1" Cut="0.0000000000000000e+00" cType="1" res="-1.8779780657496303e-04" rms="4.5138004422187805e-01" purity="5.6074261665344238e-01" nType="-99"/>
        </Node>
        <Node pos="r" depth="1" NCoef="0" IVar="1" Cut="1.2731891870498657e+00" cType="1" res="-2.3501112591475248e-03" rms="4.4712454080581665e-01" purity="4.7185245156288147e-01" nType="0">
          <Node pos="l" depth="2" NCoef="0" IVar="-1" Cut="0.0000000000000000e+00" cType="1" res="-4.4102116953581572e-04" rms="4.5164394378662109e-01" purity="5.4200804233551025e-01" nType="-99"/>
          <Node pos="r" depth="2" NCoef="0" IVar="-1" Cut="0.0000000000000000e+00" cType="1" res="4.0572223952040076e-04" rms="4.4011268019676208e-01" purity="3.6732187867164612e-01" nType="-99"/>
        </Node>
      </Node>
    </BinaryTree>
    <BinaryTree type="DecisionTree" boostWeight="1.0000000000000000e+00" itree="611">
      <Node pos="s" depth="0" NCoef="0" IVar="2" Cut="6.8773293495178223e-01" cType="1" res="-1.1982880532741547e-03" rms="4.4545680284500122e-01" purity="4.9963173270225525e-01" nType="0">
        <Node pos="l" depth="1" NCoef="0" IVar="0" Cut="1.2631089985370636e-01" cType="1" res="-1.7751658335328102e-02" rms="4.2020398378372192e-01" purity="2.7724024653434753e-01" nType="0">
          <Node pos="l" depth="2" NCoef="0" IVar="-1" Cut="0.0000000000000000e+00" cType="1" res="-1.1695844586938620e-03" rms="3.8760617375373840e-01" purity="1.9708067178726196e-01" nType="-99"/>
          <Node pos="r" depth="2" NCoef="0" IVar="-1" Cut="0.0000000000000000e+00" cType="1" res="-8.7312754476442933e-04" rms="4.5020663738250732e-01" purity="3.5673552751541138e-01" nType="-99"/>
        </Node>
        <Node pos="r" depth="1" NCoef="0" IVar="5" Cut="5.5519531250000000e+02" cType="1" res="6.8805069895461202e-04" rms="4.4820541143417358e-01" purity="5.2497434616088867e-01" nType="0">
          <Node pos="l" depth="2" NCoef="0" IVar="-1" Cut="0.0000000000000000e+00" cType="1" res="-5.0277588889002800e-04" rms="4.4047638773918152e-01" purity="4.3378898501396179e-01" nType="-99"/>
          <Node pos="r" depth="2" NCoef="0" IVar="-1" Cut="0.0000000000000000e+00" cType="1" res="2.1548914082814008e-04" rms="4.5082917809486389e-01" purity="5.5699527263641357e-01" nType="-99"/>
        </Node>
      </Node>
    </BinaryTree>
    <BinaryTree type="DecisionTree" boostWeight="1.0000000000000000e+00" itree="612">
      <Node pos="s" depth="0" NCoef="0" IVar="0" Cut="1.5461038053035736e-01" cType="1" res="4.5936678361613303e-05" rms="4.4495627284049988e-01" purity="5.0156855583190918e-01" nType="0">
        <Node pos="l" depth="1" NCoef="0" IVar="8" Cut="1.6711666584014893e+00" cType="1" res="-5.4161259904503822e-03" rms="4.4550478458404541e-01" purity="4.1037094593048096e-01" nType="0">
          <Node pos="l" depth="2" NCoef="0" IVar="-1" Cut="0.0000000000000000e+00" cType="1" res="7.6964177424088120e-04" rms="4.5435494184494019e-01" purity="5.2093070745468140e-01" nType="-99"/>
          <Node pos="r" depth="2" NCoef="0" IVar="-1" Cut="0.0000000000000000e+00" cType="1" res="-4.6256472705863416e-04" rms="4.4389402866363525e-01" purity="3.9178565144538879e-01" nType="-99"/>
        </Node>
        <Node pos="r" depth="1" NCoef="0" IVar="2" Cut="9.8776561021804810e-01" cType="1" res="6.2974672764539719e-03" rms="4.4424521923065186e-01" purity="6.0594761371612549e-01" nType="0">
          <Node pos="l" depth="2" NCoef="0" IVar="-1" Cut="0.0000000000000000e+00" cType="1" res="1.4246511273086071e-04" rms="4.5084992051124573e-01" purity="5.8000981807708740e-01" nType="-99"/>
          <Node pos="r" depth="2" NCoef="0" IVar="-1" Cut="0.0000000000000000e+00" cType="1" res="1.1877368669956923e-03" rms="4.1265869140625000e-01" purity="7.2345131635665894e-01" nType="-99"/>
        </Node>
      </Node>
    </BinaryTree>
    <BinaryTree type="DecisionTree" boostWeight="1.0000000000000000e+00" itree="613">
      <Node pos="s" depth="0" NCoef="0" IVar="1" Cut="1.7130726575851440e+00" cType="1" res="-1.0087684495374560e-03" rms="4.4535586237907410e-01" purity="5.0015580654144287e-01" nType="0">
        <Node pos="l" depth="1" NCoef="0" IVar="4" Cut="5.4222851991653442e-01" cType="1" res="8.7779480963945389e-04" rms="4.4830080866813660e-01" purity="5.1770228147506714e-01" nType="0">
          <Node pos="l" depth="2" NCoef="0" IVar="-1" Cut="0.0000000000000000e+00" cType="1" res="-8.2656776066869497e-04" rms="4.3236634135246277e-01" purity="3.1571909785270691e-01" nType="-99"/>
          <Node pos="r" depth="2" NCoef="0" IVar="-1" Cut="0.0000000000000000e+00" cType="1" res="1.8958479631692171e-04" rms="4.5107081532478333e-01" purity="5.5440235137939453e-01" nType="-99"/>
        </Node>
        <Node pos="r" depth="1" NCoef="0" IVar="-1" Cut="0.0000000000000000e+00" cType="1" res="-1.7022551037371159e-03" rms="3.9925125241279602e-01" purity="2.4586060643196106e-01" nType="-99"/>
      </Node>
    </BinaryTree>
    <BinaryTree type="DecisionTree" boostWeight="1.0000000000000000e+00" itree="614">
      <Node pos="s" depth="0" NCoef="0" IVar="8" Cut="1.9308327436447144e+00" cType="1" res="3.0852046329528093e-03" rms="4.4733878970146179e-01" purity="5.0251358747482300e-01" nType="0">
        <Node pos="l" depth="1" NCoef="0" IVar="3" Cut="1.0428413152694702e+00" cType="1" res="1.2926879338920116e-02" rms="4.4460794329643250e-01" purity="5.9327882528305054e-01" nType="0">
          <Node pos="l" depth="2" NCoef="0" IVar="-1" Cut="0.0000000000000000e+00" cType="1" res="1.0780688608065248e-03" rms="4.3788406252861023e-01" purity="6.4034891128540039e-01" nType="-99"/>
          <Node pos="r" depth="2" NCoef="0" IVar="-1" Cut="0.0000000000000000e+00" cType="1" res="8.1938642324530520e-06" rms="4.5383188128471375e-01" purity="5.2535426616668701e-01" nType="-99"/>
        </Node>
        <Node pos="r" depth="1" NCoef="0" IVar="4" Cut="5.1816737651824951e-01" cType="1" res="-3.2423733500763774e-04" rms="4.4823056459426880e-01" purity="4.7106993198394775e-01" nType="0">
          <Node pos="l" depth="2" NCoef="0" IVar="-1" Cut="0.0000000000000000e+00" cType="1" res="-1.3152614701539278e-03" rms="4.1382241249084473e-01" purity="2.7293542027473450e-01" nType="-99"/>
          <Node pos="r" depth="2" NCoef="0" IVar="-1" Cut="0.0000000000000000e+00" cType="1" res="8.5761108493898064e-05" rms="4.5113632082939148e-01" purity="4.8886755108833313e-01" nType="-99"/>
        </Node>
      </Node>
    </BinaryTree>
    <BinaryTree type="DecisionTree" boostWeight="1.0000000000000000e+00" itree="615">
      <Node pos="s" depth="0" NCoef="0" IVar="5" Cut="1.0909362792968750e+03" cType="1" res="-9.8760274704545736e-04" rms="4.4674187898635864e-01" purity="4.9737593531608582e-01" nType="0">
        <Node pos="l" depth="1" NCoef="0" IVar="7" Cut="1.1040862649679184e-01" cType="1" res="-3.7587783299386501e-03" rms="4.4601923227310181e-01" purity="4.8371687531471252e-01" nType="0">
          <Node pos="l" depth="2" NCoef="0" IVar="-1" Cut="0.0000000000000000e+00" cType="1" res="-4.0885340422391891e-04" rms="4.4362136721611023e-01" purity="4.4228619337081909e-01" nType="-99"/>
          <Node pos="r" depth="2" NCoef="0" IVar="-1" Cut="0.0000000000000000e+00" cType="1" res="1.9258458632975817e-04" rms="4.5014491677284241e-01" purity="5.5729436874389648e-01" nType="-99"/>
        </Node>
        <Node pos="r" depth="1" NCoef="0" IVar="7" Cut="4.8511598259210587e-02" cType="1" res="2.1829167380928993e-02" rms="4.5200264453887939e-01" purity="6.0983955860137939e-01" nType="0">
          <Node pos="l" depth="2" NCoef="0" IVar="-1" Cut="0.0000000000000000e+00" cType="1" res="1.7870056908577681e-03" rms="4.5246720314025879e-01" purity="5.8772021532058716e-01" nType="-99"/>
          <Node pos="r" depth="2" NCoef="0" IVar="-1" Cut="0.0000000000000000e+00" cType="1" res="2.4957110872492194e-04" rms="4.5090538263320923e-01" purity="6.3288629055023193e-01" nType="-99"/>
        </Node>
      </Node>
    </BinaryTree>
    <BinaryTree type="DecisionTree" boostWeight="1.0000000000000000e+00" itree="616">
      <Node pos="s" depth="0" NCoef="0" IVar="1" Cut="7.8232926130294800e-01" cType="1" res="2.4201257620006800e-03" rms="4.4528731703758240e-01" purity="5.0097692012786865e-01" nType="0">
        <Node pos="l" depth="1" NCoef="0" IVar="4" Cut="7.8255039453506470e-01" cType="1" res="1.6272922977805138e-02" rms="4.3602377176284790e-01" purity="6.6047406196594238e-01" nType="0">
          <Node pos="l" depth="2" NCoef="0" IVar="-1" Cut="0.0000000000000000e+00" cType="1" res="1.1083598947152495e-03" rms="4.5927175879478455e-01" purity="5.8392637968063354e-01" nType="-99"/>
          <Node pos="r" depth="2" NCoef="0" IVar="-1" Cut="0.0000000000000000e+00" cType="1" res="9.6315707196481526e-05" rms="3.9081835746765137e-01" purity="7.9669570922851562e-01" nType="-99"/>
        </Node>
        <Node pos="r" depth="1" NCoef="0" IVar="4" Cut="6.1436796188354492e-01" cType="1" res="-6.2249955954030156e-04" rms="4.4723877310752869e-01" purity="4.6594494581222534e-01" nType="0">
          <Node pos="l" depth="2" NCoef="0" IVar="-1" Cut="0.0000000000000000e+00" cType="1" res="-5.2996067097410560e-04" rms="4.3352463841438293e-01" purity="3.1196820735931396e-01" nType="-99"/>
          <Node pos="r" depth="2" NCoef="0" IVar="-1" Cut="0.0000000000000000e+00" cType="1" res="2.2042644559405744e-04" rms="4.5470815896987915e-01" purity="5.5278283357620239e-01" nType="-99"/>
        </Node>
      </Node>
    </BinaryTree>
    <BinaryTree type="DecisionTree" boostWeight="1.0000000000000000e+00" itree="617">
      <Node pos="s" depth="0" NCoef="0" IVar="5" Cut="1.2023918457031250e+03" cType="1" res="-3.6829977761954069e-03" rms="4.4720381498336792e-01" purity="4.9713644385337830e-01" nType="0">
        <Node pos="l" depth="1" NCoef="0" IVar="5" Cut="4.4225588989257812e+02" cType="1" res="-5.8530643582344055e-03" rms="4.4633883237838745e-01" purity="4.8785042762756348e-01" nType="0">
          <Node pos="l" depth="2" NCoef="0" IVar="-1" Cut="0.0000000000000000e+00" cType="1" res="-1.5475550899282098e-03" rms="4.2016190290451050e-01" purity="3.4092113375663757e-01" nType="-99"/>
          <Node pos="r" depth="2" NCoef="0" IVar="-1" Cut="0.0000000000000000e+00" cType="1" res="-2.0496732031460851e-04" rms="4.4821766018867493e-01" purity="4.9901515245437622e-01" nType="-99"/>
        </Node>
        <Node pos="r" depth="1" NCoef="0" IVar="-1" Cut="0.0000000000000000e+00" cType="1" res="1.0875998996198177e-03" rms="4.5679476857185364e-01" purity="6.1041623353958130e-01" nType="-99"/>
      </Node>
    </BinaryTree>
    <BinaryTree type="DecisionTree" boostWeight="1.0000000000000000e+00" itree="618">
      <Node pos="s" depth="0" NCoef="0" IVar="5" Cut="1.0876197509765625e+03" cType="1" res="5.9573195176199079e-04" rms="4.4619745016098022e-01" purity="5.0102925300598145e-01" nType="0">
        <Node pos="l" depth="1" NCoef="0" IVar="7" Cut="3.4146901220083237e-02" cType="1" res="-1.6428841045126319e-03" rms="4.4577330350875854e-01" purity="4.8774826526641846e-01" nType="0">
          <Node pos="l" depth="2" NCoef="0" IVar="-1" Cut="0.0000000000000000e+00" cType="1" res="-9.3968218425288796e-04" rms="4.4020232558250427e-01" purity="3.7773531675338745e-01" nType="-99"/>
          <Node pos="r" depth="2" NCoef="0" IVar="-1" Cut="0.0000000000000000e+00" cType="1" res="4.8338286433136091e-05" rms="4.4660064578056335e-01" purity="5.0530654191970825e-01" nType="-99"/>
        </Node>
        <Node pos="r" depth="1" NCoef="0" IVar="1" Cut="1.0909484624862671e+00" cType="1" res="1.8446082249283791e-02" rms="4.4916632771492004e-01" purity="6.0692954063415527e-01" nType="0">
          <Node pos="l" depth="2" NCoef="0" IVar="-1" Cut="0.0000000000000000e+00" cType="1" res="6.3612576923333108e-05" rms="4.3975356221199036e-01" purity="6.6872364282608032e-01" nType="-99"/>
          <Node pos="r" depth="2" NCoef="0" IVar="-1" Cut="0.0000000000000000e+00" cType="1" res="1.6255977097898722e-03" rms="4.5736584067344666e-01" purity="5.4796242713928223e-01" nType="-99"/>
        </Node>
      </Node>
    </BinaryTree>
    <BinaryTree type="DecisionTree" boostWeight="1.0000000000000000e+00" itree="619">
      <Node pos="s" depth="0" NCoef="0" IVar="1" Cut="1.2649105787277222e+00" cType="1" res="2.6720713358372450e-03" rms="4.4773718714714050e-01" purity="5.0290334224700928e-01" nType="0">
        <Node pos="l" depth="1" NCoef="0" IVar="3" Cut="4.8060390353202820e-01" cType="1" res="-2.0274950657039881e-03" rms="4.5149168372154236e-01" purity="5.6978273391723633e-01" nType="0">
          <Node pos="l" depth="2" NCoef="0" IVar="-1" Cut="0.0000000000000000e+00" cType="1" res="7.1244192076846957e-04" rms="4.3936952948570251e-01" purity="6.2957066297531128e-01" nType="-99"/>
          <Node pos="r" depth="2" NCoef="0" IVar="-1" Cut="0.0000000000000000e+00" cType="1" res="-3.8492109160870314e-04" rms="4.5563018321990967e-01" purity="5.4827386140823364e-01" nType="-99"/>
        </Node>
        <Node pos="r" depth="1" NCoef="0" IVar="5" Cut="7.4592419433593750e+02" cType="1" res="1.1242950335144997e-02" rms="4.4067847728729248e-01" purity="3.8093146681785583e-01" nType="0">
          <Node pos="l" depth="2" NCoef="0" IVar="-1" Cut="0.0000000000000000e+00" cType="1" res="1.5240377251757309e-05" rms="4.2969739437103271e-01" purity="3.2849863171577454e-01" nType="-99"/>
          <Node pos="r" depth="2" NCoef="0" IVar="-1" Cut="0.0000000000000000e+00" cType="1" res="1.4315751614049077e-03" rms="4.5778816938400269e-01" purity="4.6818879246711731e-01" nType="-99"/>
        </Node>
      </Node>
    </BinaryTree>
    <BinaryTree type="DecisionTree" boostWeight="1.0000000000000000e+00" itree="620">
      <Node pos="s" depth="0" NCoef="0" IVar="3" Cut="2.1696263551712036e-01" cType="1" res="-1.2590071128215641e-04" rms="4.4816082715988159e-01" purity="4.9886929988861084e-01" nType="0">
        <Node pos="l" depth="1" NCoef="0" IVar="-1" Cut="0.0000000000000000e+00" cType="1" res="-9.3329866649582982e-04" rms="4.4389495253562927e-01" purity="5.8277487754821777e-01" nType="-99"/>
        <Node pos="r" depth="1" NCoef="0" IVar="4" Cut="8.0692166090011597e-01" cType="1" res="1.1100325500592589e-03" rms="4.4841682910919189e-01" purity="4.9327021837234497e-01" nType="0">
          <Node pos="l" depth="2" NCoef="0" IVar="-1" Cut="0.0000000000000000e+00" cType="1" res="2.0118735847063363e-04" rms="4.5232707262039185e-01" purity="4.1692116856575012e-01" nType="-99"/>
          <Node pos="r" depth="2" NCoef="0" IVar="-1" Cut="0.0000000000000000e+00" cType="1" res="-2.9972518677823246e-04" rms="4.3899744749069214e-01" purity="6.7296582460403442e-01" nType="-99"/>
        </Node>
      </Node>
    </BinaryTree>
    <BinaryTree type="DecisionTree" boostWeight="1.0000000000000000e+00" itree="621">
      <Node pos="s" depth="0" NCoef="0" IVar="7" Cut="3.4202627837657928e-02" cType="1" res="7.4029783718287945e-04" rms="4.4788268208503723e-01" purity="5.0107878446578979e-01" nType="0">
        <Node pos="l" depth="1" NCoef="0" IVar="5" Cut="9.8768566894531250e+02" cType="1" res="-1.5153771266341209e-02" rms="4.4093543291091919e-01" purity="4.1885784268379211e-01" nType="0">
          <Node pos="l" depth="2" NCoef="0" IVar="-1" Cut="0.0000000000000000e+00" cType="1" res="-1.3930968707427382e-03" rms="4.2901328206062317e-01" purity="3.5717979073524475e-01" nType="-99"/>
          <Node pos="r" depth="2" NCoef="0" IVar="-1" Cut="0.0000000000000000e+00" cType="1" res="3.7027621874585748e-04" rms="4.6339589357376099e-01" purity="5.4432713985443115e-01" nType="-99"/>
        </Node>
        <Node pos="r" depth="1" NCoef="0" IVar="1" Cut="1.1172494888305664e+00" cType="1" res="3.9274590089917183e-03" rms="4.4919514656066895e-01" purity="5.1756614446640015e-01" nType="0">
          <Node pos="l" depth="2" NCoef="0" IVar="-1" Cut="0.0000000000000000e+00" cType="1" res="-1.4808164269197732e-04" rms="4.4936987757682800e-01" purity="5.9741336107254028e-01" nType="-99"/>
          <Node pos="r" depth="2" NCoef="0" IVar="-1" Cut="0.0000000000000000e+00" cType="1" res="6.0258561279624701e-04" rms="4.4886198639869690e-01" purity="4.2571824789047241e-01" nType="-99"/>
        </Node>
      </Node>
    </BinaryTree>
    <BinaryTree type="DecisionTree" boostWeight="1.0000000000000000e+00" itree="622">
      <Node pos="s" depth="0" NCoef="0" IVar="8" Cut="2.9287891387939453e+00" cType="1" res="-1.5689537394791842e-04" rms="4.4736596941947937e-01" purity="4.9915605783462524e-01" nType="0">
        <Node pos="l" depth="1" NCoef="0" IVar="6" Cut="1.4316999912261963e+00" cType="1" res="1.1892722686752677e-03" rms="4.5113384723663330e-01" purity="5.1650089025497437e-01" nType="0">
          <Node pos="l" depth="2" NCoef="0" IVar="-1" Cut="0.0000000000000000e+00" cType="1" res="-7.5583237048704177e-05" rms="4.5257887244224548e-01" purity="5.4981970787048340e-01" nType="-99"/>
          <Node pos="r" depth="2" NCoef="0" IVar="-1" Cut="0.0000000000000000e+00" cType="1" res="7.8610301716253161e-04" rms="4.4353950023651123e-01" purity="3.4895315766334534e-01" nType="-99"/>
        </Node>
        <Node pos="r" depth="1" NCoef="0" IVar="-1" Cut="0.0000000000000000e+00" cType="1" res="-1.6101729124784470e-03" rms="3.7406551837921143e-01" purity="1.9371344149112701e-01" nType="-99"/>
      </Node>
    </BinaryTree>
    <BinaryTree type="DecisionTree" boostWeight="1.0000000000000000e+00" itree="623">
      <Node pos="s" depth="0" NCoef="0" IVar="1" Cut="5.8900314569473267e-01" cType="1" res="-1.6580709489062428e-03" rms="4.4679224491119385e-01" purity="4.9770635366439819e-01" nType="0">
        <Node pos="l" depth="1" NCoef="0" IVar="-1" Cut="0.0000000000000000e+00" cType="1" res="1.2952225515618920e-03" rms="4.2448386549949646e-01" purity="6.9747221469879150e-01" nType="-99"/>
        <Node pos="r" depth="1" NCoef="0" IVar="7" Cut="3.3279769122600555e-02" cType="1" res="-3.2977429218590260e-03" rms="4.4808086752891541e-01" purity="4.8537921905517578e-01" nType="0">
          <Node pos="l" depth="2" NCoef="0" IVar="-1" Cut="0.0000000000000000e+00" cType="1" res="-8.7660312419757247e-04" rms="4.4028183817863464e-01" purity="4.0922680497169495e-01" nType="-99"/>
          <Node pos="r" depth="2" NCoef="0" IVar="-1" Cut="0.0000000000000000e+00" cType="1" res="-2.9335016733966768e-05" rms="4.4951936602592468e-01" purity="5.0007021427154541e-01" nType="-99"/>
        </Node>
      </Node>
    </BinaryTree>
    <BinaryTree type="DecisionTree" boostWeight="1.0000000000000000e+00" itree="624">
      <Node pos="s" depth="0" NCoef="0" IVar="5" Cut="1.2705295410156250e+03" cType="1" res="1.7810395220294595e-03" rms="4.4598028063774109e-01" purity="5.0073605775833130e-01" nType="0">
        <Node pos="l" depth="1" NCoef="0" IVar="4" Cut="9.6300500631332397e-01" cType="1" res="-2.1006822862545960e-05" rms="4.4586896896362305e-01" purity="4.9281859397888184e-01" nType="0">
          <Node pos="l" depth="2" NCoef="0" IVar="-1" Cut="0.0000000000000000e+00" cType="1" res="-8.4689971117768437e-05" rms="4.4874769449234009e-01" purity="4.7404810786247253e-01" nType="-99"/>
          <Node pos="r" depth="2" NCoef="0" IVar="-1" Cut="0.0000000000000000e+00" cType="1" res="1.4325255760923028e-03" rms="3.9935165643692017e-01" purity="7.7444183826446533e-01" nType="-99"/>
        </Node>
        <Node pos="r" depth="1" NCoef="0" IVar="-1" Cut="0.0000000000000000e+00" cType="1" res="1.5463115414604545e-03" rms="4.4676128029823303e-01" purity="6.3336813449859619e-01" nType="-99"/>
      </Node>
    </BinaryTree>
    <BinaryTree type="DecisionTree" boostWeight="1.0000000000000000e+00" itree="625">
      <Node pos="s" depth="0" NCoef="0" IVar="0" Cut="4.1450209915637970e-02" cType="1" res="2.8207136783748865e-03" rms="4.4765040278434753e-01" purity="5.0260728597640991e-01" nType="0">
        <Node pos="l" depth="1" NCoef="0" IVar="8" Cut="2.2253310680389404e+00" cType="1" res="-1.2417402118444443e-02" rms="4.3758213520050049e-01" purity="3.5997545719146729e-01" nType="0">
          <Node pos="l" depth="2" NCoef="0" IVar="-1" Cut="0.0000000000000000e+00" cType="1" res="-8.8090589269995689e-04" rms="4.4920113682746887e-01" purity="4.1493579745292664e-01" nType="-99"/>
          <Node pos="r" depth="2" NCoef="0" IVar="-1" Cut="0.0000000000000000e+00" cType="1" res="-3.4777191467583179e-04" rms="4.2456004023551941e-01" purity="3.0048862099647522e-01" nType="-99"/>
        </Node>
        <Node pos="r" depth="1" NCoef="0" IVar="7" Cut="2.1969649195671082e-01" cType="1" res="4.8231775872409344e-03" rms="4.4891825318336487e-01" purity="5.2135080099105835e-01" nType="0">
          <Node pos="l" depth="2" NCoef="0" IVar="-1" Cut="0.0000000000000000e+00" cType="1" res="1.7110859334934503e-04" rms="4.4964525103569031e-01" purity="5.1367807388305664e-01" nType="-99"/>
          <Node pos="r" depth="2" NCoef="0" IVar="-1" Cut="0.0000000000000000e+00" cType="1" res="1.3058051699772477e-03" rms="4.3705698847770691e-01" purity="6.3914543390274048e-01" nType="-99"/>
        </Node>
      </Node>
    </BinaryTree>
    <BinaryTree type="DecisionTree" boostWeight="1.0000000000000000e+00" itree="626">
      <Node pos="s" depth="0" NCoef="0" IVar="5" Cut="1.2237753906250000e+03" cType="1" res="6.3286367803812027e-03" rms="4.4595921039581299e-01" purity="5.0621390342712402e-01" nType="0">
        <Node pos="l" depth="1" NCoef="0" IVar="2" Cut="8.0885112285614014e-01" cType="1" res="4.0768459439277649e-03" rms="4.4534555077552795e-01" purity="4.9708339571952820e-01" nType="0">
          <Node pos="l" depth="2" NCoef="0" IVar="-1" Cut="0.0000000000000000e+00" cType="1" res="-4.8672710545361042e-04" rms="4.3352875113487244e-01" purity="3.2536697387695312e-01" nType="-99"/>
          <Node pos="r" depth="2" NCoef="0" IVar="-1" Cut="0.0000000000000000e+00" cType="1" res="4.0719384560361505e-04" rms="4.4894590973854065e-01" purity="5.5152797698974609e-01" nType="-99"/>
        </Node>
        <Node pos="r" depth="1" NCoef="0" IVar="-1" Cut="0.0000000000000000e+00" cType="1" res="1.7823713133111596e-03" rms="4.5316827297210693e-01" purity="6.3152027130126953e-01" nType="-99"/>
      </Node>
    </BinaryTree>
    <BinaryTree type="DecisionTree" boostWeight="1.0000000000000000e+00" itree="627">
      <Node pos="s" depth="0" NCoef="0" IVar="3" Cut="9.1105407476425171e-01" cType="1" res="-4.1067441925406456e-03" rms="4.4756570458412170e-01" purity="4.9685019254684448e-01" nType="0">
        <Node pos="l" depth="1" NCoef="0" IVar="0" Cut="3.3848661184310913e-01" cType="1" res="3.6265875678509474e-03" rms="4.4890654087066650e-01" purity="5.7271385192871094e-01" nType="0">
          <Node pos="l" depth="2" NCoef="0" IVar="-1" Cut="0.0000000000000000e+00" cType="1" res="-6.2891376728657633e-05" rms="4.5833587646484375e-01" purity="5.3019607067108154e-01" nType="-99"/>
          <Node pos="r" depth="2" NCoef="0" IVar="-1" Cut="0.0000000000000000e+00" cType="1" res="1.4222395839169621e-03" rms="4.0341976284980774e-01" purity="7.6245290040969849e-01" nType="-99"/>
        </Node>
        <Node pos="r" depth="1" NCoef="0" IVar="3" Cut="1.0713630914688110e+00" cType="1" res="-1.0599615983664989e-02" rms="4.4633337855339050e-01" purity="4.3315544724464417e-01" nType="0">
          <Node pos="l" depth="2" NCoef="0" IVar="-1" Cut="0.0000000000000000e+00" cType="1" res="-1.5176716260612011e-03" rms="4.5062384009361267e-01" purity="4.9500417709350586e-01" nType="-99"/>
          <Node pos="r" depth="2" NCoef="0" IVar="-1" Cut="0.0000000000000000e+00" cType="1" res="-3.6118840216659009e-04" rms="4.4548282027244568e-01" purity="4.2230889201164246e-01" nType="-99"/>
        </Node>
      </Node>
    </BinaryTree>
    <BinaryTree type="DecisionTree" boostWeight="1.0000000000000000e+00" itree="628">
      <Node pos="s" depth="0" NCoef="0" IVar="0" Cut="4.1449841111898422e-02" cType="1" res="1.1877557262778282e-03" rms="4.4458279013633728e-01" purity="5.0197243690490723e-01" nType="0">
        <Node pos="l" depth="1" NCoef="0" IVar="0" Cut="3.1345169991254807e-02" cType="1" res="-2.0218497142195702e-02" rms="4.3544057011604309e-01" purity="3.4728467464447021e-01" nType="0">
          <Node pos="l" depth="2" NCoef="0" IVar="-1" Cut="0.0000000000000000e+00" cType="1" res="-1.5334801282733679e-03" rms="4.3499973416328430e-01" purity="3.3888849616050720e-01" nType="-99"/>
          <Node pos="r" depth="2" NCoef="0" IVar="-1" Cut="0.0000000000000000e+00" cType="1" res="-5.6850834516808391e-04" rms="4.3569776415824890e-01" purity="3.5593211650848389e-01" nType="-99"/>
        </Node>
        <Node pos="r" depth="1" NCoef="0" IVar="5" Cut="4.5354470825195312e+02" cType="1" res="4.0134764276444912e-03" rms="4.4569876790046692e-01" purity="5.2239191532135010e-01" nType="0">
          <Node pos="l" depth="2" NCoef="0" IVar="-1" Cut="0.0000000000000000e+00" cType="1" res="-9.6508819842711091e-04" rms="4.3720999360084534e-01" purity="3.8233050704002380e-01" nType="-99"/>
          <Node pos="r" depth="2" NCoef="0" IVar="-1" Cut="0.0000000000000000e+00" cType="1" res="2.9332705889828503e-04" rms="4.4635382294654846e-01" purity="5.3416961431503296e-01" nType="-99"/>
        </Node>
      </Node>
    </BinaryTree>
    <BinaryTree type="DecisionTree" boostWeight="1.0000000000000000e+00" itree="629">
      <Node pos="s" depth="0" NCoef="0" IVar="5" Cut="7.1858886718750000e+02" cType="1" res="1.3448357349261642e-03" rms="4.4619551301002502e-01" purity="4.9967846274375916e-01" nType="0">
        <Node pos="l" depth="1" NCoef="0" IVar="7" Cut="1.5360200405120850e-01" cType="1" res="-5.6090126745402813e-03" rms="4.4187751412391663e-01" purity="4.4989848136901855e-01" nType="0">
          <Node pos="l" depth="2" NCoef="0" IVar="-1" Cut="0.0000000000000000e+00" cType="1" res="-5.2533223060891032e-04" rms="4.4029036164283752e-01" purity="4.1522318124771118e-01" nType="-99"/>
          <Node pos="r" depth="2" NCoef="0" IVar="-1" Cut="0.0000000000000000e+00" cType="1" res="4.2416411451995373e-04" rms="4.4647967815399170e-01" purity="5.5777484178543091e-01" nType="-99"/>
        </Node>
        <Node pos="r" depth="1" NCoef="0" IVar="1" Cut="1.2401081323623657e+00" cType="1" res="1.0290201753377914e-02" rms="4.5153200626373291e-01" purity="5.6371486186981201e-01" nType="0">
          <Node pos="l" depth="2" NCoef="0" IVar="-1" Cut="0.0000000000000000e+00" cType="1" res="1.6654832870699465e-04" rms="4.4907414913177490e-01" purity="6.2348532676696777e-01" nType="-99"/>
          <Node pos="r" depth="2" NCoef="0" IVar="-1" Cut="0.0000000000000000e+00" cType="1" res="1.0808059014379978e-03" rms="4.5551049709320068e-01" purity="4.6019369363784790e-01" nType="-99"/>
        </Node>
      </Node>
    </BinaryTree>
    <BinaryTree type="DecisionTree" boostWeight="1.0000000000000000e+00" itree="630">
      <Node pos="s" depth="0" NCoef="0" IVar="6" Cut="1.1369200944900513e+00" cType="1" res="2.0713743288069963e-03" rms="4.4831532239913940e-01" purity="5.0225096940994263e-01" nType="0">
        <Node pos="l" depth="1" NCoef="0" IVar="1" Cut="8.9076530933380127e-01" cType="1" res="-3.4149102866649628e-03" rms="4.5141476392745972e-01" purity="5.7286006212234497e-01" nType="0">
          <Node pos="l" depth="2" NCoef="0" IVar="-1" Cut="0.0000000000000000e+00" cType="1" res="3.4495940781198442e-04" rms="4.3962389230728149e-01" purity="6.5151917934417725e-01" nType="-99"/>
          <Node pos="r" depth="2" NCoef="0" IVar="-1" Cut="0.0000000000000000e+00" cType="1" res="-4.8482249258086085e-04" rms="4.5877999067306519e-01" purity="5.2182430028915405e-01" nType="-99"/>
        </Node>
        <Node pos="r" depth="1" NCoef="0" IVar="8" Cut="2.9501569271087646e+00" cType="1" res="1.1614457704126835e-02" rms="4.4271039962768555e-01" purity="3.7943044304847717e-01" nType="0">
          <Node pos="l" depth="2" NCoef="0" IVar="-1" Cut="0.0000000000000000e+00" cType="1" res="8.3082221681252122e-04" rms="4.5178580284118652e-01" purity="4.0964940190315247e-01" nType="-99"/>
          <Node pos="r" depth="2" NCoef="0" IVar="-1" Cut="0.0000000000000000e+00" cType="1" res="-1.2852238724008203e-03" rms="3.8093268871307373e-01" purity="1.9403502345085144e-01" nType="-99"/>
        </Node>
      </Node>
    </BinaryTree>
    <BinaryTree type="DecisionTree" boostWeight="1.0000000000000000e+00" itree="631">
      <Node pos="s" depth="0" NCoef="0" IVar="0" Cut="4.1447293013334274e-02" cType="1" res="3.6257805186323822e-04" rms="4.4695779681205750e-01" purity="4.9917986989021301e-01" nType="0">
        <Node pos="l" depth="1" NCoef="0" IVar="6" Cut="9.5528858900070190e-01" cType="1" res="-1.5094231814146042e-02" rms="4.3447780609130859e-01" purity="3.5652142763137817e-01" nType="0">
          <Node pos="l" depth="2" NCoef="0" IVar="-1" Cut="0.0000000000000000e+00" cType="1" res="-4.2754145397339016e-05" rms="4.5794185996055603e-01" purity="4.5091247558593750e-01" nType="-99"/>
          <Node pos="r" depth="2" NCoef="0" IVar="-1" Cut="0.0000000000000000e+00" cType="1" res="-1.6627969453111291e-03" rms="4.0971642732620239e-01" purity="2.6405405998229980e-01" nType="-99"/>
        </Node>
        <Node pos="r" depth="1" NCoef="0" IVar="8" Cut="1.3781547546386719e+00" cType="1" res="2.3554693907499313e-03" rms="4.4850283861160278e-01" purity="5.1757323741912842e-01" nType="0">
          <Node pos="l" depth="2" NCoef="0" IVar="-1" Cut="0.0000000000000000e+00" cType="1" res="-7.5656169792637229e-04" rms="4.4202709197998047e-01" purity="6.0802286863327026e-01" nType="-99"/>
          <Node pos="r" depth="2" NCoef="0" IVar="-1" Cut="0.0000000000000000e+00" cType="1" res="1.8238848133478314e-04" rms="4.4895571470260620e-01" purity="5.1081597805023193e-01" nType="-99"/>
        </Node>
      </Node>
    </BinaryTree>
    <BinaryTree type="DecisionTree" boostWeight="1.0000000000000000e+00" itree="632">
      <Node pos="s" depth="0" NCoef="0" IVar="7" Cut="9.3961186707019806e-02" cType="1" res="-3.6106288898736238e-03" rms="4.4709736108779907e-01" purity="4.9546995759010315e-01" nType="0">
        <Node pos="l" depth="1" NCoef="0" IVar="5" Cut="1.0637475585937500e+03" cType="1" res="-8.4045464172959328e-03" rms="4.4610720872879028e-01" purity="4.5386955142021179e-01" nType="0">
          <Node pos="l" depth="2" NCoef="0" IVar="-1" Cut="0.0000000000000000e+00" cType="1" res="-5.7734100846573710e-04" rms="4.4508948922157288e-01" purity="4.2821541428565979e-01" nType="-99"/>
          <Node pos="r" depth="2" NCoef="0" IVar="-1" Cut="0.0000000000000000e+00" cType="1" res="3.1330465571954846e-04" rms="4.5091110467910767e-01" purity="5.8329147100448608e-01" nType="-99"/>
        </Node>
        <Node pos="r" depth="1" NCoef="0" IVar="1" Cut="1.2958248853683472e+00" cType="1" res="2.9971082694828510e-03" rms="4.4837456941604614e-01" purity="5.5281013250350952e-01" nType="0">
          <Node pos="l" depth="2" NCoef="0" IVar="-1" Cut="0.0000000000000000e+00" cType="1" res="-1.9991490262327716e-05" rms="4.4892811775207520e-01" purity="5.8539295196533203e-01" nType="-99"/>
          <Node pos="r" depth="2" NCoef="0" IVar="-1" Cut="0.0000000000000000e+00" cType="1" res="8.6679164087399840e-04" rms="4.4578292965888977e-01" purity="4.1712182760238647e-01" nType="-99"/>
        </Node>
      </Node>
    </BinaryTree>
    <BinaryTree type="DecisionTree" boostWeight="1.0000000000000000e+00" itree="633">
      <Node pos="s" depth="0" NCoef="0" IVar="3" Cut="1.2093714475631714e+00" cType="1" res="7.9596799332648516e-04" rms="4.4828239083290100e-01" purity="5.0025010108947754e-01" nType="0">
        <Node pos="l" depth="1" NCoef="0" IVar="7" Cut="1.7805461585521698e-01" cType="1" res="-4.0202788077294827e-03" rms="4.4957897067070007e-01" purity="5.5321091413497925e-01" nType="0">
          <Node pos="l" depth="2" NCoef="0" IVar="-1" Cut="0.0000000000000000e+00" cType="1" res="-3.8703597965650260e-04" rms="4.5051923394203186e-01" purity="5.3971028327941895e-01" nType="-99"/>
          <Node pos="r" depth="2" NCoef="0" IVar="-1" Cut="0.0000000000000000e+00" cType="1" res="9.3048589769750834e-04" rms="4.4331070780754089e-01" purity="6.3286948204040527e-01" nType="-99"/>
        </Node>
        <Node pos="r" depth="1" NCoef="0" IVar="1" Cut="1.1682454347610474e+00" cType="1" res="8.0053824931383133e-03" rms="4.4623738527297974e-01" purity="4.2097342014312744e-01" nType="0">
          <Node pos="l" depth="2" NCoef="0" IVar="-1" Cut="0.0000000000000000e+00" cType="1" res="-2.4593860143795609e-04" rms="4.5999893546104431e-01" purity="5.1939821243286133e-01" nType="-99"/>
          <Node pos="r" depth="2" NCoef="0" IVar="-1" Cut="0.0000000000000000e+00" cType="1" res="8.2958431448787451e-04" rms="4.3803054094314575e-01" purity="3.6491659283638000e-01" nType="-99"/>
        </Node>
      </Node>
    </BinaryTree>
    <BinaryTree type="DecisionTree" boostWeight="1.0000000000000000e+00" itree="634">
      <Node pos="s" depth="0" NCoef="0" IVar="8" Cut="2.9491078853607178e+00" cType="1" res="-8.4253662498667836e-04" rms="4.4714149832725525e-01" purity="4.9850204586982727e-01" nType="0">
        <Node pos="l" depth="1" NCoef="0" IVar="3" Cut="2.3164482116699219e+00" cType="1" res="5.1864731358364224e-04" rms="4.5072349905967712e-01" purity="5.1502060890197754e-01" nType="0">
          <Node pos="l" depth="2" NCoef="0" IVar="-1" Cut="0.0000000000000000e+00" cType="1" res="-6.6982225689571351e-05" rms="4.5157781243324280e-01" purity="5.3004240989685059e-01" nType="-99"/>
          <Node pos="r" depth="2" NCoef="0" IVar="-1" Cut="0.0000000000000000e+00" cType="1" res="9.8606431856751442e-04" rms="4.4202983379364014e-01" purity="3.7082618474960327e-01" nType="-99"/>
        </Node>
        <Node pos="r" depth="1" NCoef="0" IVar="-1" Cut="0.0000000000000000e+00" cType="1" res="-1.8348171142861247e-03" rms="3.7210822105407715e-01" purity="1.8635778129100800e-01" nType="-99"/>
      </Node>
    </BinaryTree>
    <BinaryTree type="DecisionTree" boostWeight="1.0000000000000000e+00" itree="635">
      <Node pos="s" depth="0" NCoef="0" IVar="1" Cut="5.7843035459518433e-01" cType="1" res="-3.1029249075800180e-03" rms="4.4647723436355591e-01" purity="4.9734914302825928e-01" nType="0">
        <Node pos="l" depth="1" NCoef="0" IVar="-1" Cut="0.0000000000000000e+00" cType="1" res="1.5067512867972255e-03" rms="4.2532747983932495e-01" purity="7.0023840665817261e-01" nType="-99"/>
        <Node pos="r" depth="1" NCoef="0" IVar="5" Cut="4.4662194824218750e+02" cType="1" res="-4.9122385680675507e-03" rms="4.4756764173507690e-01" purity="4.8594495654106140e-01" nType="0">
          <Node pos="l" depth="2" NCoef="0" IVar="-1" Cut="0.0000000000000000e+00" cType="1" res="-1.6955786850303411e-03" rms="4.2436414957046509e-01" purity="3.3513730764389038e-01" nType="-99"/>
          <Node pos="r" depth="2" NCoef="0" IVar="-1" Cut="0.0000000000000000e+00" cType="1" res="-1.4305765216704458e-04" rms="4.4923511147499084e-01" purity="4.9752441048622131e-01" nType="-99"/>
        </Node>
      </Node>
    </BinaryTree>
    <BinaryTree type="DecisionTree" boostWeight="1.0000000000000000e+00" itree="636">
      <Node pos="s" depth="0" NCoef="0" IVar="8" Cut="2.9305057525634766e+00" cType="1" res="2.4954315740615129e-03" rms="4.4563129544258118e-01" purity="5.0364899635314941e-01" nType="0">
        <Node pos="l" depth="1" NCoef="0" IVar="6" Cut="1.2140914201736450e+00" cType="1" res="3.8951872847974300e-03" rms="4.4915795326232910e-01" purity="5.2137297391891479e-01" nType="0">
          <Node pos="l" depth="2" NCoef="0" IVar="-1" Cut="0.0000000000000000e+00" cType="1" res="-1.0674404620658606e-05" rms="4.4923588633537292e-01" purity="5.7070660591125488e-01" nType="-99"/>
          <Node pos="r" depth="2" NCoef="0" IVar="-1" Cut="0.0000000000000000e+00" cType="1" res="7.2148634353652596e-04" rms="4.4879007339477539e-01" purity="3.9595788717269897e-01" nType="-99"/>
        </Node>
        <Node pos="r" depth="1" NCoef="0" IVar="-1" Cut="0.0000000000000000e+00" cType="1" res="-1.4524464495480061e-03" rms="3.7888434529304504e-01" purity="1.9800600409507751e-01" nType="-99"/>
      </Node>
    </BinaryTree>
    <BinaryTree type="DecisionTree" boostWeight="1.0000000000000000e+00" itree="637">
      <Node pos="s" depth="0" NCoef="0" IVar="5" Cut="4.3574542236328125e+02" cType="1" res="-3.2681666780263186e-03" rms="4.4715613126754761e-01" purity="4.9764016270637512e-01" nType="0">
        <Node pos="l" depth="1" NCoef="0" IVar="-1" Cut="0.0000000000000000e+00" cType="1" res="-1.7633117968216538e-03" rms="4.1933840513229370e-01" purity="3.3622226119041443e-01" nType="-99"/>
        <Node pos="r" depth="1" NCoef="0" IVar="8" Cut="2.1414680480957031e+00" cType="1" res="-1.5432689106091857e-03" rms="4.4868308305740356e-01" purity="5.0715845823287964e-01" nType="0">
          <Node pos="l" depth="2" NCoef="0" IVar="-1" Cut="0.0000000000000000e+00" cType="1" res="2.2700804402120411e-04" rms="4.5106250047683716e-01" purity="5.8671206235885620e-01" nType="-99"/>
          <Node pos="r" depth="2" NCoef="0" IVar="-1" Cut="0.0000000000000000e+00" cType="1" res="-3.0778191285207868e-04" rms="4.4685652852058411e-01" purity="4.4818967580795288e-01" nType="-99"/>
        </Node>
      </Node>
    </BinaryTree>
    <BinaryTree type="DecisionTree" boostWeight="1.0000000000000000e+00" itree="638">
      <Node pos="s" depth="0" NCoef="0" IVar="3" Cut="2.1634843945503235e-01" cType="1" res="-3.1548505648970604e-04" rms="4.4578284025192261e-01" purity="4.9910762906074524e-01" nType="0">
        <Node pos="l" depth="1" NCoef="0" IVar="-1" Cut="0.0000000000000000e+00" cType="1" res="1.2373318895697594e-03" rms="4.3864971399307251e-01" purity="6.1493432521820068e-01" nType="-99"/>
        <Node pos="r" depth="1" NCoef="0" IVar="1" Cut="1.2186379432678223e+00" cType="1" res="-2.0534803625196218e-03" rms="4.4621533155441284e-01" purity="4.9116089940071106e-01" nType="0">
          <Node pos="l" depth="2" NCoef="0" IVar="-1" Cut="0.0000000000000000e+00" cType="1" res="-3.6585712223313749e-04" rms="4.5159533619880676e-01" purity="5.6785851716995239e-01" nType="-99"/>
          <Node pos="r" depth="2" NCoef="0" IVar="-1" Cut="0.0000000000000000e+00" cType="1" res="2.9017042834311724e-04" rms="4.3839487433433533e-01" purity="3.8289371132850647e-01" nType="-99"/>
        </Node>
      </Node>
    </BinaryTree>
    <BinaryTree type="DecisionTree" boostWeight="1.0000000000000000e+00" itree="639">
      <Node pos="s" depth="0" NCoef="0" IVar="7" Cut="4.2825736105442047e-02" cType="1" res="2.2826276835985482e-04" rms="4.4631502032279968e-01" purity="5.0097042322158813e-01" nType="0">
        <Node pos="l" depth="1" NCoef="0" IVar="5" Cut="1.0351534423828125e+03" cType="1" res="-9.0690609067678452e-03" rms="4.4156879186630249e-01" purity="4.2938601970672607e-01" nType="0">
          <Node pos="l" depth="2" NCoef="0" IVar="-1" Cut="0.0000000000000000e+00" cType="1" res="-7.9283182276412845e-04" rms="4.3673875927925110e-01" purity="3.8564512133598328e-01" nType="-99"/>
          <Node pos="r" depth="2" NCoef="0" IVar="-1" Cut="0.0000000000000000e+00" cType="1" res="4.3904912308789790e-04" rms="4.5507475733757019e-01" purity="5.5882275104522705e-01" nType="-99"/>
        </Node>
        <Node pos="r" depth="1" NCoef="0" IVar="8" Cut="1.6314759254455566e+00" cType="1" res="2.9713385738432407e-03" rms="4.4766885042190552e-01" purity="5.2209061384201050e-01" nType="0">
          <Node pos="l" depth="2" NCoef="0" IVar="-1" Cut="0.0000000000000000e+00" cType="1" res="8.1134022912010550e-04" rms="4.3676882982254028e-01" purity="6.2504160404205322e-01" nType="-99"/>
          <Node pos="r" depth="2" NCoef="0" IVar="-1" Cut="0.0000000000000000e+00" cType="1" res="4.8928723117569461e-05" rms="4.4925111532211304e-01" purity="5.0661146640777588e-01" nType="-99"/>
        </Node>
      </Node>
    </BinaryTree>
    <BinaryTree type="DecisionTree" boostWeight="1.0000000000000000e+00" itree="640">
      <Node pos="s" depth="0" NCoef="0" IVar="8" Cut="2.8918104171752930e+00" cType="1" res="1.9919087644666433e-03" rms="4.4447869062423706e-01" purity="5.0268572568893433e-01" nType="0">
        <Node pos="l" depth="1" NCoef="0" IVar="1" Cut="7.7998340129852295e-01" cType="1" res="4.0101753547787666e-03" rms="4.4877514243125916e-01" purity="5.2284276485443115e-01" nType="0">
          <Node pos="l" depth="2" NCoef="0" IVar="-1" Cut="0.0000000000000000e+00" cType="1" res="8.3615380572155118e-04" rms="4.3341523408889771e-01" purity="6.6590803861618042e-01" nType="-99"/>
          <Node pos="r" depth="2" NCoef="0" IVar="-1" Cut="0.0000000000000000e+00" cType="1" res="5.4185547924134880e-05" rms="4.5221018791198730e-01" purity="4.8969361186027527e-01" nType="-99"/>
        </Node>
        <Node pos="r" depth="1" NCoef="0" IVar="-1" Cut="0.0000000000000000e+00" cType="1" res="-1.9331227522343397e-03" rms="3.7125092744827271e-01" purity="1.9428521394729614e-01" nType="-99"/>
      </Node>
    </BinaryTree>
    <BinaryTree type="DecisionTree" boostWeight="1.0000000000000000e+00" itree="641">
      <Node pos="s" depth="0" NCoef="0" IVar="4" Cut="5.1816350221633911e-01" cType="1" res="-1.7152640502899885e-03" rms="4.4675076007843018e-01" purity="4.9930042028427124e-01" nType="0">
        <Node pos="l" depth="1" NCoef="0" IVar="-1" Cut="0.0000000000000000e+00" cType="1" res="-1.3378894655033946e-03" rms="4.2311519384384155e-01" purity="2.9010334610939026e-01" nType="-99"/>
        <Node pos="r" depth="1" NCoef="0" IVar="0" Cut="3.6678570508956909e-01" cType="1" res="3.2678488059900701e-04" rms="4.4874343276023865e-01" purity="5.1797467470169067e-01" nType="0">
          <Node pos="l" depth="2" NCoef="0" IVar="-1" Cut="0.0000000000000000e+00" cType="1" res="-9.3226022727321833e-05" rms="4.5303377509117126e-01" purity="4.8656773567199707e-01" nType="-99"/>
          <Node pos="r" depth="2" NCoef="0" IVar="-1" Cut="0.0000000000000000e+00" cType="1" res="7.6022843131795526e-04" rms="4.2080613970756531e-01" purity="7.1337121725082397e-01" nType="-99"/>
        </Node>
      </Node>
    </BinaryTree>
    <BinaryTree type="DecisionTree" boostWeight="1.0000000000000000e+00" itree="642">
      <Node pos="s" depth="0" NCoef="0" IVar="7" Cut="1.4474850893020630e-01" cType="1" res="-7.3956802953034639e-04" rms="4.4684246182441711e-01" purity="4.9841007590293884e-01" nType="0">
        <Node pos="l" depth="1" NCoef="0" IVar="2" Cut="6.6470450162887573e-01" cType="1" res="-3.8451917935162783e-03" rms="4.4703504443168640e-01" purity="4.7504010796546936e-01" nType="0">
          <Node pos="l" depth="2" NCoef="0" IVar="-1" Cut="0.0000000000000000e+00" cType="1" res="-1.6541330842301250e-03" rms="4.0773001313209534e-01" purity="2.5222831964492798e-01" nType="-99"/>
          <Node pos="r" depth="2" NCoef="0" IVar="-1" Cut="0.0000000000000000e+00" cType="1" res="-7.6107193308416754e-05" rms="4.5048704743385315e-01" purity="4.9599957466125488e-01" nType="-99"/>
        </Node>
        <Node pos="r" depth="1" NCoef="0" IVar="8" Cut="1.8892542123794556e+00" cType="1" res="1.0988420806825161e-02" rms="4.4591945409774780e-01" purity="5.8666408061981201e-01" nType="0">
          <Node pos="l" depth="2" NCoef="0" IVar="-1" Cut="0.0000000000000000e+00" cType="1" res="1.3593501644209027e-03" rms="4.3815332651138306e-01" purity="6.5404713153839111e-01" nType="-99"/>
          <Node pos="r" depth="2" NCoef="0" IVar="-1" Cut="0.0000000000000000e+00" cType="1" res="2.6959719252772629e-04" rms="4.4845798611640930e-01" purity="5.6322354078292847e-01" nType="-99"/>
        </Node>
      </Node>
    </BinaryTree>
    <BinaryTree type="DecisionTree" boostWeight="1.0000000000000000e+00" itree="643">
      <Node pos="s" depth="0" NCoef="0" IVar="5" Cut="1.2140200195312500e+03" cType="1" res="6.3514802604913712e-04" rms="4.4590663909912109e-01" purity="5.0087332725524902e-01" nType="0">
        <Node pos="l" depth="1" NCoef="0" IVar="4" Cut="5.1815807819366455e-01" cType="1" res="-1.2381783453747630e-03" rms="4.4539329409599304e-01" purity="4.9149388074874878e-01" nType="0">
          <Node pos="l" depth="2" NCoef="0" IVar="-1" Cut="0.0000000000000000e+00" cType="1" res="-1.2663045199587941e-03" rms="4.1724935173988342e-01" purity="2.8057122230529785e-01" nType="-99"/>
          <Node pos="r" depth="2" NCoef="0" IVar="-1" Cut="0.0000000000000000e+00" cType="1" res="3.3128100767498836e-05" rms="4.4775286316871643e-01" purity="5.1018875837326050e-01" nType="-99"/>
        </Node>
        <Node pos="r" depth="1" NCoef="0" IVar="-1" Cut="0.0000000000000000e+00" cType="1" res="1.2117235455662012e-03" rms="4.5183095335960388e-01" purity="6.2304383516311646e-01" nType="-99"/>
      </Node>
    </BinaryTree>
    <BinaryTree type="DecisionTree" boostWeight="1.0000000000000000e+00" itree="644">
      <Node pos="s" depth="0" NCoef="0" IVar="7" Cut="8.8519021868705750e-02" cType="1" res="9.4450375763699412e-04" rms="4.4769313931465149e-01" purity="5.0177854299545288e-01" nType="0">
        <Node pos="l" depth="1" NCoef="0" IVar="2" Cut="6.8829703330993652e-01" cType="1" res="-5.3322543390095234e-03" rms="4.4611608982086182e-01" purity="4.5616590976715088e-01" nType="0">
          <Node pos="l" depth="2" NCoef="0" IVar="-1" Cut="0.0000000000000000e+00" cType="1" res="-1.7553876386955380e-03" rms="4.0926373004913330e-01" purity="2.5025025010108948e-01" nType="-99"/>
          <Node pos="r" depth="2" NCoef="0" IVar="-1" Cut="0.0000000000000000e+00" cType="1" res="-1.0543381358729675e-04" rms="4.5055973529815674e-01" purity="4.8278012871742249e-01" nType="-99"/>
        </Node>
        <Node pos="r" depth="1" NCoef="0" IVar="2" Cut="7.2442674636840820e-01" cType="1" res="8.4958039224147797e-03" rms="4.4946694374084473e-01" purity="5.5665314197540283e-01" nType="0">
          <Node pos="l" depth="2" NCoef="0" IVar="-1" Cut="0.0000000000000000e+00" cType="1" res="2.2618442308157682e-03" rms="4.5000299811363220e-01" purity="3.8625949621200562e-01" nType="-99"/>
          <Node pos="r" depth="2" NCoef="0" IVar="-1" Cut="0.0000000000000000e+00" cType="1" res="1.7640410806052387e-04" rms="4.4917103648185730e-01" purity="5.8032649755477905e-01" nType="-99"/>
        </Node>
      </Node>
    </BinaryTree>
    <BinaryTree type="DecisionTree" boostWeight="1.0000000000000000e+00" itree="645">
      <Node pos="s" depth="0" NCoef="0" IVar="0" Cut="5.5594824254512787e-02" cType="1" res="1.2287042336538434e-03" rms="4.4680052995681763e-01" purity="5.0104349851608276e-01" nType="0">
        <Node pos="l" depth="1" NCoef="0" IVar="6" Cut="7.9579287767410278e-01" cType="1" res="-1.2111281976103783e-02" rms="4.3943476676940918e-01" purity="3.6558794975280762e-01" nType="0">
          <Node pos="l" depth="2" NCoef="0" IVar="-1" Cut="0.0000000000000000e+00" cType="1" res="-1.0920246131718159e-03" rms="4.5645338296890259e-01" purity="4.4304853677749634e-01" nType="-99"/>
          <Node pos="r" depth="2" NCoef="0" IVar="-1" Cut="0.0000000000000000e+00" cType="1" res="-2.8301050770096481e-04" rms="4.2831587791442871e-01" purity="3.1720554828643799e-01" nType="-99"/>
        </Node>
        <Node pos="r" depth="1" NCoef="0" IVar="2" Cut="7.3661470413208008e-01" cType="1" res="4.4902400113642216e-03" rms="4.4852265715599060e-01" purity="5.3416144847869873e-01" nType="0">
          <Node pos="l" depth="2" NCoef="0" IVar="-1" Cut="0.0000000000000000e+00" cType="1" res="9.3950779410079122e-04" rms="4.4652420282363892e-01" purity="3.6450344324111938e-01" nType="-99"/>
          <Node pos="r" depth="2" NCoef="0" IVar="-1" Cut="0.0000000000000000e+00" cType="1" res="1.0046239185612649e-04" rms="4.4883394241333008e-01" purity="5.6440973281860352e-01" nType="-99"/>
        </Node>
      </Node>
    </BinaryTree>
    <BinaryTree type="DecisionTree" boostWeight="1.0000000000000000e+00" itree="646">
      <Node pos="s" depth="0" NCoef="0" IVar="8" Cut="2.1145393848419189e+00" cType="1" res="3.1386713963001966e-03" rms="4.4692739844322205e-01" purity="5.0385791063308716e-01" nType="0">
        <Node pos="l" depth="1" NCoef="0" IVar="2" Cut="9.2775905132293701e-01" cType="1" res="1.0901276953518391e-02" rms="4.4773998856544495e-01" purity="5.8386015892028809e-01" nType="0">
          <Node pos="l" depth="2" NCoef="0" IVar="-1" Cut="0.0000000000000000e+00" cType="1" res="1.3823443441651762e-04" rms="4.6286544203758240e-01" purity="4.8538076877593994e-01" nType="-99"/>
          <Node pos="r" depth="2" NCoef="0" IVar="-1" Cut="0.0000000000000000e+00" cType="1" res="9.2934985877946019e-04" rms="4.3314051628112793e-01" purity="6.7500299215316772e-01" nType="-99"/>
        </Node>
        <Node pos="r" depth="1" NCoef="0" IVar="6" Cut="2.0231671333312988e+00" cType="1" res="-1.6633566701784730e-03" rms="4.4635638594627380e-01" purity="4.5436775684356689e-01" nType="0">
          <Node pos="l" depth="2" NCoef="0" IVar="-1" Cut="0.0000000000000000e+00" cType="1" res="4.4761978642782196e-05" rms="4.5269715785980225e-01" purity="4.7921606898307800e-01" nType="-99"/>
          <Node pos="r" depth="2" NCoef="0" IVar="-1" Cut="0.0000000000000000e+00" cType="1" res="-2.1139148157089949e-03" rms="3.6717855930328369e-01" purity="1.7750059068202972e-01" nType="-99"/>
        </Node>
      </Node>
    </BinaryTree>
    <BinaryTree type="DecisionTree" boostWeight="1.0000000000000000e+00" itree="647">
      <Node pos="s" depth="0" NCoef="0" IVar="7" Cut="2.1793300285935402e-02" cType="1" res="-6.6457263892516494e-04" rms="4.4535416364669800e-01" purity="4.9961844086647034e-01" nType="0">
        <Node pos="l" depth="1" NCoef="0" IVar="-1" Cut="0.0000000000000000e+00" cType="1" res="-1.2777665397152305e-03" rms="4.4358882308006287e-01" purity="4.0359970927238464e-01" nType="-99"/>
        <Node pos="r" depth="1" NCoef="0" IVar="0" Cut="3.3849287033081055e-01" cType="1" res="1.3655900256708264e-03" rms="4.4544053077697754e-01" purity="5.0760817527770996e-01" nType="0">
          <Node pos="l" depth="2" NCoef="0" IVar="-1" Cut="0.0000000000000000e+00" cType="1" res="-5.8998233726015314e-05" rms="4.4907468557357788e-01" purity="4.6916931867599487e-01" nType="-99"/>
          <Node pos="r" depth="2" NCoef="0" IVar="-1" Cut="0.0000000000000000e+00" cType="1" res="7.4516359018161893e-04" rms="4.2663088440895081e-01" purity="6.9926267862319946e-01" nType="-99"/>
        </Node>
      </Node>
    </BinaryTree>
    <BinaryTree type="DecisionTree" boostWeight="1.0000000000000000e+00" itree="648">
      <Node pos="s" depth="0" NCoef="0" IVar="4" Cut="5.5423164367675781e-01" cType="1" res="1.7097266390919685e-03" rms="4.4749060273170471e-01" purity="5.0223392248153687e-01" nType="0">
        <Node pos="l" depth="1" NCoef="0" IVar="5" Cut="8.5715264892578125e+02" cType="1" res="-1.2181191705167294e-02" rms="4.3106597661972046e-01" purity="3.1511804461479187e-01" nType="0">
          <Node pos="l" depth="2" NCoef="0" IVar="-1" Cut="0.0000000000000000e+00" cType="1" res="-1.0361621389165521e-03" rms="4.1888910531997681e-01" purity="2.8296947479248047e-01" nType="-99"/>
          <Node pos="r" depth="2" NCoef="0" IVar="-1" Cut="0.0000000000000000e+00" cType="1" res="3.0884199077263474e-04" rms="4.6473780274391174e-01" purity="4.1025912761688232e-01" nType="-99"/>
        </Node>
        <Node pos="r" depth="1" NCoef="0" IVar="7" Cut="3.1373236328363419e-02" cType="1" res="5.1549398340284824e-03" rms="4.5140561461448669e-01" purity="5.4864227771759033e-01" nType="0">
          <Node pos="l" depth="2" NCoef="0" IVar="-1" Cut="0.0000000000000000e+00" cType="1" res="-4.4433635775931180e-04" rms="4.5239672064781189e-01" purity="4.5886996388435364e-01" nType="-99"/>
          <Node pos="r" depth="2" NCoef="0" IVar="-1" Cut="0.0000000000000000e+00" cType="1" res="3.6584422923624516e-04" rms="4.5120438933372498e-01" purity="5.6309676170349121e-01" nType="-99"/>
        </Node>
      </Node>
    </BinaryTree>
    <BinaryTree type="DecisionTree" boostWeight="1.0000000000000000e+00" itree="649">
      <Node pos="s" depth="0" NCoef="0" IVar="3" Cut="2.7978830337524414e+00" cType="1" res="-1.7342960927635431e-03" rms="4.4586092233657837e-01" purity="5.0117415189743042e-01" nType="0">
        <Node pos="l" depth="1" NCoef="0" IVar="1" Cut="1.1599152088165283e+00" cType="1" res="2.6521994732320309e-04" rms="4.4817021489143372e-01" purity="5.1478195190429688e-01" nType="0">
          <Node pos="l" depth="2" NCoef="0" IVar="-1" Cut="0.0000000000000000e+00" cType="1" res="-2.8874387498944998e-04" rms="4.4936540722846985e-01" purity="5.8852565288543701e-01" nType="-99"/>
          <Node pos="r" depth="2" NCoef="0" IVar="-1" Cut="0.0000000000000000e+00" cType="1" res="4.1349438834004104e-04" rms="4.4649115204811096e-01" purity="4.1921067237854004e-01" nType="-99"/>
        </Node>
        <Node pos="r" depth="1" NCoef="0" IVar="-1" Cut="0.0000000000000000e+00" cType="1" res="-2.0881879609078169e-03" rms="4.0275782346725464e-01" purity="2.6825812458992004e-01" nType="-99"/>
      </Node>
    </BinaryTree>
    <BinaryTree type="DecisionTree" boostWeight="1.0000000000000000e+00" itree="650">
      <Node pos="s" depth="0" NCoef="0" IVar="8" Cut="1.6671065092086792e+00" cType="1" res="7.3145411442965269e-04" rms="4.4595527648925781e-01" purity="5.0115400552749634e-01" nType="0">
        <Node pos="l" depth="1" NCoef="0" IVar="5" Cut="6.7348681640625000e+02" cType="1" res="1.6707895323634148e-02" rms="4.4217407703399658e-01" purity="6.1575865745544434e-01" nType="0">
          <Node pos="l" depth="2" NCoef="0" IVar="-1" Cut="0.0000000000000000e+00" cType="1" res="-3.2659486168995500e-04" rms="4.4619071483612061e-01" purity="5.3450435400009155e-01" nType="-99"/>
          <Node pos="r" depth="2" NCoef="0" IVar="-1" Cut="0.0000000000000000e+00" cType="1" res="1.6060195630416274e-03" rms="4.3872201442718506e-01" purity="6.7091131210327148e-01" nType="-99"/>
        </Node>
        <Node pos="r" depth="1" NCoef="0" IVar="4" Cut="9.3927043676376343e-01" cType="1" res="-1.9991586450487375e-03" rms="4.4654113054275513e-01" purity="4.8156630992889404e-01" nType="0">
          <Node pos="l" depth="2" NCoef="0" IVar="-1" Cut="0.0000000000000000e+00" cType="1" res="-2.2155177430249751e-04" rms="4.5009833574295044e-01" purity="4.5182085037231445e-01" nType="-99"/>
          <Node pos="r" depth="2" NCoef="0" IVar="-1" Cut="0.0000000000000000e+00" cType="1" res="1.0719965212047100e-03" rms="4.1300749778747559e-01" purity="7.4548155069351196e-01" nType="-99"/>
        </Node>
      </Node>
    </BinaryTree>
    <BinaryTree type="DecisionTree" boostWeight="1.0000000000000000e+00" itree="651">
      <Node pos="s" depth="0" NCoef="0" IVar="0" Cut="3.6675712466239929e-01" cType="1" res="-1.5872359508648515e-03" rms="4.4589585065841675e-01" purity="5.0123411417007446e-01" nType="0">
        <Node pos="l" depth="1" NCoef="0" IVar="5" Cut="5.3476428222656250e+02" cType="1" res="-4.1164560243487358e-03" rms="4.4922342896461487e-01" purity="4.6951195597648621e-01" nType="0">
          <Node pos="l" depth="2" NCoef="0" IVar="-1" Cut="0.0000000000000000e+00" cType="1" res="-8.9755177032202482e-04" rms="4.3463245034217834e-01" purity="3.6648005247116089e-01" nType="-99"/>
          <Node pos="r" depth="2" NCoef="0" IVar="-1" Cut="0.0000000000000000e+00" cType="1" res="-1.6182293620659038e-05" rms="4.5336049795150757e-01" purity="4.9984732270240784e-01" nType="-99"/>
        </Node>
        <Node pos="r" depth="1" NCoef="0" IVar="2" Cut="8.9241337776184082e-01" cType="1" res="1.4423292130231857e-02" rms="4.2387640476226807e-01" purity="7.0204192399978638e-01" nType="0">
          <Node pos="l" depth="2" NCoef="0" IVar="-1" Cut="0.0000000000000000e+00" cType="1" res="-4.4067488488508388e-05" rms="4.6359980106353760e-01" purity="5.9182447195053101e-01" nType="-99"/>
          <Node pos="r" depth="2" NCoef="0" IVar="-1" Cut="0.0000000000000000e+00" cType="1" res="1.3576908968389034e-03" rms="3.9807701110839844e-01" purity="7.6763999462127686e-01" nType="-99"/>
        </Node>
      </Node>
    </BinaryTree>
    <BinaryTree type="DecisionTree" boostWeight="1.0000000000000000e+00" itree="652">
      <Node pos="s" depth="0" NCoef="0" IVar="2" Cut="8.0771768093109131e-01" cType="1" res="-2.2478057071566582e-03" rms="4.4497597217559814e-01" purity="4.9970743060112000e-01" nType="0">
        <Node pos="l" depth="1" NCoef="0" IVar="8" Cut="2.1073052883148193e+00" cType="1" res="-1.7310567200183868e-02" rms="4.3484589457511902e-01" purity="3.2704490423202515e-01" nType="0">
          <Node pos="l" depth="2" NCoef="0" IVar="-1" Cut="0.0000000000000000e+00" cType="1" res="-7.2274298872798681e-05" rms="4.6143236756324768e-01" purity="4.0545278787612915e-01" nType="-99"/>
          <Node pos="r" depth="2" NCoef="0" IVar="-1" Cut="0.0000000000000000e+00" cType="1" res="-1.4375218888744712e-03" rms="4.1965392231941223e-01" purity="2.8500643372535706e-01" nType="-99"/>
        </Node>
        <Node pos="r" depth="1" NCoef="0" IVar="8" Cut="1.6625719070434570e+00" cType="1" res="2.4798568338155746e-03" rms="4.4800379872322083e-01" purity="5.5390006303787231e-01" nType="0">
          <Node pos="l" depth="2" NCoef="0" IVar="-1" Cut="0.0000000000000000e+00" cType="1" res="8.9881278108805418e-04" rms="4.3640992045402527e-01" purity="6.6198414564132690e-01" nType="-99"/>
          <Node pos="r" depth="2" NCoef="0" IVar="-1" Cut="0.0000000000000000e+00" cType="1" res="-8.3798549894709140e-06" rms="4.4992062449455261e-01" purity="5.3525477647781372e-01" nType="-99"/>
        </Node>
      </Node>
    </BinaryTree>
    <BinaryTree type="DecisionTree" boostWeight="1.0000000000000000e+00" itree="653">
      <Node pos="s" depth="0" NCoef="0" IVar="1" Cut="1.7519220113754272e+00" cType="1" res="2.4595492868684232e-04" rms="4.4743657112121582e-01" purity="4.9846664071083069e-01" nType="0">
        <Node pos="l" depth="1" NCoef="0" IVar="7" Cut="2.1097996830940247e-01" cType="1" res="1.4526622835546732e-03" rms="4.5029860734939575e-01" purity="5.1287710666656494e-01" nType="0">
          <Node pos="l" depth="2" NCoef="0" IVar="-1" Cut="0.0000000000000000e+00" cType="1" res="2.8956421829207102e-06" rms="4.5022848248481750e-01" purity="5.0483453273773193e-01" nType="-99"/>
          <Node pos="r" depth="2" NCoef="0" IVar="-1" Cut="0.0000000000000000e+00" cType="1" res="9.2094071442261338e-04" rms="4.5080658793449402e-01" purity="6.1108356714248657e-01" nType="-99"/>
        </Node>
        <Node pos="r" depth="1" NCoef="0" IVar="-1" Cut="0.0000000000000000e+00" cType="1" res="-1.2726092245429754e-03" rms="3.9330238103866577e-01" purity="2.4585697054862976e-01" nType="-99"/>
      </Node>
    </BinaryTree>
    <BinaryTree type="DecisionTree" boostWeight="1.0000000000000000e+00" itree="654">
      <Node pos="s" depth="0" NCoef="0" IVar="0" Cut="4.1449841111898422e-02" cType="1" res="2.1455090027302504e-03" rms="4.4631838798522949e-01" purity="5.0333243608474731e-01" nType="0">
        <Node pos="l" depth="1" NCoef="0" IVar="2" Cut="9.1591489315032959e-01" cType="1" res="-2.2117257118225098e-02" rms="4.3523338437080383e-01" purity="3.4863752126693726e-01" nType="0">
          <Node pos="l" depth="2" NCoef="0" IVar="-1" Cut="0.0000000000000000e+00" cType="1" res="-7.5553869828581810e-04" rms="4.1458550095558167e-01" purity="2.6632863283157349e-01" nType="-99"/>
          <Node pos="r" depth="2" NCoef="0" IVar="-1" Cut="0.0000000000000000e+00" cType="1" res="-1.4512379420921206e-03" rms="4.5309311151504517e-01" purity="4.2370462417602539e-01" nType="-99"/>
        </Node>
        <Node pos="r" depth="1" NCoef="0" IVar="8" Cut="1.6774531602859497e+00" cType="1" res="5.3295958787202835e-03" rms="4.4765511155128479e-01" purity="5.2363359928131104e-01" nType="0">
          <Node pos="l" depth="2" NCoef="0" IVar="-1" Cut="0.0000000000000000e+00" cType="1" res="9.5245620468631387e-04" rms="4.4007185101509094e-01" purity="6.3102751970291138e-01" nType="-99"/>
          <Node pos="r" depth="2" NCoef="0" IVar="-1" Cut="0.0000000000000000e+00" cType="1" res="1.4462941908277571e-04" rms="4.4893425703048706e-01" purity="5.0471091270446777e-01" nType="-99"/>
        </Node>
      </Node>
    </BinaryTree>
    <BinaryTree type="DecisionTree" boostWeight="1.0000000000000000e+00" itree="655">
      <Node pos="s" depth="0" NCoef="0" IVar="3" Cut="4.3249854445457458e-01" cType="1" res="1.5587988309562206e-03" rms="4.4617012143135071e-01" purity="5.0278288125991821e-01" nType="0">
        <Node pos="l" depth="1" NCoef="0" IVar="8" Cut="2.2774105072021484e+00" cType="1" res="1.6740910708904266e-02" rms="4.3949377536773682e-01" purity="6.0495686531066895e-01" nType="0">
          <Node pos="l" depth="2" NCoef="0" IVar="-1" Cut="0.0000000000000000e+00" cType="1" res="1.1684485943987966e-03" rms="4.3573829531669617e-01" purity="6.5021401643753052e-01" nType="-99"/>
          <Node pos="r" depth="2" NCoef="0" IVar="-1" Cut="0.0000000000000000e+00" cType="1" res="6.0889919950568583e-06" rms="4.4835814833641052e-01" purity="4.9127817153930664e-01" nType="-99"/>
        </Node>
        <Node pos="r" depth="1" NCoef="0" IVar="1" Cut="1.1624627113342285e+00" cType="1" res="-1.7719481838867068e-03" rms="4.4755262136459351e-01" purity="4.8036736249923706e-01" nType="0">
          <Node pos="l" depth="2" NCoef="0" IVar="-1" Cut="0.0000000000000000e+00" cType="1" res="-3.8099766243249178e-04" rms="4.5311298966407776e-01" purity="5.7069194316864014e-01" nType="-99"/>
          <Node pos="r" depth="2" NCoef="0" IVar="-1" Cut="0.0000000000000000e+00" cType="1" res="2.1895264217164367e-04" rms="4.4185471534729004e-01" purity="3.9026606082916260e-01" nType="-99"/>
        </Node>
      </Node>
    </BinaryTree>
    <BinaryTree type="DecisionTree" boostWeight="1.0000000000000000e+00" itree="656">
      <Node pos="s" depth="0" NCoef="0" IVar="8" Cut="2.8023583889007568e+00" cType="1" res="1.9412533147260547e-03" rms="4.4665232300758362e-01" purity="5.0120365619659424e-01" nType="0">
        <Node pos="l" depth="1" NCoef="0" IVar="2" Cut="6.3930064439773560e-01" cType="1" res="3.8676902186125517e-03" rms="4.5177909731864929e-01" purity="5.2801787853240967e-01" nType="0">
          <Node pos="l" depth="2" NCoef="0" IVar="-1" Cut="0.0000000000000000e+00" cType="1" res="-9.4015774084255099e-04" rms="4.2554992437362671e-01" purity="2.8182414174079895e-01" nType="-99"/>
          <Node pos="r" depth="2" NCoef="0" IVar="-1" Cut="0.0000000000000000e+00" cType="1" res="2.5444477796554565e-04" rms="4.5337831974029541e-01" purity="5.4382729530334473e-01" nType="-99"/>
        </Node>
        <Node pos="r" depth="1" NCoef="0" IVar="-1" Cut="0.0000000000000000e+00" cType="1" res="-1.1758841574192047e-03" rms="3.8808527588844299e-01" purity="2.1921612322330475e-01" nType="-99"/>
      </Node>
    </BinaryTree>
    <BinaryTree type="DecisionTree" boostWeight="1.0000000000000000e+00" itree="657">
      <Node pos="s" depth="0" NCoef="0" IVar="5" Cut="6.8232287597656250e+02" cType="1" res="2.8853544499725103e-03" rms="4.4585213065147400e-01" purity="5.0319069623947144e-01" nType="0">
        <Node pos="l" depth="1" NCoef="0" IVar="7" Cut="1.4828139543533325e-01" cType="1" res="-5.5505549535155296e-03" rms="4.4033330678939819e-01" purity="4.4523289799690247e-01" nType="0">
          <Node pos="l" depth="2" NCoef="0" IVar="-1" Cut="0.0000000000000000e+00" cType="1" res="-6.2695320229977369e-04" rms="4.3756121397018433e-01" purity="4.0439882874488831e-01" nType="-99"/>
          <Node pos="r" depth="2" NCoef="0" IVar="-1" Cut="0.0000000000000000e+00" cType="1" res="5.9724837774410844e-04" rms="4.4725415110588074e-01" purity="5.5547797679901123e-01" nType="-99"/>
        </Node>
        <Node pos="r" depth="1" NCoef="0" IVar="1" Cut="1.2235804796218872e+00" cType="1" res="1.1391296051442623e-02" rms="4.5118877291679382e-01" purity="5.6162959337234497e-01" nType="0">
          <Node pos="l" depth="2" NCoef="0" IVar="-1" Cut="0.0000000000000000e+00" cType="1" res="2.0908046280965209e-04" rms="4.4739127159118652e-01" purity="6.2288671731948853e-01" nType="-99"/>
          <Node pos="r" depth="2" NCoef="0" IVar="-1" Cut="0.0000000000000000e+00" cType="1" res="1.1162098962813616e-03" rms="4.5703023672103882e-01" purity="4.6251890063285828e-01" nType="-99"/>
        </Node>
      </Node>
    </BinaryTree>
    <BinaryTree type="DecisionTree" boostWeight="1.0000000000000000e+00" itree="658">
      <Node pos="s" depth="0" NCoef="0" IVar="3" Cut="2.8515279293060303e+00" cType="1" res="4.8529577907174826e-04" rms="4.4635805487632751e-01" purity="5.0035917758941650e-01" nType="0">
        <Node pos="l" depth="1" NCoef="0" IVar="1" Cut="1.1838409900665283e+00" cType="1" res="1.8354575149714947e-03" rms="4.4847950339317322e-01" purity="5.1269930601119995e-01" nType="0">
          <Node pos="l" depth="2" NCoef="0" IVar="-1" Cut="0.0000000000000000e+00" cType="1" res="-1.8207954417448491e-04" rms="4.5083254575729370e-01" purity="5.8397501707077026e-01" nType="-99"/>
          <Node pos="r" depth="2" NCoef="0" IVar="-1" Cut="0.0000000000000000e+00" cType="1" res="4.9408921040594578e-04" rms="4.4498735666275024e-01" purity="4.1117852926254272e-01" nType="-99"/>
        </Node>
        <Node pos="r" depth="1" NCoef="0" IVar="-1" Cut="0.0000000000000000e+00" cType="1" res="-1.3673192588612437e-03" rms="4.0579044818878174e-01" purity="2.7964496612548828e-01" nType="-99"/>
      </Node>
    </BinaryTree>
    <BinaryTree type="DecisionTree" boostWeight="1.0000000000000000e+00" itree="659">
      <Node pos="s" depth="0" NCoef="0" IVar="1" Cut="5.8302444219589233e-01" cType="1" res="-1.0610325261950493e-03" rms="4.4602015614509583e-01" purity="4.9947825074195862e-01" nType="0">
        <Node pos="l" depth="1" NCoef="0" IVar="-1" Cut="0.0000000000000000e+00" cType="1" res="1.1826287955045700e-03" rms="4.2527157068252563e-01" purity="6.9567829370498657e-01" nType="-99"/>
        <Node pos="r" depth="1" NCoef="0" IVar="7" Cut="7.4112161993980408e-02" cType="1" res="-2.4433853104710579e-03" rms="4.4716474413871765e-01" purity="4.8800748586654663e-01" nType="0">
          <Node pos="l" depth="2" NCoef="0" IVar="-1" Cut="0.0000000000000000e+00" cType="1" res="-4.3776800157502294e-04" rms="4.4396343827247620e-01" purity="4.3929582834243774e-01" nType="-99"/>
          <Node pos="r" depth="2" NCoef="0" IVar="-1" Cut="0.0000000000000000e+00" cType="1" res="1.4516417286358774e-04" rms="4.4986280798912048e-01" purity="5.3038930892944336e-01" nType="-99"/>
        </Node>
      </Node>
    </BinaryTree>
    <BinaryTree type="DecisionTree" boostWeight="1.0000000000000000e+00" itree="660">
      <Node pos="s" depth="0" NCoef="0" IVar="8" Cut="1.6573820114135742e+00" cType="1" res="2.6186634786427021e-03" rms="4.4575479626655579e-01" purity="5.0238692760467529e-01" nType="0">
        <Node pos="l" depth="1" NCoef="0" IVar="2" Cut="9.0369749069213867e-01" cType="1" res="1.9479630514979362e-02" rms="4.4507685303688049e-01" purity="6.1569982767105103e-01" nType="0">
          <Node pos="l" depth="2" NCoef="0" IVar="-1" Cut="0.0000000000000000e+00" cType="1" res="1.8404125003144145e-03" rms="4.6262970566749573e-01" purity="5.3348112106323242e-01" nType="-99"/>
          <Node pos="r" depth="2" NCoef="0" IVar="-1" Cut="0.0000000000000000e+00" cType="1" res="2.5760993594303727e-04" rms="4.3150284886360168e-01" purity="6.7450791597366333e-01" nType="-99"/>
        </Node>
        <Node pos="r" depth="1" NCoef="0" IVar="6" Cut="3.8240906596183777e-01" cType="1" res="-1.6106880502775311e-04" rms="4.4580522179603577e-01" purity="4.8370593786239624e-01" nType="0">
          <Node pos="l" depth="2" NCoef="0" IVar="-1" Cut="0.0000000000000000e+00" cType="1" res="1.0981269879266620e-03" rms="4.3835279345512390e-01" purity="6.2677150964736938e-01" nType="-99"/>
          <Node pos="r" depth="2" NCoef="0" IVar="-1" Cut="0.0000000000000000e+00" cType="1" res="-1.1312108836136758e-04" rms="4.4644400477409363e-01" purity="4.7022765874862671e-01" nType="-99"/>
        </Node>
      </Node>
    </BinaryTree>
    <BinaryTree type="DecisionTree" boostWeight="1.0000000000000000e+00" itree="661">
      <Node pos="s" depth="0" NCoef="0" IVar="4" Cut="5.9035688638687134e-01" cType="1" res="-3.5384257789701223e-03" rms="4.4707256555557251e-01" purity="4.9688726663589478e-01" nType="0">
        <Node pos="l" depth="1" NCoef="0" IVar="0" Cut="2.6777055859565735e-01" cType="1" res="-1.1394485831260681e-02" rms="4.4041579961776733e-01" purity="3.2937389612197876e-01" nType="0">
          <Node pos="l" depth="2" NCoef="0" IVar="-1" Cut="0.0000000000000000e+00" cType="1" res="-3.6794767947867513e-04" rms="4.2949944734573364e-01" purity="2.8049999475479126e-01" nType="-99"/>
          <Node pos="r" depth="2" NCoef="0" IVar="-1" Cut="0.0000000000000000e+00" cType="1" res="-1.2238490162417293e-03" rms="4.7396436333656311e-01" purity="4.8887610435485840e-01" nType="-99"/>
        </Node>
        <Node pos="r" depth="1" NCoef="0" IVar="1" Cut="6.6370630264282227e-01" cType="1" res="-3.0755472835153341e-04" rms="4.4974181056022644e-01" purity="5.6577855348587036e-01" nType="0">
          <Node pos="l" depth="2" NCoef="0" IVar="-1" Cut="0.0000000000000000e+00" cType="1" res="1.2516014976426959e-03" rms="4.1351512074470520e-01" purity="7.4477684497833252e-01" nType="-99"/>
          <Node pos="r" depth="2" NCoef="0" IVar="-1" Cut="0.0000000000000000e+00" cType="1" res="-1.3865689106751233e-04" rms="4.5343548059463501e-01" purity="5.4630851745605469e-01" nType="-99"/>
        </Node>
      </Node>
    </BinaryTree>
    <BinaryTree type="DecisionTree" boostWeight="1.0000000000000000e+00" itree="662">
      <Node pos="s" depth="0" NCoef="0" IVar="0" Cut="3.6677032709121704e-01" cType="1" res="9.2580326600000262e-04" rms="4.4744485616683960e-01" purity="5.0099045038223267e-01" nType="0">
        <Node pos="l" depth="1" NCoef="0" IVar="2" Cut="8.3174860477447510e-01" cType="1" res="-1.3327309861779213e-03" rms="4.5030465722084045e-01" purity="4.6992066502571106e-01" nType="0">
          <Node pos="l" depth="2" NCoef="0" IVar="-1" Cut="0.0000000000000000e+00" cType="1" res="4.4246652396395802e-04" rms="4.4016239047050476e-01" purity="3.3289819955825806e-01" nType="-99"/>
          <Node pos="r" depth="2" NCoef="0" IVar="-1" Cut="0.0000000000000000e+00" cType="1" res="-2.5160331279039383e-04" rms="4.5422664284706116e-01" purity="5.2453029155731201e-01" nType="-99"/>
        </Node>
        <Node pos="r" depth="1" NCoef="0" IVar="6" Cut="9.8903703689575195e-01" cType="1" res="1.5378027223050594e-02" rms="4.2841193079948425e-01" purity="6.9980436563491821e-01" nType="0">
          <Node pos="l" depth="2" NCoef="0" IVar="-1" Cut="0.0000000000000000e+00" cType="1" res="1.9539764616638422e-04" rms="4.0622156858444214e-01" purity="7.6486325263977051e-01" nType="-99"/>
          <Node pos="r" depth="2" NCoef="0" IVar="-1" Cut="0.0000000000000000e+00" cType="1" res="1.4343523653224111e-03" rms="4.5398050546646118e-01" purity="6.1913496255874634e-01" nType="-99"/>
        </Node>
      </Node>
    </BinaryTree>
    <BinaryTree type="DecisionTree" boostWeight="1.0000000000000000e+00" itree="663">
      <Node pos="s" depth="0" NCoef="0" IVar="5" Cut="4.4746398925781250e+02" cType="1" res="-3.9694863371551037e-03" rms="4.4618609547615051e-01" purity="4.9757328629493713e-01" nType="0">
        <Node pos="l" depth="1" NCoef="0" IVar="-1" Cut="0.0000000000000000e+00" cType="1" res="-1.5436101239174604e-03" rms="4.1563600301742554e-01" purity="3.5048496723175049e-01" nType="-99"/>
        <Node pos="r" depth="1" NCoef="0" IVar="8" Cut="1.3282127380371094e+00" cType="1" res="-2.0922382827848196e-03" rms="4.4834971427917480e-01" purity="5.0866651535034180e-01" nType="0">
          <Node pos="l" depth="2" NCoef="0" IVar="-1" Cut="0.0000000000000000e+00" cType="1" res="9.7631470998749137e-04" rms="4.4262859225273132e-01" purity="6.4485490322113037e-01" nType="-99"/>
          <Node pos="r" depth="2" NCoef="0" IVar="-1" Cut="0.0000000000000000e+00" cType="1" res="-1.7360658966936171e-04" rms="4.4867661595344543e-01" purity="4.9997952580451965e-01" nType="-99"/>
        </Node>
      </Node>
    </BinaryTree>
    <BinaryTree type="DecisionTree" boostWeight="1.0000000000000000e+00" itree="664">
      <Node pos="s" depth="0" NCoef="0" IVar="1" Cut="9.0182518959045410e-01" cType="1" res="-2.2984702081885189e-04" rms="4.4636669754981995e-01" purity="4.9937570095062256e-01" nType="0">
        <Node pos="l" depth="1" NCoef="0" IVar="3" Cut="5.9494566917419434e-01" cType="1" res="1.1448879726231098e-02" rms="4.4145873188972473e-01" purity="6.4559412002563477e-01" nType="0">
          <Node pos="l" depth="2" NCoef="0" IVar="-1" Cut="0.0000000000000000e+00" cType="1" res="1.2977612204849720e-03" rms="4.2779153585433960e-01" purity="6.8173432350158691e-01" nType="-99"/>
          <Node pos="r" depth="2" NCoef="0" IVar="-1" Cut="0.0000000000000000e+00" cType="1" res="-6.8827343966404442e-06" rms="4.5215225219726562e-01" purity="6.1562353372573853e-01" nType="-99"/>
        </Node>
        <Node pos="r" depth="1" NCoef="0" IVar="8" Cut="2.9287891387939453e+00" cType="1" res="-4.8882891424000263e-03" rms="4.4822451472282410e-01" purity="4.4105175137519836e-01" nType="0">
          <Node pos="l" depth="2" NCoef="0" IVar="-1" Cut="0.0000000000000000e+00" cType="1" res="-1.3608811423182487e-04" rms="4.5396631956100464e-01" purity="4.6208244562149048e-01" nType="-99"/>
          <Node pos="r" depth="2" NCoef="0" IVar="-1" Cut="0.0000000000000000e+00" cType="1" res="-2.1408374886959791e-03" rms="3.6932712793350220e-01" purity="1.8217457830905914e-01" nType="-99"/>
        </Node>
      </Node>
    </BinaryTree>
    <BinaryTree type="DecisionTree" boostWeight="1.0000000000000000e+00" itree="665">
      <Node pos="s" depth="0" NCoef="0" IVar="5" Cut="7.3588391113281250e+02" cType="1" res="-1.9232321064919233e-03" rms="4.4582924246788025e-01" purity="5.0001329183578491e-01" nType="0">
        <Node pos="l" depth="1" NCoef="0" IVar="8" Cut="1.5605822801589966e+00" cType="1" res="-8.1608807668089867e-03" rms="4.4124600291252136e-01" purity="4.5501214265823364e-01" nType="0">
          <Node pos="l" depth="2" NCoef="0" IVar="-1" Cut="0.0000000000000000e+00" cType="1" res="-2.1174880675971508e-03" rms="4.5227009057998657e-01" purity="5.0787407159805298e-01" nType="-99"/>
          <Node pos="r" depth="2" NCoef="0" IVar="-1" Cut="0.0000000000000000e+00" cType="1" res="-2.3604228044860065e-04" rms="4.3994316458702087e-01" purity="4.4957786798477173e-01" nType="-99"/>
        </Node>
        <Node pos="r" depth="1" NCoef="0" IVar="1" Cut="1.1742178201675415e+00" cType="1" res="7.0807361043989658e-03" rms="4.5221149921417236e-01" purity="5.6497186422348022e-01" nType="0">
          <Node pos="l" depth="2" NCoef="0" IVar="-1" Cut="0.0000000000000000e+00" cType="1" res="-8.8431712356396019e-05" rms="4.4710448384284973e-01" purity="6.3059192895889282e-01" nType="-99"/>
          <Node pos="r" depth="2" NCoef="0" IVar="-1" Cut="0.0000000000000000e+00" cType="1" res="8.9657702483236790e-04" rms="4.5851996541023254e-01" purity="4.7951656579971313e-01" nType="-99"/>
        </Node>
      </Node>
    </BinaryTree>
    <BinaryTree type="DecisionTree" boostWeight="1.0000000000000000e+00" itree="666">
      <Node pos="s" depth="0" NCoef="0" IVar="4" Cut="9.6333265304565430e-01" cType="1" res="-2.7050815988332033e-03" rms="4.4715055823326111e-01" purity="4.9588662385940552e-01" nType="0">
        <Node pos="l" depth="1" NCoef="0" IVar="5" Cut="4.5652661132812500e+02" cType="1" res="-4.4665122404694557e-03" rms="4.5004352927207947e-01" purity="4.7739583253860474e-01" nType="0">
          <Node pos="l" depth="2" NCoef="0" IVar="-1" Cut="0.0000000000000000e+00" cType="1" res="-1.4500237302854657e-03" rms="4.2182669043540955e-01" purity="3.2664385437965393e-01" nType="-99"/>
          <Node pos="r" depth="2" NCoef="0" IVar="-1" Cut="0.0000000000000000e+00" cType="1" res="-1.2210654676891863e-04" rms="4.5244872570037842e-01" purity="4.9099051952362061e-01" nType="-99"/>
        </Node>
        <Node pos="r" depth="1" NCoef="0" IVar="-1" Cut="0.0000000000000000e+00" cType="1" res="1.3700692215934396e-03" rms="3.9994621276855469e-01" purity="7.7536720037460327e-01" nType="-99"/>
      </Node>
    </BinaryTree>
    <BinaryTree type="DecisionTree" boostWeight="1.0000000000000000e+00" itree="667">
      <Node pos="s" depth="0" NCoef="0" IVar="3" Cut="2.7965900897979736e+00" cType="1" res="2.3391491267830133e-03" rms="4.4670513272285461e-01" purity="5.0332009792327881e-01" nType="0">
        <Node pos="l" depth="1" NCoef="0" IVar="1" Cut="1.2773606777191162e+00" cType="1" res="3.9701564237475395e-03" rms="4.4850745797157288e-01" purity="5.1635056734085083e-01" nType="0">
          <Node pos="l" depth="2" NCoef="0" IVar="-1" Cut="0.0000000000000000e+00" cType="1" res="2.8287937311688438e-05" rms="4.5177116990089417e-01" purity="5.7368457317352295e-01" nType="-99"/>
          <Node pos="r" depth="2" NCoef="0" IVar="-1" Cut="0.0000000000000000e+00" cType="1" res="5.8012513909488916e-04" rms="4.4132959842681885e-01" purity="3.9323565363883972e-01" nType="-99"/>
        </Node>
        <Node pos="r" depth="1" NCoef="0" IVar="-1" Cut="0.0000000000000000e+00" cType="1" res="-1.5257151098921895e-03" rms="4.1288968920707703e-01" purity="2.7550950646400452e-01" nType="-99"/>
      </Node>
    </BinaryTree>
    <BinaryTree type="DecisionTree" boostWeight="1.0000000000000000e+00" itree="668">
      <Node pos="s" depth="0" NCoef="0" IVar="6" Cut="1.2146465778350830e+00" cType="1" res="1.2315274216234684e-03" rms="4.4693058729171753e-01" purity="5.0173753499984741e-01" nType="0">
        <Node pos="l" depth="1" NCoef="0" IVar="0" Cut="3.1016930937767029e-01" cType="1" res="-3.9740437641739845e-03" rms="4.5026016235351562e-01" purity="5.6542974710464478e-01" nType="0">
          <Node pos="l" depth="2" NCoef="0" IVar="-1" Cut="0.0000000000000000e+00" cType="1" res="-4.0639357757754624e-04" rms="4.5970234274864197e-01" purity="5.1649057865142822e-01" nType="-99"/>
          <Node pos="r" depth="2" NCoef="0" IVar="-1" Cut="0.0000000000000000e+00" cType="1" res="7.3821947444230318e-04" rms="4.1211146116256714e-01" purity="7.5067359209060669e-01" nType="-99"/>
        </Node>
        <Node pos="r" depth="1" NCoef="0" IVar="8" Cut="2.4069557189941406e+00" cType="1" res="1.2299954891204834e-02" rms="4.3956238031387329e-01" purity="3.6631083488464355e-01" nType="0">
          <Node pos="l" depth="2" NCoef="0" IVar="-1" Cut="0.0000000000000000e+00" cType="1" res="1.5644842060282826e-03" rms="4.5770579576492310e-01" purity="4.5921996235847473e-01" nType="-99"/>
          <Node pos="r" depth="2" NCoef="0" IVar="-1" Cut="0.0000000000000000e+00" cType="1" res="2.1241941431071609e-04" rms="4.3144011497497559e-01" purity="3.2730379700660706e-01" nType="-99"/>
        </Node>
      </Node>
    </BinaryTree>
    <BinaryTree type="DecisionTree" boostWeight="1.0000000000000000e+00" itree="669">
      <Node pos="s" depth="0" NCoef="0" IVar="1" Cut="6.8527328968048096e-01" cType="1" res="7.2990293847396970e-04" rms="4.4690817594528198e-01" purity="5.0069057941436768e-01" nType="0">
        <Node pos="l" depth="1" NCoef="0" IVar="6" Cut="5.4255139827728271e-01" cType="1" res="1.9201241433620453e-02" rms="4.2852398753166199e-01" purity="6.8116390705108643e-01" nType="0">
          <Node pos="l" depth="2" NCoef="0" IVar="-1" Cut="0.0000000000000000e+00" cType="1" res="1.7997871618717909e-03" rms="4.1988223791122437e-01" purity="7.0626187324523926e-01" nType="-99"/>
          <Node pos="r" depth="2" NCoef="0" IVar="-1" Cut="0.0000000000000000e+00" cType="1" res="2.0009848230984062e-04" rms="4.3633234500885010e-01" purity="6.5643388032913208e-01" nType="-99"/>
        </Node>
        <Node pos="r" depth="1" NCoef="0" IVar="0" Cut="6.9739811122417450e-02" cType="1" res="-1.4749891124665737e-03" rms="4.4900161027908325e-01" purity="4.7914776206016541e-01" nType="0">
          <Node pos="l" depth="2" NCoef="0" IVar="-1" Cut="0.0000000000000000e+00" cType="1" res="-6.2151008751243353e-04" rms="4.3657055497169495e-01" purity="3.5008087754249573e-01" nType="-99"/>
          <Node pos="r" depth="2" NCoef="0" IVar="-1" Cut="0.0000000000000000e+00" cType="1" res="1.1428284778958187e-04" rms="4.5337995886802673e-01" purity="5.2610349655151367e-01" nType="-99"/>
        </Node>
      </Node>
    </BinaryTree>
    <BinaryTree type="DecisionTree" boostWeight="1.0000000000000000e+00" itree="670">
      <Node pos="s" depth="0" NCoef="0" IVar="5" Cut="1.2023918457031250e+03" cType="1" res="-1.3345290208235383e-03" rms="4.4736215472221375e-01" purity="5.0031316280364990e-01" nType="0">
        <Node pos="l" depth="1" NCoef="0" IVar="7" Cut="2.2350735962390900e-02" cType="1" res="-2.9731956310570240e-03" rms="4.4710615277290344e-01" purity="4.9097278714179993e-01" nType="0">
          <Node pos="l" depth="2" NCoef="0" IVar="-1" Cut="0.0000000000000000e+00" cType="1" res="-1.4600618742406368e-03" rms="4.3727469444274902e-01" purity="3.7224075198173523e-01" nType="-99"/>
          <Node pos="r" depth="2" NCoef="0" IVar="-1" Cut="0.0000000000000000e+00" cType="1" res="-5.8056513807969168e-05" rms="4.4776174426078796e-01" purity="4.9964728951454163e-01" nType="-99"/>
        </Node>
        <Node pos="r" depth="1" NCoef="0" IVar="-1" Cut="0.0000000000000000e+00" cType="1" res="9.7756565082818270e-04" rms="4.5013445615768433e-01" purity="6.2174260616302490e-01" nType="-99"/>
      </Node>
    </BinaryTree>
    <BinaryTree type="DecisionTree" boostWeight="1.0000000000000000e+00" itree="671">
      <Node pos="s" depth="0" NCoef="0" IVar="4" Cut="9.2693424224853516e-01" cType="1" res="-1.0632881458150223e-04" rms="4.4575867056846619e-01" purity="5.0091654062271118e-01" nType="0">
        <Node pos="l" depth="1" NCoef="0" IVar="7" Cut="4.2548928409814835e-02" cType="1" res="-2.2764764726161957e-03" rms="4.5029351115226746e-01" purity="4.6630665659904480e-01" nType="0">
          <Node pos="l" depth="2" NCoef="0" IVar="-1" Cut="0.0000000000000000e+00" cType="1" res="-7.8462669625878334e-04" rms="4.4055208563804626e-01" purity="3.9857694506645203e-01" nType="-99"/>
          <Node pos="r" depth="2" NCoef="0" IVar="-1" Cut="0.0000000000000000e+00" cType="1" res="8.4135615907143801e-05" rms="4.5312985777854919e-01" purity="4.8683980107307434e-01" nType="-99"/>
        </Node>
        <Node pos="r" depth="1" NCoef="0" IVar="2" Cut="9.8944818973541260e-01" cType="1" res="1.5721047297120094e-02" rms="4.1082853078842163e-01" purity="7.5333458185195923e-01" nType="0">
          <Node pos="l" depth="2" NCoef="0" IVar="-1" Cut="0.0000000000000000e+00" cType="1" res="1.4164141612127423e-04" rms="4.2097422480583191e-01" purity="7.3114269971847534e-01" nType="-99"/>
          <Node pos="r" depth="2" NCoef="0" IVar="-1" Cut="0.0000000000000000e+00" cType="1" res="1.6595703782513738e-03" rms="3.9966443181037903e-01" purity="7.7618050575256348e-01" nType="-99"/>
        </Node>
      </Node>
    </BinaryTree>
    <BinaryTree type="DecisionTree" boostWeight="1.0000000000000000e+00" itree="672">
      <Node pos="s" depth="0" NCoef="0" IVar="6" Cut="3.8533672690391541e-01" cType="1" res="1.1903158156201243e-03" rms="4.4746410846710205e-01" purity="5.0208461284637451e-01" nType="0">
        <Node pos="l" depth="1" NCoef="0" IVar="6" Cut="2.7758574485778809e-01" cType="1" res="-1.2561245821416378e-02" rms="4.4769373536109924e-01" purity="5.9704327583312988e-01" nType="0">
          <Node pos="l" depth="2" NCoef="0" IVar="-1" Cut="0.0000000000000000e+00" cType="1" res="-5.2247440908104181e-04" rms="4.5185318589210510e-01" purity="6.0335332155227661e-01" nType="-99"/>
          <Node pos="r" depth="2" NCoef="0" IVar="-1" Cut="0.0000000000000000e+00" cType="1" res="-7.3157594306394458e-04" rms="4.4343051314353943e-01" purity="5.9065109491348267e-01" nType="-99"/>
        </Node>
        <Node pos="r" depth="1" NCoef="0" IVar="0" Cut="3.6675950884819031e-01" cType="1" res="2.7679002378135920e-03" rms="4.4741073250770569e-01" purity="4.9119094014167786e-01" nType="0">
          <Node pos="l" depth="2" NCoef="0" IVar="-1" Cut="0.0000000000000000e+00" cType="1" res="4.2078288970515132e-05" rms="4.5040130615234375e-01" purity="4.5994561910629272e-01" nType="-99"/>
          <Node pos="r" depth="2" NCoef="0" IVar="-1" Cut="0.0000000000000000e+00" cType="1" res="7.8348442912101746e-04" rms="4.2762923240661621e-01" purity="6.9059401750564575e-01" nType="-99"/>
        </Node>
      </Node>
    </BinaryTree>
    <BinaryTree type="DecisionTree" boostWeight="1.0000000000000000e+00" itree="673">
      <Node pos="s" depth="0" NCoef="0" IVar="5" Cut="4.5354470825195312e+02" cType="1" res="-1.1964003788307309e-03" rms="4.4686990976333618e-01" purity="4.9839824438095093e-01" nType="0">
        <Node pos="l" depth="1" NCoef="0" IVar="-1" Cut="0.0000000000000000e+00" cType="1" res="-1.5095087001100183e-03" rms="4.2355948686599731e-01" purity="3.3833578228950500e-01" nType="-99"/>
        <Node pos="r" depth="1" NCoef="0" IVar="0" Cut="1.1217531561851501e-01" cType="1" res="1.1532441712915897e-03" rms="4.4879224896430969e-01" purity="5.1251810789108276e-01" nType="0">
          <Node pos="l" depth="2" NCoef="0" IVar="-1" Cut="0.0000000000000000e+00" cType="1" res="4.7785328933969140e-04" rms="4.5159286260604858e-01" purity="4.1671195626258850e-01" nType="-99"/>
          <Node pos="r" depth="2" NCoef="0" IVar="-1" Cut="0.0000000000000000e+00" cType="1" res="-2.4335972557310015e-04" rms="4.4667005538940430e-01" purity="5.8141225576400757e-01" nType="-99"/>
        </Node>
      </Node>
    </BinaryTree>
    <BinaryTree type="DecisionTree" boostWeight="1.0000000000000000e+00" itree="674">
      <Node pos="s" depth="0" NCoef="0" IVar="1" Cut="1.3574868440628052e+00" cType="1" res="-6.6910521127283573e-04" rms="4.4845375418663025e-01" purity="5.0055301189422607e-01" nType="0">
        <Node pos="l" depth="1" NCoef="0" IVar="1" Cut="7.0265150070190430e-01" cType="1" res="-4.1712676174938679e-03" rms="4.5325660705566406e-01" purity="5.5313509702682495e-01" nType="0">
          <Node pos="l" depth="2" NCoef="0" IVar="-1" Cut="0.0000000000000000e+00" cType="1" res="6.5990519942715764e-04" rms="4.3066403269767761e-01" purity="6.7426216602325439e-01" nType="-99"/>
          <Node pos="r" depth="2" NCoef="0" IVar="-1" Cut="0.0000000000000000e+00" cType="1" res="-3.6474992521107197e-04" rms="4.5749801397323608e-01" purity="5.2929246425628662e-01" nType="-99"/>
        </Node>
        <Node pos="r" depth="1" NCoef="0" IVar="1" Cut="1.5063204765319824e+00" cType="1" res="8.6338128894567490e-03" rms="4.3530181050300598e-01" purity="3.6087712645530701e-01" nType="0">
          <Node pos="l" depth="2" NCoef="0" IVar="-1" Cut="0.0000000000000000e+00" cType="1" res="1.1510745389387012e-03" rms="4.5035657286643982e-01" purity="4.2468041181564331e-01" nType="-99"/>
          <Node pos="r" depth="2" NCoef="0" IVar="-1" Cut="0.0000000000000000e+00" cType="1" res="-5.1507202442735434e-05" rms="4.2464303970336914e-01" purity="3.1810623407363892e-01" nType="-99"/>
        </Node>
      </Node>
    </BinaryTree>
    <BinaryTree type="DecisionTree" boostWeight="1.0000000000000000e+00" itree="675">
      <Node pos="s" depth="0" NCoef="0" IVar="6" Cut="1.2880688905715942e+00" cType="1" res="-4.0839682333171368e-04" rms="4.4818049669265747e-01" purity="5.0109112262725830e-01" nType="0">
        <Node pos="l" depth="1" NCoef="0" IVar="5" Cut="4.5420602416992188e+02" cType="1" res="-4.4380454346537590e-03" rms="4.5203825831413269e-01" purity="5.6092268228530884e-01" nType="0">
          <Node pos="l" depth="2" NCoef="0" IVar="-1" Cut="0.0000000000000000e+00" cType="1" res="-1.5169938560575247e-03" rms="4.4148039817810059e-01" purity="4.1270205378532410e-01" nType="-99"/>
          <Node pos="r" depth="2" NCoef="0" IVar="-1" Cut="0.0000000000000000e+00" cType="1" res="-1.1446941061876714e-04" rms="4.5281106233596802e-01" purity="5.7284200191497803e-01" nType="-99"/>
        </Node>
        <Node pos="r" depth="1" NCoef="0" IVar="7" Cut="7.6465539634227753e-02" cType="1" res="9.9728684872388840e-03" rms="4.3791478872299194e-01" purity="3.4695184230804443e-01" nType="0">
          <Node pos="l" depth="2" NCoef="0" IVar="-1" Cut="0.0000000000000000e+00" cType="1" res="1.0690090130083263e-04" rms="4.2798525094985962e-01" purity="3.1291535496711731e-01" nType="-99"/>
          <Node pos="r" depth="2" NCoef="0" IVar="-1" Cut="0.0000000000000000e+00" cType="1" res="1.0562245734035969e-03" rms="4.5081782341003418e-01" purity="3.9316779375076294e-01" nType="-99"/>
        </Node>
      </Node>
    </BinaryTree>
    <BinaryTree type="DecisionTree" boostWeight="1.0000000000000000e+00" itree="676">
      <Node pos="s" depth="0" NCoef="0" IVar="3" Cut="2.7995686531066895e+00" cType="1" res="2.8204880072735250e-04" rms="4.4697779417037964e-01" purity="5.0030457973480225e-01" nType="0">
        <Node pos="l" depth="1" NCoef="0" IVar="2" Cut="7.2339588403701782e-01" cType="1" res="1.6386117786169052e-03" rms="4.4914668798446655e-01" purity="5.1375335454940796e-01" nType="0">
          <Node pos="l" depth="2" NCoef="0" IVar="-1" Cut="0.0000000000000000e+00" cType="1" res="8.2352559547871351e-04" rms="4.3922352790832520e-01" purity="3.3529767394065857e-01" nType="-99"/>
          <Node pos="r" depth="2" NCoef="0" IVar="-1" Cut="0.0000000000000000e+00" cType="1" res="-2.5980594728025608e-05" rms="4.5065438747406006e-01" purity="5.4191380739212036e-01" nType="-99"/>
        </Node>
        <Node pos="r" depth="1" NCoef="0" IVar="-1" Cut="0.0000000000000000e+00" cType="1" res="-1.3435260625556111e-03" rms="4.0765506029129028e-01" purity="2.7165853977203369e-01" nType="-99"/>
      </Node>
    </BinaryTree>
    <BinaryTree type="DecisionTree" boostWeight="1.0000000000000000e+00" itree="677">
      <Node pos="s" depth="0" NCoef="0" IVar="0" Cut="4.3750938773155212e-01" cType="1" res="3.3924463787116110e-04" rms="4.4821327924728394e-01" purity="5.0025814771652222e-01" nType="0">
        <Node pos="l" depth="1" NCoef="0" IVar="0" Cut="1.9433514773845673e-01" cType="1" res="-1.1403288226574659e-03" rms="4.4980439543724060e-01" purity="4.8692750930786133e-01" nType="0">
          <Node pos="l" depth="2" NCoef="0" IVar="-1" Cut="0.0000000000000000e+00" cType="1" res="1.6847018559928983e-04" rms="4.5108464360237122e-01" purity="4.2966175079345703e-01" nType="-99"/>
          <Node pos="r" depth="2" NCoef="0" IVar="-1" Cut="0.0000000000000000e+00" cType="1" res="-4.9100490286946297e-04" rms="4.4719117879867554e-01" purity="5.9759795665740967e-01" nType="-99"/>
        </Node>
        <Node pos="r" depth="1" NCoef="0" IVar="-1" Cut="0.0000000000000000e+00" cType="1" res="1.3683495344594121e-03" rms="4.1951206326484680e-01" purity="7.2638785839080811e-01" nType="-99"/>
      </Node>
    </BinaryTree>
    <BinaryTree type="DecisionTree" boostWeight="1.0000000000000000e+00" itree="678">
      <Node pos="s" depth="0" NCoef="0" IVar="6" Cut="1.4364682435989380e+00" cType="1" res="-4.0505270590074360e-04" rms="4.4662436842918396e-01" purity="5.0095903873443604e-01" nType="0">
        <Node pos="l" depth="1" NCoef="0" IVar="1" Cut="6.9319176673889160e-01" cType="1" res="-3.8556435611099005e-03" rms="4.5132857561111450e-01" purity="5.4888135194778442e-01" nType="0">
          <Node pos="l" depth="2" NCoef="0" IVar="-1" Cut="0.0000000000000000e+00" cType="1" res="6.8549555726349354e-04" rms="4.3620541691780090e-01" purity="6.7418187856674194e-01" nType="-99"/>
          <Node pos="r" depth="2" NCoef="0" IVar="-1" Cut="0.0000000000000000e+00" cType="1" res="-3.2418244518339634e-04" rms="4.5369464159011841e-01" purity="5.2836096286773682e-01" nType="-99"/>
        </Node>
        <Node pos="r" depth="1" NCoef="0" IVar="4" Cut="6.8638271093368530e-01" cType="1" res="1.2799179181456566e-02" rms="4.2788898944854736e-01" purity="3.1757661700248718e-01" nType="0">
          <Node pos="l" depth="2" NCoef="0" IVar="-1" Cut="0.0000000000000000e+00" cType="1" res="-2.2215374337974936e-04" rms="3.9485380053520203e-01" purity="2.2407734394073486e-01" nType="-99"/>
          <Node pos="r" depth="2" NCoef="0" IVar="-1" Cut="0.0000000000000000e+00" cType="1" res="1.5651236753910780e-03" rms="4.6482285857200623e-01" purity="4.3351131677627563e-01" nType="-99"/>
        </Node>
      </Node>
    </BinaryTree>
    <BinaryTree type="DecisionTree" boostWeight="1.0000000000000000e+00" itree="679">
      <Node pos="s" depth="0" NCoef="0" IVar="6" Cut="8.3207017183303833e-01" cType="1" res="-6.3873379258438945e-04" rms="4.4658309221267700e-01" purity="5.0167500972747803e-01" nType="0">
        <Node pos="l" depth="1" NCoef="0" IVar="6" Cut="6.9406658411026001e-01" cType="1" res="5.7870452292263508e-03" rms="4.4569131731987000e-01" purity="6.0181218385696411e-01" nType="0">
          <Node pos="l" depth="2" NCoef="0" IVar="-1" Cut="0.0000000000000000e+00" cType="1" res="5.8349240134702995e-05" rms="4.4604256749153137e-01" purity="6.0276716947555542e-01" nType="-99"/>
          <Node pos="r" depth="2" NCoef="0" IVar="-1" Cut="0.0000000000000000e+00" cType="1" res="9.3770923558622599e-04" rms="4.4439649581909180e-01" purity="5.9903585910797119e-01" nType="-99"/>
        </Node>
        <Node pos="r" depth="1" NCoef="0" IVar="2" Cut="9.3981373310089111e-01" cType="1" res="-5.3587215952575207e-03" rms="4.4717818498611450e-01" purity="4.2812025547027588e-01" nType="0">
          <Node pos="l" depth="2" NCoef="0" IVar="-1" Cut="0.0000000000000000e+00" cType="1" res="9.0496941993478686e-05" rms="4.4313085079193115e-01" purity="3.6491930484771729e-01" nType="-99"/>
          <Node pos="r" depth="2" NCoef="0" IVar="-1" Cut="0.0000000000000000e+00" cType="1" res="-6.7016697721555829e-04" rms="4.5181056857109070e-01" purity="5.0345879793167114e-01" nType="-99"/>
        </Node>
      </Node>
    </BinaryTree>
    <BinaryTree type="DecisionTree" boostWeight="1.0000000000000000e+00" itree="680">
      <Node pos="s" depth="0" NCoef="0" IVar="7" Cut="2.0977444946765900e-01" cType="1" res="1.1434379266574979e-03" rms="4.4618126749992371e-01" purity="5.0117349624633789e-01" nType="0">
        <Node pos="l" depth="1" NCoef="0" IVar="5" Cut="8.7725891113281250e+02" cType="1" res="-7.2733266279101372e-04" rms="4.4674035906791687e-01" purity="4.9152642488479614e-01" nType="0">
          <Node pos="l" depth="2" NCoef="0" IVar="-1" Cut="0.0000000000000000e+00" cType="1" res="-2.4697344633750618e-04" rms="4.4419810175895691e-01" purity="4.6020543575286865e-01" nType="-99"/>
          <Node pos="r" depth="2" NCoef="0" IVar="-1" Cut="0.0000000000000000e+00" cType="1" res="5.5985763901844621e-04" rms="4.5394158363342285e-01" purity="5.8398288488388062e-01" nType="-99"/>
        </Node>
        <Node pos="r" depth="1" NCoef="0" IVar="-1" Cut="0.0000000000000000e+00" cType="1" res="1.2721875682473183e-03" rms="4.3818822503089905e-01" purity="6.2563997507095337e-01" nType="-99"/>
      </Node>
    </BinaryTree>
    <BinaryTree type="DecisionTree" boostWeight="1.0000000000000000e+00" itree="681">
      <Node pos="s" depth="0" NCoef="0" IVar="7" Cut="1.8883058428764343e-01" cType="1" res="-2.6425303076393902e-04" rms="4.4611150026321411e-01" purity="5.0067710876464844e-01" nType="0">
        <Node pos="l" depth="1" NCoef="0" IVar="4" Cut="8.7880218029022217e-01" cType="1" res="-2.4933624081313610e-03" rms="4.4652700424194336e-01" purity="4.8825141787528992e-01" nType="0">
          <Node pos="l" depth="2" NCoef="0" IVar="-1" Cut="0.0000000000000000e+00" cType="1" res="-2.6074907509610057e-04" rms="4.5200932025909424e-01" purity="4.3380013108253479e-01" nType="-99"/>
          <Node pos="r" depth="2" NCoef="0" IVar="-1" Cut="0.0000000000000000e+00" cType="1" res="5.0021964125335217e-04" rms="4.2196685075759888e-01" purity="7.2211903333663940e-01" nType="-99"/>
        </Node>
        <Node pos="r" depth="1" NCoef="0" IVar="0" Cut="1.4035660028457642e-01" cType="1" res="1.9000636413693428e-02" rms="4.4203612208366394e-01" purity="6.0806572437286377e-01" nType="0">
          <Node pos="l" depth="2" NCoef="0" IVar="-1" Cut="0.0000000000000000e+00" cType="1" res="3.2652827212586999e-04" rms="4.6350702643394470e-01" purity="4.9904346466064453e-01" nType="-99"/>
          <Node pos="r" depth="2" NCoef="0" IVar="-1" Cut="0.0000000000000000e+00" cType="1" res="1.6569852596148849e-03" rms="4.1873288154602051e-01" purity="7.1885168552398682e-01" nType="-99"/>
        </Node>
      </Node>
    </BinaryTree>
    <BinaryTree type="DecisionTree" boostWeight="1.0000000000000000e+00" itree="682">
      <Node pos="s" depth="0" NCoef="0" IVar="0" Cut="1.1217094212770462e-01" cType="1" res="1.2043211609125137e-03" rms="4.4589620828628540e-01" purity="5.0148946046829224e-01" nType="0">
        <Node pos="l" depth="1" NCoef="0" IVar="8" Cut="1.7815016508102417e+00" cType="1" res="-6.6847628913819790e-03" rms="4.4530859589576721e-01" purity="3.9120018482208252e-01" nType="0">
          <Node pos="l" depth="2" NCoef="0" IVar="-1" Cut="0.0000000000000000e+00" cType="1" res="-1.2175294104963541e-03" rms="4.5332434773445129e-01" purity="4.5835494995117188e-01" nType="-99"/>
          <Node pos="r" depth="2" NCoef="0" IVar="-1" Cut="0.0000000000000000e+00" cType="1" res="-1.3932543515693396e-04" rms="4.4350156188011169e-01" purity="3.7708276510238647e-01" nType="-99"/>
        </Node>
        <Node pos="r" depth="1" NCoef="0" IVar="4" Cut="6.1433482170104980e-01" cType="1" res="6.8725720047950745e-03" rms="4.4623187184333801e-01" purity="5.8073151111602783e-01" nType="0">
          <Node pos="l" depth="2" NCoef="0" IVar="-1" Cut="0.0000000000000000e+00" cType="1" res="-2.1223658404778689e-04" rms="4.6153327822685242e-01" purity="4.2021244764328003e-01" nType="-99"/>
          <Node pos="r" depth="2" NCoef="0" IVar="-1" Cut="0.0000000000000000e+00" cType="1" res="6.4064556499943137e-04" rms="4.3816512823104858e-01" purity="6.6204506158828735e-01" nType="-99"/>
        </Node>
      </Node>
    </BinaryTree>
    <BinaryTree type="DecisionTree" boostWeight="1.0000000000000000e+00" itree="683">
      <Node pos="s" depth="0" NCoef="0" IVar="5" Cut="5.0492755126953125e+02" cType="1" res="1.6886700177565217e-03" rms="4.4523024559020996e-01" purity="5.0194483995437622e-01" nType="0">
        <Node pos="l" depth="1" NCoef="0" IVar="5" Cut="4.6585211181640625e+02" cType="1" res="-1.3893195427954197e-02" rms="4.3010547757148743e-01" purity="3.8156482577323914e-01" nType="0">
          <Node pos="l" depth="2" NCoef="0" IVar="-1" Cut="0.0000000000000000e+00" cType="1" res="-1.6607828729320318e-04" rms="4.2991682887077332e-01" purity="3.7658140063285828e-01" nType="-99"/>
          <Node pos="r" depth="2" NCoef="0" IVar="-1" Cut="0.0000000000000000e+00" cType="1" res="-1.5527290524914861e-03" rms="4.2988878488540649e-01" purity="3.8891816139221191e-01" nType="-99"/>
        </Node>
        <Node pos="r" depth="1" NCoef="0" IVar="8" Cut="2.5604834556579590e+00" cType="1" res="4.8185582272708416e-03" rms="4.4814142584800720e-01" purity="5.2612525224685669e-01" nType="0">
          <Node pos="l" depth="2" NCoef="0" IVar="-1" Cut="0.0000000000000000e+00" cType="1" res="3.7103646900504827e-04" rms="4.5147800445556641e-01" purity="5.7024294137954712e-01" nType="-99"/>
          <Node pos="r" depth="2" NCoef="0" IVar="-1" Cut="0.0000000000000000e+00" cType="1" res="-4.7247929614968598e-04" rms="4.3143200874328613e-01" purity="3.1333479285240173e-01" nType="-99"/>
        </Node>
      </Node>
    </BinaryTree>
    <BinaryTree type="DecisionTree" boostWeight="1.0000000000000000e+00" itree="684">
      <Node pos="s" depth="0" NCoef="0" IVar="3" Cut="5.1639717817306519e-01" cType="1" res="4.9522978952154517e-04" rms="4.4624474644660950e-01" purity="5.0123083591461182e-01" nType="0">
        <Node pos="l" depth="1" NCoef="0" IVar="5" Cut="7.5347369384765625e+02" cType="1" res="9.7697395831346512e-03" rms="4.4260480999946594e-01" purity="5.9727901220321655e-01" nType="0">
          <Node pos="l" depth="2" NCoef="0" IVar="-1" Cut="0.0000000000000000e+00" cType="1" res="8.8555784896016121e-04" rms="4.4074168801307678e-01" purity="5.7024616003036499e-01" nType="-99"/>
          <Node pos="r" depth="2" NCoef="0" IVar="-1" Cut="0.0000000000000000e+00" cType="1" res="-6.0006528656231239e-05" rms="4.4486117362976074e-01" purity="6.3361525535583496e-01" nType="-99"/>
        </Node>
        <Node pos="r" depth="1" NCoef="0" IVar="1" Cut="9.7031486034393311e-01" cType="1" res="-2.2870015818625689e-03" rms="4.4729343056678772e-01" purity="4.7241759300231934e-01" nType="0">
          <Node pos="l" depth="2" NCoef="0" IVar="-1" Cut="0.0000000000000000e+00" cType="1" res="-5.6753953685984015e-04" rms="4.5085367560386658e-01" purity="5.9544080495834351e-01" nType="-99"/>
          <Node pos="r" depth="2" NCoef="0" IVar="-1" Cut="0.0000000000000000e+00" cType="1" res="6.9921879912726581e-05" rms="4.4580981135368347e-01" purity="4.2324960231781006e-01" nType="-99"/>
        </Node>
      </Node>
    </BinaryTree>
    <BinaryTree type="DecisionTree" boostWeight="1.0000000000000000e+00" itree="685">
      <Node pos="s" depth="0" NCoef="0" IVar="4" Cut="5.3019028902053833e-01" cType="1" res="-8.6394738173112273e-04" rms="4.4593870639801025e-01" purity="4.9824535846710205e-01" nType="0">
        <Node pos="l" depth="1" NCoef="0" IVar="1" Cut="1.1409288644790649e+00" cType="1" res="-2.0587656646966934e-02" rms="4.2349195480346680e-01" purity="2.9295602440834045e-01" nType="0">
          <Node pos="l" depth="2" NCoef="0" IVar="-1" Cut="0.0000000000000000e+00" cType="1" res="-1.5613094437867403e-03" rms="4.5523920655250549e-01" purity="3.6323213577270508e-01" nType="-99"/>
          <Node pos="r" depth="2" NCoef="0" IVar="-1" Cut="0.0000000000000000e+00" cType="1" res="-6.1380030820146203e-04" rms="3.9184492826461792e-01" purity="2.2858165204524994e-01" nType="-99"/>
        </Node>
        <Node pos="r" depth="1" NCoef="0" IVar="0" Cut="5.5595230311155319e-02" cType="1" res="1.8535880371928215e-03" rms="4.4887551665306091e-01" purity="5.2653014659881592e-01" nType="0">
          <Node pos="l" depth="2" NCoef="0" IVar="-1" Cut="0.0000000000000000e+00" cType="1" res="-4.4311609235592186e-04" rms="4.4634869694709778e-01" purity="3.9154106378555298e-01" nType="-99"/>
          <Node pos="r" depth="2" NCoef="0" IVar="-1" Cut="0.0000000000000000e+00" cType="1" res="2.2187354625202715e-04" rms="4.4945314526557922e-01" purity="5.5958032608032227e-01" nType="-99"/>
        </Node>
      </Node>
    </BinaryTree>
    <BinaryTree type="DecisionTree" boostWeight="1.0000000000000000e+00" itree="686">
      <Node pos="s" depth="0" NCoef="0" IVar="0" Cut="6.9736748933792114e-02" cType="1" res="-2.0454009063541889e-03" rms="4.4637960195541382e-01" purity="4.9629867076873779e-01" nType="0">
        <Node pos="l" depth="1" NCoef="0" IVar="5" Cut="5.5642047119140625e+02" cType="1" res="-1.1048135347664356e-02" rms="4.3848267197608948e-01" purity="3.6696976423263550e-01" nType="0">
          <Node pos="l" depth="2" NCoef="0" IVar="-1" Cut="0.0000000000000000e+00" cType="1" res="-1.2364995200186968e-03" rms="4.1525363922119141e-01" purity="2.8935143351554871e-01" nType="-99"/>
          <Node pos="r" depth="2" NCoef="0" IVar="-1" Cut="0.0000000000000000e+00" cType="1" res="-3.0441654962487519e-04" rms="4.4870850443840027e-01" purity="4.0277791023254395e-01" nType="-99"/>
        </Node>
        <Node pos="r" depth="1" NCoef="0" IVar="1" Cut="1.5853153467178345e+00" cType="1" res="1.1974490480497479e-03" rms="4.4914591312408447e-01" purity="5.4288387298583984e-01" nType="0">
          <Node pos="l" depth="2" NCoef="0" IVar="-1" Cut="0.0000000000000000e+00" cType="1" res="1.6158302605617791e-04" rms="4.5275083184242249e-01" purity="5.7423055171966553e-01" nType="-99"/>
          <Node pos="r" depth="2" NCoef="0" IVar="-1" Cut="0.0000000000000000e+00" cType="1" res="-7.7060435432940722e-04" rms="4.2142456769943237e-01" purity="3.1280070543289185e-01" nType="-99"/>
        </Node>
      </Node>
    </BinaryTree>
    <BinaryTree type="DecisionTree" boostWeight="1.0000000000000000e+00" itree="687">
      <Node pos="s" depth="0" NCoef="0" IVar="6" Cut="1.2106872797012329e+00" cType="1" res="-3.5764963831752539e-04" rms="4.4556102156639099e-01" purity="5.0011414289474487e-01" nType="0">
        <Node pos="l" depth="1" NCoef="0" IVar="5" Cut="5.3789593505859375e+02" cType="1" res="-4.5376215130090714e-03" rms="4.4823560118675232e-01" purity="5.6487071514129639e-01" nType="0">
          <Node pos="l" depth="2" NCoef="0" IVar="-1" Cut="0.0000000000000000e+00" cType="1" res="-1.0268425103276968e-03" rms="4.4858771562576294e-01" purity="4.5929518342018127e-01" nType="-99"/>
          <Node pos="r" depth="2" NCoef="0" IVar="-1" Cut="0.0000000000000000e+00" cType="1" res="-3.7316140151233412e-06" rms="4.4803571701049805e-01" purity="5.9397286176681519e-01" nType="-99"/>
        </Node>
        <Node pos="r" depth="1" NCoef="0" IVar="3" Cut="2.4005048274993896e+00" cType="1" res="8.6400797590613365e-03" rms="4.3961369991302490e-01" purity="3.6072021722793579e-01" nType="0">
          <Node pos="l" depth="2" NCoef="0" IVar="-1" Cut="0.0000000000000000e+00" cType="1" res="6.2697276007384062e-04" rms="4.4806444644927979e-01" purity="3.8647398352622986e-01" nType="-99"/>
          <Node pos="r" depth="2" NCoef="0" IVar="-1" Cut="0.0000000000000000e+00" cType="1" res="-5.7956768432632089e-04" rms="3.9499241113662720e-01" purity="2.3416723310947418e-01" nType="-99"/>
        </Node>
      </Node>
    </BinaryTree>
    <BinaryTree type="DecisionTree" boostWeight="1.0000000000000000e+00" itree="688">
      <Node pos="s" depth="0" NCoef="0" IVar="0" Cut="4.1449315845966339e-02" cType="1" res="7.7614677138626575e-04" rms="4.4679328799247742e-01" purity="5.0039476156234741e-01" nType="0">
        <Node pos="l" depth="1" NCoef="0" IVar="2" Cut="9.1596734523773193e-01" cType="1" res="-1.5268336050212383e-02" rms="4.3140766024589539e-01" purity="3.5335743427276611e-01" nType="0">
          <Node pos="l" depth="2" NCoef="0" IVar="-1" Cut="0.0000000000000000e+00" cType="1" res="-1.8905842443928123e-03" rms="4.0357360243797302e-01" purity="2.4054983258247375e-01" nType="-99"/>
          <Node pos="r" depth="2" NCoef="0" IVar="-1" Cut="0.0000000000000000e+00" cType="1" res="-7.0144403707672609e-07" rms="4.5438715815544128e-01" purity="4.5454630255699158e-01" nType="-99"/>
        </Node>
        <Node pos="r" depth="1" NCoef="0" IVar="1" Cut="1.3729730844497681e+00" cType="1" res="2.8866773936897516e-03" rms="4.4873520731925964e-01" purity="5.1973640918731689e-01" nType="0">
          <Node pos="l" depth="2" NCoef="0" IVar="-1" Cut="0.0000000000000000e+00" cType="1" res="-4.3274325435049832e-05" rms="4.5218715071678162e-01" purity="5.7306021451950073e-01" nType="-99"/>
          <Node pos="r" depth="2" NCoef="0" IVar="-1" Cut="0.0000000000000000e+00" cType="1" res="6.9851829903200269e-04" rms="4.3892699480056763e-01" purity="3.7296852469444275e-01" nType="-99"/>
        </Node>
      </Node>
    </BinaryTree>
    <BinaryTree type="DecisionTree" boostWeight="1.0000000000000000e+00" itree="689">
      <Node pos="s" depth="0" NCoef="0" IVar="8" Cut="1.9254374504089355e+00" cType="1" res="1.1163874296471477e-04" rms="4.4552388787269592e-01" purity="5.0029182434082031e-01" nType="0">
        <Node pos="l" depth="1" NCoef="0" IVar="5" Cut="6.7783489990234375e+02" cType="1" res="1.4125216752290726e-02" rms="4.4316351413726807e-01" purity="5.9479922056198120e-01" nType="0">
          <Node pos="l" depth="2" NCoef="0" IVar="-1" Cut="0.0000000000000000e+00" cType="1" res="3.5246237530373037e-05" rms="4.4792136549949646e-01" purity="5.2716541290283203e-01" nType="-99"/>
          <Node pos="r" depth="2" NCoef="0" IVar="-1" Cut="0.0000000000000000e+00" cType="1" res="1.2380535481497645e-03" rms="4.3893274664878845e-01" purity="6.5007048845291138e-01" nType="-99"/>
        </Node>
        <Node pos="r" depth="1" NCoef="0" IVar="0" Cut="4.1446454823017120e-02" cType="1" res="-4.7023138031363487e-03" rms="4.4623032212257385e-01" purity="4.6782660484313965e-01" nType="0">
          <Node pos="l" depth="2" NCoef="0" IVar="-1" Cut="0.0000000000000000e+00" cType="1" res="-1.1278208112344146e-03" rms="4.2884245514869690e-01" purity="3.2439294457435608e-01" nType="-99"/>
          <Node pos="r" depth="2" NCoef="0" IVar="-1" Cut="0.0000000000000000e+00" cType="1" res="-1.2860290007665753e-04" rms="4.4842627644538879e-01" purity="4.8671877384185791e-01" nType="-99"/>
        </Node>
      </Node>
    </BinaryTree>
    <BinaryTree type="DecisionTree" boostWeight="1.0000000000000000e+00" itree="690">
      <Node pos="s" depth="0" NCoef="0" IVar="8" Cut="2.9287891387939453e+00" cType="1" res="-4.2904606088995934e-03" rms="4.4471412897109985e-01" purity="4.9671536684036255e-01" nType="0">
        <Node pos="l" depth="1" NCoef="0" IVar="7" Cut="5.5998247116804123e-02" cType="1" res="-2.9216650873422623e-03" rms="4.4849473237991333e-01" purity="5.1408231258392334e-01" nType="0">
          <Node pos="l" depth="2" NCoef="0" IVar="-1" Cut="0.0000000000000000e+00" cType="1" res="-5.2402087021619081e-04" rms="4.4844770431518555e-01" purity="4.5930397510528564e-01" nType="-99"/>
          <Node pos="r" depth="2" NCoef="0" IVar="-1" Cut="0.0000000000000000e+00" cType="1" res="2.8220796593814157e-05" rms="4.4847288727760315e-01" purity="5.3910940885543823e-01" nType="-99"/>
        </Node>
        <Node pos="r" depth="1" NCoef="0" IVar="-1" Cut="0.0000000000000000e+00" cType="1" res="-1.9917488098144531e-03" rms="3.6917984485626221e-01" purity="1.8384726345539093e-01" nType="-99"/>
      </Node>
    </BinaryTree>
    <BinaryTree type="DecisionTree" boostWeight="1.0000000000000000e+00" itree="691">
      <Node pos="s" depth="0" NCoef="0" IVar="8" Cut="2.5307905673980713e+00" cType="1" res="1.7144492594525218e-03" rms="4.4693467020988464e-01" purity="5.0207865238189697e-01" nType="0">
        <Node pos="l" depth="1" NCoef="0" IVar="7" Cut="3.1807966530323029e-02" cType="1" res="-8.3303300198167562e-04" rms="4.5101195573806763e-01" purity="5.4523259401321411e-01" nType="0">
          <Node pos="l" depth="2" NCoef="0" IVar="-1" Cut="0.0000000000000000e+00" cType="1" res="-7.0811982732266188e-04" rms="4.5204532146453857e-01" purity="4.7278967499732971e-01" nType="-99"/>
          <Node pos="r" depth="2" NCoef="0" IVar="-1" Cut="0.0000000000000000e+00" cType="1" res="5.8541252656141296e-05" rms="4.5082342624664307e-01" purity="5.5596548318862915e-01" nType="-99"/>
        </Node>
        <Node pos="r" depth="1" NCoef="0" IVar="4" Cut="6.0230743885040283e-01" cType="1" res="1.2133050709962845e-02" rms="4.2970010638237000e-01" purity="3.2558915019035339e-01" nType="0">
          <Node pos="l" depth="2" NCoef="0" IVar="-1" Cut="0.0000000000000000e+00" cType="1" res="-5.3915841272100806e-04" rms="3.8304090499877930e-01" purity="2.0330573618412018e-01" nType="-99"/>
          <Node pos="r" depth="2" NCoef="0" IVar="-1" Cut="0.0000000000000000e+00" cType="1" res="1.1800208594650030e-03" rms="4.5364823937416077e-01" purity="3.9494618773460388e-01" nType="-99"/>
        </Node>
      </Node>
    </BinaryTree>
    <BinaryTree type="DecisionTree" boostWeight="1.0000000000000000e+00" itree="692">
      <Node pos="s" depth="0" NCoef="0" IVar="2" Cut="6.4052712917327881e-01" cType="1" res="3.4091942943632603e-03" rms="4.4707021117210388e-01" purity="5.0311708450317383e-01" nType="0">
        <Node pos="l" depth="1" NCoef="0" IVar="-1" Cut="0.0000000000000000e+00" cType="1" res="-1.2535663554444909e-03" rms="4.0979751944541931e-01" purity="2.5875651836395264e-01" nType="-99"/>
        <Node pos="r" depth="1" NCoef="0" IVar="7" Cut="2.2048883140087128e-02" cType="1" res="5.0785420462489128e-03" rms="4.4939163327217102e-01" purity="5.1938122510910034e-01" nType="0">
          <Node pos="l" depth="2" NCoef="0" IVar="-1" Cut="0.0000000000000000e+00" cType="1" res="-7.5970502803102136e-04" rms="4.4620716571807861e-01" purity="4.2970871925354004e-01" nType="-99"/>
          <Node pos="r" depth="2" NCoef="0" IVar="-1" Cut="0.0000000000000000e+00" cType="1" res="3.3262983197346330e-04" rms="4.4960752129554749e-01" purity="5.2659726142883301e-01" nType="-99"/>
        </Node>
      </Node>
    </BinaryTree>
    <BinaryTree type="DecisionTree" boostWeight="1.0000000000000000e+00" itree="693">
      <Node pos="s" depth="0" NCoef="0" IVar="7" Cut="6.7243888974189758e-02" cType="1" res="-3.7850963417440653e-04" rms="4.4662079215049744e-01" purity="4.9807596206665039e-01" nType="0">
        <Node pos="l" depth="1" NCoef="0" IVar="4" Cut="8.3078140020370483e-01" cType="1" res="-8.1383492797613144e-03" rms="4.4211390614509583e-01" purity="4.4151431322097778e-01" nType="0">
          <Node pos="l" depth="2" NCoef="0" IVar="-1" Cut="0.0000000000000000e+00" cType="1" res="-6.6648668143898249e-04" rms="4.4231772422790527e-01" purity="3.7293785810470581e-01" nType="-99"/>
          <Node pos="r" depth="2" NCoef="0" IVar="-1" Cut="0.0000000000000000e+00" cType="1" res="3.8013505400158465e-04" rms="4.4108629226684570e-01" purity="6.6233962774276733e-01" nType="-99"/>
        </Node>
        <Node pos="r" depth="1" NCoef="0" IVar="3" Cut="1.6845546960830688e+00" cType="1" res="5.1378183998167515e-03" rms="4.4971582293510437e-01" purity="5.3828465938568115e-01" nType="0">
          <Node pos="l" depth="2" NCoef="0" IVar="-1" Cut="0.0000000000000000e+00" cType="1" res="7.9137011198326945e-05" rms="4.5071268081665039e-01" purity="5.6576758623123169e-01" nType="-99"/>
          <Node pos="r" depth="2" NCoef="0" IVar="-1" Cut="0.0000000000000000e+00" cType="1" res="1.0128613794222474e-03" rms="4.4525530934333801e-01" purity="4.2425873875617981e-01" nType="-99"/>
        </Node>
      </Node>
    </BinaryTree>
    <BinaryTree type="DecisionTree" boostWeight="1.0000000000000000e+00" itree="694">
      <Node pos="s" depth="0" NCoef="0" IVar="8" Cut="2.7483069896697998e+00" cType="1" res="1.4944977010600269e-04" rms="4.4533422589302063e-01" purity="5.0093460083007812e-01" nType="0">
        <Node pos="l" depth="1" NCoef="0" IVar="1" Cut="8.4732103347778320e-01" cType="1" res="2.5659864768385887e-03" rms="4.5051881670951843e-01" purity="5.3087234497070312e-01" nType="0">
          <Node pos="l" depth="2" NCoef="0" IVar="-1" Cut="0.0000000000000000e+00" cType="1" res="6.0057151131331921e-04" rms="4.3662285804748535e-01" purity="6.5445083379745483e-01" nType="-99"/>
          <Node pos="r" depth="2" NCoef="0" IVar="-1" Cut="0.0000000000000000e+00" cType="1" res="-3.5371791454963386e-05" rms="4.5526745915412903e-01" purity="4.8733752965927124e-01" nType="-99"/>
        </Node>
        <Node pos="r" depth="1" NCoef="0" IVar="4" Cut="6.5008795261383057e-01" cType="1" res="-2.1488755941390991e-02" rms="3.9523798227310181e-01" purity="2.3286557197570801e-01" nType="0">
          <Node pos="l" depth="2" NCoef="0" IVar="-1" Cut="0.0000000000000000e+00" cType="1" res="-2.1934420801699162e-03" rms="3.5310029983520508e-01" purity="1.6020284593105316e-01" nType="-99"/>
          <Node pos="r" depth="2" NCoef="0" IVar="-1" Cut="0.0000000000000000e+00" cType="1" res="-7.1370328078046441e-04" rms="4.3313381075859070e-01" purity="3.0549398064613342e-01" nType="-99"/>
        </Node>
      </Node>
    </BinaryTree>
    <BinaryTree type="DecisionTree" boostWeight="1.0000000000000000e+00" itree="695">
      <Node pos="s" depth="0" NCoef="0" IVar="2" Cut="6.2856417894363403e-01" cType="1" res="3.1741699785925448e-04" rms="4.4610202312469482e-01" purity="5.0159156322479248e-01" nType="0">
        <Node pos="l" depth="1" NCoef="0" IVar="-1" Cut="0.0000000000000000e+00" cType="1" res="-1.6215823125094175e-03" rms="4.0552183985710144e-01" purity="2.4788556993007660e-01" nType="-99"/>
        <Node pos="r" depth="1" NCoef="0" IVar="5" Cut="1.2665688476562500e+03" cType="1" res="1.8758847145363688e-03" rms="4.4821301102638245e-01" purity="5.1578736305236816e-01" nType="0">
          <Node pos="l" depth="2" NCoef="0" IVar="-1" Cut="0.0000000000000000e+00" cType="1" res="1.2554531167552341e-05" rms="4.4813820719718933e-01" purity="5.0808483362197876e-01" nType="-99"/>
          <Node pos="r" depth="2" NCoef="0" IVar="-1" Cut="0.0000000000000000e+00" cType="1" res="1.3989912113174796e-03" rms="4.4859492778778076e-01" purity="6.4355581998825073e-01" nType="-99"/>
        </Node>
      </Node>
    </BinaryTree>
    <BinaryTree type="DecisionTree" boostWeight="1.0000000000000000e+00" itree="696">
      <Node pos="s" depth="0" NCoef="0" IVar="2" Cut="8.9172273874282837e-01" cType="1" res="-2.2863929625600576e-03" rms="4.4734913110733032e-01" purity="4.9812197685241699e-01" nType="0">
        <Node pos="l" depth="1" NCoef="0" IVar="4" Cut="7.2835278511047363e-01" cType="1" res="-9.1612441465258598e-03" rms="4.4530853629112244e-01" purity="3.7961822748184204e-01" nType="0">
          <Node pos="l" depth="2" NCoef="0" IVar="-1" Cut="0.0000000000000000e+00" cType="1" res="-2.2159541549626738e-04" rms="4.4105216860771179e-01" purity="3.5110393166542053e-01" nType="-99"/>
          <Node pos="r" depth="2" NCoef="0" IVar="-1" Cut="0.0000000000000000e+00" cType="1" res="-1.5369037864729762e-03" rms="4.6446305513381958e-01" purity="5.1636576652526855e-01" nType="-99"/>
        </Node>
        <Node pos="r" depth="1" NCoef="0" IVar="7" Cut="1.2333430349826813e-01" cType="1" res="2.3095984943211079e-03" rms="4.4864937663078308e-01" purity="5.7734441757202148e-01" nType="0">
          <Node pos="l" depth="2" NCoef="0" IVar="-1" Cut="0.0000000000000000e+00" cType="1" res="-1.1715514847310260e-04" rms="4.5060682296752930e-01" purity="5.4578715562820435e-01" nType="-99"/>
          <Node pos="r" depth="2" NCoef="0" IVar="-1" Cut="0.0000000000000000e+00" cType="1" res="6.6633668029680848e-04" rms="4.4393318891525269e-01" purity="6.4983421564102173e-01" nType="-99"/>
        </Node>
      </Node>
    </BinaryTree>
    <BinaryTree type="DecisionTree" boostWeight="1.0000000000000000e+00" itree="697">
      <Node pos="s" depth="0" NCoef="0" IVar="7" Cut="1.7785371840000153e-01" cType="1" res="1.3695647940039635e-03" rms="4.4645580649375916e-01" purity="5.0072437524795532e-01" nType="0">
        <Node pos="l" depth="1" NCoef="0" IVar="0" Cut="5.5594246834516525e-02" cType="1" res="-1.5834376681596041e-03" rms="4.4672542810440063e-01" purity="4.8550575971603394e-01" nType="0">
          <Node pos="l" depth="2" NCoef="0" IVar="-1" Cut="0.0000000000000000e+00" cType="1" res="-8.1786717055365443e-04" rms="4.3023720383644104e-01" purity="3.4202706813812256e-01" nType="-99"/>
          <Node pos="r" depth="2" NCoef="0" IVar="-1" Cut="0.0000000000000000e+00" cType="1" res="8.7773245468270034e-05" rms="4.5053789019584656e-01" purity="5.2002203464508057e-01" nType="-99"/>
        </Node>
        <Node pos="r" depth="1" NCoef="0" IVar="6" Cut="7.6462042331695557e-01" cType="1" res="2.1895786747336388e-02" rms="4.4403466582298279e-01" purity="6.0650867223739624e-01" nType="0">
          <Node pos="l" depth="2" NCoef="0" IVar="-1" Cut="0.0000000000000000e+00" cType="1" res="3.2200000714510679e-04" rms="4.3838360905647278e-01" purity="6.4877969026565552e-01" nType="-99"/>
          <Node pos="r" depth="2" NCoef="0" IVar="-1" Cut="0.0000000000000000e+00" cType="1" res="1.7311566043645144e-03" rms="4.4846495985984802e-01" purity="5.6960183382034302e-01" nType="-99"/>
        </Node>
      </Node>
    </BinaryTree>
    <BinaryTree type="DecisionTree" boostWeight="1.0000000000000000e+00" itree="698">
      <Node pos="s" depth="0" NCoef="0" IVar="6" Cut="1.6599661111831665e+00" cType="1" res="2.4231140560004860e-04" rms="4.4708526134490967e-01" purity="5.0128436088562012e-01" nType="0">
        <Node pos="l" depth="1" NCoef="0" IVar="6" Cut="1.1079417467117310e+00" cType="1" res="2.0190544892102480e-03" rms="4.5266234874725342e-01" purity="5.3880691528320312e-01" nType="0">
          <Node pos="l" depth="2" NCoef="0" IVar="-1" Cut="0.0000000000000000e+00" cType="1" res="-8.0543562944512814e-05" rms="4.5030769705772400e-01" purity="5.7708323001861572e-01" nType="-99"/>
          <Node pos="r" depth="2" NCoef="0" IVar="-1" Cut="0.0000000000000000e+00" cType="1" res="5.2903714822605252e-04" rms="4.5820856094360352e-01" purity="4.4585803151130676e-01" nType="-99"/>
        </Node>
        <Node pos="r" depth="1" NCoef="0" IVar="8" Cut="2.7938568592071533e+00" cType="1" res="-1.1727018281817436e-02" rms="4.0732815861701965e-01" purity="2.4850793182849884e-01" nType="0">
          <Node pos="l" depth="2" NCoef="0" IVar="-1" Cut="0.0000000000000000e+00" cType="1" res="-1.2652358273044229e-03" rms="4.2604917287826538e-01" purity="2.7739623188972473e-01" nType="-99"/>
          <Node pos="r" depth="2" NCoef="0" IVar="-1" Cut="0.0000000000000000e+00" cType="1" res="-2.5201751850545406e-04" rms="3.9363151788711548e-01" purity="2.2847102582454681e-01" nType="-99"/>
        </Node>
      </Node>
    </BinaryTree>
    <BinaryTree type="DecisionTree" boostWeight="1.0000000000000000e+00" itree="699">
      <Node pos="s" depth="0" NCoef="0" IVar="2" Cut="9.7576427459716797e-01" cType="1" res="9.7226229263469577e-04" rms="4.4626277685165405e-01" purity="5.0152492523193359e-01" nType="0">
        <Node pos="l" depth="1" NCoef="0" IVar="8" Cut="1.9165624380111694e+00" cType="1" res="-2.5476622395217419e-03" rms="4.4953656196594238e-01" purity="4.5728933811187744e-01" nType="0">
          <Node pos="l" depth="2" NCoef="0" IVar="-1" Cut="0.0000000000000000e+00" cType="1" res="4.1354546556249261e-04" rms="4.5324051380157471e-01" purity="5.4978471994400024e-01" nType="-99"/>
          <Node pos="r" depth="2" NCoef="0" IVar="-1" Cut="0.0000000000000000e+00" cType="1" res="-3.1042724731378257e-04" rms="4.4828081130981445e-01" purity="4.2756727337837219e-01" nType="-99"/>
        </Node>
        <Node pos="r" depth="1" NCoef="0" IVar="3" Cut="8.0769908428192139e-01" cType="1" res="1.0011387988924980e-02" rms="4.3761384487152100e-01" purity="6.1512130498886108e-01" nType="0">
          <Node pos="l" depth="2" NCoef="0" IVar="-1" Cut="0.0000000000000000e+00" cType="1" res="1.1462743859738111e-03" rms="4.2755341529846191e-01" purity="6.9460386037826538e-01" nType="-99"/>
          <Node pos="r" depth="2" NCoef="0" IVar="-1" Cut="0.0000000000000000e+00" cType="1" res="8.2480422861408442e-05" rms="4.4440579414367676e-01" purity="5.5887848138809204e-01" nType="-99"/>
        </Node>
      </Node>
    </BinaryTree>
    <BinaryTree type="DecisionTree" boostWeight="1.0000000000000000e+00" itree="700">
      <Node pos="s" depth="0" NCoef="0" IVar="1" Cut="5.8257430791854858e-01" cType="1" res="3.9581670425832272e-03" rms="4.4545423984527588e-01" purity="5.0486272573471069e-01" nType="0">
        <Node pos="l" depth="1" NCoef="0" IVar="-1" Cut="0.0000000000000000e+00" cType="1" res="1.7563591245561838e-03" rms="4.2321211099624634e-01" purity="7.0970201492309570e-01" nType="-99"/>
        <Node pos="r" depth="1" NCoef="0" IVar="5" Cut="4.4433236694335938e+02" cType="1" res="2.2399658337235451e-03" rms="4.4664517045021057e-01" purity="4.9302592873573303e-01" nType="0">
          <Node pos="l" depth="2" NCoef="0" IVar="-1" Cut="0.0000000000000000e+00" cType="1" res="-1.2737675569951534e-03" rms="4.1762977838516235e-01" purity="3.3331361413002014e-01" nType="-99"/>
          <Node pos="r" depth="2" NCoef="0" IVar="-1" Cut="0.0000000000000000e+00" cType="1" res="2.0619183487724513e-04" rms="4.4867870211601257e-01" purity="5.0495201349258423e-01" nType="-99"/>
        </Node>
      </Node>
    </BinaryTree>
    <BinaryTree type="DecisionTree" boostWeight="1.0000000000000000e+00" itree="701">
      <Node pos="s" depth="0" NCoef="0" IVar="2" Cut="6.7571055889129639e-01" cType="1" res="4.4958610669709742e-04" rms="4.4694143533706665e-01" purity="5.0376909971237183e-01" nType="0">
        <Node pos="l" depth="1" NCoef="0" IVar="-1" Cut="0.0000000000000000e+00" cType="1" res="-1.0147896828129888e-03" rms="4.2092147469520569e-01" purity="2.7416032552719116e-01" nType="-99"/>
        <Node pos="r" depth="1" NCoef="0" IVar="7" Cut="3.3953431993722916e-02" cType="1" res="2.2566551342606544e-03" rms="4.4939857721328735e-01" purity="5.2653127908706665e-01" nType="0">
          <Node pos="l" depth="2" NCoef="0" IVar="-1" Cut="0.0000000000000000e+00" cType="1" res="-5.3446163656190038e-04" rms="4.4166728854179382e-01" purity="4.4074559211730957e-01" nType="-99"/>
          <Node pos="r" depth="2" NCoef="0" IVar="-1" Cut="0.0000000000000000e+00" cType="1" res="2.2761318541597575e-04" rms="4.5075094699859619e-01" purity="5.4213106632232666e-01" nType="-99"/>
        </Node>
      </Node>
    </BinaryTree>
    <BinaryTree type="DecisionTree" boostWeight="1.0000000000000000e+00" itree="702">
      <Node pos="s" depth="0" NCoef="0" IVar="3" Cut="2.0251931250095367e-01" cType="1" res="1.8450418720021844e-03" rms="4.4737741351127625e-01" purity="5.0210779905319214e-01" nType="0">
        <Node pos="l" depth="1" NCoef="0" IVar="-1" Cut="0.0000000000000000e+00" cType="1" res="1.3981277588754892e-03" rms="4.3925994634628296e-01" purity="6.3510972261428833e-01" nType="-99"/>
        <Node pos="r" depth="1" NCoef="0" IVar="7" Cut="1.1669551581144333e-01" cType="1" res="2.3850437719374895e-04" rms="4.4782045483589172e-01" purity="4.9395313858985901e-01" nType="0">
          <Node pos="l" depth="2" NCoef="0" IVar="-1" Cut="0.0000000000000000e+00" cType="1" res="2.0403404778335243e-04" rms="4.4836542010307312e-01" purity="4.6975809335708618e-01" nType="-99"/>
          <Node pos="r" depth="2" NCoef="0" IVar="-1" Cut="0.0000000000000000e+00" cType="1" res="-4.1863133083097637e-04" rms="4.4646838307380676e-01" purity="5.4854762554168701e-01" nType="-99"/>
        </Node>
      </Node>
    </BinaryTree>
    <BinaryTree type="DecisionTree" boostWeight="1.0000000000000000e+00" itree="703">
      <Node pos="s" depth="0" NCoef="0" IVar="2" Cut="6.8736380338668823e-01" cType="1" res="3.5815353039652109e-03" rms="4.4550555944442749e-01" purity="5.0233680009841919e-01" nType="0">
        <Node pos="l" depth="1" NCoef="0" IVar="1" Cut="1.1776882410049438e+00" cType="1" res="-1.4840511605143547e-02" rms="4.1661980748176575e-01" purity="2.7853667736053467e-01" nType="0">
          <Node pos="l" depth="2" NCoef="0" IVar="-1" Cut="0.0000000000000000e+00" cType="1" res="-1.3323797611519694e-03" rms="4.4652098417282104e-01" purity="3.4609195590019226e-01" nType="-99"/>
          <Node pos="r" depth="2" NCoef="0" IVar="-1" Cut="0.0000000000000000e+00" cType="1" res="-1.9280046399217099e-04" rms="3.8453036546707153e-01" purity="2.1200180053710938e-01" nType="-99"/>
        </Node>
        <Node pos="r" depth="1" NCoef="0" IVar="2" Cut="9.8485839366912842e-01" cType="1" res="5.6684701703488827e-03" rms="4.4861292839050293e-01" purity="5.2768987417221069e-01" nType="0">
          <Node pos="l" depth="2" NCoef="0" IVar="-1" Cut="0.0000000000000000e+00" cType="1" res="1.3758042769040912e-04" rms="4.5392379164695740e-01" purity="4.9673065543174744e-01" nType="-99"/>
          <Node pos="r" depth="2" NCoef="0" IVar="-1" Cut="0.0000000000000000e+00" cType="1" res="7.8363349894061685e-04" rms="4.3021178245544434e-01" purity="6.3136041164398193e-01" nType="-99"/>
        </Node>
      </Node>
    </BinaryTree>
    <BinaryTree type="DecisionTree" boostWeight="1.0000000000000000e+00" itree="704">
      <Node pos="s" depth="0" NCoef="0" IVar="3" Cut="1.2931257486343384e+00" cType="1" res="6.4209234551526606e-05" rms="4.4746610522270203e-01" purity="5.0223863124847412e-01" nType="0">
        <Node pos="l" depth="1" NCoef="0" IVar="1" Cut="1.1537390947341919e+00" cType="1" res="-3.9839427918195724e-03" rms="4.4865775108337402e-01" purity="5.4933279752731323e-01" nType="0">
          <Node pos="l" depth="2" NCoef="0" IVar="-1" Cut="0.0000000000000000e+00" cType="1" res="1.9793266255874187e-04" rms="4.4846010208129883e-01" purity="6.1311340332031250e-01" nType="-99"/>
          <Node pos="r" depth="2" NCoef="0" IVar="-1" Cut="0.0000000000000000e+00" cType="1" res="-9.6475094323977828e-04" rms="4.4863671064376831e-01" purity="4.2594268918037415e-01" nType="-99"/>
        </Node>
        <Node pos="r" depth="1" NCoef="0" IVar="1" Cut="1.0710210800170898e+00" cType="1" res="7.2900820523500443e-03" rms="4.4523969292640686e-01" purity="4.1817641258239746e-01" nType="0">
          <Node pos="l" depth="2" NCoef="0" IVar="-1" Cut="0.0000000000000000e+00" cType="1" res="-7.6097861165180802e-04" rms="4.5673370361328125e-01" purity="5.3002613782882690e-01" nType="-99"/>
          <Node pos="r" depth="2" NCoef="0" IVar="-1" Cut="0.0000000000000000e+00" cType="1" res="7.8185397433117032e-04" rms="4.4116252660751343e-01" purity="3.8166788220405579e-01" nType="-99"/>
        </Node>
      </Node>
    </BinaryTree>
    <BinaryTree type="DecisionTree" boostWeight="1.0000000000000000e+00" itree="705">
      <Node pos="s" depth="0" NCoef="0" IVar="6" Cut="1.8969936370849609e+00" cType="1" res="-9.4179733423516154e-04" rms="4.4632756710052490e-01" purity="5.0098156929016113e-01" nType="0">
        <Node pos="l" depth="1" NCoef="0" IVar="8" Cut="1.6737513542175293e+00" cType="1" res="7.7865878120064735e-04" rms="4.5109602808952332e-01" purity="5.2394294738769531e-01" nType="0">
          <Node pos="l" depth="2" NCoef="0" IVar="-1" Cut="0.0000000000000000e+00" cType="1" res="6.4643606310710311e-04" rms="4.4460085034370422e-01" purity="6.1171710491180420e-01" nType="-99"/>
          <Node pos="r" depth="2" NCoef="0" IVar="-1" Cut="0.0000000000000000e+00" cType="1" res="-7.4833296821452677e-05" rms="4.5227196812629700e-01" purity="5.0741177797317505e-01" nType="-99"/>
        </Node>
        <Node pos="r" depth="1" NCoef="0" IVar="-1" Cut="0.0000000000000000e+00" cType="1" res="-1.6108003910630941e-03" rms="3.7626430392265320e-01" purity="1.9477653503417969e-01" nType="-99"/>
      </Node>
    </BinaryTree>
    <BinaryTree type="DecisionTree" boostWeight="1.0000000000000000e+00" itree="706">
      <Node pos="s" depth="0" NCoef="0" IVar="4" Cut="9.0288913249969482e-01" cType="1" res="-2.4404558353126049e-03" rms="4.4634750485420227e-01" purity="4.9805557727813721e-01" nType="0">
        <Node pos="l" depth="1" NCoef="0" IVar="6" Cut="1.2129212617874146e+00" cType="1" res="-5.1751108840107918e-03" rms="4.5238843560218811e-01" purity="4.5182052254676819e-01" nType="0">
          <Node pos="l" depth="2" NCoef="0" IVar="-1" Cut="0.0000000000000000e+00" cType="1" res="-4.3294642819091678e-04" rms="4.6114069223403931e-01" purity="5.1582729816436768e-01" nType="-99"/>
          <Node pos="r" depth="2" NCoef="0" IVar="-1" Cut="0.0000000000000000e+00" cType="1" res="1.6003643395379186e-04" rms="4.3385425209999084e-01" purity="3.2110875844955444e-01" nType="-99"/>
        </Node>
        <Node pos="r" depth="1" NCoef="0" IVar="5" Cut="7.5411236572265625e+02" cType="1" res="1.2182968668639660e-02" rms="4.1223752498626709e-01" purity="7.4529546499252319e-01" nType="0">
          <Node pos="l" depth="2" NCoef="0" IVar="-1" Cut="0.0000000000000000e+00" cType="1" res="9.8975026048719883e-04" rms="4.1985034942626953e-01" purity="7.2888118028640747e-01" nType="-99"/>
          <Node pos="r" depth="2" NCoef="0" IVar="-1" Cut="0.0000000000000000e+00" cType="1" res="8.7619402620475739e-05" rms="3.9904510974884033e-01" purity="7.7255225181579590e-01" nType="-99"/>
        </Node>
      </Node>
    </BinaryTree>
    <BinaryTree type="DecisionTree" boostWeight="1.0000000000000000e+00" itree="707">
      <Node pos="s" depth="0" NCoef="0" IVar="0" Cut="4.1446454823017120e-02" cType="1" res="-7.9053139779716730e-04" rms="4.4697889685630798e-01" purity="5.0023537874221802e-01" nType="0">
        <Node pos="l" depth="1" NCoef="0" IVar="1" Cut="1.0864665508270264e+00" cType="1" res="-1.8061684444546700e-02" rms="4.3454912304878235e-01" purity="3.4943518042564392e-01" nType="0">
          <Node pos="l" depth="2" NCoef="0" IVar="-1" Cut="0.0000000000000000e+00" cType="1" res="-2.6372249703854322e-04" rms="4.6332475543022156e-01" purity="4.5055037736892700e-01" nType="-99"/>
          <Node pos="r" depth="2" NCoef="0" IVar="-1" Cut="0.0000000000000000e+00" cType="1" res="-1.7874501645565033e-03" rms="4.0430647134780884e-01" purity="2.5129932165145874e-01" nType="-99"/>
        </Node>
        <Node pos="r" depth="1" NCoef="0" IVar="0" Cut="7.3779106140136719e-02" cType="1" res="1.4690093230456114e-03" rms="4.4853037595748901e-01" purity="5.1996415853500366e-01" nType="0">
          <Node pos="l" depth="2" NCoef="0" IVar="-1" Cut="0.0000000000000000e+00" cType="1" res="6.6765613155439496e-04" rms="4.4615826010704041e-01" purity="4.0763351321220398e-01" nType="-99"/>
          <Node pos="r" depth="2" NCoef="0" IVar="-1" Cut="0.0000000000000000e+00" cType="1" res="-6.1277220083866268e-05" rms="4.4903433322906494e-01" purity="5.4596209526062012e-01" nType="-99"/>
        </Node>
      </Node>
    </BinaryTree>
    <BinaryTree type="DecisionTree" boostWeight="1.0000000000000000e+00" itree="708">
      <Node pos="s" depth="0" NCoef="0" IVar="0" Cut="3.6678275465965271e-01" cType="1" res="3.8098201621323824e-03" rms="4.4626265764236450e-01" purity="5.0397670269012451e-01" nType="0">
        <Node pos="l" depth="1" NCoef="0" IVar="6" Cut="5.9619671106338501e-01" cType="1" res="8.9931755792349577e-04" rms="4.5027095079421997e-01" purity="4.7099196910858154e-01" nType="0">
          <Node pos="l" depth="2" NCoef="0" IVar="-1" Cut="0.0000000000000000e+00" cType="1" res="6.6284870263189077e-04" rms="4.4974032044410706e-01" purity="5.8771806955337524e-01" nType="-99"/>
          <Node pos="r" depth="2" NCoef="0" IVar="-1" Cut="0.0000000000000000e+00" cType="1" res="-1.5563372289761901e-04" rms="4.5036211609840393e-01" purity="4.3456161022186279e-01" nType="-99"/>
        </Node>
        <Node pos="r" depth="1" NCoef="0" IVar="7" Cut="8.1643030047416687e-02" cType="1" res="2.2268254309892654e-02" rms="4.1948238015174866e-01" purity="7.1316629648208618e-01" nType="0">
          <Node pos="l" depth="2" NCoef="0" IVar="-1" Cut="0.0000000000000000e+00" cType="1" res="1.8404664006084204e-03" rms="4.2274120450019836e-01" purity="6.8433475494384766e-01" nType="-99"/>
          <Node pos="r" depth="2" NCoef="0" IVar="-1" Cut="0.0000000000000000e+00" cType="1" res="4.9801450222730637e-04" rms="4.1590514779090881e-01" purity="7.4066805839538574e-01" nType="-99"/>
        </Node>
      </Node>
    </BinaryTree>
    <BinaryTree type="DecisionTree" boostWeight="1.0000000000000000e+00" itree="709">
      <Node pos="s" depth="0" NCoef="0" IVar="6" Cut="1.0632318258285522e+00" cType="1" res="2.1467618644237518e-03" rms="4.4898670911788940e-01" purity="5.0293791294097900e-01" nType="0">
        <Node pos="l" depth="1" NCoef="0" IVar="0" Cut="1.2631890177726746e-01" cType="1" res="-3.8763291668146849e-03" rms="4.5102939009666443e-01" purity="5.7676905393600464e-01" nType="0">
          <Node pos="l" depth="2" NCoef="0" IVar="-1" Cut="0.0000000000000000e+00" cType="1" res="1.6188608424272388e-04" rms="4.5991474390029907e-01" purity="4.8232778906822205e-01" nType="-99"/>
          <Node pos="r" depth="2" NCoef="0" IVar="-1" Cut="0.0000000000000000e+00" cType="1" res="-5.2120728651061654e-04" rms="4.4317147135734558e-01" purity="6.5775942802429199e-01" nType="-99"/>
        </Node>
        <Node pos="r" depth="1" NCoef="0" IVar="6" Cut="2.0214443206787109e+00" cType="1" res="1.0630589909851551e-02" rms="4.4595563411712646e-01" purity="3.9894300699234009e-01" nType="0">
          <Node pos="l" depth="2" NCoef="0" IVar="-1" Cut="0.0000000000000000e+00" cType="1" res="7.3962699389085174e-04" rms="4.5493829250335693e-01" purity="4.2896234989166260e-01" nType="-99"/>
          <Node pos="r" depth="2" NCoef="0" IVar="-1" Cut="0.0000000000000000e+00" cType="1" res="-1.3102731900289655e-03" rms="3.7572571635246277e-01" purity="1.8857884407043457e-01" nType="-99"/>
        </Node>
      </Node>
    </BinaryTree>
    <BinaryTree type="DecisionTree" boostWeight="1.0000000000000000e+00" itree="710">
      <Node pos="s" depth="0" NCoef="0" IVar="3" Cut="1.8866275548934937e+00" cType="1" res="1.1514072539284825e-03" rms="4.4712108373641968e-01" purity="5.0109571218490601e-01" nType="0">
        <Node pos="l" depth="1" NCoef="0" IVar="1" Cut="1.2970209121704102e+00" cType="1" res="3.7592430599033833e-03" rms="4.5020005106925964e-01" purity="5.3593289852142334e-01" nType="0">
          <Node pos="l" depth="2" NCoef="0" IVar="-1" Cut="0.0000000000000000e+00" cType="1" res="-1.0485503480595071e-05" rms="4.5069006085395813e-01" purity="5.7979053258895874e-01" nType="-99"/>
          <Node pos="r" depth="2" NCoef="0" IVar="-1" Cut="0.0000000000000000e+00" cType="1" res="7.5808499241247773e-04" rms="4.4862475991249084e-01" purity="4.1217032074928284e-01" nType="-99"/>
        </Node>
        <Node pos="r" depth="1" NCoef="0" IVar="7" Cut="9.6973232924938202e-02" cType="1" res="-1.0571215301752090e-02" rms="4.3281623721122742e-01" purity="3.4449702501296997e-01" nType="0">
          <Node pos="l" depth="2" NCoef="0" IVar="-1" Cut="0.0000000000000000e+00" cType="1" res="-9.7475881921127439e-04" rms="4.2611956596374512e-01" purity="3.1203052401542664e-01" nType="-99"/>
          <Node pos="r" depth="2" NCoef="0" IVar="-1" Cut="0.0000000000000000e+00" cType="1" res="2.8801453299820423e-04" rms="4.4784289598464966e-01" purity="4.2131608724594116e-01" nType="-99"/>
        </Node>
      </Node>
    </BinaryTree>
  </Weights>
</MethodSetup>
