<?xml version="1.0"?>
<MethodSetup Method="BDT::BDTG">
  <GeneralInfo>
    <Info name="TMVA Release" value="4.2.1 [262657]"/>
    <Info name="ROOT Release" value="6.06/01 [394753]"/>
    <Info name="Creator" value="kelmorab"/>
    <Info name="Date" value="Tue Feb 28 15:26:36 2017"/>
    <Info name="Host" value="Linux vocms0315.cern.ch 2.6.32-573.26.1.el6.x86_64 #1 SMP Wed May 4 09:23:05 CEST 2016 x86_64 x86_64 x86_64 GNU/Linux"/>
    <Info name="Dir" value="/nfs/dust/cms/user/kelmorab/Spring17Training/3makeHistosAndCards"/>
    <Info name="Training events" value="15047"/>
    <Info name="TrainingTime" value="9.52544379e+00"/>
    <Info name="AnalysisType" value="Classification"/>
  </GeneralInfo>
  <Options>
    <Option name="V" modified="Yes">False</Option>
    <Option name="VerbosityLevel" modified="No">Default</Option>
    <Option name="VarTransform" modified="No">None</Option>
    <Option name="H" modified="Yes">False</Option>
    <Option name="CreateMVAPdfs" modified="No">False</Option>
    <Option name="IgnoreNegWeightsInTraining" modified="No">False</Option>
    <Option name="NTrees" modified="Yes">932</Option>
    <Option name="MaxDepth" modified="Yes">2</Option>
    <Option name="MinNodeSize" modified="No">5%</Option>
    <Option name="nCuts" modified="Yes">46</Option>
    <Option name="BoostType" modified="Yes">Grad</Option>
    <Option name="AdaBoostR2Loss" modified="No">quadratic</Option>
    <Option name="UseBaggedBoost" modified="Yes">True</Option>
    <Option name="Shrinkage" modified="Yes">1.660000e-02</Option>
    <Option name="AdaBoostBeta" modified="No">5.000000e-01</Option>
    <Option name="UseRandomisedTrees" modified="No">False</Option>
    <Option name="UseNvars" modified="No">3</Option>
    <Option name="UsePoissonNvars" modified="No">True</Option>
    <Option name="BaggedSampleFraction" modified="No">5.100000e-01</Option>
    <Option name="UseYesNoLeaf" modified="No">True</Option>
    <Option name="NegWeightTreatment" modified="Yes">ignorenegweightsintraining</Option>
    <Option name="Css" modified="No">1.000000e+00</Option>
    <Option name="Cts_sb" modified="No">1.000000e+00</Option>
    <Option name="Ctb_ss" modified="No">1.000000e+00</Option>
    <Option name="Cbb" modified="No">1.000000e+00</Option>
    <Option name="NodePurityLimit" modified="No">5.000000e-01</Option>
    <Option name="SeparationType" modified="No">giniindex</Option>
    <Option name="DoBoostMonitor" modified="No">False</Option>
    <Option name="UseFisherCuts" modified="No">False</Option>
    <Option name="MinLinCorrForFisher" modified="No">8.000000e-01</Option>
    <Option name="UseExclusiveVars" modified="No">False</Option>
    <Option name="DoPreselection" modified="No">False</Option>
    <Option name="SigToBkgFraction" modified="No">1.000000e+00</Option>
    <Option name="PruneMethod" modified="No">nopruning</Option>
    <Option name="PruneStrength" modified="No">0.000000e+00</Option>
    <Option name="PruningValFraction" modified="No">5.000000e-01</Option>
    <Option name="nEventsMin" modified="No">0</Option>
    <Option name="UseBaggedGrad" modified="No">False</Option>
    <Option name="GradBaggingFraction" modified="Yes">5.100000e-01</Option>
    <Option name="UseNTrainEvents" modified="No">0</Option>
    <Option name="NNodesMax" modified="No">0</Option>
  </Options>
  <Variables NVar="6">
    <Variable VarIndex="0" Expression="best_higgs_mass" Label="best_higgs_mass" Title="best_higgs_mass" Unit="" Internal="best_higgs_mass" Type="F" Min="1.99821777e+01" Max="2.11315015e+03"/>
    <Variable VarIndex="1" Expression="tagged_dijet_mass_closest_to_125" Label="tagged_dijet_mass_closest_to_125" Title="tagged_dijet_mass_closest_to_125" Unit="" Internal="tagged_dijet_mass_closest_to_125" Type="F" Min="-9.90000000e+01" Max="3.45854919e+02"/>
    <Variable VarIndex="2" Expression="invariant_mass_of_everything" Label="invariant_mass_of_everything" Title="invariant_mass_of_everything" Unit="" Internal="invariant_mass_of_everything" Type="F" Min="3.72612305e+02" Max="5.47865283e+03"/>
    <Variable VarIndex="3" Expression="fourth_highest_btag" Label="fourth_highest_btag" Title="fourth_highest_btag" Unit="" Internal="fourth_highest_btag" Type="F" Min="8.48401189e-01" Max="9.98638511e-01"/>
    <Variable VarIndex="4" Expression="all_sum_pt_with_met" Label="all_sum_pt_with_met" Title="all_sum_pt_with_met" Unit="" Internal="all_sum_pt_with_met" Type="F" Min="3.08852631e+02" Max="3.82525879e+03"/>
    <Variable VarIndex="5" Expression="fifth_highest_CSV" Label="fifth_highest_CSV" Title="fifth_highest_CSV" Unit="" Internal="fifth_highest_CSV" Type="F" Min="-1.00000001e-01" Max="9.94428098e-01"/>
  </Variables>
  <Spectators NSpec="0"/>
  <Classes NClass="2">
    <Class Name="Signal" Index="0"/>
    <Class Name="Background" Index="1"/>
  </Classes>
  <Transformations NTransformations="0"/>
  <MVAPdfs/>
  <Weights NTrees="932" AnalysisType="1">
    <BinaryTree type="DecisionTree" boostWeight="1.0000000000000000e+00" itree="0">
      <Node pos="s" depth="0" NCoef="0" IVar="3" Cut="8.9239734411239624e-01" cType="1" res="-1.2879026122391224e-02" rms="4.9983409047126770e-01" purity="4.8712095618247986e-01" nType="0">
        <Node pos="l" depth="1" NCoef="0" IVar="0" Cut="1.9297581481933594e+02" cType="1" res="-1.0438857972621918e-01" rms="4.8898160457611084e-01" purity="3.9561140537261963e-01" nType="0">
          <Node pos="l" depth="2" NCoef="0" IVar="-1" Cut="0.0000000000000000e+00" cType="1" res="-7.1655481588095427e-04" rms="4.9695226550102234e-01" purity="4.4487804174423218e-01" nType="-99"/>
          <Node pos="r" depth="2" NCoef="0" IVar="-1" Cut="0.0000000000000000e+00" cType="1" res="-1.9911606796085835e-03" rms="4.6601366996765137e-01" purity="3.1880602240562439e-01" nType="-99"/>
        </Node>
        <Node pos="r" depth="1" NCoef="0" IVar="1" Cut="1.3512786865234375e+02" cType="1" res="7.9184919595718384e-02" rms="4.9368992447853088e-01" purity="5.7918494939804077e-01" nType="0">
          <Node pos="l" depth="2" NCoef="0" IVar="-1" Cut="0.0000000000000000e+00" cType="1" res="2.1387906745076180e-03" rms="4.8554816842079163e-01" purity="6.1934387683868408e-01" nType="-99"/>
          <Node pos="r" depth="2" NCoef="0" IVar="-1" Cut="0.0000000000000000e+00" cType="1" res="-1.1869622394442558e-03" rms="4.9209237098693848e-01" purity="4.1142752766609192e-01" nType="-99"/>
        </Node>
      </Node>
    </BinaryTree>
    <BinaryTree type="DecisionTree" boostWeight="1.0000000000000000e+00" itree="1">
      <Node pos="s" depth="0" NCoef="0" IVar="3" Cut="8.9571100473403931e-01" cType="1" res="-6.3897231593728065e-03" rms="4.9977761507034302e-01" purity="4.9370029568672180e-01" nType="0">
        <Node pos="l" depth="1" NCoef="0" IVar="1" Cut="1.3726518249511719e+02" cType="1" res="-8.8446035981178284e-02" rms="4.9197769165039062e-01" purity="4.1103601455688477e-01" nType="0">
          <Node pos="l" depth="2" NCoef="0" IVar="-1" Cut="0.0000000000000000e+00" cType="1" res="-7.0309155853465199e-04" rms="4.9689581990242004e-01" purity="4.4472900032997131e-01" nType="-99"/>
          <Node pos="r" depth="2" NCoef="0" IVar="-1" Cut="0.0000000000000000e+00" cType="1" res="-2.2561156656593084e-03" rms="4.4898539781570435e-01" purity="2.8000700473785400e-01" nType="-99"/>
        </Node>
        <Node pos="r" depth="1" NCoef="0" IVar="1" Cut="1.3633335876464844e+02" cType="1" res="8.0565638840198517e-02" rms="4.9323287606239319e-01" purity="5.8129990100860596e-01" nType="0">
          <Node pos="l" depth="2" NCoef="0" IVar="-1" Cut="0.0000000000000000e+00" cType="1" res="2.2049967665225267e-03" rms="4.8511904478073120e-01" purity="6.2104380130767822e-01" nType="-99"/>
          <Node pos="r" depth="2" NCoef="0" IVar="-1" Cut="0.0000000000000000e+00" cType="1" res="-1.2949936790391803e-03" rms="4.8996233940124512e-01" purity="4.0031599998474121e-01" nType="-99"/>
        </Node>
      </Node>
    </BinaryTree>
    <BinaryTree type="DecisionTree" boostWeight="1.0000000000000000e+00" itree="2">
      <Node pos="s" depth="0" NCoef="0" IVar="3" Cut="8.9603537321090698e-01" cType="1" res="-6.1060250736773014e-03" rms="4.9968010187149048e-01" purity="4.9416610598564148e-01" nType="0">
        <Node pos="l" depth="1" NCoef="0" IVar="0" Cut="2.4265962219238281e+02" cType="1" res="-7.8091308474540710e-02" rms="4.9363338947296143e-01" purity="4.2090108990669250e-01" nType="0">
          <Node pos="l" depth="2" NCoef="0" IVar="-1" Cut="0.0000000000000000e+00" cType="1" res="-5.7932664640247822e-04" rms="4.9795442819595337e-01" purity="4.5528584718704224e-01" nType="-99"/>
          <Node pos="r" depth="2" NCoef="0" IVar="-1" Cut="0.0000000000000000e+00" cType="1" res="-1.7924221465364099e-03" rms="4.7238472104072571e-01" purity="3.3624106645584106e-01" nType="-99"/>
        </Node>
        <Node pos="r" depth="1" NCoef="0" IVar="0" Cut="2.0376168823242188e+02" cType="1" res="6.8702064454555511e-02" rms="4.9491482973098755e-01" purity="5.7030421495437622e-01" nType="0">
          <Node pos="l" depth="2" NCoef="0" IVar="-1" Cut="0.0000000000000000e+00" cType="1" res="2.3301704786717892e-03" rms="4.8334431648254395e-01" purity="6.2761449813842773e-01" nType="-99"/>
          <Node pos="r" depth="2" NCoef="0" IVar="-1" Cut="0.0000000000000000e+00" cType="1" res="-5.8717437786981463e-04" rms="4.9831619858741760e-01" purity="4.6037927269935608e-01" nType="-99"/>
        </Node>
      </Node>
    </BinaryTree>
    <BinaryTree type="DecisionTree" boostWeight="1.0000000000000000e+00" itree="3">
      <Node pos="s" depth="0" NCoef="0" IVar="3" Cut="8.9634925127029419e-01" cType="1" res="-2.1909780334681273e-03" rms="4.9956578016281128e-01" purity="4.9813014268875122e-01" nType="0">
        <Node pos="l" depth="1" NCoef="0" IVar="0" Cut="2.1548713684082031e+02" cType="1" res="-7.4487872421741486e-02" rms="4.9408134818077087e-01" purity="4.2404508590698242e-01" nType="0">
          <Node pos="l" depth="2" NCoef="0" IVar="-1" Cut="0.0000000000000000e+00" cType="1" res="-3.9574503898620605e-04" rms="4.9895939230918884e-01" purity="4.6816605329513550e-01" nType="-99"/>
          <Node pos="r" depth="2" NCoef="0" IVar="-1" Cut="0.0000000000000000e+00" cType="1" res="-1.8469758797436953e-03" rms="4.7305032610893250e-01" purity="3.3830335736274719e-01" nType="-99"/>
        </Node>
        <Node pos="r" depth="1" NCoef="0" IVar="0" Cut="1.8303633117675781e+02" cType="1" res="7.7937699854373932e-02" rms="4.9334797263145447e-01" purity="5.8024066686630249e-01" nType="0">
          <Node pos="l" depth="2" NCoef="0" IVar="-1" Cut="0.0000000000000000e+00" cType="1" res="2.1530599333345890e-03" rms="4.8518392443656921e-01" purity="6.2043440341949463e-01" nType="-99"/>
          <Node pos="r" depth="2" NCoef="0" IVar="-1" Cut="0.0000000000000000e+00" cType="1" res="1.7906617722474039e-04" rms="4.9971458315849304e-01" purity="5.1305937767028809e-01" nType="-99"/>
        </Node>
      </Node>
    </BinaryTree>
    <BinaryTree type="DecisionTree" boostWeight="1.0000000000000000e+00" itree="4">
      <Node pos="s" depth="0" NCoef="0" IVar="3" Cut="9.2819160223007202e-01" cType="1" res="1.9020088016986847e-02" rms="4.9906656146049500e-01" purity="5.1955664157867432e-01" nType="0">
        <Node pos="l" depth="1" NCoef="0" IVar="1" Cut="1.4416984558105469e+02" cType="1" res="-2.8184171766042709e-02" rms="4.9883928894996643e-01" purity="4.7147151827812195e-01" nType="0">
          <Node pos="l" depth="2" NCoef="0" IVar="-1" Cut="0.0000000000000000e+00" cType="1" res="-9.9442353530321270e-05" rms="4.9966359138488770e-01" purity="4.9280700087547302e-01" nType="-99"/>
          <Node pos="r" depth="2" NCoef="0" IVar="-1" Cut="0.0000000000000000e+00" cType="1" res="-2.2837365977466106e-03" rms="4.5032152533531189e-01" purity="2.8298398852348328e-01" nType="-99"/>
        </Node>
        <Node pos="r" depth="1" NCoef="0" IVar="3" Cut="9.5064252614974976e-01" cType="1" res="1.5727220475673676e-01" rms="4.7338354587554932e-01" purity="6.6038870811462402e-01" nType="0">
          <Node pos="l" depth="2" NCoef="0" IVar="-1" Cut="0.0000000000000000e+00" cType="1" res="1.6243582358583808e-03" rms="4.8999693989753723e-01" purity="5.9835195541381836e-01" nType="-99"/>
          <Node pos="r" depth="2" NCoef="0" IVar="-1" Cut="0.0000000000000000e+00" cType="1" res="4.8265699297189713e-03" rms="4.5207127928733826e-01" purity="7.1329295635223389e-01" nType="-99"/>
        </Node>
      </Node>
    </BinaryTree>
    <BinaryTree type="DecisionTree" boostWeight="1.0000000000000000e+00" itree="5">
      <Node pos="s" depth="0" NCoef="0" IVar="3" Cut="8.9636033773422241e-01" cType="1" res="-8.4002465009689331e-03" rms="4.9914962053298950e-01" purity="4.9232447147369385e-01" nType="0">
        <Node pos="l" depth="1" NCoef="0" IVar="2" Cut="6.9515893554687500e+02" cType="1" res="-8.7174117565155029e-02" rms="4.9185591936111450e-01" purity="4.1081014275550842e-01" nType="0">
          <Node pos="l" depth="2" NCoef="0" IVar="-1" Cut="0.0000000000000000e+00" cType="1" res="5.6793767726048827e-04" rms="4.9857717752456665e-01" purity="5.3536540269851685e-01" nType="-99"/>
          <Node pos="r" depth="2" NCoef="0" IVar="-1" Cut="0.0000000000000000e+00" cType="1" res="-1.2524207122623920e-03" rms="4.8840492963790894e-01" purity="3.9338502287864685e-01" nType="-99"/>
        </Node>
        <Node pos="r" depth="1" NCoef="0" IVar="1" Cut="1.2921752929687500e+02" cType="1" res="7.8535124659538269e-02" rms="4.9266758561134338e-01" purity="5.8228421211242676e-01" nType="0">
          <Node pos="l" depth="2" NCoef="0" IVar="-1" Cut="0.0000000000000000e+00" cType="1" res="2.7413591742515564e-03" rms="4.7804927825927734e-01" purity="6.4580589532852173e-01" nType="-99"/>
          <Node pos="r" depth="2" NCoef="0" IVar="-1" Cut="0.0000000000000000e+00" cType="1" res="-6.6100398544222116e-04" rms="4.9747687578201294e-01" purity="4.5549166202545166e-01" nType="-99"/>
        </Node>
      </Node>
    </BinaryTree>
    <BinaryTree type="DecisionTree" boostWeight="1.0000000000000000e+00" itree="6">
      <Node pos="s" depth="0" NCoef="0" IVar="3" Cut="8.9629888534545898e-01" cType="1" res="-6.9821281358599663e-03" rms="4.9909722805023193e-01" purity="4.9396347999572754e-01" nType="0">
        <Node pos="l" depth="1" NCoef="0" IVar="1" Cut="1.1214476776123047e+02" cType="1" res="-8.0770656466484070e-02" rms="4.9287822842597961e-01" purity="4.1670492291450500e-01" nType="0">
          <Node pos="l" depth="2" NCoef="0" IVar="-1" Cut="0.0000000000000000e+00" cType="1" res="-2.0982045680284500e-03" rms="4.6204528212547302e-01" purity="3.0914598703384399e-01" nType="-99"/>
          <Node pos="r" depth="2" NCoef="0" IVar="-1" Cut="0.0000000000000000e+00" cType="1" res="-6.4922351157292724e-04" rms="4.9706482887268066e-01" purity="4.4737443327903748e-01" nType="-99"/>
        </Node>
        <Node pos="r" depth="1" NCoef="0" IVar="1" Cut="1.3605036926269531e+02" cType="1" res="7.0639580488204956e-02" rms="4.9379643797874451e-01" purity="5.7523548603057861e-01" nType="0">
          <Node pos="l" depth="2" NCoef="0" IVar="-1" Cut="0.0000000000000000e+00" cType="1" res="1.7350043635815382e-03" rms="4.8864260315895081e-01" purity="6.0473912954330444e-01" nType="-99"/>
          <Node pos="r" depth="2" NCoef="0" IVar="-1" Cut="0.0000000000000000e+00" cType="1" res="-9.0502464445307851e-04" rms="4.9522924423217773e-01" purity="4.3272569775581360e-01" nType="-99"/>
        </Node>
      </Node>
    </BinaryTree>
    <BinaryTree type="DecisionTree" boostWeight="1.0000000000000000e+00" itree="7">
      <Node pos="s" depth="0" NCoef="0" IVar="3" Cut="8.9638227224349976e-01" cType="1" res="-8.4440046921372414e-03" rms="4.9889972805976868e-01" purity="4.9250325560569763e-01" nType="0">
        <Node pos="l" depth="1" NCoef="0" IVar="1" Cut="1.3726518249511719e+02" cType="1" res="-8.1894837319850922e-02" rms="4.9249765276908875e-01" purity="4.1504740715026855e-01" nType="0">
          <Node pos="l" depth="2" NCoef="0" IVar="-1" Cut="0.0000000000000000e+00" cType="1" res="-7.2682881727814674e-04" rms="4.9629482626914978e-01" purity="4.4048744440078735e-01" nType="-99"/>
          <Node pos="r" depth="2" NCoef="0" IVar="-1" Cut="0.0000000000000000e+00" cType="1" res="-2.2457779850810766e-03" rms="4.5640531182289124e-01" purity="2.9623186588287354e-01" nType="-99"/>
        </Node>
        <Node pos="r" depth="1" NCoef="0" IVar="1" Cut="1.3773411560058594e+02" cType="1" res="6.9874137639999390e-02" rms="4.9374309182167053e-01" purity="5.7509177923202515e-01" nType="0">
          <Node pos="l" depth="2" NCoef="0" IVar="-1" Cut="0.0000000000000000e+00" cType="1" res="1.7840318614616990e-03" rms="4.8845407366752625e-01" purity="6.0573571920394897e-01" nType="-99"/>
          <Node pos="r" depth="2" NCoef="0" IVar="-1" Cut="0.0000000000000000e+00" cType="1" res="-1.2625559465959668e-03" rms="4.9027395248413086e-01" purity="4.0344601869583130e-01" nType="-99"/>
        </Node>
      </Node>
    </BinaryTree>
    <BinaryTree type="DecisionTree" boostWeight="1.0000000000000000e+00" itree="8">
      <Node pos="s" depth="0" NCoef="0" IVar="3" Cut="8.9603537321090698e-01" cType="1" res="-4.8563056625425816e-03" rms="4.9876511096954346e-01" purity="4.9621486663818359e-01" nType="0">
        <Node pos="l" depth="1" NCoef="0" IVar="1" Cut="1.0718623352050781e+02" cType="1" res="-8.4009282290935516e-02" rms="4.9209329485893250e-01" purity="4.1249492764472961e-01" nType="0">
          <Node pos="l" depth="2" NCoef="0" IVar="-1" Cut="0.0000000000000000e+00" cType="1" res="-2.1191067062318325e-03" rms="4.5840221643447876e-01" purity="3.0045369267463684e-01" nType="-99"/>
          <Node pos="r" depth="2" NCoef="0" IVar="-1" Cut="0.0000000000000000e+00" cType="1" res="-8.3481613546609879e-04" rms="4.9503865838050842e-01" purity="4.3113210797309875e-01" nType="-99"/>
        </Node>
        <Node pos="r" depth="1" NCoef="0" IVar="0" Cut="1.9775228881835938e+02" cType="1" res="8.0154135823249817e-02" rms="4.9184456467628479e-01" purity="5.8613026142120361e-01" nType="0">
          <Node pos="l" depth="2" NCoef="0" IVar="-1" Cut="0.0000000000000000e+00" cType="1" res="2.5529570411890745e-03" rms="4.7910839319229126e-01" purity="6.4188075065612793e-01" nType="-99"/>
          <Node pos="r" depth="2" NCoef="0" IVar="-1" Cut="0.0000000000000000e+00" cType="1" res="-3.4455774584785104e-04" rms="4.9891796708106995e-01" purity="4.7958081960678101e-01" nType="-99"/>
        </Node>
      </Node>
    </BinaryTree>
    <BinaryTree type="DecisionTree" boostWeight="1.0000000000000000e+00" itree="9">
      <Node pos="s" depth="0" NCoef="0" IVar="3" Cut="9.1226696968078613e-01" cType="1" res="-9.9769094958901405e-03" rms="4.9868458509445190e-01" purity="4.9128726124763489e-01" nType="0">
        <Node pos="l" depth="1" NCoef="0" IVar="1" Cut="1.3974176025390625e+02" cType="1" res="-6.4939185976982117e-02" rms="4.9497085809707642e-01" purity="4.3301060795783997e-01" nType="0">
          <Node pos="l" depth="2" NCoef="0" IVar="-1" Cut="0.0000000000000000e+00" cType="1" res="-5.0330982776358724e-04" rms="4.9805584549903870e-01" purity="4.6035605669021606e-01" nType="-99"/>
          <Node pos="r" depth="2" NCoef="0" IVar="-1" Cut="0.0000000000000000e+00" cType="1" res="-2.4044821038842201e-03" rms="4.4525203108787537e-01" purity="2.7289453148841858e-01" nType="-99"/>
        </Node>
        <Node pos="r" depth="1" NCoef="0" IVar="0" Cut="3.0062503051757812e+02" cType="1" res="8.6897820234298706e-02" rms="4.9038892984390259e-01" purity="5.9400379657745361e-01" nType="0">
          <Node pos="l" depth="2" NCoef="0" IVar="-1" Cut="0.0000000000000000e+00" cType="1" res="2.0484148990362883e-03" rms="4.8505923151969910e-01" purity="6.1911970376968384e-01" nType="-99"/>
          <Node pos="r" depth="2" NCoef="0" IVar="-1" Cut="0.0000000000000000e+00" cType="1" res="-6.0959876282140613e-04" rms="4.9812653660774231e-01" purity="4.6299278736114502e-01" nType="-99"/>
        </Node>
      </Node>
    </BinaryTree>
    <BinaryTree type="DecisionTree" boostWeight="1.0000000000000000e+00" itree="10">
      <Node pos="s" depth="0" NCoef="0" IVar="3" Cut="8.7077695131301880e-01" cType="1" res="-2.7598480228334665e-03" rms="4.9854728579521179e-01" purity="4.9852374196052551e-01" nType="0">
        <Node pos="l" depth="1" NCoef="0" IVar="0" Cut="2.4265962219238281e+02" cType="1" res="-1.3842087984085083e-01" rms="4.7885864973068237e-01" purity="3.5700064897537231e-01" nType="0">
          <Node pos="l" depth="2" NCoef="0" IVar="-1" Cut="0.0000000000000000e+00" cType="1" res="-1.2201536446809769e-03" rms="4.8872852325439453e-01" purity="3.9516037702560425e-01" nType="-99"/>
          <Node pos="r" depth="2" NCoef="0" IVar="-1" Cut="0.0000000000000000e+00" cType="1" res="-2.3765626829117537e-03" rms="4.3984603881835938e-01" purity="2.6227989792823792e-01" nType="-99"/>
        </Node>
        <Node pos="r" depth="1" NCoef="0" IVar="3" Cut="9.5783370733261108e-01" cType="1" res="5.2740622311830521e-02" rms="4.9579501152038574e-01" purity="5.5642247200012207e-01" nType="0">
          <Node pos="l" depth="2" NCoef="0" IVar="-1" Cut="0.0000000000000000e+00" cType="1" res="4.3385813478380442e-04" rms="4.9828958511352539e-01" purity="5.3091830015182495e-01" nType="-99"/>
          <Node pos="r" depth="2" NCoef="0" IVar="-1" Cut="0.0000000000000000e+00" cType="1" res="4.4807149097323418e-03" rms="4.5404100418090820e-01" purity="7.0816212892532349e-01" nType="-99"/>
        </Node>
      </Node>
    </BinaryTree>
    <BinaryTree type="DecisionTree" boostWeight="1.0000000000000000e+00" itree="11">
      <Node pos="s" depth="0" NCoef="0" IVar="1" Cut="1.3516355895996094e+02" cType="1" res="-7.8033977188169956e-03" rms="4.9839311838150024e-01" purity="4.9355712532997131e-01" nType="0">
        <Node pos="l" depth="1" NCoef="0" IVar="3" Cut="9.2514121532440186e-01" cType="1" res="3.2282281666994095e-02" rms="4.9748989939689636e-01" purity="5.3485572338104248e-01" nType="0">
          <Node pos="l" depth="2" NCoef="0" IVar="-1" Cut="0.0000000000000000e+00" cType="1" res="-2.2627273574471474e-04" rms="4.9920129776000977e-01" purity="4.8312288522720337e-01" nType="-99"/>
          <Node pos="r" depth="2" NCoef="0" IVar="-1" Cut="0.0000000000000000e+00" cType="1" res="3.3165109343826771e-03" rms="4.6946358680725098e-01" purity="6.7111575603485107e-01" nType="-99"/>
        </Node>
        <Node pos="r" depth="1" NCoef="0" IVar="1" Cut="1.4323187255859375e+02" cType="1" res="-1.6183406114578247e-01" rms="4.7111797332763672e-01" purity="3.3486565947532654e-01" nType="0">
          <Node pos="l" depth="2" NCoef="0" IVar="-1" Cut="0.0000000000000000e+00" cType="1" res="-1.0785701451823115e-03" rms="4.9238836765289307e-01" purity="4.1678896546363831e-01" nType="-99"/>
          <Node pos="r" depth="2" NCoef="0" IVar="-1" Cut="0.0000000000000000e+00" cType="1" res="-2.4254110176116228e-03" rms="4.4370147585868835e-01" purity="2.7061155438423157e-01" nType="-99"/>
        </Node>
      </Node>
    </BinaryTree>
    <BinaryTree type="DecisionTree" boostWeight="1.0000000000000000e+00" itree="12">
      <Node pos="s" depth="0" NCoef="0" IVar="3" Cut="9.0253835916519165e-01" cType="1" res="-1.0848692618310452e-02" rms="4.9826458096504211e-01" purity="4.9066063761711121e-01" nType="0">
        <Node pos="l" depth="1" NCoef="0" IVar="1" Cut="1.0811518859863281e+02" cType="1" res="-7.2220265865325928e-02" rms="4.9362993240356445e-01" purity="4.2377397418022156e-01" nType="0">
          <Node pos="l" depth="2" NCoef="0" IVar="-1" Cut="0.0000000000000000e+00" cType="1" res="-2.0830936264246702e-03" rms="4.5979961752891541e-01" purity="3.0427613854408264e-01" nType="-99"/>
          <Node pos="r" depth="2" NCoef="0" IVar="-1" Cut="0.0000000000000000e+00" cType="1" res="-6.2452268321067095e-04" rms="4.9671754240989685e-01" purity="4.4773244857788086e-01" nType="-99"/>
        </Node>
        <Node pos="r" depth="1" NCoef="0" IVar="0" Cut="1.9828034973144531e+02" cType="1" res="7.2017408907413483e-02" rms="4.9246555566787720e-01" purity="5.8097338676452637e-01" nType="0">
          <Node pos="l" depth="2" NCoef="0" IVar="-1" Cut="0.0000000000000000e+00" cType="1" res="2.1176023874431849e-03" rms="4.8358237743377686e-01" purity="6.2439715862274170e-01" nType="-99"/>
          <Node pos="r" depth="2" NCoef="0" IVar="-1" Cut="0.0000000000000000e+00" cType="1" res="-1.4914353960193694e-04" rms="4.9940681457519531e-01" purity="4.9567958712577820e-01" nType="-99"/>
        </Node>
      </Node>
    </BinaryTree>
    <BinaryTree type="DecisionTree" boostWeight="1.0000000000000000e+00" itree="13">
      <Node pos="s" depth="0" NCoef="0" IVar="3" Cut="8.9634925127029419e-01" cType="1" res="-3.3623902127146721e-03" rms="4.9816390872001648e-01" purity="4.9825975298881531e-01" nType="0">
        <Node pos="l" depth="1" NCoef="0" IVar="1" Cut="1.3649809265136719e+02" cType="1" res="-7.5574919581413269e-02" rms="4.9301716685295105e-01" purity="4.1906756162643433e-01" nType="0">
          <Node pos="l" depth="2" NCoef="0" IVar="-1" Cut="0.0000000000000000e+00" cType="1" res="-6.3558213878422976e-04" rms="4.9686959385871887e-01" purity="4.4593936204910278e-01" nType="-99"/>
          <Node pos="r" depth="2" NCoef="0" IVar="-1" Cut="0.0000000000000000e+00" cType="1" res="-2.0867434795945883e-03" rms="4.6019452810287476e-01" purity="3.0539619922637939e-01" nType="-99"/>
        </Node>
        <Node pos="r" depth="1" NCoef="0" IVar="0" Cut="2.2208528137207031e+02" cType="1" res="7.3891527950763702e-02" rms="4.9201411008834839e-01" purity="5.8298063278198242e-01" nType="0">
          <Node pos="l" depth="2" NCoef="0" IVar="-1" Cut="0.0000000000000000e+00" cType="1" res="1.9533401355147362e-03" rms="4.8484903573989868e-01" purity="6.1975395679473877e-01" nType="-99"/>
          <Node pos="r" depth="2" NCoef="0" IVar="-1" Cut="0.0000000000000000e+00" cType="1" res="-2.7529051294550300e-04" rms="4.9875694513320923e-01" purity="4.8581516742706299e-01" nType="-99"/>
        </Node>
      </Node>
    </BinaryTree>
    <BinaryTree type="DecisionTree" boostWeight="1.0000000000000000e+00" itree="14">
      <Node pos="s" depth="0" NCoef="0" IVar="3" Cut="8.8989222049713135e-01" cType="1" res="-4.8632482066750526e-03" rms="4.9787661433219910e-01" purity="4.9675717949867249e-01" nType="0">
        <Node pos="l" depth="1" NCoef="0" IVar="0" Cut="2.5293937683105469e+02" cType="1" res="-9.5948047935962677e-02" rms="4.8893794417381287e-01" purity="3.9786732196807861e-01" nType="0">
          <Node pos="l" depth="2" NCoef="0" IVar="-1" Cut="0.0000000000000000e+00" cType="1" res="-7.4458215385675430e-04" rms="4.9565437436103821e-01" purity="4.3660515546798706e-01" nType="-99"/>
          <Node pos="r" depth="2" NCoef="0" IVar="-1" Cut="0.0000000000000000e+00" cType="1" res="-2.1403622813522816e-03" rms="4.5613542199134827e-01" purity="2.9617249965667725e-01" nType="-99"/>
        </Node>
        <Node pos="r" depth="1" NCoef="0" IVar="1" Cut="1.3871511840820312e+02" cType="1" res="7.5366221368312836e-02" rms="4.9183964729309082e-01" purity="5.8386147022247314e-01" nType="0">
          <Node pos="l" depth="2" NCoef="0" IVar="-1" Cut="0.0000000000000000e+00" cType="1" res="1.8644419033080339e-03" rms="4.8594900965690613e-01" purity="6.1536812782287598e-01" nType="-99"/>
          <Node pos="r" depth="2" NCoef="0" IVar="-1" Cut="0.0000000000000000e+00" cType="1" res="-1.4444853877648711e-03" rms="4.8779127001762390e-01" purity="3.9152109622955322e-01" nType="-99"/>
        </Node>
      </Node>
    </BinaryTree>
    <BinaryTree type="DecisionTree" boostWeight="1.0000000000000000e+00" itree="15">
      <Node pos="s" depth="0" NCoef="0" IVar="3" Cut="8.9636033773422241e-01" cType="1" res="1.0313458740711212e-02" rms="4.9784964323043823e-01" purity="5.1213639974594116e-01" nType="0">
        <Node pos="l" depth="1" NCoef="0" IVar="0" Cut="2.4593000793457031e+02" cType="1" res="-5.5452182888984680e-02" rms="4.9564462900161743e-01" purity="4.3821606040000916e-01" nType="0">
          <Node pos="l" depth="2" NCoef="0" IVar="-1" Cut="0.0000000000000000e+00" cType="1" res="-1.4142692089080811e-04" rms="4.9951347708702087e-01" purity="4.8432499170303345e-01" nType="-99"/>
          <Node pos="r" depth="2" NCoef="0" IVar="-1" Cut="0.0000000000000000e+00" cType="1" res="-1.8574078567326069e-03" rms="4.6648675203323364e-01" purity="3.2109385728836060e-01" nType="-99"/>
        </Node>
        <Node pos="r" depth="1" NCoef="0" IVar="1" Cut="1.3946591186523438e+02" cType="1" res="8.0793298780918121e-02" rms="4.9050936102867126e-01" purity="5.9135538339614868e-01" nType="0">
          <Node pos="l" depth="2" NCoef="0" IVar="-1" Cut="0.0000000000000000e+00" cType="1" res="1.8765749409794807e-03" rms="4.8599061369895935e-01" purity="6.1489057540893555e-01" nType="-99"/>
          <Node pos="r" depth="2" NCoef="0" IVar="-1" Cut="0.0000000000000000e+00" cType="1" res="-1.0165099520236254e-03" rms="4.9415227770805359e-01" purity="4.2500028014183044e-01" nType="-99"/>
        </Node>
      </Node>
    </BinaryTree>
    <BinaryTree type="DecisionTree" boostWeight="1.0000000000000000e+00" itree="16">
      <Node pos="s" depth="0" NCoef="0" IVar="3" Cut="9.1226059198379517e-01" cType="1" res="-1.2496334500610828e-02" rms="4.9785658717155457e-01" purity="4.8959463834762573e-01" nType="0">
        <Node pos="l" depth="1" NCoef="0" IVar="1" Cut="1.0801229095458984e+02" cType="1" res="-6.3448846340179443e-02" rms="4.9480575323104858e-01" purity="4.3294554948806763e-01" nType="0">
          <Node pos="l" depth="2" NCoef="0" IVar="-1" Cut="0.0000000000000000e+00" cType="1" res="-2.0712609402835369e-03" rms="4.6355009078979492e-01" purity="3.1309700012207031e-01" nType="-99"/>
          <Node pos="r" depth="2" NCoef="0" IVar="-1" Cut="0.0000000000000000e+00" cType="1" res="-5.5742717813700438e-04" rms="4.9719330668449402e-01" purity="4.5456716418266296e-01" nType="-99"/>
        </Node>
        <Node pos="r" depth="1" NCoef="0" IVar="1" Cut="1.3726261901855469e+02" cType="1" res="7.7977620065212250e-02" rms="4.9035015702247620e-01" purity="5.9018373489379883e-01" nType="0">
          <Node pos="l" depth="2" NCoef="0" IVar="-1" Cut="0.0000000000000000e+00" cType="1" res="2.1862185094505548e-03" rms="4.8229557275772095e-01" purity="6.2957048416137695e-01" nType="-99"/>
          <Node pos="r" depth="2" NCoef="0" IVar="-1" Cut="0.0000000000000000e+00" cType="1" res="-1.5166954835876822e-03" rms="4.8669892549514771e-01" purity="3.8751208782196045e-01" nType="-99"/>
        </Node>
      </Node>
    </BinaryTree>
    <BinaryTree type="DecisionTree" boostWeight="1.0000000000000000e+00" itree="17">
      <Node pos="s" depth="0" NCoef="0" IVar="3" Cut="8.9627540111541748e-01" cType="1" res="-1.9927925895899534e-03" rms="4.9766483902931213e-01" purity="5.0002306699752808e-01" nType="0">
        <Node pos="l" depth="1" NCoef="0" IVar="0" Cut="2.4192451477050781e+02" cType="1" res="-7.3990650475025177e-02" rms="4.9298304319381714e-01" purity="4.1901049017906189e-01" nType="0">
          <Node pos="l" depth="2" NCoef="0" IVar="-1" Cut="0.0000000000000000e+00" cType="1" res="-5.5743544362485409e-04" rms="4.9755045771598816e-01" purity="4.5205223560333252e-01" nType="-99"/>
          <Node pos="r" depth="2" NCoef="0" IVar="-1" Cut="0.0000000000000000e+00" cType="1" res="-1.7911905888468027e-03" rms="4.7059082984924316e-01" purity="3.3197656273841858e-01" nType="-99"/>
        </Node>
        <Node pos="r" depth="1" NCoef="0" IVar="0" Cut="2.3894863891601562e+02" cType="1" res="7.4273027479648590e-02" rms="4.9119833111763000e-01" purity="5.8583801984786987e-01" nType="0">
          <Node pos="l" depth="2" NCoef="0" IVar="-1" Cut="0.0000000000000000e+00" cType="1" res="2.0914308261126280e-03" rms="4.8259955644607544e-01" purity="6.2790495157241821e-01" nType="-99"/>
          <Node pos="r" depth="2" NCoef="0" IVar="-1" Cut="0.0000000000000000e+00" cType="1" res="-5.1352393347769976e-04" rms="4.9774402379989624e-01" purity="4.6881985664367676e-01" nType="-99"/>
        </Node>
      </Node>
    </BinaryTree>
    <BinaryTree type="DecisionTree" boostWeight="1.0000000000000000e+00" itree="18">
      <Node pos="s" depth="0" NCoef="0" IVar="3" Cut="8.9634925127029419e-01" cType="1" res="-1.4082379639148712e-02" rms="4.9733769893646240e-01" purity="4.8787525296211243e-01" nType="0">
        <Node pos="l" depth="1" NCoef="0" IVar="0" Cut="2.5611419677734375e+02" cType="1" res="-8.4798730909824371e-02" rms="4.9077403545379639e-01" purity="4.0771451592445374e-01" nType="0">
          <Node pos="l" depth="2" NCoef="0" IVar="-1" Cut="0.0000000000000000e+00" cType="1" res="-6.4530473900958896e-04" rms="4.9650633335113525e-01" purity="4.4423225522041321e-01" nType="-99"/>
          <Node pos="r" depth="2" NCoef="0" IVar="-1" Cut="0.0000000000000000e+00" cType="1" res="-2.0176926627755165e-03" rms="4.5780757069587708e-01" purity="2.9975715279579163e-01" nType="-99"/>
        </Node>
        <Node pos="r" depth="1" NCoef="0" IVar="0" Cut="1.9583209228515625e+02" cType="1" res="6.3702046871185303e-02" rms="4.9287688732147217e-01" purity="5.7604801654815674e-01" nType="0">
          <Node pos="l" depth="2" NCoef="0" IVar="-1" Cut="0.0000000000000000e+00" cType="1" res="1.9963125232607126e-03" rms="4.8346242308616638e-01" purity="6.2395900487899780e-01" nType="-99"/>
          <Node pos="r" depth="2" NCoef="0" IVar="-1" Cut="0.0000000000000000e+00" cType="1" res="-2.6218194398097694e-04" rms="4.9921834468841553e-01" purity="4.8962277173995972e-01" nType="-99"/>
        </Node>
      </Node>
    </BinaryTree>
    <BinaryTree type="DecisionTree" boostWeight="1.0000000000000000e+00" itree="19">
      <Node pos="s" depth="0" NCoef="0" IVar="3" Cut="8.9627540111541748e-01" cType="1" res="4.2656892910599709e-03" rms="4.9728727340698242e-01" purity="5.0632566213607788e-01" nType="0">
        <Node pos="l" depth="1" NCoef="0" IVar="0" Cut="2.4644972229003906e+02" cType="1" res="-7.0865228772163391e-02" rms="4.9331712722778320e-01" purity="4.2128965258598328e-01" nType="0">
          <Node pos="l" depth="2" NCoef="0" IVar="-1" Cut="0.0000000000000000e+00" cType="1" res="-5.6360865710303187e-04" rms="4.9722152948379517e-01" purity="4.4955578446388245e-01" nType="-99"/>
          <Node pos="r" depth="2" NCoef="0" IVar="-1" Cut="0.0000000000000000e+00" cType="1" res="-1.7101332778111100e-03" rms="4.7414293885231018e-01" purity="3.4193873405456543e-01" nType="-99"/>
        </Node>
        <Node pos="r" depth="1" NCoef="0" IVar="0" Cut="1.8119171142578125e+02" cType="1" res="8.9214220643043518e-02" rms="4.8799884319305420e-01" purity="6.0247367620468140e-01" nType="0">
          <Node pos="l" depth="2" NCoef="0" IVar="-1" Cut="0.0000000000000000e+00" cType="1" res="2.6602807920426130e-03" rms="4.7557336091995239e-01" purity="6.5209376811981201e-01" nType="-99"/>
          <Node pos="r" depth="2" NCoef="0" IVar="-1" Cut="0.0000000000000000e+00" cType="1" res="1.9602553220465779e-04" rms="4.9848830699920654e-01" purity="5.2046340703964233e-01" nType="-99"/>
        </Node>
      </Node>
    </BinaryTree>
    <BinaryTree type="DecisionTree" boostWeight="1.0000000000000000e+00" itree="20">
      <Node pos="s" depth="0" NCoef="0" IVar="3" Cut="8.9621144533157349e-01" cType="1" res="-4.9307444132864475e-03" rms="4.9690335988998413e-01" purity="4.9707481265068054e-01" nType="0">
        <Node pos="l" depth="1" NCoef="0" IVar="0" Cut="1.9812413024902344e+02" cType="1" res="-7.8669130802154541e-02" rms="4.9172970652580261e-01" purity="4.1286042332649231e-01" nType="0">
          <Node pos="l" depth="2" NCoef="0" IVar="-1" Cut="0.0000000000000000e+00" cType="1" res="-4.3955017463304102e-04" rms="4.9822333455085754e-01" purity="4.6019148826599121e-01" nType="-99"/>
          <Node pos="r" depth="2" NCoef="0" IVar="-1" Cut="0.0000000000000000e+00" cType="1" res="-1.7675822600722313e-03" rms="4.7132605314254761e-01" purity="3.3449304103851318e-01" nType="-99"/>
        </Node>
        <Node pos="r" depth="1" NCoef="0" IVar="1" Cut="1.3936346435546875e+02" cType="1" res="7.7212385833263397e-02" rms="4.8970013856887817e-01" purity="5.9088796377182007e-01" nType="0">
          <Node pos="l" depth="2" NCoef="0" IVar="-1" Cut="0.0000000000000000e+00" cType="1" res="2.0040846429765224e-03" rms="4.8290559649467468e-01" purity="6.2593626976013184e-01" nType="-99"/>
          <Node pos="r" depth="2" NCoef="0" IVar="-1" Cut="0.0000000000000000e+00" cType="1" res="-1.7125237500295043e-03" rms="4.8050865530967712e-01" purity="3.6633259057998657e-01" nType="-99"/>
        </Node>
      </Node>
    </BinaryTree>
    <BinaryTree type="DecisionTree" boostWeight="1.0000000000000000e+00" itree="21">
      <Node pos="s" depth="0" NCoef="0" IVar="3" Cut="9.3470776081085205e-01" cType="1" res="-1.0812122374773026e-02" rms="4.9703097343444824e-01" purity="4.9165856838226318e-01" nType="0">
        <Node pos="l" depth="1" NCoef="0" IVar="0" Cut="2.4163929748535156e+02" cType="1" res="-4.7497842460870743e-02" rms="4.9586433172225952e-01" purity="4.5089238882064819e-01" nType="0">
          <Node pos="l" depth="2" NCoef="0" IVar="-1" Cut="0.0000000000000000e+00" cType="1" res="-1.4061508409213275e-04" rms="4.9872502684593201e-01" purity="4.9081641435623169e-01" nType="-99"/>
          <Node pos="r" depth="2" NCoef="0" IVar="-1" Cut="0.0000000000000000e+00" cType="1" res="-1.6543634701520205e-03" rms="4.7598746418952942e-01" purity="3.5131081938743591e-01" nType="-99"/>
        </Node>
        <Node pos="r" depth="1" NCoef="0" IVar="1" Cut="1.3057937622070312e+02" cType="1" res="1.2358016520738602e-01" rms="4.7779875993728638e-01" purity="6.4099895954132080e-01" nType="0">
          <Node pos="l" depth="2" NCoef="0" IVar="-1" Cut="0.0000000000000000e+00" cType="1" res="3.6718621850013733e-03" rms="4.6157175302505493e-01" purity="6.9092154502868652e-01" nType="-99"/>
          <Node pos="r" depth="2" NCoef="0" IVar="-1" Cut="0.0000000000000000e+00" cType="1" res="1.4319407637231052e-04" rms="4.9736028909683228e-01" purity="5.1820361614227295e-01" nType="-99"/>
        </Node>
      </Node>
    </BinaryTree>
    <BinaryTree type="DecisionTree" boostWeight="1.0000000000000000e+00" itree="22">
      <Node pos="s" depth="0" NCoef="0" IVar="3" Cut="8.9316415786743164e-01" cType="1" res="-3.0550282099284232e-04" rms="4.9693253636360168e-01" purity="5.0227254629135132e-01" nType="0">
        <Node pos="l" depth="1" NCoef="0" IVar="0" Cut="2.4593000793457031e+02" cType="1" res="-7.3253922164440155e-02" rms="4.9232271313667297e-01" purity="4.1722980141639709e-01" nType="0">
          <Node pos="l" depth="2" NCoef="0" IVar="-1" Cut="0.0000000000000000e+00" cType="1" res="-4.0399210411123931e-04" rms="4.9820792675018311e-01" purity="4.6166414022445679e-01" nType="-99"/>
          <Node pos="r" depth="2" NCoef="0" IVar="-1" Cut="0.0000000000000000e+00" cType="1" res="-1.9235736690461636e-03" rms="4.6268963813781738e-01" purity="3.1116083264350891e-01" nType="-99"/>
        </Node>
        <Node pos="r" depth="1" NCoef="0" IVar="2" Cut="7.4651019287109375e+02" cType="1" res="7.0504710078239441e-02" rms="4.9110996723175049e-01" purity="5.8482265472412109e-01" nType="0">
          <Node pos="l" depth="2" NCoef="0" IVar="-1" Cut="0.0000000000000000e+00" cType="1" res="3.9433296769857407e-03" rms="4.5639082789421082e-01" purity="7.0155799388885498e-01" nType="-99"/>
          <Node pos="r" depth="2" NCoef="0" IVar="-1" Cut="0.0000000000000000e+00" cType="1" res="7.3983939364552498e-04" rms="4.9505621194839478e-01" purity="5.5845409631729126e-01" nType="-99"/>
        </Node>
      </Node>
    </BinaryTree>
    <BinaryTree type="DecisionTree" boostWeight="1.0000000000000000e+00" itree="23">
      <Node pos="s" depth="0" NCoef="0" IVar="3" Cut="8.9285975694656372e-01" cType="1" res="-1.0435946285724640e-02" rms="4.9691748619079590e-01" purity="4.9249163269996643e-01" nType="0">
        <Node pos="l" depth="1" NCoef="0" IVar="4" Cut="6.3417327880859375e+02" cType="1" res="-8.5932798683643341e-02" rms="4.9026116728782654e-01" purity="4.0452396869659424e-01" nType="0">
          <Node pos="l" depth="2" NCoef="0" IVar="-1" Cut="0.0000000000000000e+00" cType="1" res="-1.8090695375576615e-03" rms="4.6788790822029114e-01" purity="3.2567745447158813e-01" nType="-99"/>
          <Node pos="r" depth="2" NCoef="0" IVar="-1" Cut="0.0000000000000000e+00" cType="1" res="-4.7383806668221951e-04" rms="4.9713721871376038e-01" purity="4.5308762788772583e-01" nType="-99"/>
        </Node>
        <Node pos="r" depth="1" NCoef="0" IVar="0" Cut="2.3110757446289062e+02" cType="1" res="6.1617270112037659e-02" rms="4.9251067638397217e-01" purity="5.7644683122634888e-01" nType="0">
          <Node pos="l" depth="2" NCoef="0" IVar="-1" Cut="0.0000000000000000e+00" cType="1" res="1.7995074158534408e-03" rms="4.8471009731292725e-01" purity="6.1865073442459106e-01" nType="-99"/>
          <Node pos="r" depth="2" NCoef="0" IVar="-1" Cut="0.0000000000000000e+00" cType="1" res="-6.7241117358207703e-04" rms="4.9771600961685181e-01" purity="4.6021744608879089e-01" nType="-99"/>
        </Node>
      </Node>
    </BinaryTree>
    <BinaryTree type="DecisionTree" boostWeight="1.0000000000000000e+00" itree="24">
      <Node pos="s" depth="0" NCoef="0" IVar="3" Cut="8.9634925127029419e-01" cType="1" res="7.8532528132200241e-03" rms="4.9662053585052490e-01" purity="5.1039832830429077e-01" nType="0">
        <Node pos="l" depth="1" NCoef="0" IVar="1" Cut="1.3811256408691406e+02" cType="1" res="-6.2664367258548737e-02" rms="4.9397230148315430e-01" purity="4.2739260196685791e-01" nType="0">
          <Node pos="l" depth="2" NCoef="0" IVar="-1" Cut="0.0000000000000000e+00" cType="1" res="-4.8338246415369213e-04" rms="4.9750924110412598e-01" purity="4.5355916023254395e-01" nType="-99"/>
          <Node pos="r" depth="2" NCoef="0" IVar="-1" Cut="0.0000000000000000e+00" cType="1" res="-1.9831296522170305e-03" rms="4.5744299888610840e-01" purity="3.0080124735832214e-01" nType="-99"/>
        </Node>
        <Node pos="r" depth="1" NCoef="0" IVar="1" Cut="1.3946591186523438e+02" cType="1" res="8.5917413234710693e-02" rms="4.8778796195983887e-01" purity="6.0228699445724487e-01" nType="0">
          <Node pos="l" depth="2" NCoef="0" IVar="-1" Cut="0.0000000000000000e+00" cType="1" res="2.1556075662374496e-03" rms="4.8114970326423645e-01" purity="6.3386458158493042e-01" nType="-99"/>
          <Node pos="r" depth="2" NCoef="0" IVar="-1" Cut="0.0000000000000000e+00" cType="1" res="-1.1187967611476779e-03" rms="4.9204024672508240e-01" purity="4.1567873954772949e-01" nType="-99"/>
        </Node>
      </Node>
    </BinaryTree>
    <BinaryTree type="DecisionTree" boostWeight="1.0000000000000000e+00" itree="25">
      <Node pos="s" depth="0" NCoef="0" IVar="3" Cut="9.0918582677841187e-01" cType="1" res="-6.1485118931159377e-04" rms="4.9638193845748901e-01" purity="5.0231355428695679e-01" nType="0">
        <Node pos="l" depth="1" NCoef="0" IVar="1" Cut="1.0922996520996094e+02" cType="1" res="-5.9706691652536392e-02" rms="4.9427402019500732e-01" purity="4.3399998545646667e-01" nType="0">
          <Node pos="l" depth="2" NCoef="0" IVar="-1" Cut="0.0000000000000000e+00" cType="1" res="-1.9274740479886532e-03" rms="4.6543374657630920e-01" purity="3.1974783539772034e-01" nType="-99"/>
          <Node pos="r" depth="2" NCoef="0" IVar="-1" Cut="0.0000000000000000e+00" cType="1" res="-4.8012885963544250e-04" rms="4.9692890048027039e-01" purity="4.5825541019439697e-01" nType="-99"/>
        </Node>
        <Node pos="r" depth="1" NCoef="0" IVar="0" Cut="1.7093220520019531e+02" cType="1" res="9.9454030394554138e-02" rms="4.8373991250991821e-01" purity="6.1799895763397217e-01" nType="0">
          <Node pos="l" depth="2" NCoef="0" IVar="-1" Cut="0.0000000000000000e+00" cType="1" res="3.1466600485146046e-03" rms="4.6639570593833923e-01" purity="6.7760241031646729e-01" nType="-99"/>
          <Node pos="r" depth="2" NCoef="0" IVar="-1" Cut="0.0000000000000000e+00" cType="1" res="3.1011542887426913e-04" rms="4.9714097380638123e-01" purity="5.3158748149871826e-01" nType="-99"/>
        </Node>
      </Node>
    </BinaryTree>
    <BinaryTree type="DecisionTree" boostWeight="1.0000000000000000e+00" itree="26">
      <Node pos="s" depth="0" NCoef="0" IVar="3" Cut="8.9628648757934570e-01" cType="1" res="9.8440283909440041e-03" rms="4.9645113945007324e-01" purity="5.1329660415649414e-01" nType="0">
        <Node pos="l" depth="1" NCoef="0" IVar="4" Cut="5.5088787841796875e+02" cType="1" res="-5.5792279541492462e-02" rms="4.9507847428321838e-01" purity="4.3388810753822327e-01" nType="0">
          <Node pos="l" depth="2" NCoef="0" IVar="-1" Cut="0.0000000000000000e+00" cType="1" res="-1.9290620693936944e-03" rms="4.6566697955131531e-01" purity="3.1933096051216125e-01" nType="-99"/>
          <Node pos="r" depth="2" NCoef="0" IVar="-1" Cut="0.0000000000000000e+00" cType="1" res="-3.1593575840815902e-04" rms="4.9815592169761658e-01" purity="4.6568477153778076e-01" nType="-99"/>
        </Node>
        <Node pos="r" depth="1" NCoef="0" IVar="0" Cut="1.9583209228515625e+02" cType="1" res="7.7144734561443329e-02" rms="4.8878678679466248e-01" purity="5.9471875429153442e-01" nType="0">
          <Node pos="l" depth="2" NCoef="0" IVar="-1" Cut="0.0000000000000000e+00" cType="1" res="2.2074053995311260e-03" rms="4.7823169827461243e-01" purity="6.4022725820541382e-01" nType="-99"/>
          <Node pos="r" depth="2" NCoef="0" IVar="-1" Cut="0.0000000000000000e+00" cType="1" res="-1.8009646737482399e-05" rms="4.9903830885887146e-01" purity="5.0788104534149170e-01" nType="-99"/>
        </Node>
      </Node>
    </BinaryTree>
    <BinaryTree type="DecisionTree" boostWeight="1.0000000000000000e+00" itree="27">
      <Node pos="s" depth="0" NCoef="0" IVar="1" Cut="1.3854994201660156e+02" cType="1" res="-1.6171855852007866e-02" rms="4.9646064639091492e-01" purity="4.8718413710594177e-01" nType="0">
        <Node pos="l" depth="1" NCoef="0" IVar="1" Cut="1.0794887542724609e+02" cType="1" res="1.5035307966172695e-02" rms="4.9676272273063660e-01" purity="5.2069097757339478e-01" nType="0">
          <Node pos="l" depth="2" NCoef="0" IVar="-1" Cut="0.0000000000000000e+00" cType="1" res="-1.7019099323078990e-03" rms="4.7691377997398376e-01" purity="3.5983669757843018e-01" nType="-99"/>
          <Node pos="r" depth="2" NCoef="0" IVar="-1" Cut="0.0000000000000000e+00" cType="1" res="7.6250312849879265e-04" rms="4.9463024735450745e-01" purity="5.5545085668563843e-01" nType="-99"/>
        </Node>
        <Node pos="r" depth="1" NCoef="0" IVar="1" Cut="1.4646150207519531e+02" cType="1" res="-1.8366578221321106e-01" rms="4.5998010039329529e-01" purity="3.0734726786613464e-01" nType="0">
          <Node pos="l" depth="2" NCoef="0" IVar="-1" Cut="0.0000000000000000e+00" cType="1" res="-1.6032063867896795e-03" rms="4.7939386963844299e-01" purity="3.6251497268676758e-01" nType="-99"/>
          <Node pos="r" depth="2" NCoef="0" IVar="-1" Cut="0.0000000000000000e+00" cType="1" res="-2.5699015241116285e-03" rms="4.3651151657104492e-01" purity="2.5789752602577209e-01" nType="-99"/>
        </Node>
      </Node>
    </BinaryTree>
    <BinaryTree type="DecisionTree" boostWeight="1.0000000000000000e+00" itree="28">
      <Node pos="s" depth="0" NCoef="0" IVar="3" Cut="9.2192155122756958e-01" cType="1" res="2.9969678143970668e-04" rms="4.9601981043815613e-01" purity="5.0381976366043091e-01" nType="0">
        <Node pos="l" depth="1" NCoef="0" IVar="0" Cut="3.7626608276367188e+02" cType="1" res="-4.7660414129495621e-02" rms="4.9513128399848938e-01" purity="4.4829213619232178e-01" nType="0">
          <Node pos="l" depth="2" NCoef="0" IVar="-1" Cut="0.0000000000000000e+00" cType="1" res="-3.3228978281840682e-04" rms="4.9720838665962219e-01" purity="4.7238484025001526e-01" nType="-99"/>
          <Node pos="r" depth="2" NCoef="0" IVar="-1" Cut="0.0000000000000000e+00" cType="1" res="-2.3292438127100468e-03" rms="4.4804629683494568e-01" purity="2.7937579154968262e-01" nType="-99"/>
        </Node>
        <Node pos="r" depth="1" NCoef="0" IVar="0" Cut="2.2049934387207031e+02" cType="1" res="1.2018506973981857e-01" rms="4.7761362791061401e-01" purity="6.4262157678604126e-01" nType="0">
          <Node pos="l" depth="2" NCoef="0" IVar="-1" Cut="0.0000000000000000e+00" cType="1" res="3.6254259757697582e-03" rms="4.6072927117347717e-01" purity="6.9292968511581421e-01" nType="-99"/>
          <Node pos="r" depth="2" NCoef="0" IVar="-1" Cut="0.0000000000000000e+00" cType="1" res="1.6260874690487981e-04" rms="4.9906679987907410e-01" purity="5.2164554595947266e-01" nType="-99"/>
        </Node>
      </Node>
    </BinaryTree>
    <BinaryTree type="DecisionTree" boostWeight="1.0000000000000000e+00" itree="29">
      <Node pos="s" depth="0" NCoef="0" IVar="3" Cut="9.0834748744964600e-01" cType="1" res="3.9048534817993641e-03" rms="4.9568217992782593e-01" purity="5.0712358951568604e-01" nType="0">
        <Node pos="l" depth="1" NCoef="0" IVar="4" Cut="6.2798309326171875e+02" cType="1" res="-5.6474175304174423e-02" rms="4.9460759758949280e-01" purity="4.3623694777488708e-01" nType="0">
          <Node pos="l" depth="2" NCoef="0" IVar="-1" Cut="0.0000000000000000e+00" cType="1" res="-1.5507811913266778e-03" rms="4.7956323623657227e-01" purity="3.6340385675430298e-01" nType="-99"/>
          <Node pos="r" depth="2" NCoef="0" IVar="-1" Cut="0.0000000000000000e+00" cType="1" res="-1.8059312424156815e-04" rms="4.9813205003738403e-01" purity="4.7884956002235413e-01" nType="-99"/>
        </Node>
        <Node pos="r" depth="1" NCoef="0" IVar="0" Cut="2.3372843933105469e+02" cType="1" res="1.0682766884565353e-01" rms="4.8031994700431824e-01" purity="6.2795770168304443e-01" nType="0">
          <Node pos="l" depth="2" NCoef="0" IVar="-1" Cut="0.0000000000000000e+00" cType="1" res="3.3524762839078903e-03" rms="4.6317043900489807e-01" purity="6.8403404951095581e-01" nType="-99"/>
          <Node pos="r" depth="2" NCoef="0" IVar="-1" Cut="0.0000000000000000e+00" cType="1" res="-4.6459428267553449e-04" rms="4.9794155359268188e-01" purity="4.7749993205070496e-01" nType="-99"/>
        </Node>
      </Node>
    </BinaryTree>
    <BinaryTree type="DecisionTree" boostWeight="1.0000000000000000e+00" itree="30">
      <Node pos="s" depth="0" NCoef="0" IVar="3" Cut="8.9628648757934570e-01" cType="1" res="-1.4549914048984647e-03" rms="4.9570924043655396e-01" purity="5.0210857391357422e-01" nType="0">
        <Node pos="l" depth="1" NCoef="0" IVar="1" Cut="1.3939672851562500e+02" cType="1" res="-7.6741084456443787e-02" rms="4.9113225936889648e-01" purity="4.1167566180229187e-01" nType="0">
          <Node pos="l" depth="2" NCoef="0" IVar="-1" Cut="0.0000000000000000e+00" cType="1" res="-5.8323098346590996e-04" rms="4.9633827805519104e-01" purity="4.4460812211036682e-01" nType="-99"/>
          <Node pos="r" depth="2" NCoef="0" IVar="-1" Cut="0.0000000000000000e+00" cType="1" res="-2.4127573706209660e-03" rms="4.2994162440299988e-01" purity="2.4562732875347137e-01" nType="-99"/>
        </Node>
        <Node pos="r" depth="1" NCoef="0" IVar="2" Cut="8.7145147705078125e+02" cType="1" res="8.3193540573120117e-02" rms="4.8710149526596069e-01" purity="6.0378748178482056e-01" nType="0">
          <Node pos="l" depth="2" NCoef="0" IVar="-1" Cut="0.0000000000000000e+00" cType="1" res="3.7835361436009407e-03" rms="4.5602607727050781e-01" purity="7.0289963483810425e-01" nType="-99"/>
          <Node pos="r" depth="2" NCoef="0" IVar="-1" Cut="0.0000000000000000e+00" cType="1" res="5.6996720377355814e-04" rms="4.9527856707572937e-01" purity="5.5331075191497803e-01" nType="-99"/>
        </Node>
      </Node>
    </BinaryTree>
    <BinaryTree type="DecisionTree" boostWeight="1.0000000000000000e+00" itree="31">
      <Node pos="s" depth="0" NCoef="0" IVar="3" Cut="9.2122417688369751e-01" cType="1" res="-7.2405952960252762e-03" rms="4.9554827809333801e-01" purity="4.9672058224678040e-01" nType="0">
        <Node pos="l" depth="1" NCoef="0" IVar="0" Cut="2.8317248535156250e+02" cType="1" res="-5.4451014846563339e-02" rms="4.9434217810630798e-01" purity="4.4106116890907288e-01" nType="0">
          <Node pos="l" depth="2" NCoef="0" IVar="-1" Cut="0.0000000000000000e+00" cType="1" res="-2.1875776292290539e-04" rms="4.9818101525306702e-01" purity="4.8192414641380310e-01" nType="-99"/>
          <Node pos="r" depth="2" NCoef="0" IVar="-1" Cut="0.0000000000000000e+00" cType="1" res="-2.1125967614352703e-03" rms="4.5468106865882874e-01" purity="2.9513308405876160e-01" nType="-99"/>
        </Node>
        <Node pos="r" depth="1" NCoef="0" IVar="0" Cut="1.7379492187500000e+02" cType="1" res="1.0962820798158646e-01" rms="4.7890275716781616e-01" purity="6.3450473546981812e-01" nType="0">
          <Node pos="l" depth="2" NCoef="0" IVar="-1" Cut="0.0000000000000000e+00" cType="1" res="3.7376796826720238e-03" rms="4.5684507489204407e-01" purity="7.0101821422576904e-01" nType="-99"/>
          <Node pos="r" depth="2" NCoef="0" IVar="-1" Cut="0.0000000000000000e+00" cType="1" res="4.1743816109374166e-04" rms="4.9646180868148804e-01" purity="5.4109007120132446e-01" nType="-99"/>
        </Node>
      </Node>
    </BinaryTree>
    <BinaryTree type="DecisionTree" boostWeight="1.0000000000000000e+00" itree="32">
      <Node pos="s" depth="0" NCoef="0" IVar="3" Cut="8.9634925127029419e-01" cType="1" res="1.4436687342822552e-03" rms="4.9594968557357788e-01" purity="5.0603771209716797e-01" nType="0">
        <Node pos="l" depth="1" NCoef="0" IVar="1" Cut="1.1062288665771484e+02" cType="1" res="-6.2095370143651962e-02" rms="4.9334666132926941e-01" purity="4.2570063471794128e-01" nType="0">
          <Node pos="l" depth="2" NCoef="0" IVar="-1" Cut="0.0000000000000000e+00" cType="1" res="-2.0577912218868732e-03" rms="4.5786547660827637e-01" purity="3.0038186907768250e-01" nType="-99"/>
          <Node pos="r" depth="2" NCoef="0" IVar="-1" Cut="0.0000000000000000e+00" cType="1" res="-4.3235209886915982e-04" rms="4.9697357416152954e-01" purity="4.5552918314933777e-01" nType="-99"/>
        </Node>
        <Node pos="r" depth="1" NCoef="0" IVar="2" Cut="7.0793511962890625e+02" cType="1" res="6.8254761397838593e-02" rms="4.8986226320266724e-01" purity="5.9051179885864258e-01" nType="0">
          <Node pos="l" depth="2" NCoef="0" IVar="-1" Cut="0.0000000000000000e+00" cType="1" res="4.8221922479569912e-03" rms="4.4077897071838379e-01" purity="7.3702144622802734e-01" nType="-99"/>
          <Node pos="r" depth="2" NCoef="0" IVar="-1" Cut="0.0000000000000000e+00" cType="1" res="7.3661847272887826e-04" rms="4.9402001500129700e-01" purity="5.6482446193695068e-01" nType="-99"/>
        </Node>
      </Node>
    </BinaryTree>
    <BinaryTree type="DecisionTree" boostWeight="1.0000000000000000e+00" itree="33">
      <Node pos="s" depth="0" NCoef="0" IVar="1" Cut="1.0324607086181641e+02" cType="1" res="-5.8048176579177380e-03" rms="4.9577462673187256e-01" purity="4.9831688404083252e-01" nType="0">
        <Node pos="l" depth="1" NCoef="0" IVar="-1" Cut="0.0000000000000000e+00" cType="1" res="-2.0779340993613005e-03" rms="4.6282216906547546e-01" purity="3.1555816531181335e-01" nType="-99"/>
        <Node pos="r" depth="1" NCoef="0" IVar="1" Cut="1.4370776367187500e+02" cType="1" res="1.4692628756165504e-02" rms="4.9537265300750732e-01" purity="5.1945716142654419e-01" nType="0">
          <Node pos="l" depth="2" NCoef="0" IVar="-1" Cut="0.0000000000000000e+00" cType="1" res="6.1243039090186357e-04" rms="4.9411621689796448e-01" purity="5.4630029201507568e-01" nType="-99"/>
          <Node pos="r" depth="2" NCoef="0" IVar="-1" Cut="0.0000000000000000e+00" cType="1" res="-2.0816423930227757e-03" rms="4.5840245485305786e-01" purity="3.0208656191825867e-01" nType="-99"/>
        </Node>
      </Node>
    </BinaryTree>
    <BinaryTree type="DecisionTree" boostWeight="1.0000000000000000e+00" itree="34">
      <Node pos="s" depth="0" NCoef="0" IVar="3" Cut="8.9638143777847290e-01" cType="1" res="-5.3689717315137386e-03" rms="4.9548795819282532e-01" purity="4.9866232275962830e-01" nType="0">
        <Node pos="l" depth="1" NCoef="0" IVar="1" Cut="1.3391940307617188e+02" cType="1" res="-6.6450417041778564e-02" rms="4.9248167872428894e-01" purity="4.2088630795478821e-01" nType="0">
          <Node pos="l" depth="2" NCoef="0" IVar="-1" Cut="0.0000000000000000e+00" cType="1" res="-4.5751882134936750e-04" rms="4.9690833687782288e-01" purity="4.5274710655212402e-01" nType="-99"/>
          <Node pos="r" depth="2" NCoef="0" IVar="-1" Cut="0.0000000000000000e+00" cType="1" res="-1.9346413901075721e-03" rms="4.6007129549980164e-01" purity="3.0688861012458801e-01" nType="-99"/>
        </Node>
        <Node pos="r" depth="1" NCoef="0" IVar="0" Cut="1.9850503540039062e+02" cType="1" res="6.1285067349672318e-02" rms="4.9013805389404297e-01" purity="5.8353406190872192e-01" nType="0">
          <Node pos="l" depth="2" NCoef="0" IVar="-1" Cut="0.0000000000000000e+00" cType="1" res="2.0222815219312906e-03" rms="4.7947451472282410e-01" purity="6.3731646537780762e-01" nType="-99"/>
          <Node pos="r" depth="2" NCoef="0" IVar="-1" Cut="0.0000000000000000e+00" cType="1" res="-4.1601434350013733e-04" rms="4.9760597944259644e-01" purity="4.8080709576606750e-01" nType="-99"/>
        </Node>
      </Node>
    </BinaryTree>
    <BinaryTree type="DecisionTree" boostWeight="1.0000000000000000e+00" itree="35">
      <Node pos="s" depth="0" NCoef="0" IVar="3" Cut="8.8356310129165649e-01" cType="1" res="-1.3628215529024601e-02" rms="4.9521335959434509e-01" purity="4.9056407809257507e-01" nType="0">
        <Node pos="l" depth="1" NCoef="0" IVar="0" Cut="2.8446240234375000e+02" cType="1" res="-1.0118824988603592e-01" rms="4.8537904024124146e-01" purity="3.8489636778831482e-01" nType="0">
          <Node pos="l" depth="2" NCoef="0" IVar="-1" Cut="0.0000000000000000e+00" cType="1" res="-8.3882309263572097e-04" rms="4.9333319067955017e-01" purity="4.2174136638641357e-01" nType="-99"/>
          <Node pos="r" depth="2" NCoef="0" IVar="-1" Cut="0.0000000000000000e+00" cType="1" res="-2.1812794730067253e-03" rms="4.4384294748306274e-01" purity="2.7171185612678528e-01" nType="-99"/>
        </Node>
        <Node pos="r" depth="1" NCoef="0" IVar="3" Cut="9.5462065935134888e-01" cType="1" res="5.1240596920251846e-02" rms="4.9243551492691040e-01" purity="5.6884789466857910e-01" nType="0">
          <Node pos="l" depth="2" NCoef="0" IVar="-1" Cut="0.0000000000000000e+00" cType="1" res="3.5769096575677395e-04" rms="4.9643015861511230e-01" purity="5.3697019815444946e-01" nType="-99"/>
          <Node pos="r" depth="2" NCoef="0" IVar="-1" Cut="0.0000000000000000e+00" cType="1" res="3.3963627647608519e-03" rms="4.6271222829818726e-01" purity="6.8702799081802368e-01" nType="-99"/>
        </Node>
      </Node>
    </BinaryTree>
    <BinaryTree type="DecisionTree" boostWeight="1.0000000000000000e+00" itree="36">
      <Node pos="s" depth="0" NCoef="0" IVar="3" Cut="8.9627540111541748e-01" cType="1" res="3.9599367300979793e-04" rms="4.9453556537628174e-01" purity="5.0455164909362793e-01" nType="0">
        <Node pos="l" depth="1" NCoef="0" IVar="4" Cut="6.2820068359375000e+02" cType="1" res="-7.0835292339324951e-02" rms="4.9177154898643494e-01" purity="4.1589483618736267e-01" nType="0">
          <Node pos="l" depth="2" NCoef="0" IVar="-1" Cut="0.0000000000000000e+00" cType="1" res="-1.5744185075163841e-03" rms="4.7573778033256531e-01" purity="3.4982460737228394e-01" nType="-99"/>
          <Node pos="r" depth="2" NCoef="0" IVar="-1" Cut="0.0000000000000000e+00" cType="1" res="-4.1064037941396236e-04" rms="4.9681869149208069e-01" purity="4.5507851243019104e-01" nType="-99"/>
        </Node>
        <Node pos="r" depth="1" NCoef="0" IVar="0" Cut="1.9822132873535156e+02" cType="1" res="7.7614665031433105e-02" rms="4.8585760593414307e-01" purity="6.0066056251525879e-01" nType="0">
          <Node pos="l" depth="2" NCoef="0" IVar="-1" Cut="0.0000000000000000e+00" cType="1" res="2.7054091915488243e-03" rms="4.6933791041374207e-01" purity="6.6559094190597534e-01" nType="-99"/>
          <Node pos="r" depth="2" NCoef="0" IVar="-1" Cut="0.0000000000000000e+00" cType="1" res="-4.2971360380761325e-04" rms="4.9759653210639954e-01" purity="4.8119908571243286e-01" nType="-99"/>
        </Node>
      </Node>
    </BinaryTree>
    <BinaryTree type="DecisionTree" boostWeight="1.0000000000000000e+00" itree="37">
      <Node pos="s" depth="0" NCoef="0" IVar="3" Cut="8.9638894796371460e-01" cType="1" res="1.3083687517791986e-03" rms="4.9460947513580322e-01" purity="5.0548046827316284e-01" nType="0">
        <Node pos="l" depth="1" NCoef="0" IVar="1" Cut="1.0811518859863281e+02" cType="1" res="-6.9862037897109985e-02" rms="4.9152389168739319e-01" purity="4.1618338227272034e-01" nType="0">
          <Node pos="l" depth="2" NCoef="0" IVar="-1" Cut="0.0000000000000000e+00" cType="1" res="-2.1492154337465763e-03" rms="4.4412633776664734e-01" purity="2.7155065536499023e-01" nType="-99"/>
          <Node pos="r" depth="2" NCoef="0" IVar="-1" Cut="0.0000000000000000e+00" cType="1" res="-5.4558779811486602e-04" rms="4.9575811624526978e-01" purity="4.4540575146675110e-01" nType="-99"/>
        </Node>
        <Node pos="r" depth="1" NCoef="0" IVar="1" Cut="1.3322288513183594e+02" cType="1" res="7.9670265316963196e-02" rms="4.8607733845710754e-01" purity="6.0380065441131592e-01" nType="0">
          <Node pos="l" depth="2" NCoef="0" IVar="-1" Cut="0.0000000000000000e+00" cType="1" res="2.1502207964658737e-03" rms="4.7777462005615234e-01" purity="6.4092093706130981e-01" nType="-99"/>
          <Node pos="r" depth="2" NCoef="0" IVar="-1" Cut="0.0000000000000000e+00" cType="1" res="-5.3440494230017066e-04" rms="4.9699449539184570e-01" purity="4.7434252500534058e-01" nType="-99"/>
        </Node>
      </Node>
    </BinaryTree>
    <BinaryTree type="DecisionTree" boostWeight="1.0000000000000000e+00" itree="38">
      <Node pos="s" depth="0" NCoef="0" IVar="1" Cut="1.3382246398925781e+02" cType="1" res="-5.4314099252223969e-03" rms="4.9493885040283203e-01" purity="4.9926754832267761e-01" nType="0">
        <Node pos="l" depth="1" NCoef="0" IVar="1" Cut="1.0144187927246094e+02" cType="1" res="2.9522925615310669e-02" rms="4.9418824911117554e-01" purity="5.3747725486755371e-01" nType="0">
          <Node pos="l" depth="2" NCoef="0" IVar="-1" Cut="0.0000000000000000e+00" cType="1" res="-1.9027142552658916e-03" rms="4.6820411086082458e-01" purity="3.3095017075538635e-01" nType="-99"/>
          <Node pos="r" depth="2" NCoef="0" IVar="-1" Cut="0.0000000000000000e+00" cType="1" res="7.9375097993761301e-04" rms="4.9231085181236267e-01" purity="5.6051981449127197e-01" nType="-99"/>
        </Node>
        <Node pos="r" depth="1" NCoef="0" IVar="1" Cut="1.4686576843261719e+02" cType="1" res="-1.2637573480606079e-01" rms="4.7820314764976501e-01" purity="3.6705935001373291e-01" nType="0">
          <Node pos="l" depth="2" NCoef="0" IVar="-1" Cut="0.0000000000000000e+00" cType="1" res="-9.3287322670221329e-04" rms="4.9056881666183472e-01" purity="4.2654621601104736e-01" nType="-99"/>
          <Node pos="r" depth="2" NCoef="0" IVar="-1" Cut="0.0000000000000000e+00" cType="1" res="-2.3442343808710575e-03" rms="4.4316095113754272e-01" purity="2.7067121863365173e-01" nType="-99"/>
        </Node>
      </Node>
    </BinaryTree>
    <BinaryTree type="DecisionTree" boostWeight="1.0000000000000000e+00" itree="39">
      <Node pos="s" depth="0" NCoef="0" IVar="3" Cut="9.2192155122756958e-01" cType="1" res="-1.0804050602018833e-02" rms="4.9534925818443298e-01" purity="4.9396306276321411e-01" nType="0">
        <Node pos="l" depth="1" NCoef="0" IVar="1" Cut="1.4337870788574219e+02" cType="1" res="-4.9152411520481110e-02" rms="4.9467334151268005e-01" purity="4.4566243886947632e-01" nType="0">
          <Node pos="l" depth="2" NCoef="0" IVar="-1" Cut="0.0000000000000000e+00" cType="1" res="-4.2205452336929739e-04" rms="4.9687221646308899e-01" purity="4.6551129221916199e-01" nType="-99"/>
          <Node pos="r" depth="2" NCoef="0" IVar="-1" Cut="0.0000000000000000e+00" cType="1" res="-2.0941728726029396e-03" rms="4.5120981335639954e-01" purity="2.8637468814849854e-01" nType="-99"/>
        </Node>
        <Node pos="r" depth="1" NCoef="0" IVar="5" Cut="4.1600140929222107e-01" cType="1" res="8.7569512426853180e-02" rms="4.8336079716682434e-01" purity="6.1786681413650513e-01" nType="0">
          <Node pos="l" depth="2" NCoef="0" IVar="-1" Cut="0.0000000000000000e+00" cType="1" res="4.3712061597034335e-04" rms="4.9423825740814209e-01" purity="5.5604511499404907e-01" nType="-99"/>
          <Node pos="r" depth="2" NCoef="0" IVar="-1" Cut="0.0000000000000000e+00" cType="1" res="2.9235067777335644e-03" rms="4.6660292148590088e-01" purity="6.7291504144668579e-01" nType="-99"/>
        </Node>
      </Node>
    </BinaryTree>
    <BinaryTree type="DecisionTree" boostWeight="1.0000000000000000e+00" itree="40">
      <Node pos="s" depth="0" NCoef="0" IVar="3" Cut="8.9638143777847290e-01" cType="1" res="-5.0213653594255447e-03" rms="4.9486714601516724e-01" purity="4.9998754262924194e-01" nType="0">
        <Node pos="l" depth="1" NCoef="0" IVar="0" Cut="3.3173059082031250e+02" cType="1" res="-6.5752863883972168e-02" rms="4.9207004904747009e-01" purity="4.1969910264015198e-01" nType="0">
          <Node pos="l" depth="2" NCoef="0" IVar="-1" Cut="0.0000000000000000e+00" cType="1" res="-5.0245405873283744e-04" rms="4.9630388617515564e-01" purity="4.4852134585380554e-01" nType="-99"/>
          <Node pos="r" depth="2" NCoef="0" IVar="-1" Cut="0.0000000000000000e+00" cType="1" res="-2.1161392796784639e-03" rms="4.4672945141792297e-01" purity="2.7671930193901062e-01" nType="-99"/>
        </Node>
        <Node pos="r" depth="1" NCoef="0" IVar="1" Cut="1.3322288513183594e+02" cType="1" res="5.9483744204044342e-02" rms="4.8963984847068787e-01" purity="5.8526480197906494e-01" nType="0">
          <Node pos="l" depth="2" NCoef="0" IVar="-1" Cut="0.0000000000000000e+00" cType="1" res="1.7968954052776098e-03" rms="4.8170262575149536e-01" purity="6.2697798013687134e-01" nType="-99"/>
          <Node pos="r" depth="2" NCoef="0" IVar="-1" Cut="0.0000000000000000e+00" cType="1" res="-9.7233214182779193e-04" rms="4.9494147300720215e-01" purity="4.4112110137939453e-01" nType="-99"/>
        </Node>
      </Node>
    </BinaryTree>
    <BinaryTree type="DecisionTree" boostWeight="1.0000000000000000e+00" itree="41">
      <Node pos="s" depth="0" NCoef="0" IVar="1" Cut="1.4326747131347656e+02" cType="1" res="-9.4718160107731819e-03" rms="4.9525651335716248e-01" purity="4.9506065249443054e-01" nType="0">
        <Node pos="l" depth="1" NCoef="0" IVar="1" Cut="1.0321848297119141e+02" cType="1" res="1.6344020143151283e-02" rms="4.9546596407890320e-01" purity="5.2357506752014160e-01" nType="0">
          <Node pos="l" depth="2" NCoef="0" IVar="-1" Cut="0.0000000000000000e+00" cType="1" res="-2.1272711455821991e-03" rms="4.6209025382995605e-01" purity="3.1035730242729187e-01" nType="-99"/>
          <Node pos="r" depth="2" NCoef="0" IVar="-1" Cut="0.0000000000000000e+00" cType="1" res="6.3816562760621309e-04" rms="4.9370992183685303e-01" purity="5.4993689060211182e-01" nType="-99"/>
        </Node>
        <Node pos="r" depth="1" NCoef="0" IVar="-1" Cut="0.0000000000000000e+00" cType="1" res="-2.2031283006072044e-03" rms="4.5002919435501099e-01" purity="2.8461214900016785e-01" nType="-99"/>
      </Node>
    </BinaryTree>
    <BinaryTree type="DecisionTree" boostWeight="1.0000000000000000e+00" itree="42">
      <Node pos="s" depth="0" NCoef="0" IVar="3" Cut="9.4751036167144775e-01" cType="1" res="1.6423424240201712e-03" rms="4.9430078268051147e-01" purity="5.0679785013198853e-01" nType="0">
        <Node pos="l" depth="1" NCoef="0" IVar="0" Cut="2.0121986389160156e+02" cType="1" res="-2.8345750644803047e-02" rms="4.9528819322586060e-01" purity="4.7133317589759827e-01" nType="0">
          <Node pos="l" depth="2" NCoef="0" IVar="-1" Cut="0.0000000000000000e+00" cType="1" res="3.3768877619877458e-04" rms="4.9596416950225830e-01" purity="5.2705192565917969e-01" nType="-99"/>
          <Node pos="r" depth="2" NCoef="0" IVar="-1" Cut="0.0000000000000000e+00" cType="1" res="-1.4473958872258663e-03" rms="4.8103341460227966e-01" purity="3.7214431166648865e-01" nType="-99"/>
        </Node>
        <Node pos="r" depth="1" NCoef="0" IVar="1" Cut="1.2697291564941406e+02" cType="1" res="1.7132735252380371e-01" rms="4.5268371701240540e-01" purity="7.0747137069702148e-01" nType="0">
          <Node pos="l" depth="2" NCoef="0" IVar="-1" Cut="0.0000000000000000e+00" cType="1" res="5.9508024714887142e-03" rms="4.2134523391723633e-01" purity="7.6901084184646606e-01" nType="-99"/>
          <Node pos="r" depth="2" NCoef="0" IVar="-1" Cut="0.0000000000000000e+00" cType="1" res="1.6769838985055685e-03" rms="4.8377981781959534e-01" purity="6.1557209491729736e-01" nType="-99"/>
        </Node>
      </Node>
    </BinaryTree>
    <BinaryTree type="DecisionTree" boostWeight="1.0000000000000000e+00" itree="43">
      <Node pos="s" depth="0" NCoef="0" IVar="3" Cut="9.1827327013015747e-01" cType="1" res="-3.5708656068891287e-03" rms="4.9438279867172241e-01" purity="5.0124406814575195e-01" nType="0">
        <Node pos="l" depth="1" NCoef="0" IVar="1" Cut="1.4416984558105469e+02" cType="1" res="-4.8594057559967041e-02" rms="4.9420893192291260e-01" purity="4.4444456696510315e-01" nType="0">
          <Node pos="l" depth="2" NCoef="0" IVar="-1" Cut="0.0000000000000000e+00" cType="1" res="-3.8368123932741582e-04" rms="4.9654906988143921e-01" purity="4.6603289246559143e-01" nType="-99"/>
          <Node pos="r" depth="2" NCoef="0" IVar="-1" Cut="0.0000000000000000e+00" cType="1" res="-2.2101125214248896e-03" rms="4.4375133514404297e-01" purity="2.7005785703659058e-01" nType="-99"/>
        </Node>
        <Node pos="r" depth="1" NCoef="0" IVar="0" Cut="2.4207263183593750e+02" cType="1" res="1.0078641772270203e-01" rms="4.7877320647239685e-01" purity="6.3289725780487061e-01" nType="0">
          <Node pos="l" depth="2" NCoef="0" IVar="-1" Cut="0.0000000000000000e+00" cType="1" res="3.2005016691982746e-03" rms="4.6252137422561646e-01" purity="6.8914192914962769e-01" nType="-99"/>
          <Node pos="r" depth="2" NCoef="0" IVar="-1" Cut="0.0000000000000000e+00" cType="1" res="-5.5401650024577975e-04" rms="4.9642848968505859e-01" purity="4.7557920217514038e-01" nType="-99"/>
        </Node>
      </Node>
    </BinaryTree>
    <BinaryTree type="DecisionTree" boostWeight="1.0000000000000000e+00" itree="44">
      <Node pos="s" depth="0" NCoef="0" IVar="0" Cut="2.3592489624023438e+02" cType="1" res="-1.2489546090364456e-02" rms="4.9408176541328430e-01" purity="4.9253827333450317e-01" nType="0">
        <Node pos="l" depth="1" NCoef="0" IVar="0" Cut="8.4303939819335938e+01" cType="1" res="3.2090645283460617e-02" rms="4.9304053187370300e-01" purity="5.4279899597167969e-01" nType="0">
          <Node pos="l" depth="2" NCoef="0" IVar="-1" Cut="0.0000000000000000e+00" cType="1" res="-1.3734864769503474e-03" rms="4.8626115918159485e-01" purity="4.0312922000885010e-01" nType="-99"/>
          <Node pos="r" depth="2" NCoef="0" IVar="-1" Cut="0.0000000000000000e+00" cType="1" res="1.2113153934478760e-03" rms="4.8755738139152527e-01" purity="5.8369028568267822e-01" nType="-99"/>
        </Node>
        <Node pos="r" depth="1" NCoef="0" IVar="1" Cut="1.2366223907470703e+02" cType="1" res="-1.1968126893043518e-01" rms="4.7991609573364258e-01" purity="3.7168785929679871e-01" nType="0">
          <Node pos="l" depth="2" NCoef="0" IVar="-1" Cut="0.0000000000000000e+00" cType="1" res="-7.7346339821815491e-04" rms="4.9229511618614197e-01" purity="4.3584886193275452e-01" nType="-99"/>
          <Node pos="r" depth="2" NCoef="0" IVar="-1" Cut="0.0000000000000000e+00" cType="1" res="-1.8556987633928657e-03" rms="4.6620965003967285e-01" purity="3.2653039693832397e-01" nType="-99"/>
        </Node>
      </Node>
    </BinaryTree>
    <BinaryTree type="DecisionTree" boostWeight="1.0000000000000000e+00" itree="45">
      <Node pos="s" depth="0" NCoef="0" IVar="3" Cut="8.9271318912506104e-01" cType="1" res="8.3951205015182495e-03" rms="4.9454161524772644e-01" purity="5.1446968317031860e-01" nType="0">
        <Node pos="l" depth="1" NCoef="0" IVar="4" Cut="9.0165386962890625e+02" cType="1" res="-5.8041125535964966e-02" rms="4.9310714006423950e-01" purity="4.2628684639930725e-01" nType="0">
          <Node pos="l" depth="2" NCoef="0" IVar="-1" Cut="0.0000000000000000e+00" cType="1" res="-1.1054233182221651e-03" rms="4.8694705963134766e-01" purity="3.9296412467956543e-01" nType="-99"/>
          <Node pos="r" depth="2" NCoef="0" IVar="-1" Cut="0.0000000000000000e+00" cType="1" res="6.0930295148864388e-04" rms="4.9737972021102905e-01" purity="5.2522701025009155e-01" nType="-99"/>
        </Node>
        <Node pos="r" depth="1" NCoef="0" IVar="4" Cut="4.9132504272460938e+02" cType="1" res="7.1164727210998535e-02" rms="4.8764717578887939e-01" purity="5.9778565168380737e-01" nType="0">
          <Node pos="l" depth="2" NCoef="0" IVar="-1" Cut="0.0000000000000000e+00" cType="1" res="-9.1431068722158670e-04" rms="4.9584653973579407e-01" purity="4.7078108787536621e-01" nType="-99"/>
          <Node pos="r" depth="2" NCoef="0" IVar="-1" Cut="0.0000000000000000e+00" cType="1" res="1.6208949964493513e-03" rms="4.8366478085517883e-01" purity="6.1482548713684082e-01" nType="-99"/>
        </Node>
      </Node>
    </BinaryTree>
    <BinaryTree type="DecisionTree" boostWeight="1.0000000000000000e+00" itree="46">
      <Node pos="s" depth="0" NCoef="0" IVar="3" Cut="8.8998109102249146e-01" cType="1" res="-1.0810309322550893e-03" rms="4.9406009912490845e-01" purity="5.0456428527832031e-01" nType="0">
        <Node pos="l" depth="1" NCoef="0" IVar="0" Cut="2.0396012878417969e+02" cType="1" res="-8.2289613783359528e-02" rms="4.8871460556983948e-01" purity="4.0141952037811279e-01" nType="0">
          <Node pos="l" depth="2" NCoef="0" IVar="-1" Cut="0.0000000000000000e+00" cType="1" res="-5.8416556566953659e-04" rms="4.9570733308792114e-01" purity="4.4030457735061646e-01" nType="-99"/>
          <Node pos="r" depth="2" NCoef="0" IVar="-1" Cut="0.0000000000000000e+00" cType="1" res="-1.6461635241284966e-03" rms="4.7006019949913025e-01" purity="3.3318242430686951e-01" nType="-99"/>
        </Node>
        <Node pos="r" depth="1" NCoef="0" IVar="2" Cut="1.0325010986328125e+03" cType="1" res="7.0453539490699768e-02" rms="4.8764392733573914e-01" purity="5.9542191028594971e-01" nType="0">
          <Node pos="l" depth="2" NCoef="0" IVar="-1" Cut="0.0000000000000000e+00" cType="1" res="2.2852469701319933e-03" rms="4.7587960958480835e-01" purity="6.4756095409393311e-01" nType="-99"/>
          <Node pos="r" depth="2" NCoef="0" IVar="-1" Cut="0.0000000000000000e+00" cType="1" res="3.4499444882385433e-04" rms="4.9475371837615967e-01" purity="5.4143720865249634e-01" nType="-99"/>
        </Node>
      </Node>
    </BinaryTree>
    <BinaryTree type="DecisionTree" boostWeight="1.0000000000000000e+00" itree="47">
      <Node pos="s" depth="0" NCoef="0" IVar="3" Cut="8.9603537321090698e-01" cType="1" res="-1.4744930900633335e-02" rms="4.9389117956161499e-01" purity="4.9006953835487366e-01" nType="0">
        <Node pos="l" depth="1" NCoef="0" IVar="0" Cut="2.0335731506347656e+02" cType="1" res="-7.3080815374851227e-02" rms="4.9032232165336609e-01" purity="4.1090941429138184e-01" nType="0">
          <Node pos="l" depth="2" NCoef="0" IVar="-1" Cut="0.0000000000000000e+00" cType="1" res="-4.0709759923629463e-04" rms="4.9733173847198486e-01" purity="4.5674762129783630e-01" nType="-99"/>
          <Node pos="r" depth="2" NCoef="0" IVar="-1" Cut="0.0000000000000000e+00" cType="1" res="-1.6774598043411970e-03" rms="4.6889048814773560e-01" purity="3.3016958832740784e-01" nType="-99"/>
        </Node>
        <Node pos="r" depth="1" NCoef="0" IVar="1" Cut="1.3512786865234375e+02" cType="1" res="5.1562648266553879e-02" rms="4.8954692482948303e-01" purity="5.8004701137542725e-01" nType="0">
          <Node pos="l" depth="2" NCoef="0" IVar="-1" Cut="0.0000000000000000e+00" cType="1" res="1.7585360910743475e-03" rms="4.8146778345108032e-01" purity="6.2757235765457153e-01" nType="-99"/>
          <Node pos="r" depth="2" NCoef="0" IVar="-1" Cut="0.0000000000000000e+00" cType="1" res="-1.4412262244150043e-03" rms="4.8679912090301514e-01" purity="3.9844667911529541e-01" nType="-99"/>
        </Node>
      </Node>
    </BinaryTree>
    <BinaryTree type="DecisionTree" boostWeight="1.0000000000000000e+00" itree="48">
      <Node pos="s" depth="0" NCoef="0" IVar="1" Cut="1.3516355895996094e+02" cType="1" res="-6.4926519989967346e-03" rms="4.9368602037429810e-01" purity="4.9901720881462097e-01" nType="0">
        <Node pos="l" depth="1" NCoef="0" IVar="2" Cut="6.9852978515625000e+02" cType="1" res="3.0673705041408539e-02" rms="4.9297603964805603e-01" purity="5.4052442312240601e-01" nType="0">
          <Node pos="l" depth="2" NCoef="0" IVar="-1" Cut="0.0000000000000000e+00" cType="1" res="4.4361385516822338e-03" rms="4.4348472356796265e-01" purity="7.2377407550811768e-01" nType="-99"/>
          <Node pos="r" depth="2" NCoef="0" IVar="-1" Cut="0.0000000000000000e+00" cType="1" res="3.1585601391270757e-05" rms="4.9480971693992615e-01" purity="5.1051819324493408e-01" nType="-99"/>
        </Node>
        <Node pos="r" depth="1" NCoef="0" IVar="1" Cut="1.4725634765625000e+02" cType="1" res="-1.4557972550392151e-01" rms="4.7099122405052185e-01" purity="3.4368559718132019e-01" nType="0">
          <Node pos="l" depth="2" NCoef="0" IVar="-1" Cut="0.0000000000000000e+00" cType="1" res="-1.2267996789887547e-03" rms="4.8599836230278015e-01" purity="3.9971199631690979e-01" nType="-99"/>
          <Node pos="r" depth="2" NCoef="0" IVar="-1" Cut="0.0000000000000000e+00" cType="1" res="-2.3084224667400122e-03" rms="4.3515849113464355e-01" purity="2.5685790181159973e-01" nType="-99"/>
        </Node>
      </Node>
    </BinaryTree>
    <BinaryTree type="DecisionTree" boostWeight="1.0000000000000000e+00" itree="49">
      <Node pos="s" depth="0" NCoef="0" IVar="3" Cut="9.3386000394821167e-01" cType="1" res="-1.0610883124172688e-02" rms="4.9407088756561279e-01" purity="4.9583378434181213e-01" nType="0">
        <Node pos="l" depth="1" NCoef="0" IVar="0" Cut="1.6297673034667969e+02" cType="1" res="-4.6646203845739365e-02" rms="4.9413469433784485e-01" purity="4.5065066218376160e-01" nType="0">
          <Node pos="l" depth="2" NCoef="0" IVar="-1" Cut="0.0000000000000000e+00" cType="1" res="8.4688952483702451e-05" rms="4.9735093116760254e-01" purity="5.1011574268341064e-01" nType="-99"/>
          <Node pos="r" depth="2" NCoef="0" IVar="-1" Cut="0.0000000000000000e+00" cType="1" res="-1.2667895061895251e-03" rms="4.8369508981704712e-01" purity="3.8365110754966736e-01" nType="-99"/>
        </Node>
        <Node pos="r" depth="1" NCoef="0" IVar="0" Cut="9.8321510314941406e+01" cType="1" res="1.1837125569581985e-01" rms="4.7180086374282837e-01" purity="6.5755891799926758e-01" nType="0">
          <Node pos="l" depth="2" NCoef="0" IVar="-1" Cut="0.0000000000000000e+00" cType="1" res="4.4031869038008153e-04" rms="4.9189019203186035e-01" purity="5.7087200880050659e-01" nType="-99"/>
          <Node pos="r" depth="2" NCoef="0" IVar="-1" Cut="0.0000000000000000e+00" cType="1" res="3.2333331182599068e-03" rms="4.6121436357498169e-01" purity="6.8508052825927734e-01" nType="-99"/>
        </Node>
      </Node>
    </BinaryTree>
    <BinaryTree type="DecisionTree" boostWeight="1.0000000000000000e+00" itree="50">
      <Node pos="s" depth="0" NCoef="0" IVar="3" Cut="9.3470776081085205e-01" cType="1" res="-1.3907937332987785e-02" rms="4.9319586157798767e-01" purity="4.9182307720184326e-01" nType="0">
        <Node pos="l" depth="1" NCoef="0" IVar="0" Cut="1.5701475524902344e+02" cType="1" res="-5.1886059343814850e-02" rms="4.9297329783439636e-01" purity="4.4454252719879150e-01" nType="0">
          <Node pos="l" depth="2" NCoef="0" IVar="-1" Cut="0.0000000000000000e+00" cType="1" res="-5.3756002671434544e-06" rms="4.9636477231979370e-01" purity="5.0286704301834106e-01" nType="-99"/>
          <Node pos="r" depth="2" NCoef="0" IVar="-1" Cut="0.0000000000000000e+00" cType="1" res="-1.2893811799585819e-03" rms="4.8364055156707764e-01" purity="3.8389706611633301e-01" nType="-99"/>
        </Node>
        <Node pos="r" depth="1" NCoef="0" IVar="0" Cut="2.4125891113281250e+02" cType="1" res="1.2378045171499252e-01" rms="4.6888241171836853e-01" purity="6.6323727369308472e-01" nType="0">
          <Node pos="l" depth="2" NCoef="0" IVar="-1" Cut="0.0000000000000000e+00" cType="1" res="3.4942640922963619e-03" rms="4.5549854636192322e-01" purity="7.0218533277511597e-01" nType="-99"/>
          <Node pos="r" depth="2" NCoef="0" IVar="-1" Cut="0.0000000000000000e+00" cType="1" res="4.3668574653565884e-04" rms="4.9519130587577820e-01" purity="5.4298746585845947e-01" nType="-99"/>
        </Node>
      </Node>
    </BinaryTree>
    <BinaryTree type="DecisionTree" boostWeight="1.0000000000000000e+00" itree="51">
      <Node pos="s" depth="0" NCoef="0" IVar="1" Cut="1.4281646728515625e+02" cType="1" res="-9.0123212430626154e-04" rms="4.9356082081794739e-01" purity="5.0421172380447388e-01" nType="0">
        <Node pos="l" depth="1" NCoef="0" IVar="3" Cut="8.9627540111541748e-01" cType="1" res="2.2038090974092484e-02" rms="4.9322503805160522e-01" purity="5.3005135059356689e-01" nType="0">
          <Node pos="l" depth="2" NCoef="0" IVar="-1" Cut="0.0000000000000000e+00" cType="1" res="-6.0627254424616694e-04" rms="4.9485647678375244e-01" purity="4.3759953975677490e-01" nType="-99"/>
          <Node pos="r" depth="2" NCoef="0" IVar="-1" Cut="0.0000000000000000e+00" cType="1" res="1.8955902196466923e-03" rms="4.7961848974227905e-01" purity="6.3363248109817505e-01" nType="-99"/>
        </Node>
        <Node pos="r" depth="1" NCoef="0" IVar="-1" Cut="0.0000000000000000e+00" cType="1" res="-2.0066888537257910e-03" rms="4.5857897400856018e-01" purity="3.0336156487464905e-01" nType="-99"/>
      </Node>
    </BinaryTree>
    <BinaryTree type="DecisionTree" boostWeight="1.0000000000000000e+00" itree="52">
      <Node pos="s" depth="0" NCoef="0" IVar="1" Cut="1.4460450744628906e+02" cType="1" res="1.4844561228528619e-03" rms="4.9362283945083618e-01" purity="5.0756788253784180e-01" nType="0">
        <Node pos="l" depth="1" NCoef="0" IVar="3" Cut="8.9628648757934570e-01" cType="1" res="2.4204598739743233e-02" rms="4.9331972002983093e-01" purity="5.3335624933242798e-01" nType="0">
          <Node pos="l" depth="2" NCoef="0" IVar="-1" Cut="0.0000000000000000e+00" cType="1" res="-4.6028869110159576e-04" rms="4.9619400501251221e-01" purity="4.4984969496726990e-01" nType="-99"/>
          <Node pos="r" depth="2" NCoef="0" IVar="-1" Cut="0.0000000000000000e+00" cType="1" res="1.6229051398113370e-03" rms="4.8226755857467651e-01" purity="6.2247329950332642e-01" nType="-99"/>
        </Node>
        <Node pos="r" depth="1" NCoef="0" IVar="-1" Cut="0.0000000000000000e+00" cType="1" res="-2.1185958757996559e-03" rms="4.5171403884887695e-01" purity="2.8700187802314758e-01" nType="-99"/>
      </Node>
    </BinaryTree>
    <BinaryTree type="DecisionTree" boostWeight="1.0000000000000000e+00" itree="53">
      <Node pos="s" depth="0" NCoef="0" IVar="1" Cut="1.0324607086181641e+02" cType="1" res="-1.5457950532436371e-02" rms="4.9437052011489868e-01" purity="4.9153876304626465e-01" nType="0">
        <Node pos="l" depth="1" NCoef="0" IVar="-1" Cut="0.0000000000000000e+00" cType="1" res="-2.2114533931016922e-03" rms="4.5856654644012451e-01" purity="3.0583724379539490e-01" nType="-99"/>
        <Node pos="r" depth="1" NCoef="0" IVar="3" Cut="8.7081712484359741e-01" cType="1" res="4.2520165443420410e-03" rms="4.9426582455635071e-01" purity="5.1214492321014404e-01" nType="0">
          <Node pos="l" depth="2" NCoef="0" IVar="-1" Cut="0.0000000000000000e+00" cType="1" res="-1.0588112054392695e-03" rms="4.8647224903106689e-01" purity="3.9283892512321472e-01" nType="-99"/>
          <Node pos="r" depth="2" NCoef="0" IVar="-1" Cut="0.0000000000000000e+00" cType="1" res="6.3687335932627320e-04" rms="4.9257218837738037e-01" purity="5.5739194154739380e-01" nType="-99"/>
        </Node>
      </Node>
    </BinaryTree>
    <BinaryTree type="DecisionTree" boostWeight="1.0000000000000000e+00" itree="54">
      <Node pos="s" depth="0" NCoef="0" IVar="1" Cut="1.3592814636230469e+02" cType="1" res="-2.3254745174199343e-03" rms="4.9413800239562988e-01" purity="5.0477927923202515e-01" nType="0">
        <Node pos="l" depth="1" NCoef="0" IVar="3" Cut="9.2484700679779053e-01" cType="1" res="2.6831910014152527e-02" rms="4.9371075630187988e-01" purity="5.3837865591049194e-01" nType="0">
          <Node pos="l" depth="2" NCoef="0" IVar="-1" Cut="0.0000000000000000e+00" cType="1" res="-1.4879181981086731e-04" rms="4.9806267023086548e-01" purity="4.8770341277122498e-01" nType="-99"/>
          <Node pos="r" depth="2" NCoef="0" IVar="-1" Cut="0.0000000000000000e+00" cType="1" res="2.6484602130949497e-03" rms="4.6698409318923950e-01" purity="6.7481517791748047e-01" nType="-99"/>
        </Node>
        <Node pos="r" depth="1" NCoef="0" IVar="1" Cut="1.4396160888671875e+02" cType="1" res="-1.2893027067184448e-01" rms="4.7569406032562256e-01" purity="3.5888722538948059e-01" nType="0">
          <Node pos="l" depth="2" NCoef="0" IVar="-1" Cut="0.0000000000000000e+00" cType="1" res="-9.9826732184737921e-04" rms="4.9124777317047119e-01" purity="4.2450267076492310e-01" nType="-99"/>
          <Node pos="r" depth="2" NCoef="0" IVar="-1" Cut="0.0000000000000000e+00" cType="1" res="-1.9898184109479189e-03" rms="4.5599156618118286e-01" purity="3.0105483531951904e-01" nType="-99"/>
        </Node>
      </Node>
    </BinaryTree>
    <BinaryTree type="DecisionTree" boostWeight="1.0000000000000000e+00" itree="55">
      <Node pos="s" depth="0" NCoef="0" IVar="1" Cut="1.4678958129882812e+02" cType="1" res="-6.4752548933029175e-03" rms="4.9329400062561035e-01" purity="4.9972245097160339e-01" nType="0">
        <Node pos="l" depth="1" NCoef="0" IVar="3" Cut="8.9619272947311401e-01" cType="1" res="1.2822998687624931e-02" rms="4.9362653493881226e-01" purity="5.2182132005691528e-01" nType="0">
          <Node pos="l" depth="2" NCoef="0" IVar="-1" Cut="0.0000000000000000e+00" cType="1" res="-5.2646675612777472e-04" rms="4.9556076526641846e-01" purity="4.4252866506576538e-01" nType="-99"/>
          <Node pos="r" depth="2" NCoef="0" IVar="-1" Cut="0.0000000000000000e+00" cType="1" res="1.2846494792029262e-03" rms="4.8479393124580383e-01" purity="6.0695534944534302e-01" nType="-99"/>
        </Node>
        <Node pos="r" depth="1" NCoef="0" IVar="-1" Cut="0.0000000000000000e+00" cType="1" res="-2.2992338053882122e-03" rms="4.4286617636680603e-01" purity="2.7083587646484375e-01" nType="-99"/>
      </Node>
    </BinaryTree>
    <BinaryTree type="DecisionTree" boostWeight="1.0000000000000000e+00" itree="56">
      <Node pos="s" depth="0" NCoef="0" IVar="3" Cut="8.9312463998794556e-01" cType="1" res="-7.5698951259255409e-03" rms="4.9329981207847595e-01" purity="4.9957743287086487e-01" nType="0">
        <Node pos="l" depth="1" NCoef="0" IVar="0" Cut="3.0508547973632812e+02" cType="1" res="-6.9294795393943787e-02" rms="4.9038714170455933e-01" purity="4.1194379329681396e-01" nType="0">
          <Node pos="l" depth="2" NCoef="0" IVar="-1" Cut="0.0000000000000000e+00" cType="1" res="-5.2006752230226994e-04" rms="4.9589827656745911e-01" purity="4.4420382380485535e-01" nType="-99"/>
          <Node pos="r" depth="2" NCoef="0" IVar="-1" Cut="0.0000000000000000e+00" cType="1" res="-1.9092293223366141e-03" rms="4.5016950368881226e-01" purity="2.8499022126197815e-01" nType="-99"/>
        </Node>
        <Node pos="r" depth="1" NCoef="0" IVar="1" Cut="1.3976719665527344e+02" cType="1" res="5.1144346594810486e-02" rms="4.8887488245964050e-01" purity="5.8293670415878296e-01" nType="0">
          <Node pos="l" depth="2" NCoef="0" IVar="-1" Cut="0.0000000000000000e+00" cType="1" res="1.3176383217796683e-03" rms="4.8512479662895203e-01" purity="6.0991406440734863e-01" nType="-99"/>
          <Node pos="r" depth="2" NCoef="0" IVar="-1" Cut="0.0000000000000000e+00" cType="1" res="-1.5267134876921773e-03" rms="4.8349490761756897e-01" purity="3.7825676798820496e-01" nType="-99"/>
        </Node>
      </Node>
    </BinaryTree>
    <BinaryTree type="DecisionTree" boostWeight="1.0000000000000000e+00" itree="57">
      <Node pos="s" depth="0" NCoef="0" IVar="1" Cut="1.4326747131347656e+02" cType="1" res="-1.3760862872004509e-02" rms="4.9359515309333801e-01" purity="4.9305567145347595e-01" nType="0">
        <Node pos="l" depth="1" NCoef="0" IVar="3" Cut="9.3438380956649780e-01" cType="1" res="4.9799587577581406e-03" rms="4.9446192383766174e-01" purity="5.1536411046981812e-01" nType="0">
          <Node pos="l" depth="2" NCoef="0" IVar="-1" Cut="0.0000000000000000e+00" cType="1" res="-3.2996310619637370e-04" rms="4.9645778536796570e-01" purity="4.7521606087684631e-01" nType="-99"/>
          <Node pos="r" depth="2" NCoef="0" IVar="-1" Cut="0.0000000000000000e+00" cType="1" res="2.1239421330392361e-03" rms="4.7427237033843994e-01" purity="6.5334546566009521e-01" nType="-99"/>
        </Node>
        <Node pos="r" depth="1" NCoef="0" IVar="-1" Cut="0.0000000000000000e+00" cType="1" res="-1.9869261886924505e-03" rms="4.5320367813110352e-01" purity="2.9548552632331848e-01" nType="-99"/>
      </Node>
    </BinaryTree>
    <BinaryTree type="DecisionTree" boostWeight="1.0000000000000000e+00" itree="58">
      <Node pos="s" depth="0" NCoef="0" IVar="3" Cut="9.2802232503890991e-01" cType="1" res="-1.1928509920835495e-02" rms="4.9303558468818665e-01" purity="4.9458703398704529e-01" nType="0">
        <Node pos="l" depth="1" NCoef="0" IVar="2" Cut="6.9236315917968750e+02" cType="1" res="-4.5319966971874237e-02" rms="4.9345579743385315e-01" purity="4.4875279068946838e-01" nType="0">
          <Node pos="l" depth="2" NCoef="0" IVar="-1" Cut="0.0000000000000000e+00" cType="1" res="1.5786155126988888e-03" rms="4.8529240489006042e-01" purity="5.9511494636535645e-01" nType="-99"/>
          <Node pos="r" depth="2" NCoef="0" IVar="-1" Cut="0.0000000000000000e+00" cType="1" res="-8.2998612197116017e-04" rms="4.9154952168464661e-01" purity="4.2839089035987854e-01" nType="-99"/>
        </Node>
        <Node pos="r" depth="1" NCoef="0" IVar="2" Cut="7.9859722900390625e+02" cType="1" res="8.7876096367835999e-02" rms="4.7807055711746216e-01" purity="6.3158214092254639e-01" nType="0">
          <Node pos="l" depth="2" NCoef="0" IVar="-1" Cut="0.0000000000000000e+00" cType="1" res="4.7199414111673832e-03" rms="4.3056005239486694e-01" purity="7.5113177299499512e-01" nType="-99"/>
          <Node pos="r" depth="2" NCoef="0" IVar="-1" Cut="0.0000000000000000e+00" cType="1" res="9.2785921879112720e-04" rms="4.8742514848709106e-01" purity="5.9233224391937256e-01" nType="-99"/>
        </Node>
      </Node>
    </BinaryTree>
    <BinaryTree type="DecisionTree" boostWeight="1.0000000000000000e+00" itree="59">
      <Node pos="s" depth="0" NCoef="0" IVar="1" Cut="9.9764961242675781e+01" cType="1" res="-1.1611434631049633e-02" rms="4.9292266368865967e-01" purity="4.9475935101509094e-01" nType="0">
        <Node pos="l" depth="1" NCoef="0" IVar="-1" Cut="0.0000000000000000e+00" cType="1" res="-2.4271856527775526e-03" rms="4.3348899483680725e-01" purity="2.5980025529861450e-01" nType="-99"/>
        <Node pos="r" depth="1" NCoef="0" IVar="1" Cut="1.3119792175292969e+02" cType="1" res="8.2020517438650131e-03" rms="4.9317499995231628e-01" purity="5.1601475477218628e-01" nType="0">
          <Node pos="l" depth="2" NCoef="0" IVar="-1" Cut="0.0000000000000000e+00" cType="1" res="8.0462952610105276e-04" rms="4.9001756310462952e-01" purity="5.6475317478179932e-01" nType="-99"/>
          <Node pos="r" depth="2" NCoef="0" IVar="-1" Cut="0.0000000000000000e+00" cType="1" res="-1.1970225023105741e-03" rms="4.8575749993324280e-01" purity="4.0103068947792053e-01" nType="-99"/>
        </Node>
      </Node>
    </BinaryTree>
    <BinaryTree type="DecisionTree" boostWeight="1.0000000000000000e+00" itree="60">
      <Node pos="s" depth="0" NCoef="0" IVar="0" Cut="1.9812413024902344e+02" cType="1" res="-6.7365514114499092e-03" rms="4.9276933073997498e-01" purity="5.0052410364151001e-01" nType="0">
        <Node pos="l" depth="1" NCoef="0" IVar="0" Cut="7.3042327880859375e+01" cType="1" res="4.1322547942399979e-02" rms="4.9040842056274414e-01" purity="5.5709546804428101e-01" nType="0">
          <Node pos="l" depth="2" NCoef="0" IVar="-1" Cut="0.0000000000000000e+00" cType="1" res="-1.5372250927612185e-03" rms="4.8342171311378479e-01" purity="3.8868525624275208e-01" nType="-99"/>
          <Node pos="r" depth="2" NCoef="0" IVar="-1" Cut="0.0000000000000000e+00" cType="1" res="1.2344584101811051e-03" rms="4.8507875204086304e-01" purity="5.9114730358123779e-01" nType="-99"/>
        </Node>
        <Node pos="r" depth="1" NCoef="0" IVar="3" Cut="8.7037116289138794e-01" cType="1" res="-9.0603351593017578e-02" rms="4.8560076951980591e-01" purity="4.0180277824401855e-01" nType="0">
          <Node pos="l" depth="2" NCoef="0" IVar="-1" Cut="0.0000000000000000e+00" cType="1" res="-2.0430069416761398e-03" rms="4.4852212071418762e-01" purity="2.8090807795524597e-01" nType="-99"/>
          <Node pos="r" depth="2" NCoef="0" IVar="-1" Cut="0.0000000000000000e+00" cType="1" res="-6.2223064014688134e-04" rms="4.9536305665969849e-01" purity="4.5858040452003479e-01" nType="-99"/>
        </Node>
      </Node>
    </BinaryTree>
    <BinaryTree type="DecisionTree" boostWeight="1.0000000000000000e+00" itree="61">
      <Node pos="s" depth="0" NCoef="0" IVar="1" Cut="1.0801126098632812e+02" cType="1" res="-2.9088938608765602e-03" rms="4.9383708834648132e-01" purity="5.0430744886398315e-01" nType="0">
        <Node pos="l" depth="1" NCoef="0" IVar="1" Cut="9.9566665649414062e+01" cType="1" res="-1.4117565751075745e-01" rms="4.7518247365951538e-01" purity="3.5879877209663391e-01" nType="0">
          <Node pos="l" depth="2" NCoef="0" IVar="-1" Cut="0.0000000000000000e+00" cType="1" res="-2.4360411334782839e-03" rms="4.4452542066574097e-01" purity="2.7317604422569275e-01" nType="-99"/>
          <Node pos="r" depth="2" NCoef="0" IVar="-1" Cut="0.0000000000000000e+00" cType="1" res="-7.3957507265731692e-04" rms="4.9139612913131714e-01" purity="4.4925779104232788e-01" nType="-99"/>
        </Node>
        <Node pos="r" depth="1" NCoef="0" IVar="1" Cut="1.4023031616210938e+02" cType="1" res="2.3042716085910797e-02" rms="4.9295657873153687e-01" purity="5.3161835670471191e-01" nType="0">
          <Node pos="l" depth="2" NCoef="0" IVar="-1" Cut="0.0000000000000000e+00" cType="1" res="7.6430902117863297e-04" rms="4.9154829978942871e-01" purity="5.6162047386169434e-01" nType="-99"/>
          <Node pos="r" depth="2" NCoef="0" IVar="-1" Cut="0.0000000000000000e+00" cType="1" res="-1.4385519316419959e-03" rms="4.7667828202247620e-01" purity="3.5924038290977478e-01" nType="-99"/>
        </Node>
      </Node>
    </BinaryTree>
    <BinaryTree type="DecisionTree" boostWeight="1.0000000000000000e+00" itree="62">
      <Node pos="s" depth="0" NCoef="0" IVar="1" Cut="1.0111934661865234e+02" cType="1" res="5.0819432362914085e-03" rms="4.9292889237403870e-01" purity="5.1258081197738647e-01" nType="0">
        <Node pos="l" depth="1" NCoef="0" IVar="-1" Cut="0.0000000000000000e+00" cType="1" res="-2.2856756113469601e-03" rms="4.5235344767570496e-01" purity="2.8979521989822388e-01" nType="-99"/>
        <Node pos="r" depth="1" NCoef="0" IVar="1" Cut="1.3236413574218750e+02" cType="1" res="2.4900233373045921e-02" rms="4.9197477102279663e-01" purity="5.3359276056289673e-01" nType="0">
          <Node pos="l" depth="2" NCoef="0" IVar="-1" Cut="0.0000000000000000e+00" cType="1" res="1.0684524895623326e-03" rms="4.8819947242736816e-01" purity="5.8041781187057495e-01" nType="-99"/>
          <Node pos="r" depth="2" NCoef="0" IVar="-1" Cut="0.0000000000000000e+00" cType="1" res="-1.0768409119918942e-03" rms="4.8544460535049438e-01" purity="4.0540698170661926e-01" nType="-99"/>
        </Node>
      </Node>
    </BinaryTree>
    <BinaryTree type="DecisionTree" boostWeight="1.0000000000000000e+00" itree="63">
      <Node pos="s" depth="0" NCoef="0" IVar="3" Cut="9.2831468582153320e-01" cType="1" res="-1.5906244516372681e-02" rms="4.9275094270706177e-01" purity="4.9165481328964233e-01" nType="0">
        <Node pos="l" depth="1" NCoef="0" IVar="1" Cut="1.3943876647949219e+02" cType="1" res="-4.9468658864498138e-02" rms="4.9276533722877502e-01" purity="4.4539329409599304e-01" nType="0">
          <Node pos="l" depth="2" NCoef="0" IVar="-1" Cut="0.0000000000000000e+00" cType="1" res="-3.8352073170244694e-04" rms="4.9552181363105774e-01" purity="4.7012335062026978e-01" nType="-99"/>
          <Node pos="r" depth="2" NCoef="0" IVar="-1" Cut="0.0000000000000000e+00" cType="1" res="-1.9807044882327318e-03" rms="4.5588016510009766e-01" purity="2.9710352420806885e-01" nType="-99"/>
        </Node>
        <Node pos="r" depth="1" NCoef="0" IVar="0" Cut="2.3372843933105469e+02" cType="1" res="8.5065253078937531e-02" rms="4.7872409224510193e-01" purity="6.3083106279373169e-01" nType="0">
          <Node pos="l" depth="2" NCoef="0" IVar="-1" Cut="0.0000000000000000e+00" cType="1" res="2.8272329363971949e-03" rms="4.6286112070083618e-01" purity="6.8661862611770630e-01" nType="-99"/>
          <Node pos="r" depth="2" NCoef="0" IVar="-1" Cut="0.0000000000000000e+00" cType="1" res="-4.7948886640369892e-04" rms="4.9768379330635071e-01" purity="4.9022257328033447e-01" nType="-99"/>
        </Node>
      </Node>
    </BinaryTree>
    <BinaryTree type="DecisionTree" boostWeight="1.0000000000000000e+00" itree="64">
      <Node pos="s" depth="0" NCoef="0" IVar="3" Cut="8.9616930484771729e-01" cType="1" res="-1.0025605559349060e-02" rms="4.9260130524635315e-01" purity="4.9721369147300720e-01" nType="0">
        <Node pos="l" depth="1" NCoef="0" IVar="4" Cut="6.7558160400390625e+02" cType="1" res="-6.8363301455974579e-02" rms="4.9013647437095642e-01" purity="4.1229835152626038e-01" nType="0">
          <Node pos="l" depth="2" NCoef="0" IVar="-1" Cut="0.0000000000000000e+00" cType="1" res="-1.4683415647596121e-03" rms="4.7683387994766235e-01" purity="3.5684975981712341e-01" nType="-99"/>
          <Node pos="r" depth="2" NCoef="0" IVar="-1" Cut="0.0000000000000000e+00" cType="1" res="-2.5894155260175467e-04" rms="4.9584269523620605e-01" purity="4.5893383026123047e-01" nType="-99"/>
        </Node>
        <Node pos="r" depth="1" NCoef="0" IVar="4" Cut="4.8715771484375000e+02" cType="1" res="5.2580494433641434e-02" rms="4.8752820491790771e-01" purity="5.8834207057952881e-01" nType="0">
          <Node pos="l" depth="2" NCoef="0" IVar="-1" Cut="0.0000000000000000e+00" cType="1" res="-1.1526155285537243e-03" rms="4.9720546603202820e-01" purity="4.7110804915428162e-01" nType="-99"/>
          <Node pos="r" depth="2" NCoef="0" IVar="-1" Cut="0.0000000000000000e+00" cType="1" res="1.2167013483121991e-03" rms="4.8399671912193298e-01" purity="6.0229331254959106e-01" nType="-99"/>
        </Node>
      </Node>
    </BinaryTree>
    <BinaryTree type="DecisionTree" boostWeight="1.0000000000000000e+00" itree="65">
      <Node pos="s" depth="0" NCoef="0" IVar="3" Cut="8.7393409013748169e-01" cType="1" res="-4.2583658359944820e-03" rms="4.9295553565025330e-01" purity="5.0263053178787231e-01" nType="0">
        <Node pos="l" depth="1" NCoef="0" IVar="1" Cut="1.3286671447753906e+02" cType="1" res="-8.7077118456363678e-02" rms="4.8602506518363953e-01" purity="3.9159819483757019e-01" nType="0">
          <Node pos="l" depth="2" NCoef="0" IVar="-1" Cut="0.0000000000000000e+00" cType="1" res="-7.1739614941179752e-04" rms="4.9328252673149109e-01" purity="4.2457717657089233e-01" nType="-99"/>
          <Node pos="r" depth="2" NCoef="0" IVar="-1" Cut="0.0000000000000000e+00" cType="1" res="-1.8355180509388447e-03" rms="4.5569944381713867e-01" purity="2.9989165067672729e-01" nType="-99"/>
        </Node>
        <Node pos="r" depth="1" NCoef="0" IVar="1" Cut="1.0571103668212891e+02" cType="1" res="3.3951696008443832e-02" rms="4.9143764376640320e-01" purity="5.5385744571685791e-01" nType="0">
          <Node pos="l" depth="2" NCoef="0" IVar="-1" Cut="0.0000000000000000e+00" cType="1" res="-1.5001032734289765e-03" rms="4.8367220163345337e-01" purity="3.9764511585235596e-01" nType="-99"/>
          <Node pos="r" depth="2" NCoef="0" IVar="-1" Cut="0.0000000000000000e+00" cType="1" res="8.3031109534204006e-04" rms="4.8961740732192993e-01" purity="5.7168710231781006e-01" nType="-99"/>
        </Node>
      </Node>
    </BinaryTree>
    <BinaryTree type="DecisionTree" boostWeight="1.0000000000000000e+00" itree="66">
      <Node pos="s" depth="0" NCoef="0" IVar="3" Cut="8.9634925127029419e-01" cType="1" res="-1.1082378216087818e-02" rms="4.9207991361618042e-01" purity="4.9609851837158203e-01" nType="0">
        <Node pos="l" depth="1" NCoef="0" IVar="0" Cut="2.3622422790527344e+02" cType="1" res="-6.5500274300575256e-02" rms="4.9003112316131592e-01" purity="4.1436591744422913e-01" nType="0">
          <Node pos="l" depth="2" NCoef="0" IVar="-1" Cut="0.0000000000000000e+00" cType="1" res="-3.9818996447138488e-04" rms="4.9656170606613159e-01" purity="4.5491591095924377e-01" nType="-99"/>
          <Node pos="r" depth="2" NCoef="0" IVar="-1" Cut="0.0000000000000000e+00" cType="1" res="-1.6402540495619178e-03" rms="4.6426767110824585e-01" purity="3.1979471445083618e-01" nType="-99"/>
        </Node>
        <Node pos="r" depth="1" NCoef="0" IVar="1" Cut="1.3843122863769531e+02" cType="1" res="4.5010197907686234e-02" rms="4.8787078261375427e-01" purity="5.8034640550613403e-01" nType="0">
          <Node pos="l" depth="2" NCoef="0" IVar="-1" Cut="0.0000000000000000e+00" cType="1" res="1.2886475306004286e-03" rms="4.8378190398216248e-01" purity="6.1353188753128052e-01" nType="-99"/>
          <Node pos="r" depth="2" NCoef="0" IVar="-1" Cut="0.0000000000000000e+00" cType="1" res="-1.3880269834771752e-03" rms="4.8259001970291138e-01" purity="3.8935428857803345e-01" nType="-99"/>
        </Node>
      </Node>
    </BinaryTree>
    <BinaryTree type="DecisionTree" boostWeight="1.0000000000000000e+00" itree="67">
      <Node pos="s" depth="0" NCoef="0" IVar="3" Cut="8.8998109102249146e-01" cType="1" res="-1.2123848311603069e-02" rms="4.9222633242607117e-01" purity="4.9476474523544312e-01" nType="0">
        <Node pos="l" depth="1" NCoef="0" IVar="0" Cut="1.9297581481933594e+02" cType="1" res="-7.4072666466236115e-02" rms="4.8831182718276978e-01" purity="4.0457636117935181e-01" nType="0">
          <Node pos="l" depth="2" NCoef="0" IVar="-1" Cut="0.0000000000000000e+00" cType="1" res="-3.9228188688866794e-04" rms="4.9663785099983215e-01" purity="4.5452710986137390e-01" nType="-99"/>
          <Node pos="r" depth="2" NCoef="0" IVar="-1" Cut="0.0000000000000000e+00" cType="1" res="-1.6068210825324059e-03" rms="4.6630105376243591e-01" purity="3.2470095157623291e-01" nType="-99"/>
        </Node>
        <Node pos="r" depth="1" NCoef="0" IVar="0" Cut="2.9911462402343750e+02" cType="1" res="4.3453101068735123e-02" rms="4.8907926678657532e-01" purity="5.7567656040191650e-01" nType="0">
          <Node pos="l" depth="2" NCoef="0" IVar="-1" Cut="0.0000000000000000e+00" cType="1" res="1.2170994887128472e-03" rms="4.8497277498245239e-01" purity="6.0583734512329102e-01" nType="-99"/>
          <Node pos="r" depth="2" NCoef="0" IVar="-1" Cut="0.0000000000000000e+00" cType="1" res="-1.0508416453376412e-03" rms="4.9120429158210754e-01" purity="4.3251577019691467e-01" nType="-99"/>
        </Node>
      </Node>
    </BinaryTree>
    <BinaryTree type="DecisionTree" boostWeight="1.0000000000000000e+00" itree="68">
      <Node pos="s" depth="0" NCoef="0" IVar="3" Cut="9.2833077907562256e-01" cType="1" res="1.6575116664171219e-02" rms="4.9097022414207458e-01" purity="5.2323293685913086e-01" nType="0">
        <Node pos="l" depth="1" NCoef="0" IVar="0" Cut="2.4568336486816406e+02" cType="1" res="-1.8446810543537140e-02" rms="4.9425303936004639e-01" purity="4.7488567233085632e-01" nType="0">
          <Node pos="l" depth="2" NCoef="0" IVar="-1" Cut="0.0000000000000000e+00" cType="1" res="1.8184269720222801e-04" rms="4.9575176835060120e-01" purity="5.1167535781860352e-01" nType="-99"/>
          <Node pos="r" depth="2" NCoef="0" IVar="-1" Cut="0.0000000000000000e+00" cType="1" res="-1.2846984900534153e-03" rms="4.7948890924453735e-01" purity="3.7153014540672302e-01" nType="-99"/>
        </Node>
        <Node pos="r" depth="1" NCoef="0" IVar="0" Cut="2.3372843933105469e+02" cType="1" res="1.2555065751075745e-01" rms="4.6399953961372375e-01" purity="6.7367225885391235e-01" nType="0">
          <Node pos="l" depth="2" NCoef="0" IVar="-1" Cut="0.0000000000000000e+00" cType="1" res="3.7641518283635378e-03" rms="4.4687306880950928e-01" purity="7.2184705734252930e-01" nType="-99"/>
          <Node pos="r" depth="2" NCoef="0" IVar="-1" Cut="0.0000000000000000e+00" cType="1" res="2.7572779799811542e-04" rms="4.9358785152435303e-01" purity="5.3728413581848145e-01" nType="-99"/>
        </Node>
      </Node>
    </BinaryTree>
    <BinaryTree type="DecisionTree" boostWeight="1.0000000000000000e+00" itree="69">
      <Node pos="s" depth="0" NCoef="0" IVar="1" Cut="1.4087635803222656e+02" cType="1" res="-1.7219057306647301e-02" rms="4.9178615212440491e-01" purity="4.8963451385498047e-01" nType="0">
        <Node pos="l" depth="1" NCoef="0" IVar="1" Cut="9.9002883911132812e+01" cType="1" res="1.0421036742627621e-02" rms="4.9303048849105835e-01" purity="5.2274918556213379e-01" nType="0">
          <Node pos="l" depth="2" NCoef="0" IVar="-1" Cut="0.0000000000000000e+00" cType="1" res="-2.1509949583560228e-03" rms="4.4944843649864197e-01" purity="2.9177290201187134e-01" nType="-99"/>
          <Node pos="r" depth="2" NCoef="0" IVar="-1" Cut="0.0000000000000000e+00" cType="1" res="4.3972395360469818e-04" rms="4.9252676963806152e-01" purity="5.4317855834960938e-01" nType="-99"/>
        </Node>
        <Node pos="r" depth="1" NCoef="0" IVar="-1" Cut="0.0000000000000000e+00" cType="1" res="-2.1192363929003477e-03" rms="4.4829809665679932e-01" purity="2.8670138120651245e-01" nType="-99"/>
      </Node>
    </BinaryTree>
    <BinaryTree type="DecisionTree" boostWeight="1.0000000000000000e+00" itree="70">
      <Node pos="s" depth="0" NCoef="0" IVar="3" Cut="8.7079077959060669e-01" cType="1" res="-2.4449098855257034e-02" rms="4.9219679832458496e-01" purity="4.8357814550399780e-01" nType="0">
        <Node pos="l" depth="1" NCoef="0" IVar="2" Cut="1.1587662353515625e+03" cType="1" res="-1.1305176466703415e-01" rms="4.7923916578292847e-01" purity="3.6403110623359680e-01" nType="0">
          <Node pos="l" depth="2" NCoef="0" IVar="-1" Cut="0.0000000000000000e+00" cType="1" res="-9.1619329759851098e-04" rms="4.8874691128730774e-01" purity="4.0120440721511841e-01" nType="-99"/>
          <Node pos="r" depth="2" NCoef="0" IVar="-1" Cut="0.0000000000000000e+00" cType="1" res="-1.8298246432095766e-03" rms="4.6003568172454834e-01" purity="3.0916282534599304e-01" nType="-99"/>
        </Node>
        <Node pos="r" depth="1" NCoef="0" IVar="0" Cut="2.3894863891601562e+02" cType="1" res="9.0242866426706314e-03" rms="4.9287611246109009e-01" purity="5.2874207496643066e-01" nType="0">
          <Node pos="l" depth="2" NCoef="0" IVar="-1" Cut="0.0000000000000000e+00" cType="1" res="7.8834960004314780e-04" rms="4.8969015479087830e-01" purity="5.7541060447692871e-01" nType="-99"/>
          <Node pos="r" depth="2" NCoef="0" IVar="-1" Cut="0.0000000000000000e+00" cType="1" res="-1.1555660748854280e-03" rms="4.8745065927505493e-01" purity="4.0872478485107422e-01" nType="-99"/>
        </Node>
      </Node>
    </BinaryTree>
    <BinaryTree type="DecisionTree" boostWeight="1.0000000000000000e+00" itree="71">
      <Node pos="s" depth="0" NCoef="0" IVar="3" Cut="9.2511814832687378e-01" cType="1" res="-6.4623769139871001e-04" rms="4.9148023128509521e-01" purity="5.0590699911117554e-01" nType="0">
        <Node pos="l" depth="1" NCoef="0" IVar="0" Cut="3.0281658935546875e+02" cType="1" res="-3.8981635123491287e-02" rms="4.9324795603752136e-01" purity="4.5335656404495239e-01" nType="0">
          <Node pos="l" depth="2" NCoef="0" IVar="-1" Cut="0.0000000000000000e+00" cType="1" res="-1.9320711726322770e-04" rms="4.9626833200454712e-01" purity="4.8303973674774170e-01" nType="-99"/>
          <Node pos="r" depth="2" NCoef="0" IVar="-1" Cut="0.0000000000000000e+00" cType="1" res="-1.6577972564846277e-03" rms="4.6634161472320557e-01" purity="3.2984414696693420e-01" nType="-99"/>
        </Node>
        <Node pos="r" depth="1" NCoef="0" IVar="1" Cut="1.2626679229736328e+02" cType="1" res="1.1154174804687500e-01" rms="4.6858471632003784e-01" purity="6.5969514846801758e-01" nType="0">
          <Node pos="l" depth="2" NCoef="0" IVar="-1" Cut="0.0000000000000000e+00" cType="1" res="3.6989115178585052e-03" rms="4.4596910476684570e-01" purity="7.1876370906829834e-01" nType="-99"/>
          <Node pos="r" depth="2" NCoef="0" IVar="-1" Cut="0.0000000000000000e+00" cType="1" res="8.0269266618415713e-04" rms="4.8842334747314453e-01" purity="5.8358627557754517e-01" nType="-99"/>
        </Node>
      </Node>
    </BinaryTree>
    <BinaryTree type="DecisionTree" boostWeight="1.0000000000000000e+00" itree="72">
      <Node pos="s" depth="0" NCoef="0" IVar="3" Cut="9.4111400842666626e-01" cType="1" res="-1.0653756558895111e-02" rms="4.9149078130722046e-01" purity="4.9670067429542542e-01" nType="0">
        <Node pos="l" depth="1" NCoef="0" IVar="0" Cut="6.7829383850097656e+01" cType="1" res="-4.0025942027568817e-02" rms="4.9290242791175842e-01" purity="4.5775154232978821e-01" nType="0">
          <Node pos="l" depth="2" NCoef="0" IVar="-1" Cut="0.0000000000000000e+00" cType="1" res="-2.2534169256687164e-03" rms="4.5696225762367249e-01" purity="3.0482193827629089e-01" nType="-99"/>
          <Node pos="r" depth="2" NCoef="0" IVar="-1" Cut="0.0000000000000000e+00" cType="1" res="-3.0753700411878526e-04" rms="4.9370259046554565e-01" purity="4.7511282563209534e-01" nType="-99"/>
        </Node>
        <Node pos="r" depth="1" NCoef="0" IVar="1" Cut="1.2999380493164062e+02" cType="1" res="1.3418358564376831e-01" rms="4.5768859982490540e-01" purity="6.8876314163208008e-01" nType="0">
          <Node pos="l" depth="2" NCoef="0" IVar="-1" Cut="0.0000000000000000e+00" cType="1" res="4.0260166861116886e-03" rms="4.4171366095542908e-01" purity="7.3028928041458130e-01" nType="-99"/>
          <Node pos="r" depth="2" NCoef="0" IVar="-1" Cut="0.0000000000000000e+00" cType="1" res="9.9351396784186363e-04" rms="4.8450499773025513e-01" purity="5.9064000844955444e-01" nType="-99"/>
        </Node>
      </Node>
    </BinaryTree>
    <BinaryTree type="DecisionTree" boostWeight="1.0000000000000000e+00" itree="73">
      <Node pos="s" depth="0" NCoef="0" IVar="3" Cut="9.2512607574462891e-01" cType="1" res="-2.5102933868765831e-03" rms="4.9093231558799744e-01" purity="5.0421184301376343e-01" nType="0">
        <Node pos="l" depth="1" NCoef="0" IVar="4" Cut="7.4163397216796875e+02" cType="1" res="-4.1495390236377716e-02" rms="4.9249356985092163e-01" purity="4.4987824559211731e-01" nType="0">
          <Node pos="l" depth="2" NCoef="0" IVar="-1" Cut="0.0000000000000000e+00" cType="1" res="-1.0716596152633429e-03" rms="4.8547902703285217e-01" purity="4.0711718797683716e-01" nType="-99"/>
          <Node pos="r" depth="2" NCoef="0" IVar="-1" Cut="0.0000000000000000e+00" cType="1" res="2.4041630967985839e-04" rms="4.9544417858123779e-01" purity="5.0514954328536987e-01" nType="-99"/>
        </Node>
        <Node pos="r" depth="1" NCoef="0" IVar="2" Cut="8.5280493164062500e+02" cType="1" res="1.1080285906791687e-01" rms="4.6828889846801758e-01" purity="6.6213631629943848e-01" nType="0">
          <Node pos="l" depth="2" NCoef="0" IVar="-1" Cut="0.0000000000000000e+00" cType="1" res="4.5623322948813438e-03" rms="4.3044313788414001e-01" purity="7.4995422363281250e-01" nType="-99"/>
          <Node pos="r" depth="2" NCoef="0" IVar="-1" Cut="0.0000000000000000e+00" cType="1" res="1.3832218246534467e-03" rms="4.8163223266601562e-01" purity="6.1813312768936157e-01" nType="-99"/>
        </Node>
      </Node>
    </BinaryTree>
    <BinaryTree type="DecisionTree" boostWeight="1.0000000000000000e+00" itree="74">
      <Node pos="s" depth="0" NCoef="0" IVar="3" Cut="8.9271318912506104e-01" cType="1" res="-8.3370152860879898e-03" rms="4.9167987704277039e-01" purity="4.9996128678321838e-01" nType="0">
        <Node pos="l" depth="1" NCoef="0" IVar="0" Cut="2.7947262573242188e+02" cType="1" res="-7.0745438337326050e-02" rms="4.8857772350311279e-01" purity="4.0667545795440674e-01" nType="0">
          <Node pos="l" depth="2" NCoef="0" IVar="-1" Cut="0.0000000000000000e+00" cType="1" res="-5.4265535436570644e-04" rms="4.9445104598999023e-01" purity="4.3960201740264893e-01" nType="-99"/>
          <Node pos="r" depth="2" NCoef="0" IVar="-1" Cut="0.0000000000000000e+00" cType="1" res="-1.7352225258946419e-03" rms="4.5547947287559509e-01" purity="2.9580655694007874e-01" nType="-99"/>
        </Node>
        <Node pos="r" depth="1" NCoef="0" IVar="1" Cut="1.3726261901855469e+02" cType="1" res="5.0666261464357376e-02" rms="4.8729908466339111e-01" purity="5.8815723657608032e-01" nType="0">
          <Node pos="l" depth="2" NCoef="0" IVar="-1" Cut="0.0000000000000000e+00" cType="1" res="1.3250419870018959e-03" rms="4.8283496499061584e-01" purity="6.1642968654632568e-01" nType="-99"/>
          <Node pos="r" depth="2" NCoef="0" IVar="-1" Cut="0.0000000000000000e+00" cType="1" res="-9.7735773306339979e-04" rms="4.9393805861473083e-01" purity="4.3306338787078857e-01" nType="-99"/>
        </Node>
      </Node>
    </BinaryTree>
    <BinaryTree type="DecisionTree" boostWeight="1.0000000000000000e+00" itree="75">
      <Node pos="s" depth="0" NCoef="0" IVar="3" Cut="8.9637273550033569e-01" cType="1" res="-1.5559409745037556e-02" rms="4.9180325865745544e-01" purity="4.9258875846862793e-01" nType="0">
        <Node pos="l" depth="1" NCoef="0" IVar="4" Cut="5.0963052368164062e+02" cType="1" res="-7.3141545057296753e-02" rms="4.8844444751739502e-01" purity="4.0504103899002075e-01" nType="0">
          <Node pos="l" depth="2" NCoef="0" IVar="-1" Cut="0.0000000000000000e+00" cType="1" res="-2.0549457985907793e-03" rms="4.5005977153778076e-01" purity="2.8905293345451355e-01" nType="-99"/>
          <Node pos="r" depth="2" NCoef="0" IVar="-1" Cut="0.0000000000000000e+00" cType="1" res="-6.5056222956627607e-04" rms="4.9198690056800842e-01" purity="4.2557388544082642e-01" nType="-99"/>
        </Node>
        <Node pos="r" depth="1" NCoef="0" IVar="0" Cut="1.0200649261474609e+02" cType="1" res="4.6878274530172348e-02" rms="4.8779788613319397e-01" purity="5.8751881122589111e-01" nType="0">
          <Node pos="l" depth="2" NCoef="0" IVar="-1" Cut="0.0000000000000000e+00" cType="1" res="-8.0323725705966353e-04" rms="4.9707669019699097e-01" purity="4.9620908498764038e-01" nType="-99"/>
          <Node pos="r" depth="2" NCoef="0" IVar="-1" Cut="0.0000000000000000e+00" cType="1" res="1.5020418213680387e-03" rms="4.7934803366661072e-01" purity="6.2050098180770874e-01" nType="-99"/>
        </Node>
      </Node>
    </BinaryTree>
    <BinaryTree type="DecisionTree" boostWeight="1.0000000000000000e+00" itree="76">
      <Node pos="s" depth="0" NCoef="0" IVar="3" Cut="8.9299619197845459e-01" cType="1" res="-2.1256618201732635e-02" rms="4.9139493703842163e-01" purity="4.8650994896888733e-01" nType="0">
        <Node pos="l" depth="1" NCoef="0" IVar="0" Cut="3.2802203369140625e+02" cType="1" res="-8.1880621612071991e-02" rms="4.8610752820968628e-01" purity="3.9472883939743042e-01" nType="0">
          <Node pos="l" depth="2" NCoef="0" IVar="-1" Cut="0.0000000000000000e+00" cType="1" res="-7.4630748713389039e-04" rms="4.9170237779617310e-01" purity="4.1961228847503662e-01" nType="-99"/>
          <Node pos="r" depth="2" NCoef="0" IVar="-1" Cut="0.0000000000000000e+00" cType="1" res="-2.0268815569579601e-03" rms="4.4046556949615479e-01" purity="2.6742869615554810e-01" nType="-99"/>
        </Node>
        <Node pos="r" depth="1" NCoef="0" IVar="0" Cut="8.8277816772460938e+01" cType="1" res="3.8726180791854858e-02" rms="4.8923251032829285e-01" purity="5.7732033729553223e-01" nType="0">
          <Node pos="l" depth="2" NCoef="0" IVar="-1" Cut="0.0000000000000000e+00" cType="1" res="-1.1612939415499568e-03" rms="4.9393737316131592e-01" purity="4.5918464660644531e-01" nType="-99"/>
          <Node pos="r" depth="2" NCoef="0" IVar="-1" Cut="0.0000000000000000e+00" cType="1" res="1.1908593587577343e-03" rms="4.8360729217529297e-01" purity="6.0525101423263550e-01" nType="-99"/>
        </Node>
      </Node>
    </BinaryTree>
    <BinaryTree type="DecisionTree" boostWeight="1.0000000000000000e+00" itree="77">
      <Node pos="s" depth="0" NCoef="0" IVar="3" Cut="8.9310801029205322e-01" cType="1" res="-8.3536906167864799e-03" rms="4.9230918288230896e-01" purity="4.9998468160629272e-01" nType="0">
        <Node pos="l" depth="1" NCoef="0" IVar="4" Cut="7.3301556396484375e+02" cType="1" res="-5.3993266075849533e-02" rms="4.9153104424476624e-01" purity="4.2274907231330872e-01" nType="0">
          <Node pos="l" depth="2" NCoef="0" IVar="-1" Cut="0.0000000000000000e+00" cType="1" res="-1.2195949675515294e-03" rms="4.8147436976432800e-01" purity="3.7522378563880920e-01" nType="-99"/>
          <Node pos="r" depth="2" NCoef="0" IVar="-1" Cut="0.0000000000000000e+00" cType="1" res="1.3472771388478577e-04" rms="4.9719613790512085e-01" purity="4.8506417870521545e-01" nType="-99"/>
        </Node>
        <Node pos="r" depth="1" NCoef="0" IVar="2" Cut="1.0595532226562500e+03" cType="1" res="3.5252604633569717e-02" rms="4.8908901214599609e-01" purity="5.7377934455871582e-01" nType="0">
          <Node pos="l" depth="2" NCoef="0" IVar="-1" Cut="0.0000000000000000e+00" cType="1" res="1.5811828197911382e-03" rms="4.7864946722984314e-01" purity="6.2964618206024170e-01" nType="-99"/>
          <Node pos="r" depth="2" NCoef="0" IVar="-1" Cut="0.0000000000000000e+00" cType="1" res="-3.2417525653727353e-04" rms="4.9484857916831970e-01" purity="5.0959956645965576e-01" nType="-99"/>
        </Node>
      </Node>
    </BinaryTree>
    <BinaryTree type="DecisionTree" boostWeight="1.0000000000000000e+00" itree="78">
      <Node pos="s" depth="0" NCoef="0" IVar="3" Cut="8.9574402570724487e-01" cType="1" res="3.0385577701963484e-04" rms="4.9076405167579651e-01" purity="5.0833219289779663e-01" nType="0">
        <Node pos="l" depth="1" NCoef="0" IVar="0" Cut="2.4807130432128906e+02" cType="1" res="-5.7716511189937592e-02" rms="4.8998868465423584e-01" purity="4.1833940148353577e-01" nType="0">
          <Node pos="l" depth="2" NCoef="0" IVar="-1" Cut="0.0000000000000000e+00" cType="1" res="-2.3650015646126121e-04" rms="4.9716031551361084e-01" purity="4.6503528952598572e-01" nType="-99"/>
          <Node pos="r" depth="2" NCoef="0" IVar="-1" Cut="0.0000000000000000e+00" cType="1" res="-1.7309446120634675e-03" rms="4.5802128314971924e-01" purity="3.0573543906211853e-01" nType="-99"/>
        </Node>
        <Node pos="r" depth="1" NCoef="0" IVar="2" Cut="1.7303947753906250e+03" cType="1" res="6.0303576290607452e-02" rms="4.8430839180946350e-01" purity="6.0139513015747070e-01" nType="0">
          <Node pos="l" depth="2" NCoef="0" IVar="-1" Cut="0.0000000000000000e+00" cType="1" res="1.4617239357903600e-03" rms="4.8076558113098145e-01" purity="6.2245154380798340e-01" nType="-99"/>
          <Node pos="r" depth="2" NCoef="0" IVar="-1" Cut="0.0000000000000000e+00" cType="1" res="-1.1424361728131771e-03" rms="4.8735830187797546e-01" purity="4.3769595026969910e-01" nType="-99"/>
        </Node>
      </Node>
    </BinaryTree>
    <BinaryTree type="DecisionTree" boostWeight="1.0000000000000000e+00" itree="79">
      <Node pos="s" depth="0" NCoef="0" IVar="0" Cut="6.7829383850097656e+01" cType="1" res="-4.7276229597628117e-03" rms="4.9196404218673706e-01" purity="5.0395345687866211e-01" nType="0">
        <Node pos="l" depth="1" NCoef="0" IVar="-1" Cut="0.0000000000000000e+00" cType="1" res="-2.0157799590379000e-03" rms="4.6698972582817078e-01" purity="3.3603185415267944e-01" nType="-99"/>
        <Node pos="r" depth="1" NCoef="0" IVar="0" Cut="1.5488163757324219e+02" cType="1" res="1.3830073177814484e-02" rms="4.9109274148941040e-01" purity="5.2237439155578613e-01" nType="0">
          <Node pos="l" depth="2" NCoef="0" IVar="-1" Cut="0.0000000000000000e+00" cType="1" res="1.2133615091443062e-03" rms="4.8363044857978821e-01" purity="5.9476089477539062e-01" nType="-99"/>
          <Node pos="r" depth="2" NCoef="0" IVar="-1" Cut="0.0000000000000000e+00" cType="1" res="-5.9623917331919074e-04" rms="4.9130323529243469e-01" purity="4.5303553342819214e-01" nType="-99"/>
        </Node>
      </Node>
    </BinaryTree>
    <BinaryTree type="DecisionTree" boostWeight="1.0000000000000000e+00" itree="80">
      <Node pos="s" depth="0" NCoef="0" IVar="3" Cut="8.9299619197845459e-01" cType="1" res="-4.5537091791629791e-03" rms="4.9202120304107666e-01" purity="5.0345331430435181e-01" nType="0">
        <Node pos="l" depth="1" NCoef="0" IVar="4" Cut="6.7558160400390625e+02" cType="1" res="-5.4315794259309769e-02" rms="4.9098372459411621e-01" purity="4.2141669988632202e-01" nType="0">
          <Node pos="l" depth="2" NCoef="0" IVar="-1" Cut="0.0000000000000000e+00" cType="1" res="-1.4059493551030755e-03" rms="4.7482585906982422e-01" purity="3.5369190573692322e-01" nType="-99"/>
          <Node pos="r" depth="2" NCoef="0" IVar="-1" Cut="0.0000000000000000e+00" cType="1" res="2.5307354007964022e-05" rms="4.9679383635520935e-01" purity="4.7681280970573425e-01" nType="-99"/>
        </Node>
        <Node pos="r" depth="1" NCoef="0" IVar="3" Cut="9.5783627033233643e-01" cType="1" res="4.4501658529043198e-02" rms="4.8810109496116638e-01" purity="5.8432477712631226e-01" nType="0">
          <Node pos="l" depth="2" NCoef="0" IVar="-1" Cut="0.0000000000000000e+00" cType="1" res="3.1748716719448566e-04" rms="4.9366661906242371e-01" purity="5.5346429347991943e-01" nType="-99"/>
          <Node pos="r" depth="2" NCoef="0" IVar="-1" Cut="0.0000000000000000e+00" cType="1" res="3.4764742013067007e-03" rms="4.5101884007453918e-01" purity="7.0922410488128662e-01" nType="-99"/>
        </Node>
      </Node>
    </BinaryTree>
    <BinaryTree type="DecisionTree" boostWeight="1.0000000000000000e+00" itree="81">
      <Node pos="s" depth="0" NCoef="0" IVar="0" Cut="2.4265962219238281e+02" cType="1" res="-1.4443466439843178e-02" rms="4.9123385548591614e-01" purity="4.9281430244445801e-01" nType="0">
        <Node pos="l" depth="1" NCoef="0" IVar="0" Cut="8.1527137756347656e+01" cType="1" res="2.1611109375953674e-02" rms="4.9106729030609131e-01" purity="5.3702199459075928e-01" nType="0">
          <Node pos="l" depth="2" NCoef="0" IVar="-1" Cut="0.0000000000000000e+00" cType="1" res="-1.4413339085876942e-03" rms="4.8088350892066956e-01" purity="3.9282748103141785e-01" nType="-99"/>
          <Node pos="r" depth="2" NCoef="0" IVar="-1" Cut="0.0000000000000000e+00" cType="1" res="9.0608344180509448e-04" rms="4.8748466372489929e-01" purity="5.7336479425430298e-01" nType="-99"/>
        </Node>
        <Node pos="r" depth="1" NCoef="0" IVar="4" Cut="8.3512384033203125e+02" cType="1" res="-1.1034062504768372e-01" rms="4.7863569855690002e-01" purity="3.7523174285888672e-01" nType="0">
          <Node pos="l" depth="2" NCoef="0" IVar="-1" Cut="0.0000000000000000e+00" cType="1" res="-1.9837766885757446e-03" rms="4.5253315567970276e-01" purity="3.0191534757614136e-01" nType="-99"/>
          <Node pos="r" depth="2" NCoef="0" IVar="-1" Cut="0.0000000000000000e+00" cType="1" res="-5.4978724801912904e-04" rms="4.9220779538154602e-01" purity="4.4497561454772949e-01" nType="-99"/>
        </Node>
      </Node>
    </BinaryTree>
    <BinaryTree type="DecisionTree" boostWeight="1.0000000000000000e+00" itree="82">
      <Node pos="s" depth="0" NCoef="0" IVar="1" Cut="1.4588926696777344e+02" cType="1" res="-1.5091462060809135e-02" rms="4.9181216955184937e-01" purity="4.9258106946945190e-01" nType="0">
        <Node pos="l" depth="1" NCoef="0" IVar="3" Cut="8.7717002630233765e-01" cType="1" res="2.7566980570554733e-03" rms="4.9258765578269958e-01" purity="5.1413923501968384e-01" nType="0">
          <Node pos="l" depth="2" NCoef="0" IVar="-1" Cut="0.0000000000000000e+00" cType="1" res="-8.6164911044761539e-04" rms="4.8954907059669495e-01" purity="4.0549376606941223e-01" nType="-99"/>
          <Node pos="r" depth="2" NCoef="0" IVar="-1" Cut="0.0000000000000000e+00" cType="1" res="6.6940882243216038e-04" rms="4.8987600207328796e-01" purity="5.6897777318954468e-01" nType="-99"/>
        </Node>
        <Node pos="r" depth="1" NCoef="0" IVar="-1" Cut="0.0000000000000000e+00" cType="1" res="-2.1113522816449404e-03" rms="4.4678381085395813e-01" purity="2.7819359302520752e-01" nType="-99"/>
      </Node>
    </BinaryTree>
    <BinaryTree type="DecisionTree" boostWeight="1.0000000000000000e+00" itree="83">
      <Node pos="s" depth="0" NCoef="0" IVar="3" Cut="9.4712191820144653e-01" cType="1" res="-1.1060683988034725e-02" rms="4.9061006307601929e-01" purity="4.9613973498344421e-01" nType="0">
        <Node pos="l" depth="1" NCoef="0" IVar="1" Cut="1.4023283386230469e+02" cType="1" res="-3.5781126469373703e-02" rms="4.9216398596763611e-01" purity="4.6272799372673035e-01" nType="0">
          <Node pos="l" depth="2" NCoef="0" IVar="-1" Cut="0.0000000000000000e+00" cType="1" res="-1.8156140868086368e-04" rms="4.9493286013603210e-01" purity="4.9110150337219238e-01" nType="-99"/>
          <Node pos="r" depth="2" NCoef="0" IVar="-1" Cut="0.0000000000000000e+00" cType="1" res="-1.8436808604747057e-03" rms="4.5301851630210876e-01" purity="2.9724204540252686e-01" nType="-99"/>
        </Node>
        <Node pos="r" depth="1" NCoef="0" IVar="1" Cut="1.2438536071777344e+02" cType="1" res="1.4310581982135773e-01" rms="4.5121616125106812e-01" purity="7.0450872182846069e-01" nType="0">
          <Node pos="l" depth="2" NCoef="0" IVar="-1" Cut="0.0000000000000000e+00" cType="1" res="5.8938208967447281e-03" rms="4.1237267851829529e-01" purity="7.8071290254592896e-01" nType="-99"/>
          <Node pos="r" depth="2" NCoef="0" IVar="-1" Cut="0.0000000000000000e+00" cType="1" res="1.6073224833235145e-03" rms="4.7673746943473816e-01" purity="6.3249784708023071e-01" nType="-99"/>
        </Node>
      </Node>
    </BinaryTree>
    <BinaryTree type="DecisionTree" boostWeight="1.0000000000000000e+00" itree="84">
      <Node pos="s" depth="0" NCoef="0" IVar="1" Cut="1.3852383422851562e+02" cType="1" res="-9.0100727975368500e-03" rms="4.8952874541282654e-01" purity="4.9842146039009094e-01" nType="0">
        <Node pos="l" depth="1" NCoef="0" IVar="3" Cut="9.1872501373291016e-01" cType="1" res="2.2218879312276840e-02" rms="4.9004280567169189e-01" purity="5.3655213117599487e-01" nType="0">
          <Node pos="l" depth="2" NCoef="0" IVar="-1" Cut="0.0000000000000000e+00" cType="1" res="-3.1136785401031375e-04" rms="4.9581995606422424e-01" purity="4.7064384818077087e-01" nType="-99"/>
          <Node pos="r" depth="2" NCoef="0" IVar="-1" Cut="0.0000000000000000e+00" cType="1" res="2.6023923419415951e-03" rms="4.6156576275825500e-01" purity="6.8268924951553345e-01" nType="-99"/>
        </Node>
        <Node pos="r" depth="1" NCoef="0" IVar="3" Cut="9.0804398059844971e-01" cType="1" res="-1.5831875801086426e-01" rms="4.5855754613876343e-01" purity="3.1611511111259460e-01" nType="0">
          <Node pos="l" depth="2" NCoef="0" IVar="-1" Cut="0.0000000000000000e+00" cType="1" res="-2.0675389096140862e-03" rms="4.3662893772125244e-01" purity="2.6090297102928162e-01" nType="-99"/>
          <Node pos="r" depth="2" NCoef="0" IVar="-1" Cut="0.0000000000000000e+00" cType="1" res="-9.8907109349966049e-04" rms="4.9018338322639465e-01" purity="4.3113729357719421e-01" nType="-99"/>
        </Node>
      </Node>
    </BinaryTree>
    <BinaryTree type="DecisionTree" boostWeight="1.0000000000000000e+00" itree="85">
      <Node pos="s" depth="0" NCoef="0" IVar="3" Cut="9.1863507032394409e-01" cType="1" res="-1.6750868409872055e-02" rms="4.8906540870666504e-01" purity="4.9105793237686157e-01" nType="0">
        <Node pos="l" depth="1" NCoef="0" IVar="0" Cut="1.9273635864257812e+02" cType="1" res="-6.3599765300750732e-02" rms="4.8887684941291809e-01" purity="4.2343813180923462e-01" nType="0">
          <Node pos="l" depth="2" NCoef="0" IVar="-1" Cut="0.0000000000000000e+00" cType="1" res="-1.6241488629020751e-04" rms="4.9547678232192993e-01" purity="4.8371651768684387e-01" nType="-99"/>
          <Node pos="r" depth="2" NCoef="0" IVar="-1" Cut="0.0000000000000000e+00" cType="1" res="-1.6430789837613702e-03" rms="4.6738785505294800e-01" purity="3.3051490783691406e-01" nType="-99"/>
        </Node>
        <Node pos="r" depth="1" NCoef="0" IVar="2" Cut="7.0503930664062500e+02" cType="1" res="9.0698517858982086e-02" rms="4.7225907444953918e-01" purity="6.4614611864089966e-01" nType="0">
          <Node pos="l" depth="2" NCoef="0" IVar="-1" Cut="0.0000000000000000e+00" cType="1" res="5.8031640946865082e-03" rms="4.0904474258422852e-01" purity="7.8536206483840942e-01" nType="-99"/>
          <Node pos="r" depth="2" NCoef="0" IVar="-1" Cut="0.0000000000000000e+00" cType="1" res="1.2698257341980934e-03" rms="4.8029059171676636e-01" purity="6.1847597360610962e-01" nType="-99"/>
        </Node>
      </Node>
    </BinaryTree>
    <BinaryTree type="DecisionTree" boostWeight="1.0000000000000000e+00" itree="86">
      <Node pos="s" depth="0" NCoef="0" IVar="1" Cut="1.4678958129882812e+02" cType="1" res="-1.1243687942624092e-02" rms="4.9151256680488586e-01" purity="4.9843791127204895e-01" nType="0">
        <Node pos="l" depth="1" NCoef="0" IVar="3" Cut="8.8639497756958008e-01" cType="1" res="3.7495412398129702e-03" rms="4.9216738343238831e-01" purity="5.1704865694046021e-01" nType="0">
          <Node pos="l" depth="2" NCoef="0" IVar="-1" Cut="0.0000000000000000e+00" cType="1" res="-6.8839400773867965e-04" rms="4.9092409014701843e-01" purity="4.2056858539581299e-01" nType="-99"/>
          <Node pos="r" depth="2" NCoef="0" IVar="-1" Cut="0.0000000000000000e+00" cType="1" res="8.1197591498494148e-04" rms="4.8851236701011658e-01" purity="5.8829259872436523e-01" nType="-99"/>
        </Node>
        <Node pos="r" depth="1" NCoef="0" IVar="-1" Cut="0.0000000000000000e+00" cType="1" res="-2.0318208262324333e-03" rms="4.4919887185096741e-01" purity="2.8415882587432861e-01" nType="-99"/>
      </Node>
    </BinaryTree>
    <BinaryTree type="DecisionTree" boostWeight="1.0000000000000000e+00" itree="87">
      <Node pos="s" depth="0" NCoef="0" IVar="3" Cut="9.6273124217987061e-01" cType="1" res="-6.7958515137434006e-03" rms="4.9198809266090393e-01" purity="5.0230348110198975e-01" nType="0">
        <Node pos="l" depth="1" NCoef="0" IVar="4" Cut="6.7147210693359375e+02" cType="1" res="-2.1232761442661285e-02" rms="4.9340501427650452e-01" purity="4.8239418864250183e-01" nType="0">
          <Node pos="l" depth="2" NCoef="0" IVar="-1" Cut="0.0000000000000000e+00" cType="1" res="-9.5224974211305380e-04" rms="4.8858857154846191e-01" purity="4.3428096175193787e-01" nType="-99"/>
          <Node pos="r" depth="2" NCoef="0" IVar="-1" Cut="0.0000000000000000e+00" cType="1" res="2.6540033286437392e-04" rms="4.9339601397514343e-01" purity="5.1850491762161255e-01" nType="-99"/>
        </Node>
        <Node pos="r" depth="1" NCoef="0" IVar="-1" Cut="0.0000000000000000e+00" cType="1" res="3.6829826422035694e-03" rms="4.4665557146072388e-01" purity="7.2027701139450073e-01" nType="-99"/>
      </Node>
    </BinaryTree>
    <BinaryTree type="DecisionTree" boostWeight="1.0000000000000000e+00" itree="88">
      <Node pos="s" depth="0" NCoef="0" IVar="1" Cut="1.3511039733886719e+02" cType="1" res="-6.3479118980467319e-03" rms="4.9079674482345581e-01" purity="5.0180494785308838e-01" nType="0">
        <Node pos="l" depth="1" NCoef="0" IVar="1" Cut="1.0270581054687500e+02" cType="1" res="2.6482982560992241e-02" rms="4.9051722884178162e-01" purity="5.4206484556198120e-01" nType="0">
          <Node pos="l" depth="2" NCoef="0" IVar="-1" Cut="0.0000000000000000e+00" cType="1" res="-1.7089868197217584e-03" rms="4.7201842069625854e-01" purity="3.5560929775238037e-01" nType="-99"/>
          <Node pos="r" depth="2" NCoef="0" IVar="-1" Cut="0.0000000000000000e+00" cType="1" res="7.7484035864472389e-04" rms="4.8888134956359863e-01" purity="5.6723225116729736e-01" nType="-99"/>
        </Node>
        <Node pos="r" depth="1" NCoef="0" IVar="4" Cut="6.7711804199218750e+02" cType="1" res="-1.2938916683197021e-01" rms="4.7194361686706543e-01" purity="3.5092186927795410e-01" nType="0">
          <Node pos="l" depth="2" NCoef="0" IVar="-1" Cut="0.0000000000000000e+00" cType="1" res="-2.2880006581544876e-03" rms="4.4346264004707336e-01" purity="2.8105413913726807e-01" nType="-99"/>
          <Node pos="r" depth="2" NCoef="0" IVar="-1" Cut="0.0000000000000000e+00" cType="1" res="-1.0588895529508591e-03" rms="4.8343980312347412e-01" purity="3.9493480324745178e-01" nType="-99"/>
        </Node>
      </Node>
    </BinaryTree>
    <BinaryTree type="DecisionTree" boostWeight="1.0000000000000000e+00" itree="89">
      <Node pos="s" depth="0" NCoef="0" IVar="3" Cut="8.7077695131301880e-01" cType="1" res="-3.8903546519577503e-03" rms="4.9035343527793884e-01" purity="5.0454866886138916e-01" nType="0">
        <Node pos="l" depth="1" NCoef="0" IVar="0" Cut="2.2245350646972656e+02" cType="1" res="-9.7155891358852386e-02" rms="4.7972494363784790e-01" purity="3.7294504046440125e-01" nType="0">
          <Node pos="l" depth="2" NCoef="0" IVar="-1" Cut="0.0000000000000000e+00" cType="1" res="-6.4601167105138302e-04" rms="4.9211576581001282e-01" purity="4.2674186825752258e-01" nType="-99"/>
          <Node pos="r" depth="2" NCoef="0" IVar="-1" Cut="0.0000000000000000e+00" cType="1" res="-1.8948037177324295e-03" rms="4.4464200735092163e-01" purity="2.7580872178077698e-01" nType="-99"/>
        </Node>
        <Node pos="r" depth="1" NCoef="0" IVar="4" Cut="6.9768273925781250e+02" cType="1" res="3.2910168170928955e-02" rms="4.8962056636810303e-01" purity="5.5647659301757812e-01" nType="0">
          <Node pos="l" depth="2" NCoef="0" IVar="-1" Cut="0.0000000000000000e+00" cType="1" res="-3.0591353424824774e-04" rms="4.9234315752983093e-01" purity="5.0807696580886841e-01" nType="-99"/>
          <Node pos="r" depth="2" NCoef="0" IVar="-1" Cut="0.0000000000000000e+00" cType="1" res="1.3686716556549072e-03" rms="4.8247075080871582e-01" purity="5.9850054979324341e-01" nType="-99"/>
        </Node>
      </Node>
    </BinaryTree>
    <BinaryTree type="DecisionTree" boostWeight="1.0000000000000000e+00" itree="90">
      <Node pos="s" depth="0" NCoef="0" IVar="3" Cut="8.9630758762359619e-01" cType="1" res="-1.8848216161131859e-02" rms="4.9084922671318054e-01" purity="4.8910009860992432e-01" nType="0">
        <Node pos="l" depth="1" NCoef="0" IVar="1" Cut="1.3391940307617188e+02" cType="1" res="-6.7209385335445404e-02" rms="4.8850601911544800e-01" purity="4.0734741091728210e-01" nType="0">
          <Node pos="l" depth="2" NCoef="0" IVar="-1" Cut="0.0000000000000000e+00" cType="1" res="-5.4456084035336971e-04" rms="4.9378621578216553e-01" purity="4.3607893586158752e-01" nType="-99"/>
          <Node pos="r" depth="2" NCoef="0" IVar="-1" Cut="0.0000000000000000e+00" cType="1" res="-1.6447234665974975e-03" rms="4.5973613858222961e-01" purity="3.0763155221939087e-01" nType="-99"/>
        </Node>
        <Node pos="r" depth="1" NCoef="0" IVar="1" Cut="1.0920656585693359e+02" cType="1" res="3.4823287278413773e-02" rms="4.8785606026649475e-01" purity="5.7982975244522095e-01" nType="0">
          <Node pos="l" depth="2" NCoef="0" IVar="-1" Cut="0.0000000000000000e+00" cType="1" res="-1.3684742152690887e-03" rms="4.9094852805137634e-01" purity="4.4082912802696228e-01" nType="-99"/>
          <Node pos="r" depth="2" NCoef="0" IVar="-1" Cut="0.0000000000000000e+00" cType="1" res="1.0224973084405065e-03" rms="4.8365658521652222e-01" purity="6.0350519418716431e-01" nType="-99"/>
        </Node>
      </Node>
    </BinaryTree>
    <BinaryTree type="DecisionTree" boostWeight="1.0000000000000000e+00" itree="91">
      <Node pos="s" depth="0" NCoef="0" IVar="1" Cut="9.9138389587402344e+01" cType="1" res="8.3692763000726700e-03" rms="4.9021753668785095e-01" purity="5.1643270254135132e-01" nType="0">
        <Node pos="l" depth="1" NCoef="0" IVar="-1" Cut="0.0000000000000000e+00" cType="1" res="-2.1188352257013321e-03" rms="4.5572659373283386e-01" purity="3.0158638954162598e-01" nType="-99"/>
        <Node pos="r" depth="1" NCoef="0" IVar="1" Cut="1.4704788208007812e+02" cType="1" res="2.3140855133533478e-02" rms="4.8968952894210815e-01" purity="5.3304511308670044e-01" nType="0">
          <Node pos="l" depth="2" NCoef="0" IVar="-1" Cut="0.0000000000000000e+00" cType="1" res="6.4514018595218658e-04" rms="4.8893648386001587e-01" purity="5.5503767728805542e-01" nType="-99"/>
          <Node pos="r" depth="2" NCoef="0" IVar="-1" Cut="0.0000000000000000e+00" cType="1" res="-1.7672652611508965e-03" rms="4.5992675423622131e-01" purity="3.0763357877731323e-01" nType="-99"/>
        </Node>
      </Node>
    </BinaryTree>
    <BinaryTree type="DecisionTree" boostWeight="1.0000000000000000e+00" itree="92">
      <Node pos="s" depth="0" NCoef="0" IVar="1" Cut="1.3844963073730469e+02" cType="1" res="-1.4112093485891819e-03" rms="4.8949596285820007e-01" purity="5.0655263662338257e-01" nType="0">
        <Node pos="l" depth="1" NCoef="0" IVar="0" Cut="6.6812438964843750e+01" cType="1" res="2.4996258318424225e-02" rms="4.8960331082344055e-01" purity="5.3988116979598999e-01" nType="0">
          <Node pos="l" depth="2" NCoef="0" IVar="-1" Cut="0.0000000000000000e+00" cType="1" res="-1.8198894103989005e-03" rms="4.7219228744506836e-01" purity="3.6141371726989746e-01" nType="-99"/>
          <Node pos="r" depth="2" NCoef="0" IVar="-1" Cut="0.0000000000000000e+00" cType="1" res="7.0385425351560116e-04" rms="4.8763406276702881e-01" purity="5.5956292152404785e-01" nType="-99"/>
        </Node>
        <Node pos="r" depth="1" NCoef="0" IVar="3" Cut="8.8610804080963135e-01" cType="1" res="-1.3814912736415863e-01" rms="4.6556833386421204e-01" purity="3.3397728204727173e-01" nType="0">
          <Node pos="l" depth="2" NCoef="0" IVar="-1" Cut="0.0000000000000000e+00" cType="1" res="-2.0010627340525389e-03" rms="4.2911291122436523e-01" purity="2.4716669321060181e-01" nType="-99"/>
          <Node pos="r" depth="2" NCoef="0" IVar="-1" Cut="0.0000000000000000e+00" cType="1" res="-9.1189867816865444e-04" rms="4.9331456422805786e-01" purity="4.3094900250434875e-01" nType="-99"/>
        </Node>
      </Node>
    </BinaryTree>
    <BinaryTree type="DecisionTree" boostWeight="1.0000000000000000e+00" itree="93">
      <Node pos="s" depth="0" NCoef="0" IVar="1" Cut="1.0246289062500000e+02" cType="1" res="-2.5937760248780251e-02" rms="4.8996037244796753e-01" purity="4.8290142416954041e-01" nType="0">
        <Node pos="l" depth="1" NCoef="0" IVar="-1" Cut="0.0000000000000000e+00" cType="1" res="-2.1822948474436998e-03" rms="4.4325041770935059e-01" purity="2.8146246075630188e-01" nType="-99"/>
        <Node pos="r" depth="1" NCoef="0" IVar="4" Cut="6.5516809082031250e+02" cType="1" res="-8.0748703330755234e-03" rms="4.9081775546073914e-01" purity="5.0302332639694214e-01" nType="0">
          <Node pos="l" depth="2" NCoef="0" IVar="-1" Cut="0.0000000000000000e+00" cType="1" res="-1.0000375332310796e-03" rms="4.8683980107307434e-01" purity="4.3784180283546448e-01" nType="-99"/>
          <Node pos="r" depth="2" NCoef="0" IVar="-1" Cut="0.0000000000000000e+00" cType="1" res="6.3893379410728812e-04" rms="4.8778304457664490e-01" purity="5.4955923557281494e-01" nType="-99"/>
        </Node>
      </Node>
    </BinaryTree>
    <BinaryTree type="DecisionTree" boostWeight="1.0000000000000000e+00" itree="94">
      <Node pos="s" depth="0" NCoef="0" IVar="3" Cut="9.3151849508285522e-01" cType="1" res="1.1434765765443444e-03" rms="4.9151867628097534e-01" purity="5.1086777448654175e-01" nType="0">
        <Node pos="l" depth="1" NCoef="0" IVar="4" Cut="5.4047155761718750e+02" cType="1" res="-2.3267600685358047e-02" rms="4.9425134062767029e-01" purity="4.6971145272254944e-01" nType="0">
          <Node pos="l" depth="2" NCoef="0" IVar="-1" Cut="0.0000000000000000e+00" cType="1" res="-1.3439767062664032e-03" rms="4.7964093089103699e-01" purity="3.8678902387619019e-01" nType="-99"/>
          <Node pos="r" depth="2" NCoef="0" IVar="-1" Cut="0.0000000000000000e+00" cType="1" res="-6.0363054217305034e-05" rms="4.9541714787483215e-01" purity="4.8803287744522095e-01" nType="-99"/>
        </Node>
        <Node pos="r" depth="1" NCoef="0" IVar="0" Cut="2.4207263183593750e+02" cType="1" res="8.0171994864940643e-02" rms="4.7402006387710571e-01" purity="6.4410746097564697e-01" nType="0">
          <Node pos="l" depth="2" NCoef="0" IVar="-1" Cut="0.0000000000000000e+00" cType="1" res="2.2000400349497795e-03" rms="4.6490308642387390e-01" purity="6.7758160829544067e-01" nType="-99"/>
          <Node pos="r" depth="2" NCoef="0" IVar="-1" Cut="0.0000000000000000e+00" cType="1" res="8.0273175626643933e-06" rms="4.9498218297958374e-01" purity="5.3239250183105469e-01" nType="-99"/>
        </Node>
      </Node>
    </BinaryTree>
    <BinaryTree type="DecisionTree" boostWeight="1.0000000000000000e+00" itree="95">
      <Node pos="s" depth="0" NCoef="0" IVar="1" Cut="1.3511039733886719e+02" cType="1" res="2.7022098656743765e-03" rms="4.8991820216178894e-01" purity="5.1187962293624878e-01" nType="0">
        <Node pos="l" depth="1" NCoef="0" IVar="1" Cut="1.0731173706054688e+02" cType="1" res="3.2299302518367767e-02" rms="4.8908182978630066e-01" purity="5.4888468980789185e-01" nType="0">
          <Node pos="l" depth="2" NCoef="0" IVar="-1" Cut="0.0000000000000000e+00" cType="1" res="-1.4492351328954101e-03" rms="4.8343864083290100e-01" purity="3.8977113366127014e-01" nType="-99"/>
          <Node pos="r" depth="2" NCoef="0" IVar="-1" Cut="0.0000000000000000e+00" cType="1" res="9.7689963877201080e-04" rms="4.8552328348159790e-01" purity="5.7944720983505249e-01" nType="-99"/>
        </Node>
        <Node pos="r" depth="1" NCoef="0" IVar="4" Cut="8.5760272216796875e+02" cType="1" res="-1.1856571584939957e-01" rms="4.7442567348480225e-01" purity="3.6025917530059814e-01" nType="0">
          <Node pos="l" depth="2" NCoef="0" IVar="-1" Cut="0.0000000000000000e+00" cType="1" res="-2.0395263563841581e-03" rms="4.5319437980651855e-01" purity="3.0287697911262512e-01" nType="-99"/>
          <Node pos="r" depth="2" NCoef="0" IVar="-1" Cut="0.0000000000000000e+00" cType="1" res="-2.2012869885656983e-04" rms="4.9265271425247192e-01" purity="4.5997613668441772e-01" nType="-99"/>
        </Node>
      </Node>
    </BinaryTree>
    <BinaryTree type="DecisionTree" boostWeight="1.0000000000000000e+00" itree="96">
      <Node pos="s" depth="0" NCoef="0" IVar="1" Cut="1.3516355895996094e+02" cType="1" res="-2.6970131322741508e-02" rms="4.8987069725990295e-01" purity="4.8072081804275513e-01" nType="0">
        <Node pos="l" depth="1" NCoef="0" IVar="1" Cut="1.0028229522705078e+02" cType="1" res="1.5909356297925115e-03" rms="4.9168464541435242e-01" purity="5.1724833250045776e-01" nType="0">
          <Node pos="l" depth="2" NCoef="0" IVar="-1" Cut="0.0000000000000000e+00" cType="1" res="-1.9431578693911433e-03" rms="4.5257723331451416e-01" purity="3.0341303348541260e-01" nType="-99"/>
          <Node pos="r" depth="2" NCoef="0" IVar="-1" Cut="0.0000000000000000e+00" cType="1" res="3.1975240563042462e-04" rms="4.9181896448135376e-01" purity="5.3991764783859253e-01" nType="-99"/>
        </Node>
        <Node pos="r" depth="1" NCoef="0" IVar="3" Cut="8.7987023591995239e-01" cType="1" res="-1.3894373178482056e-01" rms="4.6610799431800842e-01" purity="3.3751454949378967e-01" nType="0">
          <Node pos="l" depth="2" NCoef="0" IVar="-1" Cut="0.0000000000000000e+00" cType="1" res="-2.1498510614037514e-03" rms="4.3043240904808044e-01" purity="2.4959553778171539e-01" nType="-99"/>
          <Node pos="r" depth="2" NCoef="0" IVar="-1" Cut="0.0000000000000000e+00" cType="1" res="-1.2018703855574131e-03" rms="4.8559272289276123e-01" purity="4.0260633826255798e-01" nType="-99"/>
        </Node>
      </Node>
    </BinaryTree>
    <BinaryTree type="DecisionTree" boostWeight="1.0000000000000000e+00" itree="97">
      <Node pos="s" depth="0" NCoef="0" IVar="0" Cut="2.4568336486816406e+02" cType="1" res="-1.1350249871611595e-02" rms="4.9157622456550598e-01" purity="4.9704954028129578e-01" nType="0">
        <Node pos="l" depth="1" NCoef="0" IVar="0" Cut="8.9580421447753906e+01" cType="1" res="1.6117850318551064e-02" rms="4.9158233404159546e-01" purity="5.3314745426177979e-01" nType="0">
          <Node pos="l" depth="2" NCoef="0" IVar="-1" Cut="0.0000000000000000e+00" cType="1" res="-1.3361071469262242e-03" rms="4.8346143960952759e-01" purity="4.0400680899620056e-01" nType="-99"/>
          <Node pos="r" depth="2" NCoef="0" IVar="-1" Cut="0.0000000000000000e+00" cType="1" res="9.6644437871873379e-04" rms="4.8720401525497437e-01" purity="5.7764256000518799e-01" nType="-99"/>
        </Node>
        <Node pos="r" depth="1" NCoef="0" IVar="4" Cut="7.3290777587890625e+02" cType="1" res="-8.9181281626224518e-02" rms="4.8315078020095825e-01" purity="3.9476594328880310e-01" nType="0">
          <Node pos="l" depth="2" NCoef="0" IVar="-1" Cut="0.0000000000000000e+00" cType="1" res="-2.1759208757430315e-03" rms="4.5028075575828552e-01" purity="2.8969830274581909e-01" nType="-99"/>
          <Node pos="r" depth="2" NCoef="0" IVar="-1" Cut="0.0000000000000000e+00" cType="1" res="-5.6496507022529840e-04" rms="4.8952478170394897e-01" purity="4.4093328714370728e-01" nType="-99"/>
        </Node>
      </Node>
    </BinaryTree>
    <BinaryTree type="DecisionTree" boostWeight="1.0000000000000000e+00" itree="98">
      <Node pos="s" depth="0" NCoef="0" IVar="0" Cut="5.9374473571777344e+01" cType="1" res="-1.2508499436080456e-02" rms="4.9082991480827332e-01" purity="4.9605977535247803e-01" nType="0">
        <Node pos="l" depth="1" NCoef="0" IVar="-1" Cut="0.0000000000000000e+00" cType="1" res="-2.1339540835469961e-03" rms="4.5384410023689270e-01" purity="3.1567978858947754e-01" nType="-99"/>
        <Node pos="r" depth="1" NCoef="0" IVar="0" Cut="1.7506517028808594e+02" cType="1" res="1.1834135511890054e-03" rms="4.9093338847160339e-01" purity="5.1003974676132202e-01" nType="0">
          <Node pos="l" depth="2" NCoef="0" IVar="-1" Cut="0.0000000000000000e+00" cType="1" res="8.4054120816290379e-04" rms="4.8757857084274292e-01" purity="5.7408481836318970e-01" nType="-99"/>
          <Node pos="r" depth="2" NCoef="0" IVar="-1" Cut="0.0000000000000000e+00" cType="1" res="-8.3426426863297820e-04" rms="4.8763790726661682e-01" purity="4.3089500069618225e-01" nType="-99"/>
        </Node>
      </Node>
    </BinaryTree>
    <BinaryTree type="DecisionTree" boostWeight="1.0000000000000000e+00" itree="99">
      <Node pos="s" depth="0" NCoef="0" IVar="1" Cut="1.0814468383789062e+02" cType="1" res="-1.1034732684493065e-02" rms="4.9052137136459351e-01" purity="4.9774259328842163e-01" nType="0">
        <Node pos="l" depth="1" NCoef="0" IVar="0" Cut="1.1311397552490234e+02" cType="1" res="-1.3028244674205780e-01" rms="4.7265425324440002e-01" purity="3.6288949847221375e-01" nType="0">
          <Node pos="l" depth="2" NCoef="0" IVar="-1" Cut="0.0000000000000000e+00" cType="1" res="-6.8501342320814729e-04" rms="4.9565997719764709e-01" purity="4.6215692162513733e-01" nType="-99"/>
          <Node pos="r" depth="2" NCoef="0" IVar="-1" Cut="0.0000000000000000e+00" cType="1" res="-2.0087235607206821e-03" rms="4.5113039016723633e-01" purity="3.0325669050216675e-01" nType="-99"/>
        </Node>
        <Node pos="r" depth="1" NCoef="0" IVar="1" Cut="1.3574987792968750e+02" cType="1" res="1.0146440938115120e-02" rms="4.9060526490211487e-01" purity="5.2169567346572876e-01" nType="0">
          <Node pos="l" depth="2" NCoef="0" IVar="-1" Cut="0.0000000000000000e+00" cType="1" res="5.6625343859195709e-04" rms="4.9024084210395813e-01" purity="5.5733150243759155e-01" nType="-99"/>
          <Node pos="r" depth="2" NCoef="0" IVar="-1" Cut="0.0000000000000000e+00" cType="1" res="-1.0343951871618629e-03" rms="4.8076972365379333e-01" purity="3.9295846223831177e-01" nType="-99"/>
        </Node>
      </Node>
    </BinaryTree>
    <BinaryTree type="DecisionTree" boostWeight="1.0000000000000000e+00" itree="100">
      <Node pos="s" depth="0" NCoef="0" IVar="1" Cut="1.4556765747070312e+02" cType="1" res="-4.8385616391897202e-03" rms="4.8947340250015259e-01" purity="5.0236123800277710e-01" nType="0">
        <Node pos="l" depth="1" NCoef="0" IVar="1" Cut="1.1209879302978516e+02" cType="1" res="1.4350481331348419e-02" rms="4.9012476205825806e-01" purity="5.2675169706344604e-01" nType="0">
          <Node pos="l" depth="2" NCoef="0" IVar="-1" Cut="0.0000000000000000e+00" cType="1" res="-1.2336979852989316e-03" rms="4.7939968109130859e-01" purity="3.9922350645065308e-01" nType="-99"/>
          <Node pos="r" depth="2" NCoef="0" IVar="-1" Cut="0.0000000000000000e+00" cType="1" res="7.5003382517024875e-04" rms="4.8837211728096008e-01" purity="5.6292015314102173e-01" nType="-99"/>
        </Node>
        <Node pos="r" depth="1" NCoef="0" IVar="-1" Cut="0.0000000000000000e+00" cType="1" res="-2.0526763983070850e-03" rms="4.4756320118904114e-01" purity="2.8160753846168518e-01" nType="-99"/>
      </Node>
    </BinaryTree>
    <BinaryTree type="DecisionTree" boostWeight="1.0000000000000000e+00" itree="101">
      <Node pos="s" depth="0" NCoef="0" IVar="1" Cut="1.4539009094238281e+02" cType="1" res="-1.9510533660650253e-02" rms="4.8929595947265625e-01" purity="4.8839011788368225e-01" nType="0">
        <Node pos="l" depth="1" NCoef="0" IVar="1" Cut="9.9114265441894531e+01" cType="1" res="-1.2801807606592774e-03" rms="4.9049347639083862e-01" purity="5.1163434982299805e-01" nType="0">
          <Node pos="l" depth="2" NCoef="0" IVar="-1" Cut="0.0000000000000000e+00" cType="1" res="-2.3521976545453072e-03" rms="4.3827280402183533e-01" purity="2.6739421486854553e-01" nType="-99"/>
          <Node pos="r" depth="2" NCoef="0" IVar="-1" Cut="0.0000000000000000e+00" cType="1" res="2.6957000955007970e-04" rms="4.9045702815055847e-01" purity="5.3374332189559937e-01" nType="-99"/>
        </Node>
        <Node pos="r" depth="1" NCoef="0" IVar="-1" Cut="0.0000000000000000e+00" cType="1" res="-2.0439573563635349e-03" rms="4.4334480166435242e-01" purity="2.7189105749130249e-01" nType="-99"/>
      </Node>
    </BinaryTree>
    <BinaryTree type="DecisionTree" boostWeight="1.0000000000000000e+00" itree="102">
      <Node pos="s" depth="0" NCoef="0" IVar="1" Cut="1.0405700683593750e+02" cType="1" res="-1.0711702518165112e-02" rms="4.8905926942825317e-01" purity="4.9616086483001709e-01" nType="0">
        <Node pos="l" depth="1" NCoef="0" IVar="-1" Cut="0.0000000000000000e+00" cType="1" res="-1.9154390320181847e-03" rms="4.6049547195434570e-01" purity="3.1680640578269958e-01" nType="-99"/>
        <Node pos="r" depth="1" NCoef="0" IVar="1" Cut="1.4008195495605469e+02" cType="1" res="9.5730451866984367e-03" rms="4.8896181583404541e-01" purity="5.1932185888290405e-01" nType="0">
          <Node pos="l" depth="2" NCoef="0" IVar="-1" Cut="0.0000000000000000e+00" cType="1" res="5.7395704789087176e-04" rms="4.8870226740837097e-01" purity="5.5474495887756348e-01" nType="-99"/>
          <Node pos="r" depth="2" NCoef="0" IVar="-1" Cut="0.0000000000000000e+00" cType="1" res="-1.6479375772178173e-03" rms="4.6197625994682312e-01" purity="3.2278469204902649e-01" nType="-99"/>
        </Node>
      </Node>
    </BinaryTree>
    <BinaryTree type="DecisionTree" boostWeight="1.0000000000000000e+00" itree="103">
      <Node pos="s" depth="0" NCoef="0" IVar="3" Cut="9.3759191036224365e-01" cType="1" res="-3.7558837793767452e-03" rms="4.9093559384346008e-01" purity="5.0558203458786011e-01" nType="0">
        <Node pos="l" depth="1" NCoef="0" IVar="2" Cut="7.2529016113281250e+02" cType="1" res="-2.9291911050677299e-02" rms="4.9355950951576233e-01" purity="4.6684977412223816e-01" nType="0">
          <Node pos="l" depth="2" NCoef="0" IVar="-1" Cut="0.0000000000000000e+00" cType="1" res="1.1254694545641541e-03" rms="4.8995190858840942e-01" purity="5.7832252979278564e-01" nType="-99"/>
          <Node pos="r" depth="2" NCoef="0" IVar="-1" Cut="0.0000000000000000e+00" cType="1" res="-6.4343435224145651e-04" rms="4.9186322093009949e-01" purity="4.4488242268562317e-01" nType="-99"/>
        </Node>
        <Node pos="r" depth="1" NCoef="0" IVar="2" Cut="1.1457532958984375e+03" cType="1" res="1.0817435383796692e-01" rms="4.6293437480926514e-01" purity="6.7535430192947388e-01" nType="0">
          <Node pos="l" depth="2" NCoef="0" IVar="-1" Cut="0.0000000000000000e+00" cType="1" res="3.9013067726045847e-03" rms="4.3779081106185913e-01" purity="7.3593950271606445e-01" nType="-99"/>
          <Node pos="r" depth="2" NCoef="0" IVar="-1" Cut="0.0000000000000000e+00" cType="1" res="4.4431796413846314e-04" rms="4.8811322450637817e-01" purity="5.8062547445297241e-01" nType="-99"/>
        </Node>
      </Node>
    </BinaryTree>
    <BinaryTree type="DecisionTree" boostWeight="1.0000000000000000e+00" itree="104">
      <Node pos="s" depth="0" NCoef="0" IVar="0" Cut="6.4517669677734375e+01" cType="1" res="-6.2328330241143703e-03" rms="4.9140951037406921e-01" purity="5.0513207912445068e-01" nType="0">
        <Node pos="l" depth="1" NCoef="0" IVar="-1" Cut="0.0000000000000000e+00" cType="1" res="-1.9610947929322720e-03" rms="4.6758610010147095e-01" purity="3.4179896116256714e-01" nType="-99"/>
        <Node pos="r" depth="1" NCoef="0" IVar="0" Cut="1.5174038696289062e+02" cType="1" res="9.2968251556158066e-03" rms="4.9089425802230835e-01" purity="5.2099299430847168e-01" nType="0">
          <Node pos="l" depth="2" NCoef="0" IVar="-1" Cut="0.0000000000000000e+00" cType="1" res="1.0795418638736010e-03" rms="4.8552247881889343e-01" purity="5.9232366085052490e-01" nType="-99"/>
          <Node pos="r" depth="2" NCoef="0" IVar="-1" Cut="0.0000000000000000e+00" cType="1" res="-5.7378713972866535e-04" rms="4.9020895361900330e-01" purity="4.5537823438644409e-01" nType="-99"/>
        </Node>
      </Node>
    </BinaryTree>
    <BinaryTree type="DecisionTree" boostWeight="1.0000000000000000e+00" itree="105">
      <Node pos="s" depth="0" NCoef="0" IVar="1" Cut="1.4678958129882812e+02" cType="1" res="-1.2214175425469875e-02" rms="4.8966041207313538e-01" purity="4.9640080332756042e-01" nType="0">
        <Node pos="l" depth="1" NCoef="0" IVar="3" Cut="9.1872501373291016e-01" cType="1" res="4.1279033757746220e-03" rms="4.9085617065429688e-01" purity="5.1770490407943726e-01" nType="0">
          <Node pos="l" depth="2" NCoef="0" IVar="-1" Cut="0.0000000000000000e+00" cType="1" res="-4.1423403308726847e-04" rms="4.9429753422737122e-01" purity="4.6059384942054749e-01" nType="-99"/>
          <Node pos="r" depth="2" NCoef="0" IVar="-1" Cut="0.0000000000000000e+00" cType="1" res="1.6227164305746555e-03" rms="4.7383776307106018e-01" purity="6.4529693126678467e-01" nType="-99"/>
        </Node>
        <Node pos="r" depth="1" NCoef="0" IVar="-1" Cut="0.0000000000000000e+00" cType="1" res="-2.0332934800535440e-03" rms="4.4036167860031128e-01" purity="2.6883527636528015e-01" nType="-99"/>
      </Node>
    </BinaryTree>
    <BinaryTree type="DecisionTree" boostWeight="1.0000000000000000e+00" itree="106">
      <Node pos="s" depth="0" NCoef="0" IVar="1" Cut="1.3852383422851562e+02" cType="1" res="-1.1431789025664330e-02" rms="4.8898479342460632e-01" purity="4.9720522761344910e-01" nType="0">
        <Node pos="l" depth="1" NCoef="0" IVar="1" Cut="1.0819860839843750e+02" cType="1" res="1.6447296366095543e-02" rms="4.9019539356231689e-01" purity="5.3388285636901855e-01" nType="0">
          <Node pos="l" depth="2" NCoef="0" IVar="-1" Cut="0.0000000000000000e+00" cType="1" res="-1.4201767044141889e-03" rms="4.7423356771469116e-01" purity="3.7209746241569519e-01" nType="-99"/>
          <Node pos="r" depth="2" NCoef="0" IVar="-1" Cut="0.0000000000000000e+00" cType="1" res="7.0129847154021263e-04" rms="4.8880934715270996e-01" purity="5.6714355945587158e-01" nType="-99"/>
        </Node>
        <Node pos="r" depth="1" NCoef="0" IVar="1" Cut="1.4602247619628906e+02" cType="1" res="-1.4826723933219910e-01" rms="4.5907443761825562e-01" purity="3.1718492507934570e-01" nType="0">
          <Node pos="l" depth="2" NCoef="0" IVar="-1" Cut="0.0000000000000000e+00" cType="1" res="-8.5042766295373440e-04" rms="4.8345583677291870e-01" purity="4.0800514817237854e-01" nType="-99"/>
          <Node pos="r" depth="2" NCoef="0" IVar="-1" Cut="0.0000000000000000e+00" cType="1" res="-2.1812699269503355e-03" rms="4.3437889218330383e-01" purity="2.5640907883644104e-01" nType="-99"/>
        </Node>
      </Node>
    </BinaryTree>
    <BinaryTree type="DecisionTree" boostWeight="1.0000000000000000e+00" itree="107">
      <Node pos="s" depth="0" NCoef="0" IVar="1" Cut="1.0405700683593750e+02" cType="1" res="-1.5696899965405464e-02" rms="4.8965644836425781e-01" purity="4.9295631051063538e-01" nType="0">
        <Node pos="l" depth="1" NCoef="0" IVar="-1" Cut="0.0000000000000000e+00" cType="1" res="-1.9091273425146937e-03" rms="4.5873486995697021e-01" purity="3.2112783193588257e-01" nType="-99"/>
        <Node pos="r" depth="1" NCoef="0" IVar="1" Cut="1.3493763732910156e+02" cType="1" res="3.3881040289998055e-03" rms="4.9028146266937256e-01" purity="5.1518017053604126e-01" nType="0">
          <Node pos="l" depth="2" NCoef="0" IVar="-1" Cut="0.0000000000000000e+00" cType="1" res="5.1531597273424268e-04" rms="4.8994779586791992e-01" purity="5.5504250526428223e-01" nType="-99"/>
          <Node pos="r" depth="2" NCoef="0" IVar="-1" Cut="0.0000000000000000e+00" cType="1" res="-1.2666076654568315e-03" rms="4.7701418399810791e-01" purity="3.7433674931526184e-01" nType="-99"/>
        </Node>
      </Node>
    </BinaryTree>
    <BinaryTree type="DecisionTree" boostWeight="1.0000000000000000e+00" itree="108">
      <Node pos="s" depth="0" NCoef="0" IVar="1" Cut="1.3511039733886719e+02" cType="1" res="-4.9204328097403049e-03" rms="4.8909890651702881e-01" purity="5.0332999229431152e-01" nType="0">
        <Node pos="l" depth="1" NCoef="0" IVar="1" Cut="1.0732830810546875e+02" cType="1" res="2.6550997048616409e-02" rms="4.8929107189178467e-01" purity="5.4424679279327393e-01" nType="0">
          <Node pos="l" depth="2" NCoef="0" IVar="-1" Cut="0.0000000000000000e+00" cType="1" res="-1.2114004930481315e-03" rms="4.8214301466941833e-01" purity="3.9771085977554321e-01" nType="-99"/>
          <Node pos="r" depth="2" NCoef="0" IVar="-1" Cut="0.0000000000000000e+00" cType="1" res="8.0674845958128572e-04" rms="4.8729804158210754e-01" purity="5.7258641719818115e-01" nType="-99"/>
        </Node>
        <Node pos="r" depth="1" NCoef="0" IVar="3" Cut="8.7666970491409302e-01" cType="1" res="-1.2139682471752167e-01" rms="4.7041422128677368e-01" purity="3.5189610719680786e-01" nType="0">
          <Node pos="l" depth="2" NCoef="0" IVar="-1" Cut="0.0000000000000000e+00" cType="1" res="-2.1549281664192677e-03" rms="4.2113804817199707e-01" purity="2.3383957147598267e-01" nType="-99"/>
          <Node pos="r" depth="2" NCoef="0" IVar="-1" Cut="0.0000000000000000e+00" cType="1" res="-8.4812729619443417e-04" rms="4.9032318592071533e-01" purity="4.2671588063240051e-01" nType="-99"/>
        </Node>
      </Node>
    </BinaryTree>
    <BinaryTree type="DecisionTree" boostWeight="1.0000000000000000e+00" itree="109">
      <Node pos="s" depth="0" NCoef="0" IVar="2" Cut="6.9736614990234375e+02" cType="1" res="-5.3888943511992693e-04" rms="4.9010378122329712e-01" purity="5.0959366559982300e-01" nType="0">
        <Node pos="l" depth="1" NCoef="0" IVar="4" Cut="4.7053506469726562e+02" cType="1" res="1.3955585658550262e-01" rms="4.6919500827789307e-01" purity="6.6895866394042969e-01" nType="0">
          <Node pos="l" depth="2" NCoef="0" IVar="-1" Cut="0.0000000000000000e+00" cType="1" res="4.5014785428065807e-05" rms="4.9948051571846008e-01" purity="5.2923858165740967e-01" nType="-99"/>
          <Node pos="r" depth="2" NCoef="0" IVar="-1" Cut="0.0000000000000000e+00" cType="1" res="6.0476004146039486e-03" rms="4.1748422384262085e-01" purity="7.7256536483764648e-01" nType="-99"/>
        </Node>
        <Node pos="r" depth="1" NCoef="0" IVar="4" Cut="5.7632141113281250e+02" cType="1" res="-2.0107915624976158e-02" rms="4.8977443575859070e-01" purity="4.8733291029930115e-01" nType="0">
          <Node pos="l" depth="2" NCoef="0" IVar="-1" Cut="0.0000000000000000e+00" cType="1" res="-2.1143318153917789e-03" rms="4.4943684339523315e-01" purity="3.0856603384017944e-01" nType="-99"/>
          <Node pos="r" depth="2" NCoef="0" IVar="-1" Cut="0.0000000000000000e+00" cType="1" res="1.8355509382672608e-04" rms="4.9013236165046692e-01" purity="5.2069634199142456e-01" nType="-99"/>
        </Node>
      </Node>
    </BinaryTree>
    <BinaryTree type="DecisionTree" boostWeight="1.0000000000000000e+00" itree="110">
      <Node pos="s" depth="0" NCoef="0" IVar="3" Cut="8.6732894182205200e-01" cType="1" res="-3.0309925787150860e-03" rms="4.8953697085380554e-01" purity="5.0604677200317383e-01" nType="0">
        <Node pos="l" depth="1" NCoef="0" IVar="2" Cut="1.3249030761718750e+03" cType="1" res="-9.5548383891582489e-02" rms="4.7964489459991455e-01" purity="3.7417414784431458e-01" nType="0">
          <Node pos="l" depth="2" NCoef="0" IVar="-1" Cut="0.0000000000000000e+00" cType="1" res="-7.4981380021199584e-04" rms="4.8886713385581970e-01" purity="4.1196212172508240e-01" nType="-99"/>
          <Node pos="r" depth="2" NCoef="0" IVar="-1" Cut="0.0000000000000000e+00" cType="1" res="-1.8317310605198145e-03" rms="4.4828918576240540e-01" purity="2.8961431980133057e-01" nType="-99"/>
        </Node>
        <Node pos="r" depth="1" NCoef="0" IVar="1" Cut="1.0814468383789062e+02" cType="1" res="2.7668781578540802e-02" rms="4.8892226815223694e-01" purity="5.4980570077896118e-01" nType="0">
          <Node pos="l" depth="2" NCoef="0" IVar="-1" Cut="0.0000000000000000e+00" cType="1" res="-1.1851086746901274e-03" rms="4.8674997687339783e-01" purity="4.1740339994430542e-01" nType="-99"/>
          <Node pos="r" depth="2" NCoef="0" IVar="-1" Cut="0.0000000000000000e+00" cType="1" res="7.3958502616733313e-04" rms="4.8687362670898438e-01" purity="5.6950688362121582e-01" nType="-99"/>
        </Node>
      </Node>
    </BinaryTree>
    <BinaryTree type="DecisionTree" boostWeight="1.0000000000000000e+00" itree="111">
      <Node pos="s" depth="0" NCoef="0" IVar="1" Cut="9.9764961242675781e+01" cType="1" res="-1.5894841402769089e-02" rms="4.8858597874641418e-01" purity="4.9252891540527344e-01" nType="0">
        <Node pos="l" depth="1" NCoef="0" IVar="-1" Cut="0.0000000000000000e+00" cType="1" res="-2.2726256866008043e-03" rms="4.3421596288681030e-01" purity="2.6637348532676697e-01" nType="-99"/>
        <Node pos="r" depth="1" NCoef="0" IVar="1" Cut="1.4165657043457031e+02" cType="1" res="7.7126460382714868e-04" rms="4.8951986432075500e-01" purity="5.1225340366363525e-01" nType="0">
          <Node pos="l" depth="2" NCoef="0" IVar="-1" Cut="0.0000000000000000e+00" cType="1" res="3.7300781696103513e-04" rms="4.8990964889526367e-01" purity="5.4299515485763550e-01" nType="-99"/>
          <Node pos="r" depth="2" NCoef="0" IVar="-1" Cut="0.0000000000000000e+00" cType="1" res="-1.7504096031188965e-03" rms="4.5828428864479065e-01" purity="3.0890575051307678e-01" nType="-99"/>
        </Node>
      </Node>
    </BinaryTree>
    <BinaryTree type="DecisionTree" boostWeight="1.0000000000000000e+00" itree="112">
      <Node pos="s" depth="0" NCoef="0" IVar="1" Cut="1.3974353027343750e+02" cType="1" res="-1.0053565725684166e-02" rms="4.9053201079368591e-01" purity="5.0000840425491333e-01" nType="0">
        <Node pos="l" depth="1" NCoef="0" IVar="1" Cut="1.0181729888916016e+02" cType="1" res="9.9711241200566292e-03" rms="4.9183088541030884e-01" purity="5.2812701463699341e-01" nType="0">
          <Node pos="l" depth="2" NCoef="0" IVar="-1" Cut="0.0000000000000000e+00" cType="1" res="-1.7841344233602285e-03" rms="4.6587842702865601e-01" purity="3.2809177041053772e-01" nType="-99"/>
          <Node pos="r" depth="2" NCoef="0" IVar="-1" Cut="0.0000000000000000e+00" cType="1" res="4.9592199502512813e-04" rms="4.9111875891685486e-01" purity="5.5370587110519409e-01" nType="-99"/>
        </Node>
        <Node pos="r" depth="1" NCoef="0" IVar="5" Cut="4.3688812851905823e-01" cType="1" res="-1.3366380333900452e-01" rms="4.6367064118385315e-01" purity="3.2643526792526245e-01" nType="0">
          <Node pos="l" depth="2" NCoef="0" IVar="-1" Cut="0.0000000000000000e+00" cType="1" res="-1.3385798083618283e-03" rms="4.7836542129516602e-01" purity="3.6276882886886597e-01" nType="-99"/>
          <Node pos="r" depth="2" NCoef="0" IVar="-1" Cut="0.0000000000000000e+00" cType="1" res="-1.7341333441436291e-03" rms="4.4929301738739014e-01" purity="2.9627737402915955e-01" nType="-99"/>
        </Node>
      </Node>
    </BinaryTree>
    <BinaryTree type="DecisionTree" boostWeight="1.0000000000000000e+00" itree="113">
      <Node pos="s" depth="0" NCoef="0" IVar="3" Cut="8.9604645967483521e-01" cType="1" res="-1.3026212342083454e-02" rms="4.8740351200103760e-01" purity="4.9325555562973022e-01" nType="0">
        <Node pos="l" depth="1" NCoef="0" IVar="0" Cut="3.2512466430664062e+02" cType="1" res="-7.0587866008281708e-02" rms="4.8527148365974426e-01" purity="4.0179601311683655e-01" nType="0">
          <Node pos="l" depth="2" NCoef="0" IVar="-1" Cut="0.0000000000000000e+00" cType="1" res="-5.7797494810074568e-04" rms="4.9148309230804443e-01" purity="4.3240082263946533e-01" nType="-99"/>
          <Node pos="r" depth="2" NCoef="0" IVar="-1" Cut="0.0000000000000000e+00" cType="1" res="-1.8612752901390195e-03" rms="4.4094973802566528e-01" purity="2.6949292421340942e-01" nType="-99"/>
        </Node>
        <Node pos="r" depth="1" NCoef="0" IVar="2" Cut="8.1018109130859375e+02" cType="1" res="5.4532520473003387e-02" rms="4.8118928074836731e-01" purity="6.0059940814971924e-01" nType="0">
          <Node pos="l" depth="2" NCoef="0" IVar="-1" Cut="0.0000000000000000e+00" cType="1" res="4.0225614793598652e-03" rms="4.3379208445549011e-01" purity="7.3639768362045288e-01" nType="-99"/>
          <Node pos="r" depth="2" NCoef="0" IVar="-1" Cut="0.0000000000000000e+00" cType="1" res="2.1811123588122427e-04" rms="4.8975792527198792e-01" purity="5.5396842956542969e-01" nType="-99"/>
        </Node>
      </Node>
    </BinaryTree>
    <BinaryTree type="DecisionTree" boostWeight="1.0000000000000000e+00" itree="114">
      <Node pos="s" depth="0" NCoef="0" IVar="1" Cut="1.4708995056152344e+02" cType="1" res="-1.1011323891580105e-02" rms="4.8968794941902161e-01" purity="4.9843233823776245e-01" nType="0">
        <Node pos="l" depth="1" NCoef="0" IVar="1" Cut="9.9928749084472656e+01" cType="1" res="7.3638814501464367e-03" rms="4.9099102616310120e-01" purity="5.2227628231048584e-01" nType="0">
          <Node pos="l" depth="2" NCoef="0" IVar="-1" Cut="0.0000000000000000e+00" cType="1" res="-2.0307162776589394e-03" rms="4.5649310946464539e-01" purity="2.9963135719299316e-01" nType="-99"/>
          <Node pos="r" depth="2" NCoef="0" IVar="-1" Cut="0.0000000000000000e+00" cType="1" res="3.6028560134582222e-04" rms="4.9060142040252686e-01" purity="5.4173654317855835e-01" nType="-99"/>
        </Node>
        <Node pos="r" depth="1" NCoef="0" IVar="-1" Cut="0.0000000000000000e+00" cType="1" res="-2.1336136851459742e-03" rms="4.3254268169403076e-01" purity="2.5217282772064209e-01" nType="-99"/>
      </Node>
    </BinaryTree>
    <BinaryTree type="DecisionTree" boostWeight="1.0000000000000000e+00" itree="115">
      <Node pos="s" depth="0" NCoef="0" IVar="3" Cut="8.6748492717742920e-01" cType="1" res="-1.0739541612565517e-02" rms="4.8976501822471619e-01" purity="4.9944102764129639e-01" nType="0">
        <Node pos="l" depth="1" NCoef="0" IVar="4" Cut="6.9358422851562500e+02" cType="1" res="-1.1140701919794083e-01" rms="4.7430196404457092e-01" purity="3.5619685053825378e-01" nType="0">
          <Node pos="l" depth="2" NCoef="0" IVar="-1" Cut="0.0000000000000000e+00" cType="1" res="-1.6096192412078381e-03" rms="4.6438679099082947e-01" purity="3.2359129190444946e-01" nType="-99"/>
          <Node pos="r" depth="2" NCoef="0" IVar="-1" Cut="0.0000000000000000e+00" cType="1" res="-9.3688623746857047e-04" rms="4.8070693016052246e-01" purity="3.8583004474639893e-01" nType="-99"/>
        </Node>
        <Node pos="r" depth="1" NCoef="0" IVar="0" Cut="1.8089961242675781e+02" cType="1" res="2.2682435810565948e-02" rms="4.9024233222007751e-01" purity="5.4699862003326416e-01" nType="0">
          <Node pos="l" depth="2" NCoef="0" IVar="-1" Cut="0.0000000000000000e+00" cType="1" res="1.0774175170809031e-03" rms="4.8541501164436340e-01" purity="5.9938853979110718e-01" nType="-99"/>
          <Node pos="r" depth="2" NCoef="0" IVar="-1" Cut="0.0000000000000000e+00" cType="1" res="-5.3574267076328397e-04" rms="4.9151641130447388e-01" purity="4.6632802486419678e-01" nType="-99"/>
        </Node>
      </Node>
    </BinaryTree>
    <BinaryTree type="DecisionTree" boostWeight="1.0000000000000000e+00" itree="116">
      <Node pos="s" depth="0" NCoef="0" IVar="0" Cut="2.3622422790527344e+02" cType="1" res="-5.7977098040282726e-03" rms="4.8860737681388855e-01" purity="5.0322842597961426e-01" nType="0">
        <Node pos="l" depth="1" NCoef="0" IVar="0" Cut="8.4337860107421875e+01" cType="1" res="2.8942603617906570e-02" rms="4.8768782615661621e-01" purity="5.4869079589843750e-01" nType="0">
          <Node pos="l" depth="2" NCoef="0" IVar="-1" Cut="0.0000000000000000e+00" cType="1" res="-1.1774658923968673e-03" rms="4.8218950629234314e-01" purity="4.1788598895072937e-01" nType="-99"/>
          <Node pos="r" depth="2" NCoef="0" IVar="-1" Cut="0.0000000000000000e+00" cType="1" res="1.0300440480932593e-03" rms="4.8391392827033997e-01" purity="5.8484375476837158e-01" nType="-99"/>
        </Node>
        <Node pos="r" depth="1" NCoef="0" IVar="2" Cut="1.2560942382812500e+03" cType="1" res="-9.3624696135520935e-02" rms="4.7983542084693909e-01" purity="3.8829502463340759e-01" nType="0">
          <Node pos="l" depth="2" NCoef="0" IVar="-1" Cut="0.0000000000000000e+00" cType="1" res="-2.2046988306101412e-04" rms="4.8958438634872437e-01" purity="4.6910235285758972e-01" nType="-99"/>
          <Node pos="r" depth="2" NCoef="0" IVar="-1" Cut="0.0000000000000000e+00" cType="1" res="-1.8236958421766758e-03" rms="4.6199083328247070e-01" purity="3.2190215587615967e-01" nType="-99"/>
        </Node>
      </Node>
    </BinaryTree>
    <BinaryTree type="DecisionTree" boostWeight="1.0000000000000000e+00" itree="117">
      <Node pos="s" depth="0" NCoef="0" IVar="3" Cut="8.6750572919845581e-01" cType="1" res="-5.4546114988625050e-03" rms="4.8814535140991211e-01" purity="5.0253659486770630e-01" nType="0">
        <Node pos="l" depth="1" NCoef="0" IVar="5" Cut="3.9124467968940735e-01" cType="1" res="-1.0649164021015167e-01" rms="4.7610801458358765e-01" purity="3.6081835627555847e-01" nType="0">
          <Node pos="l" depth="2" NCoef="0" IVar="-1" Cut="0.0000000000000000e+00" cType="1" res="-1.8094065599143505e-03" rms="4.5905426144599915e-01" purity="3.0910274386405945e-01" nType="-99"/>
          <Node pos="r" depth="2" NCoef="0" IVar="-1" Cut="0.0000000000000000e+00" cType="1" res="-7.0889800554141402e-04" rms="4.8606094717979431e-01" purity="4.0698602795600891e-01" nType="-99"/>
        </Node>
        <Node pos="r" depth="1" NCoef="0" IVar="0" Cut="2.8281329345703125e+02" cType="1" res="2.8179867193102837e-02" rms="4.8746299743652344e-01" purity="5.4971355199813843e-01" nType="0">
          <Node pos="l" depth="2" NCoef="0" IVar="-1" Cut="0.0000000000000000e+00" cType="1" res="8.5804285481572151e-04" rms="4.8467937111854553e-01" purity="5.8187520503997803e-01" nType="-99"/>
          <Node pos="r" depth="2" NCoef="0" IVar="-1" Cut="0.0000000000000000e+00" cType="1" res="-8.9832674711942673e-04" rms="4.8664548993110657e-01" purity="4.2110157012939453e-01" nType="-99"/>
        </Node>
      </Node>
    </BinaryTree>
    <BinaryTree type="DecisionTree" boostWeight="1.0000000000000000e+00" itree="118">
      <Node pos="s" depth="0" NCoef="0" IVar="3" Cut="8.8358950614929199e-01" cType="1" res="-3.5020150244235992e-03" rms="4.8820787668228149e-01" purity="5.0482058525085449e-01" nType="0">
        <Node pos="l" depth="1" NCoef="0" IVar="0" Cut="1.9812413024902344e+02" cType="1" res="-7.1779064834117889e-02" rms="4.8422610759735107e-01" purity="3.9761403203010559e-01" nType="0">
          <Node pos="l" depth="2" NCoef="0" IVar="-1" Cut="0.0000000000000000e+00" cType="1" res="-2.8358038980513811e-04" rms="4.9513807892799377e-01" purity="4.5848739147186279e-01" nType="-99"/>
          <Node pos="r" depth="2" NCoef="0" IVar="-1" Cut="0.0000000000000000e+00" cType="1" res="-1.6556871123611927e-03" rms="4.5617547631263733e-01" purity="3.0333372950553894e-01" nType="-99"/>
        </Node>
        <Node pos="r" depth="1" NCoef="0" IVar="1" Cut="1.0545062255859375e+02" cType="1" res="4.5211561024188995e-02" rms="4.8519116640090942e-01" purity="5.8130913972854614e-01" nType="0">
          <Node pos="l" depth="2" NCoef="0" IVar="-1" Cut="0.0000000000000000e+00" cType="1" res="-1.4118996914476156e-03" rms="4.8631447553634644e-01" purity="4.0457645058631897e-01" nType="-99"/>
          <Node pos="r" depth="2" NCoef="0" IVar="-1" Cut="0.0000000000000000e+00" cType="1" res="1.1462626280263066e-03" rms="4.8156774044036865e-01" purity="6.0343670845031738e-01" nType="-99"/>
        </Node>
      </Node>
    </BinaryTree>
    <BinaryTree type="DecisionTree" boostWeight="1.0000000000000000e+00" itree="119">
      <Node pos="s" depth="0" NCoef="0" IVar="3" Cut="8.9312475919723511e-01" cType="1" res="-1.7918661236763000e-02" rms="4.8864945769309998e-01" purity="4.9160295724868774e-01" nType="0">
        <Node pos="l" depth="1" NCoef="0" IVar="4" Cut="7.0265576171875000e+02" cType="1" res="-7.0348478853702545e-02" rms="4.8487907648086548e-01" purity="4.0034201741218567e-01" nType="0">
          <Node pos="l" depth="2" NCoef="0" IVar="-1" Cut="0.0000000000000000e+00" cType="1" res="-1.5238499036058784e-03" rms="4.6730244159698486e-01" purity="3.3773800730705261e-01" nType="-99"/>
          <Node pos="r" depth="2" NCoef="0" IVar="-1" Cut="0.0000000000000000e+00" cType="1" res="-5.8493609685683623e-05" rms="4.9391070008277893e-01" purity="4.6532964706420898e-01" nType="-99"/>
        </Node>
        <Node pos="r" depth="1" NCoef="0" IVar="2" Cut="7.4732385253906250e+02" cType="1" res="3.3368315547704697e-02" rms="4.8687735199928284e-01" purity="5.8087468147277832e-01" nType="0">
          <Node pos="l" depth="2" NCoef="0" IVar="-1" Cut="0.0000000000000000e+00" cType="1" res="3.7209431175142527e-03" rms="4.4364094734191895e-01" purity="7.2635185718536377e-01" nType="-99"/>
          <Node pos="r" depth="2" NCoef="0" IVar="-1" Cut="0.0000000000000000e+00" cType="1" res="8.3597769844345748e-05" rms="4.9179255962371826e-01" purity="5.4792147874832153e-01" nType="-99"/>
        </Node>
      </Node>
    </BinaryTree>
    <BinaryTree type="DecisionTree" boostWeight="1.0000000000000000e+00" itree="120">
      <Node pos="s" depth="0" NCoef="0" IVar="0" Cut="2.0147238159179688e+02" cType="1" res="-1.4409304596483707e-02" rms="4.8818942904472351e-01" purity="4.9412274360656738e-01" nType="0">
        <Node pos="l" depth="1" NCoef="0" IVar="0" Cut="6.9034210205078125e+01" cType="1" res="2.6009546592831612e-02" rms="4.8778346180915833e-01" purity="5.4757386445999146e-01" nType="0">
          <Node pos="l" depth="2" NCoef="0" IVar="-1" Cut="0.0000000000000000e+00" cType="1" res="-1.5423662262037396e-03" rms="4.7654077410697937e-01" purity="3.8321432471275330e-01" nType="-99"/>
          <Node pos="r" depth="2" NCoef="0" IVar="-1" Cut="0.0000000000000000e+00" cType="1" res="8.2357716746628284e-04" rms="4.8528891801834106e-01" purity="5.7405835390090942e-01" nType="-99"/>
        </Node>
        <Node pos="r" depth="1" NCoef="0" IVar="4" Cut="6.6441540527343750e+02" cType="1" res="-8.7902478873729706e-02" rms="4.8028907179832458e-01" purity="3.9693316817283630e-01" nType="0">
          <Node pos="l" depth="2" NCoef="0" IVar="-1" Cut="0.0000000000000000e+00" cType="1" res="-2.1972863469272852e-03" rms="4.3840557336807251e-01" purity="2.7842873334884644e-01" nType="-99"/>
          <Node pos="r" depth="2" NCoef="0" IVar="-1" Cut="0.0000000000000000e+00" cType="1" res="-5.8466958580538630e-04" rms="4.8767212033271790e-01" purity="4.4113925099372864e-01" nType="-99"/>
        </Node>
      </Node>
    </BinaryTree>
    <BinaryTree type="DecisionTree" boostWeight="1.0000000000000000e+00" itree="121">
      <Node pos="s" depth="0" NCoef="0" IVar="1" Cut="1.4405865478515625e+02" cType="1" res="-1.8529869616031647e-02" rms="4.8922687768936157e-01" purity="4.9089834094047546e-01" nType="0">
        <Node pos="l" depth="1" NCoef="0" IVar="1" Cut="1.0055783843994141e+02" cType="1" res="-6.2044034712016582e-04" rms="4.9060773849487305e-01" purity="5.1508486270904541e-01" nType="0">
          <Node pos="l" depth="2" NCoef="0" IVar="-1" Cut="0.0000000000000000e+00" cType="1" res="-2.0108411554247141e-03" rms="4.5335689187049866e-01" purity="3.0219435691833496e-01" nType="-99"/>
          <Node pos="r" depth="2" NCoef="0" IVar="-1" Cut="0.0000000000000000e+00" cType="1" res="2.3454343318007886e-04" rms="4.9088603258132935e-01" purity="5.3484100103378296e-01" nType="-99"/>
        </Node>
        <Node pos="r" depth="1" NCoef="0" IVar="-1" Cut="0.0000000000000000e+00" cType="1" res="-1.9463362405076623e-03" rms="4.4867762923240662e-01" purity="2.8318154811859131e-01" nType="-99"/>
      </Node>
    </BinaryTree>
    <BinaryTree type="DecisionTree" boostWeight="1.0000000000000000e+00" itree="122">
      <Node pos="s" depth="0" NCoef="0" IVar="1" Cut="9.9469924926757812e+01" cType="1" res="-1.4180078171193600e-02" rms="4.8815459012985229e-01" purity="4.9500039219856262e-01" nType="0">
        <Node pos="l" depth="1" NCoef="0" IVar="-1" Cut="0.0000000000000000e+00" cType="1" res="-2.1558881271630526e-03" rms="4.3989905714988708e-01" purity="2.7095505595207214e-01" nType="-99"/>
        <Node pos="r" depth="1" NCoef="0" IVar="3" Cut="8.7400209903717041e-01" cType="1" res="7.1665359428152442e-04" rms="4.8883759975433350e-01" purity="5.1315200328826904e-01" nType="0">
          <Node pos="l" depth="2" NCoef="0" IVar="-1" Cut="0.0000000000000000e+00" cType="1" res="-1.0257869726046920e-03" rms="4.8129269480705261e-01" purity="3.8350069522857666e-01" nType="-99"/>
          <Node pos="r" depth="2" NCoef="0" IVar="-1" Cut="0.0000000000000000e+00" cType="1" res="6.3467107247561216e-04" rms="4.8735755681991577e-01" purity="5.7053017616271973e-01" nType="-99"/>
        </Node>
      </Node>
    </BinaryTree>
    <BinaryTree type="DecisionTree" boostWeight="1.0000000000000000e+00" itree="123">
      <Node pos="s" depth="0" NCoef="0" IVar="3" Cut="8.8650852441787720e-01" cType="1" res="3.5027284175157547e-03" rms="4.8861181735992432e-01" purity="5.1252323389053345e-01" nType="0">
        <Node pos="l" depth="1" NCoef="0" IVar="1" Cut="1.3198262023925781e+02" cType="1" res="-5.0634261220693588e-02" rms="4.8812747001647949e-01" purity="4.1873461008071899e-01" nType="0">
          <Node pos="l" depth="2" NCoef="0" IVar="-1" Cut="0.0000000000000000e+00" cType="1" res="-1.3190894969739020e-04" rms="4.9539685249328613e-01" purity="4.6671169996261597e-01" nType="-99"/>
          <Node pos="r" depth="2" NCoef="0" IVar="-1" Cut="0.0000000000000000e+00" cType="1" res="-1.6196918440982699e-03" rms="4.5563533902168274e-01" purity="3.0371436476707458e-01" nType="-99"/>
        </Node>
        <Node pos="r" depth="1" NCoef="0" IVar="0" Cut="8.3324722290039062e+01" cType="1" res="4.5273948460817337e-02" rms="4.8487147688865662e-01" purity="5.8488893508911133e-01" nType="0">
          <Node pos="l" depth="2" NCoef="0" IVar="-1" Cut="0.0000000000000000e+00" cType="1" res="-1.2838087277486920e-03" rms="4.9149817228317261e-01" purity="4.4777369499206543e-01" nType="-99"/>
          <Node pos="r" depth="2" NCoef="0" IVar="-1" Cut="0.0000000000000000e+00" cType="1" res="1.2520710006356239e-03" rms="4.7949805855751038e-01" purity="6.0978245735168457e-01" nType="-99"/>
        </Node>
      </Node>
    </BinaryTree>
    <BinaryTree type="DecisionTree" boostWeight="1.0000000000000000e+00" itree="124">
      <Node pos="s" depth="0" NCoef="0" IVar="1" Cut="1.3391940307617188e+02" cType="1" res="-1.3482048176229000e-02" rms="4.8964145779609680e-01" purity="4.9685275554656982e-01" nType="0">
        <Node pos="l" depth="1" NCoef="0" IVar="4" Cut="6.6723095703125000e+02" cType="1" res="1.3709385879337788e-02" rms="4.9000051617622375e-01" purity="5.3305137157440186e-01" nType="0">
          <Node pos="l" depth="2" NCoef="0" IVar="-1" Cut="0.0000000000000000e+00" cType="1" res="-6.8329309578984976e-04" rms="4.8986431956291199e-01" purity="4.7481876611709595e-01" nType="-99"/>
          <Node pos="r" depth="2" NCoef="0" IVar="-1" Cut="0.0000000000000000e+00" cType="1" res="1.0440318146720529e-03" rms="4.8425123095512390e-01" purity="5.7986944913864136e-01" nType="-99"/>
        </Node>
        <Node pos="r" depth="1" NCoef="0" IVar="3" Cut="8.7679415941238403e-01" cType="1" res="-1.0887353122234344e-01" rms="4.7625768184661865e-01" purity="3.6986282467842102e-01" nType="0">
          <Node pos="l" depth="2" NCoef="0" IVar="-1" Cut="0.0000000000000000e+00" cType="1" res="-1.9175927154719830e-03" rms="4.4581988453865051e-01" purity="2.7515304088592529e-01" nType="-99"/>
          <Node pos="r" depth="2" NCoef="0" IVar="-1" Cut="0.0000000000000000e+00" cType="1" res="-9.8732474725693464e-04" rms="4.8919156193733215e-01" purity="4.2392027378082275e-01" nType="-99"/>
        </Node>
      </Node>
    </BinaryTree>
    <BinaryTree type="DecisionTree" boostWeight="1.0000000000000000e+00" itree="125">
      <Node pos="s" depth="0" NCoef="0" IVar="1" Cut="9.9764961242675781e+01" cType="1" res="-1.1581301689147949e-02" rms="4.8955750465393066e-01" purity="4.9812471866607666e-01" nType="0">
        <Node pos="l" depth="1" NCoef="0" IVar="-1" Cut="0.0000000000000000e+00" cType="1" res="-2.0315195433795452e-03" rms="4.4824233651161194e-01" purity="2.9174375534057617e-01" nType="-99"/>
        <Node pos="r" depth="1" NCoef="0" IVar="4" Cut="6.9768273925781250e+02" cType="1" res="1.9532190635800362e-03" rms="4.9021455645561218e-01" purity="5.1468765735626221e-01" nType="0">
          <Node pos="l" depth="2" NCoef="0" IVar="-1" Cut="0.0000000000000000e+00" cType="1" res="-7.0107908686622977e-04" rms="4.8758664727210999e-01" purity="4.6571737527847290e-01" nType="-99"/>
          <Node pos="r" depth="2" NCoef="0" IVar="-1" Cut="0.0000000000000000e+00" cType="1" res="8.1072142347693443e-04" rms="4.8774635791778564e-01" purity="5.5940800905227661e-01" nType="-99"/>
        </Node>
      </Node>
    </BinaryTree>
    <BinaryTree type="DecisionTree" boostWeight="1.0000000000000000e+00" itree="126">
      <Node pos="s" depth="0" NCoef="0" IVar="0" Cut="2.4265962219238281e+02" cType="1" res="5.0085328985005617e-04" rms="4.8894447088241577e-01" purity="5.1083803176879883e-01" nType="0">
        <Node pos="l" depth="1" NCoef="0" IVar="0" Cut="9.1044044494628906e+01" cType="1" res="3.7747725844383240e-02" rms="4.8710894584655762e-01" purity="5.5877834558486938e-01" nType="0">
          <Node pos="l" depth="2" NCoef="0" IVar="-1" Cut="0.0000000000000000e+00" cType="1" res="-8.5095391841605306e-04" rms="4.8824167251586914e-01" purity="4.5014259219169617e-01" nType="-99"/>
          <Node pos="r" depth="2" NCoef="0" IVar="-1" Cut="0.0000000000000000e+00" cType="1" res="1.1471865000203252e-03" rms="4.8252382874488831e-01" purity="5.9215623140335083e-01" nType="-99"/>
        </Node>
        <Node pos="r" depth="1" NCoef="0" IVar="4" Cut="6.9266088867187500e+02" cType="1" res="-9.9471278488636017e-02" rms="4.7974705696105957e-01" purity="3.8216421008110046e-01" nType="0">
          <Node pos="l" depth="2" NCoef="0" IVar="-1" Cut="0.0000000000000000e+00" cType="1" res="-2.1314583718776703e-03" rms="4.4145724177360535e-01" purity="2.8191557526588440e-01" nType="-99"/>
          <Node pos="r" depth="2" NCoef="0" IVar="-1" Cut="0.0000000000000000e+00" cType="1" res="-8.0043391790241003e-04" rms="4.8865175247192383e-01" purity="4.2146065831184387e-01" nType="-99"/>
        </Node>
      </Node>
    </BinaryTree>
    <BinaryTree type="DecisionTree" boostWeight="1.0000000000000000e+00" itree="127">
      <Node pos="s" depth="0" NCoef="0" IVar="3" Cut="8.8034445047378540e-01" cType="1" res="-1.9304310902953148e-02" rms="4.8749533295631409e-01" purity="4.8901507258415222e-01" nType="0">
        <Node pos="l" depth="1" NCoef="0" IVar="5" Cut="5.8046054840087891e-01" cType="1" res="-8.7560750544071198e-02" rms="4.7953358292579651e-01" purity="3.7882909178733826e-01" nType="0">
          <Node pos="l" depth="2" NCoef="0" IVar="-1" Cut="0.0000000000000000e+00" cType="1" res="-1.4156735269352794e-03" rms="4.7003096342086792e-01" purity="3.4537509083747864e-01" nType="-99"/>
          <Node pos="r" depth="2" NCoef="0" IVar="-1" Cut="0.0000000000000000e+00" cType="1" res="-1.1773584265029058e-04" rms="4.9189126491546631e-01" purity="4.5627239346504211e-01" nType="-99"/>
        </Node>
        <Node pos="r" depth="1" NCoef="0" IVar="1" Cut="1.0645250701904297e+02" cType="1" res="2.2972451522946358e-02" rms="4.8759356141090393e-01" purity="5.5726218223571777e-01" nType="0">
          <Node pos="l" depth="2" NCoef="0" IVar="-1" Cut="0.0000000000000000e+00" cType="1" res="-1.4748370740562677e-03" rms="4.8071801662445068e-01" purity="3.8418751955032349e-01" nType="-99"/>
          <Node pos="r" depth="2" NCoef="0" IVar="-1" Cut="0.0000000000000000e+00" cType="1" res="7.3942611925303936e-04" rms="4.8509177565574646e-01" purity="5.8120864629745483e-01" nType="-99"/>
        </Node>
      </Node>
    </BinaryTree>
    <BinaryTree type="DecisionTree" boostWeight="1.0000000000000000e+00" itree="128">
      <Node pos="s" depth="0" NCoef="0" IVar="0" Cut="6.7829383850097656e+01" cType="1" res="-2.2999398410320282e-02" rms="4.8818606138229370e-01" purity="4.8616701364517212e-01" nType="0">
        <Node pos="l" depth="1" NCoef="0" IVar="-1" Cut="0.0000000000000000e+00" cType="1" res="-1.8480777507647872e-03" rms="4.6569889783859253e-01" purity="3.3443391323089600e-01" nType="-99"/>
        <Node pos="r" depth="1" NCoef="0" IVar="0" Cut="1.9841920471191406e+02" cType="1" res="-6.8746041506528854e-03" rms="4.8798814415931702e-01" purity="5.0311046838760376e-01" nType="0">
          <Node pos="l" depth="2" NCoef="0" IVar="-1" Cut="0.0000000000000000e+00" cType="1" res="6.4724648837000132e-04" rms="4.8600131273269653e-01" purity="5.6578433513641357e-01" nType="-99"/>
          <Node pos="r" depth="2" NCoef="0" IVar="-1" Cut="0.0000000000000000e+00" cType="1" res="-1.0638820240274072e-03" rms="4.8146444559097290e-01" purity="4.0300330519676208e-01" nType="-99"/>
        </Node>
      </Node>
    </BinaryTree>
    <BinaryTree type="DecisionTree" boostWeight="1.0000000000000000e+00" itree="129">
      <Node pos="s" depth="0" NCoef="0" IVar="1" Cut="1.4416984558105469e+02" cType="1" res="-8.9578051120042801e-03" rms="4.8872971534729004e-01" purity="5.0074577331542969e-01" nType="0">
        <Node pos="l" depth="1" NCoef="0" IVar="1" Cut="1.0275526428222656e+02" cType="1" res="6.2641785480082035e-03" rms="4.8978105187416077e-01" purity="5.2264928817749023e-01" nType="0">
          <Node pos="l" depth="2" NCoef="0" IVar="-1" Cut="0.0000000000000000e+00" cType="1" res="-1.6604980919510126e-03" rms="4.6660152077674866e-01" purity="3.3405199646949768e-01" nType="-99"/>
          <Node pos="r" depth="2" NCoef="0" IVar="-1" Cut="0.0000000000000000e+00" cType="1" res="3.4868143848143518e-04" rms="4.8959225416183472e-01" purity="5.4375857114791870e-01" nType="-99"/>
        </Node>
        <Node pos="r" depth="1" NCoef="0" IVar="-1" Cut="0.0000000000000000e+00" cType="1" res="-1.6201235121116042e-03" rms="4.5934659242630005e-01" purity="3.1287577748298645e-01" nType="-99"/>
      </Node>
    </BinaryTree>
    <BinaryTree type="DecisionTree" boostWeight="1.0000000000000000e+00" itree="130">
      <Node pos="s" depth="0" NCoef="0" IVar="4" Cut="6.8293841552734375e+02" cType="1" res="-2.1114507690072060e-02" rms="4.9008879065513611e-01" purity="4.8967993259429932e-01" nType="0">
        <Node pos="l" depth="1" NCoef="0" IVar="2" Cut="7.3197930908203125e+02" cType="1" res="-7.6085463166236877e-02" rms="4.8529544472694397e-01" purity="4.3725058436393738e-01" nType="0">
          <Node pos="l" depth="2" NCoef="0" IVar="-1" Cut="0.0000000000000000e+00" cType="1" res="7.7062216587364674e-04" rms="4.8549985885620117e-01" purity="5.7420533895492554e-01" nType="-99"/>
          <Node pos="r" depth="2" NCoef="0" IVar="-1" Cut="0.0000000000000000e+00" cType="1" res="-1.7751341219991446e-03" rms="4.6874785423278809e-01" purity="3.5071283578872681e-01" nType="-99"/>
        </Node>
        <Node pos="r" depth="1" NCoef="0" IVar="2" Cut="1.0211085205078125e+03" cType="1" res="2.3991975933313370e-02" rms="4.8939684033393860e-01" purity="5.3270083665847778e-01" nType="0">
          <Node pos="l" depth="2" NCoef="0" IVar="-1" Cut="0.0000000000000000e+00" cType="1" res="3.0191889964044094e-03" rms="4.6509987115859985e-01" purity="6.7412722110748291e-01" nType="-99"/>
          <Node pos="r" depth="2" NCoef="0" IVar="-1" Cut="0.0000000000000000e+00" cType="1" res="-1.7654125986155123e-04" rms="4.9007067084312439e-01" purity="4.9267953634262085e-01" nType="-99"/>
        </Node>
      </Node>
    </BinaryTree>
    <BinaryTree type="DecisionTree" boostWeight="1.0000000000000000e+00" itree="131">
      <Node pos="s" depth="0" NCoef="0" IVar="3" Cut="8.8991713523864746e-01" cType="1" res="-1.4731860719621181e-02" rms="4.8705720901489258e-01" purity="4.9406611919403076e-01" nType="0">
        <Node pos="l" depth="1" NCoef="0" IVar="0" Cut="2.4001432800292969e+02" cType="1" res="-6.8523630499839783e-02" rms="4.8374545574188232e-01" purity="3.9905130863189697e-01" nType="0">
          <Node pos="l" depth="2" NCoef="0" IVar="-1" Cut="0.0000000000000000e+00" cType="1" res="-4.9073348054662347e-04" rms="4.9156522750854492e-01" purity="4.3882697820663452e-01" nType="-99"/>
          <Node pos="r" depth="2" NCoef="0" IVar="-1" Cut="0.0000000000000000e+00" cType="1" res="-1.5947660431265831e-03" rms="4.5578783750534058e-01" purity="3.0185407400131226e-01" nType="-99"/>
        </Node>
        <Node pos="r" depth="1" NCoef="0" IVar="2" Cut="9.3312689208984375e+02" cType="1" res="3.2114136964082718e-02" rms="4.8508778214454651e-01" purity="5.7681232690811157e-01" nType="0">
          <Node pos="l" depth="2" NCoef="0" IVar="-1" Cut="0.0000000000000000e+00" cType="1" res="1.8834832590073347e-03" rms="4.6962004899978638e-01" purity="6.5183204412460327e-01" nType="-99"/>
          <Node pos="r" depth="2" NCoef="0" IVar="-1" Cut="0.0000000000000000e+00" cType="1" res="-1.9190773309674114e-04" rms="4.9065798521041870e-01" purity="5.2486628293991089e-01" nType="-99"/>
        </Node>
      </Node>
    </BinaryTree>
    <BinaryTree type="DecisionTree" boostWeight="1.0000000000000000e+00" itree="132">
      <Node pos="s" depth="0" NCoef="0" IVar="0" Cut="6.8668731689453125e+01" cType="1" res="-1.9746432080864906e-02" rms="4.9014613032341003e-01" purity="4.9038794636726379e-01" nType="0">
        <Node pos="l" depth="1" NCoef="0" IVar="-1" Cut="0.0000000000000000e+00" cType="1" res="-1.8064031610265374e-03" rms="4.7043412923812866e-01" purity="3.4414547681808472e-01" nType="-99"/>
        <Node pos="r" depth="1" NCoef="0" IVar="0" Cut="1.5568917846679688e+02" cType="1" res="-4.8503787256777287e-03" rms="4.8979023098945618e-01" purity="5.0573676824569702e-01" nType="0">
          <Node pos="l" depth="2" NCoef="0" IVar="-1" Cut="0.0000000000000000e+00" cType="1" res="9.2622445663437247e-04" rms="4.8528876900672913e-01" purity="5.8478164672851562e-01" nType="-99"/>
          <Node pos="r" depth="2" NCoef="0" IVar="-1" Cut="0.0000000000000000e+00" cType="1" res="-7.9838058445602655e-04" rms="4.8717996478080750e-01" purity="4.3262833356857300e-01" nType="-99"/>
        </Node>
      </Node>
    </BinaryTree>
    <BinaryTree type="DecisionTree" boostWeight="1.0000000000000000e+00" itree="133">
      <Node pos="s" depth="0" NCoef="0" IVar="1" Cut="9.9764961242675781e+01" cType="1" res="-3.8341721519827843e-03" rms="4.8734313249588013e-01" purity="5.0504505634307861e-01" nType="0">
        <Node pos="l" depth="1" NCoef="0" IVar="-1" Cut="0.0000000000000000e+00" cType="1" res="-2.0009553991258144e-03" rms="4.4011074304580688e-01" purity="2.7109053730964661e-01" nType="-99"/>
        <Node pos="r" depth="1" NCoef="0" IVar="1" Cut="1.4701585388183594e+02" cType="1" res="1.2546128593385220e-02" rms="4.8783388733863831e-01" purity="5.2545773983001709e-01" nType="0">
          <Node pos="l" depth="2" NCoef="0" IVar="-1" Cut="0.0000000000000000e+00" cType="1" res="4.8093564691953361e-04" rms="4.8846235871315002e-01" purity="5.5047923326492310e-01" nType="-99"/>
          <Node pos="r" depth="2" NCoef="0" IVar="-1" Cut="0.0000000000000000e+00" cType="1" res="-1.9779296126216650e-03" rms="4.3646129965782166e-01" purity="2.6408448815345764e-01" nType="-99"/>
        </Node>
      </Node>
    </BinaryTree>
    <BinaryTree type="DecisionTree" boostWeight="1.0000000000000000e+00" itree="134">
      <Node pos="s" depth="0" NCoef="0" IVar="1" Cut="1.4708995056152344e+02" cType="1" res="-9.1853225603699684e-03" rms="4.8863655328750610e-01" purity="5.0027501583099365e-01" nType="0">
        <Node pos="l" depth="1" NCoef="0" IVar="1" Cut="1.0516371917724609e+02" cType="1" res="3.8941253442317247e-03" rms="4.9015706777572632e-01" purity="5.1900744438171387e-01" nType="0">
          <Node pos="l" depth="2" NCoef="0" IVar="-1" Cut="0.0000000000000000e+00" cType="1" res="-1.3864870416000485e-03" rms="4.8022833466529846e-01" purity="3.6521303653717041e-01" nType="-99"/>
          <Node pos="r" depth="2" NCoef="0" IVar="-1" Cut="0.0000000000000000e+00" cType="1" res="3.0494961538352072e-04" rms="4.8928919434547424e-01" purity="5.3930556774139404e-01" nType="-99"/>
        </Node>
        <Node pos="r" depth="1" NCoef="0" IVar="-1" Cut="0.0000000000000000e+00" cType="1" res="-1.8172753043472767e-03" rms="4.4259932637214661e-01" purity="2.8097596764564514e-01" nType="-99"/>
      </Node>
    </BinaryTree>
    <BinaryTree type="DecisionTree" boostWeight="1.0000000000000000e+00" itree="135">
      <Node pos="s" depth="0" NCoef="0" IVar="3" Cut="8.7365168333053589e-01" cType="1" res="-1.3127388432621956e-02" rms="4.8842719197273254e-01" purity="4.9559268355369568e-01" nType="0">
        <Node pos="l" depth="1" NCoef="0" IVar="0" Cut="2.0382270812988281e+02" cType="1" res="-8.4464810788631439e-02" rms="4.7989362478256226e-01" purity="3.8004583120346069e-01" nType="0">
          <Node pos="l" depth="2" NCoef="0" IVar="-1" Cut="0.0000000000000000e+00" cType="1" res="-6.2452704878523946e-04" rms="4.9032214283943176e-01" purity="4.2611500620841980e-01" nType="-99"/>
          <Node pos="r" depth="2" NCoef="0" IVar="-1" Cut="0.0000000000000000e+00" cType="1" res="-1.6336183762177825e-03" rms="4.5473113656044006e-01" purity="2.9916512966156006e-01" nType="-99"/>
        </Node>
        <Node pos="r" depth="1" NCoef="0" IVar="2" Cut="7.1338555908203125e+02" cType="1" res="2.0250707864761353e-02" rms="4.8880693316459656e-01" purity="5.4965591430664062e-01" nType="0">
          <Node pos="l" depth="2" NCoef="0" IVar="-1" Cut="0.0000000000000000e+00" cType="1" res="2.7216437738388777e-03" rms="4.6112760901451111e-01" purity="6.8380761146545410e-01" nType="-99"/>
          <Node pos="r" depth="2" NCoef="0" IVar="-1" Cut="0.0000000000000000e+00" cType="1" res="1.7440573856219999e-06" rms="4.9108323454856873e-01" purity="5.2496474981307983e-01" nType="-99"/>
        </Node>
      </Node>
    </BinaryTree>
    <BinaryTree type="DecisionTree" boostWeight="1.0000000000000000e+00" itree="136">
      <Node pos="s" depth="0" NCoef="0" IVar="1" Cut="9.9138389587402344e+01" cType="1" res="-1.4416113495826721e-02" rms="4.8732882738113403e-01" purity="4.9420645833015442e-01" nType="0">
        <Node pos="l" depth="1" NCoef="0" IVar="-1" Cut="0.0000000000000000e+00" cType="1" res="-2.1564762573689222e-03" rms="4.3226107954978943e-01" purity="2.6138377189636230e-01" nType="-99"/>
        <Node pos="r" depth="1" NCoef="0" IVar="1" Cut="1.4226042175292969e+02" cType="1" res="2.4627412203699350e-03" rms="4.8863971233367920e-01" purity="5.1563203334808350e-01" nType="0">
          <Node pos="l" depth="2" NCoef="0" IVar="-1" Cut="0.0000000000000000e+00" cType="1" res="3.7493137642741203e-04" rms="4.8991212248802185e-01" purity="5.4648053646087646e-01" nType="-99"/>
          <Node pos="r" depth="2" NCoef="0" IVar="-1" Cut="0.0000000000000000e+00" cType="1" res="-1.5286633279174566e-03" rms="4.5429331064224243e-01" purity="3.0712088942527771e-01" nType="-99"/>
        </Node>
      </Node>
    </BinaryTree>
    <BinaryTree type="DecisionTree" boostWeight="1.0000000000000000e+00" itree="137">
      <Node pos="s" depth="0" NCoef="0" IVar="3" Cut="9.0593886375427246e-01" cType="1" res="-1.1969028040766716e-02" rms="4.8836958408355713e-01" purity="4.9814513325691223e-01" nType="0">
        <Node pos="l" depth="1" NCoef="0" IVar="4" Cut="5.7100610351562500e+02" cType="1" res="-4.9338366836309433e-02" rms="4.8908153176307678e-01" purity="4.2902478575706482e-01" nType="0">
          <Node pos="l" depth="2" NCoef="0" IVar="-1" Cut="0.0000000000000000e+00" cType="1" res="-1.7409021966159344e-03" rms="4.6009036898612976e-01" purity="3.2317775487899780e-01" nType="-99"/>
          <Node pos="r" depth="2" NCoef="0" IVar="-1" Cut="0.0000000000000000e+00" cType="1" res="-1.4776761236134917e-04" rms="4.9340540170669556e-01" purity="4.6687552332878113e-01" nType="-99"/>
        </Node>
        <Node pos="r" depth="1" NCoef="0" IVar="2" Cut="8.4178308105468750e+02" cType="1" res="4.4032279402017593e-02" rms="4.8190572857856750e-01" purity="6.0172814130783081e-01" nType="0">
          <Node pos="l" depth="2" NCoef="0" IVar="-1" Cut="0.0000000000000000e+00" cType="1" res="3.1101803760975599e-03" rms="4.4619685411453247e-01" purity="7.1387171745300293e-01" nType="-99"/>
          <Node pos="r" depth="2" NCoef="0" IVar="-1" Cut="0.0000000000000000e+00" cType="1" res="4.6094974095467478e-05" rms="4.9095207452774048e-01" purity="5.5296057462692261e-01" nType="-99"/>
        </Node>
      </Node>
    </BinaryTree>
    <BinaryTree type="DecisionTree" boostWeight="1.0000000000000000e+00" itree="138">
      <Node pos="s" depth="0" NCoef="0" IVar="1" Cut="1.3762495422363281e+02" cType="1" res="-2.0573209971189499e-02" rms="4.8822388052940369e-01" purity="4.8821255564689636e-01" nType="0">
        <Node pos="l" depth="1" NCoef="0" IVar="1" Cut="1.0238290405273438e+02" cType="1" res="-5.9733918169513345e-04" rms="4.8989555239677429e-01" purity="5.1762628555297852e-01" nType="0">
          <Node pos="l" depth="2" NCoef="0" IVar="-1" Cut="0.0000000000000000e+00" cType="1" res="-1.6694688238203526e-03" rms="4.7062361240386963e-01" purity="3.3425182104110718e-01" nType="-99"/>
          <Node pos="r" depth="2" NCoef="0" IVar="-1" Cut="0.0000000000000000e+00" cType="1" res="2.9153173090890050e-04" rms="4.8943597078323364e-01" purity="5.4360240697860718e-01" nType="-99"/>
        </Node>
        <Node pos="r" depth="1" NCoef="0" IVar="2" Cut="1.0482734375000000e+03" cType="1" res="-1.2204246222972870e-01" rms="4.6661975979804993e-01" purity="3.3880293369293213e-01" nType="0">
          <Node pos="l" depth="2" NCoef="0" IVar="-1" Cut="0.0000000000000000e+00" cType="1" res="-6.2640861142426729e-04" rms="4.9027088284492493e-01" purity="4.2406910657882690e-01" nType="-99"/>
          <Node pos="r" depth="2" NCoef="0" IVar="-1" Cut="0.0000000000000000e+00" cType="1" res="-1.9126589177176356e-03" rms="4.4250053167343140e-01" purity="2.8113198280334473e-01" nType="-99"/>
        </Node>
      </Node>
    </BinaryTree>
    <BinaryTree type="DecisionTree" boostWeight="1.0000000000000000e+00" itree="139">
      <Node pos="s" depth="0" NCoef="0" IVar="1" Cut="9.9138389587402344e+01" cType="1" res="-9.7649423405528069e-03" rms="4.8702126741409302e-01" purity="4.9857348203659058e-01" nType="0">
        <Node pos="l" depth="1" NCoef="0" IVar="-1" Cut="0.0000000000000000e+00" cType="1" res="-2.2693525534123182e-03" rms="4.3655708432197571e-01" purity="2.6139736175537109e-01" nType="-99"/>
        <Node pos="r" depth="1" NCoef="0" IVar="1" Cut="1.4226042175292969e+02" cType="1" res="5.6445160880684853e-03" rms="4.8760145902633667e-01" purity="5.1766818761825562e-01" nType="0">
          <Node pos="l" depth="2" NCoef="0" IVar="-1" Cut="0.0000000000000000e+00" cType="1" res="4.0864493348635733e-04" rms="4.8816296458244324e-01" purity="5.4726898670196533e-01" nType="-99"/>
          <Node pos="r" depth="2" NCoef="0" IVar="-1" Cut="0.0000000000000000e+00" cType="1" res="-1.5200410271063447e-03" rms="4.5805042982101440e-01" purity="3.1048113107681274e-01" nType="-99"/>
        </Node>
      </Node>
    </BinaryTree>
    <BinaryTree type="DecisionTree" boostWeight="1.0000000000000000e+00" itree="140">
      <Node pos="s" depth="0" NCoef="0" IVar="1" Cut="1.3852383422851562e+02" cType="1" res="-9.0156244114041328e-03" rms="4.8784869909286499e-01" purity="5.0032097101211548e-01" nType="0">
        <Node pos="l" depth="1" NCoef="0" IVar="3" Cut="8.9634925127029419e-01" cType="1" res="9.4757042825222015e-03" rms="4.8791134357452393e-01" purity="5.2737897634506226e-01" nType="0">
          <Node pos="l" depth="2" NCoef="0" IVar="-1" Cut="0.0000000000000000e+00" cType="1" res="-5.5357796372845769e-04" rms="4.9102535843849182e-01" purity="4.3293869495391846e-01" nType="-99"/>
          <Node pos="r" depth="2" NCoef="0" IVar="-1" Cut="0.0000000000000000e+00" cType="1" res="1.2180928606539965e-03" rms="4.7830429673194885e-01" purity="6.2692314386367798e-01" nType="-99"/>
        </Node>
        <Node pos="r" depth="1" NCoef="0" IVar="2" Cut="1.0464415283203125e+03" cType="1" res="-1.1154124140739441e-01" rms="4.7460517287254333e-01" purity="3.5029748082160950e-01" nType="0">
          <Node pos="l" depth="2" NCoef="0" IVar="-1" Cut="0.0000000000000000e+00" cType="1" res="-5.5520358728244901e-04" rms="4.9579256772994995e-01" purity="4.3290486931800842e-01" nType="-99"/>
          <Node pos="r" depth="2" NCoef="0" IVar="-1" Cut="0.0000000000000000e+00" cType="1" res="-1.8090917728841305e-03" rms="4.5239880681037903e-01" purity="2.9208183288574219e-01" nType="-99"/>
        </Node>
      </Node>
    </BinaryTree>
    <BinaryTree type="DecisionTree" boostWeight="1.0000000000000000e+00" itree="141">
      <Node pos="s" depth="0" NCoef="0" IVar="3" Cut="9.4653230905532837e-01" cType="1" res="-2.0764533430337906e-02" rms="4.8734065890312195e-01" purity="4.8702421784400940e-01" nType="0">
        <Node pos="l" depth="1" NCoef="0" IVar="0" Cut="2.3919528198242188e+02" cType="1" res="-4.1236188262701035e-02" rms="4.8877447843551636e-01" purity="4.5505172014236450e-01" nType="0">
          <Node pos="l" depth="2" NCoef="0" IVar="-1" Cut="0.0000000000000000e+00" cType="1" res="-1.7647154163569212e-04" rms="4.9265059828758240e-01" purity="4.9531677365303040e-01" nType="-99"/>
          <Node pos="r" depth="2" NCoef="0" IVar="-1" Cut="0.0000000000000000e+00" cType="1" res="-1.3503165682777762e-03" rms="4.7133398056030273e-01" purity="3.5406771302223206e-01" nType="-99"/>
        </Node>
        <Node pos="r" depth="1" NCoef="0" IVar="1" Cut="1.2608240509033203e+02" cType="1" res="9.7172066569328308e-02" rms="4.6164345741271973e-01" purity="6.7121684551239014e-01" nType="0">
          <Node pos="l" depth="2" NCoef="0" IVar="-1" Cut="0.0000000000000000e+00" cType="1" res="3.5001651849597692e-03" rms="4.3933463096618652e-01" purity="7.3263388872146606e-01" nType="-99"/>
          <Node pos="r" depth="2" NCoef="0" IVar="-1" Cut="0.0000000000000000e+00" cType="1" res="6.9330685073509812e-04" rms="4.8115837574005127e-01" purity="5.9584021568298340e-01" nType="-99"/>
        </Node>
      </Node>
    </BinaryTree>
    <BinaryTree type="DecisionTree" boostWeight="1.0000000000000000e+00" itree="142">
      <Node pos="s" depth="0" NCoef="0" IVar="0" Cut="2.4568336486816406e+02" cType="1" res="-1.8388409167528152e-02" rms="4.8760655522346497e-01" purity="4.9077764153480530e-01" nType="0">
        <Node pos="l" depth="1" NCoef="0" IVar="0" Cut="6.5932373046875000e+01" cType="1" res="1.1801056563854218e-02" rms="4.8933976888656616e-01" purity="5.3410542011260986e-01" nType="0">
          <Node pos="l" depth="2" NCoef="0" IVar="-1" Cut="0.0000000000000000e+00" cType="1" res="-1.8376212101429701e-03" rms="4.7002497315406799e-01" purity="3.5040593147277832e-01" nType="-99"/>
          <Node pos="r" depth="2" NCoef="0" IVar="-1" Cut="0.0000000000000000e+00" cType="1" res="5.3867278620600700e-04" rms="4.8767939209938049e-01" purity="5.5908721685409546e-01" nType="-99"/>
        </Node>
        <Node pos="r" depth="1" NCoef="0" IVar="4" Cut="7.5015991210937500e+02" cType="1" res="-1.0155384987592697e-01" rms="4.7293591499328613e-01" purity="3.7141901254653931e-01" nType="0">
          <Node pos="l" depth="2" NCoef="0" IVar="-1" Cut="0.0000000000000000e+00" cType="1" res="-2.0330194383859634e-03" rms="4.3948653340339661e-01" purity="2.8271031379699707e-01" nType="-99"/>
          <Node pos="r" depth="2" NCoef="0" IVar="-1" Cut="0.0000000000000000e+00" cType="1" res="-6.8509671837091446e-04" rms="4.8442801833152771e-01" purity="4.2342880368232727e-01" nType="-99"/>
        </Node>
      </Node>
    </BinaryTree>
    <BinaryTree type="DecisionTree" boostWeight="1.0000000000000000e+00" itree="143">
      <Node pos="s" depth="0" NCoef="0" IVar="1" Cut="1.0791755676269531e+02" cType="1" res="-8.9740345720201731e-04" rms="4.8784038424491882e-01" purity="5.0844520330429077e-01" nType="0">
        <Node pos="l" depth="1" NCoef="0" IVar="3" Cut="8.8885539770126343e-01" cType="1" res="-1.0908813029527664e-01" rms="4.7477221488952637e-01" purity="3.7461480498313904e-01" nType="0">
          <Node pos="l" depth="2" NCoef="0" IVar="-1" Cut="0.0000000000000000e+00" cType="1" res="-1.6097149346023798e-03" rms="4.5390337705612183e-01" purity="2.9733470082283020e-01" nType="-99"/>
          <Node pos="r" depth="2" NCoef="0" IVar="-1" Cut="0.0000000000000000e+00" cType="1" res="-9.4857579097151756e-04" rms="4.9232003092765808e-01" purity="4.5519208908081055e-01" nType="-99"/>
        </Node>
        <Node pos="r" depth="1" NCoef="0" IVar="1" Cut="1.4335853576660156e+02" cType="1" res="1.7899641767144203e-02" rms="4.8763391375541687e-01" purity="5.3169685602188110e-01" nType="0">
          <Node pos="l" depth="2" NCoef="0" IVar="-1" Cut="0.0000000000000000e+00" cType="1" res="5.2324798889458179e-04" rms="4.8749232292175293e-01" purity="5.5530160665512085e-01" nType="-99"/>
          <Node pos="r" depth="2" NCoef="0" IVar="-1" Cut="0.0000000000000000e+00" cType="1" res="-1.2033598031848669e-03" rms="4.7314062714576721e-01" purity="3.4936207532882690e-01" nType="-99"/>
        </Node>
      </Node>
    </BinaryTree>
    <BinaryTree type="DecisionTree" boostWeight="1.0000000000000000e+00" itree="144">
      <Node pos="s" depth="0" NCoef="0" IVar="4" Cut="5.4810174560546875e+02" cType="1" res="-1.1854740791022778e-02" rms="4.8788031935691833e-01" purity="4.9794104695320129e-01" nType="0">
        <Node pos="l" depth="1" NCoef="0" IVar="2" Cut="6.6534478759765625e+02" cType="1" res="-9.8931655287742615e-02" rms="4.7971627116203308e-01" purity="4.1568663716316223e-01" nType="0">
          <Node pos="l" depth="2" NCoef="0" IVar="-1" Cut="0.0000000000000000e+00" cType="1" res="4.4203407014720142e-04" rms="4.8962169885635376e-01" purity="5.5774933099746704e-01" nType="-99"/>
          <Node pos="r" depth="2" NCoef="0" IVar="-1" Cut="0.0000000000000000e+00" cType="1" res="-2.3958389647305012e-03" rms="4.3785825371742249e-01" purity="2.8149700164794922e-01" nType="-99"/>
        </Node>
        <Node pos="r" depth="1" NCoef="0" IVar="2" Cut="8.4775164794921875e+02" cType="1" res="1.0017615742981434e-02" rms="4.8747149109840393e-01" purity="5.1860207319259644e-01" nType="0">
          <Node pos="l" depth="2" NCoef="0" IVar="-1" Cut="0.0000000000000000e+00" cType="1" res="2.3748825769871473e-03" rms="4.6513140201568604e-01" purity="6.4817529916763306e-01" nType="-99"/>
          <Node pos="r" depth="2" NCoef="0" IVar="-1" Cut="0.0000000000000000e+00" cType="1" res="-2.2486269881483167e-04" rms="4.8855134844779968e-01" purity="4.9008587002754211e-01" nType="-99"/>
        </Node>
      </Node>
    </BinaryTree>
    <BinaryTree type="DecisionTree" boostWeight="1.0000000000000000e+00" itree="145">
      <Node pos="s" depth="0" NCoef="0" IVar="1" Cut="1.3892347717285156e+02" cType="1" res="4.4585727155208588e-03" rms="4.8777049779891968e-01" purity="5.1362973451614380e-01" nType="0">
        <Node pos="l" depth="1" NCoef="0" IVar="4" Cut="5.1606372070312500e+02" cType="1" res="2.4640260264277458e-02" rms="4.8853778839111328e-01" purity="5.4342198371887207e-01" nType="0">
          <Node pos="l" depth="2" NCoef="0" IVar="-1" Cut="0.0000000000000000e+00" cType="1" res="-1.0460978373885155e-03" rms="4.8457583785057068e-01" purity="4.4527888298034668e-01" nType="-99"/>
          <Node pos="r" depth="2" NCoef="0" IVar="-1" Cut="0.0000000000000000e+00" cType="1" res="6.8796589039266109e-04" rms="4.8692685365676880e-01" purity="5.6140732765197754e-01" nType="-99"/>
        </Node>
        <Node pos="r" depth="1" NCoef="0" IVar="3" Cut="8.9243298768997192e-01" cType="1" res="-1.0982988774776459e-01" rms="4.6723607182502747e-01" purity="3.4491744637489319e-01" nType="0">
          <Node pos="l" depth="2" NCoef="0" IVar="-1" Cut="0.0000000000000000e+00" cType="1" res="-1.7013181932270527e-03" rms="4.3720126152038574e-01" purity="2.6360273361206055e-01" nType="-99"/>
          <Node pos="r" depth="2" NCoef="0" IVar="-1" Cut="0.0000000000000000e+00" cType="1" res="-5.8210262795910239e-04" rms="4.9438521265983582e-01" purity="4.4792532920837402e-01" nType="-99"/>
        </Node>
      </Node>
    </BinaryTree>
    <BinaryTree type="DecisionTree" boostWeight="1.0000000000000000e+00" itree="146">
      <Node pos="s" depth="0" NCoef="0" IVar="1" Cut="1.4416984558105469e+02" cType="1" res="-1.4620188623666763e-02" rms="4.8694562911987305e-01" purity="4.9467891454696655e-01" nType="0">
        <Node pos="l" depth="1" NCoef="0" IVar="3" Cut="9.3458944559097290e-01" cType="1" res="1.7805924871936440e-03" rms="4.8832750320434570e-01" purity="5.1774978637695312e-01" nType="0">
          <Node pos="l" depth="2" NCoef="0" IVar="-1" Cut="0.0000000000000000e+00" cType="1" res="-3.1247231527231634e-04" rms="4.9195238947868347e-01" purity="4.7555735707283020e-01" nType="-99"/>
          <Node pos="r" depth="2" NCoef="0" IVar="-1" Cut="0.0000000000000000e+00" cType="1" res="1.8883822485804558e-03" rms="4.6478089690208435e-01" purity="6.6953480243682861e-01" nType="-99"/>
        </Node>
        <Node pos="r" depth="1" NCoef="0" IVar="-1" Cut="0.0000000000000000e+00" cType="1" res="-1.8996479921042919e-03" rms="4.4349822402000427e-01" purity="2.7280652523040771e-01" nType="-99"/>
      </Node>
    </BinaryTree>
    <BinaryTree type="DecisionTree" boostWeight="1.0000000000000000e+00" itree="147">
      <Node pos="s" depth="0" NCoef="0" IVar="3" Cut="9.5708352327346802e-01" cType="1" res="-1.9938511773943901e-02" rms="4.8779037594795227e-01" purity="4.8984649777412415e-01" nType="0">
        <Node pos="l" depth="1" NCoef="0" IVar="1" Cut="1.3411058044433594e+02" cType="1" res="-3.5984024405479431e-02" rms="4.8902919888496399e-01" purity="4.6478971838951111e-01" nType="0">
          <Node pos="l" depth="2" NCoef="0" IVar="-1" Cut="0.0000000000000000e+00" cType="1" res="-1.7882719112094492e-04" rms="4.9208319187164307e-01" purity="4.9837365746498108e-01" nType="-99"/>
          <Node pos="r" depth="2" NCoef="0" IVar="-1" Cut="0.0000000000000000e+00" cType="1" res="-1.3950704596936703e-03" rms="4.6908563375473022e-01" purity="3.4779825806617737e-01" nType="-99"/>
        </Node>
        <Node pos="r" depth="1" NCoef="0" IVar="0" Cut="1.3509614562988281e+02" cType="1" res="1.1425025016069412e-01" rms="4.5569700002670288e-01" purity="6.9939649105072021e-01" nType="0">
          <Node pos="l" depth="2" NCoef="0" IVar="-1" Cut="0.0000000000000000e+00" cType="1" res="1.5471781371161342e-03" rms="4.6575459837913513e-01" purity="6.7142778635025024e-01" nType="-99"/>
          <Node pos="r" depth="2" NCoef="0" IVar="-1" Cut="0.0000000000000000e+00" cType="1" res="3.9625242352485657e-03" rms="4.3929833173751831e-01" purity="7.3135411739349365e-01" nType="-99"/>
        </Node>
      </Node>
    </BinaryTree>
    <BinaryTree type="DecisionTree" boostWeight="1.0000000000000000e+00" itree="148">
      <Node pos="s" depth="0" NCoef="0" IVar="1" Cut="1.4708995056152344e+02" cType="1" res="-2.3343604058027267e-02" rms="4.8841890692710876e-01" purity="4.8700997233390808e-01" nType="0">
        <Node pos="l" depth="1" NCoef="0" IVar="1" Cut="9.9926239013671875e+01" cType="1" res="-1.0900358669459820e-02" rms="4.8970174789428711e-01" purity="5.0513809919357300e-01" nType="0">
          <Node pos="l" depth="2" NCoef="0" IVar="-1" Cut="0.0000000000000000e+00" cType="1" res="-1.8198777688667178e-03" rms="4.5180049538612366e-01" purity="2.9870343208312988e-01" nType="-99"/>
          <Node pos="r" depth="2" NCoef="0" IVar="-1" Cut="0.0000000000000000e+00" cType="1" res="4.2114268580917269e-05" rms="4.9059927463531494e-01" purity="5.2352869510650635e-01" nType="-99"/>
        </Node>
        <Node pos="r" depth="1" NCoef="0" IVar="-1" Cut="0.0000000000000000e+00" cType="1" res="-1.8707308918237686e-03" rms="4.5069935917854309e-01" purity="2.8318321704864502e-01" nType="-99"/>
      </Node>
    </BinaryTree>
    <BinaryTree type="DecisionTree" boostWeight="1.0000000000000000e+00" itree="149">
      <Node pos="s" depth="0" NCoef="0" IVar="1" Cut="1.0691110992431641e+02" cType="1" res="-3.8935653865337372e-03" rms="4.8746526241302490e-01" purity="5.0609904527664185e-01" nType="0">
        <Node pos="l" depth="1" NCoef="0" IVar="5" Cut="4.6135941147804260e-01" cType="1" res="-1.2711015343666077e-01" rms="4.7205564379692078e-01" purity="3.5288515686988831e-01" nType="0">
          <Node pos="l" depth="2" NCoef="0" IVar="-1" Cut="0.0000000000000000e+00" cType="1" res="-1.7669572262093425e-03" rms="4.6536791324615479e-01" purity="3.3313482999801636e-01" nType="-99"/>
          <Node pos="r" depth="2" NCoef="0" IVar="-1" Cut="0.0000000000000000e+00" cType="1" res="-1.2967453803867102e-03" rms="4.7879990935325623e-01" purity="3.7525305151939392e-01" nType="-99"/>
        </Node>
        <Node pos="r" depth="1" NCoef="0" IVar="1" Cut="1.3633518981933594e+02" cType="1" res="1.4755745418369770e-02" rms="4.8704680800437927e-01" purity="5.2928858995437622e-01" nType="0">
          <Node pos="l" depth="2" NCoef="0" IVar="-1" Cut="0.0000000000000000e+00" cType="1" res="7.0243881782516837e-04" rms="4.8619908094406128e-01" purity="5.7124906778335571e-01" nType="-99"/>
          <Node pos="r" depth="2" NCoef="0" IVar="-1" Cut="0.0000000000000000e+00" cType="1" res="-1.1964073637500405e-03" rms="4.7418135404586792e-01" purity="3.6621862649917603e-01" nType="-99"/>
        </Node>
      </Node>
    </BinaryTree>
    <BinaryTree type="DecisionTree" boostWeight="1.0000000000000000e+00" itree="150">
      <Node pos="s" depth="0" NCoef="0" IVar="1" Cut="1.3852383422851562e+02" cType="1" res="-1.9840976223349571e-02" rms="4.8688396811485291e-01" purity="4.9057665467262268e-01" nType="0">
        <Node pos="l" depth="1" NCoef="0" IVar="1" Cut="1.0819860839843750e+02" cType="1" res="-3.9923287113197148e-04" rms="4.8878395557403564e-01" purity="5.1927357912063599e-01" nType="0">
          <Node pos="l" depth="2" NCoef="0" IVar="-1" Cut="0.0000000000000000e+00" cType="1" res="-1.5863956650719047e-03" rms="4.7014400362968445e-01" purity="3.5060325264930725e-01" nType="-99"/>
          <Node pos="r" depth="2" NCoef="0" IVar="-1" Cut="0.0000000000000000e+00" cType="1" res="4.0355153032578528e-04" rms="4.8819395899772644e-01" purity="5.5277925729751587e-01" nType="-99"/>
        </Node>
        <Node pos="r" depth="1" NCoef="0" IVar="1" Cut="1.4601188659667969e+02" cType="1" res="-1.3235972821712494e-01" rms="4.5986881852149963e-01" purity="3.2449358701705933e-01" nType="0">
          <Node pos="l" depth="2" NCoef="0" IVar="-1" Cut="0.0000000000000000e+00" cType="1" res="-8.5352646419778466e-04" rms="4.8433652520179749e-01" purity="4.1503292322158813e-01" nType="-99"/>
          <Node pos="r" depth="2" NCoef="0" IVar="-1" Cut="0.0000000000000000e+00" cType="1" res="-2.0472703035920858e-03" rms="4.3376636505126953e-01" purity="2.5678071379661560e-01" nType="-99"/>
        </Node>
      </Node>
    </BinaryTree>
    <BinaryTree type="DecisionTree" boostWeight="1.0000000000000000e+00" itree="151">
      <Node pos="s" depth="0" NCoef="0" IVar="1" Cut="1.0111934661865234e+02" cType="1" res="-2.7114607393741608e-02" rms="4.8784509301185608e-01" purity="4.8175156116485596e-01" nType="0">
        <Node pos="l" depth="1" NCoef="0" IVar="-1" Cut="0.0000000000000000e+00" cType="1" res="-2.0152658689767122e-03" rms="4.4581744074821472e-01" purity="2.8214901685714722e-01" nType="-99"/>
        <Node pos="r" depth="1" NCoef="0" IVar="1" Cut="1.4278215026855469e+02" cType="1" res="-1.2443793937563896e-02" rms="4.8920103907585144e-01" purity="5.0096148252487183e-01" nType="0">
          <Node pos="l" depth="2" NCoef="0" IVar="-1" Cut="0.0000000000000000e+00" cType="1" res="8.5152169049251825e-05" rms="4.9097439646720886e-01" purity="5.2847081422805786e-01" nType="-99"/>
          <Node pos="r" depth="2" NCoef="0" IVar="-1" Cut="0.0000000000000000e+00" cType="1" res="-1.6772651579231024e-03" rms="4.5442968606948853e-01" purity="2.9939764738082886e-01" nType="-99"/>
        </Node>
      </Node>
    </BinaryTree>
    <BinaryTree type="DecisionTree" boostWeight="1.0000000000000000e+00" itree="152">
      <Node pos="s" depth="0" NCoef="0" IVar="3" Cut="9.2144852876663208e-01" cType="1" res="-1.0940277017652988e-02" rms="4.8598298430442810e-01" purity="4.9593648314476013e-01" nType="0">
        <Node pos="l" depth="1" NCoef="0" IVar="3" Cut="8.6705935001373291e-01" cType="1" res="-4.5896906405687332e-02" rms="4.8852249979972839e-01" purity="4.3967616558074951e-01" nType="0">
          <Node pos="l" depth="2" NCoef="0" IVar="-1" Cut="0.0000000000000000e+00" cType="1" res="-1.2364415451884270e-03" rms="4.7355523705482483e-01" purity="3.5347405076026917e-01" nType="-99"/>
          <Node pos="r" depth="2" NCoef="0" IVar="-1" Cut="0.0000000000000000e+00" cType="1" res="-1.7507870506960899e-04" rms="4.9294906854629517e-01" purity="4.8508197069168091e-01" nType="-99"/>
        </Node>
        <Node pos="r" depth="1" NCoef="0" IVar="4" Cut="6.8389404296875000e+02" cType="1" res="8.7032958865165710e-02" rms="4.6499449014663696e-01" purity="6.5361768007278442e-01" nType="0">
          <Node pos="l" depth="2" NCoef="0" IVar="-1" Cut="0.0000000000000000e+00" cType="1" res="3.1122093787416816e-04" rms="4.8105755448341370e-01" purity="5.9532004594802856e-01" nType="-99"/>
          <Node pos="r" depth="2" NCoef="0" IVar="-1" Cut="0.0000000000000000e+00" cType="1" res="3.0076762195676565e-03" rms="4.4603702425956726e-01" purity="6.9634354114532471e-01" nType="-99"/>
        </Node>
      </Node>
    </BinaryTree>
    <BinaryTree type="DecisionTree" boostWeight="1.0000000000000000e+00" itree="153">
      <Node pos="s" depth="0" NCoef="0" IVar="1" Cut="9.9138389587402344e+01" cType="1" res="-3.8990871980786324e-03" rms="4.8554328083992004e-01" purity="5.0343394279479980e-01" nType="0">
        <Node pos="l" depth="1" NCoef="0" IVar="-1" Cut="0.0000000000000000e+00" cType="1" res="-2.1684335079044104e-03" rms="4.4015768170356750e-01" purity="2.6955124735832214e-01" nType="-99"/>
        <Node pos="r" depth="1" NCoef="0" IVar="1" Cut="1.4226042175292969e+02" cType="1" res="1.3117047958076000e-02" rms="4.8584091663360596e-01" purity="5.2452754974365234e-01" nType="0">
          <Node pos="l" depth="2" NCoef="0" IVar="-1" Cut="0.0000000000000000e+00" cType="1" res="5.5989332031458616e-04" rms="4.8617395758628845e-01" purity="5.5671691894531250e-01" nType="-99"/>
          <Node pos="r" depth="2" NCoef="0" IVar="-1" Cut="0.0000000000000000e+00" cType="1" res="-1.4606503536924720e-03" rms="4.5917335152626038e-01" purity="3.1580758094787598e-01" nType="-99"/>
        </Node>
      </Node>
    </BinaryTree>
    <BinaryTree type="DecisionTree" boostWeight="1.0000000000000000e+00" itree="154">
      <Node pos="s" depth="0" NCoef="0" IVar="0" Cut="3.7239297485351562e+02" cType="1" res="-1.8067818135023117e-02" rms="4.8624858260154724e-01" purity="4.9099501967430115e-01" nType="0">
        <Node pos="l" depth="1" NCoef="0" IVar="4" Cut="6.9706341552734375e+02" cType="1" res="-4.0433928370475769e-04" rms="4.8755204677581787e-01" purity="5.1466923952102661e-01" nType="0">
          <Node pos="l" depth="2" NCoef="0" IVar="-1" Cut="0.0000000000000000e+00" cType="1" res="-8.0733693903312087e-04" rms="4.8297512531280518e-01" purity="4.5665061473846436e-01" nType="-99"/>
          <Node pos="r" depth="2" NCoef="0" IVar="-1" Cut="0.0000000000000000e+00" cType="1" res="1.0381049942225218e-03" rms="4.8455938696861267e-01" purity="5.7706671953201294e-01" nType="-99"/>
        </Node>
        <Node pos="r" depth="1" NCoef="0" IVar="-1" Cut="0.0000000000000000e+00" cType="1" res="-1.6371747478842735e-03" rms="4.5784375071525574e-01" purity="3.2345345616340637e-01" nType="-99"/>
      </Node>
    </BinaryTree>
    <BinaryTree type="DecisionTree" boostWeight="1.0000000000000000e+00" itree="155">
      <Node pos="s" depth="0" NCoef="0" IVar="2" Cut="7.8792401123046875e+02" cType="1" res="-6.2216259539127350e-03" rms="4.8555472493171692e-01" purity="5.0312167406082153e-01" nType="0">
        <Node pos="l" depth="1" NCoef="0" IVar="4" Cut="4.6895025634765625e+02" cType="1" res="8.3219543099403381e-02" rms="4.7479555010795593e-01" purity="6.0930657386779785e-01" nType="0">
          <Node pos="l" depth="2" NCoef="0" IVar="-1" Cut="0.0000000000000000e+00" cType="1" res="-6.9929414894431829e-04" rms="4.9223884940147400e-01" purity="4.7283905744552612e-01" nType="-99"/>
          <Node pos="r" depth="2" NCoef="0" IVar="-1" Cut="0.0000000000000000e+00" cType="1" res="2.7112239040434361e-03" rms="4.5613223314285278e-01" purity="6.6515296697616577e-01" nType="-99"/>
        </Node>
        <Node pos="r" depth="1" NCoef="0" IVar="4" Cut="6.6006152343750000e+02" cType="1" res="-3.3068343997001648e-02" rms="4.8553356528282166e-01" purity="4.7124913334846497e-01" nType="0">
          <Node pos="l" depth="2" NCoef="0" IVar="-1" Cut="0.0000000000000000e+00" cType="1" res="-1.9035995937883854e-03" rms="4.6375313401222229e-01" purity="3.4176009893417358e-01" nType="-99"/>
          <Node pos="r" depth="2" NCoef="0" IVar="-1" Cut="0.0000000000000000e+00" cType="1" res="4.8990252253133804e-05" rms="4.8555019497871399e-01" purity="5.0852495431900024e-01" nType="-99"/>
        </Node>
      </Node>
    </BinaryTree>
    <BinaryTree type="DecisionTree" boostWeight="1.0000000000000000e+00" itree="156">
      <Node pos="s" depth="0" NCoef="0" IVar="3" Cut="9.3470776081085205e-01" cType="1" res="-6.6535533405840397e-03" rms="4.8521301150321960e-01" purity="5.0229036808013916e-01" nType="0">
        <Node pos="l" depth="1" NCoef="0" IVar="4" Cut="6.6559100341796875e+02" cType="1" res="-3.7080775946378708e-02" rms="4.8870658874511719e-01" purity="4.5459714531898499e-01" nType="0">
          <Node pos="l" depth="2" NCoef="0" IVar="-1" Cut="0.0000000000000000e+00" cType="1" res="-1.1257523437961936e-03" rms="4.8152297735214233e-01" purity="4.0544718503952026e-01" nType="-99"/>
          <Node pos="r" depth="2" NCoef="0" IVar="-1" Cut="0.0000000000000000e+00" cType="1" res="3.2953219488263130e-05" rms="4.9033764004707336e-01" purity="4.9145790934562683e-01" nType="-99"/>
        </Node>
        <Node pos="r" depth="1" NCoef="0" IVar="0" Cut="2.2208528137207031e+02" cType="1" res="1.1012808233499527e-01" rms="4.5296970009803772e-01" purity="6.8534016609191895e-01" nType="0">
          <Node pos="l" depth="2" NCoef="0" IVar="-1" Cut="0.0000000000000000e+00" cType="1" res="3.3686868846416473e-03" rms="4.3748611211776733e-01" purity="7.3377841711044312e-01" nType="-99"/>
          <Node pos="r" depth="2" NCoef="0" IVar="-1" Cut="0.0000000000000000e+00" cType="1" res="4.8564808093942702e-04" rms="4.8111271858215332e-01" purity="5.6041431427001953e-01" nType="-99"/>
        </Node>
      </Node>
    </BinaryTree>
    <BinaryTree type="DecisionTree" boostWeight="1.0000000000000000e+00" itree="157">
      <Node pos="s" depth="0" NCoef="0" IVar="1" Cut="9.9764961242675781e+01" cType="1" res="-1.7777748405933380e-02" rms="4.8662161827087402e-01" purity="4.9163597822189331e-01" nType="0">
        <Node pos="l" depth="1" NCoef="0" IVar="-1" Cut="0.0000000000000000e+00" cType="1" res="-2.1306551061570644e-03" rms="4.3377947807312012e-01" purity="2.6518967747688293e-01" nType="-99"/>
        <Node pos="r" depth="1" NCoef="0" IVar="1" Cut="1.4165657043457031e+02" cType="1" res="-2.0651298109441996e-03" rms="4.8805642127990723e-01" purity="5.1204854249954224e-01" nType="0">
          <Node pos="l" depth="2" NCoef="0" IVar="-1" Cut="0.0000000000000000e+00" cType="1" res="3.0319482902996242e-04" rms="4.8967796564102173e-01" purity="5.4392504692077637e-01" nType="-99"/>
          <Node pos="r" depth="2" NCoef="0" IVar="-1" Cut="0.0000000000000000e+00" cType="1" res="-1.6539094503968954e-03" rms="4.4970920681953430e-01" purity="2.9248237609863281e-01" nType="-99"/>
        </Node>
      </Node>
    </BinaryTree>
    <BinaryTree type="DecisionTree" boostWeight="1.0000000000000000e+00" itree="158">
      <Node pos="s" depth="0" NCoef="0" IVar="1" Cut="9.9764961242675781e+01" cType="1" res="-4.1346792131662369e-03" rms="4.8697352409362793e-01" purity="5.0537782907485962e-01" nType="0">
        <Node pos="l" depth="1" NCoef="0" IVar="-1" Cut="0.0000000000000000e+00" cType="1" res="-1.7819928470999002e-03" rms="4.4823509454727173e-01" purity="2.9278069734573364e-01" nType="-99"/>
        <Node pos="r" depth="1" NCoef="0" IVar="1" Cut="1.4690454101562500e+02" cType="1" res="7.8689316287636757e-03" rms="4.8766338825225830e-01" purity="5.2139317989349365e-01" nType="0">
          <Node pos="l" depth="2" NCoef="0" IVar="-1" Cut="0.0000000000000000e+00" cType="1" res="3.2009987626224756e-04" rms="4.8794728517532349e-01" purity="5.4127579927444458e-01" nType="-99"/>
          <Node pos="r" depth="2" NCoef="0" IVar="-1" Cut="0.0000000000000000e+00" cType="1" res="-1.5099350130185485e-03" rms="4.6190762519836426e-01" purity="3.0684560537338257e-01" nType="-99"/>
        </Node>
      </Node>
    </BinaryTree>
    <BinaryTree type="DecisionTree" boostWeight="1.0000000000000000e+00" itree="159">
      <Node pos="s" depth="0" NCoef="0" IVar="3" Cut="9.5054793357849121e-01" cType="1" res="-2.3219961673021317e-02" rms="4.8724552989006042e-01" purity="4.8654651641845703e-01" nType="0">
        <Node pos="l" depth="1" NCoef="0" IVar="0" Cut="2.0121986389160156e+02" cType="1" res="-4.1503880172967911e-02" rms="4.8870417475700378e-01" purity="4.5618805289268494e-01" nType="0">
          <Node pos="l" depth="2" NCoef="0" IVar="-1" Cut="0.0000000000000000e+00" cType="1" res="-1.1700492177624255e-04" rms="4.9221858382225037e-01" purity="5.0372487306594849e-01" nType="-99"/>
          <Node pos="r" depth="2" NCoef="0" IVar="-1" Cut="0.0000000000000000e+00" cType="1" res="-1.2510530650615692e-03" rms="4.7620114684104919e-01" purity="3.6937764286994934e-01" nType="-99"/>
        </Node>
        <Node pos="r" depth="1" NCoef="0" IVar="3" Cut="9.6889626979827881e-01" cType="1" res="8.9880287647247314e-02" rms="4.6232318878173828e-01" purity="6.7433726787567139e-01" nType="0">
          <Node pos="l" depth="2" NCoef="0" IVar="-1" Cut="0.0000000000000000e+00" cType="1" res="3.3784497063606977e-03" rms="4.3699795007705688e-01" purity="7.2433412075042725e-01" nType="-99"/>
          <Node pos="r" depth="2" NCoef="0" IVar="-1" Cut="0.0000000000000000e+00" cType="1" res="8.0636132042855024e-04" rms="4.7910782694816589e-01" purity="6.2803810834884644e-01" nType="-99"/>
        </Node>
      </Node>
    </BinaryTree>
    <BinaryTree type="DecisionTree" boostWeight="1.0000000000000000e+00" itree="160">
      <Node pos="s" depth="0" NCoef="0" IVar="1" Cut="9.9764961242675781e+01" cType="1" res="-8.5373045876622200e-03" rms="4.8479440808296204e-01" purity="4.9931633472442627e-01" nType="0">
        <Node pos="l" depth="1" NCoef="0" IVar="-1" Cut="0.0000000000000000e+00" cType="1" res="-2.0790649577975273e-03" rms="4.3735492229461670e-01" purity="2.6589459180831909e-01" nType="-99"/>
        <Node pos="r" depth="1" NCoef="0" IVar="1" Cut="1.4165657043457031e+02" cType="1" res="6.6891121678054333e-03" rms="4.8563426733016968e-01" purity="5.1933026313781738e-01" nType="0">
          <Node pos="l" depth="2" NCoef="0" IVar="-1" Cut="0.0000000000000000e+00" cType="1" res="4.8667879309505224e-04" rms="4.8660150170326233e-01" purity="5.5501759052276611e-01" nType="-99"/>
          <Node pos="r" depth="2" NCoef="0" IVar="-1" Cut="0.0000000000000000e+00" cType="1" res="-1.5470741782337427e-03" rms="4.5103365182876587e-01" purity="2.9619070887565613e-01" nType="-99"/>
        </Node>
      </Node>
    </BinaryTree>
    <BinaryTree type="DecisionTree" boostWeight="1.0000000000000000e+00" itree="161">
      <Node pos="s" depth="0" NCoef="0" IVar="3" Cut="9.3760251998901367e-01" cType="1" res="-1.9647208973765373e-02" rms="4.8689424991607666e-01" purity="4.9066555500030518e-01" nType="0">
        <Node pos="l" depth="1" NCoef="0" IVar="2" Cut="1.3599189453125000e+03" cType="1" res="-4.1386961936950684e-02" rms="4.8871889710426331e-01" purity="4.5196422934532166e-01" nType="0">
          <Node pos="l" depth="2" NCoef="0" IVar="-1" Cut="0.0000000000000000e+00" cType="1" res="-2.3946011788211763e-04" rms="4.9018445611000061e-01" purity="4.7925111651420593e-01" nType="-99"/>
          <Node pos="r" depth="2" NCoef="0" IVar="-1" Cut="0.0000000000000000e+00" cType="1" res="-1.3455006992444396e-03" rms="4.7793540358543396e-01" purity="3.7403321266174316e-01" nType="-99"/>
        </Node>
        <Node pos="r" depth="1" NCoef="0" IVar="2" Cut="1.3086893310546875e+03" cType="1" res="7.1265891194343567e-02" rms="4.6838027238845825e-01" purity="6.5250998735427856e-01" nType="0">
          <Node pos="l" depth="2" NCoef="0" IVar="-1" Cut="0.0000000000000000e+00" cType="1" res="2.2076962050050497e-03" rms="4.5707112550735474e-01" purity="6.8858551979064941e-01" nType="-99"/>
          <Node pos="r" depth="2" NCoef="0" IVar="-1" Cut="0.0000000000000000e+00" cType="1" res="-1.3509798736777157e-04" rms="4.8884642124176025e-01" purity="5.5552744865417480e-01" nType="-99"/>
        </Node>
      </Node>
    </BinaryTree>
    <BinaryTree type="DecisionTree" boostWeight="1.0000000000000000e+00" itree="162">
      <Node pos="s" depth="0" NCoef="0" IVar="1" Cut="1.3019731140136719e+02" cType="1" res="-7.7366782352328300e-03" rms="4.8668131232261658e-01" purity="5.0193846225738525e-01" nType="0">
        <Node pos="l" depth="1" NCoef="0" IVar="1" Cut="9.9041053771972656e+01" cType="1" res="2.0871154963970184e-02" rms="4.8740121722221375e-01" purity="5.4215645790100098e-01" nType="0">
          <Node pos="l" depth="2" NCoef="0" IVar="-1" Cut="0.0000000000000000e+00" cType="1" res="-1.4818729832768440e-03" rms="4.5960819721221924e-01" purity="3.2864776253700256e-01" nType="-99"/>
          <Node pos="r" depth="2" NCoef="0" IVar="-1" Cut="0.0000000000000000e+00" cType="1" res="6.1365962028503418e-04" rms="4.8767971992492676e-01" purity="5.6641334295272827e-01" nType="-99"/>
        </Node>
        <Node pos="r" depth="1" NCoef="0" IVar="3" Cut="8.7039399147033691e-01" cType="1" res="-7.2785168886184692e-02" rms="4.7871908545494080e-01" purity="4.1049087047576904e-01" nType="0">
          <Node pos="l" depth="2" NCoef="0" IVar="-1" Cut="0.0000000000000000e+00" cType="1" res="-1.7042736290022731e-03" rms="4.4477716088294983e-01" purity="2.8197100758552551e-01" nType="-99"/>
          <Node pos="r" depth="2" NCoef="0" IVar="-1" Cut="0.0000000000000000e+00" cType="1" res="-4.9170013517141342e-04" rms="4.8761850595474243e-01" purity="4.6559897065162659e-01" nType="-99"/>
        </Node>
      </Node>
    </BinaryTree>
    <BinaryTree type="DecisionTree" boostWeight="1.0000000000000000e+00" itree="163">
      <Node pos="s" depth="0" NCoef="0" IVar="4" Cut="5.4047155761718750e+02" cType="1" res="2.2239785175770521e-03" rms="4.8685961961746216e-01" purity="5.1285600662231445e-01" nType="0">
        <Node pos="l" depth="1" NCoef="0" IVar="2" Cut="6.6800592041015625e+02" cType="1" res="-9.0238861739635468e-02" rms="4.7540727257728577e-01" purity="4.2555907368659973e-01" nType="0">
          <Node pos="l" depth="2" NCoef="0" IVar="-1" Cut="0.0000000000000000e+00" cType="1" res="7.2667305357754230e-04" rms="4.8179724812507629e-01" purity="5.7799732685089111e-01" nType="-99"/>
          <Node pos="r" depth="2" NCoef="0" IVar="-1" Cut="0.0000000000000000e+00" cType="1" res="-2.4845988955348730e-03" rms="4.2670288681983948e-01" purity="2.6900351047515869e-01" nType="-99"/>
        </Node>
        <Node pos="r" depth="1" NCoef="0" IVar="2" Cut="1.5123823242187500e+03" cType="1" res="2.4925315752625465e-02" rms="4.8695334792137146e-01" purity="5.3428900241851807e-01" nType="0">
          <Node pos="l" depth="2" NCoef="0" IVar="-1" Cut="0.0000000000000000e+00" cType="1" res="8.3170080324634910e-04" rms="4.8452445864677429e-01" purity="5.6488978862762451e-01" nType="-99"/>
          <Node pos="r" depth="2" NCoef="0" IVar="-1" Cut="0.0000000000000000e+00" cType="1" res="-8.6806295439600945e-04" rms="4.8437988758087158e-01" purity="4.2759788036346436e-01" nType="-99"/>
        </Node>
      </Node>
    </BinaryTree>
    <BinaryTree type="DecisionTree" boostWeight="1.0000000000000000e+00" itree="164">
      <Node pos="s" depth="0" NCoef="0" IVar="0" Cut="4.6533706665039062e+02" cType="1" res="-9.3009648844599724e-03" rms="4.8594135046005249e-01" purity="4.9936771392822266e-01" nType="0">
        <Node pos="l" depth="1" NCoef="0" IVar="4" Cut="6.7780718994140625e+02" cType="1" res="6.4046904444694519e-03" rms="4.8679631948471069e-01" purity="5.1897048950195312e-01" nType="0">
          <Node pos="l" depth="2" NCoef="0" IVar="-1" Cut="0.0000000000000000e+00" cType="1" res="-6.7821337142959237e-04" rms="4.8403495550155640e-01" purity="4.6552285552024841e-01" nType="-99"/>
          <Node pos="r" depth="2" NCoef="0" IVar="-1" Cut="0.0000000000000000e+00" cType="1" res="9.3348108930513263e-04" rms="4.8385280370712280e-01" purity="5.6759625673294067e-01" nType="-99"/>
        </Node>
        <Node pos="r" depth="1" NCoef="0" IVar="-1" Cut="0.0000000000000000e+00" cType="1" res="-2.1122617181390524e-03" rms="4.3673637509346008e-01" purity="2.7284061908721924e-01" nType="-99"/>
      </Node>
    </BinaryTree>
    <BinaryTree type="DecisionTree" boostWeight="1.0000000000000000e+00" itree="165">
      <Node pos="s" depth="0" NCoef="0" IVar="1" Cut="1.3516355895996094e+02" cType="1" res="-5.5162985809147358e-03" rms="4.8491644859313965e-01" purity="5.0254440307617188e-01" nType="0">
        <Node pos="l" depth="1" NCoef="0" IVar="3" Cut="8.9628648757934570e-01" cType="1" res="1.9555611535906792e-02" rms="4.8426720499992371e-01" purity="5.3846621513366699e-01" nType="0">
          <Node pos="l" depth="2" NCoef="0" IVar="-1" Cut="0.0000000000000000e+00" cType="1" res="-4.7860946506261826e-04" rms="4.9020555615425110e-01" purity="4.3783718347549438e-01" nType="-99"/>
          <Node pos="r" depth="2" NCoef="0" IVar="-1" Cut="0.0000000000000000e+00" cType="1" res="1.6146438429132104e-03" rms="4.6986401081085205e-01" purity="6.4808869361877441e-01" nType="-99"/>
        </Node>
        <Node pos="r" depth="1" NCoef="0" IVar="4" Cut="9.5487316894531250e+02" cType="1" res="-1.0276859998703003e-01" rms="4.7506675124168396e-01" purity="3.6320596933364868e-01" nType="0">
          <Node pos="l" depth="2" NCoef="0" IVar="-1" Cut="0.0000000000000000e+00" cType="1" res="-1.6617125365883112e-03" rms="4.6356904506683350e-01" purity="3.2486867904663086e-01" nType="-99"/>
          <Node pos="r" depth="2" NCoef="0" IVar="-1" Cut="0.0000000000000000e+00" cType="1" res="1.3270469207782298e-04" rms="4.8688209056854248e-01" purity="4.6509039402008057e-01" nType="-99"/>
        </Node>
      </Node>
    </BinaryTree>
    <BinaryTree type="DecisionTree" boostWeight="1.0000000000000000e+00" itree="166">
      <Node pos="s" depth="0" NCoef="0" IVar="1" Cut="1.3139305114746094e+02" cType="1" res="-8.4151905030012131e-03" rms="4.8605790734291077e-01" purity="4.9932116270065308e-01" nType="0">
        <Node pos="l" depth="1" NCoef="0" IVar="3" Cut="8.6435925960540771e-01" cType="1" res="2.7018634602427483e-02" rms="4.8621898889541626e-01" purity="5.4704743623733521e-01" nType="0">
          <Node pos="l" depth="2" NCoef="0" IVar="-1" Cut="0.0000000000000000e+00" cType="1" res="-8.2113081589341164e-04" rms="4.8856228590011597e-01" purity="4.0360862016677856e-01" nType="-99"/>
          <Node pos="r" depth="2" NCoef="0" IVar="-1" Cut="0.0000000000000000e+00" cType="1" res="8.7275990517809987e-04" rms="4.8259493708610535e-01" purity="5.8523529767990112e-01" nType="-99"/>
        </Node>
        <Node pos="r" depth="1" NCoef="0" IVar="0" Cut="1.9796952819824219e+02" cType="1" res="-9.5043078064918518e-02" rms="4.7465297579765320e-01" purity="3.8264095783233643e-01" nType="0">
          <Node pos="l" depth="2" NCoef="0" IVar="-1" Cut="0.0000000000000000e+00" cType="1" res="-6.5194116905331612e-04" rms="4.8808947205543518e-01" purity="4.4905281066894531e-01" nType="-99"/>
          <Node pos="r" depth="2" NCoef="0" IVar="-1" Cut="0.0000000000000000e+00" cType="1" res="-1.8087935168296099e-03" rms="4.4849416613578796e-01" purity="2.9447793960571289e-01" nType="-99"/>
        </Node>
      </Node>
    </BinaryTree>
    <BinaryTree type="DecisionTree" boostWeight="1.0000000000000000e+00" itree="167">
      <Node pos="s" depth="0" NCoef="0" IVar="3" Cut="8.8025939464569092e-01" cType="1" res="-8.4640914574265480e-03" rms="4.8592734336853027e-01" purity="5.0054299831390381e-01" nType="0">
        <Node pos="l" depth="1" NCoef="0" IVar="0" Cut="1.9342797851562500e+02" cType="1" res="-6.7526243627071381e-02" rms="4.8111781477928162e-01" purity="3.9352783560752869e-01" nType="0">
          <Node pos="l" depth="2" NCoef="0" IVar="-1" Cut="0.0000000000000000e+00" cType="1" res="-3.5444399691186845e-04" rms="4.9079656600952148e-01" purity="4.4689565896987915e-01" nType="-99"/>
          <Node pos="r" depth="2" NCoef="0" IVar="-1" Cut="0.0000000000000000e+00" cType="1" res="-1.4545718440786004e-03" rms="4.5935487747192383e-01" purity="3.1243872642517090e-01" nType="-99"/>
        </Node>
        <Node pos="r" depth="1" NCoef="0" IVar="4" Cut="7.1418572998046875e+02" cType="1" res="2.7742804959416389e-02" rms="4.8531144857406616e-01" purity="5.6614655256271362e-01" nType="0">
          <Node pos="l" depth="2" NCoef="0" IVar="-1" Cut="0.0000000000000000e+00" cType="1" res="-2.7095247060060501e-04" rms="4.8801428079605103e-01" purity="5.2608627080917358e-01" nType="-99"/>
          <Node pos="r" depth="2" NCoef="0" IVar="-1" Cut="0.0000000000000000e+00" cType="1" res="1.2971902033314109e-03" rms="4.7848084568977356e-01" purity="6.0575181245803833e-01" nType="-99"/>
        </Node>
      </Node>
    </BinaryTree>
    <BinaryTree type="DecisionTree" boostWeight="1.0000000000000000e+00" itree="168">
      <Node pos="s" depth="0" NCoef="0" IVar="0" Cut="7.0626007080078125e+01" cType="1" res="-3.9563770405948162e-03" rms="4.8597571253776550e-01" purity="5.0559103488922119e-01" nType="0">
        <Node pos="l" depth="1" NCoef="0" IVar="-1" Cut="0.0000000000000000e+00" cType="1" res="-1.6887820092961192e-03" rms="4.7774004936218262e-01" purity="3.7887498736381531e-01" nType="-99"/>
        <Node pos="r" depth="1" NCoef="0" IVar="0" Cut="2.4446104431152344e+02" cType="1" res="1.1771654710173607e-02" rms="4.8461914062500000e-01" purity="5.2099901437759399e-01" nType="0">
          <Node pos="l" depth="2" NCoef="0" IVar="-1" Cut="0.0000000000000000e+00" cType="1" res="8.0384133616462350e-04" rms="4.8189035058021545e-01" purity="5.7335364818572998e-01" nType="-99"/>
          <Node pos="r" depth="2" NCoef="0" IVar="-1" Cut="0.0000000000000000e+00" cType="1" res="-9.8912371322512627e-04" rms="4.7963541746139526e-01" purity="3.9783728122711182e-01" nType="-99"/>
        </Node>
      </Node>
    </BinaryTree>
    <BinaryTree type="DecisionTree" boostWeight="1.0000000000000000e+00" itree="169">
      <Node pos="s" depth="0" NCoef="0" IVar="1" Cut="9.9764961242675781e+01" cType="1" res="2.6486541610211134e-03" rms="4.8617246747016907e-01" purity="5.1213181018829346e-01" nType="0">
        <Node pos="l" depth="1" NCoef="0" IVar="-1" Cut="0.0000000000000000e+00" cType="1" res="-2.0100427791476250e-03" rms="4.4666367769241333e-01" purity="2.8775784373283386e-01" nType="-99"/>
        <Node pos="r" depth="1" NCoef="0" IVar="1" Cut="1.3118486022949219e+02" cType="1" res="1.6849564388394356e-02" rms="4.8661023378372192e-01" purity="5.3074884414672852e-01" nType="0">
          <Node pos="l" depth="2" NCoef="0" IVar="-1" Cut="0.0000000000000000e+00" cType="1" res="7.6971994712948799e-04" rms="4.8498117923736572e-01" purity="5.7620686292648315e-01" nType="-99"/>
          <Node pos="r" depth="2" NCoef="0" IVar="-1" Cut="0.0000000000000000e+00" cType="1" res="-7.7342806616798043e-04" rms="4.8249626159667969e-01" purity="4.2093330621719360e-01" nType="-99"/>
        </Node>
      </Node>
    </BinaryTree>
    <BinaryTree type="DecisionTree" boostWeight="1.0000000000000000e+00" itree="170">
      <Node pos="s" depth="0" NCoef="0" IVar="1" Cut="1.4190861511230469e+02" cType="1" res="-1.9647145643830299e-02" rms="4.8406961560249329e-01" purity="4.8719769716262817e-01" nType="0">
        <Node pos="l" depth="1" NCoef="0" IVar="1" Cut="1.0009194183349609e+02" cType="1" res="-6.8046466913074255e-04" rms="4.8672598600387573e-01" purity="5.1720148324966431e-01" nType="0">
          <Node pos="l" depth="2" NCoef="0" IVar="-1" Cut="0.0000000000000000e+00" cType="1" res="-1.7472982872277498e-03" rms="4.4761538505554199e-01" purity="2.9095676541328430e-01" nType="-99"/>
          <Node pos="r" depth="2" NCoef="0" IVar="-1" Cut="0.0000000000000000e+00" cType="1" res="2.3921857064124197e-04" rms="4.8769956827163696e-01" purity="5.4033488035202026e-01" nType="-99"/>
        </Node>
        <Node pos="r" depth="1" NCoef="0" IVar="-1" Cut="0.0000000000000000e+00" cType="1" res="-1.6178622609004378e-03" rms="4.4772478938102722e-01" purity="2.9388538002967834e-01" nType="-99"/>
      </Node>
    </BinaryTree>
    <BinaryTree type="DecisionTree" boostWeight="1.0000000000000000e+00" itree="171">
      <Node pos="s" depth="0" NCoef="0" IVar="0" Cut="2.0200447082519531e+02" cType="1" res="4.1535841301083565e-03" rms="4.8688888549804688e-01" purity="5.1601582765579224e-01" nType="0">
        <Node pos="l" depth="1" NCoef="0" IVar="0" Cut="8.8519165039062500e+01" cType="1" res="3.7833567708730698e-02" rms="4.8550212383270264e-01" purity="5.6643122434616089e-01" nType="0">
          <Node pos="l" depth="2" NCoef="0" IVar="-1" Cut="0.0000000000000000e+00" cType="1" res="-9.7864062990993261e-04" rms="4.8607298731803894e-01" purity="4.3822038173675537e-01" nType="-99"/>
          <Node pos="r" depth="2" NCoef="0" IVar="-1" Cut="0.0000000000000000e+00" cType="1" res="1.3977277558296919e-03" rms="4.7869646549224854e-01" purity="6.1422759294509888e-01" nType="-99"/>
        </Node>
        <Node pos="r" depth="1" NCoef="0" IVar="5" Cut="3.1873279809951782e-01" cType="1" res="-5.9348106384277344e-02" rms="4.8314803838729858e-01" purity="4.2096063494682312e-01" nType="0">
          <Node pos="l" depth="2" NCoef="0" IVar="-1" Cut="0.0000000000000000e+00" cType="1" res="-1.6386361094191670e-03" rms="4.6822625398635864e-01" purity="3.4415131807327271e-01" nType="-99"/>
          <Node pos="r" depth="2" NCoef="0" IVar="-1" Cut="0.0000000000000000e+00" cType="1" res="-2.3852405138313770e-04" rms="4.8609077930450439e-01" purity="4.6339619159698486e-01" nType="-99"/>
        </Node>
      </Node>
    </BinaryTree>
    <BinaryTree type="DecisionTree" boostWeight="1.0000000000000000e+00" itree="172">
      <Node pos="s" depth="0" NCoef="0" IVar="0" Cut="5.8268596649169922e+01" cType="1" res="-1.3141546398401260e-02" rms="4.8527035117149353e-01" purity="4.9629780650138855e-01" nType="0">
        <Node pos="l" depth="1" NCoef="0" IVar="-1" Cut="0.0000000000000000e+00" cType="1" res="-2.2320891730487347e-03" rms="4.5058330893516541e-01" purity="3.0606928467750549e-01" nType="-99"/>
        <Node pos="r" depth="1" NCoef="0" IVar="3" Cut="9.0239697694778442e-01" cType="1" res="-1.6916256572585553e-04" rms="4.8516067862510681e-01" purity="5.1017671823501587e-01" nType="0">
          <Node pos="l" depth="2" NCoef="0" IVar="-1" Cut="0.0000000000000000e+00" cType="1" res="-5.7831773301586509e-04" rms="4.8724779486656189e-01" purity="4.2730060219764709e-01" nType="-99"/>
          <Node pos="r" depth="2" NCoef="0" IVar="-1" Cut="0.0000000000000000e+00" cType="1" res="1.1090982006862760e-03" rms="4.7581908106803894e-01" purity="6.2033611536026001e-01" nType="-99"/>
        </Node>
      </Node>
    </BinaryTree>
    <BinaryTree type="DecisionTree" boostWeight="1.0000000000000000e+00" itree="173">
      <Node pos="s" depth="0" NCoef="0" IVar="3" Cut="9.3120652437210083e-01" cType="1" res="-1.2356151826679707e-02" rms="4.8532542586326599e-01" purity="4.9614229798316956e-01" nType="0">
        <Node pos="l" depth="1" NCoef="0" IVar="4" Cut="6.7395288085937500e+02" cType="1" res="-4.1523717343807220e-02" rms="4.8797091841697693e-01" purity="4.4634604454040527e-01" nType="0">
          <Node pos="l" depth="2" NCoef="0" IVar="-1" Cut="0.0000000000000000e+00" cType="1" res="-1.0993788018822670e-03" rms="4.8099112510681152e-01" purity="4.0207844972610474e-01" nType="-99"/>
          <Node pos="r" depth="2" NCoef="0" IVar="-1" Cut="0.0000000000000000e+00" cType="1" res="-5.4159867431735620e-05" rms="4.9036329984664917e-01" purity="4.8239436745643616e-01" nType="-99"/>
        </Node>
        <Node pos="r" depth="1" NCoef="0" IVar="3" Cut="9.5827329158782959e-01" cType="1" res="8.9716061949729919e-02" rms="4.6166440844535828e-01" purity="6.7040491104125977e-01" nType="0">
          <Node pos="l" depth="2" NCoef="0" IVar="-1" Cut="0.0000000000000000e+00" cType="1" res="9.0175616787746549e-04" rms="4.7745698690414429e-01" purity="6.2110751867294312e-01" nType="-99"/>
          <Node pos="r" depth="2" NCoef="0" IVar="-1" Cut="0.0000000000000000e+00" cType="1" res="3.5944036208093166e-03" rms="4.3427038192749023e-01" purity="7.3478490114212036e-01" nType="-99"/>
        </Node>
      </Node>
    </BinaryTree>
    <BinaryTree type="DecisionTree" boostWeight="1.0000000000000000e+00" itree="174">
      <Node pos="s" depth="0" NCoef="0" IVar="3" Cut="8.8040471076965332e-01" cType="1" res="-2.1228913217782974e-02" rms="4.8643219470977783e-01" purity="4.8823550343513489e-01" nType="0">
        <Node pos="l" depth="1" NCoef="0" IVar="4" Cut="8.4305505371093750e+02" cType="1" res="-7.8942693769931793e-02" rms="4.8081806302070618e-01" purity="3.8439410924911499e-01" nType="0">
          <Node pos="l" depth="2" NCoef="0" IVar="-1" Cut="0.0000000000000000e+00" cType="1" res="-1.3539652572944760e-03" rms="4.7117871046066284e-01" purity="3.5002991557121277e-01" nType="-99"/>
          <Node pos="r" depth="2" NCoef="0" IVar="-1" Cut="0.0000000000000000e+00" cType="1" res="-2.0213405150570907e-05" rms="4.9216055870056152e-01" purity="4.5856794714927673e-01" nType="-99"/>
        </Node>
        <Node pos="r" depth="1" NCoef="0" IVar="0" Cut="8.8277816772460938e+01" cType="1" res="1.5754595398902893e-02" rms="4.8640912771224976e-01" purity="5.5477803945541382e-01" nType="0">
          <Node pos="l" depth="2" NCoef="0" IVar="-1" Cut="0.0000000000000000e+00" cType="1" res="-1.0286491597071290e-03" rms="4.9419122934341431e-01" purity="4.7110381722450256e-01" nType="-99"/>
          <Node pos="r" depth="2" NCoef="0" IVar="-1" Cut="0.0000000000000000e+00" cType="1" res="5.6603108532726765e-04" rms="4.8271501064300537e-01" purity="5.7297879457473755e-01" nType="-99"/>
        </Node>
      </Node>
    </BinaryTree>
    <BinaryTree type="DecisionTree" boostWeight="1.0000000000000000e+00" itree="175">
      <Node pos="s" depth="0" NCoef="0" IVar="1" Cut="9.9469924926757812e+01" cType="1" res="-2.4061284959316254e-02" rms="4.8706120252609253e-01" purity="4.8507231473922729e-01" nType="0">
        <Node pos="l" depth="1" NCoef="0" IVar="-1" Cut="0.0000000000000000e+00" cType="1" res="-1.9942941144108772e-03" rms="4.4319665431976318e-01" purity="2.7431443333625793e-01" nType="-99"/>
        <Node pos="r" depth="1" NCoef="0" IVar="3" Cut="9.3151849508285522e-01" cType="1" res="-1.1994712986052036e-02" rms="4.8821455240249634e-01" purity="5.0136321783065796e-01" nType="0">
          <Node pos="l" depth="2" NCoef="0" IVar="-1" Cut="0.0000000000000000e+00" cType="1" res="-4.7103202086873353e-04" rms="4.9114561080932617e-01" purity="4.5884671807289124e-01" nType="-99"/>
          <Node pos="r" depth="2" NCoef="0" IVar="-1" Cut="0.0000000000000000e+00" cType="1" res="1.3917889446020126e-03" rms="4.6868458390235901e-01" purity="6.5180152654647827e-01" nType="-99"/>
        </Node>
      </Node>
    </BinaryTree>
    <BinaryTree type="DecisionTree" boostWeight="1.0000000000000000e+00" itree="176">
      <Node pos="s" depth="0" NCoef="0" IVar="1" Cut="1.4588926696777344e+02" cType="1" res="-4.1916971094906330e-03" rms="4.8688036203384399e-01" purity="5.0594151020050049e-01" nType="0">
        <Node pos="l" depth="1" NCoef="0" IVar="0" Cut="1.9661669921875000e+02" cType="1" res="1.0965757071971893e-02" rms="4.8868501186370850e-01" purity="5.2948027849197388e-01" nType="0">
          <Node pos="l" depth="2" NCoef="0" IVar="-1" Cut="0.0000000000000000e+00" cType="1" res="6.9716054713353515e-04" rms="4.8618450760841370e-01" purity="5.7559323310852051e-01" nType="-99"/>
          <Node pos="r" depth="2" NCoef="0" IVar="-1" Cut="0.0000000000000000e+00" cType="1" res="-6.8278086837381124e-04" rms="4.8767143487930298e-01" purity="4.4030734896659851e-01" nType="-99"/>
        </Node>
        <Node pos="r" depth="1" NCoef="0" IVar="-1" Cut="0.0000000000000000e+00" cType="1" res="-1.6911382554098964e-03" rms="4.4284221529960632e-01" purity="2.7754092216491699e-01" nType="-99"/>
      </Node>
    </BinaryTree>
    <BinaryTree type="DecisionTree" boostWeight="1.0000000000000000e+00" itree="177">
      <Node pos="s" depth="0" NCoef="0" IVar="3" Cut="8.9634925127029419e-01" cType="1" res="-2.0305331796407700e-02" rms="4.8531621694564819e-01" purity="4.8801335692405701e-01" nType="0">
        <Node pos="l" depth="1" NCoef="0" IVar="4" Cut="5.6322668457031250e+02" cType="1" res="-7.4670322239398956e-02" rms="4.8310416936874390e-01" purity="3.9309042692184448e-01" nType="0">
          <Node pos="l" depth="2" NCoef="0" IVar="-1" Cut="0.0000000000000000e+00" cType="1" res="-1.9138503121212125e-03" rms="4.4503119587898254e-01" purity="2.8577721118927002e-01" nType="-99"/>
          <Node pos="r" depth="2" NCoef="0" IVar="-1" Cut="0.0000000000000000e+00" cType="1" res="-4.8219459131360054e-04" rms="4.9038299918174744e-01" purity="4.3050238490104675e-01" nType="-99"/>
        </Node>
        <Node pos="r" depth="1" NCoef="0" IVar="1" Cut="1.2963053894042969e+02" cType="1" res="4.4947989284992218e-02" rms="4.7989326715469360e-01" purity="6.0194766521453857e-01" nType="0">
          <Node pos="l" depth="2" NCoef="0" IVar="-1" Cut="0.0000000000000000e+00" cType="1" res="1.6151088057085872e-03" rms="4.7106933593750000e-01" purity="6.5179461240768433e-01" nType="-99"/>
          <Node pos="r" depth="2" NCoef="0" IVar="-1" Cut="0.0000000000000000e+00" cType="1" res="-5.2409287309274077e-04" rms="4.8956328630447388e-01" purity="4.9104234576225281e-01" nType="-99"/>
        </Node>
      </Node>
    </BinaryTree>
    <BinaryTree type="DecisionTree" boostWeight="1.0000000000000000e+00" itree="178">
      <Node pos="s" depth="0" NCoef="0" IVar="0" Cut="1.9088568115234375e+02" cType="1" res="-6.3582707662135363e-04" rms="4.8562097549438477e-01" purity="5.0909042358398438e-01" nType="0">
        <Node pos="l" depth="1" NCoef="0" IVar="0" Cut="9.1031387329101562e+01" cType="1" res="3.2516602426767349e-02" rms="4.8504993319511414e-01" purity="5.5898934602737427e-01" nType="0">
          <Node pos="l" depth="2" NCoef="0" IVar="-1" Cut="0.0000000000000000e+00" cType="1" res="-1.0407782392576337e-03" rms="4.8609322309494019e-01" purity="4.3116357922554016e-01" nType="-99"/>
          <Node pos="r" depth="2" NCoef="0" IVar="-1" Cut="0.0000000000000000e+00" cType="1" res="1.3632212067022920e-03" rms="4.7706657648086548e-01" purity="6.1202681064605713e-01" nType="-99"/>
        </Node>
        <Node pos="r" depth="1" NCoef="0" IVar="3" Cut="9.3955832719802856e-01" cType="1" res="-5.7566087692975998e-02" rms="4.8130151629447937e-01" purity="4.2340254783630371e-01" nType="0">
          <Node pos="l" depth="2" NCoef="0" IVar="-1" Cut="0.0000000000000000e+00" cType="1" res="-1.0288823395967484e-03" rms="4.7808396816253662e-01" purity="3.8401558995246887e-01" nType="-99"/>
          <Node pos="r" depth="2" NCoef="0" IVar="-1" Cut="0.0000000000000000e+00" cType="1" res="1.7556156963109970e-03" rms="4.7359201312065125e-01" purity="6.4139884710311890e-01" nType="-99"/>
        </Node>
      </Node>
    </BinaryTree>
    <BinaryTree type="DecisionTree" boostWeight="1.0000000000000000e+00" itree="179">
      <Node pos="s" depth="0" NCoef="0" IVar="1" Cut="1.4556765747070312e+02" cType="1" res="-1.1586979031562805e-02" rms="4.8731884360313416e-01" purity="4.9940520524978638e-01" nType="0">
        <Node pos="l" depth="1" NCoef="0" IVar="2" Cut="7.2529016113281250e+02" cType="1" res="1.6126267146319151e-03" rms="4.8883450031280518e-01" purity="5.2040970325469971e-01" nType="0">
          <Node pos="l" depth="2" NCoef="0" IVar="-1" Cut="0.0000000000000000e+00" cType="1" res="1.5580658800899982e-03" rms="4.7988632321357727e-01" purity="6.2700051069259644e-01" nType="-99"/>
          <Node pos="r" depth="2" NCoef="0" IVar="-1" Cut="0.0000000000000000e+00" cType="1" res="-2.2661180992145091e-04" rms="4.8890459537506104e-01" purity="4.9839508533477783e-01" nType="-99"/>
        </Node>
        <Node pos="r" depth="1" NCoef="0" IVar="-1" Cut="0.0000000000000000e+00" cType="1" res="-1.6659155953675508e-03" rms="4.5108813047409058e-01" purity="2.8920221328735352e-01" nType="-99"/>
      </Node>
    </BinaryTree>
    <BinaryTree type="DecisionTree" boostWeight="1.0000000000000000e+00" itree="180">
      <Node pos="s" depth="0" NCoef="0" IVar="1" Cut="1.4708995056152344e+02" cType="1" res="-1.1409971863031387e-02" rms="4.8604431748390198e-01" purity="4.9799549579620361e-01" nType="0">
        <Node pos="l" depth="1" NCoef="0" IVar="3" Cut="8.8352143764495850e-01" cType="1" res="5.7235546410083771e-04" rms="4.8727259039878845e-01" purity="5.1684314012527466e-01" nType="0">
          <Node pos="l" depth="2" NCoef="0" IVar="-1" Cut="0.0000000000000000e+00" cType="1" res="-6.4723845571279526e-04" rms="4.8632970452308655e-01" purity="4.1543048620223999e-01" nType="-99"/>
          <Node pos="r" depth="2" NCoef="0" IVar="-1" Cut="0.0000000000000000e+00" cType="1" res="6.4737966749817133e-04" rms="4.8455330729484558e-01" purity="5.8866435289382935e-01" nType="-99"/>
        </Node>
        <Node pos="r" depth="1" NCoef="0" IVar="-1" Cut="0.0000000000000000e+00" cType="1" res="-1.6920486232265830e-03" rms="4.5012685656547546e-01" purity="2.8435918688774109e-01" nType="-99"/>
      </Node>
    </BinaryTree>
    <BinaryTree type="DecisionTree" boostWeight="1.0000000000000000e+00" itree="181">
      <Node pos="s" depth="0" NCoef="0" IVar="1" Cut="1.0405700683593750e+02" cType="1" res="-1.6363391187041998e-03" rms="4.8578956723213196e-01" purity="5.0783777236938477e-01" nType="0">
        <Node pos="l" depth="1" NCoef="0" IVar="-1" Cut="0.0000000000000000e+00" cType="1" res="-1.4122296124696732e-03" rms="4.6677064895629883e-01" purity="3.5151299834251404e-01" nType="-99"/>
        <Node pos="r" depth="1" NCoef="0" IVar="1" Cut="1.4524215698242188e+02" cType="1" res="1.1348329484462738e-02" rms="4.8621666431427002e-01" purity="5.2564591169357300e-01" nType="0">
          <Node pos="l" depth="2" NCoef="0" IVar="-1" Cut="0.0000000000000000e+00" cType="1" res="4.0873026591725647e-04" rms="4.8712795972824097e-01" purity="5.5041497945785522e-01" nType="-99"/>
          <Node pos="r" depth="2" NCoef="0" IVar="-1" Cut="0.0000000000000000e+00" cType="1" res="-1.4202925376594067e-03" rms="4.5686110854148865e-01" purity="3.0661121010780334e-01" nType="-99"/>
        </Node>
      </Node>
    </BinaryTree>
    <BinaryTree type="DecisionTree" boostWeight="1.0000000000000000e+00" itree="182">
      <Node pos="s" depth="0" NCoef="0" IVar="4" Cut="4.8715771484375000e+02" cType="1" res="-1.3488410040736198e-03" rms="4.8510169982910156e-01" purity="5.0850737094879150e-01" nType="0">
        <Node pos="l" depth="1" NCoef="0" IVar="-1" Cut="0.0000000000000000e+00" cType="1" res="-1.7942243721336126e-03" rms="4.6735763549804688e-01" purity="3.6619707942008972e-01" nType="-99"/>
        <Node pos="r" depth="1" NCoef="0" IVar="1" Cut="1.4405865478515625e+02" cType="1" res="1.7613952979445457e-02" rms="4.8406967520713806e-01" purity="5.2674281597137451e-01" nType="0">
          <Node pos="l" depth="2" NCoef="0" IVar="-1" Cut="0.0000000000000000e+00" cType="1" res="5.7525926968082786e-04" rms="4.8453241586685181e-01" purity="5.5495357513427734e-01" nType="-99"/>
          <Node pos="r" depth="2" NCoef="0" IVar="-1" Cut="0.0000000000000000e+00" cType="1" res="-1.5275577316060662e-03" rms="4.5301806926727295e-01" purity="2.9868414998054504e-01" nType="-99"/>
        </Node>
      </Node>
    </BinaryTree>
    <BinaryTree type="DecisionTree" boostWeight="1.0000000000000000e+00" itree="183">
      <Node pos="s" depth="0" NCoef="0" IVar="4" Cut="5.3330407714843750e+02" cType="1" res="-7.9978350549936295e-03" rms="4.8565074801445007e-01" purity="5.0193721055984497e-01" nType="0">
        <Node pos="l" depth="1" NCoef="0" IVar="2" Cut="6.4115197753906250e+02" cType="1" res="-1.3501161336898804e-01" rms="4.6622943878173828e-01" purity="3.7982872128486633e-01" nType="0">
          <Node pos="l" depth="2" NCoef="0" IVar="-1" Cut="0.0000000000000000e+00" cType="1" res="6.1015837127342820e-04" rms="4.8315915465354919e-01" purity="5.7134681940078735e-01" nType="-99"/>
          <Node pos="r" depth="2" NCoef="0" IVar="-1" Cut="0.0000000000000000e+00" cType="1" res="-2.7475827373564243e-03" rms="4.0878275036811829e-01" purity="2.3671525716781616e-01" nType="-99"/>
        </Node>
        <Node pos="r" depth="1" NCoef="0" IVar="1" Cut="1.4416984558105469e+02" cType="1" res="2.2155610844492912e-02" rms="4.8528993129730225e-01" purity="5.3092616796493530e-01" nType="0">
          <Node pos="l" depth="2" NCoef="0" IVar="-1" Cut="0.0000000000000000e+00" cType="1" res="6.7135610152035952e-04" rms="4.8574882745742798e-01" purity="5.6084930896759033e-01" nType="-99"/>
          <Node pos="r" depth="2" NCoef="0" IVar="-1" Cut="0.0000000000000000e+00" cType="1" res="-1.4831930166110396e-03" rms="4.5254448056221008e-01" purity="2.9771837592124939e-01" nType="-99"/>
        </Node>
      </Node>
    </BinaryTree>
    <BinaryTree type="DecisionTree" boostWeight="1.0000000000000000e+00" itree="184">
      <Node pos="s" depth="0" NCoef="0" IVar="4" Cut="7.0792687988281250e+02" cType="1" res="-1.7286436632275581e-02" rms="4.8512348532676697e-01" purity="4.9132809042930603e-01" nType="0">
        <Node pos="l" depth="1" NCoef="0" IVar="2" Cut="7.4572619628906250e+02" cType="1" res="-6.3028700649738312e-02" rms="4.8079100251197815e-01" purity="4.4685265421867371e-01" nType="0">
          <Node pos="l" depth="2" NCoef="0" IVar="-1" Cut="0.0000000000000000e+00" cType="1" res="3.7547081592492759e-04" rms="4.8591116070747375e-01" purity="5.5267167091369629e-01" nType="-99"/>
          <Node pos="r" depth="2" NCoef="0" IVar="-1" Cut="0.0000000000000000e+00" cType="1" res="-1.4587298501282930e-03" rms="4.6889910101890564e-01" purity="3.7821280956268311e-01" nType="-99"/>
        </Node>
        <Node pos="r" depth="1" NCoef="0" IVar="2" Cut="1.2375800781250000e+03" cType="1" res="2.6693137362599373e-02" rms="4.8520347476005554e-01" purity="5.3408962488174438e-01" nType="0">
          <Node pos="l" depth="2" NCoef="0" IVar="-1" Cut="0.0000000000000000e+00" cType="1" res="2.1298141218721867e-03" rms="4.7236129641532898e-01" purity="6.3577073812484741e-01" nType="-99"/>
          <Node pos="r" depth="2" NCoef="0" IVar="-1" Cut="0.0000000000000000e+00" cType="1" res="-4.6621338697150350e-04" rms="4.8475870490074158e-01" purity="4.6303129196166992e-01" nType="-99"/>
        </Node>
      </Node>
    </BinaryTree>
    <BinaryTree type="DecisionTree" boostWeight="1.0000000000000000e+00" itree="185">
      <Node pos="s" depth="0" NCoef="0" IVar="0" Cut="6.6812438964843750e+01" cType="1" res="-4.7728531062602997e-03" rms="4.8448619246482849e-01" purity="5.0443667173385620e-01" nType="0">
        <Node pos="l" depth="1" NCoef="0" IVar="-1" Cut="0.0000000000000000e+00" cType="1" res="-1.9685050938278437e-03" rms="4.6171122789382935e-01" purity="3.3087503910064697e-01" nType="-99"/>
        <Node pos="r" depth="1" NCoef="0" IVar="0" Cut="1.9356903076171875e+02" cType="1" res="1.3521251268684864e-02" rms="4.8361366987228394e-01" purity="5.2410954236984253e-01" nType="0">
          <Node pos="l" depth="2" NCoef="0" IVar="-1" Cut="0.0000000000000000e+00" cType="1" res="8.9164322707802057e-04" rms="4.8067346215248108e-01" purity="5.8649277687072754e-01" nType="-99"/>
          <Node pos="r" depth="2" NCoef="0" IVar="-1" Cut="0.0000000000000000e+00" cType="1" res="-6.4293760806322098e-04" rms="4.8143920302391052e-01" purity="4.3155252933502197e-01" nType="-99"/>
        </Node>
      </Node>
    </BinaryTree>
    <BinaryTree type="DecisionTree" boostWeight="1.0000000000000000e+00" itree="186">
      <Node pos="s" depth="0" NCoef="0" IVar="1" Cut="1.3892347717285156e+02" cType="1" res="-2.3767927661538124e-02" rms="4.8471623659133911e-01" purity="4.8744618892669678e-01" nType="0">
        <Node pos="l" depth="1" NCoef="0" IVar="1" Cut="1.0795626068115234e+02" cType="1" res="-8.8839547242969275e-04" rms="4.8786175251007080e-01" purity="5.2304905652999878e-01" nType="0">
          <Node pos="l" depth="2" NCoef="0" IVar="-1" Cut="0.0000000000000000e+00" cType="1" res="-1.4251531101763248e-03" rms="4.7071364521980286e-01" purity="3.6728039383888245e-01" nType="-99"/>
          <Node pos="r" depth="2" NCoef="0" IVar="-1" Cut="0.0000000000000000e+00" cType="1" res="2.9955650097690523e-04" rms="4.8819842934608459e-01" purity="5.5139869451522827e-01" nType="-99"/>
        </Node>
        <Node pos="r" depth="1" NCoef="0" IVar="3" Cut="8.9551496505737305e-01" cType="1" res="-1.4330150187015533e-01" rms="4.4938141107559204e-01" purity="3.0143991112709045e-01" nType="0">
          <Node pos="l" depth="2" NCoef="0" IVar="-1" Cut="0.0000000000000000e+00" cType="1" res="-1.8702191300690174e-03" rms="4.1742518544197083e-01" purity="2.3143513500690460e-01" nType="-99"/>
          <Node pos="r" depth="2" NCoef="0" IVar="-1" Cut="0.0000000000000000e+00" cType="1" res="-1.2084329500794411e-03" rms="4.8310565948486328e-01" purity="3.9234957098960876e-01" nType="-99"/>
        </Node>
      </Node>
    </BinaryTree>
    <BinaryTree type="DecisionTree" boostWeight="1.0000000000000000e+00" itree="187">
      <Node pos="s" depth="0" NCoef="0" IVar="1" Cut="1.4023283386230469e+02" cType="1" res="-1.3019638136029243e-02" rms="4.8325332999229431e-01" purity="4.9614465236663818e-01" nType="0">
        <Node pos="l" depth="1" NCoef="0" IVar="1" Cut="9.9495994567871094e+01" cType="1" res="8.4506543353199959e-03" rms="4.8510929942131042e-01" purity="5.2902930974960327e-01" nType="0">
          <Node pos="l" depth="2" NCoef="0" IVar="-1" Cut="0.0000000000000000e+00" cType="1" res="-1.7596349352970719e-03" rms="4.5047670602798462e-01" purity="2.9252079129219055e-01" nType="-99"/>
          <Node pos="r" depth="2" NCoef="0" IVar="-1" Cut="0.0000000000000000e+00" cType="1" res="3.8184289587661624e-04" rms="4.8529401421546936e-01" purity="5.5172431468963623e-01" nType="-99"/>
        </Node>
        <Node pos="r" depth="1" NCoef="0" IVar="5" Cut="4.7926747798919678e-01" cType="1" res="-1.4252281188964844e-01" rms="4.5071235299110413e-01" purity="2.9779291152954102e-01" nType="0">
          <Node pos="l" depth="2" NCoef="0" IVar="-1" Cut="0.0000000000000000e+00" cType="1" res="-1.5010127099230886e-03" rms="4.6419849991798401e-01" purity="3.2592973113059998e-01" nType="-99"/>
          <Node pos="r" depth="2" NCoef="0" IVar="-1" Cut="0.0000000000000000e+00" cType="1" res="-1.7105446895584464e-03" rms="4.3814361095428467e-01" purity="2.7424293756484985e-01" nType="-99"/>
        </Node>
      </Node>
    </BinaryTree>
    <BinaryTree type="DecisionTree" boostWeight="1.0000000000000000e+00" itree="188">
      <Node pos="s" depth="0" NCoef="0" IVar="0" Cut="6.7124916076660156e+01" cType="1" res="-1.6897771507501602e-02" rms="4.8626837134361267e-01" purity="4.9295637011528015e-01" nType="0">
        <Node pos="l" depth="1" NCoef="0" IVar="-1" Cut="0.0000000000000000e+00" cType="1" res="-1.9239305984228849e-03" rms="4.5987385511398315e-01" purity="3.3473190665245056e-01" nType="-99"/>
        <Node pos="r" depth="1" NCoef="0" IVar="0" Cut="1.9386293029785156e+02" cType="1" res="-1.7709488747641444e-03" rms="4.8659345507621765e-01" purity="5.0992685556411743e-01" nType="0">
          <Node pos="l" depth="2" NCoef="0" IVar="-1" Cut="0.0000000000000000e+00" cType="1" res="5.0908367848023772e-04" rms="4.8598563671112061e-01" purity="5.6341290473937988e-01" nType="-99"/>
          <Node pos="r" depth="2" NCoef="0" IVar="-1" Cut="0.0000000000000000e+00" cType="1" res="-7.3812634218484163e-04" rms="4.8280951380729675e-01" purity="4.2595547437667847e-01" nType="-99"/>
        </Node>
      </Node>
    </BinaryTree>
    <BinaryTree type="DecisionTree" boostWeight="1.0000000000000000e+00" itree="189">
      <Node pos="s" depth="0" NCoef="0" IVar="1" Cut="1.0333511352539062e+02" cType="1" res="-2.2150479257106781e-02" rms="4.8594152927398682e-01" purity="4.8754170536994934e-01" nType="0">
        <Node pos="l" depth="1" NCoef="0" IVar="-1" Cut="0.0000000000000000e+00" cType="1" res="-1.8567426595836878e-03" rms="4.5538756251335144e-01" purity="3.0099579691886902e-01" nType="-99"/>
        <Node pos="r" depth="1" NCoef="0" IVar="1" Cut="1.3479302978515625e+02" cType="1" res="-5.5275284685194492e-03" rms="4.8663651943206787e-01" purity="5.0917357206344604e-01" nType="0">
          <Node pos="l" depth="2" NCoef="0" IVar="-1" Cut="0.0000000000000000e+00" cType="1" res="3.0699119088239968e-04" rms="4.8714295029640198e-01" purity="5.4976409673690796e-01" nType="-99"/>
          <Node pos="r" depth="2" NCoef="0" IVar="-1" Cut="0.0000000000000000e+00" cType="1" res="-1.1694493005052209e-03" rms="4.7465252876281738e-01" purity="3.6868607997894287e-01" nType="-99"/>
        </Node>
      </Node>
    </BinaryTree>
    <BinaryTree type="DecisionTree" boostWeight="1.0000000000000000e+00" itree="190">
      <Node pos="s" depth="0" NCoef="0" IVar="0" Cut="6.6542304992675781e+01" cType="1" res="-8.9302929118275642e-03" rms="4.8729610443115234e-01" purity="5.0300753116607666e-01" nType="0">
        <Node pos="l" depth="1" NCoef="0" IVar="-1" Cut="0.0000000000000000e+00" cType="1" res="-1.8130834214389324e-03" rms="4.7267657518386841e-01" purity="3.5369569063186646e-01" nType="-99"/>
        <Node pos="r" depth="1" NCoef="0" IVar="2" Cut="1.3304388427734375e+03" cType="1" res="4.8105986788868904e-03" rms="4.8654413223266602e-01" purity="5.1767486333847046e-01" nType="0">
          <Node pos="l" depth="2" NCoef="0" IVar="-1" Cut="0.0000000000000000e+00" cType="1" res="4.7130917664617300e-04" rms="4.8462674021720886e-01" purity="5.4928374290466309e-01" nType="-99"/>
          <Node pos="r" depth="2" NCoef="0" IVar="-1" Cut="0.0000000000000000e+00" cType="1" res="-8.2905241288244724e-04" rms="4.8530784249305725e-01" purity="4.3411540985107422e-01" nType="-99"/>
        </Node>
      </Node>
    </BinaryTree>
    <BinaryTree type="DecisionTree" boostWeight="1.0000000000000000e+00" itree="191">
      <Node pos="s" depth="0" NCoef="0" IVar="3" Cut="8.7397348880767822e-01" cType="1" res="-3.4288691822439432e-03" rms="4.8546922206878662e-01" purity="5.0718218088150024e-01" nType="0">
        <Node pos="l" depth="1" NCoef="0" IVar="5" Cut="4.7813469171524048e-01" cType="1" res="-7.3655888438224792e-02" rms="4.7959730029106140e-01" purity="3.8512855768203735e-01" nType="0">
          <Node pos="l" depth="2" NCoef="0" IVar="-1" Cut="0.0000000000000000e+00" cType="1" res="-1.3946471735835075e-03" rms="4.6794715523719788e-01" purity="3.3971205353736877e-01" nType="-99"/>
          <Node pos="r" depth="2" NCoef="0" IVar="-1" Cut="0.0000000000000000e+00" cType="1" res="-6.3392362790182233e-05" rms="4.8884153366088867e-01" purity="4.5429766178131104e-01" nType="-99"/>
        </Node>
        <Node pos="r" depth="1" NCoef="0" IVar="0" Cut="6.6482437133789062e+01" cType="1" res="2.9156766831874847e-02" rms="4.8472627997398376e-01" purity="5.6381559371948242e-01" nType="0">
          <Node pos="l" depth="2" NCoef="0" IVar="-1" Cut="0.0000000000000000e+00" cType="1" res="-2.1332113537937403e-03" rms="4.6711564064025879e-01" purity="3.4268057346343994e-01" nType="-99"/>
          <Node pos="r" depth="2" NCoef="0" IVar="-1" Cut="0.0000000000000000e+00" cType="1" res="8.7630259804427624e-04" rms="4.8145020008087158e-01" purity="5.8722883462905884e-01" nType="-99"/>
        </Node>
      </Node>
    </BinaryTree>
    <BinaryTree type="DecisionTree" boostWeight="1.0000000000000000e+00" itree="192">
      <Node pos="s" depth="0" NCoef="0" IVar="4" Cut="6.7395288085937500e+02" cType="1" res="-1.4876278117299080e-02" rms="4.8541966080665588e-01" purity="4.9530324339866638e-01" nType="0">
        <Node pos="l" depth="1" NCoef="0" IVar="2" Cut="8.3624426269531250e+02" cType="1" res="-7.0618130266666412e-02" rms="4.8349076509475708e-01" purity="4.4481226801872253e-01" nType="0">
          <Node pos="l" depth="2" NCoef="0" IVar="-1" Cut="0.0000000000000000e+00" cType="1" res="-1.5168313984759152e-04" rms="4.8881775140762329e-01" purity="5.1755642890930176e-01" nType="-99"/>
          <Node pos="r" depth="2" NCoef="0" IVar="-1" Cut="0.0000000000000000e+00" cType="1" res="-2.0850063301622868e-03" rms="4.5041608810424805e-01" purity="3.0362385511398315e-01" nType="-99"/>
        </Node>
        <Node pos="r" depth="1" NCoef="0" IVar="0" Cut="2.9242495727539062e+02" cType="1" res="2.7160193771123886e-02" rms="4.8262965679168701e-01" purity="5.3337985277175903e-01" nType="0">
          <Node pos="l" depth="2" NCoef="0" IVar="-1" Cut="0.0000000000000000e+00" cType="1" res="1.1945379665121436e-03" rms="4.7935730218887329e-01" purity="5.9118819236755371e-01" nType="-99"/>
          <Node pos="r" depth="2" NCoef="0" IVar="-1" Cut="0.0000000000000000e+00" cType="1" res="-9.7495387308299541e-04" rms="4.7476789355278015e-01" purity="3.9015772938728333e-01" nType="-99"/>
        </Node>
      </Node>
    </BinaryTree>
    <BinaryTree type="DecisionTree" boostWeight="1.0000000000000000e+00" itree="193">
      <Node pos="s" depth="0" NCoef="0" IVar="2" Cut="7.1234387207031250e+02" cType="1" res="-1.0406580753624439e-02" rms="4.8558160662651062e-01" purity="4.9975994229316711e-01" nType="0">
        <Node pos="l" depth="1" NCoef="0" IVar="5" Cut="3.2272315025329590e-01" cType="1" res="9.7521245479583740e-02" rms="4.7329324483871460e-01" purity="6.3578313589096069e-01" nType="0">
          <Node pos="l" depth="2" NCoef="0" IVar="-1" Cut="0.0000000000000000e+00" cType="1" res="3.9793297764845192e-04" rms="4.8755815625190735e-01" purity="5.5792170763015747e-01" nType="-99"/>
          <Node pos="r" depth="2" NCoef="0" IVar="-1" Cut="0.0000000000000000e+00" cType="1" res="3.3136033453047276e-03" rms="4.5116093754768372e-01" purity="7.0252001285552979e-01" nType="-99"/>
        </Node>
        <Node pos="r" depth="1" NCoef="0" IVar="4" Cut="6.6464971923828125e+02" cType="1" res="-2.8935588896274567e-02" rms="4.8525178432464600e-01" purity="4.7640752792358398e-01" nType="0">
          <Node pos="l" depth="2" NCoef="0" IVar="-1" Cut="0.0000000000000000e+00" cType="1" res="-1.7191964434459805e-03" rms="4.6449181437492371e-01" purity="3.5804939270019531e-01" nType="-99"/>
          <Node pos="r" depth="2" NCoef="0" IVar="-1" Cut="0.0000000000000000e+00" cType="1" res="3.2362746424041688e-04" rms="4.8583844304084778e-01" purity="5.2896726131439209e-01" nType="-99"/>
        </Node>
      </Node>
    </BinaryTree>
    <BinaryTree type="DecisionTree" boostWeight="1.0000000000000000e+00" itree="194">
      <Node pos="s" depth="0" NCoef="0" IVar="1" Cut="1.2972665405273438e+02" cType="1" res="-2.1616168320178986e-02" rms="4.8489281535148621e-01" purity="4.8776951432228088e-01" nType="0">
        <Node pos="l" depth="1" NCoef="0" IVar="3" Cut="8.9312475919723511e-01" cType="1" res="9.9755600094795227e-03" rms="4.8544630408287048e-01" purity="5.3208357095718384e-01" nType="0">
          <Node pos="l" depth="2" NCoef="0" IVar="-1" Cut="0.0000000000000000e+00" cType="1" res="-5.1696988521143794e-04" rms="4.9017217755317688e-01" purity="4.3181693553924561e-01" nType="-99"/>
          <Node pos="r" depth="2" NCoef="0" IVar="-1" Cut="0.0000000000000000e+00" cType="1" res="1.1464632116258144e-03" rms="4.7551804780960083e-01" purity="6.2971621751785278e-01" nType="-99"/>
        </Node>
        <Node pos="r" depth="1" NCoef="0" IVar="0" Cut="1.7432774353027344e+02" cType="1" res="-8.8360786437988281e-02" rms="4.7688880562782288e-01" purity="3.9414596557617188e-01" nType="0">
          <Node pos="l" depth="2" NCoef="0" IVar="-1" Cut="0.0000000000000000e+00" cType="1" res="-5.2864453755319118e-04" rms="4.8774510622024536e-01" purity="4.6690991520881653e-01" nType="-99"/>
          <Node pos="r" depth="2" NCoef="0" IVar="-1" Cut="0.0000000000000000e+00" cType="1" res="-1.7123097786679864e-03" rms="4.5840707421302795e-01" purity="3.1508198380470276e-01" nType="-99"/>
        </Node>
      </Node>
    </BinaryTree>
    <BinaryTree type="DecisionTree" boostWeight="1.0000000000000000e+00" itree="195">
      <Node pos="s" depth="0" NCoef="0" IVar="0" Cut="4.2080157470703125e+02" cType="1" res="-1.4960508793592453e-02" rms="4.8564103245735168e-01" purity="4.9591416120529175e-01" nType="0">
        <Node pos="l" depth="1" NCoef="0" IVar="0" Cut="7.9656036376953125e+01" cType="1" res="-1.0249811457470059e-03" rms="4.8662802577018738e-01" purity="5.1498913764953613e-01" nType="0">
          <Node pos="l" depth="2" NCoef="0" IVar="-1" Cut="0.0000000000000000e+00" cType="1" res="-1.6796900890767574e-03" rms="4.7278892993927002e-01" purity="3.6563009023666382e-01" nType="-99"/>
          <Node pos="r" depth="2" NCoef="0" IVar="-1" Cut="0.0000000000000000e+00" cType="1" res="3.6880979314446449e-04" rms="4.8502483963966370e-01" purity="5.4206067323684692e-01" nType="-99"/>
        </Node>
        <Node pos="r" depth="1" NCoef="0" IVar="-1" Cut="0.0000000000000000e+00" cType="1" res="-1.7241259338334203e-03" rms="4.5129141211509705e-01" purity="3.0056867003440857e-01" nType="-99"/>
      </Node>
    </BinaryTree>
    <BinaryTree type="DecisionTree" boostWeight="1.0000000000000000e+00" itree="196">
      <Node pos="s" depth="0" NCoef="0" IVar="1" Cut="1.3921051025390625e+02" cType="1" res="3.2420037314295769e-03" rms="4.8532438278198242e-01" purity="5.1440465450286865e-01" nType="0">
        <Node pos="l" depth="1" NCoef="0" IVar="0" Cut="8.0084999084472656e+01" cType="1" res="2.3663956671953201e-02" rms="4.8609641194343567e-01" purity="5.4623246192932129e-01" nType="0">
          <Node pos="l" depth="2" NCoef="0" IVar="-1" Cut="0.0000000000000000e+00" cType="1" res="-1.2286511482670903e-03" rms="4.8077362775802612e-01" purity="4.1275289654731750e-01" nType="-99"/>
          <Node pos="r" depth="2" NCoef="0" IVar="-1" Cut="0.0000000000000000e+00" cType="1" res="6.9889205042272806e-04" rms="4.8422497510910034e-01" purity="5.6824749708175659e-01" nType="-99"/>
        </Node>
        <Node pos="r" depth="1" NCoef="0" IVar="5" Cut="4.7105935215950012e-01" cType="1" res="-1.1764603108167648e-01" rms="4.6262043714523315e-01" purity="3.2599967718124390e-01" nType="0">
          <Node pos="l" depth="2" NCoef="0" IVar="-1" Cut="0.0000000000000000e+00" cType="1" res="-9.8178011830896139e-04" rms="4.7493162751197815e-01" purity="3.6636865139007568e-01" nType="-99"/>
          <Node pos="r" depth="2" NCoef="0" IVar="-1" Cut="0.0000000000000000e+00" cType="1" res="-1.5889933565631509e-03" rms="4.4941303133964539e-01" purity="2.9299750924110413e-01" nType="-99"/>
        </Node>
      </Node>
    </BinaryTree>
    <BinaryTree type="DecisionTree" boostWeight="1.0000000000000000e+00" itree="197">
      <Node pos="s" depth="0" NCoef="0" IVar="0" Cut="6.8099517822265625e+01" cType="1" res="-9.9379727616906166e-03" rms="4.8504438996315002e-01" purity="4.9897491931915283e-01" nType="0">
        <Node pos="l" depth="1" NCoef="0" IVar="-1" Cut="0.0000000000000000e+00" cType="1" res="-1.7329851398244500e-03" rms="4.6986690163612366e-01" purity="3.4626466035842896e-01" nType="-99"/>
        <Node pos="r" depth="1" NCoef="0" IVar="0" Cut="2.4218682861328125e+02" cType="1" res="4.7557349316775799e-03" rms="4.8437380790710449e-01" purity="5.1546615362167358e-01" nType="0">
          <Node pos="l" depth="2" NCoef="0" IVar="-1" Cut="0.0000000000000000e+00" cType="1" res="6.3601881265640259e-04" rms="4.8297789692878723e-01" purity="5.6788146495819092e-01" nType="-99"/>
          <Node pos="r" depth="2" NCoef="0" IVar="-1" Cut="0.0000000000000000e+00" cType="1" res="-9.9970470182597637e-04" rms="4.7706294059753418e-01" purity="3.8906720280647278e-01" nType="-99"/>
        </Node>
      </Node>
    </BinaryTree>
    <BinaryTree type="DecisionTree" boostWeight="1.0000000000000000e+00" itree="198">
      <Node pos="s" depth="0" NCoef="0" IVar="3" Cut="8.7079077959060669e-01" cType="1" res="-1.7746096709743142e-03" rms="4.8582455515861511e-01" purity="5.0890791416168213e-01" nType="0">
        <Node pos="l" depth="1" NCoef="0" IVar="4" Cut="5.9354748535156250e+02" cType="1" res="-7.1204327046871185e-02" rms="4.7972095012664795e-01" purity="3.8578784465789795e-01" nType="0">
          <Node pos="l" depth="2" NCoef="0" IVar="-1" Cut="0.0000000000000000e+00" cType="1" res="-1.6211528563871980e-03" rms="4.5732030272483826e-01" purity="3.1150451302528381e-01" nType="-99"/>
          <Node pos="r" depth="2" NCoef="0" IVar="-1" Cut="0.0000000000000000e+00" cType="1" res="-4.8345956020057201e-04" rms="4.8590257763862610e-01" purity="4.1960707306861877e-01" nType="-99"/>
        </Node>
        <Node pos="r" depth="1" NCoef="0" IVar="4" Cut="4.9044168090820312e+02" cType="1" res="2.4344028905034065e-02" rms="4.8553776741027832e-01" purity="5.5522423982620239e-01" nType="0">
          <Node pos="l" depth="2" NCoef="0" IVar="-1" Cut="0.0000000000000000e+00" cType="1" res="-1.3518244959414005e-03" rms="4.8505172133445740e-01" purity="4.4049704074859619e-01" nType="-99"/>
          <Node pos="r" depth="2" NCoef="0" IVar="-1" Cut="0.0000000000000000e+00" cType="1" res="6.4917374402284622e-04" rms="4.8341572284698486e-01" purity="5.6927162408828735e-01" nType="-99"/>
        </Node>
      </Node>
    </BinaryTree>
    <BinaryTree type="DecisionTree" boostWeight="1.0000000000000000e+00" itree="199">
      <Node pos="s" depth="0" NCoef="0" IVar="3" Cut="9.3140482902526855e-01" cType="1" res="-7.9494239762425423e-03" rms="4.8355305194854736e-01" purity="5.0131845474243164e-01" nType="0">
        <Node pos="l" depth="1" NCoef="0" IVar="0" Cut="1.9342797851562500e+02" cType="1" res="-3.4574732184410095e-02" rms="4.8689523339271545e-01" purity="4.5390796661376953e-01" nType="0">
          <Node pos="l" depth="2" NCoef="0" IVar="-1" Cut="0.0000000000000000e+00" cType="1" res="5.3100840887054801e-05" rms="4.9085924029350281e-01" purity="5.0880348682403564e-01" nType="-99"/>
          <Node pos="r" depth="2" NCoef="0" IVar="-1" Cut="0.0000000000000000e+00" cType="1" res="-1.1948591563850641e-03" rms="4.7361040115356445e-01" purity="3.6338448524475098e-01" nType="-99"/>
        </Node>
        <Node pos="r" depth="1" NCoef="0" IVar="2" Cut="8.6386486816406250e+02" cType="1" res="8.8351376354694366e-02" rms="4.5853528380393982e-01" purity="6.7279702425003052e-01" nType="0">
          <Node pos="l" depth="2" NCoef="0" IVar="-1" Cut="0.0000000000000000e+00" cType="1" res="4.2535103857517242e-03" rms="4.2112806439399719e-01" purity="7.6622766256332397e-01" nType="-99"/>
          <Node pos="r" depth="2" NCoef="0" IVar="-1" Cut="0.0000000000000000e+00" cType="1" res="1.0716144461184740e-03" rms="4.7145801782608032e-01" purity="6.2838762998580933e-01" nType="-99"/>
        </Node>
      </Node>
    </BinaryTree>
    <BinaryTree type="DecisionTree" boostWeight="1.0000000000000000e+00" itree="200">
      <Node pos="s" depth="0" NCoef="0" IVar="0" Cut="2.9572824096679688e+02" cType="1" res="-1.1897296644747257e-02" rms="4.8666253685951233e-01" purity="4.9981367588043213e-01" nType="0">
        <Node pos="l" depth="1" NCoef="0" IVar="0" Cut="8.4515205383300781e+01" cType="1" res="5.7932431809604168e-03" rms="4.8693922162055969e-01" purity="5.2723520994186401e-01" nType="0">
          <Node pos="l" depth="2" NCoef="0" IVar="-1" Cut="0.0000000000000000e+00" cType="1" res="-1.0958589846268296e-03" rms="4.8551544547080994e-01" purity="4.2257654666900635e-01" nType="-99"/>
          <Node pos="r" depth="2" NCoef="0" IVar="-1" Cut="0.0000000000000000e+00" cType="1" res="4.2953691445291042e-04" rms="4.8487913608551025e-01" purity="5.5240911245346069e-01" nType="-99"/>
        </Node>
        <Node pos="r" depth="1" NCoef="0" IVar="4" Cut="8.9141229248046875e+02" cType="1" res="-8.6639173328876495e-02" rms="4.7832384705543518e-01" purity="3.8395848870277405e-01" nType="0">
          <Node pos="l" depth="2" NCoef="0" IVar="-1" Cut="0.0000000000000000e+00" cType="1" res="-1.6673802165314555e-03" rms="4.6008321642875671e-01" purity="3.3105388283729553e-01" nType="-99"/>
          <Node pos="r" depth="2" NCoef="0" IVar="-1" Cut="0.0000000000000000e+00" cType="1" res="-5.3479667985811830e-04" rms="4.9027034640312195e-01" purity="4.3349882960319519e-01" nType="-99"/>
        </Node>
      </Node>
    </BinaryTree>
    <BinaryTree type="DecisionTree" boostWeight="1.0000000000000000e+00" itree="201">
      <Node pos="s" depth="0" NCoef="0" IVar="0" Cut="4.2423071289062500e+02" cType="1" res="-1.1419720016419888e-02" rms="4.8467019200325012e-01" purity="4.9788305163383484e-01" nType="0">
        <Node pos="l" depth="1" NCoef="0" IVar="4" Cut="7.0416046142578125e+02" cType="1" res="1.9603851251304150e-03" rms="4.8538255691528320e-01" purity="5.1621872186660767e-01" nType="0">
          <Node pos="l" depth="2" NCoef="0" IVar="-1" Cut="0.0000000000000000e+00" cType="1" res="-5.8112607803195715e-04" rms="4.8547661304473877e-01" purity="4.7411790490150452e-01" nType="-99"/>
          <Node pos="r" depth="2" NCoef="0" IVar="-1" Cut="0.0000000000000000e+00" cType="1" res="7.3085469193756580e-04" rms="4.8126333951950073e-01" purity="5.5917763710021973e-01" nType="-99"/>
        </Node>
        <Node pos="r" depth="1" NCoef="0" IVar="-1" Cut="0.0000000000000000e+00" cType="1" res="-1.7621025908738375e-03" rms="4.5524325966835022e-01" purity="3.1021931767463684e-01" nType="-99"/>
      </Node>
    </BinaryTree>
    <BinaryTree type="DecisionTree" boostWeight="1.0000000000000000e+00" itree="202">
      <Node pos="s" depth="0" NCoef="0" IVar="3" Cut="8.6438387632369995e-01" cType="1" res="-4.4704931788146496e-03" rms="4.8530641198158264e-01" purity="5.0758564472198486e-01" nType="0">
        <Node pos="l" depth="1" NCoef="0" IVar="4" Cut="6.9374487304687500e+02" cType="1" res="-8.9668400585651398e-02" rms="4.7597560286521912e-01" purity="3.6751717329025269e-01" nType="0">
          <Node pos="l" depth="2" NCoef="0" IVar="-1" Cut="0.0000000000000000e+00" cType="1" res="-1.6358306165784597e-03" rms="4.5732837915420532e-01" purity="3.0904126167297363e-01" nType="-99"/>
          <Node pos="r" depth="2" NCoef="0" IVar="-1" Cut="0.0000000000000000e+00" cType="1" res="-4.1449224227108061e-04" rms="4.8621779680252075e-01" purity="4.2309257388114929e-01" nType="-99"/>
        </Node>
        <Node pos="r" depth="1" NCoef="0" IVar="1" Cut="1.3592814636230469e+02" cType="1" res="1.6267905011773109e-02" rms="4.8529234528541565e-01" purity="5.4168033599853516e-01" nType="0">
          <Node pos="l" depth="2" NCoef="0" IVar="-1" Cut="0.0000000000000000e+00" cType="1" res="5.9188279556110501e-04" rms="4.8451539874076843e-01" purity="5.7492852210998535e-01" nType="-99"/>
          <Node pos="r" depth="2" NCoef="0" IVar="-1" Cut="0.0000000000000000e+00" cType="1" res="-9.2196877812966704e-04" rms="4.7887018322944641e-01" purity="3.9015814661979675e-01" nType="-99"/>
        </Node>
      </Node>
    </BinaryTree>
    <BinaryTree type="DecisionTree" boostWeight="1.0000000000000000e+00" itree="203">
      <Node pos="s" depth="0" NCoef="0" IVar="0" Cut="2.6480508422851562e+02" cType="1" res="-1.8054584041237831e-02" rms="4.8427245020866394e-01" purity="4.9186113476753235e-01" nType="0">
        <Node pos="l" depth="1" NCoef="0" IVar="0" Cut="7.2069679260253906e+01" cType="1" res="1.2370847165584564e-02" rms="4.8566246032714844e-01" purity="5.3674054145812988e-01" nType="0">
          <Node pos="l" depth="2" NCoef="0" IVar="-1" Cut="0.0000000000000000e+00" cType="1" res="-1.6430381219834089e-03" rms="4.6737614274024963e-01" purity="3.6003255844116211e-01" nType="-99"/>
          <Node pos="r" depth="2" NCoef="0" IVar="-1" Cut="0.0000000000000000e+00" cType="1" res="5.5882113520056009e-04" rms="4.8452341556549072e-01" purity="5.6372416019439697e-01" nType="-99"/>
        </Node>
        <Node pos="r" depth="1" NCoef="0" IVar="4" Cut="7.6234613037109375e+02" cType="1" res="-1.1161431670188904e-01" rms="4.6773278713226318e-01" purity="3.5385456681251526e-01" nType="0">
          <Node pos="l" depth="2" NCoef="0" IVar="-1" Cut="0.0000000000000000e+00" cType="1" res="-2.2858399897813797e-03" rms="4.2700347304344177e-01" purity="2.5736767053604126e-01" nType="-99"/>
          <Node pos="r" depth="2" NCoef="0" IVar="-1" Cut="0.0000000000000000e+00" cType="1" res="-8.2363776164129376e-04" rms="4.8118072748184204e-01" purity="4.0576833486557007e-01" nType="-99"/>
        </Node>
      </Node>
    </BinaryTree>
    <BinaryTree type="DecisionTree" boostWeight="1.0000000000000000e+00" itree="204">
      <Node pos="s" depth="0" NCoef="0" IVar="3" Cut="8.7080627679824829e-01" cType="1" res="-2.0582636818289757e-02" rms="4.8305889964103699e-01" purity="4.8628246784210205e-01" nType="0">
        <Node pos="l" depth="1" NCoef="0" IVar="5" Cut="6.8011486530303955e-01" cType="1" res="-1.0122340917587280e-01" rms="4.6894308924674988e-01" purity="3.5175421833992004e-01" nType="0">
          <Node pos="l" depth="2" NCoef="0" IVar="-1" Cut="0.0000000000000000e+00" cType="1" res="-1.4152177609503269e-03" rms="4.5976537466049194e-01" purity="3.2400456070899963e-01" nType="-99"/>
          <Node pos="r" depth="2" NCoef="0" IVar="-1" Cut="0.0000000000000000e+00" cType="1" res="7.1293477958533913e-05" rms="4.8970288038253784e-01" purity="4.6285140514373779e-01" nType="-99"/>
        </Node>
        <Node pos="r" depth="1" NCoef="0" IVar="4" Cut="6.8293841552734375e+02" cType="1" res="1.3106411322951317e-02" rms="4.8487970232963562e-01" purity="5.4248392581939697e-01" nType="0">
          <Node pos="l" depth="2" NCoef="0" IVar="-1" Cut="0.0000000000000000e+00" cType="1" res="-4.0989177068695426e-04" rms="4.8690742254257202e-01" purity="5.0761628150939941e-01" nType="-99"/>
          <Node pos="r" depth="2" NCoef="0" IVar="-1" Cut="0.0000000000000000e+00" cType="1" res="7.2845845716074109e-04" rms="4.8092374205589294e-01" purity="5.7018452882766724e-01" nType="-99"/>
        </Node>
      </Node>
    </BinaryTree>
    <BinaryTree type="DecisionTree" boostWeight="1.0000000000000000e+00" itree="205">
      <Node pos="s" depth="0" NCoef="0" IVar="0" Cut="1.4954780578613281e+02" cType="1" res="-2.0208060741424561e-02" rms="4.8410883545875549e-01" purity="4.8916473984718323e-01" nType="0">
        <Node pos="l" depth="1" NCoef="0" IVar="0" Cut="6.6840301513671875e+01" cType="1" res="2.2348696365952492e-02" rms="4.8481351137161255e-01" purity="5.5374544858932495e-01" nType="0">
          <Node pos="l" depth="2" NCoef="0" IVar="-1" Cut="0.0000000000000000e+00" cType="1" res="-1.7201317241415381e-03" rms="4.6984690427780151e-01" purity="3.5135549306869507e-01" nType="-99"/>
          <Node pos="r" depth="2" NCoef="0" IVar="-1" Cut="0.0000000000000000e+00" cType="1" res="1.0084214154630899e-03" rms="4.8046794533729553e-01" purity="5.9983617067337036e-01" nType="-99"/>
        </Node>
        <Node pos="r" depth="1" NCoef="0" IVar="4" Cut="5.6099597167968750e+02" cType="1" res="-6.2247734516859055e-02" rms="4.7971916198730469e-01" purity="4.2536875605583191e-01" nType="0">
          <Node pos="l" depth="2" NCoef="0" IVar="-1" Cut="0.0000000000000000e+00" cType="1" res="-2.0287535153329372e-03" rms="4.4207626581192017e-01" purity="3.1440281867980957e-01" nType="-99"/>
          <Node pos="r" depth="2" NCoef="0" IVar="-1" Cut="0.0000000000000000e+00" cType="1" res="-5.9489259729161859e-04" rms="4.8298317193984985e-01" purity="4.4341462850570679e-01" nType="-99"/>
        </Node>
      </Node>
    </BinaryTree>
    <BinaryTree type="DecisionTree" boostWeight="1.0000000000000000e+00" itree="206">
      <Node pos="s" depth="0" NCoef="0" IVar="0" Cut="6.7065048217773438e+01" cType="1" res="-1.8544211052358150e-03" rms="4.8603275418281555e-01" purity="5.1078236103057861e-01" nType="0">
        <Node pos="l" depth="1" NCoef="0" IVar="-1" Cut="0.0000000000000000e+00" cType="1" res="-1.7158312257379293e-03" rms="4.6810999512672424e-01" purity="3.4037864208221436e-01" nType="-99"/>
        <Node pos="r" depth="1" NCoef="0" IVar="0" Cut="1.9364530944824219e+02" cType="1" res="1.3467714190483093e-02" rms="4.8520842194557190e-01" purity="5.2812707424163818e-01" nType="0">
          <Node pos="l" depth="2" NCoef="0" IVar="-1" Cut="0.0000000000000000e+00" cType="1" res="8.7941234232857823e-04" rms="4.8029041290283203e-01" purity="5.8700931072235107e-01" nType="-99"/>
          <Node pos="r" depth="2" NCoef="0" IVar="-1" Cut="0.0000000000000000e+00" cType="1" res="-6.1823957366868854e-04" rms="4.8683828115463257e-01" purity="4.3762716650962830e-01" nType="-99"/>
        </Node>
      </Node>
    </BinaryTree>
    <BinaryTree type="DecisionTree" boostWeight="1.0000000000000000e+00" itree="207">
      <Node pos="s" depth="0" NCoef="0" IVar="4" Cut="5.3330407714843750e+02" cType="1" res="-8.9332470670342445e-03" rms="4.8399886488914490e-01" purity="5.0052714347839355e-01" nType="0">
        <Node pos="l" depth="1" NCoef="0" IVar="2" Cut="6.6800592041015625e+02" cType="1" res="-1.1863663792610168e-01" rms="4.7199052572250366e-01" purity="3.9752143621444702e-01" nType="0">
          <Node pos="l" depth="2" NCoef="0" IVar="-1" Cut="0.0000000000000000e+00" cType="1" res="2.8880703030154109e-04" rms="4.8430538177490234e-01" purity="5.5259841680526733e-01" nType="-99"/>
          <Node pos="r" depth="2" NCoef="0" IVar="-1" Cut="0.0000000000000000e+00" cType="1" res="-2.8514226432889700e-03" rms="4.0661513805389404e-01" purity="2.2462402284145355e-01" nType="-99"/>
        </Node>
        <Node pos="r" depth="1" NCoef="0" IVar="1" Cut="1.4281646728515625e+02" cType="1" res="1.5336578711867332e-02" rms="4.8326298594474792e-01" purity="5.2331519126892090e-01" nType="0">
          <Node pos="l" depth="2" NCoef="0" IVar="-1" Cut="0.0000000000000000e+00" cType="1" res="5.7820801157504320e-04" rms="4.8386684060096741e-01" purity="5.5581420660018921e-01" nType="-99"/>
          <Node pos="r" depth="2" NCoef="0" IVar="-1" Cut="0.0000000000000000e+00" cType="1" res="-1.4431788586080074e-03" rms="4.5374584197998047e-01" purity="2.9938426613807678e-01" nType="-99"/>
        </Node>
      </Node>
    </BinaryTree>
    <BinaryTree type="DecisionTree" boostWeight="1.0000000000000000e+00" itree="208">
      <Node pos="s" depth="0" NCoef="0" IVar="0" Cut="6.6542304992675781e+01" cType="1" res="-1.4032032340764999e-02" rms="4.8571506142616272e-01" purity="4.9666917324066162e-01" nType="0">
        <Node pos="l" depth="1" NCoef="0" IVar="-1" Cut="0.0000000000000000e+00" cType="1" res="-2.0119540859013796e-03" rms="4.5476797223091125e-01" purity="3.0694639682769775e-01" nType="-99"/>
        <Node pos="r" depth="1" NCoef="0" IVar="4" Cut="6.9706341552734375e+02" cType="1" res="5.4888972081243992e-03" rms="4.8563432693481445e-01" purity="5.1938664913177490e-01" nType="0">
          <Node pos="l" depth="2" NCoef="0" IVar="-1" Cut="0.0000000000000000e+00" cType="1" res="-5.4726330563426018e-04" rms="4.8352342844009399e-01" purity="4.7979381680488586e-01" nType="-99"/>
          <Node pos="r" depth="2" NCoef="0" IVar="-1" Cut="0.0000000000000000e+00" cType="1" res="6.6969537874683738e-04" rms="4.8433977365493774e-01" purity="5.5234009027481079e-01" nType="-99"/>
        </Node>
      </Node>
    </BinaryTree>
    <BinaryTree type="DecisionTree" boostWeight="1.0000000000000000e+00" itree="209">
      <Node pos="s" depth="0" NCoef="0" IVar="0" Cut="2.0121986389160156e+02" cType="1" res="-3.3180380705744028e-03" rms="4.8283398151397705e-01" purity="5.0524145364761353e-01" nType="0">
        <Node pos="l" depth="1" NCoef="0" IVar="0" Cut="9.1457962036132812e+01" cType="1" res="3.5415057092905045e-02" rms="4.8078063130378723e-01" purity="5.6280368566513062e-01" nType="0">
          <Node pos="l" depth="2" NCoef="0" IVar="-1" Cut="0.0000000000000000e+00" cType="1" res="-1.1252438416704535e-03" rms="4.8038631677627563e-01" purity="4.2274674773216248e-01" nType="-99"/>
          <Node pos="r" depth="2" NCoef="0" IVar="-1" Cut="0.0000000000000000e+00" cType="1" res="1.4686285285279155e-03" rms="4.7254371643066406e-01" purity="6.1890447139739990e-01" nType="-99"/>
        </Node>
        <Node pos="r" depth="1" NCoef="0" IVar="4" Cut="6.2022790527343750e+02" cType="1" res="-7.2772555053234100e-02" rms="4.7870922088623047e-01" purity="4.0202328562736511e-01" nType="0">
          <Node pos="l" depth="2" NCoef="0" IVar="-1" Cut="0.0000000000000000e+00" cType="1" res="-2.1365375723689795e-03" rms="4.2608717083930969e-01" purity="2.6798141002655029e-01" nType="-99"/>
          <Node pos="r" depth="2" NCoef="0" IVar="-1" Cut="0.0000000000000000e+00" cType="1" res="-5.3254421800374985e-04" rms="4.8611956834793091e-01" purity="4.3742752075195312e-01" nType="-99"/>
        </Node>
      </Node>
    </BinaryTree>
    <BinaryTree type="DecisionTree" boostWeight="1.0000000000000000e+00" itree="210">
      <Node pos="s" depth="0" NCoef="0" IVar="4" Cut="6.3551214599609375e+02" cType="1" res="-1.8121235072612762e-02" rms="4.8388135433197021e-01" purity="4.9146774411201477e-01" nType="0">
        <Node pos="l" depth="1" NCoef="0" IVar="2" Cut="7.3141015625000000e+02" cType="1" res="-8.4693051874637604e-02" rms="4.7661280632019043e-01" purity="4.2719405889511108e-01" nType="0">
          <Node pos="l" depth="2" NCoef="0" IVar="-1" Cut="0.0000000000000000e+00" cType="1" res="1.1060453107347712e-04" rms="4.8350986838340759e-01" purity="5.3947216272354126e-01" nType="-99"/>
          <Node pos="r" depth="2" NCoef="0" IVar="-1" Cut="0.0000000000000000e+00" cType="1" res="-1.9770248327404261e-03" rms="4.5348039269447327e-01" purity="3.2177665829658508e-01" nType="-99"/>
        </Node>
        <Node pos="r" depth="1" NCoef="0" IVar="2" Cut="1.2517180175781250e+03" cType="1" res="2.2360412403941154e-02" rms="4.8378998041152954e-01" purity="5.3055197000503540e-01" nType="0">
          <Node pos="l" depth="2" NCoef="0" IVar="-1" Cut="0.0000000000000000e+00" cType="1" res="1.2618914479389787e-03" rms="4.7998628020286560e-01" purity="5.9586924314498901e-01" nType="-99"/>
          <Node pos="r" depth="2" NCoef="0" IVar="-1" Cut="0.0000000000000000e+00" cType="1" res="-5.0769909285008907e-04" rms="4.8110124468803406e-01" purity="4.5906794071197510e-01" nType="-99"/>
        </Node>
      </Node>
    </BinaryTree>
    <BinaryTree type="DecisionTree" boostWeight="1.0000000000000000e+00" itree="211">
      <Node pos="s" depth="0" NCoef="0" IVar="4" Cut="5.5513903808593750e+02" cType="1" res="-1.8950387835502625e-02" rms="4.8392078280448914e-01" purity="4.9124526977539062e-01" nType="0">
        <Node pos="l" depth="1" NCoef="0" IVar="2" Cut="7.1614660644531250e+02" cType="1" res="-9.6076689660549164e-02" rms="4.7077783942222595e-01" purity="4.1672661900520325e-01" nType="0">
          <Node pos="l" depth="2" NCoef="0" IVar="-1" Cut="0.0000000000000000e+00" cType="1" res="2.7964595938101411e-04" rms="4.8553872108459473e-01" purity="5.5360323190689087e-01" nType="-99"/>
          <Node pos="r" depth="2" NCoef="0" IVar="-1" Cut="0.0000000000000000e+00" cType="1" res="-2.5587712880223989e-03" rms="4.0322208404541016e-01" purity="2.3305682837963104e-01" nType="-99"/>
        </Node>
        <Node pos="r" depth="1" NCoef="0" IVar="2" Cut="1.1225008544921875e+03" cType="1" res="3.0036112293601036e-03" rms="4.8536145687103271e-01" purity="5.1245701313018799e-01" nType="0">
          <Node pos="l" depth="2" NCoef="0" IVar="-1" Cut="0.0000000000000000e+00" cType="1" res="8.6048414232209325e-04" rms="4.8493754863739014e-01" purity="5.7329910993576050e-01" nType="-99"/>
          <Node pos="r" depth="2" NCoef="0" IVar="-1" Cut="0.0000000000000000e+00" cType="1" res="-6.0848618159070611e-04" rms="4.8105666041374207e-01" purity="4.5306974649429321e-01" nType="-99"/>
        </Node>
      </Node>
    </BinaryTree>
    <BinaryTree type="DecisionTree" boostWeight="1.0000000000000000e+00" itree="212">
      <Node pos="s" depth="0" NCoef="0" IVar="0" Cut="6.8668731689453125e+01" cType="1" res="-1.7672880494501442e-04" rms="4.8313462734222412e-01" purity="5.1097398996353149e-01" nType="0">
        <Node pos="l" depth="1" NCoef="0" IVar="-1" Cut="0.0000000000000000e+00" cType="1" res="-1.8218979239463806e-03" rms="4.5682299137115479e-01" purity="3.3607330918312073e-01" nType="-99"/>
        <Node pos="r" depth="1" NCoef="0" IVar="0" Cut="1.9921661376953125e+02" cType="1" res="1.6436083242297173e-02" rms="4.8301613330841064e-01" purity="5.3002977371215820e-01" nType="0">
          <Node pos="l" depth="2" NCoef="0" IVar="-1" Cut="0.0000000000000000e+00" cType="1" res="1.0403626365587115e-03" rms="4.7906187176704407e-01" purity="5.9765595197677612e-01" nType="-99"/>
          <Node pos="r" depth="2" NCoef="0" IVar="-1" Cut="0.0000000000000000e+00" cType="1" res="-7.1298697730526328e-04" rms="4.8097181320190430e-01" purity="4.2338201403617859e-01" nType="-99"/>
        </Node>
      </Node>
    </BinaryTree>
    <BinaryTree type="DecisionTree" boostWeight="1.0000000000000000e+00" itree="213">
      <Node pos="s" depth="0" NCoef="0" IVar="4" Cut="8.7396337890625000e+02" cType="1" res="-7.8827450051903725e-03" rms="4.8408228158950806e-01" purity="5.0172150135040283e-01" nType="0">
        <Node pos="l" depth="1" NCoef="0" IVar="2" Cut="1.0997131347656250e+03" cType="1" res="-3.8763321936130524e-02" rms="4.8290613293647766e-01" purity="4.7358942031860352e-01" nType="0">
          <Node pos="l" depth="2" NCoef="0" IVar="-1" Cut="0.0000000000000000e+00" cType="1" res="-7.4433832196518779e-05" rms="4.8538297414779663e-01" purity="5.1296210289001465e-01" nType="-99"/>
          <Node pos="r" depth="2" NCoef="0" IVar="-1" Cut="0.0000000000000000e+00" cType="1" res="-1.8910424550995231e-03" rms="4.5185381174087524e-01" purity="3.2689502835273743e-01" nType="-99"/>
        </Node>
        <Node pos="r" depth="1" NCoef="0" IVar="2" Cut="1.3977099609375000e+03" cType="1" res="6.9787122309207916e-02" rms="4.7829398512840271e-01" purity="5.7247835397720337e-01" nType="0">
          <Node pos="l" depth="2" NCoef="0" IVar="-1" Cut="0.0000000000000000e+00" cType="1" res="3.8419961929321289e-03" rms="4.5309561491012573e-01" purity="7.0667636394500732e-01" nType="-99"/>
          <Node pos="r" depth="2" NCoef="0" IVar="-1" Cut="0.0000000000000000e+00" cType="1" res="4.0014707337832078e-05" rms="4.7994863986968994e-01" purity="4.9392148852348328e-01" nType="-99"/>
        </Node>
      </Node>
    </BinaryTree>
    <BinaryTree type="DecisionTree" boostWeight="1.0000000000000000e+00" itree="214">
      <Node pos="s" depth="0" NCoef="0" IVar="0" Cut="2.3592489624023438e+02" cType="1" res="-5.3690508939325809e-03" rms="4.8210304975509644e-01" purity="5.0278300046920776e-01" nType="0">
        <Node pos="l" depth="1" NCoef="0" IVar="3" Cut="8.5802024602890015e-01" cType="1" res="2.7615439146757126e-02" rms="4.8212978243827820e-01" purity="5.5310302972793579e-01" nType="0">
          <Node pos="l" depth="2" NCoef="0" IVar="-1" Cut="0.0000000000000000e+00" cType="1" res="-1.4758429024368525e-03" rms="4.7036838531494141e-01" purity="3.4310862421989441e-01" nType="-99"/>
          <Node pos="r" depth="2" NCoef="0" IVar="-1" Cut="0.0000000000000000e+00" cType="1" res="8.2849140744656324e-04" rms="4.7973102331161499e-01" purity="5.8275538682937622e-01" nType="-99"/>
        </Node>
        <Node pos="r" depth="1" NCoef="0" IVar="2" Cut="9.7665472412109375e+02" cType="1" res="-8.2224488258361816e-02" rms="4.7320348024368286e-01" purity="3.8553509116172791e-01" nType="0">
          <Node pos="l" depth="2" NCoef="0" IVar="-1" Cut="0.0000000000000000e+00" cType="1" res="6.0558808036148548e-04" rms="4.8021113872528076e-01" purity="5.1442879438400269e-01" nType="-99"/>
          <Node pos="r" depth="2" NCoef="0" IVar="-1" Cut="0.0000000000000000e+00" cType="1" res="-1.3052001595497131e-03" rms="4.6757492423057556e-01" purity="3.5783341526985168e-01" nType="-99"/>
        </Node>
      </Node>
    </BinaryTree>
    <BinaryTree type="DecisionTree" boostWeight="1.0000000000000000e+00" itree="215">
      <Node pos="s" depth="0" NCoef="0" IVar="1" Cut="1.0791755676269531e+02" cType="1" res="-3.0110979423625395e-05" rms="4.8445555567741394e-01" purity="5.1360464096069336e-01" nType="0">
        <Node pos="l" depth="1" NCoef="0" IVar="1" Cut="9.9236846923828125e+01" cType="1" res="-9.3168839812278748e-02" rms="4.7544413805007935e-01" purity="3.8150563836097717e-01" nType="0">
          <Node pos="l" depth="2" NCoef="0" IVar="-1" Cut="0.0000000000000000e+00" cType="1" res="-1.6580262454226613e-03" rms="4.5265087485313416e-01" purity="2.9884204268455505e-01" nType="-99"/>
          <Node pos="r" depth="2" NCoef="0" IVar="-1" Cut="0.0000000000000000e+00" cType="1" res="-4.1913960012607276e-04" rms="4.9117487668991089e-01" purity="4.6939924359321594e-01" nType="-99"/>
        </Node>
        <Node pos="r" depth="1" NCoef="0" IVar="1" Cut="1.4335855102539062e+02" cType="1" res="1.5252308920025826e-02" rms="4.8421025276184082e-01" purity="5.3527975082397461e-01" nType="0">
          <Node pos="l" depth="2" NCoef="0" IVar="-1" Cut="0.0000000000000000e+00" cType="1" res="4.9127842066809535e-04" rms="4.8482772707939148e-01" purity="5.6151688098907471e-01" nType="-99"/>
          <Node pos="r" depth="2" NCoef="0" IVar="-1" Cut="0.0000000000000000e+00" cType="1" res="-1.2764835264533758e-03" rms="4.6094235777854919e-01" purity="3.2124599814414978e-01" nType="-99"/>
        </Node>
      </Node>
    </BinaryTree>
    <BinaryTree type="DecisionTree" boostWeight="1.0000000000000000e+00" itree="216">
      <Node pos="s" depth="0" NCoef="0" IVar="4" Cut="8.1575378417968750e+02" cType="1" res="-4.3465220369398594e-03" rms="4.8462125658988953e-01" purity="5.0664681196212769e-01" nType="0">
        <Node pos="l" depth="1" NCoef="0" IVar="2" Cut="7.3826068115234375e+02" cType="1" res="-3.4912366420030594e-02" rms="4.8221933841705322e-01" purity="4.7744941711425781e-01" nType="0">
          <Node pos="l" depth="2" NCoef="0" IVar="-1" Cut="0.0000000000000000e+00" cType="1" res="9.3698449200019240e-04" rms="4.7854384779930115e-01" purity="5.8817952871322632e-01" nType="-99"/>
          <Node pos="r" depth="2" NCoef="0" IVar="-1" Cut="0.0000000000000000e+00" cType="1" res="-9.3118171207606792e-04" rms="4.7888553142547607e-01" purity="4.3260976672172546e-01" nType="-99"/>
        </Node>
        <Node pos="r" depth="1" NCoef="0" IVar="2" Cut="1.2445130615234375e+03" cType="1" res="5.1351878792047501e-02" rms="4.8402971029281616e-01" purity="5.5985158681869507e-01" nType="0">
          <Node pos="l" depth="2" NCoef="0" IVar="-1" Cut="0.0000000000000000e+00" cType="1" res="3.2358008902519941e-03" rms="4.5447406172752380e-01" purity="6.8204784393310547e-01" nType="-99"/>
          <Node pos="r" depth="2" NCoef="0" IVar="-1" Cut="0.0000000000000000e+00" cType="1" res="1.3772783859167248e-04" rms="4.8881322145462036e-01" purity="5.1181846857070923e-01" nType="-99"/>
        </Node>
      </Node>
    </BinaryTree>
    <BinaryTree type="DecisionTree" boostWeight="1.0000000000000000e+00" itree="217">
      <Node pos="s" depth="0" NCoef="0" IVar="2" Cut="1.0507690429687500e+03" cType="1" res="-1.0590454563498497e-02" rms="4.8279914259910583e-01" purity="4.9908778071403503e-01" nType="0">
        <Node pos="l" depth="1" NCoef="0" IVar="4" Cut="6.0059985351562500e+02" cType="1" res="2.9219705611467361e-02" rms="4.8107519745826721e-01" purity="5.5059069395065308e-01" nType="0">
          <Node pos="l" depth="2" NCoef="0" IVar="-1" Cut="0.0000000000000000e+00" cType="1" res="-5.2839017007499933e-04" rms="4.8216199874877930e-01" purity="4.8296421766281128e-01" nType="-99"/>
          <Node pos="r" depth="2" NCoef="0" IVar="-1" Cut="0.0000000000000000e+00" cType="1" res="1.7061098478734493e-03" rms="4.7013372182846069e-01" purity="6.2190842628479004e-01" nType="-99"/>
        </Node>
        <Node pos="r" depth="1" NCoef="0" IVar="4" Cut="8.5929119873046875e+02" cType="1" res="-5.4333314299583435e-02" rms="4.8090124130249023e-01" purity="4.4249707460403442e-01" nType="0">
          <Node pos="l" depth="2" NCoef="0" IVar="-1" Cut="0.0000000000000000e+00" cType="1" res="-1.5598125755786896e-03" rms="4.6375623345375061e-01" purity="3.6364212632179260e-01" nType="-99"/>
          <Node pos="r" depth="2" NCoef="0" IVar="-1" Cut="0.0000000000000000e+00" cType="1" res="-2.1183880744501948e-04" rms="4.8509970307350159e-01" purity="4.8425486683845520e-01" nType="-99"/>
        </Node>
      </Node>
    </BinaryTree>
    <BinaryTree type="DecisionTree" boostWeight="1.0000000000000000e+00" itree="218">
      <Node pos="s" depth="0" NCoef="0" IVar="4" Cut="6.8293841552734375e+02" cType="1" res="-8.0656278878450394e-03" rms="4.8357692360877991e-01" purity="5.0301241874694824e-01" nType="0">
        <Node pos="l" depth="1" NCoef="0" IVar="2" Cut="7.3197930908203125e+02" cType="1" res="-5.9068623930215836e-02" rms="4.8112913966178894e-01" purity="4.5494851469993591e-01" nType="0">
          <Node pos="l" depth="2" NCoef="0" IVar="-1" Cut="0.0000000000000000e+00" cType="1" res="1.4730213442817330e-03" rms="4.7887346148490906e-01" purity="6.2277883291244507e-01" nType="-99"/>
          <Node pos="r" depth="2" NCoef="0" IVar="-1" Cut="0.0000000000000000e+00" cType="1" res="-1.7179490532726049e-03" rms="4.6199086308479309e-01" purity="3.5187563300132751e-01" nType="-99"/>
        </Node>
        <Node pos="r" depth="1" NCoef="0" IVar="2" Cut="1.3425989990234375e+03" cType="1" res="3.2941348850727081e-02" rms="4.8163491487503052e-01" purity="5.4165631532669067e-01" nType="0">
          <Node pos="l" depth="2" NCoef="0" IVar="-1" Cut="0.0000000000000000e+00" cType="1" res="1.5040691941976547e-03" rms="4.7297191619873047e-01" purity="6.0570806264877319e-01" nType="-99"/>
          <Node pos="r" depth="2" NCoef="0" IVar="-1" Cut="0.0000000000000000e+00" cType="1" res="-4.9813295481726527e-04" rms="4.8395720124244690e-01" purity="4.5965275168418884e-01" nType="-99"/>
        </Node>
      </Node>
    </BinaryTree>
    <BinaryTree type="DecisionTree" boostWeight="1.0000000000000000e+00" itree="219">
      <Node pos="s" depth="0" NCoef="0" IVar="1" Cut="9.9750389099121094e+01" cType="1" res="-5.8593545109033585e-03" rms="4.8181039094924927e-01" purity="5.0266754627227783e-01" nType="0">
        <Node pos="l" depth="1" NCoef="0" IVar="-1" Cut="0.0000000000000000e+00" cType="1" res="-1.9682243000715971e-03" rms="4.2928558588027954e-01" purity="2.5964090228080750e-01" nType="-99"/>
        <Node pos="r" depth="1" NCoef="0" IVar="1" Cut="1.3277487182617188e+02" cType="1" res="8.6512258276343346e-03" rms="4.8298746347427368e-01" purity="5.2256458997726440e-01" nType="0">
          <Node pos="l" depth="2" NCoef="0" IVar="-1" Cut="0.0000000000000000e+00" cType="1" res="6.7019276320934296e-04" rms="4.8256045579910278e-01" purity="5.7290214300155640e-01" nType="-99"/>
          <Node pos="r" depth="2" NCoef="0" IVar="-1" Cut="0.0000000000000000e+00" cType="1" res="-1.0202034609392285e-03" rms="4.7299066185951233e-01" purity="3.8513359427452087e-01" nType="-99"/>
        </Node>
      </Node>
    </BinaryTree>
    <BinaryTree type="DecisionTree" boostWeight="1.0000000000000000e+00" itree="220">
      <Node pos="s" depth="0" NCoef="0" IVar="1" Cut="9.9764961242675781e+01" cType="1" res="-1.2347012758255005e-02" rms="4.8489040136337280e-01" purity="4.9884170293807983e-01" nType="0">
        <Node pos="l" depth="1" NCoef="0" IVar="-1" Cut="0.0000000000000000e+00" cType="1" res="-1.8978766165673733e-03" rms="4.4278419017791748e-01" purity="2.7828875184059143e-01" nType="-99"/>
        <Node pos="r" depth="1" NCoef="0" IVar="3" Cut="9.4112449884414673e-01" cType="1" res="8.4616383537650108e-04" rms="4.8595768213272095e-01" purity="5.1737254858016968e-01" nType="0">
          <Node pos="l" depth="2" NCoef="0" IVar="-1" Cut="0.0000000000000000e+00" cType="1" res="-2.4685452808625996e-04" rms="4.9049344658851624e-01" purity="4.8238655924797058e-01" nType="-99"/>
          <Node pos="r" depth="2" NCoef="0" IVar="-1" Cut="0.0000000000000000e+00" cType="1" res="1.9138326169922948e-03" rms="4.5453909039497375e-01" purity="6.8027031421661377e-01" nType="-99"/>
        </Node>
      </Node>
    </BinaryTree>
    <BinaryTree type="DecisionTree" boostWeight="1.0000000000000000e+00" itree="221">
      <Node pos="s" depth="0" NCoef="0" IVar="2" Cut="7.2677758789062500e+02" cType="1" res="-2.6298190932720900e-03" rms="4.8259401321411133e-01" purity="5.0731801986694336e-01" nType="0">
        <Node pos="l" depth="1" NCoef="0" IVar="4" Cut="5.0808200073242188e+02" cType="1" res="1.0397138446569443e-01" rms="4.6465170383453369e-01" purity="6.4218652248382568e-01" nType="0">
          <Node pos="l" depth="2" NCoef="0" IVar="-1" Cut="0.0000000000000000e+00" cType="1" res="2.4645411758683622e-04" rms="4.8548823595046997e-01" purity="5.4927021265029907e-01" nType="-99"/>
          <Node pos="r" depth="2" NCoef="0" IVar="-1" Cut="0.0000000000000000e+00" cType="1" res="5.0179376266896725e-03" rms="4.1340941190719604e-01" purity="7.5471591949462891e-01" nType="-99"/>
        </Node>
        <Node pos="r" depth="1" NCoef="0" IVar="4" Cut="6.5875091552734375e+02" cType="1" res="-2.3655766621232033e-02" rms="4.8328641057014465e-01" purity="4.8071661591529846e-01" nType="0">
          <Node pos="l" depth="2" NCoef="0" IVar="-1" Cut="0.0000000000000000e+00" cType="1" res="-1.6932684229686856e-03" rms="4.6438467502593994e-01" purity="3.5407286882400513e-01" nType="-99"/>
          <Node pos="r" depth="2" NCoef="0" IVar="-1" Cut="0.0000000000000000e+00" cType="1" res="3.4795110695995390e-04" rms="4.8301628232002258e-01" purity="5.3173393011093140e-01" nType="-99"/>
        </Node>
      </Node>
    </BinaryTree>
    <BinaryTree type="DecisionTree" boostWeight="1.0000000000000000e+00" itree="222">
      <Node pos="s" depth="0" NCoef="0" IVar="3" Cut="9.0828609466552734e-01" cType="1" res="-1.4533993788063526e-02" rms="4.8246029019355774e-01" purity="4.9408057332038879e-01" nType="0">
        <Node pos="l" depth="1" NCoef="0" IVar="2" Cut="6.9515893554687500e+02" cType="1" res="-5.2825741469860077e-02" rms="4.8336941003799438e-01" purity="4.1959202289581299e-01" nType="0">
          <Node pos="l" depth="2" NCoef="0" IVar="-1" Cut="0.0000000000000000e+00" cType="1" res="1.8002338474616408e-03" rms="4.8811876773834229e-01" purity="5.9911829233169556e-01" nType="-99"/>
          <Node pos="r" depth="2" NCoef="0" IVar="-1" Cut="0.0000000000000000e+00" cType="1" res="-9.1526773758232594e-04" rms="4.7877392172813416e-01" purity="3.9486870169639587e-01" nType="-99"/>
        </Node>
        <Node pos="r" depth="1" NCoef="0" IVar="4" Cut="6.8648541259765625e+02" cType="1" res="4.8828408122062683e-02" rms="4.7420877218246460e-01" purity="6.1733871698379517e-01" nType="0">
          <Node pos="l" depth="2" NCoef="0" IVar="-1" Cut="0.0000000000000000e+00" cType="1" res="-8.3686725702136755e-05" rms="4.8148998618125916e-01" purity="5.7013523578643799e-01" nType="-99"/>
          <Node pos="r" depth="2" NCoef="0" IVar="-1" Cut="0.0000000000000000e+00" cType="1" res="1.8671775469556451e-03" rms="4.6327593922615051e-01" purity="6.5682494640350342e-01" nType="-99"/>
        </Node>
      </Node>
    </BinaryTree>
    <BinaryTree type="DecisionTree" boostWeight="1.0000000000000000e+00" itree="223">
      <Node pos="s" depth="0" NCoef="0" IVar="3" Cut="8.9618039131164551e-01" cType="1" res="-2.0604089368134737e-03" rms="4.8333543539047241e-01" purity="5.0905936956405640e-01" nType="0">
        <Node pos="l" depth="1" NCoef="0" IVar="1" Cut="1.0859095764160156e+02" cType="1" res="-4.3277803808450699e-02" rms="4.8458608984947205e-01" purity="4.2089164257049561e-01" nType="0">
          <Node pos="l" depth="2" NCoef="0" IVar="-1" Cut="0.0000000000000000e+00" cType="1" res="-1.6356471460312605e-03" rms="4.4521418213844299e-01" purity="2.9091727733612061e-01" nType="-99"/>
          <Node pos="r" depth="2" NCoef="0" IVar="-1" Cut="0.0000000000000000e+00" cType="1" res="-3.1525376834906638e-04" rms="4.8963254690170288e-01" purity="4.4647181034088135e-01" nType="-99"/>
        </Node>
        <Node pos="r" depth="1" NCoef="0" IVar="2" Cut="1.1169189453125000e+03" cType="1" res="4.1599243879318237e-02" rms="4.7814765572547913e-01" purity="6.0245126485824585e-01" nType="0">
          <Node pos="l" depth="2" NCoef="0" IVar="-1" Cut="0.0000000000000000e+00" cType="1" res="1.6082033980637789e-03" rms="4.6583899855613708e-01" purity="6.5351510047912598e-01" nType="-99"/>
          <Node pos="r" depth="2" NCoef="0" IVar="-1" Cut="0.0000000000000000e+00" cType="1" res="-2.0544735889416188e-04" rms="4.8913902044296265e-01" purity="5.3319102525711060e-01" nType="-99"/>
        </Node>
      </Node>
    </BinaryTree>
    <BinaryTree type="DecisionTree" boostWeight="1.0000000000000000e+00" itree="224">
      <Node pos="s" depth="0" NCoef="0" IVar="3" Cut="8.9315271377563477e-01" cType="1" res="-5.7360241189599037e-03" rms="4.8181557655334473e-01" purity="5.0274091958999634e-01" nType="0">
        <Node pos="l" depth="1" NCoef="0" IVar="2" Cut="1.1397779541015625e+03" cType="1" res="-4.9319628626108170e-02" rms="4.8233583569526672e-01" purity="4.1079014539718628e-01" nType="0">
          <Node pos="l" depth="2" NCoef="0" IVar="-1" Cut="0.0000000000000000e+00" cType="1" res="-2.8696245863102376e-04" rms="4.8765826225280762e-01" purity="4.4459930062294006e-01" nType="-99"/>
          <Node pos="r" depth="2" NCoef="0" IVar="-1" Cut="0.0000000000000000e+00" cType="1" res="-1.0296420659869909e-03" rms="4.7184133529663086e-01" purity="3.6235705018043518e-01" nType="-99"/>
        </Node>
        <Node pos="r" depth="1" NCoef="0" IVar="2" Cut="1.0413298339843750e+03" cType="1" res="3.8038980215787888e-02" rms="4.7730317711830139e-01" purity="5.9509551525115967e-01" nType="0">
          <Node pos="l" depth="2" NCoef="0" IVar="-1" Cut="0.0000000000000000e+00" cType="1" res="1.4797518961131573e-03" rms="4.6886396408081055e-01" purity="6.4773851633071899e-01" nType="-99"/>
          <Node pos="r" depth="2" NCoef="0" IVar="-1" Cut="0.0000000000000000e+00" cType="1" res="-7.4182367825414985e-05" rms="4.8285672068595886e-01" purity="5.3698092699050903e-01" nType="-99"/>
        </Node>
      </Node>
    </BinaryTree>
    <BinaryTree type="DecisionTree" boostWeight="1.0000000000000000e+00" itree="225">
      <Node pos="s" depth="0" NCoef="0" IVar="0" Cut="1.8089961242675781e+02" cType="1" res="-1.5658415853977203e-02" rms="4.8127567768096924e-01" purity="4.9141934514045715e-01" nType="0">
        <Node pos="l" depth="1" NCoef="0" IVar="0" Cut="8.7213356018066406e+01" cType="1" res="2.2894559428095818e-02" rms="4.8214927315711975e-01" purity="5.5106204748153687e-01" nType="0">
          <Node pos="l" depth="2" NCoef="0" IVar="-1" Cut="0.0000000000000000e+00" cType="1" res="-1.1666115606203675e-03" rms="4.7713384032249451e-01" purity="4.0767851471900940e-01" nType="-99"/>
          <Node pos="r" depth="2" NCoef="0" IVar="-1" Cut="0.0000000000000000e+00" cType="1" res="1.2051875237375498e-03" rms="4.7623777389526367e-01" purity="6.0977900028228760e-01" nType="-99"/>
        </Node>
        <Node pos="r" depth="1" NCoef="0" IVar="4" Cut="6.0439532470703125e+02" cType="1" res="-7.0783197879791260e-02" rms="4.7461447119712830e-01" purity="4.0613952279090881e-01" nType="0">
          <Node pos="l" depth="2" NCoef="0" IVar="-1" Cut="0.0000000000000000e+00" cType="1" res="-2.1556573919951916e-03" rms="4.0847069025039673e-01" purity="2.4695286154747009e-01" nType="-99"/>
          <Node pos="r" depth="2" NCoef="0" IVar="-1" Cut="0.0000000000000000e+00" cType="1" res="-4.6929751988500357e-04" rms="4.8327371478080750e-01" purity="4.4681254029273987e-01" nType="-99"/>
        </Node>
      </Node>
    </BinaryTree>
    <BinaryTree type="DecisionTree" boostWeight="1.0000000000000000e+00" itree="226">
      <Node pos="s" depth="0" NCoef="0" IVar="0" Cut="4.2376049804687500e+02" cType="1" res="-5.2695260383188725e-03" rms="4.8538354039192200e-01" purity="5.0714296102523804e-01" nType="0">
        <Node pos="l" depth="1" NCoef="0" IVar="4" Cut="6.3551214599609375e+02" cType="1" res="6.8133780732750893e-03" rms="4.8579081892967224e-01" purity="5.2427202463150024e-01" nType="0">
          <Node pos="l" depth="2" NCoef="0" IVar="-1" Cut="0.0000000000000000e+00" cType="1" res="-6.1114033451303840e-04" rms="4.8269867897033691e-01" purity="4.7476524114608765e-01" nType="-99"/>
          <Node pos="r" depth="2" NCoef="0" IVar="-1" Cut="0.0000000000000000e+00" cType="1" res="5.9402856277301908e-04" rms="4.8517867922782898e-01" purity="5.5453610420227051e-01" nType="-99"/>
        </Node>
        <Node pos="r" depth="1" NCoef="0" IVar="-1" Cut="0.0000000000000000e+00" cType="1" res="-1.6486471286043525e-03" rms="4.6079203486442566e-01" purity="3.2034787535667419e-01" nType="-99"/>
      </Node>
    </BinaryTree>
    <BinaryTree type="DecisionTree" boostWeight="1.0000000000000000e+00" itree="227">
      <Node pos="s" depth="0" NCoef="0" IVar="1" Cut="1.3699229431152344e+02" cType="1" res="-1.5141003765165806e-02" rms="4.8237800598144531e-01" purity="4.9374353885650635e-01" nType="0">
        <Node pos="l" depth="1" NCoef="0" IVar="3" Cut="9.3471467494964600e-01" cType="1" res="1.0690199211239815e-02" rms="4.8579791188240051e-01" purity="5.3616273403167725e-01" nType="0">
          <Node pos="l" depth="2" NCoef="0" IVar="-1" Cut="0.0000000000000000e+00" cType="1" res="-2.0835944451391697e-04" rms="4.9241408705711365e-01" purity="4.8813652992248535e-01" nType="-99"/>
          <Node pos="r" depth="2" NCoef="0" IVar="-1" Cut="0.0000000000000000e+00" cType="1" res="2.3132492788136005e-03" rms="4.5061004161834717e-01" purity="7.0402204990386963e-01" nType="-99"/>
        </Node>
        <Node pos="r" depth="1" NCoef="0" IVar="3" Cut="8.7683320045471191e-01" cType="1" res="-1.2091878056526184e-01" rms="4.5299953222274780e-01" purity="3.2003858685493469e-01" nType="0">
          <Node pos="l" depth="2" NCoef="0" IVar="-1" Cut="0.0000000000000000e+00" cType="1" res="-1.8356137443333864e-03" rms="4.1027626395225525e-01" purity="2.1883271634578705e-01" nType="-99"/>
          <Node pos="r" depth="2" NCoef="0" IVar="-1" Cut="0.0000000000000000e+00" cType="1" res="-8.6679094238206744e-04" rms="4.7853890061378479e-01" purity="4.0432012081146240e-01" nType="-99"/>
        </Node>
      </Node>
    </BinaryTree>
    <BinaryTree type="DecisionTree" boostWeight="1.0000000000000000e+00" itree="228">
      <Node pos="s" depth="0" NCoef="0" IVar="0" Cut="2.4265962219238281e+02" cType="1" res="-1.1259529739618301e-02" rms="4.8167926073074341e-01" purity="4.9772360920906067e-01" nType="0">
        <Node pos="l" depth="1" NCoef="0" IVar="0" Cut="8.1527137756347656e+01" cType="1" res="1.5085623599588871e-02" rms="4.8264867067337036e-01" purity="5.4130935668945312e-01" nType="0">
          <Node pos="l" depth="2" NCoef="0" IVar="-1" Cut="0.0000000000000000e+00" cType="1" res="-1.3486810494214296e-03" rms="4.7468033432960510e-01" purity="3.8950890302658081e-01" nType="-99"/>
          <Node pos="r" depth="2" NCoef="0" IVar="-1" Cut="0.0000000000000000e+00" cType="1" res="7.2756502777338028e-04" rms="4.7991219162940979e-01" purity="5.7722222805023193e-01" nType="-99"/>
        </Node>
        <Node pos="r" depth="1" NCoef="0" IVar="3" Cut="9.0176081657409668e-01" cType="1" res="-8.1424854695796967e-02" rms="4.7196772694587708e-01" purity="3.8164132833480835e-01" nType="0">
          <Node pos="l" depth="2" NCoef="0" IVar="-1" Cut="0.0000000000000000e+00" cType="1" res="-1.3544422108680010e-03" rms="4.5592144131660461e-01" purity="3.1117105484008789e-01" nType="-99"/>
          <Node pos="r" depth="2" NCoef="0" IVar="-1" Cut="0.0000000000000000e+00" cType="1" res="-3.1677549122832716e-04" rms="4.9087491631507874e-01" purity="4.9705004692077637e-01" nType="-99"/>
        </Node>
      </Node>
    </BinaryTree>
    <BinaryTree type="DecisionTree" boostWeight="1.0000000000000000e+00" itree="229">
      <Node pos="s" depth="0" NCoef="0" IVar="3" Cut="8.8652062416076660e-01" cType="1" res="-3.2268047798424959e-03" rms="4.8287621140480042e-01" purity="5.0684505701065063e-01" nType="0">
        <Node pos="l" depth="1" NCoef="0" IVar="4" Cut="6.7158673095703125e+02" cType="1" res="-5.5726092308759689e-02" rms="4.8136916756629944e-01" purity="4.0308335423469543e-01" nType="0">
          <Node pos="l" depth="2" NCoef="0" IVar="-1" Cut="0.0000000000000000e+00" cType="1" res="-1.3595853233709931e-03" rms="4.6617355942726135e-01" purity="3.3964392542839050e-01" nType="-99"/>
          <Node pos="r" depth="2" NCoef="0" IVar="-1" Cut="0.0000000000000000e+00" cType="1" res="1.7337297322228551e-05" rms="4.8744839429855347e-01" purity="4.5946937799453735e-01" nType="-99"/>
        </Node>
        <Node pos="r" depth="1" NCoef="0" IVar="2" Cut="1.3333374023437500e+03" cType="1" res="3.9664782583713531e-02" rms="4.7985953092575073e-01" purity="5.9161776304244995e-01" nType="0">
          <Node pos="l" depth="2" NCoef="0" IVar="-1" Cut="0.0000000000000000e+00" cType="1" res="1.1013450566679239e-03" rms="4.7442871332168579e-01" purity="6.1687201261520386e-01" nType="-99"/>
          <Node pos="r" depth="2" NCoef="0" IVar="-1" Cut="0.0000000000000000e+00" cType="1" res="-2.7181947370991111e-04" rms="4.9119749665260315e-01" purity="5.1700156927108765e-01" nType="-99"/>
        </Node>
      </Node>
    </BinaryTree>
    <BinaryTree type="DecisionTree" boostWeight="1.0000000000000000e+00" itree="230">
      <Node pos="s" depth="0" NCoef="0" IVar="1" Cut="1.0814468383789062e+02" cType="1" res="-1.9961113110184669e-02" rms="4.8208206892013550e-01" purity="4.9011939764022827e-01" nType="0">
        <Node pos="l" depth="1" NCoef="0" IVar="3" Cut="8.9507901668548584e-01" cType="1" res="-1.3498216867446899e-01" rms="4.5132198929786682e-01" purity="3.2993468642234802e-01" nType="0">
          <Node pos="l" depth="2" NCoef="0" IVar="-1" Cut="0.0000000000000000e+00" cType="1" res="-1.9415747374296188e-03" rms="4.1575431823730469e-01" purity="2.3378717899322510e-01" nType="-99"/>
          <Node pos="r" depth="2" NCoef="0" IVar="-1" Cut="0.0000000000000000e+00" cType="1" res="-8.4627402247861028e-04" rms="4.8673725128173828e-01" purity="4.6378654241561890e-01" nType="-99"/>
        </Node>
        <Node pos="r" depth="1" NCoef="0" IVar="1" Cut="1.2654261779785156e+02" cType="1" res="5.7882640976458788e-04" rms="4.8450580239295959e-01" purity="5.1872450113296509e-01" nType="0">
          <Node pos="l" depth="2" NCoef="0" IVar="-1" Cut="0.0000000000000000e+00" cType="1" res="6.8360625300556421e-04" rms="4.8130559921264648e-01" purity="5.7807117700576782e-01" nType="-99"/>
          <Node pos="r" depth="2" NCoef="0" IVar="-1" Cut="0.0000000000000000e+00" cType="1" res="-5.9787742793560028e-04" rms="4.8409977555274963e-01" purity="4.5477986335754395e-01" nType="-99"/>
        </Node>
      </Node>
    </BinaryTree>
    <BinaryTree type="DecisionTree" boostWeight="1.0000000000000000e+00" itree="231">
      <Node pos="s" depth="0" NCoef="0" IVar="3" Cut="9.3458944559097290e-01" cType="1" res="-2.0393904298543930e-02" rms="4.8108002543449402e-01" purity="4.8731812834739685e-01" nType="0">
        <Node pos="l" depth="1" NCoef="0" IVar="0" Cut="2.9038763427734375e+02" cType="1" res="-4.3568450957536697e-02" rms="4.8445010185241699e-01" purity="4.4374513626098633e-01" nType="0">
          <Node pos="l" depth="2" NCoef="0" IVar="-1" Cut="0.0000000000000000e+00" cType="1" res="-3.0461547430604696e-04" rms="4.8914235830307007e-01" purity="4.7648817300796509e-01" nType="-99"/>
          <Node pos="r" depth="2" NCoef="0" IVar="-1" Cut="0.0000000000000000e+00" cType="1" res="-1.4709192328155041e-03" rms="4.5710614323616028e-01" purity="3.1973317265510559e-01" nType="-99"/>
        </Node>
        <Node pos="r" depth="1" NCoef="0" IVar="0" Cut="2.2049934387207031e+02" cType="1" res="6.8958014249801636e-02" rms="4.5698767900466919e-01" purity="6.5531843900680542e-01" nType="0">
          <Node pos="l" depth="2" NCoef="0" IVar="-1" Cut="0.0000000000000000e+00" cType="1" res="2.6903366670012474e-03" rms="4.3782457709312439e-01" purity="7.2034019231796265e-01" nType="-99"/>
          <Node pos="r" depth="2" NCoef="0" IVar="-1" Cut="0.0000000000000000e+00" cType="1" res="-2.5574260507710278e-04" rms="4.8220849037170410e-01" purity="5.2485913038253784e-01" nType="-99"/>
        </Node>
      </Node>
    </BinaryTree>
    <BinaryTree type="DecisionTree" boostWeight="1.0000000000000000e+00" itree="232">
      <Node pos="s" depth="0" NCoef="0" IVar="3" Cut="8.9619272947311401e-01" cType="1" res="-9.0683698654174805e-03" rms="4.8199960589408875e-01" purity="5.0026834011077881e-01" nType="0">
        <Node pos="l" depth="1" NCoef="0" IVar="5" Cut="7.8921473026275635e-01" cType="1" res="-5.2803929895162582e-02" rms="4.8305484652519226e-01" purity="4.0990671515464783e-01" nType="0">
          <Node pos="l" depth="2" NCoef="0" IVar="-1" Cut="0.0000000000000000e+00" cType="1" res="-8.4507884457707405e-04" rms="4.8051300644874573e-01" purity="3.9477804303169250e-01" nType="-99"/>
          <Node pos="r" depth="2" NCoef="0" IVar="-1" Cut="0.0000000000000000e+00" cType="1" res="1.2175495503470302e-03" rms="4.8496064543724060e-01" purity="5.4036092758178711e-01" nType="-99"/>
        </Node>
        <Node pos="r" depth="1" NCoef="0" IVar="0" Cut="8.5593887329101562e+01" cType="1" res="4.0523536503314972e-02" rms="4.7596281766891479e-01" purity="6.0272961854934692e-01" nType="0">
          <Node pos="l" depth="2" NCoef="0" IVar="-1" Cut="0.0000000000000000e+00" cType="1" res="-9.7600411390885711e-04" rms="4.9177002906799316e-01" purity="4.8903492093086243e-01" nType="-99"/>
          <Node pos="r" depth="2" NCoef="0" IVar="-1" Cut="0.0000000000000000e+00" cType="1" res="1.1951628839597106e-03" rms="4.6948713064193726e-01" purity="6.2695080041885376e-01" nType="-99"/>
        </Node>
      </Node>
    </BinaryTree>
    <BinaryTree type="DecisionTree" boostWeight="1.0000000000000000e+00" itree="233">
      <Node pos="s" depth="0" NCoef="0" IVar="4" Cut="6.3949011230468750e+02" cType="1" res="-2.0034719258546829e-02" rms="4.8215368390083313e-01" purity="4.9074995517730713e-01" nType="0">
        <Node pos="l" depth="1" NCoef="0" IVar="2" Cut="7.8529467773437500e+02" cType="1" res="-8.1135272979736328e-02" rms="4.7548630833625793e-01" purity="4.3271994590759277e-01" nType="0">
          <Node pos="l" depth="2" NCoef="0" IVar="-1" Cut="0.0000000000000000e+00" cType="1" res="-2.0141137065365911e-04" rms="4.8420336842536926e-01" purity="5.1833152770996094e-01" nType="-99"/>
          <Node pos="r" depth="2" NCoef="0" IVar="-1" Cut="0.0000000000000000e+00" cType="1" res="-2.1045065950602293e-03" rms="4.3999511003494263e-01" purity="2.9618483781814575e-01" nType="-99"/>
        </Node>
        <Node pos="r" depth="1" NCoef="0" IVar="2" Cut="1.3809976806640625e+03" cType="1" res="1.6791971400380135e-02" rms="4.8240461945533752e-01" purity="5.2572602033615112e-01" nType="0">
          <Node pos="l" depth="2" NCoef="0" IVar="-1" Cut="0.0000000000000000e+00" cType="1" res="1.0052602738142014e-03" rms="4.7709009051322937e-01" purity="5.7865422964096069e-01" nType="-99"/>
          <Node pos="r" depth="2" NCoef="0" IVar="-1" Cut="0.0000000000000000e+00" cType="1" res="-8.0220453673973680e-04" rms="4.8200482130050659e-01" purity="4.3550342321395874e-01" nType="-99"/>
        </Node>
      </Node>
    </BinaryTree>
    <BinaryTree type="DecisionTree" boostWeight="1.0000000000000000e+00" itree="234">
      <Node pos="s" depth="0" NCoef="0" IVar="4" Cut="7.4640093994140625e+02" cType="1" res="-8.4712216630578041e-03" rms="4.8214566707611084e-01" purity="5.0135934352874756e-01" nType="0">
        <Node pos="l" depth="1" NCoef="0" IVar="2" Cut="9.6250433349609375e+02" cType="1" res="-4.6608768403530121e-02" rms="4.7907111048698425e-01" purity="4.6467751264572144e-01" nType="0">
          <Node pos="l" depth="2" NCoef="0" IVar="-1" Cut="0.0000000000000000e+00" cType="1" res="6.6101783886551857e-06" rms="4.8335897922515869e-01" purity="5.2255076169967651e-01" nType="-99"/>
          <Node pos="r" depth="2" NCoef="0" IVar="-1" Cut="0.0000000000000000e+00" cType="1" res="-2.0469313021749258e-03" rms="4.3892952799797058e-01" purity="2.9730528593063354e-01" nType="-99"/>
        </Node>
        <Node pos="r" depth="1" NCoef="0" IVar="1" Cut="1.0845836639404297e+02" cType="1" res="3.8392454385757446e-02" rms="4.8178052902221680e-01" purity="5.4643416404724121e-01" nType="0">
          <Node pos="l" depth="2" NCoef="0" IVar="-1" Cut="0.0000000000000000e+00" cType="1" res="-1.1190405348315835e-03" rms="4.7619071602821350e-01" purity="3.7824878096580505e-01" nType="-99"/>
          <Node pos="r" depth="2" NCoef="0" IVar="-1" Cut="0.0000000000000000e+00" cType="1" res="1.1296448064967990e-03" rms="4.7800743579864502e-01" purity="5.8185261487960815e-01" nType="-99"/>
        </Node>
      </Node>
    </BinaryTree>
    <BinaryTree type="DecisionTree" boostWeight="1.0000000000000000e+00" itree="235">
      <Node pos="s" depth="0" NCoef="0" IVar="1" Cut="1.4190861511230469e+02" cType="1" res="-5.5167512036859989e-03" rms="4.8323091864585876e-01" purity="5.0403815507888794e-01" nType="0">
        <Node pos="l" depth="1" NCoef="0" IVar="4" Cut="5.0134863281250000e+02" cType="1" res="1.0414719581604004e-02" rms="4.8537442088127136e-01" purity="5.3217858076095581e-01" nType="0">
          <Node pos="l" depth="2" NCoef="0" IVar="-1" Cut="0.0000000000000000e+00" cType="1" res="-1.1354060843586922e-03" rms="4.7594228386878967e-01" purity="4.3106278777122498e-01" nType="-99"/>
          <Node pos="r" depth="2" NCoef="0" IVar="-1" Cut="0.0000000000000000e+00" cType="1" res="3.9822643157094717e-04" rms="4.8510357737541199e-01" purity="5.4760432243347168e-01" nType="-99"/>
        </Node>
        <Node pos="r" depth="1" NCoef="0" IVar="-1" Cut="0.0000000000000000e+00" cType="1" res="-1.3431815896183252e-03" rms="4.5112103223800659e-01" purity="3.0110701918601990e-01" nType="-99"/>
      </Node>
    </BinaryTree>
    <BinaryTree type="DecisionTree" boostWeight="1.0000000000000000e+00" itree="236">
      <Node pos="s" depth="0" NCoef="0" IVar="1" Cut="1.0691110992431641e+02" cType="1" res="2.6125945150852203e-03" rms="4.8009368777275085e-01" purity="5.1070308685302734e-01" nType="0">
        <Node pos="l" depth="1" NCoef="0" IVar="3" Cut="8.9831787347793579e-01" cType="1" res="-1.1528745293617249e-01" rms="4.6285295486450195e-01" purity="3.4983161091804504e-01" nType="0">
          <Node pos="l" depth="2" NCoef="0" IVar="-1" Cut="0.0000000000000000e+00" cType="1" res="-1.5860425774008036e-03" rms="4.4595333933830261e-01" purity="2.8320348262786865e-01" nType="-99"/>
          <Node pos="r" depth="2" NCoef="0" IVar="-1" Cut="0.0000000000000000e+00" cType="1" res="-1.1246826034039259e-03" rms="4.8340672254562378e-01" purity="4.4522351026535034e-01" nType="-99"/>
        </Node>
        <Node pos="r" depth="1" NCoef="0" IVar="1" Cut="1.4471334838867188e+02" cType="1" res="2.0501462742686272e-02" rms="4.8013281822204590e-01" purity="5.3511196374893188e-01" nType="0">
          <Node pos="l" depth="2" NCoef="0" IVar="-1" Cut="0.0000000000000000e+00" cType="1" res="6.8405637284740806e-04" rms="4.8108953237533569e-01" purity="5.7029956579208374e-01" nType="-99"/>
          <Node pos="r" depth="2" NCoef="0" IVar="-1" Cut="0.0000000000000000e+00" cType="1" res="-1.5890856739133596e-03" rms="4.4099897146224976e-01" purity="2.7532395720481873e-01" nType="-99"/>
        </Node>
      </Node>
    </BinaryTree>
    <BinaryTree type="DecisionTree" boostWeight="1.0000000000000000e+00" itree="237">
      <Node pos="s" depth="0" NCoef="0" IVar="0" Cut="3.6900991821289062e+02" cType="1" res="-2.3068532347679138e-02" rms="4.8321726918220520e-01" purity="4.8722746968269348e-01" nType="0">
        <Node pos="l" depth="1" NCoef="0" IVar="0" Cut="9.0237731933593750e+01" cType="1" res="-8.8859200477600098e-03" rms="4.8512062430381775e-01" purity="5.0954788923263550e-01" nType="0">
          <Node pos="l" depth="2" NCoef="0" IVar="-1" Cut="0.0000000000000000e+00" cType="1" res="-1.1470976751297712e-03" rms="4.8331487178802490e-01" purity="4.1851401329040527e-01" nType="-99"/>
          <Node pos="r" depth="2" NCoef="0" IVar="-1" Cut="0.0000000000000000e+00" cType="1" res="1.7269454838242382e-04" rms="4.8354002833366394e-01" purity="5.3301692008972168e-01" nType="-99"/>
        </Node>
        <Node pos="r" depth="1" NCoef="0" IVar="-1" Cut="0.0000000000000000e+00" cType="1" res="-1.4555348316207528e-03" rms="4.5620241761207581e-01" purity="3.2547205686569214e-01" nType="-99"/>
      </Node>
    </BinaryTree>
    <BinaryTree type="DecisionTree" boostWeight="1.0000000000000000e+00" itree="238">
      <Node pos="s" depth="0" NCoef="0" IVar="1" Cut="1.0333511352539062e+02" cType="1" res="-2.5490266270935535e-03" rms="4.8085173964500427e-01" purity="5.0561696290969849e-01" nType="0">
        <Node pos="l" depth="1" NCoef="0" IVar="-1" Cut="0.0000000000000000e+00" cType="1" res="-1.6245061997324228e-03" rms="4.5220774412155151e-01" purity="3.0554214119911194e-01" nType="-99"/>
        <Node pos="r" depth="1" NCoef="0" IVar="3" Cut="8.7368643283843994e-01" cType="1" res="1.2725175358355045e-02" rms="4.8145234584808350e-01" purity="5.2759152650833130e-01" nType="0">
          <Node pos="l" depth="2" NCoef="0" IVar="-1" Cut="0.0000000000000000e+00" cType="1" res="-7.4931664858013391e-04" rms="4.7907793521881104e-01" purity="3.9669206738471985e-01" nType="-99"/>
          <Node pos="r" depth="2" NCoef="0" IVar="-1" Cut="0.0000000000000000e+00" cType="1" res="7.5704121263697743e-04" rms="4.7898158431053162e-01" purity="5.8510297536849976e-01" nType="-99"/>
        </Node>
      </Node>
    </BinaryTree>
    <BinaryTree type="DecisionTree" boostWeight="1.0000000000000000e+00" itree="239">
      <Node pos="s" depth="0" NCoef="0" IVar="1" Cut="1.4708995056152344e+02" cType="1" res="-8.7888650596141815e-03" rms="4.8117825388908386e-01" purity="5.0227838754653931e-01" nType="0">
        <Node pos="l" depth="1" NCoef="0" IVar="1" Cut="9.9948532104492188e+01" cType="1" res="5.6427922099828720e-03" rms="4.8317602276802063e-01" purity="5.2617323398590088e-01" nType="0">
          <Node pos="l" depth="2" NCoef="0" IVar="-1" Cut="0.0000000000000000e+00" cType="1" res="-2.1215514279901981e-03" rms="4.3152001500129700e-01" purity="2.5580903887748718e-01" nType="-99"/>
          <Node pos="r" depth="2" NCoef="0" IVar="-1" Cut="0.0000000000000000e+00" cType="1" res="3.7728864117525518e-04" rms="4.8368093371391296e-01" purity="5.5137616395950317e-01" nType="-99"/>
        </Node>
        <Node pos="r" depth="1" NCoef="0" IVar="-1" Cut="0.0000000000000000e+00" cType="1" res="-1.7434447072446346e-03" rms="4.3406775593757629e-01" purity="2.5977426767349243e-01" nType="-99"/>
      </Node>
    </BinaryTree>
    <BinaryTree type="DecisionTree" boostWeight="1.0000000000000000e+00" itree="240">
      <Node pos="s" depth="0" NCoef="0" IVar="0" Cut="4.5513006591796875e+02" cType="1" res="-2.9520623385906219e-02" rms="4.8161712288856506e-01" purity="4.8083609342575073e-01" nType="0">
        <Node pos="l" depth="1" NCoef="0" IVar="1" Cut="1.4123057556152344e+02" cType="1" res="-1.7870280891656876e-02" rms="4.8261862993240356e-01" purity="4.9691364169120789e-01" nType="0">
          <Node pos="l" depth="2" NCoef="0" IVar="-1" Cut="0.0000000000000000e+00" cType="1" res="-2.6984766009263694e-05" rms="4.8528891801834106e-01" purity="5.2465271949768066e-01" nType="-99"/>
          <Node pos="r" depth="2" NCoef="0" IVar="-1" Cut="0.0000000000000000e+00" cType="1" res="-1.5123096527531743e-03" rms="4.4554567337036133e-01" purity="2.9507362842559814e-01" nType="-99"/>
        </Node>
        <Node pos="r" depth="1" NCoef="0" IVar="-1" Cut="0.0000000000000000e+00" cType="1" res="-2.0342103671282530e-03" rms="4.4134372472763062e-01" purity="2.7212664484977722e-01" nType="-99"/>
      </Node>
    </BinaryTree>
    <BinaryTree type="DecisionTree" boostWeight="1.0000000000000000e+00" itree="241">
      <Node pos="s" depth="0" NCoef="0" IVar="2" Cut="1.0000457153320312e+03" cType="1" res="-1.2828852050006390e-02" rms="4.8254129290580750e-01" purity="4.9768143892288208e-01" nType="0">
        <Node pos="l" depth="1" NCoef="0" IVar="4" Cut="7.1011230468750000e+02" cType="1" res="3.3089622855186462e-02" rms="4.7969913482666016e-01" purity="5.5323851108551025e-01" nType="0">
          <Node pos="l" depth="2" NCoef="0" IVar="-1" Cut="0.0000000000000000e+00" cType="1" res="-4.4162377889733762e-05" rms="4.8147800564765930e-01" purity="5.1424086093902588e-01" nType="-99"/>
          <Node pos="r" depth="2" NCoef="0" IVar="-1" Cut="0.0000000000000000e+00" cType="1" res="5.9216041117906570e-03" rms="4.1611987352371216e-01" purity="7.7038437128067017e-01" nType="-99"/>
        </Node>
        <Node pos="r" depth="1" NCoef="0" IVar="4" Cut="9.0887750244140625e+02" cType="1" res="-5.5691666901111603e-02" rms="4.8124167323112488e-01" purity="4.4582152366638184e-01" nType="0">
          <Node pos="l" depth="2" NCoef="0" IVar="-1" Cut="0.0000000000000000e+00" cType="1" res="-1.5953577822074294e-03" rms="4.6362534165382385e-01" purity="3.7097835540771484e-01" nType="-99"/>
          <Node pos="r" depth="2" NCoef="0" IVar="-1" Cut="0.0000000000000000e+00" cType="1" res="3.0703766969963908e-04" rms="4.8749396204948425e-01" purity="5.2345687150955200e-01" nType="-99"/>
        </Node>
      </Node>
    </BinaryTree>
    <BinaryTree type="DecisionTree" boostWeight="1.0000000000000000e+00" itree="242">
      <Node pos="s" depth="0" NCoef="0" IVar="3" Cut="9.3459951877593994e-01" cType="1" res="4.7388267703354359e-03" rms="4.8105925321578979e-01" purity="5.1497071981430054e-01" nType="0">
        <Node pos="l" depth="1" NCoef="0" IVar="0" Cut="1.5675637817382812e+02" cType="1" res="-1.7892219126224518e-02" rms="4.8614224791526794e-01" purity="4.7061449289321899e-01" nType="0">
          <Node pos="l" depth="2" NCoef="0" IVar="-1" Cut="0.0000000000000000e+00" cType="1" res="3.4177023917436600e-04" rms="4.8539569973945618e-01" purity="5.2904498577117920e-01" nType="-99"/>
          <Node pos="r" depth="2" NCoef="0" IVar="-1" Cut="0.0000000000000000e+00" cType="1" res="-8.0078048631548882e-04" rms="4.8306190967559814e-01" purity="4.0691268444061279e-01" nType="-99"/>
        </Node>
        <Node pos="r" depth="1" NCoef="0" IVar="4" Cut="6.5766638183593750e+02" cType="1" res="8.8181152939796448e-02" rms="4.5215073227882385e-01" purity="6.7851543426513672e-01" nType="0">
          <Node pos="l" depth="2" NCoef="0" IVar="-1" Cut="0.0000000000000000e+00" cType="1" res="3.6152167012915015e-05" rms="4.7498673200607300e-01" purity="5.9973657131195068e-01" nType="-99"/>
          <Node pos="r" depth="2" NCoef="0" IVar="-1" Cut="0.0000000000000000e+00" cType="1" res="3.6043121945112944e-03" rms="4.2497998476028442e-01" purity="7.3394966125488281e-01" nType="-99"/>
        </Node>
      </Node>
    </BinaryTree>
    <BinaryTree type="DecisionTree" boostWeight="1.0000000000000000e+00" itree="243">
      <Node pos="s" depth="0" NCoef="0" IVar="0" Cut="2.0176448059082031e+02" cType="1" res="-3.9691533893346786e-03" rms="4.7943204641342163e-01" purity="5.0486463308334351e-01" nType="0">
        <Node pos="l" depth="1" NCoef="0" IVar="0" Cut="8.8272888183593750e+01" cType="1" res="3.4909892827272415e-02" rms="4.7757670283317566e-01" purity="5.6419354677200317e-01" nType="0">
          <Node pos="l" depth="2" NCoef="0" IVar="-1" Cut="0.0000000000000000e+00" cType="1" res="-1.0729030473157763e-03" rms="4.7688543796539307e-01" purity="4.1555407643318176e-01" nType="-99"/>
          <Node pos="r" depth="2" NCoef="0" IVar="-1" Cut="0.0000000000000000e+00" cType="1" res="1.4745886437594891e-03" rms="4.6975624561309814e-01" purity="6.2298572063446045e-01" nType="-99"/>
        </Node>
        <Node pos="r" depth="1" NCoef="0" IVar="4" Cut="6.4396057128906250e+02" cType="1" res="-7.2279103100299835e-02" rms="4.7502914071083069e-01" purity="4.0062442421913147e-01" nType="0">
          <Node pos="l" depth="2" NCoef="0" IVar="-1" Cut="0.0000000000000000e+00" cType="1" res="-1.8221912905573845e-03" rms="4.3898382782936096e-01" purity="2.9641804099082947e-01" nType="-99"/>
          <Node pos="r" depth="2" NCoef="0" IVar="-1" Cut="0.0000000000000000e+00" cType="1" res="-6.0990737983956933e-04" rms="4.8157888650894165e-01" purity="4.3122875690460205e-01" nType="-99"/>
        </Node>
      </Node>
    </BinaryTree>
    <BinaryTree type="DecisionTree" boostWeight="1.0000000000000000e+00" itree="244">
      <Node pos="s" depth="0" NCoef="0" IVar="3" Cut="9.5054388046264648e-01" cType="1" res="-1.6981975641101599e-03" rms="4.8034936189651489e-01" purity="5.0646197795867920e-01" nType="0">
        <Node pos="l" depth="1" NCoef="0" IVar="5" Cut="7.8932589292526245e-01" cType="1" res="-1.9750002771615982e-02" rms="4.8373642563819885e-01" purity="4.7430604696273804e-01" nType="0">
          <Node pos="l" depth="2" NCoef="0" IVar="-1" Cut="0.0000000000000000e+00" cType="1" res="-4.6596955507993698e-04" rms="4.8259279131889343e-01" purity="4.5793318748474121e-01" nType="-99"/>
          <Node pos="r" depth="2" NCoef="0" IVar="-1" Cut="0.0000000000000000e+00" cType="1" res="1.1266141664236784e-03" rms="4.8132145404815674e-01" purity="5.7934314012527466e-01" nType="-99"/>
        </Node>
        <Node pos="r" depth="1" NCoef="0" IVar="4" Cut="6.5837414550781250e+02" cType="1" res="1.2056802958250046e-01" rms="4.3756434321403503e-01" purity="7.2425603866577148e-01" nType="0">
          <Node pos="l" depth="2" NCoef="0" IVar="-1" Cut="0.0000000000000000e+00" cType="1" res="6.8146205740049481e-04" rms="4.7004237771034241e-01" purity="6.4348173141479492e-01" nType="-99"/>
          <Node pos="r" depth="2" NCoef="0" IVar="-1" Cut="0.0000000000000000e+00" cType="1" res="5.2678687497973442e-03" rms="3.9692509174346924e-01" purity="7.8732466697692871e-01" nType="-99"/>
        </Node>
      </Node>
    </BinaryTree>
    <BinaryTree type="DecisionTree" boostWeight="1.0000000000000000e+00" itree="245">
      <Node pos="s" depth="0" NCoef="0" IVar="4" Cut="5.9837628173828125e+02" cType="1" res="-4.4123032130300999e-03" rms="4.8330342769622803e-01" purity="5.0668567419052124e-01" nType="0">
        <Node pos="l" depth="1" NCoef="0" IVar="2" Cut="8.1289715576171875e+02" cType="1" res="-7.1237623691558838e-02" rms="4.7798502445220947e-01" purity="4.4102546572685242e-01" nType="0">
          <Node pos="l" depth="2" NCoef="0" IVar="-1" Cut="0.0000000000000000e+00" cType="1" res="-1.7817634216044098e-04" rms="4.8944973945617676e-01" purity="5.1920491456985474e-01" nType="-99"/>
          <Node pos="r" depth="2" NCoef="0" IVar="-1" Cut="0.0000000000000000e+00" cType="1" res="-2.2674826905131340e-03" rms="4.1055744886398315e-01" purity="2.4247227609157562e-01" nType="-99"/>
        </Node>
        <Node pos="r" depth="1" NCoef="0" IVar="2" Cut="1.2205620117187500e+03" cType="1" res="2.3989448323845863e-02" rms="4.8275303840637207e-01" purity="5.3459227085113525e-01" nType="0">
          <Node pos="l" depth="2" NCoef="0" IVar="-1" Cut="0.0000000000000000e+00" cType="1" res="1.4798106858506799e-03" rms="4.7392004728317261e-01" purity="6.0861372947692871e-01" nType="-99"/>
          <Node pos="r" depth="2" NCoef="0" IVar="-1" Cut="0.0000000000000000e+00" cType="1" res="-6.4231501892209053e-04" rms="4.8328971862792969e-01" purity="4.4928991794586182e-01" nType="-99"/>
        </Node>
      </Node>
    </BinaryTree>
    <BinaryTree type="DecisionTree" boostWeight="1.0000000000000000e+00" itree="246">
      <Node pos="s" depth="0" NCoef="0" IVar="2" Cut="7.3909985351562500e+02" cType="1" res="4.8404866829514503e-03" rms="4.8298636078834534e-01" purity="5.1862460374832153e-01" nType="0">
        <Node pos="l" depth="1" NCoef="0" IVar="4" Cut="4.9845797729492188e+02" cType="1" res="9.4420433044433594e-02" rms="4.6839347481727600e-01" purity="6.3241773843765259e-01" nType="0">
          <Node pos="l" depth="2" NCoef="0" IVar="-1" Cut="0.0000000000000000e+00" cType="1" res="8.4810126281809062e-05" rms="4.8339554667472839e-01" purity="5.3281861543655396e-01" nType="-99"/>
          <Node pos="r" depth="2" NCoef="0" IVar="-1" Cut="0.0000000000000000e+00" cType="1" res="4.0217689238488674e-03" rms="4.3727979063987732e-01" purity="7.2700536251068115e-01" nType="-99"/>
        </Node>
        <Node pos="r" depth="1" NCoef="0" IVar="4" Cut="5.8765405273437500e+02" cType="1" res="-1.4864976517856121e-02" rms="4.8391768336296082e-01" purity="4.9359279870986938e-01" nType="0">
          <Node pos="l" depth="2" NCoef="0" IVar="-1" Cut="0.0000000000000000e+00" cType="1" res="-1.9757922273129225e-03" rms="4.4798868894577026e-01" purity="3.1620761752128601e-01" nType="-99"/>
          <Node pos="r" depth="2" NCoef="0" IVar="-1" Cut="0.0000000000000000e+00" cType="1" res="1.2711831368505955e-04" rms="4.8482623696327209e-01" purity="5.2022653818130493e-01" nType="-99"/>
        </Node>
      </Node>
    </BinaryTree>
    <BinaryTree type="DecisionTree" boostWeight="1.0000000000000000e+00" itree="247">
      <Node pos="s" depth="0" NCoef="0" IVar="0" Cut="1.9787944030761719e+02" cType="1" res="-1.0743473656475544e-02" rms="4.8254993557929993e-01" purity="5.0060933828353882e-01" nType="0">
        <Node pos="l" depth="1" NCoef="0" IVar="0" Cut="6.7914970397949219e+01" cType="1" res="2.2879794239997864e-02" rms="4.8278054594993591e-01" purity="5.5600649118423462e-01" nType="0">
          <Node pos="l" depth="2" NCoef="0" IVar="-1" Cut="0.0000000000000000e+00" cType="1" res="-1.3398639857769012e-03" rms="4.7368836402893066e-01" purity="3.7475228309631348e-01" nType="-99"/>
          <Node pos="r" depth="2" NCoef="0" IVar="-1" Cut="0.0000000000000000e+00" cType="1" res="7.2533224010840058e-04" rms="4.8084247112274170e-01" purity="5.8510190248489380e-01" nType="-99"/>
        </Node>
        <Node pos="r" depth="1" NCoef="0" IVar="4" Cut="7.7363238525390625e+02" cType="1" res="-6.7150719463825226e-02" rms="4.7686755657196045e-01" purity="4.0767383575439453e-01" nType="0">
          <Node pos="l" depth="2" NCoef="0" IVar="-1" Cut="0.0000000000000000e+00" cType="1" res="-1.7305841902270913e-03" rms="4.5186066627502441e-01" purity="3.2328426837921143e-01" nType="-99"/>
          <Node pos="r" depth="2" NCoef="0" IVar="-1" Cut="0.0000000000000000e+00" cType="1" res="1.4327700773719698e-04" rms="4.8658666014671326e-01" purity="4.8635190725326538e-01" nType="-99"/>
        </Node>
      </Node>
    </BinaryTree>
    <BinaryTree type="DecisionTree" boostWeight="1.0000000000000000e+00" itree="248">
      <Node pos="s" depth="0" NCoef="0" IVar="1" Cut="1.0241307067871094e+02" cType="1" res="-2.7116648852825165e-03" rms="4.8148182034492493e-01" purity="5.0962287187576294e-01" nType="0">
        <Node pos="l" depth="1" NCoef="0" IVar="-1" Cut="0.0000000000000000e+00" cType="1" res="-1.4868360012769699e-03" rms="4.5450159907341003e-01" purity="3.1842169165611267e-01" nType="-99"/>
        <Node pos="r" depth="1" NCoef="0" IVar="1" Cut="1.3547212219238281e+02" cType="1" res="9.0765496715903282e-03" rms="4.8220491409301758e-01" purity="5.2731913328170776e-01" nType="0">
          <Node pos="l" depth="2" NCoef="0" IVar="-1" Cut="0.0000000000000000e+00" cType="1" res="5.4822780657559633e-04" rms="4.8222166299819946e-01" purity="5.6940698623657227e-01" nType="-99"/>
          <Node pos="r" depth="2" NCoef="0" IVar="-1" Cut="0.0000000000000000e+00" cType="1" res="-1.0838132584467530e-03" rms="4.7047966718673706e-01" purity="3.6678177118301392e-01" nType="-99"/>
        </Node>
      </Node>
    </BinaryTree>
    <BinaryTree type="DecisionTree" boostWeight="1.0000000000000000e+00" itree="249">
      <Node pos="s" depth="0" NCoef="0" IVar="1" Cut="1.0791755676269531e+02" cType="1" res="-1.9452562555670738e-02" rms="4.8032936453819275e-01" purity="4.8902207612991333e-01" nType="0">
        <Node pos="l" depth="1" NCoef="0" IVar="1" Cut="9.9236846923828125e+01" cType="1" res="-1.1785186082124710e-01" rms="4.6103030443191528e-01" purity="3.4499701857566833e-01" nType="0">
          <Node pos="l" depth="2" NCoef="0" IVar="-1" Cut="0.0000000000000000e+00" cType="1" res="-1.7947375308722258e-03" rms="4.3950846791267395e-01" purity="2.7334380149841309e-01" nType="-99"/>
          <Node pos="r" depth="2" NCoef="0" IVar="-1" Cut="0.0000000000000000e+00" cType="1" res="-8.1934925401583314e-04" rms="4.8040118813514709e-01" purity="4.3444046378135681e-01" nType="-99"/>
        </Node>
        <Node pos="r" depth="1" NCoef="0" IVar="3" Cut="8.6761045455932617e-01" cType="1" res="-2.8043522033840418e-03" rms="4.8153367638587952e-01" purity="5.1338970661163330e-01" nType="0">
          <Node pos="l" depth="2" NCoef="0" IVar="-1" Cut="0.0000000000000000e+00" cType="1" res="-9.5373560907319188e-04" rms="4.7455641627311707e-01" purity="3.7549513578414917e-01" nType="-99"/>
          <Node pos="r" depth="2" NCoef="0" IVar="-1" Cut="0.0000000000000000e+00" cType="1" res="3.9731562719680369e-04" rms="4.8096436262130737e-01" purity="5.6032812595367432e-01" nType="-99"/>
        </Node>
      </Node>
    </BinaryTree>
    <BinaryTree type="DecisionTree" boostWeight="1.0000000000000000e+00" itree="250">
      <Node pos="s" depth="0" NCoef="0" IVar="0" Cut="3.2541662597656250e+02" cType="1" res="-1.5940034762024879e-02" rms="4.8114556074142456e-01" purity="4.9456477165222168e-01" nType="0">
        <Node pos="l" depth="1" NCoef="0" IVar="0" Cut="8.1413414001464844e+01" cType="1" res="4.3708260636776686e-04" rms="4.8184424638748169e-01" purity="5.2052497863769531e-01" nType="0">
          <Node pos="l" depth="2" NCoef="0" IVar="-1" Cut="0.0000000000000000e+00" cType="1" res="-1.4047891600057483e-03" rms="4.7069761157035828e-01" purity="3.7967336177825928e-01" nType="-99"/>
          <Node pos="r" depth="2" NCoef="0" IVar="-1" Cut="0.0000000000000000e+00" cType="1" res="3.7694000639021397e-04" rms="4.8075503110885620e-01" purity="5.4966217279434204e-01" nType="-99"/>
        </Node>
        <Node pos="r" depth="1" NCoef="0" IVar="0" Cut="4.3550283813476562e+02" cType="1" res="-1.0752641409635544e-01" rms="4.6674436330795288e-01" purity="3.4938651323318481e-01" nType="0">
          <Node pos="l" depth="2" NCoef="0" IVar="-1" Cut="0.0000000000000000e+00" cType="1" res="-9.0751016978174448e-04" rms="4.7345909476280212e-01" purity="3.8618347048759460e-01" nType="-99"/>
          <Node pos="r" depth="2" NCoef="0" IVar="-1" Cut="0.0000000000000000e+00" cType="1" res="-1.7443050164729357e-03" rms="4.5551392436027527e-01" purity="3.0773130059242249e-01" nType="-99"/>
        </Node>
      </Node>
    </BinaryTree>
    <BinaryTree type="DecisionTree" boostWeight="1.0000000000000000e+00" itree="251">
      <Node pos="s" depth="0" NCoef="0" IVar="1" Cut="1.3162062072753906e+02" cType="1" res="-8.1522027030587196e-03" rms="4.8074364662170410e-01" purity="5.0212806463241577e-01" nType="0">
        <Node pos="l" depth="1" NCoef="0" IVar="1" Cut="1.0841168975830078e+02" cType="1" res="2.0390564575791359e-02" rms="4.8109513521194458e-01" purity="5.4623651504516602e-01" nType="0">
          <Node pos="l" depth="2" NCoef="0" IVar="-1" Cut="0.0000000000000000e+00" cType="1" res="-1.1767122196033597e-03" rms="4.6954110264778137e-01" purity="3.7293657660484314e-01" nType="-99"/>
          <Node pos="r" depth="2" NCoef="0" IVar="-1" Cut="0.0000000000000000e+00" cType="1" res="8.0197450006380677e-04" rms="4.7982326149940491e-01" purity="5.8820658922195435e-01" nType="-99"/>
        </Node>
        <Node pos="r" depth="1" NCoef="0" IVar="3" Cut="8.7356019020080566e-01" cType="1" res="-8.2329563796520233e-02" rms="4.7182238101959229e-01" purity="3.8749846816062927e-01" nType="0">
          <Node pos="l" depth="2" NCoef="0" IVar="-1" Cut="0.0000000000000000e+00" cType="1" res="-1.6148246359080076e-03" rms="4.4147279858589172e-01" purity="2.7372309565544128e-01" nType="-99"/>
          <Node pos="r" depth="2" NCoef="0" IVar="-1" Cut="0.0000000000000000e+00" cType="1" res="-6.4432388171553612e-04" rms="4.8277708888053894e-01" purity="4.4590774178504944e-01" nType="-99"/>
        </Node>
      </Node>
    </BinaryTree>
    <BinaryTree type="DecisionTree" boostWeight="1.0000000000000000e+00" itree="252">
      <Node pos="s" depth="0" NCoef="0" IVar="4" Cut="6.3370471191406250e+02" cType="1" res="-2.6385176926851273e-02" rms="4.8358166217803955e-01" purity="4.8534590005874634e-01" nType="0">
        <Node pos="l" depth="1" NCoef="0" IVar="2" Cut="6.8819061279296875e+02" cType="1" res="-9.2605248093605042e-02" rms="4.7608798742294312e-01" purity="4.1973528265953064e-01" nType="0">
          <Node pos="l" depth="2" NCoef="0" IVar="-1" Cut="0.0000000000000000e+00" cType="1" res="5.3415575530380011e-04" rms="4.8334372043609619e-01" purity="5.7272559404373169e-01" nType="-99"/>
          <Node pos="r" depth="2" NCoef="0" IVar="-1" Cut="0.0000000000000000e+00" cType="1" res="-1.8824958242475986e-03" rms="4.5675051212310791e-01" purity="3.3117365837097168e-01" nType="-99"/>
        </Node>
        <Node pos="r" depth="1" NCoef="0" IVar="2" Cut="1.2784495849609375e+03" cType="1" res="1.0469119064509869e-02" rms="4.8379215598106384e-01" purity="5.2186095714569092e-01" nType="0">
          <Node pos="l" depth="2" NCoef="0" IVar="-1" Cut="0.0000000000000000e+00" cType="1" res="1.2837547110393643e-03" rms="4.7752672433853149e-01" purity="6.0026085376739502e-01" nType="-99"/>
          <Node pos="r" depth="2" NCoef="0" IVar="-1" Cut="0.0000000000000000e+00" cType="1" res="-8.3957065362483263e-04" rms="4.8095151782035828e-01" purity="4.3093383312225342e-01" nType="-99"/>
        </Node>
      </Node>
    </BinaryTree>
    <BinaryTree type="DecisionTree" boostWeight="1.0000000000000000e+00" itree="253">
      <Node pos="s" depth="0" NCoef="0" IVar="0" Cut="1.6511416625976562e+02" cType="1" res="-1.8528999760746956e-02" rms="4.8142239451408386e-01" purity="4.9291175603866577e-01" nType="0">
        <Node pos="l" depth="1" NCoef="0" IVar="0" Cut="9.0892547607421875e+01" cType="1" res="1.7804419621825218e-02" rms="4.8184257745742798e-01" purity="5.5191850662231445e-01" nType="0">
          <Node pos="l" depth="2" NCoef="0" IVar="-1" Cut="0.0000000000000000e+00" cType="1" res="-1.1646325001493096e-03" rms="4.7894239425659180e-01" purity="4.1393691301345825e-01" nType="-99"/>
          <Node pos="r" depth="2" NCoef="0" IVar="-1" Cut="0.0000000000000000e+00" cType="1" res="1.2910855002701283e-03" rms="4.7405141592025757e-01" purity="6.2139195203781128e-01" nType="-99"/>
        </Node>
        <Node pos="r" depth="1" NCoef="0" IVar="4" Cut="6.6006152343750000e+02" cType="1" res="-6.3631474971771240e-02" rms="4.7706615924835205e-01" purity="4.1966378688812256e-01" nType="0">
          <Node pos="l" depth="2" NCoef="0" IVar="-1" Cut="0.0000000000000000e+00" cType="1" res="-1.5814437065273523e-03" rms="4.5749008655548096e-01" purity="3.4888097643852234e-01" nType="-99"/>
          <Node pos="r" depth="2" NCoef="0" IVar="-1" Cut="0.0000000000000000e+00" cType="1" res="-4.8582037561573088e-04" rms="4.8230868577957153e-01" purity="4.4978332519531250e-01" nType="-99"/>
        </Node>
      </Node>
    </BinaryTree>
    <BinaryTree type="DecisionTree" boostWeight="1.0000000000000000e+00" itree="254">
      <Node pos="s" depth="0" NCoef="0" IVar="0" Cut="6.6812438964843750e+01" cType="1" res="-2.3385895416140556e-02" rms="4.8081678152084351e-01" purity="4.8660677671432495e-01" nType="0">
        <Node pos="l" depth="1" NCoef="0" IVar="-1" Cut="0.0000000000000000e+00" cType="1" res="-1.9494942389428616e-03" rms="4.4187149405479431e-01" purity="2.9469004273414612e-01" nType="-99"/>
        <Node pos="r" depth="1" NCoef="0" IVar="1" Cut="1.0333511352539062e+02" cType="1" res="-5.3842863999307156e-03" rms="4.8196744918823242e-01" purity="5.0905239582061768e-01" nType="0">
          <Node pos="l" depth="2" NCoef="0" IVar="-1" Cut="0.0000000000000000e+00" cType="1" res="-1.4012674801051617e-03" rms="4.6032518148422241e-01" purity="3.3188569545745850e-01" nType="-99"/>
          <Node pos="r" depth="2" NCoef="0" IVar="-1" Cut="0.0000000000000000e+00" cType="1" res="8.6809712229296565e-05" rms="4.8268294334411621e-01" purity="5.2679753303527832e-01" nType="-99"/>
        </Node>
      </Node>
    </BinaryTree>
    <BinaryTree type="DecisionTree" boostWeight="1.0000000000000000e+00" itree="255">
      <Node pos="s" depth="0" NCoef="0" IVar="0" Cut="6.7124916076660156e+01" cType="1" res="-3.2511159777641296e-02" rms="4.8286622762680054e-01" purity="4.7962403297424316e-01" nType="0">
        <Node pos="l" depth="1" NCoef="0" IVar="-1" Cut="0.0000000000000000e+00" cType="1" res="-1.8085445044562221e-03" rms="4.6094417572021484e-01" purity="3.2647952437400818e-01" nType="-99"/>
        <Node pos="r" depth="1" NCoef="0" IVar="3" Cut="8.7079077959060669e-01" cType="1" res="-2.0860666409134865e-02" rms="4.8325541615486145e-01" purity="4.9406570196151733e-01" nType="0">
          <Node pos="l" depth="2" NCoef="0" IVar="-1" Cut="0.0000000000000000e+00" cType="1" res="-1.0395661229267716e-03" rms="4.7354423999786377e-01" purity="3.6781010031700134e-01" nType="-99"/>
          <Node pos="r" depth="2" NCoef="0" IVar="-1" Cut="0.0000000000000000e+00" cType="1" res="5.2535560826072469e-05" rms="4.8453971743583679e-01" purity="5.4037511348724365e-01" nType="-99"/>
        </Node>
      </Node>
    </BinaryTree>
    <BinaryTree type="DecisionTree" boostWeight="1.0000000000000000e+00" itree="256">
      <Node pos="s" depth="0" NCoef="0" IVar="0" Cut="6.7829383850097656e+01" cType="1" res="9.5690768212080002e-03" rms="4.8127651214599609e-01" purity="5.2052265405654907e-01" nType="0">
        <Node pos="l" depth="1" NCoef="0" IVar="-1" Cut="0.0000000000000000e+00" cType="1" res="-1.5215292805805802e-03" rms="4.5749327540397644e-01" purity="3.4484314918518066e-01" nType="-99"/>
        <Node pos="r" depth="1" NCoef="0" IVar="2" Cut="7.0959259033203125e+02" cType="1" res="2.4995515123009682e-02" rms="4.8137739300727844e-01" purity="5.4002612829208374e-01" nType="0">
          <Node pos="l" depth="2" NCoef="0" IVar="-1" Cut="0.0000000000000000e+00" cType="1" res="3.4716750960797071e-03" rms="4.4782945513725281e-01" purity="7.0689684152603149e-01" nType="-99"/>
          <Node pos="r" depth="2" NCoef="0" IVar="-1" Cut="0.0000000000000000e+00" cType="1" res="8.6127663962543011e-05" rms="4.8307850956916809e-01" purity="5.1556932926177979e-01" nType="-99"/>
        </Node>
      </Node>
    </BinaryTree>
    <BinaryTree type="DecisionTree" boostWeight="1.0000000000000000e+00" itree="257">
      <Node pos="s" depth="0" NCoef="0" IVar="3" Cut="9.3988490104675293e-01" cType="1" res="-5.1162838935852051e-03" rms="4.8080983757972717e-01" purity="5.0504076480865479e-01" nType="0">
        <Node pos="l" depth="1" NCoef="0" IVar="0" Cut="3.2591159057617188e+02" cType="1" res="-2.5222601369023323e-02" rms="4.8493176698684692e-01" purity="4.6670180559158325e-01" nType="0">
          <Node pos="l" depth="2" NCoef="0" IVar="-1" Cut="0.0000000000000000e+00" cType="1" res="-8.9132176071871072e-05" rms="4.8761495947837830e-01" purity="4.9536168575286865e-01" nType="-99"/>
          <Node pos="r" depth="2" NCoef="0" IVar="-1" Cut="0.0000000000000000e+00" cType="1" res="-1.3702923897653818e-03" rms="4.5943394303321838e-01" purity="3.2253816723823547e-01" nType="-99"/>
        </Node>
        <Node pos="r" depth="1" NCoef="0" IVar="4" Cut="7.3632800292968750e+02" cType="1" res="9.0402863919734955e-02" rms="4.4857823848724365e-01" purity="6.8717801570892334e-01" nType="0">
          <Node pos="l" depth="2" NCoef="0" IVar="-1" Cut="0.0000000000000000e+00" cType="1" res="6.6928280284628272e-04" rms="4.6365696191787720e-01" purity="6.3620370626449585e-01" nType="-99"/>
          <Node pos="r" depth="2" NCoef="0" IVar="-1" Cut="0.0000000000000000e+00" cType="1" res="3.9097238332033157e-03" rms="4.2206171154975891e-01" purity="7.4406921863555908e-01" nType="-99"/>
        </Node>
      </Node>
    </BinaryTree>
    <BinaryTree type="DecisionTree" boostWeight="1.0000000000000000e+00" itree="258">
      <Node pos="s" depth="0" NCoef="0" IVar="0" Cut="2.8719509887695312e+02" cType="1" res="-1.9047990441322327e-02" rms="4.8025491833686829e-01" purity="4.8932704329490662e-01" nType="0">
        <Node pos="l" depth="1" NCoef="0" IVar="0" Cut="8.8163963317871094e+01" cType="1" res="3.7643017712980509e-03" rms="4.8202964663505554e-01" purity="5.2522295713424683e-01" nType="0">
          <Node pos="l" depth="2" NCoef="0" IVar="-1" Cut="0.0000000000000000e+00" cType="1" res="-1.1309259571135044e-03" rms="4.7621509432792664e-01" purity="4.0846490859985352e-01" nType="-99"/>
          <Node pos="r" depth="2" NCoef="0" IVar="-1" Cut="0.0000000000000000e+00" cType="1" res="4.7840800834819674e-04" rms="4.8049390316009521e-01" purity="5.5884373188018799e-01" nType="-99"/>
        </Node>
        <Node pos="r" depth="1" NCoef="0" IVar="1" Cut="1.2815995788574219e+02" cType="1" res="-1.0980591177940369e-01" rms="4.6210712194442749e-01" purity="3.4651631116867065e-01" nType="0">
          <Node pos="l" depth="2" NCoef="0" IVar="-1" Cut="0.0000000000000000e+00" cType="1" res="-9.7169156651943922e-04" rms="4.7498288750648499e-01" purity="3.9330580830574036e-01" nType="-99"/>
          <Node pos="r" depth="2" NCoef="0" IVar="-1" Cut="0.0000000000000000e+00" cType="1" res="-1.7599925631657243e-03" rms="4.3995264172554016e-01" purity="2.8180429339408875e-01" nType="-99"/>
        </Node>
      </Node>
    </BinaryTree>
    <BinaryTree type="DecisionTree" boostWeight="1.0000000000000000e+00" itree="259">
      <Node pos="s" depth="0" NCoef="0" IVar="5" Cut="8.0725443363189697e-01" cType="1" res="-1.3170340098440647e-02" rms="4.8385170102119446e-01" purity="4.9932792782783508e-01" nType="0">
        <Node pos="l" depth="1" NCoef="0" IVar="0" Cut="6.6752571105957031e+01" cType="1" res="-2.8612649068236351e-02" rms="4.8374465107917786e-01" purity="4.8078167438507080e-01" nType="0">
          <Node pos="l" depth="2" NCoef="0" IVar="-1" Cut="0.0000000000000000e+00" cType="1" res="-1.6197712393477559e-03" rms="4.6326255798339844e-01" purity="3.3959206938743591e-01" nType="-99"/>
          <Node pos="r" depth="2" NCoef="0" IVar="-1" Cut="0.0000000000000000e+00" cType="1" res="-2.4725284310989082e-04" rms="4.8461908102035522e-01" purity="4.9705362319946289e-01" nType="-99"/>
        </Node>
        <Node pos="r" depth="1" NCoef="0" IVar="0" Cut="1.6033746337890625e+02" cType="1" res="9.4549663364887238e-02" rms="4.7071018815040588e-01" purity="6.2869989871978760e-01" nType="0">
          <Node pos="l" depth="2" NCoef="0" IVar="-1" Cut="0.0000000000000000e+00" cType="1" res="3.7225855048745871e-03" rms="4.3407702445983887e-01" purity="7.2522854804992676e-01" nType="-99"/>
          <Node pos="r" depth="2" NCoef="0" IVar="-1" Cut="0.0000000000000000e+00" cType="1" res="6.0121266869828105e-04" rms="4.9091210961341858e-01" purity="5.4948914051055908e-01" nType="-99"/>
        </Node>
      </Node>
    </BinaryTree>
    <BinaryTree type="DecisionTree" boostWeight="1.0000000000000000e+00" itree="260">
      <Node pos="s" depth="0" NCoef="0" IVar="1" Cut="1.0791755676269531e+02" cType="1" res="-1.0867371223866940e-02" rms="4.8130419850349426e-01" purity="4.9948573112487793e-01" nType="0">
        <Node pos="l" depth="1" NCoef="0" IVar="2" Cut="1.0411120605468750e+03" cType="1" res="-1.1703345924615860e-01" rms="4.6803104877471924e-01" purity="3.5259693861007690e-01" nType="0">
          <Node pos="l" depth="2" NCoef="0" IVar="-1" Cut="0.0000000000000000e+00" cType="1" res="-8.0257322406396270e-04" rms="4.7376134991645813e-01" purity="4.1221538186073303e-01" nType="-99"/>
          <Node pos="r" depth="2" NCoef="0" IVar="-1" Cut="0.0000000000000000e+00" cType="1" res="-1.8043769523501396e-03" rms="4.5909574627876282e-01" purity="3.0802851915359497e-01" nType="-99"/>
        </Node>
        <Node pos="r" depth="1" NCoef="0" IVar="1" Cut="1.2818295288085938e+02" cType="1" res="6.7958803847432137e-03" rms="4.8120984435081482e-01" purity="5.2392417192459106e-01" nType="0">
          <Node pos="l" depth="2" NCoef="0" IVar="-1" Cut="0.0000000000000000e+00" cType="1" res="9.4709277618676424e-04" rms="4.7712358832359314e-01" purity="5.9559571743011475e-01" nType="-99"/>
          <Node pos="r" depth="2" NCoef="0" IVar="-1" Cut="0.0000000000000000e+00" cType="1" res="-7.8637921251356602e-04" rms="4.7872310876846313e-01" purity="4.2836534976959229e-01" nType="-99"/>
        </Node>
      </Node>
    </BinaryTree>
    <BinaryTree type="DecisionTree" boostWeight="1.0000000000000000e+00" itree="261">
      <Node pos="s" depth="0" NCoef="0" IVar="3" Cut="8.9316415786743164e-01" cType="1" res="-2.5089259725064039e-03" rms="4.8097568750381470e-01" purity="5.0848096609115601e-01" nType="0">
        <Node pos="l" depth="1" NCoef="0" IVar="4" Cut="5.6880126953125000e+02" cType="1" res="-4.2358063161373138e-02" rms="4.8506703972816467e-01" purity="4.1814541816711426e-01" nType="0">
          <Node pos="l" depth="2" NCoef="0" IVar="-1" Cut="0.0000000000000000e+00" cType="1" res="-1.2952153338119388e-03" rms="4.6740978956222534e-01" purity="3.4775415062904358e-01" nType="-99"/>
          <Node pos="r" depth="2" NCoef="0" IVar="-1" Cut="0.0000000000000000e+00" cType="1" res="-2.4692394072189927e-04" rms="4.8870500922203064e-01" purity="4.4214567542076111e-01" nType="-99"/>
        </Node>
        <Node pos="r" depth="1" NCoef="0" IVar="0" Cut="8.3324722290039062e+01" cType="1" res="3.7233956158161163e-02" rms="4.7353193163871765e-01" purity="5.9857565164566040e-01" nType="0">
          <Node pos="l" depth="2" NCoef="0" IVar="-1" Cut="0.0000000000000000e+00" cType="1" res="-1.3585995184257627e-03" rms="4.8261156678199768e-01" purity="4.4333541393280029e-01" nType="-99"/>
          <Node pos="r" depth="2" NCoef="0" IVar="-1" Cut="0.0000000000000000e+00" cType="1" res="1.2033527018502355e-03" rms="4.6712392568588257e-01" purity="6.2954044342041016e-01" nType="-99"/>
        </Node>
      </Node>
    </BinaryTree>
    <BinaryTree type="DecisionTree" boostWeight="1.0000000000000000e+00" itree="262">
      <Node pos="s" depth="0" NCoef="0" IVar="1" Cut="1.3411058044433594e+02" cType="1" res="-9.8822992295026779e-03" rms="4.8016950488090515e-01" purity="4.9951243400573730e-01" nType="0">
        <Node pos="l" depth="1" NCoef="0" IVar="1" Cut="9.9707031250000000e+01" cType="1" res="1.2128850445151329e-02" rms="4.7952443361282349e-01" purity="5.3605854511260986e-01" nType="0">
          <Node pos="l" depth="2" NCoef="0" IVar="-1" Cut="0.0000000000000000e+00" cType="1" res="-1.4678087318316102e-03" rms="4.4762271642684937e-01" purity="2.9994890093803406e-01" nType="-99"/>
          <Node pos="r" depth="2" NCoef="0" IVar="-1" Cut="0.0000000000000000e+00" cType="1" res="4.7394333523698151e-04" rms="4.8035475611686707e-01" purity="5.6369465589523315e-01" nType="-99"/>
        </Node>
        <Node pos="r" depth="1" NCoef="0" IVar="4" Cut="8.7050073242187500e+02" cType="1" res="-8.5058771073818207e-02" rms="4.7473242878913879e-01" purity="3.7469357252120972e-01" nType="0">
          <Node pos="l" depth="2" NCoef="0" IVar="-1" Cut="0.0000000000000000e+00" cType="1" res="-1.5371560584753752e-03" rms="4.6297141909599304e-01" purity="3.3808010816574097e-01" nType="-99"/>
          <Node pos="r" depth="2" NCoef="0" IVar="-1" Cut="0.0000000000000000e+00" cType="1" res="-1.3412669068202376e-04" rms="4.8758721351623535e-01" purity="4.4459429383277893e-01" nType="-99"/>
        </Node>
      </Node>
    </BinaryTree>
    <BinaryTree type="DecisionTree" boostWeight="1.0000000000000000e+00" itree="263">
      <Node pos="s" depth="0" NCoef="0" IVar="3" Cut="8.7079077959060669e-01" cType="1" res="2.1072048693895340e-03" rms="4.8024648427963257e-01" purity="5.1207816600799561e-01" nType="0">
        <Node pos="l" depth="1" NCoef="0" IVar="4" Cut="8.4203503417968750e+02" cType="1" res="-7.3699712753295898e-02" rms="4.7501352429389954e-01" purity="3.7608608603477478e-01" nType="0">
          <Node pos="l" depth="2" NCoef="0" IVar="-1" Cut="0.0000000000000000e+00" cType="1" res="-1.2718616053462029e-03" rms="4.6446883678436279e-01" purity="3.4072983264923096e-01" nType="-99"/>
          <Node pos="r" depth="2" NCoef="0" IVar="-1" Cut="0.0000000000000000e+00" cType="1" res="1.1507584713399410e-04" rms="4.8905292153358459e-01" purity="4.5896062254905701e-01" nType="-99"/>
        </Node>
        <Node pos="r" depth="1" NCoef="0" IVar="4" Cut="4.7788293457031250e+02" cType="1" res="3.2970197498798370e-02" rms="4.7893598675727844e-01" purity="5.6744420528411865e-01" nType="0">
          <Node pos="l" depth="2" NCoef="0" IVar="-1" Cut="0.0000000000000000e+00" cType="1" res="-1.4566112076863647e-03" rms="4.7828328609466553e-01" purity="4.3187367916107178e-01" nType="-99"/>
          <Node pos="r" depth="2" NCoef="0" IVar="-1" Cut="0.0000000000000000e+00" cType="1" res="8.2509970525279641e-04" rms="4.7665899991989136e-01" purity="5.8147060871124268e-01" nType="-99"/>
        </Node>
      </Node>
    </BinaryTree>
    <BinaryTree type="DecisionTree" boostWeight="1.0000000000000000e+00" itree="264">
      <Node pos="s" depth="0" NCoef="0" IVar="1" Cut="1.4281646728515625e+02" cType="1" res="-8.6996294558048248e-03" rms="4.8008280992507935e-01" purity="5.0219273567199707e-01" nType="0">
        <Node pos="l" depth="1" NCoef="0" IVar="3" Cut="9.4111400842666626e-01" cType="1" res="5.7964501902461052e-03" rms="4.8270931839942932e-01" purity="5.2895075082778931e-01" nType="0">
          <Node pos="l" depth="2" NCoef="0" IVar="-1" Cut="0.0000000000000000e+00" cType="1" res="-1.9290957425255328e-04" rms="4.8814526200294495e-01" purity="4.9004235863685608e-01" nType="-99"/>
          <Node pos="r" depth="2" NCoef="0" IVar="-1" Cut="0.0000000000000000e+00" cType="1" res="2.2317527327686548e-03" rms="4.4651371240615845e-01" purity="7.0644015073776245e-01" nType="-99"/>
        </Node>
        <Node pos="r" depth="1" NCoef="0" IVar="-1" Cut="0.0000000000000000e+00" cType="1" res="-1.4450729358941317e-03" rms="4.4157117605209351e-01" purity="2.8753978013992310e-01" nType="-99"/>
      </Node>
    </BinaryTree>
    <BinaryTree type="DecisionTree" boostWeight="1.0000000000000000e+00" itree="265">
      <Node pos="s" depth="0" NCoef="0" IVar="3" Cut="8.9618039131164551e-01" cType="1" res="-1.1637017130851746e-02" rms="4.8107179999351501e-01" purity="5.0081390142440796e-01" nType="0">
        <Node pos="l" depth="1" NCoef="0" IVar="2" Cut="7.0959259033203125e+02" cType="1" res="-4.5852456241846085e-02" rms="4.8325163125991821e-01" purity="4.1583099961280823e-01" nType="0">
          <Node pos="l" depth="2" NCoef="0" IVar="-1" Cut="0.0000000000000000e+00" cType="1" res="5.2921206224709749e-04" rms="4.9183583259582520e-01" purity="5.1565551757812500e-01" nType="-99"/>
          <Node pos="r" depth="2" NCoef="0" IVar="-1" Cut="0.0000000000000000e+00" cType="1" res="-7.3605665238574147e-04" rms="4.8043379187583923e-01" purity="3.9907899498939514e-01" nType="-99"/>
        </Node>
        <Node pos="r" depth="1" NCoef="0" IVar="1" Cut="1.3773411560058594e+02" cType="1" res="2.5158768519759178e-02" rms="4.7597959637641907e-01" purity="5.9220576286315918e-01" nType="0">
          <Node pos="l" depth="2" NCoef="0" IVar="-1" Cut="0.0000000000000000e+00" cType="1" res="8.2220311742275953e-04" rms="4.7324723005294800e-01" purity="6.2509876489639282e-01" nType="-99"/>
          <Node pos="r" depth="2" NCoef="0" IVar="-1" Cut="0.0000000000000000e+00" cType="1" res="-1.1054441565647721e-03" rms="4.7783470153808594e-01" purity="4.0319505333900452e-01" nType="-99"/>
        </Node>
      </Node>
    </BinaryTree>
    <BinaryTree type="DecisionTree" boostWeight="1.0000000000000000e+00" itree="266">
      <Node pos="s" depth="0" NCoef="0" IVar="3" Cut="8.7394762039184570e-01" cType="1" res="-1.7013358883559704e-03" rms="4.7988021373748779e-01" purity="5.0898098945617676e-01" nType="0">
        <Node pos="l" depth="1" NCoef="0" IVar="5" Cut="6.4279973506927490e-01" cType="1" res="-7.5713798403739929e-02" rms="4.7524917125701904e-01" purity="3.7644675374031067e-01" nType="0">
          <Node pos="l" depth="2" NCoef="0" IVar="-1" Cut="0.0000000000000000e+00" cType="1" res="-1.2452908558771014e-03" rms="4.6601930260658264e-01" purity="3.4248295426368713e-01" nType="-99"/>
          <Node pos="r" depth="2" NCoef="0" IVar="-1" Cut="0.0000000000000000e+00" cType="1" res="4.0290696779266000e-04" rms="4.8850622773170471e-01" purity="4.8367294669151306e-01" nType="-99"/>
        </Node>
        <Node pos="r" depth="1" NCoef="0" IVar="1" Cut="1.0571103668212891e+02" cType="1" res="3.2824221998453140e-02" rms="4.7812241315841675e-01" purity="5.7080596685409546e-01" nType="0">
          <Node pos="l" depth="2" NCoef="0" IVar="-1" Cut="0.0000000000000000e+00" cType="1" res="-1.1821920052170753e-03" rms="4.7559952735900879e-01" purity="3.9309972524642944e-01" nType="-99"/>
          <Node pos="r" depth="2" NCoef="0" IVar="-1" Cut="0.0000000000000000e+00" cType="1" res="8.3897792501375079e-04" rms="4.7629821300506592e-01" purity="5.9283024072647095e-01" nType="-99"/>
        </Node>
      </Node>
    </BinaryTree>
    <BinaryTree type="DecisionTree" boostWeight="1.0000000000000000e+00" itree="267">
      <Node pos="s" depth="0" NCoef="0" IVar="4" Cut="6.6723095703125000e+02" cType="1" res="-2.0407112315297127e-02" rms="4.8121932148933411e-01" purity="4.8953917622566223e-01" nType="0">
        <Node pos="l" depth="1" NCoef="0" IVar="2" Cut="7.3197930908203125e+02" cType="1" res="-7.0228882133960724e-02" rms="4.7814905643463135e-01" purity="4.4099453091621399e-01" nType="0">
          <Node pos="l" depth="2" NCoef="0" IVar="-1" Cut="0.0000000000000000e+00" cType="1" res="5.6921341456472874e-04" rms="4.8101654648780823e-01" purity="5.7028669118881226e-01" nType="-99"/>
          <Node pos="r" depth="2" NCoef="0" IVar="-1" Cut="0.0000000000000000e+00" cType="1" res="-1.8085754709318280e-03" rms="4.5932617783546448e-01" purity="3.3881360292434692e-01" nType="-99"/>
        </Node>
        <Node pos="r" depth="1" NCoef="0" IVar="2" Cut="1.3985797119140625e+03" cType="1" res="1.6558395698666573e-02" rms="4.8015555739402771e-01" purity="5.2555710077285767e-01" nType="0">
          <Node pos="l" depth="2" NCoef="0" IVar="-1" Cut="0.0000000000000000e+00" cType="1" res="9.4155961414799094e-04" rms="4.7825992107391357e-01" purity="5.8056765794754028e-01" nType="-99"/>
          <Node pos="r" depth="2" NCoef="0" IVar="-1" Cut="0.0000000000000000e+00" cType="1" res="-6.3938443781808019e-04" rms="4.7612318396568298e-01" purity="4.3562820553779602e-01" nType="-99"/>
        </Node>
      </Node>
    </BinaryTree>
    <BinaryTree type="DecisionTree" boostWeight="1.0000000000000000e+00" itree="268">
      <Node pos="s" depth="0" NCoef="0" IVar="0" Cut="6.6482437133789062e+01" cType="1" res="-1.8984325230121613e-02" rms="4.8107945919036865e-01" purity="4.9247524142265320e-01" nType="0">
        <Node pos="l" depth="1" NCoef="0" IVar="-1" Cut="0.0000000000000000e+00" cType="1" res="-1.9711556378751993e-03" rms="4.5231360197067261e-01" purity="3.0489900708198547e-01" nType="-99"/>
        <Node pos="r" depth="1" NCoef="0" IVar="0" Cut="1.9308428955078125e+02" cType="1" res="-3.5797997843474150e-03" rms="4.8110949993133545e-01" purity="5.1106375455856323e-01" nType="0">
          <Node pos="l" depth="2" NCoef="0" IVar="-1" Cut="0.0000000000000000e+00" cType="1" res="6.3445384148508310e-04" rms="4.8094478249549866e-01" purity="5.8342462778091431e-01" nType="-99"/>
          <Node pos="r" depth="2" NCoef="0" IVar="-1" Cut="0.0000000000000000e+00" cType="1" res="-8.0309779150411487e-04" rms="4.7542625665664673e-01" purity="4.1241070628166199e-01" nType="-99"/>
        </Node>
      </Node>
    </BinaryTree>
    <BinaryTree type="DecisionTree" boostWeight="1.0000000000000000e+00" itree="269">
      <Node pos="s" depth="0" NCoef="0" IVar="3" Cut="9.3776643276214600e-01" cType="1" res="-2.4262061342597008e-03" rms="4.8209971189498901e-01" purity="5.1076459884643555e-01" nType="0">
        <Node pos="l" depth="1" NCoef="0" IVar="1" Cut="1.0704996490478516e+02" cType="1" res="-2.3424986749887466e-02" rms="4.8676314949989319e-01" purity="4.6900895237922668e-01" nType="0">
          <Node pos="l" depth="2" NCoef="0" IVar="-1" Cut="0.0000000000000000e+00" cType="1" res="-1.2441131984815001e-03" rms="4.6221762895584106e-01" purity="3.3237472176551819e-01" nType="-99"/>
          <Node pos="r" depth="2" NCoef="0" IVar="-1" Cut="0.0000000000000000e+00" cType="1" res="-1.3465664233081043e-04" rms="4.8922377824783325e-01" purity="4.9127259850502014e-01" nType="-99"/>
        </Node>
        <Node pos="r" depth="1" NCoef="0" IVar="4" Cut="6.9353051757812500e+02" cType="1" res="8.8429011404514313e-02" rms="4.5023164153099060e-01" purity="6.9142824411392212e-01" nType="0">
          <Node pos="l" depth="2" NCoef="0" IVar="-1" Cut="0.0000000000000000e+00" cType="1" res="-6.3442705140914768e-05" rms="4.7383359074592590e-01" purity="6.0246831178665161e-01" nType="-99"/>
          <Node pos="r" depth="2" NCoef="0" IVar="-1" Cut="0.0000000000000000e+00" cType="1" res="4.7264085151255131e-03" rms="4.0827512741088867e-01" purity="7.7534651756286621e-01" nType="-99"/>
        </Node>
      </Node>
    </BinaryTree>
    <BinaryTree type="DecisionTree" boostWeight="1.0000000000000000e+00" itree="270">
      <Node pos="s" depth="0" NCoef="0" IVar="2" Cut="1.3070635986328125e+03" cType="1" res="-1.3524070382118225e-02" rms="4.8170536756515503e-01" purity="4.9810877442359924e-01" nType="0">
        <Node pos="l" depth="1" NCoef="0" IVar="4" Cut="8.8075170898437500e+02" cType="1" res="1.4161066152155399e-02" rms="4.8081585764884949e-01" purity="5.3388786315917969e-01" nType="0">
          <Node pos="l" depth="2" NCoef="0" IVar="-1" Cut="0.0000000000000000e+00" cType="1" res="-7.3847804742399603e-05" rms="4.8125007748603821e-01" purity="5.1298737525939941e-01" nType="-99"/>
          <Node pos="r" depth="2" NCoef="0" IVar="-1" Cut="0.0000000000000000e+00" cType="1" res="3.8003041408956051e-03" rms="4.4556221365928650e-01" purity="7.0955443382263184e-01" nType="-99"/>
        </Node>
        <Node pos="r" depth="1" NCoef="0" IVar="4" Cut="9.0741033935546875e+02" cType="1" res="-8.2127630710601807e-02" rms="4.7702825069427490e-01" purity="4.0944853425025940e-01" nType="0">
          <Node pos="l" depth="2" NCoef="0" IVar="-1" Cut="0.0000000000000000e+00" cType="1" res="-2.2709262557327747e-03" rms="4.3882387876510620e-01" purity="2.8946533799171448e-01" nType="-99"/>
          <Node pos="r" depth="2" NCoef="0" IVar="-1" Cut="0.0000000000000000e+00" cType="1" res="-5.8900419389829040e-04" rms="4.8362225294113159e-01" purity="4.5176792144775391e-01" nType="-99"/>
        </Node>
      </Node>
    </BinaryTree>
    <BinaryTree type="DecisionTree" boostWeight="1.0000000000000000e+00" itree="271">
      <Node pos="s" depth="0" NCoef="0" IVar="2" Cut="6.9223754882812500e+02" cType="1" res="2.9359848704189062e-03" rms="4.8014876246452332e-01" purity="5.1411920785903931e-01" nType="0">
        <Node pos="l" depth="1" NCoef="0" IVar="0" Cut="1.1186789703369141e+02" cType="1" res="1.1376243829727173e-01" rms="4.6414572000503540e-01" purity="6.5687012672424316e-01" nType="0">
          <Node pos="l" depth="2" NCoef="0" IVar="-1" Cut="0.0000000000000000e+00" cType="1" res="3.9174025878310204e-03" rms="4.4442290067672729e-01" purity="7.1374845504760742e-01" nType="-99"/>
          <Node pos="r" depth="2" NCoef="0" IVar="-1" Cut="0.0000000000000000e+00" cType="1" res="9.5146440435200930e-04" rms="4.7437199950218201e-01" purity="6.0349780321121216e-01" nType="-99"/>
        </Node>
        <Node pos="r" depth="1" NCoef="0" IVar="4" Cut="5.7244708251953125e+02" cType="1" res="-1.3892159797251225e-02" rms="4.8030117154121399e-01" purity="4.9244356155395508e-01" nType="0">
          <Node pos="l" depth="2" NCoef="0" IVar="-1" Cut="0.0000000000000000e+00" cType="1" res="-1.7791604623198509e-03" rms="4.5187658071517944e-01" purity="3.3009043335914612e-01" nType="-99"/>
          <Node pos="r" depth="2" NCoef="0" IVar="-1" Cut="0.0000000000000000e+00" cType="1" res="1.2236110342200845e-04" rms="4.8099938035011292e-01" purity="5.1810181140899658e-01" nType="-99"/>
        </Node>
      </Node>
    </BinaryTree>
    <BinaryTree type="DecisionTree" boostWeight="1.0000000000000000e+00" itree="272">
      <Node pos="s" depth="0" NCoef="0" IVar="1" Cut="1.3520416259765625e+02" cType="1" res="2.7985493652522564e-03" rms="4.8062106966972351e-01" purity="5.1401627063751221e-01" nType="0">
        <Node pos="l" depth="1" NCoef="0" IVar="3" Cut="9.6160769462585449e-01" cType="1" res="2.9699627310037613e-02" rms="4.8116236925125122e-01" purity="5.5737918615341187e-01" nType="0">
          <Node pos="l" depth="2" NCoef="0" IVar="-1" Cut="0.0000000000000000e+00" cType="1" res="2.2716917737852782e-04" rms="4.8702287673950195e-01" purity="5.3326803445816040e-01" nType="-99"/>
          <Node pos="r" depth="2" NCoef="0" IVar="-1" Cut="0.0000000000000000e+00" cType="1" res="6.1246678233146667e-03" rms="3.7500834465026855e-01" purity="8.2051110267639160e-01" nType="-99"/>
        </Node>
        <Node pos="r" depth="1" NCoef="0" IVar="4" Cut="8.7646343994140625e+02" cType="1" res="-9.9328644573688507e-02" rms="4.6458896994590759e-01" purity="3.4939342737197876e-01" nType="0">
          <Node pos="l" depth="2" NCoef="0" IVar="-1" Cut="0.0000000000000000e+00" cType="1" res="-1.5206992393359542e-03" rms="4.5029297471046448e-01" purity="3.1986793875694275e-01" nType="-99"/>
          <Node pos="r" depth="2" NCoef="0" IVar="-1" Cut="0.0000000000000000e+00" cType="1" res="-5.2242458332329988e-04" rms="4.8607769608497620e-01" purity="4.0784528851509094e-01" nType="-99"/>
        </Node>
      </Node>
    </BinaryTree>
    <BinaryTree type="DecisionTree" boostWeight="1.0000000000000000e+00" itree="273">
      <Node pos="s" depth="0" NCoef="0" IVar="2" Cut="7.2851306152343750e+02" cType="1" res="-1.1203837580978870e-02" rms="4.8128965497016907e-01" purity="4.9953210353851318e-01" nType="0">
        <Node pos="l" depth="1" NCoef="0" IVar="4" Cut="5.2287011718750000e+02" cType="1" res="7.6687470078468323e-02" rms="4.7191825509071350e-01" purity="6.1810636520385742e-01" nType="0">
          <Node pos="l" depth="2" NCoef="0" IVar="-1" Cut="0.0000000000000000e+00" cType="1" res="7.2676535637583584e-05" rms="4.8558232188224792e-01" purity="5.3982478380203247e-01" nType="-99"/>
          <Node pos="r" depth="2" NCoef="0" IVar="-1" Cut="0.0000000000000000e+00" cType="1" res="4.6076280996203423e-03" rms="4.2317262291908264e-01" purity="7.4580830335617065e-01" nType="-99"/>
        </Node>
        <Node pos="r" depth="1" NCoef="0" IVar="4" Cut="6.6747241210937500e+02" cType="1" res="-2.8592068701982498e-02" rms="4.8122382164001465e-01" purity="4.7607359290122986e-01" nType="0">
          <Node pos="l" depth="2" NCoef="0" IVar="-1" Cut="0.0000000000000000e+00" cType="1" res="-1.3649726752191782e-03" rms="4.6540111303329468e-01" purity="3.7243089079856873e-01" nType="-99"/>
          <Node pos="r" depth="2" NCoef="0" IVar="-1" Cut="0.0000000000000000e+00" cType="1" res="6.0694677813444287e-05" rms="4.8333165049552917e-01" purity="5.1643019914627075e-01" nType="-99"/>
        </Node>
      </Node>
    </BinaryTree>
    <BinaryTree type="DecisionTree" boostWeight="1.0000000000000000e+00" itree="274">
      <Node pos="s" depth="0" NCoef="0" IVar="4" Cut="5.4047155761718750e+02" cType="1" res="-1.5184576623141766e-02" rms="4.8070099949836731e-01" purity="4.9571856856346130e-01" nType="0">
        <Node pos="l" depth="1" NCoef="0" IVar="2" Cut="5.9724975585937500e+02" cType="1" res="-1.0269223898649216e-01" rms="4.7207731008529663e-01" purity="4.1217491030693054e-01" nType="0">
          <Node pos="l" depth="2" NCoef="0" IVar="-1" Cut="0.0000000000000000e+00" cType="1" res="1.3757125707343221e-03" rms="4.7661182284355164e-01" purity="6.1889421939849854e-01" nType="-99"/>
          <Node pos="r" depth="2" NCoef="0" IVar="-1" Cut="0.0000000000000000e+00" cType="1" res="-2.0059121306985617e-03" rms="4.5230433344841003e-01" purity="3.3288142085075378e-01" nType="-99"/>
        </Node>
        <Node pos="r" depth="1" NCoef="0" IVar="2" Cut="9.9050463867187500e+02" cType="1" res="6.1547853983938694e-03" rms="4.8036897182464600e-01" purity="5.1609128713607788e-01" nType="0">
          <Node pos="l" depth="2" NCoef="0" IVar="-1" Cut="0.0000000000000000e+00" cType="1" res="1.3035723241046071e-03" rms="4.7277626395225525e-01" purity="6.0099154710769653e-01" nType="-99"/>
          <Node pos="r" depth="2" NCoef="0" IVar="-1" Cut="0.0000000000000000e+00" cType="1" res="-4.7457116306759417e-04" rms="4.8019829392433167e-01" purity="4.6719127893447876e-01" nType="-99"/>
        </Node>
      </Node>
    </BinaryTree>
    <BinaryTree type="DecisionTree" boostWeight="1.0000000000000000e+00" itree="275">
      <Node pos="s" depth="0" NCoef="0" IVar="3" Cut="9.5053291320800781e-01" cType="1" res="-1.9356723874807358e-02" rms="4.7921517491340637e-01" purity="4.9251022934913635e-01" nType="0">
        <Node pos="l" depth="1" NCoef="0" IVar="2" Cut="1.7309239501953125e+03" cType="1" res="-3.6391500383615494e-02" rms="4.8226639628410339e-01" purity="4.5967087149620056e-01" nType="0">
          <Node pos="l" depth="2" NCoef="0" IVar="-1" Cut="0.0000000000000000e+00" cType="1" res="-2.9197987169027328e-04" rms="4.8278647661209106e-01" purity="4.7823747992515564e-01" nType="-99"/>
          <Node pos="r" depth="2" NCoef="0" IVar="-1" Cut="0.0000000000000000e+00" cType="1" res="-1.6409390373155475e-03" rms="4.6484503149986267e-01" purity="3.3166897296905518e-01" nType="-99"/>
        </Node>
        <Node pos="r" depth="1" NCoef="0" IVar="4" Cut="6.4637561035156250e+02" cType="1" res="8.7334252893924713e-02" rms="4.4505366683006287e-01" purity="6.9818723201751709e-01" nType="0">
          <Node pos="l" depth="2" NCoef="0" IVar="-1" Cut="0.0000000000000000e+00" cType="1" res="3.0981402960605919e-04" rms="4.7392347455024719e-01" purity="6.3245356082916260e-01" nType="-99"/>
          <Node pos="r" depth="2" NCoef="0" IVar="-1" Cut="0.0000000000000000e+00" cType="1" res="3.3497714903205633e-03" rms="4.1997721791267395e-01" purity="7.3883610963821411e-01" nType="-99"/>
        </Node>
      </Node>
    </BinaryTree>
    <BinaryTree type="DecisionTree" boostWeight="1.0000000000000000e+00" itree="276">
      <Node pos="s" depth="0" NCoef="0" IVar="3" Cut="8.7398701906204224e-01" cType="1" res="-1.2452211230993271e-02" rms="4.7997108101844788e-01" purity="4.9802577495574951e-01" nType="0">
        <Node pos="l" depth="1" NCoef="0" IVar="4" Cut="6.5684515380859375e+02" cType="1" res="-6.8590871989727020e-02" rms="4.7539913654327393e-01" purity="3.8279703259468079e-01" nType="0">
          <Node pos="l" depth="2" NCoef="0" IVar="-1" Cut="0.0000000000000000e+00" cType="1" res="-1.3412490952759981e-03" rms="4.6244749426841736e-01" purity="3.3386254310607910e-01" nType="-99"/>
          <Node pos="r" depth="2" NCoef="0" IVar="-1" Cut="0.0000000000000000e+00" cType="1" res="-3.6459913826547563e-04" rms="4.8186552524566650e-01" purity="4.2224889993667603e-01" nType="-99"/>
        </Node>
        <Node pos="r" depth="1" NCoef="0" IVar="0" Cut="2.3948059082031250e+02" cType="1" res="1.4962022192776203e-02" rms="4.7980692982673645e-01" purity="5.5429548025131226e-01" nType="0">
          <Node pos="l" depth="2" NCoef="0" IVar="-1" Cut="0.0000000000000000e+00" cType="1" res="6.4512924291193485e-04" rms="4.7792875766754150e-01" purity="5.9648811817169189e-01" nType="-99"/>
          <Node pos="r" depth="2" NCoef="0" IVar="-1" Cut="0.0000000000000000e+00" cType="1" res="-5.9979781508445740e-04" rms="4.8006644845008850e-01" purity="4.3941166996955872e-01" nType="-99"/>
        </Node>
      </Node>
    </BinaryTree>
    <BinaryTree type="DecisionTree" boostWeight="1.0000000000000000e+00" itree="277">
      <Node pos="s" depth="0" NCoef="0" IVar="0" Cut="2.8206518554687500e+02" cType="1" res="5.6946638505905867e-04" rms="4.8019239306449890e-01" purity="5.1241493225097656e-01" nType="0">
        <Node pos="l" depth="1" NCoef="0" IVar="0" Cut="8.9397903442382812e+01" cType="1" res="2.3952141404151917e-02" rms="4.8046940565109253e-01" purity="5.5084627866744995e-01" nType="0">
          <Node pos="l" depth="2" NCoef="0" IVar="-1" Cut="0.0000000000000000e+00" cType="1" res="-1.1674463748931885e-03" rms="4.7671440243721008e-01" purity="4.0924915671348572e-01" nType="-99"/>
          <Node pos="r" depth="2" NCoef="0" IVar="-1" Cut="0.0000000000000000e+00" cType="1" res="1.0240118717774749e-03" rms="4.7592359781265259e-01" purity="5.9408575296401978e-01" nType="-99"/>
        </Node>
        <Node pos="r" depth="1" NCoef="0" IVar="4" Cut="7.9472814941406250e+02" cType="1" res="-8.3533838391304016e-02" rms="4.6966752409934998e-01" purity="3.7418431043624878e-01" nType="0">
          <Node pos="l" depth="2" NCoef="0" IVar="-1" Cut="0.0000000000000000e+00" cType="1" res="-1.7319627804681659e-03" rms="4.4626784324645996e-01" purity="3.0150237679481506e-01" nType="-99"/>
          <Node pos="r" depth="2" NCoef="0" IVar="-1" Cut="0.0000000000000000e+00" cType="1" res="-5.5017031263560057e-04" rms="4.7874429821968079e-01" purity="4.2007416486740112e-01" nType="-99"/>
        </Node>
      </Node>
    </BinaryTree>
    <BinaryTree type="DecisionTree" boostWeight="1.0000000000000000e+00" itree="278">
      <Node pos="s" depth="0" NCoef="0" IVar="4" Cut="6.8067449951171875e+02" cType="1" res="-9.3958424404263496e-03" rms="4.7858622670173645e-01" purity="5.0129979848861694e-01" nType="0">
        <Node pos="l" depth="1" NCoef="0" IVar="2" Cut="7.5553637695312500e+02" cType="1" res="-7.7434048056602478e-02" rms="4.7273522615432739e-01" purity="4.3096205592155457e-01" nType="0">
          <Node pos="l" depth="2" NCoef="0" IVar="-1" Cut="0.0000000000000000e+00" cType="1" res="1.7543856301927008e-05" rms="4.7935745120048523e-01" purity="5.3523099422454834e-01" nType="-99"/>
          <Node pos="r" depth="2" NCoef="0" IVar="-1" Cut="0.0000000000000000e+00" cType="1" res="-1.7712203552946448e-03" rms="4.5522421598434448e-01" purity="3.3705654740333557e-01" nType="-99"/>
        </Node>
        <Node pos="r" depth="1" NCoef="0" IVar="2" Cut="1.1390955810546875e+03" cType="1" res="5.0420269370079041e-02" rms="4.7570011019706726e-01" purity="5.6313753128051758e-01" nType="0">
          <Node pos="l" depth="2" NCoef="0" IVar="-1" Cut="0.0000000000000000e+00" cType="1" res="2.5629927404224873e-03" rms="4.5854848623275757e-01" purity="6.6471326351165771e-01" nType="-99"/>
          <Node pos="r" depth="2" NCoef="0" IVar="-1" Cut="0.0000000000000000e+00" cType="1" res="8.5465908341575414e-05" rms="4.7957944869995117e-01" purity="5.0484627485275269e-01" nType="-99"/>
        </Node>
      </Node>
    </BinaryTree>
    <BinaryTree type="DecisionTree" boostWeight="1.0000000000000000e+00" itree="279">
      <Node pos="s" depth="0" NCoef="0" IVar="0" Cut="6.7124916076660156e+01" cType="1" res="-7.1158860810101032e-03" rms="4.8198309540748596e-01" purity="5.0472396612167358e-01" nType="0">
        <Node pos="l" depth="1" NCoef="0" IVar="-1" Cut="0.0000000000000000e+00" cType="1" res="-1.6473941504955292e-03" rms="4.5876163244247437e-01" purity="3.3989512920379639e-01" nType="-99"/>
        <Node pos="r" depth="1" NCoef="0" IVar="0" Cut="4.4734136962890625e+02" cType="1" res="6.3937185332179070e-03" rms="4.8238289356231689e-01" purity="5.2208465337753296e-01" nType="0">
          <Node pos="l" depth="2" NCoef="0" IVar="-1" Cut="0.0000000000000000e+00" cType="1" res="3.1792462687008083e-04" rms="4.8296883702278137e-01" purity="5.4311269521713257e-01" nType="-99"/>
          <Node pos="r" depth="2" NCoef="0" IVar="-1" Cut="0.0000000000000000e+00" cType="1" res="-1.6234554350376129e-03" rms="4.5222589373588562e-01" purity="3.0234268307685852e-01" nType="-99"/>
        </Node>
      </Node>
    </BinaryTree>
    <BinaryTree type="DecisionTree" boostWeight="1.0000000000000000e+00" itree="280">
      <Node pos="s" depth="0" NCoef="0" IVar="0" Cut="2.7947262573242188e+02" cType="1" res="-1.1969057843089104e-02" rms="4.8250293731689453e-01" purity="5.0056719779968262e-01" nType="0">
        <Node pos="l" depth="1" NCoef="0" IVar="0" Cut="9.1744270324707031e+01" cType="1" res="6.4097861759364605e-03" rms="4.8374772071838379e-01" purity="5.3194350004196167e-01" nType="0">
          <Node pos="l" depth="2" NCoef="0" IVar="-1" Cut="0.0000000000000000e+00" cType="1" res="-1.2145696673542261e-03" rms="4.7983410954475403e-01" purity="4.0880513191223145e-01" nType="-99"/>
          <Node pos="r" depth="2" NCoef="0" IVar="-1" Cut="0.0000000000000000e+00" cType="1" res="6.4732547616586089e-04" rms="4.8048123717308044e-01" purity="5.7323759794235229e-01" nType="-99"/>
        </Node>
        <Node pos="r" depth="1" NCoef="0" IVar="4" Cut="8.0690350341796875e+02" cType="1" res="-8.6519531905651093e-02" rms="4.7010880708694458e-01" purity="3.7329500913619995e-01" nType="0">
          <Node pos="l" depth="2" NCoef="0" IVar="-1" Cut="0.0000000000000000e+00" cType="1" res="-1.7185362521559000e-03" rms="4.4202926754951477e-01" purity="3.0156382918357849e-01" nType="-99"/>
          <Node pos="r" depth="2" NCoef="0" IVar="-1" Cut="0.0000000000000000e+00" cType="1" res="-6.4419605769217014e-04" rms="4.8218610882759094e-01" purity="4.1688725352287292e-01" nType="-99"/>
        </Node>
      </Node>
    </BinaryTree>
    <BinaryTree type="DecisionTree" boostWeight="1.0000000000000000e+00" itree="281">
      <Node pos="s" depth="0" NCoef="0" IVar="4" Cut="5.1533831787109375e+02" cType="1" res="-1.3634776696562767e-02" rms="4.8189112544059753e-01" purity="4.9833086133003235e-01" nType="0">
        <Node pos="l" depth="1" NCoef="0" IVar="2" Cut="6.1883251953125000e+02" cType="1" res="-1.1687867343425751e-01" rms="4.7215703129768372e-01" purity="3.9868733286857605e-01" nType="0">
          <Node pos="l" depth="2" NCoef="0" IVar="-1" Cut="0.0000000000000000e+00" cType="1" res="3.5586301237344742e-04" rms="4.8398086428642273e-01" purity="5.5781531333923340e-01" nType="-99"/>
          <Node pos="r" depth="2" NCoef="0" IVar="-1" Cut="0.0000000000000000e+00" cType="1" res="-2.4420230183750391e-03" rms="4.3354341387748718e-01" purity="2.7556011080741882e-01" nType="-99"/>
        </Node>
        <Node pos="r" depth="1" NCoef="0" IVar="2" Cut="1.0830482177734375e+03" cType="1" res="4.8240348696708679e-03" rms="4.8128259181976318e-01" purity="5.1614594459533691e-01" nType="0">
          <Node pos="l" depth="2" NCoef="0" IVar="-1" Cut="0.0000000000000000e+00" cType="1" res="7.5739494059234858e-04" rms="4.7961363196372986e-01" purity="5.7239812612533569e-01" nType="-99"/>
          <Node pos="r" depth="2" NCoef="0" IVar="-1" Cut="0.0000000000000000e+00" cType="1" res="-4.9108883831650019e-04" rms="4.7949042916297913e-01" purity="4.6231067180633545e-01" nType="-99"/>
        </Node>
      </Node>
    </BinaryTree>
    <BinaryTree type="DecisionTree" boostWeight="1.0000000000000000e+00" itree="282">
      <Node pos="s" depth="0" NCoef="0" IVar="4" Cut="5.2674853515625000e+02" cType="1" res="-1.4624088071286678e-02" rms="4.8104709386825562e-01" purity="4.9712756276130676e-01" nType="0">
        <Node pos="l" depth="1" NCoef="0" IVar="2" Cut="6.4115197753906250e+02" cType="1" res="-1.0593442618846893e-01" rms="4.7142076492309570e-01" purity="4.1025134921073914e-01" nType="0">
          <Node pos="l" depth="2" NCoef="0" IVar="-1" Cut="0.0000000000000000e+00" cType="1" res="3.2322874176315963e-04" rms="4.8399719595909119e-01" purity="5.6494909524917603e-01" nType="-99"/>
          <Node pos="r" depth="2" NCoef="0" IVar="-1" Cut="0.0000000000000000e+00" cType="1" res="-2.4143508635461330e-03" rms="4.2916569113731384e-01" purity="2.7015006542205811e-01" nType="-99"/>
        </Node>
        <Node pos="r" depth="1" NCoef="0" IVar="2" Cut="8.6174578857421875e+02" cType="1" res="3.2977312803268433e-03" rms="4.8088279366493225e-01" purity="5.1417911052703857e-01" nType="0">
          <Node pos="l" depth="2" NCoef="0" IVar="-1" Cut="0.0000000000000000e+00" cType="1" res="1.8421229906380177e-03" rms="4.6764412522315979e-01" purity="6.3446629047393799e-01" nType="-99"/>
          <Node pos="r" depth="2" NCoef="0" IVar="-1" Cut="0.0000000000000000e+00" cType="1" res="-3.5250489600002766e-04" rms="4.8101252317428589e-01" purity="4.7931715846061707e-01" nType="-99"/>
        </Node>
      </Node>
    </BinaryTree>
    <BinaryTree type="DecisionTree" boostWeight="1.0000000000000000e+00" itree="283">
      <Node pos="s" depth="0" NCoef="0" IVar="3" Cut="8.9634925127029419e-01" cType="1" res="-1.8021937459707260e-02" rms="4.7859123349189758e-01" purity="4.9154639244079590e-01" nType="0">
        <Node pos="l" depth="1" NCoef="0" IVar="4" Cut="6.7682098388671875e+02" cType="1" res="-5.9830226004123688e-02" rms="4.7875827550888062e-01" purity="3.9965295791625977e-01" nType="0">
          <Node pos="l" depth="2" NCoef="0" IVar="-1" Cut="0.0000000000000000e+00" cType="1" res="-1.2386400485411286e-03" rms="4.6619266271591187e-01" purity="3.4842255711555481e-01" nType="-99"/>
          <Node pos="r" depth="2" NCoef="0" IVar="-1" Cut="0.0000000000000000e+00" cType="1" res="-2.1742632088717073e-04" rms="4.8509138822555542e-01" purity="4.4356533885002136e-01" nType="-99"/>
        </Node>
        <Node pos="r" depth="1" NCoef="0" IVar="2" Cut="1.0595532226562500e+03" cType="1" res="2.9793778434395790e-02" rms="4.7390004992485046e-01" purity="5.9664398431777954e-01" nType="0">
          <Node pos="l" depth="2" NCoef="0" IVar="-1" Cut="0.0000000000000000e+00" cType="1" res="1.8117807339876890e-03" rms="4.5839500427246094e-01" purity="6.7025685310363770e-01" nType="-99"/>
          <Node pos="r" depth="2" NCoef="0" IVar="-1" Cut="0.0000000000000000e+00" cType="1" res="-4.7797427396290004e-04" rms="4.8268547654151917e-01" purity="5.1840096712112427e-01" nType="-99"/>
        </Node>
      </Node>
    </BinaryTree>
    <BinaryTree type="DecisionTree" boostWeight="1.0000000000000000e+00" itree="284">
      <Node pos="s" depth="0" NCoef="0" IVar="3" Cut="8.8995617628097534e-01" cType="1" res="-2.1854793652892113e-02" rms="4.7822660207748413e-01" purity="4.8519074916839600e-01" nType="0">
        <Node pos="l" depth="1" NCoef="0" IVar="1" Cut="1.3508998107910156e+02" cType="1" res="-6.4853906631469727e-02" rms="4.7373369336128235e-01" purity="3.8832977414131165e-01" nType="0">
          <Node pos="l" depth="2" NCoef="0" IVar="-1" Cut="0.0000000000000000e+00" cType="1" res="-4.8664433415979147e-04" rms="4.8340699076652527e-01" purity="4.2779853940010071e-01" nType="-99"/>
          <Node pos="r" depth="2" NCoef="0" IVar="-1" Cut="0.0000000000000000e+00" cType="1" res="-1.7136422684416175e-03" rms="4.2510327696800232e-01" purity="2.4978154897689819e-01" nType="-99"/>
        </Node>
        <Node pos="r" depth="1" NCoef="0" IVar="2" Cut="7.5549310302734375e+02" cType="1" res="2.0159512758255005e-02" rms="4.7886118292808533e-01" purity="5.7983326911926270e-01" nType="0">
          <Node pos="l" depth="2" NCoef="0" IVar="-1" Cut="0.0000000000000000e+00" cType="1" res="2.2585659753531218e-03" rms="4.4947755336761475e-01" purity="6.9513857364654541e-01" nType="-99"/>
          <Node pos="r" depth="2" NCoef="0" IVar="-1" Cut="0.0000000000000000e+00" cType="1" res="-1.3811145436193328e-05" rms="4.8370352387428284e-01" purity="5.5085200071334839e-01" nType="-99"/>
        </Node>
      </Node>
    </BinaryTree>
    <BinaryTree type="DecisionTree" boostWeight="1.0000000000000000e+00" itree="285">
      <Node pos="s" depth="0" NCoef="0" IVar="1" Cut="1.0801126098632812e+02" cType="1" res="-1.3689584098756313e-02" rms="4.7901690006256104e-01" purity="4.9762508273124695e-01" nType="0">
        <Node pos="l" depth="1" NCoef="0" IVar="1" Cut="9.9565376281738281e+01" cType="1" res="-1.0667371749877930e-01" rms="4.6016010642051697e-01" purity="3.5222089290618896e-01" nType="0">
          <Node pos="l" depth="2" NCoef="0" IVar="-1" Cut="0.0000000000000000e+00" cType="1" res="-1.7187315970659256e-03" rms="4.4084230065345764e-01" purity="2.7936500310897827e-01" nType="-99"/>
          <Node pos="r" depth="2" NCoef="0" IVar="-1" Cut="0.0000000000000000e+00" cType="1" res="-8.0823653843253851e-04" rms="4.7588083148002625e-01" purity="4.3342939019203186e-01" nType="-99"/>
        </Node>
        <Node pos="r" depth="1" NCoef="0" IVar="1" Cut="1.3103288269042969e+02" cType="1" res="2.4425322189927101e-03" rms="4.8038470745086670e-01" purity="5.2285170555114746e-01" nType="0">
          <Node pos="l" depth="2" NCoef="0" IVar="-1" Cut="0.0000000000000000e+00" cType="1" res="5.2020832663401961e-04" rms="4.8061785101890564e-01" purity="5.7410550117492676e-01" nType="-99"/>
          <Node pos="r" depth="2" NCoef="0" IVar="-1" Cut="0.0000000000000000e+00" cType="1" res="-7.4114161543548107e-04" rms="4.7452643513679504e-01" purity="4.1742286086082458e-01" nType="-99"/>
        </Node>
      </Node>
    </BinaryTree>
    <BinaryTree type="DecisionTree" boostWeight="1.0000000000000000e+00" itree="286">
      <Node pos="s" depth="0" NCoef="0" IVar="0" Cut="4.5580517578125000e+02" cType="1" res="-9.5226187258958817e-03" rms="4.7598358988761902e-01" purity="4.9654218554496765e-01" nType="0">
        <Node pos="l" depth="1" NCoef="0" IVar="0" Cut="8.8458137512207031e+01" cType="1" res="4.7555621713399887e-03" rms="4.7662049531936646e-01" purity="5.1701152324676514e-01" nType="0">
          <Node pos="l" depth="2" NCoef="0" IVar="-1" Cut="0.0000000000000000e+00" cType="1" res="-1.3164065312594175e-03" rms="4.7416803240776062e-01" purity="3.9122095704078674e-01" nType="-99"/>
          <Node pos="r" depth="2" NCoef="0" IVar="-1" Cut="0.0000000000000000e+00" cType="1" res="4.8455593059770763e-04" rms="4.7360232472419739e-01" purity="5.4707348346710205e-01" nType="-99"/>
        </Node>
        <Node pos="r" depth="1" NCoef="0" IVar="-1" Cut="0.0000000000000000e+00" cType="1" res="-1.9111421424895525e-03" rms="4.3781098723411560e-01" purity="2.6640948653221130e-01" nType="-99"/>
      </Node>
    </BinaryTree>
    <BinaryTree type="DecisionTree" boostWeight="1.0000000000000000e+00" itree="287">
      <Node pos="s" depth="0" NCoef="0" IVar="0" Cut="4.5534732055664062e+02" cType="1" res="-8.8801980018615723e-03" rms="4.8125836253166199e-01" purity="5.0497156381607056e-01" nType="0">
        <Node pos="l" depth="1" NCoef="0" IVar="4" Cut="4.8526031494140625e+02" cType="1" res="2.8397028800100088e-03" rms="4.8194354772567749e-01" purity="5.2251356840133667e-01" nType="0">
          <Node pos="l" depth="2" NCoef="0" IVar="-1" Cut="0.0000000000000000e+00" cType="1" res="-1.4763297513127327e-03" rms="4.7356876730918884e-01" purity="4.0573430061340332e-01" nType="-99"/>
          <Node pos="r" depth="2" NCoef="0" IVar="-1" Cut="0.0000000000000000e+00" cType="1" res="2.5140788056887686e-04" rms="4.8118564486503601e-01" purity="5.3644901514053345e-01" nType="-99"/>
        </Node>
        <Node pos="r" depth="1" NCoef="0" IVar="-1" Cut="0.0000000000000000e+00" cType="1" res="-1.6821349272504449e-03" rms="4.5105558633804321e-01" purity="2.9961192607879639e-01" nType="-99"/>
      </Node>
    </BinaryTree>
    <BinaryTree type="DecisionTree" boostWeight="1.0000000000000000e+00" itree="288">
      <Node pos="s" depth="0" NCoef="0" IVar="2" Cut="6.9223754882812500e+02" cType="1" res="-1.1672707274556160e-02" rms="4.7878593206405640e-01" purity="5.0049966573715210e-01" nType="0">
        <Node pos="l" depth="1" NCoef="0" IVar="4" Cut="4.7578802490234375e+02" cType="1" res="9.8928742110729218e-02" rms="4.5749440789222717e-01" purity="6.4292037487030029e-01" nType="0">
          <Node pos="l" depth="2" NCoef="0" IVar="-1" Cut="0.0000000000000000e+00" cType="1" res="3.2925032428465784e-05" rms="4.8095822334289551e-01" purity="5.3096634149551392e-01" nType="-99"/>
          <Node pos="r" depth="2" NCoef="0" IVar="-1" Cut="0.0000000000000000e+00" cType="1" res="3.9643961936235428e-03" rms="4.2377296090126038e-01" purity="7.2911900281906128e-01" nType="-99"/>
        </Node>
        <Node pos="r" depth="1" NCoef="0" IVar="4" Cut="6.1657458496093750e+02" cType="1" res="-2.7881288900971413e-02" rms="4.7968947887420654e-01" purity="4.7962793707847595e-01" nType="0">
          <Node pos="l" depth="2" NCoef="0" IVar="-1" Cut="0.0000000000000000e+00" cType="1" res="-1.6406408976763487e-03" rms="4.5353239774703979e-01" purity="3.4750550985336304e-01" nType="-99"/>
          <Node pos="r" depth="2" NCoef="0" IVar="-1" Cut="0.0000000000000000e+00" cType="1" res="6.2749735661782324e-05" rms="4.8198732733726501e-01" purity="5.1688820123672485e-01" nType="-99"/>
        </Node>
      </Node>
    </BinaryTree>
    <BinaryTree type="DecisionTree" boostWeight="1.0000000000000000e+00" itree="289">
      <Node pos="s" depth="0" NCoef="0" IVar="0" Cut="7.8305541992187500e+01" cType="1" res="-4.2044775909744203e-04" rms="4.8009622097015381e-01" purity="5.1223498582839966e-01" nType="0">
        <Node pos="l" depth="1" NCoef="0" IVar="2" Cut="8.6926873779296875e+02" cType="1" res="-1.0786797106266022e-01" rms="4.6600338816642761e-01" purity="3.7503784894943237e-01" nType="0">
          <Node pos="l" depth="2" NCoef="0" IVar="-1" Cut="0.0000000000000000e+00" cType="1" res="-3.8225590833462775e-04" rms="4.7729924321174622e-01" purity="4.6223208308219910e-01" nType="-99"/>
          <Node pos="r" depth="2" NCoef="0" IVar="-1" Cut="0.0000000000000000e+00" cType="1" res="-1.9245042931288481e-03" rms="4.4721820950508118e-01" purity="3.0769953131675720e-01" nType="-99"/>
        </Node>
        <Node pos="r" depth="1" NCoef="0" IVar="1" Cut="1.4190861511230469e+02" cType="1" res="1.7055900767445564e-02" rms="4.8008105158805847e-01" purity="5.3455013036727905e-01" nType="0">
          <Node pos="l" depth="2" NCoef="0" IVar="-1" Cut="0.0000000000000000e+00" cType="1" res="4.7832223935984075e-04" rms="4.8040804266929626e-01" purity="5.6030958890914917e-01" nType="-99"/>
          <Node pos="r" depth="2" NCoef="0" IVar="-1" Cut="0.0000000000000000e+00" cType="1" res="-1.0260131675750017e-03" rms="4.6487072110176086e-01" purity="3.3509570360183716e-01" nType="-99"/>
        </Node>
      </Node>
    </BinaryTree>
    <BinaryTree type="DecisionTree" boostWeight="1.0000000000000000e+00" itree="290">
      <Node pos="s" depth="0" NCoef="0" IVar="2" Cut="7.0959259033203125e+02" cType="1" res="-2.8580348938703537e-02" rms="4.7845792770385742e-01" purity="4.8036617040634155e-01" nType="0">
        <Node pos="l" depth="1" NCoef="0" IVar="4" Cut="4.7923684692382812e+02" cType="1" res="6.4670480787754059e-02" rms="4.6818417310714722e-01" purity="6.0564810037612915e-01" nType="0">
          <Node pos="l" depth="2" NCoef="0" IVar="-1" Cut="0.0000000000000000e+00" cType="1" res="-6.1995169380679727e-04" rms="4.8285353183746338e-01" purity="4.8926699161529541e-01" nType="-99"/>
          <Node pos="r" depth="2" NCoef="0" IVar="-1" Cut="0.0000000000000000e+00" cType="1" res="3.0476823449134827e-03" rms="4.3974381685256958e-01" purity="6.9457399845123291e-01" nType="-99"/>
        </Node>
        <Node pos="r" depth="1" NCoef="0" IVar="4" Cut="6.4637463378906250e+02" cType="1" res="-4.4962652027606964e-02" rms="4.7836652398109436e-01" purity="4.5835664868354797e-01" nType="0">
          <Node pos="l" depth="2" NCoef="0" IVar="-1" Cut="0.0000000000000000e+00" cType="1" res="-1.4990929048508406e-03" rms="4.5866367220878601e-01" purity="3.5814613103866577e-01" nType="-99"/>
          <Node pos="r" depth="2" NCoef="0" IVar="-1" Cut="0.0000000000000000e+00" cType="1" res="-2.3397100449074060e-04" rms="4.8192602396011353e-01" purity="4.9433293938636780e-01" nType="-99"/>
        </Node>
      </Node>
    </BinaryTree>
    <BinaryTree type="DecisionTree" boostWeight="1.0000000000000000e+00" itree="291">
      <Node pos="s" depth="0" NCoef="0" IVar="4" Cut="8.5892596435546875e+02" cType="1" res="-8.7981699034571648e-03" rms="4.7914564609527588e-01" purity="5.0142115354537964e-01" nType="0">
        <Node pos="l" depth="1" NCoef="0" IVar="2" Cut="1.2220329589843750e+03" cType="1" res="-4.0022972971200943e-02" rms="4.7688922286033630e-01" purity="4.7233098745346069e-01" nType="0">
          <Node pos="l" depth="2" NCoef="0" IVar="-1" Cut="0.0000000000000000e+00" cType="1" res="-2.9171566711738706e-04" rms="4.7910609841346741e-01" purity="4.9714362621307373e-01" nType="-99"/>
          <Node pos="r" depth="2" NCoef="0" IVar="-1" Cut="0.0000000000000000e+00" cType="1" res="-2.1517749410122633e-03" rms="4.3020409345626831e-01" purity="2.8600436449050903e-01" nType="-99"/>
        </Node>
        <Node pos="r" depth="1" NCoef="0" IVar="0" Cut="2.8461380004882812e+02" cType="1" res="6.1758179217576981e-02" rms="4.7673240303993225e-01" purity="5.6715404987335205e-01" nType="0">
          <Node pos="l" depth="2" NCoef="0" IVar="-1" Cut="0.0000000000000000e+00" cType="1" res="2.0793476141989231e-03" rms="4.6832653880119324e-01" purity="6.4695149660110474e-01" nType="-99"/>
          <Node pos="r" depth="2" NCoef="0" IVar="-1" Cut="0.0000000000000000e+00" cType="1" res="-2.7888582553714514e-04" rms="4.7922977805137634e-01" purity="4.3527233600616455e-01" nType="-99"/>
        </Node>
      </Node>
    </BinaryTree>
    <BinaryTree type="DecisionTree" boostWeight="1.0000000000000000e+00" itree="292">
      <Node pos="s" depth="0" NCoef="0" IVar="0" Cut="1.4018782043457031e+02" cType="1" res="-4.0657212957739830e-03" rms="4.7941473126411438e-01" purity="5.0709617137908936e-01" nType="0">
        <Node pos="l" depth="1" NCoef="0" IVar="0" Cut="6.8565589904785156e+01" cType="1" res="4.3254759162664413e-02" rms="4.7832512855529785e-01" purity="5.8093571662902832e-01" nType="0">
          <Node pos="l" depth="2" NCoef="0" IVar="-1" Cut="0.0000000000000000e+00" cType="1" res="-8.2357722567394376e-04" rms="4.8665818572044373e-01" purity="4.2279270291328430e-01" nType="-99"/>
          <Node pos="r" depth="2" NCoef="0" IVar="-1" Cut="0.0000000000000000e+00" cType="1" res="1.1871004244312644e-03" rms="4.7315916419029236e-01" purity="6.1737948656082153e-01" nType="-99"/>
        </Node>
        <Node pos="r" depth="1" NCoef="0" IVar="3" Cut="8.7377071380615234e-01" cType="1" res="-4.2214989662170410e-02" rms="4.7688484191894531e-01" purity="4.4756758213043213e-01" nType="0">
          <Node pos="l" depth="2" NCoef="0" IVar="-1" Cut="0.0000000000000000e+00" cType="1" res="-1.2161459308117628e-03" rms="4.6208012104034424e-01" purity="3.2935324311256409e-01" nType="-99"/>
          <Node pos="r" depth="2" NCoef="0" IVar="-1" Cut="0.0000000000000000e+00" cType="1" res="-1.7261583707295358e-04" rms="4.8084098100662231e-01" purity="5.0449907779693604e-01" nType="-99"/>
        </Node>
      </Node>
    </BinaryTree>
    <BinaryTree type="DecisionTree" boostWeight="1.0000000000000000e+00" itree="293">
      <Node pos="s" depth="0" NCoef="0" IVar="1" Cut="1.4678958129882812e+02" cType="1" res="-1.0535789653658867e-02" rms="4.8082688450813293e-01" purity="5.0070589780807495e-01" nType="0">
        <Node pos="l" depth="1" NCoef="0" IVar="1" Cut="1.0834441375732422e+02" cType="1" res="-2.2867607185617089e-04" rms="4.8280268907546997e-01" purity="5.2063131332397461e-01" nType="0">
          <Node pos="l" depth="2" NCoef="0" IVar="-1" Cut="0.0000000000000000e+00" cType="1" res="-1.0863513452932239e-03" rms="4.7584122419357300e-01" purity="3.8084769248962402e-01" nType="-99"/>
          <Node pos="r" depth="2" NCoef="0" IVar="-1" Cut="0.0000000000000000e+00" cType="1" res="2.7034289087168872e-04" rms="4.8233118653297424e-01" purity="5.4890441894531250e-01" nType="-99"/>
        </Node>
        <Node pos="r" depth="1" NCoef="0" IVar="-1" Cut="0.0000000000000000e+00" cType="1" res="-1.4108620816841722e-03" rms="4.4385838508605957e-01" purity="2.8512769937515259e-01" nType="-99"/>
      </Node>
    </BinaryTree>
    <BinaryTree type="DecisionTree" boostWeight="1.0000000000000000e+00" itree="294">
      <Node pos="s" depth="0" NCoef="0" IVar="0" Cut="4.5453140258789062e+02" cType="1" res="-3.0960210133343935e-03" rms="4.7826853394508362e-01" purity="5.0552785396575928e-01" nType="0">
        <Node pos="l" depth="1" NCoef="0" IVar="3" Cut="9.1874337196350098e-01" cType="1" res="8.9515279978513718e-03" rms="4.7793057560920715e-01" purity="5.2231353521347046e-01" nType="0">
          <Node pos="l" depth="2" NCoef="0" IVar="-1" Cut="0.0000000000000000e+00" cType="1" res="-2.2468047973234206e-04" rms="4.8401340842247009e-01" purity="4.6315786242485046e-01" nType="-99"/>
          <Node pos="r" depth="2" NCoef="0" IVar="-1" Cut="0.0000000000000000e+00" cType="1" res="1.4139650156721473e-03" rms="4.5827266573905945e-01" purity="6.5803384780883789e-01" nType="-99"/>
        </Node>
        <Node pos="r" depth="1" NCoef="0" IVar="-1" Cut="0.0000000000000000e+00" cType="1" res="-1.8182549392804503e-03" rms="4.5605137944221497e-01" purity="2.9423099756240845e-01" nType="-99"/>
      </Node>
    </BinaryTree>
    <BinaryTree type="DecisionTree" boostWeight="1.0000000000000000e+00" itree="295">
      <Node pos="s" depth="0" NCoef="0" IVar="1" Cut="9.9138389587402344e+01" cType="1" res="-1.5829987823963165e-02" rms="4.8065638542175293e-01" purity="4.9752995371818542e-01" nType="0">
        <Node pos="l" depth="1" NCoef="0" IVar="-1" Cut="0.0000000000000000e+00" cType="1" res="-1.6551897861063480e-03" rms="4.4827091693878174e-01" purity="2.8667873144149780e-01" nType="-99"/>
        <Node pos="r" depth="1" NCoef="0" IVar="0" Cut="8.8390220642089844e+01" cType="1" res="-4.6308292075991631e-03" rms="4.8174810409545898e-01" purity="5.1587611436843872e-01" nType="0">
          <Node pos="l" depth="2" NCoef="0" IVar="-1" Cut="0.0000000000000000e+00" cType="1" res="-1.2800277909263968e-03" rms="4.7636023163795471e-01" purity="4.0880900621414185e-01" nType="-99"/>
          <Node pos="r" depth="2" NCoef="0" IVar="-1" Cut="0.0000000000000000e+00" cType="1" res="2.3591535864397883e-04" rms="4.8059198260307312e-01" purity="5.3879642486572266e-01" nType="-99"/>
        </Node>
      </Node>
    </BinaryTree>
    <BinaryTree type="DecisionTree" boostWeight="1.0000000000000000e+00" itree="296">
      <Node pos="s" depth="0" NCoef="0" IVar="1" Cut="9.9912246704101562e+01" cType="1" res="-1.8117610365152359e-02" rms="4.7920766472816467e-01" purity="4.9210065603256226e-01" nType="0">
        <Node pos="l" depth="1" NCoef="0" IVar="-1" Cut="0.0000000000000000e+00" cType="1" res="-2.0225250627845526e-03" rms="4.2552968859672546e-01" purity="2.4531370401382446e-01" nType="-99"/>
        <Node pos="r" depth="1" NCoef="0" IVar="3" Cut="8.8033014535903931e-01" cType="1" res="-2.4881504941731691e-03" rms="4.8086372017860413e-01" purity="5.1487368345260620e-01" nType="0">
          <Node pos="l" depth="2" NCoef="0" IVar="-1" Cut="0.0000000000000000e+00" cType="1" res="-6.2591378809884191e-04" rms="4.8097717761993408e-01" purity="4.0787994861602783e-01" nType="-99"/>
          <Node pos="r" depth="2" NCoef="0" IVar="-1" Cut="0.0000000000000000e+00" cType="1" res="4.8124138265848160e-04" rms="4.7832474112510681e-01" purity="5.8307182788848877e-01" nType="-99"/>
        </Node>
      </Node>
    </BinaryTree>
    <BinaryTree type="DecisionTree" boostWeight="1.0000000000000000e+00" itree="297">
      <Node pos="s" depth="0" NCoef="0" IVar="1" Cut="9.9764961242675781e+01" cType="1" res="2.9075774364173412e-03" rms="4.8023620247840881e-01" purity="5.1599931716918945e-01" nType="0">
        <Node pos="l" depth="1" NCoef="0" IVar="-1" Cut="0.0000000000000000e+00" cType="1" res="-1.3622182887047529e-03" rms="4.5217055082321167e-01" purity="3.0888110399246216e-01" nType="-99"/>
        <Node pos="r" depth="1" NCoef="0" IVar="0" Cut="6.6752571105957031e+01" cType="1" res="1.3138729147613049e-02" rms="4.8115369677543640e-01" purity="5.3357332944869995e-01" nType="0">
          <Node pos="l" depth="2" NCoef="0" IVar="-1" Cut="0.0000000000000000e+00" cType="1" res="-1.1933448258787394e-03" rms="4.7231864929199219e-01" purity="3.8464373350143433e-01" nType="-99"/>
          <Node pos="r" depth="2" NCoef="0" IVar="-1" Cut="0.0000000000000000e+00" cType="1" res="3.6267153336666524e-04" rms="4.8074826598167419e-01" purity="5.4690217971801758e-01" nType="-99"/>
        </Node>
      </Node>
    </BinaryTree>
    <BinaryTree type="DecisionTree" boostWeight="1.0000000000000000e+00" itree="298">
      <Node pos="s" depth="0" NCoef="0" IVar="4" Cut="6.0812121582031250e+02" cType="1" res="-3.1263948767445982e-04" rms="4.8044025897979736e-01" purity="5.1194703578948975e-01" nType="0">
        <Node pos="l" depth="1" NCoef="0" IVar="2" Cut="8.2555603027343750e+02" cType="1" res="-5.2713874727487564e-02" rms="4.7566482424736023e-01" purity="4.5905858278274536e-01" nType="0">
          <Node pos="l" depth="2" NCoef="0" IVar="-1" Cut="0.0000000000000000e+00" cType="1" res="3.7545622035395354e-05" rms="4.8057991266250610e-01" purity="5.2993643283843994e-01" nType="-99"/>
          <Node pos="r" depth="2" NCoef="0" IVar="-1" Cut="0.0000000000000000e+00" cType="1" res="-2.1594355348497629e-03" rms="4.3336993455886841e-01" purity="2.8143927454948425e-01" nType="-99"/>
        </Node>
        <Node pos="r" depth="1" NCoef="0" IVar="2" Cut="1.0763769531250000e+03" cType="1" res="2.4039767682552338e-02" rms="4.8070323467254639e-01" purity="5.3652578592300415e-01" nType="0">
          <Node pos="l" depth="2" NCoef="0" IVar="-1" Cut="0.0000000000000000e+00" cType="1" res="1.8030500505119562e-03" rms="4.6889483928680420e-01" purity="6.2935209274291992e-01" nType="-99"/>
          <Node pos="r" depth="2" NCoef="0" IVar="-1" Cut="0.0000000000000000e+00" cType="1" res="-2.9183548758737743e-04" rms="4.8245605826377869e-01" purity="4.7990310192108154e-01" nType="-99"/>
        </Node>
      </Node>
    </BinaryTree>
    <BinaryTree type="DecisionTree" boostWeight="1.0000000000000000e+00" itree="299">
      <Node pos="s" depth="0" NCoef="0" IVar="1" Cut="9.9764961242675781e+01" cType="1" res="1.3158067129552364e-02" rms="4.7966620326042175e-01" purity="5.2511143684387207e-01" nType="0">
        <Node pos="l" depth="1" NCoef="0" IVar="-1" Cut="0.0000000000000000e+00" cType="1" res="-1.5078767901286483e-03" rms="4.5761618018150330e-01" purity="3.0989372730255127e-01" nType="-99"/>
        <Node pos="r" depth="1" NCoef="0" IVar="1" Cut="1.2601103973388672e+02" cType="1" res="2.4952884763479233e-02" rms="4.7957760095596313e-01" purity="5.4305303096771240e-01" nType="0">
          <Node pos="l" depth="2" NCoef="0" IVar="-1" Cut="0.0000000000000000e+00" cType="1" res="1.0294277453795075e-03" rms="4.7756564617156982e-01" purity="5.9858614206314087e-01" nType="-99"/>
          <Node pos="r" depth="2" NCoef="0" IVar="-1" Cut="0.0000000000000000e+00" cType="1" res="-2.0024045079480857e-04" rms="4.7878354787826538e-01" purity="4.8169532418251038e-01" nType="-99"/>
        </Node>
      </Node>
    </BinaryTree>
    <BinaryTree type="DecisionTree" boostWeight="1.0000000000000000e+00" itree="300">
      <Node pos="s" depth="0" NCoef="0" IVar="0" Cut="6.4517669677734375e+01" cType="1" res="-1.1002203449606895e-02" rms="4.8072654008865356e-01" purity="5.0117462873458862e-01" nType="0">
        <Node pos="l" depth="1" NCoef="0" IVar="-1" Cut="0.0000000000000000e+00" cType="1" res="-1.7806682735681534e-03" rms="4.5484685897827148e-01" purity="3.2597878575325012e-01" nType="-99"/>
        <Node pos="r" depth="1" NCoef="0" IVar="1" Cut="1.0119214630126953e+02" cType="1" res="1.1121981078758836e-03" rms="4.8114269971847534e-01" purity="5.1693648099899292e-01" nType="0">
          <Node pos="l" depth="2" NCoef="0" IVar="-1" Cut="0.0000000000000000e+00" cType="1" res="-1.4275650028139353e-03" rms="4.5292988419532776e-01" purity="3.1318548321723938e-01" nType="-99"/>
          <Node pos="r" depth="2" NCoef="0" IVar="-1" Cut="0.0000000000000000e+00" cType="1" res="2.0944910647813231e-04" rms="4.8211577534675598e-01" purity="5.3711962699890137e-01" nType="-99"/>
        </Node>
      </Node>
    </BinaryTree>
    <BinaryTree type="DecisionTree" boostWeight="1.0000000000000000e+00" itree="301">
      <Node pos="s" depth="0" NCoef="0" IVar="2" Cut="6.9852978515625000e+02" cType="1" res="-3.2487032003700733e-03" rms="4.7979775071144104e-01" purity="5.0886243581771851e-01" nType="0">
        <Node pos="l" depth="1" NCoef="0" IVar="2" Cut="6.3611810302734375e+02" cType="1" res="9.9986642599105835e-02" rms="4.6466323733329773e-01" purity="6.4538484811782837e-01" nType="0">
          <Node pos="l" depth="2" NCoef="0" IVar="-1" Cut="0.0000000000000000e+00" cType="1" res="3.1547481194138527e-03" rms="4.5377081632614136e-01" purity="6.9286060333251953e-01" nType="-99"/>
          <Node pos="r" depth="2" NCoef="0" IVar="-1" Cut="0.0000000000000000e+00" cType="1" res="6.5986829577013850e-04" rms="4.7142040729522705e-01" purity="5.8321893215179443e-01" nType="-99"/>
        </Node>
        <Node pos="r" depth="1" NCoef="0" IVar="1" Cut="1.0565282440185547e+02" cType="1" res="-2.0576581358909607e-02" rms="4.8012080788612366e-01" purity="4.8594737052917480e-01" nType="0">
          <Node pos="l" depth="2" NCoef="0" IVar="-1" Cut="0.0000000000000000e+00" cType="1" res="-1.5849554911255836e-03" rms="4.5797288417816162e-01" purity="3.2074958086013794e-01" nType="-99"/>
          <Node pos="r" depth="2" NCoef="0" IVar="-1" Cut="0.0000000000000000e+00" cType="1" res="-4.9472469981992617e-05" rms="4.8126617074012756e-01" purity="5.1209747791290283e-01" nType="-99"/>
        </Node>
      </Node>
    </BinaryTree>
    <BinaryTree type="DecisionTree" boostWeight="1.0000000000000000e+00" itree="302">
      <Node pos="s" depth="0" NCoef="0" IVar="4" Cut="5.5888024902343750e+02" cType="1" res="-2.0789751783013344e-02" rms="4.8072841763496399e-01" purity="4.9028077721595764e-01" nType="0">
        <Node pos="l" depth="1" NCoef="0" IVar="2" Cut="7.1757299804687500e+02" cType="1" res="-9.0106509625911713e-02" rms="4.6633413434028625e-01" purity="4.2024809122085571e-01" nType="0">
          <Node pos="l" depth="2" NCoef="0" IVar="-1" Cut="0.0000000000000000e+00" cType="1" res="-9.2737180239055306e-05" rms="4.8470625281333923e-01" purity="5.3972101211547852e-01" nType="-99"/>
          <Node pos="r" depth="2" NCoef="0" IVar="-1" Cut="0.0000000000000000e+00" cType="1" res="-2.2577960044145584e-03" rms="4.0918749570846558e-01" purity="2.4849724769592285e-01" nType="-99"/>
        </Node>
        <Node pos="r" depth="1" NCoef="0" IVar="2" Cut="8.9687286376953125e+02" cType="1" res="-1.4006086857989430e-03" rms="4.8290067911148071e-01" purity="5.0987017154693604e-01" nType="0">
          <Node pos="l" depth="2" NCoef="0" IVar="-1" Cut="0.0000000000000000e+00" cType="1" res="1.2103745248168707e-03" rms="4.7773191332817078e-01" purity="6.0449218750000000e-01" nType="-99"/>
          <Node pos="r" depth="2" NCoef="0" IVar="-1" Cut="0.0000000000000000e+00" cType="1" res="-3.3432489726692438e-04" rms="4.8235598206520081e-01" purity="4.8088312149047852e-01" nType="-99"/>
        </Node>
      </Node>
    </BinaryTree>
    <BinaryTree type="DecisionTree" boostWeight="1.0000000000000000e+00" itree="303">
      <Node pos="s" depth="0" NCoef="0" IVar="0" Cut="9.3171310424804688e+01" cType="1" res="-8.5906833410263062e-03" rms="4.8081374168395996e-01" purity="5.0392073392868042e-01" nType="0">
        <Node pos="l" depth="1" NCoef="0" IVar="2" Cut="7.0902984619140625e+02" cType="1" res="-8.6299933493137360e-02" rms="4.7530782222747803e-01" purity="4.1548442840576172e-01" nType="0">
          <Node pos="l" depth="2" NCoef="0" IVar="-1" Cut="0.0000000000000000e+00" cType="1" res="2.4578452575951815e-04" rms="4.7831612825393677e-01" purity="5.3010058403015137e-01" nType="-99"/>
          <Node pos="r" depth="2" NCoef="0" IVar="-1" Cut="0.0000000000000000e+00" cType="1" res="-1.5561416512355208e-03" rms="4.6809655427932739e-01" purity="3.7046974897384644e-01" nType="-99"/>
        </Node>
        <Node pos="r" depth="1" NCoef="0" IVar="0" Cut="4.6079046630859375e+02" cType="1" res="1.1739806272089481e-02" rms="4.8017278313636780e-01" purity="5.2705770730972290e-01" nType="0">
          <Node pos="l" depth="2" NCoef="0" IVar="-1" Cut="0.0000000000000000e+00" cType="1" res="4.0664782864041626e-04" rms="4.8026415705680847e-01" purity="5.4857045412063599e-01" nType="-99"/>
          <Node pos="r" depth="2" NCoef="0" IVar="-1" Cut="0.0000000000000000e+00" cType="1" res="-1.5063491882756352e-03" rms="4.5661240816116333e-01" purity="3.1073874235153198e-01" nType="-99"/>
        </Node>
      </Node>
    </BinaryTree>
    <BinaryTree type="DecisionTree" boostWeight="1.0000000000000000e+00" itree="304">
      <Node pos="s" depth="0" NCoef="0" IVar="0" Cut="6.4517669677734375e+01" cType="1" res="-2.5766555219888687e-02" rms="4.7889208793640137e-01" purity="4.8268893361091614e-01" nType="0">
        <Node pos="l" depth="1" NCoef="0" IVar="-1" Cut="0.0000000000000000e+00" cType="1" res="-1.8772485200315714e-03" rms="4.4752046465873718e-01" purity="3.1162327527999878e-01" nType="-99"/>
        <Node pos="r" depth="1" NCoef="0" IVar="0" Cut="1.9532727050781250e+02" cType="1" res="-1.2611476704478264e-02" rms="4.7994548082351685e-01" purity="4.9982264637947083e-01" nType="0">
          <Node pos="l" depth="2" NCoef="0" IVar="-1" Cut="0.0000000000000000e+00" cType="1" res="3.3523951424285769e-04" rms="4.8207950592041016e-01" purity="5.6415069103240967e-01" nType="-99"/>
          <Node pos="r" depth="2" NCoef="0" IVar="-1" Cut="0.0000000000000000e+00" cType="1" res="-8.1617414252832532e-04" rms="4.7232905030250549e-01" purity="4.0387010574340820e-01" nType="-99"/>
        </Node>
      </Node>
    </BinaryTree>
    <BinaryTree type="DecisionTree" boostWeight="1.0000000000000000e+00" itree="305">
      <Node pos="s" depth="0" NCoef="0" IVar="1" Cut="1.0709898376464844e+02" cType="1" res="-3.5967440344393253e-03" rms="4.7865682840347290e-01" purity="5.0507915019989014e-01" nType="0">
        <Node pos="l" depth="1" NCoef="0" IVar="1" Cut="9.8618721008300781e+01" cType="1" res="-1.2186090648174286e-01" rms="4.5635020732879639e-01" purity="3.2611623406410217e-01" nType="0">
          <Node pos="l" depth="2" NCoef="0" IVar="-1" Cut="0.0000000000000000e+00" cType="1" res="-1.7024559201672673e-03" rms="4.4206956028938293e-01" purity="2.7221459150314331e-01" nType="-99"/>
          <Node pos="r" depth="2" NCoef="0" IVar="-1" Cut="0.0000000000000000e+00" cType="1" res="-1.1274470016360283e-03" rms="4.7113752365112305e-01" purity="3.9072903990745544e-01" nType="-99"/>
        </Node>
        <Node pos="r" depth="1" NCoef="0" IVar="1" Cut="1.4408320617675781e+02" cType="1" res="1.5623049810528755e-02" rms="4.7943666577339172e-01" purity="5.3416341543197632e-01" nType="0">
          <Node pos="l" depth="2" NCoef="0" IVar="-1" Cut="0.0000000000000000e+00" cType="1" res="5.9020030312240124e-04" rms="4.8048928380012512e-01" purity="5.6996691226959229e-01" nType="-99"/>
          <Node pos="r" depth="2" NCoef="0" IVar="-1" Cut="0.0000000000000000e+00" cType="1" res="-1.5190650010481477e-03" rms="4.4578209519386292e-01" purity="2.8230297565460205e-01" nType="-99"/>
        </Node>
      </Node>
    </BinaryTree>
    <BinaryTree type="DecisionTree" boostWeight="1.0000000000000000e+00" itree="306">
      <Node pos="s" depth="0" NCoef="0" IVar="0" Cut="1.9812413024902344e+02" cType="1" res="-1.9984977319836617e-02" rms="4.8062530159950256e-01" purity="4.9090078473091125e-01" nType="0">
        <Node pos="l" depth="1" NCoef="0" IVar="0" Cut="9.1965209960937500e+01" cType="1" res="7.8754890710115433e-03" rms="4.8205429315567017e-01" purity="5.4144161939620972e-01" nType="0">
          <Node pos="l" depth="2" NCoef="0" IVar="-1" Cut="0.0000000000000000e+00" cType="1" res="-9.3028851551935077e-04" rms="4.7814565896987915e-01" purity="4.2270794510841370e-01" nType="-99"/>
          <Node pos="r" depth="2" NCoef="0" IVar="-1" Cut="0.0000000000000000e+00" cType="1" res="7.6768826693296432e-04" rms="4.7927203774452209e-01" purity="5.9621995687484741e-01" nType="-99"/>
        </Node>
        <Node pos="r" depth="1" NCoef="0" IVar="4" Cut="6.7393963623046875e+02" cType="1" res="-6.9085247814655304e-02" rms="4.7412809729576111e-01" purity="4.0182945132255554e-01" nType="0">
          <Node pos="l" depth="2" NCoef="0" IVar="-1" Cut="0.0000000000000000e+00" cType="1" res="-1.4619398862123489e-03" rms="4.4665694236755371e-01" purity="3.2436275482177734e-01" nType="-99"/>
          <Node pos="r" depth="2" NCoef="0" IVar="-1" Cut="0.0000000000000000e+00" cType="1" res="-6.1406061286106706e-04" rms="4.8241838812828064e-01" purity="4.3242830038070679e-01" nType="-99"/>
        </Node>
      </Node>
    </BinaryTree>
    <BinaryTree type="DecisionTree" boostWeight="1.0000000000000000e+00" itree="307">
      <Node pos="s" depth="0" NCoef="0" IVar="0" Cut="6.6542304992675781e+01" cType="1" res="-3.6772789899259806e-03" rms="4.7915294766426086e-01" purity="5.0739645957946777e-01" nType="0">
        <Node pos="l" depth="1" NCoef="0" IVar="-1" Cut="0.0000000000000000e+00" cType="1" res="-1.6585222911089659e-03" rms="4.6255823969841003e-01" purity="3.3532544970512390e-01" nType="-99"/>
        <Node pos="r" depth="1" NCoef="0" IVar="0" Cut="1.9345062255859375e+02" cType="1" res="1.0068165138363838e-02" rms="4.7867447137832642e-01" purity="5.2489167451858521e-01" nType="0">
          <Node pos="l" depth="2" NCoef="0" IVar="-1" Cut="0.0000000000000000e+00" cType="1" res="9.2744617722928524e-04" rms="4.7556307911872864e-01" purity="5.9843164682388306e-01" nType="-99"/>
          <Node pos="r" depth="2" NCoef="0" IVar="-1" Cut="0.0000000000000000e+00" cType="1" res="-7.3215761221945286e-04" rms="4.7584131360054016e-01" purity="4.1535791754722595e-01" nType="-99"/>
        </Node>
      </Node>
    </BinaryTree>
    <BinaryTree type="DecisionTree" boostWeight="1.0000000000000000e+00" itree="308">
      <Node pos="s" depth="0" NCoef="0" IVar="3" Cut="8.7080627679824829e-01" cType="1" res="-1.8586328253149986e-02" rms="4.7711172699928284e-01" purity="4.9163743853569031e-01" nType="0">
        <Node pos="l" depth="1" NCoef="0" IVar="1" Cut="1.2946171569824219e+02" cType="1" res="-8.4494203329086304e-02" rms="4.6743676066398621e-01" purity="3.6044597625732422e-01" nType="0">
          <Node pos="l" depth="2" NCoef="0" IVar="-1" Cut="0.0000000000000000e+00" cType="1" res="-6.7862909054383636e-04" rms="4.8030656576156616e-01" purity="4.0380504727363586e-01" nType="-99"/>
          <Node pos="r" depth="2" NCoef="0" IVar="-1" Cut="0.0000000000000000e+00" cType="1" res="-1.5154037391766906e-03" rms="4.3620598316192627e-01" purity="2.7794727683067322e-01" nType="-99"/>
        </Node>
        <Node pos="r" depth="1" NCoef="0" IVar="0" Cut="6.6752571105957031e+01" cType="1" res="7.0100040175020695e-03" rms="4.7837486863136292e-01" purity="5.4258763790130615e-01" nType="0">
          <Node pos="l" depth="2" NCoef="0" IVar="-1" Cut="0.0000000000000000e+00" cType="1" res="-1.7948029562830925e-03" rms="4.5352774858474731e-01" purity="3.3876234292984009e-01" nType="-99"/>
          <Node pos="r" depth="2" NCoef="0" IVar="-1" Cut="0.0000000000000000e+00" cType="1" res="3.8106334977783263e-04" rms="4.7805580496788025e-01" purity="5.6351757049560547e-01" nType="-99"/>
        </Node>
      </Node>
    </BinaryTree>
    <BinaryTree type="DecisionTree" boostWeight="1.0000000000000000e+00" itree="309">
      <Node pos="s" depth="0" NCoef="0" IVar="4" Cut="6.7006970214843750e+02" cType="1" res="-8.5737043991684914e-03" rms="4.7976553440093994e-01" purity="5.0395888090133667e-01" nType="0">
        <Node pos="l" depth="1" NCoef="0" IVar="2" Cut="8.9328057861328125e+02" cType="1" res="-4.6045467257499695e-02" rms="4.7655838727951050e-01" purity="4.6659725904464722e-01" nType="0">
          <Node pos="l" depth="2" NCoef="0" IVar="-1" Cut="0.0000000000000000e+00" cType="1" res="1.3208443124312907e-04" rms="4.7838348150253296e-01" purity="5.3438347578048706e-01" nType="-99"/>
          <Node pos="r" depth="2" NCoef="0" IVar="-1" Cut="0.0000000000000000e+00" cType="1" res="-2.2285250015556812e-03" rms="4.3722751736640930e-01" purity="2.7835348248481750e-01" nType="-99"/>
        </Node>
        <Node pos="r" depth="1" NCoef="0" IVar="2" Cut="1.0968453369140625e+03" cType="1" res="1.8833691254258156e-02" rms="4.8025003075599670e-01" purity="5.3128576278686523e-01" nType="0">
          <Node pos="l" depth="2" NCoef="0" IVar="-1" Cut="0.0000000000000000e+00" cType="1" res="1.8344081472605467e-03" rms="4.6582332253456116e-01" purity="6.3726758956909180e-01" nType="-99"/>
          <Node pos="r" depth="2" NCoef="0" IVar="-1" Cut="0.0000000000000000e+00" cType="1" res="-2.8702866984531283e-04" rms="4.8220354318618774e-01" purity="4.8046329617500305e-01" nType="-99"/>
        </Node>
      </Node>
    </BinaryTree>
    <BinaryTree type="DecisionTree" boostWeight="1.0000000000000000e+00" itree="310">
      <Node pos="s" depth="0" NCoef="0" IVar="3" Cut="9.5708799362182617e-01" cType="1" res="-1.7665619030594826e-02" rms="4.8004141449928284e-01" purity="4.9496510624885559e-01" nType="0">
        <Node pos="l" depth="1" NCoef="0" IVar="4" Cut="7.0443017578125000e+02" cType="1" res="-3.2281715422868729e-02" rms="4.8290118575096130e-01" purity="4.6805208921432495e-01" nType="0">
          <Node pos="l" depth="2" NCoef="0" IVar="-1" Cut="0.0000000000000000e+00" cType="1" res="-8.6914480198174715e-04" rms="4.7765675187110901e-01" purity="4.3503007292747498e-01" nType="-99"/>
          <Node pos="r" depth="2" NCoef="0" IVar="-1" Cut="0.0000000000000000e+00" cType="1" res="8.4343419075594284e-06" rms="4.8582780361175537e-01" purity="5.0084310770034790e-01" nType="-99"/>
        </Node>
        <Node pos="r" depth="1" NCoef="0" IVar="5" Cut="4.5196920633316040e-01" cType="1" res="1.1113068461418152e-01" rms="4.3324649333953857e-01" purity="7.3212152719497681e-01" nType="0">
          <Node pos="l" depth="2" NCoef="0" IVar="-1" Cut="0.0000000000000000e+00" cType="1" res="2.0993654616177082e-03" rms="4.4475823640823364e-01" purity="7.0578163862228394e-01" nType="-99"/>
          <Node pos="r" depth="2" NCoef="0" IVar="-1" Cut="0.0000000000000000e+00" cType="1" res="3.5684749018400908e-03" rms="4.2048704624176025e-01" purity="7.5706696510314941e-01" nType="-99"/>
        </Node>
      </Node>
    </BinaryTree>
    <BinaryTree type="DecisionTree" boostWeight="1.0000000000000000e+00" itree="311">
      <Node pos="s" depth="0" NCoef="0" IVar="1" Cut="1.3726518249511719e+02" cType="1" res="-1.9366244086995721e-03" rms="4.7878068685531616e-01" purity="5.0905728340148926e-01" nType="0">
        <Node pos="l" depth="1" NCoef="0" IVar="1" Cut="1.0644978332519531e+02" cType="1" res="2.0136279985308647e-02" rms="4.8025643825531006e-01" purity="5.4768383502960205e-01" nType="0">
          <Node pos="l" depth="2" NCoef="0" IVar="-1" Cut="0.0000000000000000e+00" cType="1" res="-1.1069970205426216e-03" rms="4.6412390470504761e-01" purity="3.6531743407249451e-01" nType="-99"/>
          <Node pos="r" depth="2" NCoef="0" IVar="-1" Cut="0.0000000000000000e+00" cType="1" res="6.5899419132620096e-04" rms="4.8060280084609985e-01" purity="5.8020526170730591e-01" nType="-99"/>
        </Node>
        <Node pos="r" depth="1" NCoef="0" IVar="4" Cut="8.8051666259765625e+02" cType="1" res="-1.0219222307205200e-01" rms="4.5884469151496887e-01" purity="3.3361461758613586e-01" nType="0">
          <Node pos="l" depth="2" NCoef="0" IVar="-1" Cut="0.0000000000000000e+00" cType="1" res="-1.5462009469047189e-03" rms="4.5001193881034851e-01" purity="3.0928370356559753e-01" nType="-99"/>
          <Node pos="r" depth="2" NCoef="0" IVar="-1" Cut="0.0000000000000000e+00" cType="1" res="-5.8387889293953776e-04" rms="4.6952563524246216e-01" purity="3.7818470597267151e-01" nType="-99"/>
        </Node>
      </Node>
    </BinaryTree>
    <BinaryTree type="DecisionTree" boostWeight="1.0000000000000000e+00" itree="312">
      <Node pos="s" depth="0" NCoef="0" IVar="1" Cut="1.4460450744628906e+02" cType="1" res="-1.2473766691982746e-02" rms="4.7561916708946228e-01" purity="4.9504697322845459e-01" nType="0">
        <Node pos="l" depth="1" NCoef="0" IVar="3" Cut="8.8040471076965332e-01" cType="1" res="5.9635275974869728e-03" rms="4.7791916131973267e-01" purity="5.2521961927413940e-01" nType="0">
          <Node pos="l" depth="2" NCoef="0" IVar="-1" Cut="0.0000000000000000e+00" cType="1" res="-6.8429723614826798e-04" rms="4.8027306795120239e-01" purity="4.0487995743751526e-01" nType="-99"/>
          <Node pos="r" depth="2" NCoef="0" IVar="-1" Cut="0.0000000000000000e+00" cType="1" res="7.9067045589908957e-04" rms="4.7233814001083374e-01" purity="6.0302168130874634e-01" nType="-99"/>
        </Node>
        <Node pos="r" depth="1" NCoef="0" IVar="-1" Cut="0.0000000000000000e+00" cType="1" res="-1.8370157340541482e-03" rms="4.2656773328781128e-01" purity="2.4531121551990509e-01" nType="-99"/>
      </Node>
    </BinaryTree>
    <BinaryTree type="DecisionTree" boostWeight="1.0000000000000000e+00" itree="313">
      <Node pos="s" depth="0" NCoef="0" IVar="0" Cut="6.6482437133789062e+01" cType="1" res="-1.7899811267852783e-02" rms="4.8108029365539551e-01" purity="4.9545618891716003e-01" nType="0">
        <Node pos="l" depth="1" NCoef="0" IVar="-1" Cut="0.0000000000000000e+00" cType="1" res="-1.6159509541466832e-03" rms="4.5846197009086609e-01" purity="3.2995790243148804e-01" nType="-99"/>
        <Node pos="r" depth="1" NCoef="0" IVar="0" Cut="1.5089178466796875e+02" cType="1" res="-5.8282539248466492e-03" rms="4.8163843154907227e-01" purity="5.1207631826400757e-01" nType="0">
          <Node pos="l" depth="2" NCoef="0" IVar="-1" Cut="0.0000000000000000e+00" cType="1" res="7.1098440093919635e-04" rms="4.7969317436218262e-01" purity="5.9508103132247925e-01" nType="-99"/>
          <Node pos="r" depth="2" NCoef="0" IVar="-1" Cut="0.0000000000000000e+00" cType="1" res="-6.3752522692084312e-04" rms="4.7958233952522278e-01" purity="4.4051244854927063e-01" nType="-99"/>
        </Node>
      </Node>
    </BinaryTree>
    <BinaryTree type="DecisionTree" boostWeight="1.0000000000000000e+00" itree="314">
      <Node pos="s" depth="0" NCoef="0" IVar="4" Cut="5.3330407714843750e+02" cType="1" res="-1.2813881039619446e-02" rms="4.8041346669197083e-01" purity="4.9898526072502136e-01" nType="0">
        <Node pos="l" depth="1" NCoef="0" IVar="2" Cut="6.3353601074218750e+02" cType="1" res="-1.1419798433780670e-01" rms="4.7185543179512024e-01" purity="4.0058246254920959e-01" nType="0">
          <Node pos="l" depth="2" NCoef="0" IVar="-1" Cut="0.0000000000000000e+00" cType="1" res="4.1281772428192198e-04" rms="4.8771756887435913e-01" purity="5.6991744041442871e-01" nType="-99"/>
          <Node pos="r" depth="2" NCoef="0" IVar="-1" Cut="0.0000000000000000e+00" cType="1" res="-2.4577556177973747e-03" rms="4.3107479810714722e-01" purity="2.7274155616760254e-01" nType="-99"/>
        </Node>
        <Node pos="r" depth="1" NCoef="0" IVar="1" Cut="1.4808088684082031e+02" cType="1" res="7.7863736078143120e-03" rms="4.7952070832252502e-01" purity="5.1897972822189331e-01" nType="0">
          <Node pos="l" depth="2" NCoef="0" IVar="-1" Cut="0.0000000000000000e+00" cType="1" res="2.9934829217381775e-04" rms="4.8044085502624512e-01" purity="5.4048049449920654e-01" nType="-99"/>
          <Node pos="r" depth="2" NCoef="0" IVar="-1" Cut="0.0000000000000000e+00" cType="1" res="-1.2815690133720636e-03" rms="4.5339646935462952e-01" purity="2.9265549778938293e-01" nType="-99"/>
        </Node>
      </Node>
    </BinaryTree>
    <BinaryTree type="DecisionTree" boostWeight="1.0000000000000000e+00" itree="315">
      <Node pos="s" depth="0" NCoef="0" IVar="2" Cut="1.2982996826171875e+03" cType="1" res="-7.9502100124955177e-03" rms="4.7950226068496704e-01" purity="5.0481307506561279e-01" nType="0">
        <Node pos="l" depth="1" NCoef="0" IVar="4" Cut="9.0047235107421875e+02" cType="1" res="1.5160041861236095e-02" rms="4.7782859206199646e-01" purity="5.3750562667846680e-01" nType="0">
          <Node pos="l" depth="2" NCoef="0" IVar="-1" Cut="0.0000000000000000e+00" cType="1" res="-4.9138456233777106e-05" rms="4.7806733846664429e-01" purity="5.1783031225204468e-01" nType="-99"/>
          <Node pos="r" depth="2" NCoef="0" IVar="-1" Cut="0.0000000000000000e+00" cType="1" res="5.2499631419777870e-03" rms="4.2600563168525696e-01" purity="7.5330209732055664e-01" nType="-99"/>
        </Node>
        <Node pos="r" depth="1" NCoef="0" IVar="4" Cut="1.1145224609375000e+03" cType="1" res="-6.4791217446327209e-02" rms="4.7887229919433594e-01" purity="4.2440390586853027e-01" nType="0">
          <Node pos="l" depth="2" NCoef="0" IVar="-1" Cut="0.0000000000000000e+00" cType="1" res="-1.4649793738499284e-03" rms="4.7182318568229675e-01" purity="3.7612265348434448e-01" nType="-99"/>
          <Node pos="r" depth="2" NCoef="0" IVar="-1" Cut="0.0000000000000000e+00" cType="1" res="-8.9072136688628234e-07" rms="4.7945365309715271e-01" purity="4.8333582282066345e-01" nType="-99"/>
        </Node>
      </Node>
    </BinaryTree>
    <BinaryTree type="DecisionTree" boostWeight="1.0000000000000000e+00" itree="316">
      <Node pos="s" depth="0" NCoef="0" IVar="4" Cut="5.4810174560546875e+02" cType="1" res="-5.0071054138243198e-03" rms="4.7943833470344543e-01" purity="5.0617635250091553e-01" nType="0">
        <Node pos="l" depth="1" NCoef="0" IVar="2" Cut="6.1429803466796875e+02" cType="1" res="-9.0650483965873718e-02" rms="4.7299793362617493e-01" purity="4.2463186383247375e-01" nType="0">
          <Node pos="l" depth="2" NCoef="0" IVar="-1" Cut="0.0000000000000000e+00" cType="1" res="1.5655567403882742e-04" rms="4.8481082916259766e-01" purity="5.5454510450363159e-01" nType="-99"/>
          <Node pos="r" depth="2" NCoef="0" IVar="-1" Cut="0.0000000000000000e+00" cType="1" res="-1.7268100054934621e-03" rms="4.5762875676155090e-01" purity="3.5508316755294800e-01" nType="-99"/>
        </Node>
        <Node pos="r" depth="1" NCoef="0" IVar="2" Cut="1.3100512695312500e+03" cType="1" res="1.6401657834649086e-02" rms="4.7864669561386108e-01" purity="5.2656054496765137e-01" nType="0">
          <Node pos="l" depth="2" NCoef="0" IVar="-1" Cut="0.0000000000000000e+00" cType="1" res="7.4477057205513120e-04" rms="4.7670528292655945e-01" purity="5.6793546676635742e-01" nType="-99"/>
          <Node pos="r" depth="2" NCoef="0" IVar="-1" Cut="0.0000000000000000e+00" cType="1" res="-5.5473990505561233e-04" rms="4.7733539342880249e-01" purity="4.4776511192321777e-01" nType="-99"/>
        </Node>
      </Node>
    </BinaryTree>
    <BinaryTree type="DecisionTree" boostWeight="1.0000000000000000e+00" itree="317">
      <Node pos="s" depth="0" NCoef="0" IVar="3" Cut="9.2192989587783813e-01" cType="1" res="-9.1437362134456635e-03" rms="4.7672671079635620e-01" purity="5.0116747617721558e-01" nType="0">
        <Node pos="l" depth="1" NCoef="0" IVar="1" Cut="1.4251347351074219e+02" cType="1" res="-3.6087829619646072e-02" rms="4.8116689920425415e-01" purity="4.4205939769744873e-01" nType="0">
          <Node pos="l" depth="2" NCoef="0" IVar="-1" Cut="0.0000000000000000e+00" cType="1" res="-2.8050289256498218e-04" rms="4.8700150847434998e-01" purity="4.7070816159248352e-01" nType="-99"/>
          <Node pos="r" depth="2" NCoef="0" IVar="-1" Cut="0.0000000000000000e+00" cType="1" res="-1.4052048791199923e-03" rms="4.2660868167877197e-01" purity="2.5351241230964661e-01" nType="-99"/>
        </Node>
        <Node pos="r" depth="1" NCoef="0" IVar="4" Cut="5.4810174560546875e+02" cType="1" res="5.9570439159870148e-02" rms="4.5809221267700195e-01" purity="6.5190798044204712e-01" nType="0">
          <Node pos="l" depth="2" NCoef="0" IVar="-1" Cut="0.0000000000000000e+00" cType="1" res="-8.1509945448487997e-04" rms="4.6553191542625427e-01" purity="5.3657990694046021e-01" nType="-99"/>
          <Node pos="r" depth="2" NCoef="0" IVar="-1" Cut="0.0000000000000000e+00" cType="1" res="1.8721948144957423e-03" rms="4.5196601748466492e-01" purity="6.8042498826980591e-01" nType="-99"/>
        </Node>
      </Node>
    </BinaryTree>
    <BinaryTree type="DecisionTree" boostWeight="1.0000000000000000e+00" itree="318">
      <Node pos="s" depth="0" NCoef="0" IVar="2" Cut="7.2130987548828125e+02" cType="1" res="-5.0696698017418385e-03" rms="4.8035532236099243e-01" purity="5.0732523202896118e-01" nType="0">
        <Node pos="l" depth="1" NCoef="0" IVar="4" Cut="5.2458599853515625e+02" cType="1" res="8.9769534766674042e-02" rms="4.6381837129592896e-01" purity="6.3639634847640991e-01" nType="0">
          <Node pos="l" depth="2" NCoef="0" IVar="-1" Cut="0.0000000000000000e+00" cType="1" res="4.4105653068982065e-04" rms="4.7821575403213501e-01" purity="5.6274414062500000e-01" nType="-99"/>
          <Node pos="r" depth="2" NCoef="0" IVar="-1" Cut="0.0000000000000000e+00" cType="1" res="4.5243646018207073e-03" rms="4.1929042339324951e-01" purity="7.5700092315673828e-01" nType="-99"/>
        </Node>
        <Node pos="r" depth="1" NCoef="0" IVar="4" Cut="5.8765405273437500e+02" cType="1" res="-2.2243281826376915e-02" rms="4.8129504919052124e-01" purity="4.8395285010337830e-01" nType="0">
          <Node pos="l" depth="2" NCoef="0" IVar="-1" Cut="0.0000000000000000e+00" cType="1" res="-1.8963763723149896e-03" rms="4.4522222876548767e-01" purity="3.0757671594619751e-01" nType="-99"/>
          <Node pos="r" depth="2" NCoef="0" IVar="-1" Cut="0.0000000000000000e+00" cType="1" res="3.3257889299420640e-05" rms="4.8317584395408630e-01" purity="5.1472586393356323e-01" nType="-99"/>
        </Node>
      </Node>
    </BinaryTree>
    <BinaryTree type="DecisionTree" boostWeight="1.0000000000000000e+00" itree="319">
      <Node pos="s" depth="0" NCoef="0" IVar="0" Cut="1.9297581481933594e+02" cType="1" res="-7.3818210512399673e-03" rms="4.7767224907875061e-01" purity="5.0332272052764893e-01" nType="0">
        <Node pos="l" depth="1" NCoef="0" IVar="0" Cut="8.2546661376953125e+01" cType="1" res="2.2897005081176758e-02" rms="4.7662502527236938e-01" purity="5.5747842788696289e-01" nType="0">
          <Node pos="l" depth="2" NCoef="0" IVar="-1" Cut="0.0000000000000000e+00" cType="1" res="-1.0499190539121628e-03" rms="4.7106671333312988e-01" purity="4.0088567137718201e-01" nType="-99"/>
          <Node pos="r" depth="2" NCoef="0" IVar="-1" Cut="0.0000000000000000e+00" cType="1" res="1.0059808846563101e-03" rms="4.7312527894973755e-01" purity="6.0825222730636597e-01" nType="-99"/>
        </Node>
        <Node pos="r" depth="1" NCoef="0" IVar="4" Cut="6.5092877197265625e+02" cType="1" res="-5.7033304125070572e-02" rms="4.7522720694541931e-01" purity="4.1451767086982727e-01" nType="0">
          <Node pos="l" depth="2" NCoef="0" IVar="-1" Cut="0.0000000000000000e+00" cType="1" res="-1.8028682097792625e-03" rms="4.3873783946037292e-01" purity="3.0202096700668335e-01" nType="-99"/>
          <Node pos="r" depth="2" NCoef="0" IVar="-1" Cut="0.0000000000000000e+00" cType="1" res="-2.9023727984167635e-04" rms="4.8271900415420532e-01" purity="4.5551058650016785e-01" nType="-99"/>
        </Node>
      </Node>
    </BinaryTree>
    <BinaryTree type="DecisionTree" boostWeight="1.0000000000000000e+00" itree="320">
      <Node pos="s" depth="0" NCoef="0" IVar="2" Cut="6.2795019531250000e+02" cType="1" res="-1.5732191503047943e-02" rms="4.7685953974723816e-01" purity="4.9506601691246033e-01" nType="0">
        <Node pos="l" depth="1" NCoef="0" IVar="-1" Cut="0.0000000000000000e+00" cType="1" res="2.5572224985808134e-03" rms="4.5640844106674194e-01" purity="6.7615157365798950e-01" nType="-99"/>
        <Node pos="r" depth="1" NCoef="0" IVar="4" Cut="5.7080572509765625e+02" cType="1" res="-2.7176419273018837e-02" rms="4.7665983438491821e-01" purity="4.8034477233886719e-01" nType="0">
          <Node pos="l" depth="2" NCoef="0" IVar="-1" Cut="0.0000000000000000e+00" cType="1" res="-1.7888925503939390e-03" rms="4.4580936431884766e-01" purity="3.4749078750610352e-01" nType="-99"/>
          <Node pos="r" depth="2" NCoef="0" IVar="-1" Cut="0.0000000000000000e+00" cType="1" res="-3.1168889108812436e-05" rms="4.7920760512351990e-01" purity="5.0854748487472534e-01" nType="-99"/>
        </Node>
      </Node>
    </BinaryTree>
    <BinaryTree type="DecisionTree" boostWeight="1.0000000000000000e+00" itree="321">
      <Node pos="s" depth="0" NCoef="0" IVar="0" Cut="6.8099517822265625e+01" cType="1" res="-4.6959030441939831e-03" rms="4.7735795378684998e-01" purity="5.0779455900192261e-01" nType="0">
        <Node pos="l" depth="1" NCoef="0" IVar="-1" Cut="0.0000000000000000e+00" cType="1" res="-1.5063892351463437e-03" rms="4.6075049042701721e-01" purity="3.4547123312950134e-01" nType="-99"/>
        <Node pos="r" depth="1" NCoef="0" IVar="3" Cut="8.9315271377563477e-01" cType="1" res="7.7229784801602364e-03" rms="4.7733020782470703e-01" purity="5.2462422847747803e-01" nType="0">
          <Node pos="l" depth="2" NCoef="0" IVar="-1" Cut="0.0000000000000000e+00" cType="1" res="-3.7903516204096377e-04" rms="4.8102068901062012e-01" purity="4.2910420894622803e-01" nType="-99"/>
          <Node pos="r" depth="2" NCoef="0" IVar="-1" Cut="0.0000000000000000e+00" cType="1" res="8.7738380534574389e-04" rms="4.7039192914962769e-01" purity="6.2319141626358032e-01" nType="-99"/>
        </Node>
      </Node>
    </BinaryTree>
    <BinaryTree type="DecisionTree" boostWeight="1.0000000000000000e+00" itree="322">
      <Node pos="s" depth="0" NCoef="0" IVar="3" Cut="8.9627540111541748e-01" cType="1" res="-1.1448717676103115e-02" rms="4.7745454311370850e-01" purity="4.9830704927444458e-01" nType="0">
        <Node pos="l" depth="1" NCoef="0" IVar="2" Cut="6.8840014648437500e+02" cType="1" res="-4.6449817717075348e-02" rms="4.7833025455474854e-01" purity="4.0914461016654968e-01" nType="0">
          <Node pos="l" depth="2" NCoef="0" IVar="-1" Cut="0.0000000000000000e+00" cType="1" res="1.0051706340163946e-03" rms="4.8296034336090088e-01" purity="5.3805798292160034e-01" nType="-99"/>
          <Node pos="r" depth="2" NCoef="0" IVar="-1" Cut="0.0000000000000000e+00" cType="1" res="-7.6222553616389632e-04" rms="4.7564825415611267e-01" purity="3.9089429378509521e-01" nType="-99"/>
        </Node>
        <Node pos="r" depth="1" NCoef="0" IVar="0" Cut="1.6894435119628906e+02" cType="1" res="2.7617542073130608e-02" rms="4.7342911362648010e-01" purity="5.9782510995864868e-01" nType="0">
          <Node pos="l" depth="2" NCoef="0" IVar="-1" Cut="0.0000000000000000e+00" cType="1" res="1.2223339872434735e-03" rms="4.6378594636917114e-01" purity="6.5686082839965820e-01" nType="-99"/>
          <Node pos="r" depth="2" NCoef="0" IVar="-1" Cut="0.0000000000000000e+00" cType="1" res="-2.3791131388861686e-04" rms="4.8286443948745728e-01" purity="5.1808154582977295e-01" nType="-99"/>
        </Node>
      </Node>
    </BinaryTree>
    <BinaryTree type="DecisionTree" boostWeight="1.0000000000000000e+00" itree="323">
      <Node pos="s" depth="0" NCoef="0" IVar="5" Cut="8.3051735162734985e-01" cType="1" res="-9.0385153889656067e-03" rms="4.7926524281501770e-01" purity="5.0166839361190796e-01" nType="0">
        <Node pos="l" depth="1" NCoef="0" IVar="4" Cut="8.7141473388671875e+02" cType="1" res="-2.0327145233750343e-02" rms="4.7893661260604858e-01" purity="4.8622480034828186e-01" nType="0">
          <Node pos="l" depth="2" NCoef="0" IVar="-1" Cut="0.0000000000000000e+00" cType="1" res="-6.4272823510691524e-04" rms="4.7560814023017883e-01" purity="4.6328482031822205e-01" nType="-99"/>
          <Node pos="r" depth="2" NCoef="0" IVar="-1" Cut="0.0000000000000000e+00" cType="1" res="6.5731356153264642e-04" rms="4.8156574368476868e-01" purity="5.4434299468994141e-01" nType="-99"/>
        </Node>
        <Node pos="r" depth="1" NCoef="0" IVar="-1" Cut="0.0000000000000000e+00" cType="1" res="2.1199320908635855e-03" rms="4.6602886915206909e-01" purity="6.6647899150848389e-01" nType="-99"/>
      </Node>
    </BinaryTree>
    <BinaryTree type="DecisionTree" boostWeight="1.0000000000000000e+00" itree="324">
      <Node pos="s" depth="0" NCoef="0" IVar="3" Cut="8.6442720890045166e-01" cType="1" res="-1.6432812437415123e-02" rms="4.7659537196159363e-01" purity="4.9172765016555786e-01" nType="0">
        <Node pos="l" depth="1" NCoef="0" IVar="1" Cut="1.1827729797363281e+02" cType="1" res="-1.0179013758897781e-01" rms="4.5949655771255493e-01" purity="3.3861798048019409e-01" nType="0">
          <Node pos="l" depth="2" NCoef="0" IVar="-1" Cut="0.0000000000000000e+00" cType="1" res="-1.6520981444045901e-03" rms="4.4404333829879761e-01" purity="2.8680974245071411e-01" nType="-99"/>
          <Node pos="r" depth="2" NCoef="0" IVar="-1" Cut="0.0000000000000000e+00" cType="1" res="-8.0128508852794766e-04" rms="4.6619522571563721e-01" purity="3.7286454439163208e-01" nType="-99"/>
        </Node>
        <Node pos="r" depth="1" NCoef="0" IVar="1" Cut="1.3411058044433594e+02" cType="1" res="6.6960547119379044e-03" rms="4.7850921750068665e-01" purity="5.3321510553359985e-01" nType="0">
          <Node pos="l" depth="2" NCoef="0" IVar="-1" Cut="0.0000000000000000e+00" cType="1" res="4.6979071339592338e-04" rms="4.7700560092926025e-01" purity="5.7126867771148682e-01" nType="-99"/>
          <Node pos="r" depth="2" NCoef="0" IVar="-1" Cut="0.0000000000000000e+00" cType="1" res="-8.9372391812503338e-04" rms="4.7615835070610046e-01" purity="3.9566394686698914e-01" nType="-99"/>
        </Node>
      </Node>
    </BinaryTree>
    <BinaryTree type="DecisionTree" boostWeight="1.0000000000000000e+00" itree="325">
      <Node pos="s" depth="0" NCoef="0" IVar="2" Cut="7.1085650634765625e+02" cType="1" res="-8.6113456636667252e-03" rms="4.8033004999160767e-01" purity="5.0493061542510986e-01" nType="0">
        <Node pos="l" depth="1" NCoef="0" IVar="4" Cut="5.0737106323242188e+02" cType="1" res="7.9799950122833252e-02" rms="4.6608373522758484e-01" purity="6.2973535060882568e-01" nType="0">
          <Node pos="l" depth="2" NCoef="0" IVar="-1" Cut="0.0000000000000000e+00" cType="1" res="9.7204218036495149e-05" rms="4.8501789569854736e-01" purity="5.4680514335632324e-01" nType="-99"/>
          <Node pos="r" depth="2" NCoef="0" IVar="-1" Cut="0.0000000000000000e+00" cType="1" res="4.5524835586547852e-03" rms="4.1380971670150757e-01" purity="7.5107610225677490e-01" nType="-99"/>
        </Node>
        <Node pos="r" depth="1" NCoef="0" IVar="4" Cut="6.7313903808593750e+02" cType="1" res="-2.3363966494798660e-02" rms="4.8108711838722229e-01" purity="4.8410525918006897e-01" nType="0">
          <Node pos="l" depth="2" NCoef="0" IVar="-1" Cut="0.0000000000000000e+00" cType="1" res="-1.2984395725652575e-03" rms="4.7449034452438354e-01" purity="3.9348515868186951e-01" nType="-99"/>
          <Node pos="r" depth="2" NCoef="0" IVar="-1" Cut="0.0000000000000000e+00" cType="1" res="2.0843745733145624e-04" rms="4.7977179288864136e-01" purity="5.2686637639999390e-01" nType="-99"/>
        </Node>
      </Node>
    </BinaryTree>
    <BinaryTree type="DecisionTree" boostWeight="1.0000000000000000e+00" itree="326">
      <Node pos="s" depth="0" NCoef="0" IVar="3" Cut="9.3035739660263062e-01" cType="1" res="-1.9817870110273361e-02" rms="4.7866591811180115e-01" purity="4.9076977372169495e-01" nType="0">
        <Node pos="l" depth="1" NCoef="0" IVar="4" Cut="5.3489697265625000e+02" cType="1" res="-3.9870694279670715e-02" rms="4.8157194256782532e-01" purity="4.4283688068389893e-01" nType="0">
          <Node pos="l" depth="2" NCoef="0" IVar="-1" Cut="0.0000000000000000e+00" cType="1" res="-1.4615036780014634e-03" rms="4.5710265636444092e-01" purity="3.5408070683479309e-01" nType="-99"/>
          <Node pos="r" depth="2" NCoef="0" IVar="-1" Cut="0.0000000000000000e+00" cType="1" res="-2.9480998637154698e-04" rms="4.8488417267799377e-01" purity="4.6260926127433777e-01" nType="-99"/>
        </Node>
        <Node pos="r" depth="1" NCoef="0" IVar="2" Cut="8.6373590087890625e+02" cType="1" res="4.7399550676345825e-02" rms="4.6249455213546753e-01" purity="6.5144163370132446e-01" nType="0">
          <Node pos="l" depth="2" NCoef="0" IVar="-1" Cut="0.0000000000000000e+00" cType="1" res="2.6915636844933033e-03" rms="4.3895804882049561e-01" purity="7.3265874385833740e-01" nType="-99"/>
          <Node pos="r" depth="2" NCoef="0" IVar="-1" Cut="0.0000000000000000e+00" cType="1" res="4.0895218262448907e-04" rms="4.7059679031372070e-01" purity="6.1394953727722168e-01" nType="-99"/>
        </Node>
      </Node>
    </BinaryTree>
    <BinaryTree type="DecisionTree" boostWeight="1.0000000000000000e+00" itree="327">
      <Node pos="s" depth="0" NCoef="0" IVar="0" Cut="6.8411994934082031e+01" cType="1" res="-1.6091085271909833e-03" rms="4.8139834403991699e-01" purity="5.1316398382186890e-01" nType="0">
        <Node pos="l" depth="1" NCoef="0" IVar="-1" Cut="0.0000000000000000e+00" cType="1" res="-1.3224929571151733e-03" rms="4.5874103903770447e-01" purity="3.5727813839912415e-01" nType="-99"/>
        <Node pos="r" depth="1" NCoef="0" IVar="0" Cut="4.6001528930664062e+02" cType="1" res="9.0353637933731079e-03" rms="4.8228961229324341e-01" purity="5.2863419055938721e-01" nType="0">
          <Node pos="l" depth="2" NCoef="0" IVar="-1" Cut="0.0000000000000000e+00" cType="1" res="2.7100200532004237e-04" rms="4.8225924372673035e-01" purity="5.4351454973220825e-01" nType="-99"/>
          <Node pos="r" depth="2" NCoef="0" IVar="-1" Cut="0.0000000000000000e+00" cType="1" res="-1.1450086021795869e-03" rms="4.7031593322753906e-01" purity="3.3938843011856079e-01" nType="-99"/>
        </Node>
      </Node>
    </BinaryTree>
    <BinaryTree type="DecisionTree" boostWeight="1.0000000000000000e+00" itree="328">
      <Node pos="s" depth="0" NCoef="0" IVar="0" Cut="6.8411994934082031e+01" cType="1" res="-8.2241808995604515e-03" rms="4.7718521952629089e-01" purity="5.0305753946304321e-01" nType="0">
        <Node pos="l" depth="1" NCoef="0" IVar="-1" Cut="0.0000000000000000e+00" cType="1" res="-1.6902945935726166e-03" rms="4.4460937380790710e-01" purity="3.2055747509002686e-01" nType="-99"/>
        <Node pos="r" depth="1" NCoef="0" IVar="3" Cut="8.6438387632369995e-01" cType="1" res="8.4093566983938217e-03" rms="4.7843757271766663e-01" purity="5.2561616897583008e-01" nType="0">
          <Node pos="l" depth="2" NCoef="0" IVar="-1" Cut="0.0000000000000000e+00" cType="1" res="-7.3878758121281862e-04" rms="4.7924476861953735e-01" purity="3.9066725969314575e-01" nType="-99"/>
          <Node pos="r" depth="2" NCoef="0" IVar="-1" Cut="0.0000000000000000e+00" cType="1" res="4.3498681043274701e-04" rms="4.7661754488945007e-01" purity="5.6014299392700195e-01" nType="-99"/>
        </Node>
      </Node>
    </BinaryTree>
    <BinaryTree type="DecisionTree" boostWeight="1.0000000000000000e+00" itree="329">
      <Node pos="s" depth="0" NCoef="0" IVar="1" Cut="1.2815995788574219e+02" cType="1" res="-1.7448412254452705e-02" rms="4.7966545820236206e-01" purity="4.9574542045593262e-01" nType="0">
        <Node pos="l" depth="1" NCoef="0" IVar="0" Cut="2.8719509887695312e+02" cType="1" res="1.1861177161335945e-02" rms="4.7875639796257019e-01" purity="5.4144722223281860e-01" nType="0">
          <Node pos="l" depth="2" NCoef="0" IVar="-1" Cut="0.0000000000000000e+00" cType="1" res="5.3066475084051490e-04" rms="4.7557941079139709e-01" purity="5.7318478822708130e-01" nType="-99"/>
          <Node pos="r" depth="2" NCoef="0" IVar="-1" Cut="0.0000000000000000e+00" cType="1" res="-9.7114505479112267e-04" rms="4.8283714056015015e-01" purity="3.9920315146446228e-01" nType="-99"/>
        </Node>
        <Node pos="r" depth="1" NCoef="0" IVar="4" Cut="7.6876818847656250e+02" cType="1" res="-6.4881116151809692e-02" rms="4.7733518481254578e-01" purity="4.2178469896316528e-01" nType="0">
          <Node pos="l" depth="2" NCoef="0" IVar="-1" Cut="0.0000000000000000e+00" cType="1" res="-1.3855069410055876e-03" rms="4.6732786297798157e-01" purity="3.7367731332778931e-01" nType="-99"/>
          <Node pos="r" depth="2" NCoef="0" IVar="-1" Cut="0.0000000000000000e+00" cType="1" res="-6.2044004152994603e-05" rms="4.8311233520507812e-01" purity="4.8343312740325928e-01" nType="-99"/>
        </Node>
      </Node>
    </BinaryTree>
    <BinaryTree type="DecisionTree" boostWeight="1.0000000000000000e+00" itree="330">
      <Node pos="s" depth="0" NCoef="0" IVar="4" Cut="4.9909872436523438e+02" cType="1" res="-1.4076994732022285e-02" rms="4.7821328043937683e-01" purity="4.9790230393409729e-01" nType="0">
        <Node pos="l" depth="1" NCoef="0" IVar="2" Cut="5.9527014160156250e+02" cType="1" res="-1.0535833239555359e-01" rms="4.7136703133583069e-01" purity="4.1043049097061157e-01" nType="0">
          <Node pos="l" depth="2" NCoef="0" IVar="-1" Cut="0.0000000000000000e+00" cType="1" res="5.1679037278518081e-04" rms="4.8797917366027832e-01" purity="5.8008825778961182e-01" nType="-99"/>
          <Node pos="r" depth="2" NCoef="0" IVar="-1" Cut="0.0000000000000000e+00" cType="1" res="-2.2637627553194761e-03" rms="4.3785038590431213e-01" purity="2.9903632402420044e-01" nType="-99"/>
        </Node>
        <Node pos="r" depth="1" NCoef="0" IVar="2" Cut="8.9002319335937500e+02" cType="1" res="-8.7492534657940269e-04" rms="4.7775390744209290e-01" purity="5.1055347919464111e-01" nType="0">
          <Node pos="l" depth="2" NCoef="0" IVar="-1" Cut="0.0000000000000000e+00" cType="1" res="1.1888410663232207e-03" rms="4.6749716997146606e-01" purity="6.0008567571640015e-01" nType="-99"/>
          <Node pos="r" depth="2" NCoef="0" IVar="-1" Cut="0.0000000000000000e+00" cType="1" res="-3.9491461939178407e-04" rms="4.7900339961051941e-01" purity="4.7544106841087341e-01" nType="-99"/>
        </Node>
      </Node>
    </BinaryTree>
    <BinaryTree type="DecisionTree" boostWeight="1.0000000000000000e+00" itree="331">
      <Node pos="s" depth="0" NCoef="0" IVar="1" Cut="1.2831219482421875e+02" cType="1" res="-2.0601057913154364e-03" rms="4.7898650169372559e-01" purity="5.0972729921340942e-01" nType="0">
        <Node pos="l" depth="1" NCoef="0" IVar="3" Cut="8.9629888534545898e-01" cType="1" res="2.9015582054853439e-02" rms="4.7534215450286865e-01" purity="5.5446207523345947e-01" nType="0">
          <Node pos="l" depth="2" NCoef="0" IVar="-1" Cut="0.0000000000000000e+00" cType="1" res="-1.5584524953737855e-04" rms="4.8639330267906189e-01" purity="4.5682927966117859e-01" nType="-99"/>
          <Node pos="r" depth="2" NCoef="0" IVar="-1" Cut="0.0000000000000000e+00" cType="1" res="1.5478327404707670e-03" rms="4.5833739638328552e-01" purity="6.6352504491806030e-01" nType="-99"/>
        </Node>
        <Node pos="r" depth="1" NCoef="0" IVar="3" Cut="8.7039399147033691e-01" cType="1" res="-5.4511249065399170e-02" rms="4.8053839802742004e-01" purity="4.3422174453735352e-01" nType="0">
          <Node pos="l" depth="2" NCoef="0" IVar="-1" Cut="0.0000000000000000e+00" cType="1" res="-1.3704440789297223e-03" rms="4.5599836111068726e-01" purity="3.0609652400016785e-01" nType="-99"/>
          <Node pos="r" depth="2" NCoef="0" IVar="-1" Cut="0.0000000000000000e+00" cType="1" res="-3.7974122096784413e-04" rms="4.8781824111938477e-01" purity="4.8950853943824768e-01" nType="-99"/>
        </Node>
      </Node>
    </BinaryTree>
    <BinaryTree type="DecisionTree" boostWeight="1.0000000000000000e+00" itree="332">
      <Node pos="s" depth="0" NCoef="0" IVar="0" Cut="6.6752571105957031e+01" cType="1" res="9.7247408702969551e-03" rms="4.7636610269546509e-01" purity="5.2076822519302368e-01" nType="0">
        <Node pos="l" depth="1" NCoef="0" IVar="-1" Cut="0.0000000000000000e+00" cType="1" res="-1.4011475723236799e-03" rms="4.5629867911338806e-01" purity="3.4091398119926453e-01" nType="-99"/>
        <Node pos="r" depth="1" NCoef="0" IVar="0" Cut="1.9338941955566406e+02" cType="1" res="2.3094628006219864e-02" rms="4.7652736306190491e-01" purity="5.4001456499099731e-01" nType="0">
          <Node pos="l" depth="2" NCoef="0" IVar="-1" Cut="0.0000000000000000e+00" cType="1" res="1.0167822474613786e-03" rms="4.7526717185974121e-01" purity="6.0870730876922607e-01" nType="-99"/>
          <Node pos="r" depth="2" NCoef="0" IVar="-1" Cut="0.0000000000000000e+00" cType="1" res="-3.9668960380367935e-04" rms="4.7361454367637634e-01" purity="4.3828687071800232e-01" nType="-99"/>
        </Node>
      </Node>
    </BinaryTree>
    <BinaryTree type="DecisionTree" boostWeight="1.0000000000000000e+00" itree="333">
      <Node pos="s" depth="0" NCoef="0" IVar="4" Cut="6.6170782470703125e+02" cType="1" res="-3.0488534830510616e-03" rms="4.7867622971534729e-01" purity="5.1070499420166016e-01" nType="0">
        <Node pos="l" depth="1" NCoef="0" IVar="2" Cut="7.4517956542968750e+02" cType="1" res="-5.0227418541908264e-02" rms="4.7435063123703003e-01" purity="4.6010407805442810e-01" nType="0">
          <Node pos="l" depth="2" NCoef="0" IVar="-1" Cut="0.0000000000000000e+00" cType="1" res="8.5937569383531809e-04" rms="4.7291722893714905e-01" purity="5.9226876497268677e-01" nType="-99"/>
          <Node pos="r" depth="2" NCoef="0" IVar="-1" Cut="0.0000000000000000e+00" cType="1" res="-1.6392191173508763e-03" rms="4.5944893360137939e-01" purity="3.4969276189804077e-01" nType="-99"/>
        </Node>
        <Node pos="r" depth="1" NCoef="0" IVar="0" Cut="4.2683380126953125e+02" cType="1" res="3.0949724838137627e-02" rms="4.7889640927314758e-01" purity="5.4716980457305908e-01" nType="0">
          <Node pos="l" depth="2" NCoef="0" IVar="-1" Cut="0.0000000000000000e+00" cType="1" res="8.0678850645199418e-04" rms="4.7739216685295105e-01" purity="5.7438260316848755e-01" nType="-99"/>
          <Node pos="r" depth="2" NCoef="0" IVar="-1" Cut="0.0000000000000000e+00" cType="1" res="-1.1604052269831300e-03" rms="4.7125440835952759e-01" purity="3.5230320692062378e-01" nType="-99"/>
        </Node>
      </Node>
    </BinaryTree>
    <BinaryTree type="DecisionTree" boostWeight="1.0000000000000000e+00" itree="334">
      <Node pos="s" depth="0" NCoef="0" IVar="4" Cut="5.4132385253906250e+02" cType="1" res="-1.9954884424805641e-02" rms="4.7754064202308655e-01" purity="4.9148607254028320e-01" nType="0">
        <Node pos="l" depth="1" NCoef="0" IVar="2" Cut="6.4115197753906250e+02" cType="1" res="-9.1674461960792542e-02" rms="4.6919119358062744e-01" purity="4.2545863986015320e-01" nType="0">
          <Node pos="l" depth="2" NCoef="0" IVar="-1" Cut="0.0000000000000000e+00" cType="1" res="5.4455030476674438e-04" rms="4.8140597343444824e-01" purity="5.8462822437286377e-01" nType="-99"/>
          <Node pos="r" depth="2" NCoef="0" IVar="-1" Cut="0.0000000000000000e+00" cType="1" res="-2.1602259948849678e-03" rms="4.3451589345932007e-01" purity="2.9624691605567932e-01" nType="-99"/>
        </Node>
        <Node pos="r" depth="1" NCoef="0" IVar="2" Cut="7.5616864013671875e+02" cType="1" res="-2.9734931886196136e-03" rms="4.7792300581932068e-01" purity="5.0711971521377563e-01" nType="0">
          <Node pos="l" depth="2" NCoef="0" IVar="-1" Cut="0.0000000000000000e+00" cType="1" res="2.7746714185923338e-03" rms="4.4944217801094055e-01" purity="6.8552607297897339e-01" nType="-99"/>
          <Node pos="r" depth="2" NCoef="0" IVar="-1" Cut="0.0000000000000000e+00" cType="1" res="-2.4771317839622498e-04" rms="4.7846207022666931e-01" purity="4.8931699991226196e-01" nType="-99"/>
        </Node>
      </Node>
    </BinaryTree>
    <BinaryTree type="DecisionTree" boostWeight="1.0000000000000000e+00" itree="335">
      <Node pos="s" depth="0" NCoef="0" IVar="1" Cut="1.3852383422851562e+02" cType="1" res="-1.6520045697689056e-02" rms="4.7905468940734863e-01" purity="4.9601241946220398e-01" nType="0">
        <Node pos="l" depth="1" NCoef="0" IVar="1" Cut="1.0819860839843750e+02" cType="1" res="-3.0620554462075233e-03" rms="4.8228907585144043e-01" purity="5.2574020624160767e-01" nType="0">
          <Node pos="l" depth="2" NCoef="0" IVar="-1" Cut="0.0000000000000000e+00" cType="1" res="-1.1202890891581774e-03" rms="4.6957999467849731e-01" purity="3.7438815832138062e-01" nType="-99"/>
          <Node pos="r" depth="2" NCoef="0" IVar="-1" Cut="0.0000000000000000e+00" cType="1" res="2.3612019140273333e-04" rms="4.8294702172279358e-01" purity="5.5693507194519043e-01" nType="-99"/>
        </Node>
        <Node pos="r" depth="1" NCoef="0" IVar="2" Cut="1.2233558349609375e+03" cType="1" res="-8.7774530053138733e-02" rms="4.5496660470962524e-01" purity="3.3861652016639709e-01" nType="0">
          <Node pos="l" depth="2" NCoef="0" IVar="-1" Cut="0.0000000000000000e+00" cType="1" res="-6.2796188285574317e-04" rms="4.6877166628837585e-01" purity="3.9351746439933777e-01" nType="-99"/>
          <Node pos="r" depth="2" NCoef="0" IVar="-1" Cut="0.0000000000000000e+00" cType="1" res="-1.4905456919223070e-03" rms="4.3412879109382629e-01" purity="2.7588000893592834e-01" nType="-99"/>
        </Node>
      </Node>
    </BinaryTree>
    <BinaryTree type="DecisionTree" boostWeight="1.0000000000000000e+00" itree="336">
      <Node pos="s" depth="0" NCoef="0" IVar="3" Cut="9.5668005943298340e-01" cType="1" res="-7.7207186259329319e-03" rms="4.7745433449745178e-01" purity="5.0280880928039551e-01" nType="0">
        <Node pos="l" depth="1" NCoef="0" IVar="4" Cut="8.7141473388671875e+02" cType="1" res="-2.0614869892597198e-02" rms="4.8054295778274536e-01" purity="4.7646445035934448e-01" nType="0">
          <Node pos="l" depth="2" NCoef="0" IVar="-1" Cut="0.0000000000000000e+00" cType="1" res="-5.9177167713642120e-04" rms="4.7822576761245728e-01" purity="4.5744246244430542e-01" nType="-99"/>
          <Node pos="r" depth="2" NCoef="0" IVar="-1" Cut="0.0000000000000000e+00" cType="1" res="4.6625523827970028e-04" rms="4.8196378350257874e-01" purity="5.2055102586746216e-01" nType="-99"/>
        </Node>
        <Node pos="r" depth="1" NCoef="0" IVar="3" Cut="9.7255480289459229e-01" cType="1" res="1.0224881023168564e-01" rms="4.3498960137367249e-01" purity="7.2749030590057373e-01" nType="0">
          <Node pos="l" depth="2" NCoef="0" IVar="-1" Cut="0.0000000000000000e+00" cType="1" res="4.5405984856188297e-03" rms="4.0147396922111511e-01" purity="7.7611643075942993e-01" nType="-99"/>
          <Node pos="r" depth="2" NCoef="0" IVar="-1" Cut="0.0000000000000000e+00" cType="1" res="1.1961458949372172e-03" rms="4.5997679233551025e-01" purity="6.8003308773040771e-01" nType="-99"/>
        </Node>
      </Node>
    </BinaryTree>
    <BinaryTree type="DecisionTree" boostWeight="1.0000000000000000e+00" itree="337">
      <Node pos="s" depth="0" NCoef="0" IVar="1" Cut="1.0791755676269531e+02" cType="1" res="3.3694244921207428e-03" rms="4.7737020254135132e-01" purity="5.1417547464370728e-01" nType="0">
        <Node pos="l" depth="1" NCoef="0" IVar="4" Cut="8.0314141845703125e+02" cType="1" res="-8.3221659064292908e-02" rms="4.6802926063537598e-01" purity="3.7734752893447876e-01" nType="0">
          <Node pos="l" depth="2" NCoef="0" IVar="-1" Cut="0.0000000000000000e+00" cType="1" res="-1.5150412218645215e-03" rms="4.5542266964912415e-01" purity="3.4365987777709961e-01" nType="-99"/>
          <Node pos="r" depth="2" NCoef="0" IVar="-1" Cut="0.0000000000000000e+00" cType="1" res="-3.8208413752727211e-04" rms="4.8069226741790771e-01" purity="4.2663404345512390e-01" nType="-99"/>
        </Node>
        <Node pos="r" depth="1" NCoef="0" IVar="1" Cut="1.3834568786621094e+02" cType="1" res="1.7453683540225029e-02" rms="4.7738951444625854e-01" purity="5.3643095493316650e-01" nType="0">
          <Node pos="l" depth="2" NCoef="0" IVar="-1" Cut="0.0000000000000000e+00" cType="1" res="5.9205287834629416e-04" rms="4.7829860448837280e-01" purity="5.7557046413421631e-01" nType="-99"/>
          <Node pos="r" depth="2" NCoef="0" IVar="-1" Cut="0.0000000000000000e+00" cType="1" res="-8.5521867731586099e-04" rms="4.6381530165672302e-01" purity="3.5719043016433716e-01" nType="-99"/>
        </Node>
      </Node>
    </BinaryTree>
    <BinaryTree type="DecisionTree" boostWeight="1.0000000000000000e+00" itree="338">
      <Node pos="s" depth="0" NCoef="0" IVar="1" Cut="1.0922996520996094e+02" cType="1" res="-2.2998727858066559e-02" rms="4.7676900029182434e-01" purity="4.8662418127059937e-01" nType="0">
        <Node pos="l" depth="1" NCoef="0" IVar="4" Cut="8.0400219726562500e+02" cType="1" res="-1.0164742916822433e-01" rms="4.5978701114654541e-01" purity="3.5776236653327942e-01" nType="0">
          <Node pos="l" depth="2" NCoef="0" IVar="-1" Cut="0.0000000000000000e+00" cType="1" res="-1.6148139256983995e-03" rms="4.4400939345359802e-01" purity="3.2144883275032043e-01" nType="-99"/>
          <Node pos="r" depth="2" NCoef="0" IVar="-1" Cut="0.0000000000000000e+00" cType="1" res="-6.8511388963088393e-04" rms="4.7662150859832764e-01" purity="4.0794125199317932e-01" nType="-99"/>
        </Node>
        <Node pos="r" depth="1" NCoef="0" IVar="1" Cut="1.3945552062988281e+02" cType="1" res="-8.3126481622457504e-03" rms="4.7844311594963074e-01" purity="5.1068657636642456e-01" nType="0">
          <Node pos="l" depth="2" NCoef="0" IVar="-1" Cut="0.0000000000000000e+00" cType="1" res="1.8004194134846330e-04" rms="4.8270547389984131e-01" purity="5.5345082283020020e-01" nType="-99"/>
          <Node pos="r" depth="2" NCoef="0" IVar="-1" Cut="0.0000000000000000e+00" cType="1" res="-1.1424911208450794e-03" rms="4.4815516471862793e-01" purity="3.1862968206405640e-01" nType="-99"/>
        </Node>
      </Node>
    </BinaryTree>
    <BinaryTree type="DecisionTree" boostWeight="1.0000000000000000e+00" itree="339">
      <Node pos="s" depth="0" NCoef="0" IVar="3" Cut="9.6028006076812744e-01" cType="1" res="-1.6425078734755516e-02" rms="4.7785279154777527e-01" purity="4.9546989798545837e-01" nType="0">
        <Node pos="l" depth="1" NCoef="0" IVar="4" Cut="6.9706341552734375e+02" cType="1" res="-2.6351043954491615e-02" rms="4.8011010885238647e-01" purity="4.7410261631011963e-01" nType="0">
          <Node pos="l" depth="2" NCoef="0" IVar="-1" Cut="0.0000000000000000e+00" cType="1" res="-7.9663505312055349e-04" rms="4.7573044896125793e-01" purity="4.4209155440330505e-01" nType="-99"/>
          <Node pos="r" depth="2" NCoef="0" IVar="-1" Cut="0.0000000000000000e+00" cType="1" res="3.1921106710797176e-05" rms="4.8203977942466736e-01" purity="5.0174045562744141e-01" nType="-99"/>
        </Node>
        <Node pos="r" depth="1" NCoef="0" IVar="-1" Cut="0.0000000000000000e+00" cType="1" res="1.9273241050541401e-03" rms="4.4380798935890198e-01" purity="7.0363420248031616e-01" nType="-99"/>
      </Node>
    </BinaryTree>
    <BinaryTree type="DecisionTree" boostWeight="1.0000000000000000e+00" itree="340">
      <Node pos="s" depth="0" NCoef="0" IVar="3" Cut="8.9567786455154419e-01" cType="1" res="-9.0741105377674103e-03" rms="4.8080366849899292e-01" purity="5.0333303213119507e-01" nType="0">
        <Node pos="l" depth="1" NCoef="0" IVar="4" Cut="6.8329302978515625e+02" cType="1" res="-3.4760907292366028e-02" rms="4.8215344548225403e-01" purity="4.2106160521507263e-01" nType="0">
          <Node pos="l" depth="2" NCoef="0" IVar="-1" Cut="0.0000000000000000e+00" cType="1" res="-1.0076725156977773e-03" rms="4.7018212080001831e-01" purity="3.6798354983329773e-01" nType="-99"/>
          <Node pos="r" depth="2" NCoef="0" IVar="-1" Cut="0.0000000000000000e+00" cType="1" res="1.0912157449638471e-04" rms="4.8845615983009338e-01" purity="4.6754670143127441e-01" nType="-99"/>
        </Node>
        <Node pos="r" depth="1" NCoef="0" IVar="2" Cut="8.4316125488281250e+02" cType="1" res="1.8078804016113281e-02" rms="4.7787389159202576e-01" purity="5.9030020236968994e-01" nType="0">
          <Node pos="l" depth="2" NCoef="0" IVar="-1" Cut="0.0000000000000000e+00" cType="1" res="1.9736401736736298e-03" rms="4.5139265060424805e-01" purity="6.8863612413406372e-01" nType="-99"/>
          <Node pos="r" depth="2" NCoef="0" IVar="-1" Cut="0.0000000000000000e+00" cType="1" res="-2.4292165471706539e-04" rms="4.8541209101676941e-01" purity="5.4745399951934814e-01" nType="-99"/>
        </Node>
      </Node>
    </BinaryTree>
    <BinaryTree type="DecisionTree" boostWeight="1.0000000000000000e+00" itree="341">
      <Node pos="s" depth="0" NCoef="0" IVar="3" Cut="8.7387752532958984e-01" cType="1" res="-2.2057848051190376e-02" rms="4.7876307368278503e-01" purity="4.8922219872474670e-01" nType="0">
        <Node pos="l" depth="1" NCoef="0" IVar="4" Cut="8.4351879882812500e+02" cType="1" res="-7.6619572937488556e-02" rms="4.6969804167747498e-01" purity="3.6961996555328369e-01" nType="0">
          <Node pos="l" depth="2" NCoef="0" IVar="-1" Cut="0.0000000000000000e+00" cType="1" res="-1.2413379736244678e-03" rms="4.5896381139755249e-01" purity="3.3708462119102478e-01" nType="-99"/>
          <Node pos="r" depth="2" NCoef="0" IVar="-1" Cut="0.0000000000000000e+00" cType="1" res="9.8873140814248472e-05" rms="4.8534673452377319e-01" purity="4.5068401098251343e-01" nType="-99"/>
        </Node>
        <Node pos="r" depth="1" NCoef="0" IVar="2" Cut="8.9744299316406250e+02" cType="1" res="3.4878768492490053e-03" rms="4.8082551360130310e-01" purity="5.4521971940994263e-01" nType="0">
          <Node pos="l" depth="2" NCoef="0" IVar="-1" Cut="0.0000000000000000e+00" cType="1" res="1.3553088065236807e-03" rms="4.6762299537658691e-01" purity="6.3440424203872681e-01" nType="-99"/>
          <Node pos="r" depth="2" NCoef="0" IVar="-1" Cut="0.0000000000000000e+00" cType="1" res="-5.0801562611013651e-04" rms="4.8393625020980835e-01" purity="4.9620324373245239e-01" nType="-99"/>
        </Node>
      </Node>
    </BinaryTree>
    <BinaryTree type="DecisionTree" boostWeight="1.0000000000000000e+00" itree="342">
      <Node pos="s" depth="0" NCoef="0" IVar="4" Cut="6.8293841552734375e+02" cType="1" res="-1.2423506937921047e-02" rms="4.7921547293663025e-01" purity="4.9995821714401245e-01" nType="0">
        <Node pos="l" depth="1" NCoef="0" IVar="2" Cut="8.7455389404296875e+02" cType="1" res="-4.8733495175838470e-02" rms="4.7487038373947144e-01" purity="4.6079233288764954e-01" nType="0">
          <Node pos="l" depth="2" NCoef="0" IVar="-1" Cut="0.0000000000000000e+00" cType="1" res="5.8380843256600201e-05" rms="4.7932577133178711e-01" purity="5.3106397390365601e-01" nType="-99"/>
          <Node pos="r" depth="2" NCoef="0" IVar="-1" Cut="0.0000000000000000e+00" cType="1" res="-1.8030016217380762e-03" rms="4.4318103790283203e-01" purity="3.0476006865501404e-01" nType="-99"/>
        </Node>
        <Node pos="r" depth="1" NCoef="0" IVar="1" Cut="1.0922996520996094e+02" cType="1" res="1.6117321327328682e-02" rms="4.8068195581436157e-01" purity="5.3074383735656738e-01" nType="0">
          <Node pos="l" depth="2" NCoef="0" IVar="-1" Cut="0.0000000000000000e+00" cType="1" res="-8.3642400568351150e-04" rms="4.7450798749923706e-01" purity="4.0388944745063782e-01" nType="-99"/>
          <Node pos="r" depth="2" NCoef="0" IVar="-1" Cut="0.0000000000000000e+00" cType="1" res="5.1050522597506642e-04" rms="4.8034790158271790e-01" purity="5.5522829294204712e-01" nType="-99"/>
        </Node>
      </Node>
    </BinaryTree>
    <BinaryTree type="DecisionTree" boostWeight="1.0000000000000000e+00" itree="343">
      <Node pos="s" depth="0" NCoef="0" IVar="4" Cut="6.6559100341796875e+02" cType="1" res="-2.5465830694884062e-03" rms="4.7672757506370544e-01" purity="5.0881171226501465e-01" nType="0">
        <Node pos="l" depth="1" NCoef="0" IVar="2" Cut="8.7099926757812500e+02" cType="1" res="-4.7720178961753845e-02" rms="4.7424411773681641e-01" purity="4.6325829625129700e-01" nType="0">
          <Node pos="l" depth="2" NCoef="0" IVar="-1" Cut="0.0000000000000000e+00" cType="1" res="1.9238426830270328e-05" rms="4.7841233015060425e-01" purity="5.2949523925781250e-01" nType="-99"/>
          <Node pos="r" depth="2" NCoef="0" IVar="-1" Cut="0.0000000000000000e+00" cType="1" res="-2.0484633278101683e-03" rms="4.3651512265205383e-01" purity="2.8552058339118958e-01" nType="-99"/>
        </Node>
        <Node pos="r" depth="1" NCoef="0" IVar="2" Cut="1.2659401855468750e+03" cType="1" res="3.0024852603673935e-02" rms="4.7585684061050415e-01" purity="5.4165703058242798e-01" nType="0">
          <Node pos="l" depth="2" NCoef="0" IVar="-1" Cut="0.0000000000000000e+00" cType="1" res="1.3312138617038727e-03" rms="4.6961230039596558e-01" purity="6.0888338088989258e-01" nType="-99"/>
          <Node pos="r" depth="2" NCoef="0" IVar="-1" Cut="0.0000000000000000e+00" cType="1" res="-2.6433274615556002e-04" rms="4.7777560353279114e-01" purity="4.6918183565139771e-01" nType="-99"/>
        </Node>
      </Node>
    </BinaryTree>
    <BinaryTree type="DecisionTree" boostWeight="1.0000000000000000e+00" itree="344">
      <Node pos="s" depth="0" NCoef="0" IVar="1" Cut="1.0111934661865234e+02" cType="1" res="-1.4977342449128628e-02" rms="4.7976148128509521e-01" purity="4.9819061160087585e-01" nType="0">
        <Node pos="l" depth="1" NCoef="0" IVar="-1" Cut="0.0000000000000000e+00" cType="1" res="-1.5021872241050005e-03" rms="4.5012950897216797e-01" purity="2.9568085074424744e-01" nType="-99"/>
        <Node pos="r" depth="1" NCoef="0" IVar="4" Cut="7.3142663574218750e+02" cType="1" res="-4.5479252003133297e-03" rms="4.8113191127777100e-01" purity="5.1718920469284058e-01" nType="0">
          <Node pos="l" depth="2" NCoef="0" IVar="-1" Cut="0.0000000000000000e+00" cType="1" res="-4.5945911551825702e-04" rms="4.7989699244499207e-01" purity="4.8941132426261902e-01" nType="-99"/>
          <Node pos="r" depth="2" NCoef="0" IVar="-1" Cut="0.0000000000000000e+00" cType="1" res="4.3350897612981498e-04" rms="4.8061877489089966e-01" purity="5.4931759834289551e-01" nType="-99"/>
        </Node>
      </Node>
    </BinaryTree>
    <BinaryTree type="DecisionTree" boostWeight="1.0000000000000000e+00" itree="345">
      <Node pos="s" depth="0" NCoef="0" IVar="0" Cut="6.7124916076660156e+01" cType="1" res="2.5972500443458557e-03" rms="4.7754064202308655e-01" purity="5.1453113555908203e-01" nType="0">
        <Node pos="l" depth="1" NCoef="0" IVar="-1" Cut="0.0000000000000000e+00" cType="1" res="-1.2506841449066997e-03" rms="4.6132594347000122e-01" purity="3.5979485511779785e-01" nType="-99"/>
        <Node pos="r" depth="1" NCoef="0" IVar="0" Cut="2.3610971069335938e+02" cType="1" res="1.4017373323440552e-02" rms="4.7782328724861145e-01" purity="5.3103220462799072e-01" nType="0">
          <Node pos="l" depth="2" NCoef="0" IVar="-1" Cut="0.0000000000000000e+00" cType="1" res="6.9421646185219288e-04" rms="4.7683784365653992e-01" purity="5.8475553989410400e-01" nType="-99"/>
          <Node pos="r" depth="2" NCoef="0" IVar="-1" Cut="0.0000000000000000e+00" cType="1" res="-6.4843788277357817e-04" rms="4.7405561804771423e-01" purity="4.0847262740135193e-01" nType="-99"/>
        </Node>
      </Node>
    </BinaryTree>
    <BinaryTree type="DecisionTree" boostWeight="1.0000000000000000e+00" itree="346">
      <Node pos="s" depth="0" NCoef="0" IVar="2" Cut="7.3909985351562500e+02" cType="1" res="-1.8056871369481087e-02" rms="4.7883802652359009e-01" purity="4.9407041072845459e-01" nType="0">
        <Node pos="l" depth="1" NCoef="0" IVar="4" Cut="5.0848126220703125e+02" cType="1" res="5.7189457118511200e-02" rms="4.7027567028999329e-01" purity="6.0512560606002808e-01" nType="0">
          <Node pos="l" depth="2" NCoef="0" IVar="-1" Cut="0.0000000000000000e+00" cType="1" res="-7.4873276753351092e-04" rms="4.8684462904930115e-01" purity="4.8911228775978088e-01" nType="-99"/>
          <Node pos="r" depth="2" NCoef="0" IVar="-1" Cut="0.0000000000000000e+00" cType="1" res="5.1508601754903793e-03" rms="4.0130171179771423e-01" purity="7.6469278335571289e-01" nType="-99"/>
        </Node>
        <Node pos="r" depth="1" NCoef="0" IVar="4" Cut="6.2877178955078125e+02" cType="1" res="-3.3914647996425629e-02" rms="4.7911772131919861e-01" purity="4.7066608071327209e-01" nType="0">
          <Node pos="l" depth="2" NCoef="0" IVar="-1" Cut="0.0000000000000000e+00" cType="1" res="-1.6460650367662311e-03" rms="4.4918575882911682e-01" purity="3.2826870679855347e-01" nType="-99"/>
          <Node pos="r" depth="2" NCoef="0" IVar="-1" Cut="0.0000000000000000e+00" cType="1" res="-6.9430905568879098e-05" rms="4.8299366235733032e-01" purity="5.1003199815750122e-01" nType="-99"/>
        </Node>
      </Node>
    </BinaryTree>
    <BinaryTree type="DecisionTree" boostWeight="1.0000000000000000e+00" itree="347">
      <Node pos="s" depth="0" NCoef="0" IVar="4" Cut="6.0812121582031250e+02" cType="1" res="-9.0852631255984306e-03" rms="4.8016414046287537e-01" purity="5.0363940000534058e-01" nType="0">
        <Node pos="l" depth="1" NCoef="0" IVar="2" Cut="7.5730426025390625e+02" cType="1" res="-7.6181381940841675e-02" rms="4.7478628158569336e-01" purity="4.3835747241973877e-01" nType="0">
          <Node pos="l" depth="2" NCoef="0" IVar="-1" Cut="0.0000000000000000e+00" cType="1" res="-3.8334622513502836e-04" rms="4.8081767559051514e-01" purity="5.1727533340454102e-01" nType="-99"/>
          <Node pos="r" depth="2" NCoef="0" IVar="-1" Cut="0.0000000000000000e+00" cType="1" res="-1.8468099879100919e-03" rms="4.5412898063659668e-01" purity="3.1592795252799988e-01" nType="-99"/>
        </Node>
        <Node pos="r" depth="1" NCoef="0" IVar="1" Cut="1.4281646728515625e+02" cType="1" res="2.1155988797545433e-02" rms="4.7950878739356995e-01" purity="5.3306299448013306e-01" nType="0">
          <Node pos="l" depth="2" NCoef="0" IVar="-1" Cut="0.0000000000000000e+00" cType="1" res="5.8593077119439840e-04" rms="4.7959890961647034e-01" purity="5.6224924325942993e-01" nType="-99"/>
          <Node pos="r" depth="2" NCoef="0" IVar="-1" Cut="0.0000000000000000e+00" cType="1" res="-9.6552784088999033e-04" rms="4.6623048186302185e-01" purity="3.3150625228881836e-01" nType="-99"/>
        </Node>
      </Node>
    </BinaryTree>
    <BinaryTree type="DecisionTree" boostWeight="1.0000000000000000e+00" itree="348">
      <Node pos="s" depth="0" NCoef="0" IVar="1" Cut="1.3762495422363281e+02" cType="1" res="-1.4825964346528053e-02" rms="4.7701084613800049e-01" purity="4.9607580900192261e-01" nType="0">
        <Node pos="l" depth="1" NCoef="0" IVar="1" Cut="1.0237947082519531e+02" cType="1" res="4.3378183618187904e-03" rms="4.8049962520599365e-01" purity="5.3329771757125854e-01" nType="0">
          <Node pos="l" depth="2" NCoef="0" IVar="-1" Cut="0.0000000000000000e+00" cType="1" res="-1.2296033091843128e-03" rms="4.6587929129600525e-01" purity="3.4132140874862671e-01" nType="-99"/>
          <Node pos="r" depth="2" NCoef="0" IVar="-1" Cut="0.0000000000000000e+00" cType="1" res="2.6587332831695676e-04" rms="4.8080533742904663e-01" purity="5.5667656660079956e-01" nType="-99"/>
        </Node>
        <Node pos="r" depth="1" NCoef="0" IVar="1" Cut="1.4649229431152344e+02" cType="1" res="-1.0418228060007095e-01" rms="4.4974008202552795e-01" purity="3.2251846790313721e-01" nType="0">
          <Node pos="l" depth="2" NCoef="0" IVar="-1" Cut="0.0000000000000000e+00" cType="1" res="-6.8736175308004022e-04" rms="4.6913608908653259e-01" purity="4.0336677432060242e-01" nType="-99"/>
          <Node pos="r" depth="2" NCoef="0" IVar="-1" Cut="0.0000000000000000e+00" cType="1" res="-1.6819575102999806e-03" rms="4.2730015516281128e-01" purity="2.5133845210075378e-01" nType="-99"/>
        </Node>
      </Node>
    </BinaryTree>
    <BinaryTree type="DecisionTree" boostWeight="1.0000000000000000e+00" itree="349">
      <Node pos="s" depth="0" NCoef="0" IVar="5" Cut="8.0297559499740601e-01" cType="1" res="-8.2379681989550591e-03" rms="4.7703397274017334e-01" purity="5.0224137306213379e-01" nType="0">
        <Node pos="l" depth="1" NCoef="0" IVar="3" Cut="9.5030647516250610e-01" cType="1" res="-2.3852040991187096e-02" rms="4.7716763615608215e-01" purity="4.8305827379226685e-01" nType="0">
          <Node pos="l" depth="2" NCoef="0" IVar="-1" Cut="0.0000000000000000e+00" cType="1" res="-5.2708422299474478e-04" rms="4.8021876811981201e-01" purity="4.5419090986251831e-01" nType="-99"/>
          <Node pos="r" depth="2" NCoef="0" IVar="-1" Cut="0.0000000000000000e+00" cType="1" res="1.8735621124505997e-03" rms="4.4027382135391235e-01" purity="6.9687306880950928e-01" nType="-99"/>
        </Node>
        <Node pos="r" depth="1" NCoef="0" IVar="4" Cut="7.8055950927734375e+02" cType="1" res="1.0104549676179886e-01" rms="4.6154022216796875e-01" purity="6.3650447130203247e-01" nType="0">
          <Node pos="l" depth="2" NCoef="0" IVar="-1" Cut="0.0000000000000000e+00" cType="1" res="6.0352432774379849e-04" rms="4.6914702653884888e-01" purity="5.7641422748565674e-01" nType="-99"/>
          <Node pos="r" depth="2" NCoef="0" IVar="-1" Cut="0.0000000000000000e+00" cType="1" res="3.5312916152179241e-03" rms="4.4371217489242554e-01" purity="7.0019054412841797e-01" nType="-99"/>
        </Node>
      </Node>
    </BinaryTree>
    <BinaryTree type="DecisionTree" boostWeight="1.0000000000000000e+00" itree="350">
      <Node pos="s" depth="0" NCoef="0" IVar="3" Cut="8.6758041381835938e-01" cType="1" res="-9.0131852775812149e-03" rms="4.7824567556381226e-01" purity="5.0273185968399048e-01" nType="0">
        <Node pos="l" depth="1" NCoef="0" IVar="2" Cut="1.0618173828125000e+03" cType="1" res="-7.3452033102512360e-02" rms="4.7090306878089905e-01" purity="3.6815938353538513e-01" nType="0">
          <Node pos="l" depth="2" NCoef="0" IVar="-1" Cut="0.0000000000000000e+00" cType="1" res="-3.7786297616548836e-04" rms="4.8453670740127563e-01" purity="4.2153957486152649e-01" nType="-99"/>
          <Node pos="r" depth="2" NCoef="0" IVar="-1" Cut="0.0000000000000000e+00" cType="1" res="-1.3561825035139918e-03" rms="4.4978547096252441e-01" purity="3.0761024355888367e-01" nType="-99"/>
        </Node>
        <Node pos="r" depth="1" NCoef="0" IVar="4" Cut="6.8293841552734375e+02" cType="1" res="1.2041486799716949e-02" rms="4.7874417901039124e-01" purity="5.4670184850692749e-01" nType="0">
          <Node pos="l" depth="2" NCoef="0" IVar="-1" Cut="0.0000000000000000e+00" cType="1" res="-4.6519949682988226e-04" rms="4.7712314128875732e-01" purity="5.0443321466445923e-01" nType="-99"/>
          <Node pos="r" depth="2" NCoef="0" IVar="-1" Cut="0.0000000000000000e+00" cType="1" res="7.9830596223473549e-04" rms="4.7725099325180054e-01" purity="5.8115983009338379e-01" nType="-99"/>
        </Node>
      </Node>
    </BinaryTree>
    <BinaryTree type="DecisionTree" boostWeight="1.0000000000000000e+00" itree="351">
      <Node pos="s" depth="0" NCoef="0" IVar="1" Cut="1.3123194885253906e+02" cType="1" res="-1.8217751756310463e-02" rms="4.7796359658241272e-01" purity="4.9182578921318054e-01" nType="0">
        <Node pos="l" depth="1" NCoef="0" IVar="1" Cut="1.0234920501708984e+02" cType="1" res="6.9289482198655605e-03" rms="4.7921013832092285e-01" purity="5.3517919778823853e-01" nType="0">
          <Node pos="l" depth="2" NCoef="0" IVar="-1" Cut="0.0000000000000000e+00" cType="1" res="-1.1646057246252894e-03" rms="4.5427548885345459e-01" purity="3.2235592603683472e-01" nType="-99"/>
          <Node pos="r" depth="2" NCoef="0" IVar="-1" Cut="0.0000000000000000e+00" cType="1" res="3.7140652420930564e-04" rms="4.8072367906570435e-01" purity="5.6653648614883423e-01" nType="-99"/>
        </Node>
        <Node pos="r" depth="1" NCoef="0" IVar="4" Cut="8.7483624267578125e+02" cType="1" res="-8.0531075596809387e-02" rms="4.6908706426620483e-01" purity="3.8439637422561646e-01" nType="0">
          <Node pos="l" depth="2" NCoef="0" IVar="-1" Cut="0.0000000000000000e+00" cType="1" res="-1.4336676103994250e-03" rms="4.5863384008407593e-01" purity="3.4960937500000000e-01" nType="-99"/>
          <Node pos="r" depth="2" NCoef="0" IVar="-1" Cut="0.0000000000000000e+00" cType="1" res="-2.4256898996100063e-06" rms="4.8051401972770691e-01" purity="4.5750918984413147e-01" nType="-99"/>
        </Node>
      </Node>
    </BinaryTree>
    <BinaryTree type="DecisionTree" boostWeight="1.0000000000000000e+00" itree="352">
      <Node pos="s" depth="0" NCoef="0" IVar="4" Cut="7.0270977783203125e+02" cType="1" res="-1.5265095978975296e-02" rms="4.8000505566596985e-01" purity="4.9771970510482788e-01" nType="0">
        <Node pos="l" depth="1" NCoef="0" IVar="2" Cut="7.3267742919921875e+02" cType="1" res="-4.6276509761810303e-02" rms="4.7390195727348328e-01" purity="4.6271964907646179e-01" nType="0">
          <Node pos="l" depth="2" NCoef="0" IVar="-1" Cut="0.0000000000000000e+00" cType="1" res="7.2796619497239590e-04" rms="4.6715196967124939e-01" purity="5.8013874292373657e-01" nType="-99"/>
          <Node pos="r" depth="2" NCoef="0" IVar="-1" Cut="0.0000000000000000e+00" cType="1" res="-1.2572496198117733e-03" rms="4.6977385878562927e-01" purity="3.9010426402091980e-01" nType="-99"/>
        </Node>
        <Node pos="r" depth="1" NCoef="0" IVar="2" Cut="1.3178541259765625e+03" cType="1" res="1.3585160486400127e-02" rms="4.8383250832557678e-01" purity="5.3028064966201782e-01" nType="0">
          <Node pos="l" depth="2" NCoef="0" IVar="-1" Cut="0.0000000000000000e+00" cType="1" res="1.0018824832513928e-03" rms="4.7944530844688416e-01" purity="5.9135621786117554e-01" nType="-99"/>
          <Node pos="r" depth="2" NCoef="0" IVar="-1" Cut="0.0000000000000000e+00" cType="1" res="-4.8916088417172432e-04" rms="4.8405486345291138e-01" purity="4.6314391493797302e-01" nType="-99"/>
        </Node>
      </Node>
    </BinaryTree>
    <BinaryTree type="DecisionTree" boostWeight="1.0000000000000000e+00" itree="353">
      <Node pos="s" depth="0" NCoef="0" IVar="0" Cut="8.7134078979492188e+01" cType="1" res="-2.1336246281862259e-02" rms="4.7767022252082825e-01" purity="4.9104878306388855e-01" nType="0">
        <Node pos="l" depth="1" NCoef="0" IVar="2" Cut="9.6882025146484375e+02" cType="1" res="-1.2131869047880173e-01" rms="4.6565243601799011e-01" purity="3.7116464972496033e-01" nType="0">
          <Node pos="l" depth="2" NCoef="0" IVar="-1" Cut="0.0000000000000000e+00" cType="1" res="-1.0711204959079623e-03" rms="4.7273021936416626e-01" purity="4.1377624869346619e-01" nType="-99"/>
          <Node pos="r" depth="2" NCoef="0" IVar="-1" Cut="0.0000000000000000e+00" cType="1" res="-2.0397289190441370e-03" rms="4.4757720828056335e-01" purity="3.0379959940910339e-01" nType="-99"/>
        </Node>
        <Node pos="r" depth="1" NCoef="0" IVar="4" Cut="6.9706341552734375e+02" cType="1" res="2.7081442531198263e-03" rms="4.7740235924720764e-01" purity="5.1987922191619873e-01" nType="0">
          <Node pos="l" depth="2" NCoef="0" IVar="-1" Cut="0.0000000000000000e+00" cType="1" res="-6.2050158157944679e-04" rms="4.7769275307655334e-01" purity="4.7793230414390564e-01" nType="-99"/>
          <Node pos="r" depth="2" NCoef="0" IVar="-1" Cut="0.0000000000000000e+00" cType="1" res="6.3158001285046339e-04" rms="4.7409287095069885e-01" purity="5.5281925201416016e-01" nType="-99"/>
        </Node>
      </Node>
    </BinaryTree>
    <BinaryTree type="DecisionTree" boostWeight="1.0000000000000000e+00" itree="354">
      <Node pos="s" depth="0" NCoef="0" IVar="0" Cut="2.0147238159179688e+02" cType="1" res="-1.1559419333934784e-02" rms="4.7464582324028015e-01" purity="4.9640950560569763e-01" nType="0">
        <Node pos="l" depth="1" NCoef="0" IVar="3" Cut="8.7380605936050415e-01" cType="1" res="1.6963077709078789e-02" rms="4.7489771246910095e-01" purity="5.5017024278640747e-01" nType="0">
          <Node pos="l" depth="2" NCoef="0" IVar="-1" Cut="0.0000000000000000e+00" cType="1" res="-5.4084404837340117e-04" rms="4.8100444674491882e-01" purity="4.1836446523666382e-01" nType="-99"/>
          <Node pos="r" depth="2" NCoef="0" IVar="-1" Cut="0.0000000000000000e+00" cType="1" res="8.1209215568378568e-04" rms="4.6938395500183105e-01" purity="6.1074256896972656e-01" nType="-99"/>
        </Node>
        <Node pos="r" depth="1" NCoef="0" IVar="4" Cut="6.8742633056640625e+02" cType="1" res="-6.4088284969329834e-02" rms="4.6967077255249023e-01" purity="3.9740008115768433e-01" nType="0">
          <Node pos="l" depth="2" NCoef="0" IVar="-1" Cut="0.0000000000000000e+00" cType="1" res="-1.4931590994819999e-03" rms="4.4040820002555847e-01" purity="3.1392085552215576e-01" nType="-99"/>
          <Node pos="r" depth="2" NCoef="0" IVar="-1" Cut="0.0000000000000000e+00" cType="1" res="-4.9005419714376330e-04" rms="4.7897076606750488e-01" purity="4.3334561586380005e-01" nType="-99"/>
        </Node>
      </Node>
    </BinaryTree>
    <BinaryTree type="DecisionTree" boostWeight="1.0000000000000000e+00" itree="355">
      <Node pos="s" depth="0" NCoef="0" IVar="0" Cut="6.7829383850097656e+01" cType="1" res="-1.2837373651564121e-04" rms="4.7783508896827698e-01" purity="5.1365536451339722e-01" nType="0">
        <Node pos="l" depth="1" NCoef="0" IVar="-1" Cut="0.0000000000000000e+00" cType="1" res="-1.3822221662849188e-03" rms="4.6853801608085632e-01" purity="3.6149215698242188e-01" nType="-99"/>
        <Node pos="r" depth="1" NCoef="0" IVar="3" Cut="8.9288395643234253e-01" cType="1" res="1.2466127984225750e-02" rms="4.7721710801124573e-01" purity="5.3069239854812622e-01" nType="0">
          <Node pos="l" depth="2" NCoef="0" IVar="-1" Cut="0.0000000000000000e+00" cType="1" res="-3.7565690581686795e-04" rms="4.8347193002700806e-01" purity="4.3054759502410889e-01" nType="-99"/>
          <Node pos="r" depth="2" NCoef="0" IVar="-1" Cut="0.0000000000000000e+00" cType="1" res="1.0270826751366258e-03" rms="4.6726962924003601e-01" purity="6.3019412755966187e-01" nType="-99"/>
        </Node>
      </Node>
    </BinaryTree>
    <BinaryTree type="DecisionTree" boostWeight="1.0000000000000000e+00" itree="356">
      <Node pos="s" depth="0" NCoef="0" IVar="1" Cut="9.9469924926757812e+01" cType="1" res="-6.4214318990707397e-03" rms="4.7756788134574890e-01" purity="5.0543457269668579e-01" nType="0">
        <Node pos="l" depth="1" NCoef="0" IVar="-1" Cut="0.0000000000000000e+00" cType="1" res="-1.5192789724096656e-03" rms="4.3544945120811462e-01" purity="2.7736631035804749e-01" nType="-99"/>
        <Node pos="r" depth="1" NCoef="0" IVar="1" Cut="1.4252973937988281e+02" cType="1" res="4.4841477647423744e-03" rms="4.7923073172569275e-01" purity="5.2416485548019409e-01" nType="0">
          <Node pos="l" depth="2" NCoef="0" IVar="-1" Cut="0.0000000000000000e+00" cType="1" res="2.9107058071531355e-04" rms="4.8120042681694031e-01" purity="5.5301195383071899e-01" nType="-99"/>
          <Node pos="r" depth="2" NCoef="0" IVar="-1" Cut="0.0000000000000000e+00" cType="1" res="-1.1125170858576894e-03" rms="4.5155489444732666e-01" purity="3.1003439426422119e-01" nType="-99"/>
        </Node>
      </Node>
    </BinaryTree>
    <BinaryTree type="DecisionTree" boostWeight="1.0000000000000000e+00" itree="357">
      <Node pos="s" depth="0" NCoef="0" IVar="0" Cut="2.4644972229003906e+02" cType="1" res="-1.1431938968598843e-02" rms="4.7718286514282227e-01" purity="4.9962460994720459e-01" nType="0">
        <Node pos="l" depth="1" NCoef="0" IVar="0" Cut="9.9786705017089844e+01" cType="1" res="1.0295613668859005e-02" rms="4.7933220863342285e-01" purity="5.4380452632904053e-01" nType="0">
          <Node pos="l" depth="2" NCoef="0" IVar="-1" Cut="0.0000000000000000e+00" cType="1" res="-7.2741095209494233e-04" rms="4.8010072112083435e-01" purity="4.4739416241645813e-01" nType="-99"/>
          <Node pos="r" depth="2" NCoef="0" IVar="-1" Cut="0.0000000000000000e+00" cType="1" res="6.7459774436429143e-04" rms="4.7607141733169556e-01" purity="5.8846539258956909e-01" nType="-99"/>
        </Node>
        <Node pos="r" depth="1" NCoef="0" IVar="0" Cut="4.4504989624023438e+02" cType="1" res="-6.9757737219333649e-02" rms="4.6638551354408264e-01" purity="3.8102728128433228e-01" nType="0">
          <Node pos="l" depth="2" NCoef="0" IVar="-1" Cut="0.0000000000000000e+00" cType="1" res="-5.2807270549237728e-04" rms="4.7158619761466980e-01" purity="4.1991627216339111e-01" nType="-99"/>
          <Node pos="r" depth="2" NCoef="0" IVar="-1" Cut="0.0000000000000000e+00" cType="1" res="-1.6314185922965407e-03" rms="4.4412100315093994e-01" purity="2.8339609503746033e-01" nType="-99"/>
        </Node>
      </Node>
    </BinaryTree>
    <BinaryTree type="DecisionTree" boostWeight="1.0000000000000000e+00" itree="358">
      <Node pos="s" depth="0" NCoef="0" IVar="4" Cut="5.4047155761718750e+02" cType="1" res="-1.5976997092366219e-02" rms="4.8077225685119629e-01" purity="4.9907058477401733e-01" nType="0">
        <Node pos="l" depth="1" NCoef="0" IVar="2" Cut="6.8918115234375000e+02" cType="1" res="-8.8601768016815186e-02" rms="4.6875154972076416e-01" purity="4.2414703965187073e-01" nType="0">
          <Node pos="l" depth="2" NCoef="0" IVar="-1" Cut="0.0000000000000000e+00" cType="1" res="9.1871123004239053e-05" rms="4.8112335801124573e-01" purity="5.5230182409286499e-01" nType="-99"/>
          <Node pos="r" depth="2" NCoef="0" IVar="-1" Cut="0.0000000000000000e+00" cType="1" res="-2.1708018612116575e-03" rms="4.2144745588302612e-01" purity="2.5670722126960754e-01" nType="-99"/>
        </Node>
        <Node pos="r" depth="1" NCoef="0" IVar="1" Cut="1.4326747131347656e+02" cType="1" res="4.2415861389599741e-04" rms="4.8193308711051941e-01" purity="5.1599091291427612e-01" nType="0">
          <Node pos="l" depth="2" NCoef="0" IVar="-1" Cut="0.0000000000000000e+00" cType="1" res="2.0354680600576103e-04" rms="4.8398166894912720e-01" purity="5.4230380058288574e-01" nType="-99"/>
          <Node pos="r" depth="2" NCoef="0" IVar="-1" Cut="0.0000000000000000e+00" cType="1" res="-1.1569546768441796e-03" rms="4.5414936542510986e-01" purity="3.1270334124565125e-01" nType="-99"/>
        </Node>
      </Node>
    </BinaryTree>
    <BinaryTree type="DecisionTree" boostWeight="1.0000000000000000e+00" itree="359">
      <Node pos="s" depth="0" NCoef="0" IVar="4" Cut="7.7154425048828125e+02" cType="1" res="-1.1478511616587639e-02" rms="4.7496888041496277e-01" purity="4.9910080432891846e-01" nType="0">
        <Node pos="l" depth="1" NCoef="0" IVar="2" Cut="9.0985815429687500e+02" cType="1" res="-4.3239746242761612e-02" rms="4.7337871789932251e-01" purity="4.6757405996322632e-01" nType="0">
          <Node pos="l" depth="2" NCoef="0" IVar="-1" Cut="0.0000000000000000e+00" cType="1" res="1.2179102486697957e-04" rms="4.7600245475769043e-01" purity="5.3331053256988525e-01" nType="-99"/>
          <Node pos="r" depth="2" NCoef="0" IVar="-1" Cut="0.0000000000000000e+00" cType="1" res="-1.7053374322131276e-03" rms="4.5258387923240662e-01" purity="3.4159445762634277e-01" nType="-99"/>
        </Node>
        <Node pos="r" depth="1" NCoef="0" IVar="2" Cut="1.2864376220703125e+03" cType="1" res="3.3554267138242722e-02" rms="4.7357720136642456e-01" purity="5.4380112886428833e-01" nType="0">
          <Node pos="l" depth="2" NCoef="0" IVar="-1" Cut="0.0000000000000000e+00" cType="1" res="1.8727293936535716e-03" rms="4.5898672938346863e-01" purity="6.3742214441299438e-01" nType="-99"/>
          <Node pos="r" depth="2" NCoef="0" IVar="-1" Cut="0.0000000000000000e+00" cType="1" res="-1.8539978191256523e-04" rms="4.7741723060607910e-01" purity="4.8156008124351501e-01" nType="-99"/>
        </Node>
      </Node>
    </BinaryTree>
    <BinaryTree type="DecisionTree" boostWeight="1.0000000000000000e+00" itree="360">
      <Node pos="s" depth="0" NCoef="0" IVar="1" Cut="1.4326747131347656e+02" cType="1" res="-1.0233090259134769e-02" rms="4.7591549158096313e-01" purity="4.9858757853507996e-01" nType="0">
        <Node pos="l" depth="1" NCoef="0" IVar="1" Cut="9.8767082214355469e+01" cType="1" res="5.6500686332583427e-03" rms="4.7885495424270630e-01" purity="5.2852064371109009e-01" nType="0">
          <Node pos="l" depth="2" NCoef="0" IVar="-1" Cut="0.0000000000000000e+00" cType="1" res="-1.5485885087400675e-03" rms="4.3795198202133179e-01" purity="2.8303298354148865e-01" nType="-99"/>
          <Node pos="r" depth="2" NCoef="0" IVar="-1" Cut="0.0000000000000000e+00" cType="1" res="3.0696380417793989e-04" rms="4.8044636845588684e-01" purity="5.5188900232315063e-01" nType="-99"/>
        </Node>
        <Node pos="r" depth="1" NCoef="0" IVar="-1" Cut="0.0000000000000000e+00" cType="1" res="-1.5321195824071765e-03" rms="4.3360504508018494e-01" purity="2.6822367310523987e-01" nType="-99"/>
      </Node>
    </BinaryTree>
    <BinaryTree type="DecisionTree" boostWeight="1.0000000000000000e+00" itree="361">
      <Node pos="s" depth="0" NCoef="0" IVar="4" Cut="8.3257269287109375e+02" cType="1" res="-1.4845118857920170e-02" rms="4.7646200656890869e-01" purity="4.9432298541069031e-01" nType="0">
        <Node pos="l" depth="1" NCoef="0" IVar="2" Cut="1.0347636718750000e+03" cType="1" res="-4.2494684457778931e-02" rms="4.7546714544296265e-01" purity="4.6788749098777771e-01" nType="0">
          <Node pos="l" depth="2" NCoef="0" IVar="-1" Cut="0.0000000000000000e+00" cType="1" res="-1.8290043226443231e-04" rms="4.7848221659660339e-01" purity="5.0766104459762573e-01" nType="-99"/>
          <Node pos="r" depth="2" NCoef="0" IVar="-1" Cut="0.0000000000000000e+00" cType="1" res="-1.6110832802951336e-03" rms="4.5423424243927002e-01" purity="3.4815651178359985e-01" nType="-99"/>
        </Node>
        <Node pos="r" depth="1" NCoef="0" IVar="1" Cut="1.1020027923583984e+02" cType="1" res="4.3451163917779922e-02" rms="4.7328901290893555e-01" purity="5.5005955696105957e-01" nType="0">
          <Node pos="l" depth="2" NCoef="0" IVar="-1" Cut="0.0000000000000000e+00" cType="1" res="-1.0533720487728715e-03" rms="4.6686047315597534e-01" purity="3.7712666392326355e-01" nType="-99"/>
          <Node pos="r" depth="2" NCoef="0" IVar="-1" Cut="0.0000000000000000e+00" cType="1" res="1.2631422141566873e-03" rms="4.6966531872749329e-01" purity="5.9038174152374268e-01" nType="-99"/>
        </Node>
      </Node>
    </BinaryTree>
    <BinaryTree type="DecisionTree" boostWeight="1.0000000000000000e+00" itree="362">
      <Node pos="s" depth="0" NCoef="0" IVar="1" Cut="1.0875257110595703e+02" cType="1" res="-1.8061105161905289e-02" rms="4.7535097599029541e-01" purity="4.9176532030105591e-01" nType="0">
        <Node pos="l" depth="1" NCoef="0" IVar="2" Cut="1.0322622070312500e+03" cType="1" res="-1.1738947033882141e-01" rms="4.5250222086906433e-01" purity="3.3918750286102295e-01" nType="0">
          <Node pos="l" depth="2" NCoef="0" IVar="-1" Cut="0.0000000000000000e+00" cType="1" res="-6.2416598666459322e-04" rms="4.6286725997924805e-01" purity="4.2237916588783264e-01" nType="-99"/>
          <Node pos="r" depth="2" NCoef="0" IVar="-1" Cut="0.0000000000000000e+00" cType="1" res="-1.9175487104803324e-03" rms="4.3787494301795959e-01" purity="2.8000736236572266e-01" nType="-99"/>
        </Node>
        <Node pos="r" depth="1" NCoef="0" IVar="1" Cut="1.4544473266601562e+02" cType="1" res="8.9683628175407648e-04" rms="4.7724458575248718e-01" purity="5.2088648080825806e-01" nType="0">
          <Node pos="l" depth="2" NCoef="0" IVar="-1" Cut="0.0000000000000000e+00" cType="1" res="2.4534339900128543e-04" rms="4.7926616668701172e-01" purity="5.5072009563446045e-01" nType="-99"/>
          <Node pos="r" depth="2" NCoef="0" IVar="-1" Cut="0.0000000000000000e+00" cType="1" res="-1.3441381743177772e-03" rms="4.4359469413757324e-01" purity="2.8052827715873718e-01" nType="-99"/>
        </Node>
      </Node>
    </BinaryTree>
    <BinaryTree type="DecisionTree" boostWeight="1.0000000000000000e+00" itree="363">
      <Node pos="s" depth="0" NCoef="0" IVar="1" Cut="1.0111934661865234e+02" cType="1" res="-1.5160006470978260e-02" rms="4.7605827450752258e-01" purity="4.9313563108444214e-01" nType="0">
        <Node pos="l" depth="1" NCoef="0" IVar="-1" Cut="0.0000000000000000e+00" cType="1" res="-1.5386884333565831e-03" rms="4.3963405489921570e-01" purity="2.8576472401618958e-01" nType="-99"/>
        <Node pos="r" depth="1" NCoef="0" IVar="0" Cut="8.5150497436523438e+01" cType="1" res="-2.4504142347723246e-03" rms="4.7812756896018982e-01" purity="5.1566171646118164e-01" nType="0">
          <Node pos="l" depth="2" NCoef="0" IVar="-1" Cut="0.0000000000000000e+00" cType="1" res="-1.2007609475404024e-03" rms="4.7531473636627197e-01" purity="4.0131407976150513e-01" nType="-99"/>
          <Node pos="r" depth="2" NCoef="0" IVar="-1" Cut="0.0000000000000000e+00" cType="1" res="2.3152388166636229e-04" rms="4.7664999961853027e-01" purity="5.3657674789428711e-01" nType="-99"/>
        </Node>
      </Node>
    </BinaryTree>
    <BinaryTree type="DecisionTree" boostWeight="1.0000000000000000e+00" itree="364">
      <Node pos="s" depth="0" NCoef="0" IVar="4" Cut="5.4810174560546875e+02" cType="1" res="-1.7259536311030388e-02" rms="4.7541669011116028e-01" purity="4.9336227774620056e-01" nType="0">
        <Node pos="l" depth="1" NCoef="0" IVar="2" Cut="6.7385986328125000e+02" cType="1" res="-1.0057897120714188e-01" rms="4.6973296999931335e-01" purity="4.1123211383819580e-01" nType="0">
          <Node pos="l" depth="2" NCoef="0" IVar="-1" Cut="0.0000000000000000e+00" cType="1" res="-2.7553894324228168e-04" rms="4.8993277549743652e-01" purity="5.3458338975906372e-01" nType="-99"/>
          <Node pos="r" depth="2" NCoef="0" IVar="-1" Cut="0.0000000000000000e+00" cType="1" res="-2.1233856678009033e-03" rms="4.2687377333641052e-01" purity="2.7250963449478149e-01" nType="-99"/>
        </Node>
        <Node pos="r" depth="1" NCoef="0" IVar="3" Cut="9.3471467494964600e-01" cType="1" res="3.7601916119456291e-03" rms="4.7453457117080688e-01" purity="5.1408201456069946e-01" nType="0">
          <Node pos="l" depth="2" NCoef="0" IVar="-1" Cut="0.0000000000000000e+00" cType="1" res="-2.5669366004876792e-04" rms="4.8126146197319031e-01" purity="4.6744996309280396e-01" nType="-99"/>
          <Node pos="r" depth="2" NCoef="0" IVar="-1" Cut="0.0000000000000000e+00" cType="1" res="2.0929423626512289e-03" rms="4.3597409129142761e-01" purity="6.9780862331390381e-01" nType="-99"/>
        </Node>
      </Node>
    </BinaryTree>
    <BinaryTree type="DecisionTree" boostWeight="1.0000000000000000e+00" itree="365">
      <Node pos="s" depth="0" NCoef="0" IVar="0" Cut="6.8668731689453125e+01" cType="1" res="-1.2677602469921112e-02" rms="4.7747707366943359e-01" purity="4.9880486726760864e-01" nType="0">
        <Node pos="l" depth="1" NCoef="0" IVar="-1" Cut="0.0000000000000000e+00" cType="1" res="-1.4983798610046506e-03" rms="4.5365771651268005e-01" purity="3.3319708704948425e-01" nType="-99"/>
        <Node pos="r" depth="1" NCoef="0" IVar="0" Cut="2.8618658447265625e+02" cType="1" res="1.0630531469359994e-03" rms="4.7845640778541565e-01" purity="5.1885151863098145e-01" nType="0">
          <Node pos="l" depth="2" NCoef="0" IVar="-1" Cut="0.0000000000000000e+00" cType="1" res="4.1547807632014155e-04" rms="4.7934660315513611e-01" purity="5.6478661298751831e-01" nType="-99"/>
          <Node pos="r" depth="2" NCoef="0" IVar="-1" Cut="0.0000000000000000e+00" cType="1" res="-9.9324085749685764e-04" rms="4.6688619256019592e-01" purity="3.6733391880989075e-01" nType="-99"/>
        </Node>
      </Node>
    </BinaryTree>
    <BinaryTree type="DecisionTree" boostWeight="1.0000000000000000e+00" itree="366">
      <Node pos="s" depth="0" NCoef="0" IVar="4" Cut="5.9140802001953125e+02" cType="1" res="-1.0028384625911713e-02" rms="4.7419565916061401e-01" purity="4.9937397241592407e-01" nType="0">
        <Node pos="l" depth="1" NCoef="0" IVar="2" Cut="7.6607244873046875e+02" cType="1" res="-7.1022376418113708e-02" rms="4.6899786591529846e-01" purity="4.3447667360305786e-01" nType="0">
          <Node pos="l" depth="2" NCoef="0" IVar="-1" Cut="0.0000000000000000e+00" cType="1" res="-1.5711151718278416e-05" rms="4.7676309943199158e-01" purity="5.3291136026382446e-01" nType="-99"/>
          <Node pos="r" depth="2" NCoef="0" IVar="-1" Cut="0.0000000000000000e+00" cType="1" res="-2.1326355636119843e-03" rms="4.2861193418502808e-01" purity="2.6283693313598633e-01" nType="-99"/>
        </Node>
        <Node pos="r" depth="1" NCoef="0" IVar="2" Cut="1.1639418945312500e+03" cType="1" res="1.4644160866737366e-02" rms="4.7405806183815002e-01" purity="5.2562540769577026e-01" nType="0">
          <Node pos="l" depth="2" NCoef="0" IVar="-1" Cut="0.0000000000000000e+00" cType="1" res="1.2033352395519614e-03" rms="4.6652433276176453e-01" purity="6.0034602880477905e-01" nType="-99"/>
          <Node pos="r" depth="2" NCoef="0" IVar="-1" Cut="0.0000000000000000e+00" cType="1" res="-5.0879531772807240e-04" rms="4.7538006305694580e-01" purity="4.5592269301414490e-01" nType="-99"/>
        </Node>
      </Node>
    </BinaryTree>
    <BinaryTree type="DecisionTree" boostWeight="1.0000000000000000e+00" itree="367">
      <Node pos="s" depth="0" NCoef="0" IVar="2" Cut="1.0535961914062500e+03" cType="1" res="-1.1637331917881966e-02" rms="4.7716018557548523e-01" purity="4.9932655692100525e-01" nType="0">
        <Node pos="l" depth="1" NCoef="0" IVar="4" Cut="5.0714718627929688e+02" cType="1" res="1.8921077251434326e-02" rms="4.7301128506660461e-01" purity="5.4016935825347900e-01" nType="0">
          <Node pos="l" depth="2" NCoef="0" IVar="-1" Cut="0.0000000000000000e+00" cType="1" res="-1.2294276384636760e-03" rms="4.7145944833755493e-01" purity="4.1659855842590332e-01" nType="-99"/>
          <Node pos="r" depth="2" NCoef="0" IVar="-1" Cut="0.0000000000000000e+00" cType="1" res="9.8136754240840673e-04" rms="4.6726360917091370e-01" purity="5.8271175622940063e-01" nType="-99"/>
        </Node>
        <Node pos="r" depth="1" NCoef="0" IVar="4" Cut="8.1927648925781250e+02" cType="1" res="-4.5976094901561737e-02" rms="4.7946140170097351e-01" purity="4.5343115925788879e-01" nType="0">
          <Node pos="l" depth="2" NCoef="0" IVar="-1" Cut="0.0000000000000000e+00" cType="1" res="-1.6765504842624068e-03" rms="4.5677804946899414e-01" purity="3.3967405557632446e-01" nType="-99"/>
          <Node pos="r" depth="2" NCoef="0" IVar="-1" Cut="0.0000000000000000e+00" cType="1" res="-3.8489441067213193e-05" rms="4.8253861069679260e-01" purity="5.0268697738647461e-01" nType="-99"/>
        </Node>
      </Node>
    </BinaryTree>
    <BinaryTree type="DecisionTree" boostWeight="1.0000000000000000e+00" itree="368">
      <Node pos="s" depth="0" NCoef="0" IVar="1" Cut="1.3762495422363281e+02" cType="1" res="-8.2061700522899628e-03" rms="4.7602057456970215e-01" purity="5.0214952230453491e-01" nType="0">
        <Node pos="l" depth="1" NCoef="0" IVar="3" Cut="8.6759459972381592e-01" cType="1" res="8.2406383007764816e-03" rms="4.7767645120620728e-01" purity="5.3524523973464966e-01" nType="0">
          <Node pos="l" depth="2" NCoef="0" IVar="-1" Cut="0.0000000000000000e+00" cType="1" res="-6.5714714583009481e-04" rms="4.7942855954170227e-01" purity="4.0031847357749939e-01" nType="-99"/>
          <Node pos="r" depth="2" NCoef="0" IVar="-1" Cut="0.0000000000000000e+00" cType="1" res="4.4736947165802121e-04" rms="4.7557869553565979e-01" purity="5.7609283924102783e-01" nType="-99"/>
        </Node>
        <Node pos="r" depth="1" NCoef="0" IVar="5" Cut="4.3908628821372986e-01" cType="1" res="-8.8599212467670441e-02" rms="4.5944646000862122e-01" purity="3.4037587046623230e-01" nType="0">
          <Node pos="l" depth="2" NCoef="0" IVar="-1" Cut="0.0000000000000000e+00" cType="1" res="-2.7533399406820536e-04" rms="4.8197123408317566e-01" purity="4.1791215538978577e-01" nType="-99"/>
          <Node pos="r" depth="2" NCoef="0" IVar="-1" Cut="0.0000000000000000e+00" cType="1" res="-1.5461654402315617e-03" rms="4.3872717022895813e-01" purity="2.9083010554313660e-01" nType="-99"/>
        </Node>
      </Node>
    </BinaryTree>
    <BinaryTree type="DecisionTree" boostWeight="1.0000000000000000e+00" itree="369">
      <Node pos="s" depth="0" NCoef="0" IVar="3" Cut="8.7080627679824829e-01" cType="1" res="-4.6564536169171333e-03" rms="4.7860968112945557e-01" purity="5.0769120454788208e-01" nType="0">
        <Node pos="l" depth="1" NCoef="0" IVar="2" Cut="1.3526790771484375e+03" cType="1" res="-5.2831321954727173e-02" rms="4.7745224833488464e-01" purity="3.9043319225311279e-01" nType="0">
          <Node pos="l" depth="2" NCoef="0" IVar="-1" Cut="0.0000000000000000e+00" cType="1" res="-2.8154181200079620e-04" rms="4.8485857248306274e-01" purity="4.2858022451400757e-01" nType="-99"/>
          <Node pos="r" depth="2" NCoef="0" IVar="-1" Cut="0.0000000000000000e+00" cType="1" res="-1.4725670916959643e-03" rms="4.4950816035270691e-01" purity="2.9629951715469360e-01" nType="-99"/>
        </Node>
        <Node pos="r" depth="1" NCoef="0" IVar="4" Cut="4.7838586425781250e+02" cType="1" res="1.4038481749594212e-02" rms="4.7775152325630188e-01" purity="5.5319482088088989e-01" nType="0">
          <Node pos="l" depth="2" NCoef="0" IVar="-1" Cut="0.0000000000000000e+00" cType="1" res="-1.3178080553188920e-03" rms="4.7281217575073242e-01" purity="4.4714388251304626e-01" nType="-99"/>
          <Node pos="r" depth="2" NCoef="0" IVar="-1" Cut="0.0000000000000000e+00" cType="1" res="4.1411322308704257e-04" rms="4.7694900631904602e-01" purity="5.6375074386596680e-01" nType="-99"/>
        </Node>
      </Node>
    </BinaryTree>
    <BinaryTree type="DecisionTree" boostWeight="1.0000000000000000e+00" itree="370">
      <Node pos="s" depth="0" NCoef="0" IVar="2" Cut="6.8691271972656250e+02" cType="1" res="-2.3528235033154488e-03" rms="4.7712460160255432e-01" purity="5.1054489612579346e-01" nType="0">
        <Node pos="l" depth="1" NCoef="0" IVar="4" Cut="4.7870785522460938e+02" cType="1" res="1.0804220288991928e-01" rms="4.5538204908370972e-01" purity="6.6322183609008789e-01" nType="0">
          <Node pos="l" depth="2" NCoef="0" IVar="-1" Cut="0.0000000000000000e+00" cType="1" res="1.0588973236735910e-04" rms="4.8443648219108582e-01" purity="5.4341983795166016e-01" nType="-99"/>
          <Node pos="r" depth="2" NCoef="0" IVar="-1" Cut="0.0000000000000000e+00" cType="1" res="5.7015400379896164e-03" rms="3.9792355895042419e-01" purity="7.8528785705566406e-01" nType="-99"/>
        </Node>
        <Node pos="r" depth="1" NCoef="0" IVar="4" Cut="6.4637463378906250e+02" cType="1" res="-1.8103444948792458e-02" rms="4.7807297110557556e-01" purity="4.8876175284385681e-01" nType="0">
          <Node pos="l" depth="2" NCoef="0" IVar="-1" Cut="0.0000000000000000e+00" cType="1" res="-1.1265384964644909e-03" rms="4.6651637554168701e-01" purity="3.9801841974258423e-01" nType="-99"/>
          <Node pos="r" depth="2" NCoef="0" IVar="-1" Cut="0.0000000000000000e+00" cType="1" res="1.2867974874097854e-04" rms="4.7971910238265991e-01" purity="5.2321159839630127e-01" nType="-99"/>
        </Node>
      </Node>
    </BinaryTree>
    <BinaryTree type="DecisionTree" boostWeight="1.0000000000000000e+00" itree="371">
      <Node pos="s" depth="0" NCoef="0" IVar="1" Cut="1.0791755676269531e+02" cType="1" res="-1.3353568501770496e-03" rms="4.7752341628074646e-01" purity="5.1152074337005615e-01" nType="0">
        <Node pos="l" depth="1" NCoef="0" IVar="1" Cut="9.9224136352539062e+01" cType="1" res="-8.8499583303928375e-02" rms="4.6951892971992493e-01" purity="3.7104976177215576e-01" nType="0">
          <Node pos="l" depth="2" NCoef="0" IVar="-1" Cut="0.0000000000000000e+00" cType="1" res="-1.4827032573521137e-03" rms="4.5561429858207703e-01" purity="3.0176362395286560e-01" nType="-99"/>
          <Node pos="r" depth="2" NCoef="0" IVar="-1" Cut="0.0000000000000000e+00" cType="1" res="-7.1191275492310524e-04" rms="4.8002919554710388e-01" purity="4.3966513872146606e-01" nType="-99"/>
        </Node>
        <Node pos="r" depth="1" NCoef="0" IVar="1" Cut="1.4335855102539062e+02" cType="1" res="1.3246909715235233e-02" rms="4.7729772329330444e-01" purity="5.3502106666564941e-01" nType="0">
          <Node pos="l" depth="2" NCoef="0" IVar="-1" Cut="0.0000000000000000e+00" cType="1" res="4.4250959763303399e-04" rms="4.7882270812988281e-01" purity="5.6526064872741699e-01" nType="-99"/>
          <Node pos="r" depth="2" NCoef="0" IVar="-1" Cut="0.0000000000000000e+00" cType="1" res="-1.0386437643319368e-03" rms="4.5319649577140808e-01" purity="3.1257122755050659e-01" nType="-99"/>
        </Node>
      </Node>
    </BinaryTree>
    <BinaryTree type="DecisionTree" boostWeight="1.0000000000000000e+00" itree="372">
      <Node pos="s" depth="0" NCoef="0" IVar="2" Cut="6.6760772705078125e+02" cType="1" res="-5.2973134443163872e-03" rms="4.7856014966964722e-01" purity="5.0690984725952148e-01" nType="0">
        <Node pos="l" depth="1" NCoef="0" IVar="5" Cut="3.4140664339065552e-01" cType="1" res="1.0547550767660141e-01" rms="4.6372103691101074e-01" purity="6.6610145568847656e-01" nType="0">
          <Node pos="l" depth="2" NCoef="0" IVar="-1" Cut="0.0000000000000000e+00" cType="1" res="3.5914505133405328e-04" rms="4.8529556393623352e-01" purity="5.7323759794235229e-01" nType="-99"/>
          <Node pos="r" depth="2" NCoef="0" IVar="-1" Cut="0.0000000000000000e+00" cType="1" res="4.5141787268221378e-03" rms="4.2555305361747742e-01" purity="7.5696766376495361e-01" nType="-99"/>
        </Node>
        <Node pos="r" depth="1" NCoef="0" IVar="4" Cut="5.5431713867187500e+02" cType="1" res="-1.8647894263267517e-02" rms="4.7858950495719910e-01" purity="4.8772376775741577e-01" nType="0">
          <Node pos="l" depth="2" NCoef="0" IVar="-1" Cut="0.0000000000000000e+00" cType="1" res="-1.7604050226509571e-03" rms="4.4283962249755859e-01" purity="3.1543299555778503e-01" nType="-99"/>
          <Node pos="r" depth="2" NCoef="0" IVar="-1" Cut="0.0000000000000000e+00" cType="1" res="1.9422286641201936e-06" rms="4.8023706674575806e-01" purity="5.1130259037017822e-01" nType="-99"/>
        </Node>
      </Node>
    </BinaryTree>
    <BinaryTree type="DecisionTree" boostWeight="1.0000000000000000e+00" itree="373">
      <Node pos="s" depth="0" NCoef="0" IVar="4" Cut="6.8293841552734375e+02" cType="1" res="-2.5578802451491356e-03" rms="4.7637999057769775e-01" purity="5.0909745693206787e-01" nType="0">
        <Node pos="l" depth="1" NCoef="0" IVar="2" Cut="9.3271496582031250e+02" cType="1" res="-4.4873911887407303e-02" rms="4.7176572680473328e-01" purity="4.6177184581756592e-01" nType="0">
          <Node pos="l" depth="2" NCoef="0" IVar="-1" Cut="0.0000000000000000e+00" cType="1" res="-5.6558408687124029e-05" rms="4.7348535060882568e-01" purity="5.1584190130233765e-01" nType="-99"/>
          <Node pos="r" depth="2" NCoef="0" IVar="-1" Cut="0.0000000000000000e+00" cType="1" res="-1.9864749629050493e-03" rms="4.3937292695045471e-01" purity="2.8256735205650330e-01" nType="-99"/>
        </Node>
        <Node pos="r" depth="1" NCoef="0" IVar="2" Cut="1.4017861328125000e+03" cType="1" res="3.2280012965202332e-02" rms="4.7733828425407410e-01" purity="5.4805958271026611e-01" nType="0">
          <Node pos="l" depth="2" NCoef="0" IVar="-1" Cut="0.0000000000000000e+00" cType="1" res="1.4243972254917026e-03" rms="4.6981137990951538e-01" purity="6.1049956083297729e-01" nType="-99"/>
          <Node pos="r" depth="2" NCoef="0" IVar="-1" Cut="0.0000000000000000e+00" cType="1" res="-5.3951743757352233e-04" rms="4.7997292876243591e-01" purity="4.5356771349906921e-01" nType="-99"/>
        </Node>
      </Node>
    </BinaryTree>
    <BinaryTree type="DecisionTree" boostWeight="1.0000000000000000e+00" itree="374">
      <Node pos="s" depth="0" NCoef="0" IVar="2" Cut="6.9852978515625000e+02" cType="1" res="-1.0038178414106369e-02" rms="4.7769114375114441e-01" purity="5.0169509649276733e-01" nType="0">
        <Node pos="l" depth="1" NCoef="0" IVar="4" Cut="5.0737106323242188e+02" cType="1" res="7.0466436445713043e-02" rms="4.7246652841567993e-01" purity="6.2610495090484619e-01" nType="0">
          <Node pos="l" depth="2" NCoef="0" IVar="-1" Cut="0.0000000000000000e+00" cType="1" res="8.1744117778725922e-05" rms="4.9084678292274475e-01" purity="5.4968547821044922e-01" nType="-99"/>
          <Node pos="r" depth="2" NCoef="0" IVar="-1" Cut="0.0000000000000000e+00" cType="1" res="4.3401969596743584e-03" rms="4.1601720452308655e-01" purity="7.5696963071823120e-01" nType="-99"/>
        </Node>
        <Node pos="r" depth="1" NCoef="0" IVar="4" Cut="6.5530377197265625e+02" cType="1" res="-2.3201392963528633e-02" rms="4.7724997997283936e-01" purity="4.8135304450988770e-01" nType="0">
          <Node pos="l" depth="2" NCoef="0" IVar="-1" Cut="0.0000000000000000e+00" cType="1" res="-1.2395215453580022e-03" rms="4.6625614166259766e-01" purity="3.8612055778503418e-01" nType="-99"/>
          <Node pos="r" depth="2" NCoef="0" IVar="-1" Cut="0.0000000000000000e+00" cType="1" res="1.4296486915554851e-04" rms="4.7826436161994934e-01" purity="5.2250277996063232e-01" nType="-99"/>
        </Node>
      </Node>
    </BinaryTree>
    <BinaryTree type="DecisionTree" boostWeight="1.0000000000000000e+00" itree="375">
      <Node pos="s" depth="0" NCoef="0" IVar="0" Cut="6.8099517822265625e+01" cType="1" res="-8.2961386069655418e-03" rms="4.7739154100418091e-01" purity="5.0325393676757812e-01" nType="0">
        <Node pos="l" depth="1" NCoef="0" IVar="-1" Cut="0.0000000000000000e+00" cType="1" res="-1.7376001924276352e-03" rms="4.4209849834442139e-01" purity="3.0981406569480896e-01" nType="-99"/>
        <Node pos="r" depth="1" NCoef="0" IVar="4" Cut="6.4965618896484375e+02" cType="1" res="8.6567075923085213e-03" rms="4.7862955927848816e-01" purity="5.2636271715164185e-01" nType="0">
          <Node pos="l" depth="2" NCoef="0" IVar="-1" Cut="0.0000000000000000e+00" cType="1" res="-7.0599524769932032e-04" rms="4.7505462169647217e-01" purity="4.6578872203826904e-01" nType="-99"/>
          <Node pos="r" depth="2" NCoef="0" IVar="-1" Cut="0.0000000000000000e+00" cType="1" res="7.5576757080852985e-04" rms="4.7716572880744934e-01" purity="5.6520843505859375e-01" nType="-99"/>
        </Node>
      </Node>
    </BinaryTree>
    <BinaryTree type="DecisionTree" boostWeight="1.0000000000000000e+00" itree="376">
      <Node pos="s" depth="0" NCoef="0" IVar="1" Cut="1.0274317932128906e+02" cType="1" res="-2.5902660563588142e-02" rms="4.7437968850135803e-01" purity="4.8382422327995300e-01" nType="0">
        <Node pos="l" depth="1" NCoef="0" IVar="-1" Cut="0.0000000000000000e+00" cType="1" res="-1.5457635745406151e-03" rms="4.3822833895683289e-01" purity="2.8659716248512268e-01" nType="-99"/>
        <Node pos="r" depth="1" NCoef="0" IVar="2" Cut="7.3909985351562500e+02" cType="1" res="-1.3784851878881454e-02" rms="4.7663971781730652e-01" purity="5.0552785396575928e-01" nType="0">
          <Node pos="l" depth="2" NCoef="0" IVar="-1" Cut="0.0000000000000000e+00" cType="1" res="1.4182697050273418e-03" rms="4.6589294075965881e-01" purity="6.3375538587570190e-01" nType="-99"/>
          <Node pos="r" depth="2" NCoef="0" IVar="-1" Cut="0.0000000000000000e+00" cType="1" res="-4.7515160986222327e-04" rms="4.7669851779937744e-01" purity="4.7767347097396851e-01" nType="-99"/>
        </Node>
      </Node>
    </BinaryTree>
    <BinaryTree type="DecisionTree" boostWeight="1.0000000000000000e+00" itree="377">
      <Node pos="s" depth="0" NCoef="0" IVar="0" Cut="3.2518173217773438e+02" cType="1" res="-1.9644020125269890e-02" rms="4.7718226909637451e-01" purity="4.9402129650115967e-01" nType="0">
        <Node pos="l" depth="1" NCoef="0" IVar="3" Cut="9.0586030483245850e-01" cType="1" res="-3.5075340420007706e-03" rms="4.7875329852104187e-01" purity="5.2353709936141968e-01" nType="0">
          <Node pos="l" depth="2" NCoef="0" IVar="-1" Cut="0.0000000000000000e+00" cType="1" res="-4.5005086576566100e-04" rms="4.8542729020118713e-01" purity="4.4344884157180786e-01" nType="-99"/>
          <Node pos="r" depth="2" NCoef="0" IVar="-1" Cut="0.0000000000000000e+00" cType="1" res="8.1899133510887623e-04" rms="4.6544000506401062e-01" purity="6.3914811611175537e-01" nType="-99"/>
        </Node>
        <Node pos="r" depth="1" NCoef="0" IVar="2" Cut="1.4193815917968750e+03" cType="1" res="-1.0256215929985046e-01" rms="4.6018719673156738e-01" purity="3.4235289692878723e-01" nType="0">
          <Node pos="l" depth="2" NCoef="0" IVar="-1" Cut="0.0000000000000000e+00" cType="1" res="-7.9323654063045979e-04" rms="4.7056430578231812e-01" purity="3.9177003502845764e-01" nType="-99"/>
          <Node pos="r" depth="2" NCoef="0" IVar="-1" Cut="0.0000000000000000e+00" cType="1" res="-1.6509995330125093e-03" rms="4.4511026144027710e-01" purity="2.9058444499969482e-01" nType="-99"/>
        </Node>
      </Node>
    </BinaryTree>
    <BinaryTree type="DecisionTree" boostWeight="1.0000000000000000e+00" itree="378">
      <Node pos="s" depth="0" NCoef="0" IVar="4" Cut="6.8293841552734375e+02" cType="1" res="-1.7475184053182602e-02" rms="4.7808521986007690e-01" purity="4.9355426430702209e-01" nType="0">
        <Node pos="l" depth="1" NCoef="0" IVar="2" Cut="7.4976281738281250e+02" cType="1" res="-6.4858801662921906e-02" rms="4.7019910812377930e-01" purity="4.4017601013183594e-01" nType="0">
          <Node pos="l" depth="2" NCoef="0" IVar="-1" Cut="0.0000000000000000e+00" cType="1" res="6.0980464331805706e-04" rms="4.7311010956764221e-01" purity="5.8241134881973267e-01" nType="-99"/>
          <Node pos="r" depth="2" NCoef="0" IVar="-1" Cut="0.0000000000000000e+00" cType="1" res="-1.6781094018369913e-03" rms="4.5355010032653809e-01" purity="3.3318766951560974e-01" nType="-99"/>
        </Node>
        <Node pos="r" depth="1" NCoef="0" IVar="2" Cut="1.3949697265625000e+03" cType="1" res="2.1600831300020218e-02" rms="4.8099282383918762e-01" purity="5.3757387399673462e-01" nType="0">
          <Node pos="l" depth="2" NCoef="0" IVar="-1" Cut="0.0000000000000000e+00" cType="1" res="1.0243440046906471e-03" rms="4.7869926691055298e-01" purity="5.9268367290496826e-01" nType="-99"/>
          <Node pos="r" depth="2" NCoef="0" IVar="-1" Cut="0.0000000000000000e+00" cType="1" res="-4.9078901065513492e-04" rms="4.7896772623062134e-01" purity="4.5645534992218018e-01" nType="-99"/>
        </Node>
      </Node>
    </BinaryTree>
    <BinaryTree type="DecisionTree" boostWeight="1.0000000000000000e+00" itree="379">
      <Node pos="s" depth="0" NCoef="0" IVar="0" Cut="4.6800082397460938e+02" cType="1" res="-2.1645016968250275e-02" rms="4.7563657164573669e-01" purity="4.8797464370727539e-01" nType="0">
        <Node pos="l" depth="1" NCoef="0" IVar="3" Cut="9.6028882265090942e-01" cType="1" res="-8.3965212106704712e-03" rms="4.7699388861656189e-01" purity="5.0781559944152832e-01" nType="0">
          <Node pos="l" depth="2" NCoef="0" IVar="-1" Cut="0.0000000000000000e+00" cType="1" res="-2.8246187139302492e-04" rms="4.8071748018264771e-01" purity="4.8526614904403687e-01" nType="-99"/>
          <Node pos="r" depth="2" NCoef="0" IVar="-1" Cut="0.0000000000000000e+00" cType="1" res="2.6759563479572535e-03" rms="4.2220440506935120e-01" purity="7.3210519552230835e-01" nType="-99"/>
        </Node>
        <Node pos="r" depth="1" NCoef="0" IVar="-1" Cut="0.0000000000000000e+00" cType="1" res="-1.9683290738612413e-03" rms="4.2782074213027954e-01" purity="2.4883103370666504e-01" nType="-99"/>
      </Node>
    </BinaryTree>
    <BinaryTree type="DecisionTree" boostWeight="1.0000000000000000e+00" itree="380">
      <Node pos="s" depth="0" NCoef="0" IVar="4" Cut="5.4810174560546875e+02" cType="1" res="-1.0539578273892403e-02" rms="4.7682678699493408e-01" purity="5.0257462263107300e-01" nType="0">
        <Node pos="l" depth="1" NCoef="0" IVar="2" Cut="6.7385986328125000e+02" cType="1" res="-8.8911607861518860e-02" rms="4.6681460738182068e-01" purity="4.2014205455780029e-01" nType="0">
          <Node pos="l" depth="2" NCoef="0" IVar="-1" Cut="0.0000000000000000e+00" cType="1" res="3.5528800799511373e-04" rms="4.7615048289299011e-01" purity="5.7039350271224976e-01" nType="-99"/>
          <Node pos="r" depth="2" NCoef="0" IVar="-1" Cut="0.0000000000000000e+00" cType="1" res="-2.2872157860547304e-03" rms="4.2822280526161194e-01" purity="2.6405024528503418e-01" nType="-99"/>
        </Node>
        <Node pos="r" depth="1" NCoef="0" IVar="2" Cut="7.8807257080078125e+02" cType="1" res="9.2199463397264481e-03" rms="4.7729110717773438e-01" purity="5.2335786819458008e-01" nType="0">
          <Node pos="l" depth="2" NCoef="0" IVar="-1" Cut="0.0000000000000000e+00" cType="1" res="2.7567318174988031e-03" rms="4.5048552751541138e-01" purity="6.9136422872543335e-01" nType="-99"/>
          <Node pos="r" depth="2" NCoef="0" IVar="-1" Cut="0.0000000000000000e+00" cType="1" res="-1.0288478370057419e-04" rms="4.7827956080436707e-01" purity="5.0158274173736572e-01" nType="-99"/>
        </Node>
      </Node>
    </BinaryTree>
    <BinaryTree type="DecisionTree" boostWeight="1.0000000000000000e+00" itree="381">
      <Node pos="s" depth="0" NCoef="0" IVar="0" Cut="4.5580517578125000e+02" cType="1" res="-1.0653446428477764e-02" rms="4.7301146388053894e-01" purity="4.9812081456184387e-01" nType="0">
        <Node pos="l" depth="1" NCoef="0" IVar="3" Cut="9.3471467494964600e-01" cType="1" res="2.6683656033128500e-03" rms="4.7395250201225281e-01" purity="5.1848763227462769e-01" nType="0">
          <Node pos="l" depth="2" NCoef="0" IVar="-1" Cut="0.0000000000000000e+00" cType="1" res="-3.1875932472757995e-04" rms="4.8109981417655945e-01" purity="4.6738252043724060e-01" nType="-99"/>
          <Node pos="r" depth="2" NCoef="0" IVar="-1" Cut="0.0000000000000000e+00" cType="1" res="2.5460091419517994e-03" rms="4.3028348684310913e-01" purity="7.1946954727172852e-01" nType="-99"/>
        </Node>
        <Node pos="r" depth="1" NCoef="0" IVar="-1" Cut="0.0000000000000000e+00" cType="1" res="-1.8516021082177758e-03" rms="4.3161261081695557e-01" purity="2.5728973746299744e-01" nType="-99"/>
      </Node>
    </BinaryTree>
    <BinaryTree type="DecisionTree" boostWeight="1.0000000000000000e+00" itree="382">
      <Node pos="s" depth="0" NCoef="0" IVar="4" Cut="7.0792687988281250e+02" cType="1" res="-2.3665964603424072e-02" rms="4.7778567671775818e-01" purity="4.8684570193290710e-01" nType="0">
        <Node pos="l" depth="1" NCoef="0" IVar="2" Cut="8.6923529052734375e+02" cType="1" res="-5.9442926198244095e-02" rms="4.7055500745773315e-01" purity="4.4696196913719177e-01" nType="0">
          <Node pos="l" depth="2" NCoef="0" IVar="-1" Cut="0.0000000000000000e+00" cType="1" res="-2.3998307005967945e-04" rms="4.7792318463325500e-01" purity="5.1210826635360718e-01" nType="-99"/>
          <Node pos="r" depth="2" NCoef="0" IVar="-1" Cut="0.0000000000000000e+00" cType="1" res="-1.6496250173076987e-03" rms="4.4424962997436523e-01" purity="3.2232969999313354e-01" nType="-99"/>
        </Node>
        <Node pos="r" depth="1" NCoef="0" IVar="2" Cut="1.3381246337890625e+03" cType="1" res="1.0373983532190323e-02" rms="4.8210662603378296e-01" purity="5.2479296922683716e-01" nType="0">
          <Node pos="l" depth="2" NCoef="0" IVar="-1" Cut="0.0000000000000000e+00" cType="1" res="1.4889102894812822e-03" rms="4.7313678264617920e-01" purity="6.2070530652999878e-01" nType="-99"/>
          <Node pos="r" depth="2" NCoef="0" IVar="-1" Cut="0.0000000000000000e+00" cType="1" res="-8.0593372695147991e-04" rms="4.8062878847122192e-01" purity="4.2809200286865234e-01" nType="-99"/>
        </Node>
      </Node>
    </BinaryTree>
    <BinaryTree type="DecisionTree" boostWeight="1.0000000000000000e+00" itree="383">
      <Node pos="s" depth="0" NCoef="0" IVar="1" Cut="1.3649809265136719e+02" cType="1" res="-3.0569188296794891e-02" rms="4.7549787163734436e-01" purity="4.7885170578956604e-01" nType="0">
        <Node pos="l" depth="1" NCoef="0" IVar="1" Cut="9.9037376403808594e+01" cType="1" res="-1.4559256844222546e-02" rms="4.7938078641891479e-01" purity="5.1366525888442993e-01" nType="0">
          <Node pos="l" depth="2" NCoef="0" IVar="-1" Cut="0.0000000000000000e+00" cType="1" res="-1.6223201528191566e-03" rms="4.4389900565147400e-01" purity="2.7582529187202454e-01" nType="-99"/>
          <Node pos="r" depth="2" NCoef="0" IVar="-1" Cut="0.0000000000000000e+00" cType="1" res="-1.0059130772788194e-06" rms="4.8100227117538452e-01" purity="5.4018056392669678e-01" nType="-99"/>
        </Node>
        <Node pos="r" depth="1" NCoef="0" IVar="4" Cut="8.7554193115234375e+02" cType="1" res="-9.9820889532566071e-02" rms="4.5183601975440979e-01" purity="3.2826375961303711e-01" nType="0">
          <Node pos="l" depth="2" NCoef="0" IVar="-1" Cut="0.0000000000000000e+00" cType="1" res="-1.6058274777606130e-03" rms="4.3461272120475769e-01" purity="2.9322484135627747e-01" nType="-99"/>
          <Node pos="r" depth="2" NCoef="0" IVar="-1" Cut="0.0000000000000000e+00" cType="1" res="-3.6127446219325066e-04" rms="4.7522160410881042e-01" purity="3.9689809083938599e-01" nType="-99"/>
        </Node>
      </Node>
    </BinaryTree>
    <BinaryTree type="DecisionTree" boostWeight="1.0000000000000000e+00" itree="384">
      <Node pos="s" depth="0" NCoef="0" IVar="4" Cut="6.8293841552734375e+02" cType="1" res="-1.1878744699060917e-02" rms="4.7739884257316589e-01" purity="4.9930456280708313e-01" nType="0">
        <Node pos="l" depth="1" NCoef="0" IVar="2" Cut="8.6201043701171875e+02" cType="1" res="-5.7603355497121811e-02" rms="4.7488811612129211e-01" purity="4.5252749323844910e-01" nType="0">
          <Node pos="l" depth="2" NCoef="0" IVar="-1" Cut="0.0000000000000000e+00" cType="1" res="-6.6213433456141502e-05" rms="4.7742390632629395e-01" purity="5.2395975589752197e-01" nType="-99"/>
          <Node pos="r" depth="2" NCoef="0" IVar="-1" Cut="0.0000000000000000e+00" cType="1" res="-1.9978380296379328e-03" rms="4.4736295938491821e-01" purity="2.9493495821952820e-01" nType="-99"/>
        </Node>
        <Node pos="r" depth="1" NCoef="0" IVar="2" Cut="1.5272373046875000e+03" cType="1" res="2.4966375902295113e-02" rms="4.7622889280319214e-01" purity="5.3699785470962524e-01" nType="0">
          <Node pos="l" depth="2" NCoef="0" IVar="-1" Cut="0.0000000000000000e+00" cType="1" res="1.1686690850183368e-03" rms="4.7293668985366821e-01" purity="5.9536111354827881e-01" nType="-99"/>
          <Node pos="r" depth="2" NCoef="0" IVar="-1" Cut="0.0000000000000000e+00" cType="1" res="-8.2753179594874382e-04" rms="4.7140690684318542e-01" purity="4.1597884893417358e-01" nType="-99"/>
        </Node>
      </Node>
    </BinaryTree>
    <BinaryTree type="DecisionTree" boostWeight="1.0000000000000000e+00" itree="385">
      <Node pos="s" depth="0" NCoef="0" IVar="0" Cut="9.8766769409179688e+01" cType="1" res="-1.5698321163654327e-02" rms="4.7961428761482239e-01" purity="4.9677947163581848e-01" nType="0">
        <Node pos="l" depth="1" NCoef="0" IVar="2" Cut="1.0295032958984375e+03" cType="1" res="-7.1921840310096741e-02" rms="4.7764766216278076e-01" purity="4.2815080285072327e-01" nType="0">
          <Node pos="l" depth="2" NCoef="0" IVar="-1" Cut="0.0000000000000000e+00" cType="1" res="-3.7421224988065660e-04" rms="4.8007807135581970e-01" purity="4.7785231471061707e-01" nType="-99"/>
          <Node pos="r" depth="2" NCoef="0" IVar="-1" Cut="0.0000000000000000e+00" cType="1" res="-1.8148885574191809e-03" rms="4.6206504106521606e-01" purity="3.3849269151687622e-01" nType="-99"/>
        </Node>
        <Node pos="r" depth="1" NCoef="0" IVar="0" Cut="1.7421601867675781e+02" cType="1" res="8.6666102288290858e-04" rms="4.7893503308296204e-01" purity="5.1699942350387573e-01" nType="0">
          <Node pos="l" depth="2" NCoef="0" IVar="-1" Cut="0.0000000000000000e+00" cType="1" res="9.3282398302108049e-04" rms="4.7706446051597595e-01" purity="6.1654603481292725e-01" nType="-99"/>
          <Node pos="r" depth="2" NCoef="0" IVar="-1" Cut="0.0000000000000000e+00" cType="1" res="-5.8269861619919538e-04" rms="4.7624096274375916e-01" purity="4.3187648057937622e-01" nType="-99"/>
        </Node>
      </Node>
    </BinaryTree>
    <BinaryTree type="DecisionTree" boostWeight="1.0000000000000000e+00" itree="386">
      <Node pos="s" depth="0" NCoef="0" IVar="4" Cut="7.0443017578125000e+02" cType="1" res="-8.8424012574250810e-06" rms="4.7475591301918030e-01" purity="5.0933969020843506e-01" nType="0">
        <Node pos="l" depth="1" NCoef="0" IVar="2" Cut="8.3047229003906250e+02" cType="1" res="-3.9916209876537323e-02" rms="4.7078144550323486e-01" purity="4.6547529101371765e-01" nType="0">
          <Node pos="l" depth="2" NCoef="0" IVar="-1" Cut="0.0000000000000000e+00" cType="1" res="2.9658389394171536e-04" rms="4.7469887137413025e-01" purity="5.5063682794570923e-01" nType="-99"/>
          <Node pos="r" depth="2" NCoef="0" IVar="-1" Cut="0.0000000000000000e+00" cType="1" res="-1.4879454392939806e-03" rms="4.5032414793968201e-01" purity="3.3559489250183105e-01" nType="-99"/>
        </Node>
        <Node pos="r" depth="1" NCoef="0" IVar="0" Cut="1.9822132873535156e+02" cType="1" res="3.9987888187170029e-02" rms="4.7535642981529236e-01" purity="5.5330240726470947e-01" nType="0">
          <Node pos="l" depth="2" NCoef="0" IVar="-1" Cut="0.0000000000000000e+00" cType="1" res="1.5403102152049541e-03" rms="4.6820092201232910e-01" purity="6.3366931676864624e-01" nType="-99"/>
          <Node pos="r" depth="2" NCoef="0" IVar="-1" Cut="0.0000000000000000e+00" cType="1" res="-8.6208790889941156e-05" rms="4.7929397225379944e-01" purity="4.6131333708763123e-01" nType="-99"/>
        </Node>
      </Node>
    </BinaryTree>
    <BinaryTree type="DecisionTree" boostWeight="1.0000000000000000e+00" itree="387">
      <Node pos="s" depth="0" NCoef="0" IVar="2" Cut="9.1580810546875000e+02" cType="1" res="-1.7039990052580833e-02" rms="4.7328257560729980e-01" purity="4.9263757467269897e-01" nType="0">
        <Node pos="l" depth="1" NCoef="0" IVar="4" Cut="4.7808139038085938e+02" cType="1" res="3.9132248610258102e-02" rms="4.7281527519226074e-01" purity="5.7251173257827759e-01" nType="0">
          <Node pos="l" depth="2" NCoef="0" IVar="-1" Cut="0.0000000000000000e+00" cType="1" res="-8.0840883310884237e-04" rms="4.7799465060234070e-01" purity="4.5794796943664551e-01" nType="-99"/>
          <Node pos="r" depth="2" NCoef="0" IVar="-1" Cut="0.0000000000000000e+00" cType="1" res="1.0823473567143083e-03" rms="4.6857294440269470e-01" purity="5.9995079040527344e-01" nType="-99"/>
        </Node>
        <Node pos="r" depth="1" NCoef="0" IVar="4" Cut="6.5674145507812500e+02" cType="1" res="-5.0461228936910629e-02" rms="4.7038826346397400e-01" purity="4.4511422514915466e-01" nType="0">
          <Node pos="l" depth="2" NCoef="0" IVar="-1" Cut="0.0000000000000000e+00" cType="1" res="-2.4051161017268896e-03" rms="3.9732208847999573e-01" purity="2.2048118710517883e-01" nType="-99"/>
          <Node pos="r" depth="2" NCoef="0" IVar="-1" Cut="0.0000000000000000e+00" cType="1" res="-2.8413668042048812e-04" rms="4.7609862685203552e-01" purity="4.8623111844062805e-01" nType="-99"/>
        </Node>
      </Node>
    </BinaryTree>
    <BinaryTree type="DecisionTree" boostWeight="1.0000000000000000e+00" itree="388">
      <Node pos="s" depth="0" NCoef="0" IVar="0" Cut="4.0470391845703125e+02" cType="1" res="-1.9946362823247910e-02" rms="4.7517919540405273e-01" purity="4.8981609940528870e-01" nType="0">
        <Node pos="l" depth="1" NCoef="0" IVar="0" Cut="8.5294769287109375e+01" cType="1" res="-9.3234498053789139e-03" rms="4.7619935870170593e-01" purity="5.0796025991439819e-01" nType="0">
          <Node pos="l" depth="2" NCoef="0" IVar="-1" Cut="0.0000000000000000e+00" cType="1" res="-1.2530578533187509e-03" rms="4.6559685468673706e-01" purity="3.7761166691780090e-01" nType="-99"/>
          <Node pos="r" depth="2" NCoef="0" IVar="-1" Cut="0.0000000000000000e+00" cType="1" res="1.8939415167551488e-04" rms="4.7608229517936707e-01" purity="5.3820788860321045e-01" nType="-99"/>
        </Node>
        <Node pos="r" depth="1" NCoef="0" IVar="-1" Cut="0.0000000000000000e+00" cType="1" res="-1.4404016546905041e-03" rms="4.5257708430290222e-01" purity="3.1469231843948364e-01" nType="-99"/>
      </Node>
    </BinaryTree>
    <BinaryTree type="DecisionTree" boostWeight="1.0000000000000000e+00" itree="389">
      <Node pos="s" depth="0" NCoef="0" IVar="0" Cut="7.0115943908691406e+01" cType="1" res="-1.6147503629326820e-02" rms="4.7639909386634827e-01" purity="4.9531036615371704e-01" nType="0">
        <Node pos="l" depth="1" NCoef="0" IVar="-1" Cut="0.0000000000000000e+00" cType="1" res="-1.2997357407584786e-03" rms="4.5945659279823303e-01" purity="3.5589149594306946e-01" nType="-99"/>
        <Node pos="r" depth="1" NCoef="0" IVar="0" Cut="2.4407608032226562e+02" cType="1" res="-5.7380115613341331e-03" rms="4.7725379467010498e-01" purity="5.1158982515335083e-01" nType="0">
          <Node pos="l" depth="2" NCoef="0" IVar="-1" Cut="0.0000000000000000e+00" cType="1" res="2.6743227499537170e-04" rms="4.7721183300018311e-01" purity="5.6015950441360474e-01" nType="-99"/>
          <Node pos="r" depth="2" NCoef="0" IVar="-1" Cut="0.0000000000000000e+00" cType="1" res="-7.6766958227381110e-04" rms="4.7308775782585144e-01" purity="3.9488238096237183e-01" nType="-99"/>
        </Node>
      </Node>
    </BinaryTree>
    <BinaryTree type="DecisionTree" boostWeight="1.0000000000000000e+00" itree="390">
      <Node pos="s" depth="0" NCoef="0" IVar="4" Cut="7.7154425048828125e+02" cType="1" res="-1.6598341986536980e-02" rms="4.7555500268936157e-01" purity="4.9404510855674744e-01" nType="0">
        <Node pos="l" depth="1" NCoef="0" IVar="2" Cut="8.9024493408203125e+02" cType="1" res="-4.3298743665218353e-02" rms="4.7250312566757202e-01" purity="4.6748083829879761e-01" nType="0">
          <Node pos="l" depth="2" NCoef="0" IVar="-1" Cut="0.0000000000000000e+00" cType="1" res="1.0675666999304667e-04" rms="4.7642478346824646e-01" purity="5.3734678030014038e-01" nType="-99"/>
          <Node pos="r" depth="2" NCoef="0" IVar="-1" Cut="0.0000000000000000e+00" cType="1" res="-1.5282371314242482e-03" rms="4.5488911867141724e-01" purity="3.5589244961738586e-01" nType="-99"/>
        </Node>
        <Node pos="r" depth="1" NCoef="0" IVar="2" Cut="1.1189613037109375e+03" cType="1" res="2.0703885704278946e-02" rms="4.7729167342185974e-01" purity="5.3115719556808472e-01" nType="0">
          <Node pos="l" depth="2" NCoef="0" IVar="-1" Cut="0.0000000000000000e+00" cType="1" res="2.5616192724555731e-03" rms="4.4336739182472229e-01" purity="6.7178755998611450e-01" nType="-99"/>
          <Node pos="r" depth="2" NCoef="0" IVar="-1" Cut="0.0000000000000000e+00" cType="1" res="-1.3177661458030343e-04" rms="4.8250806331634521e-01" purity="4.9079141020774841e-01" nType="-99"/>
        </Node>
      </Node>
    </BinaryTree>
    <BinaryTree type="DecisionTree" boostWeight="1.0000000000000000e+00" itree="391">
      <Node pos="s" depth="0" NCoef="0" IVar="2" Cut="9.1580810546875000e+02" cType="1" res="-1.6282619908452034e-02" rms="4.7475472092628479e-01" purity="4.9174392223358154e-01" nType="0">
        <Node pos="l" depth="1" NCoef="0" IVar="4" Cut="5.0929190063476562e+02" cType="1" res="3.0815536156296730e-02" rms="4.7325080633163452e-01" purity="5.5788099765777588e-01" nType="0">
          <Node pos="l" depth="2" NCoef="0" IVar="-1" Cut="0.0000000000000000e+00" cType="1" res="-7.4882898479700089e-04" rms="4.8131531476974487e-01" purity="4.6314927935600281e-01" nType="-99"/>
          <Node pos="r" depth="2" NCoef="0" IVar="-1" Cut="0.0000000000000000e+00" cType="1" res="1.2199336197227240e-03" rms="4.6415251493453979e-01" purity="6.0251748561859131e-01" nType="-99"/>
        </Node>
        <Node pos="r" depth="1" NCoef="0" IVar="4" Cut="6.4991729736328125e+02" cType="1" res="-4.5456528663635254e-02" rms="4.7333920001983643e-01" purity="4.5077684521675110e-01" nType="0">
          <Node pos="l" depth="2" NCoef="0" IVar="-1" Cut="0.0000000000000000e+00" cType="1" res="-2.3049192968755960e-03" rms="3.9172556996345520e-01" purity="2.1038854122161865e-01" nType="-99"/>
          <Node pos="r" depth="2" NCoef="0" IVar="-1" Cut="0.0000000000000000e+00" cType="1" res="-2.3939670063555241e-04" rms="4.7932770848274231e-01" purity="4.9051502346992493e-01" nType="-99"/>
        </Node>
      </Node>
    </BinaryTree>
    <BinaryTree type="DecisionTree" boostWeight="1.0000000000000000e+00" itree="392">
      <Node pos="s" depth="0" NCoef="0" IVar="0" Cut="6.3230587005615234e+01" cType="1" res="-1.3002429157495499e-02" rms="4.7655296325683594e-01" purity="4.9868738651275635e-01" nType="0">
        <Node pos="l" depth="1" NCoef="0" IVar="-1" Cut="0.0000000000000000e+00" cType="1" res="-1.6711686039343476e-03" rms="4.4753563404083252e-01" purity="3.1290239095687866e-01" nType="-99"/>
        <Node pos="r" depth="1" NCoef="0" IVar="4" Cut="6.8293841552734375e+02" cType="1" res="-6.9105532020330429e-04" rms="4.7751829028129578e-01" purity="5.1685667037963867e-01" nType="0">
          <Node pos="l" depth="2" NCoef="0" IVar="-1" Cut="0.0000000000000000e+00" cType="1" res="-5.3497875342145562e-04" rms="4.7630575299263000e-01" purity="4.7738772630691528e-01" nType="-99"/>
          <Node pos="r" depth="2" NCoef="0" IVar="-1" Cut="0.0000000000000000e+00" cType="1" res="4.2680025217123330e-04" rms="4.7661107778549194e-01" purity="5.4620695114135742e-01" nType="-99"/>
        </Node>
      </Node>
    </BinaryTree>
    <BinaryTree type="DecisionTree" boostWeight="1.0000000000000000e+00" itree="393">
      <Node pos="s" depth="0" NCoef="0" IVar="0" Cut="1.8290298461914062e+02" cType="1" res="3.4155659377574921e-03" rms="4.7460347414016724e-01" purity="5.1548719406127930e-01" nType="0">
        <Node pos="l" depth="1" NCoef="0" IVar="0" Cut="9.6203834533691406e+01" cType="1" res="3.2280407845973969e-02" rms="4.7255346179008484e-01" purity="5.7084459066390991e-01" nType="0">
          <Node pos="l" depth="2" NCoef="0" IVar="-1" Cut="0.0000000000000000e+00" cType="1" res="-7.1288971230387688e-04" rms="4.7479245066642761e-01" purity="4.4113564491271973e-01" nType="-99"/>
          <Node pos="r" depth="2" NCoef="0" IVar="-1" Cut="0.0000000000000000e+00" cType="1" res="1.4968022005632520e-03" rms="4.6478772163391113e-01" purity="6.4279121160507202e-01" nType="-99"/>
        </Node>
        <Node pos="r" depth="1" NCoef="0" IVar="4" Cut="8.1105059814453125e+02" cType="1" res="-4.0739931166172028e-02" rms="4.7433581948280334e-01" purity="4.3080514669418335e-01" nType="0">
          <Node pos="l" depth="2" NCoef="0" IVar="-1" Cut="0.0000000000000000e+00" cType="1" res="-1.2058063875883818e-03" rms="4.5724928379058838e-01" purity="3.7337815761566162e-01" nType="-99"/>
          <Node pos="r" depth="2" NCoef="0" IVar="-1" Cut="0.0000000000000000e+00" cType="1" res="2.8517810278572142e-04" rms="4.8620557785034180e-01" purity="4.9609255790710449e-01" nType="-99"/>
        </Node>
      </Node>
    </BinaryTree>
    <BinaryTree type="DecisionTree" boostWeight="1.0000000000000000e+00" itree="394">
      <Node pos="s" depth="0" NCoef="0" IVar="4" Cut="4.8526031494140625e+02" cType="1" res="-1.6332792118191719e-02" rms="4.7636309266090393e-01" purity="4.9499300122261047e-01" nType="0">
        <Node pos="l" depth="1" NCoef="0" IVar="-1" Cut="0.0000000000000000e+00" cType="1" res="-1.6549715073779225e-03" rms="4.5703867077827454e-01" purity="3.6556419730186462e-01" nType="-99"/>
        <Node pos="r" depth="1" NCoef="0" IVar="2" Cut="7.2350231933593750e+02" cType="1" res="-2.3460679221898317e-03" rms="4.7672024369239807e-01" purity="5.1053166389465332e-01" nType="0">
          <Node pos="l" depth="2" NCoef="0" IVar="-1" Cut="0.0000000000000000e+00" cType="1" res="2.3192190565168858e-03" rms="4.5722591876983643e-01" purity="6.7650312185287476e-01" nType="-99"/>
          <Node pos="r" depth="2" NCoef="0" IVar="-1" Cut="0.0000000000000000e+00" cType="1" res="-2.1927822672296315e-04" rms="4.7729831933975220e-01" purity="4.9144911766052246e-01" nType="-99"/>
        </Node>
      </Node>
    </BinaryTree>
    <BinaryTree type="DecisionTree" boostWeight="1.0000000000000000e+00" itree="395">
      <Node pos="s" depth="0" NCoef="0" IVar="0" Cut="7.0115943908691406e+01" cType="1" res="1.0014068335294724e-02" rms="4.7498708963394165e-01" purity="5.2180463075637817e-01" nType="0">
        <Node pos="l" depth="1" NCoef="0" IVar="-1" Cut="0.0000000000000000e+00" cType="1" res="-1.2319247471168637e-03" rms="4.6303251385688782e-01" purity="3.6532521247863770e-01" nType="-99"/>
        <Node pos="r" depth="1" NCoef="0" IVar="3" Cut="9.5053291320800781e-01" cType="1" res="2.1763894706964493e-02" rms="4.7478845715522766e-01" purity="5.3881788253784180e-01" nType="0">
          <Node pos="l" depth="2" NCoef="0" IVar="-1" Cut="0.0000000000000000e+00" cType="1" res="1.3360590673983097e-04" rms="4.8064529895782471e-01" purity="5.0861823558807373e-01" nType="-99"/>
          <Node pos="r" depth="2" NCoef="0" IVar="-1" Cut="0.0000000000000000e+00" cType="1" res="2.8584941755980253e-03" rms="4.2351448535919189e-01" purity="7.4181663990020752e-01" nType="-99"/>
        </Node>
      </Node>
    </BinaryTree>
    <BinaryTree type="DecisionTree" boostWeight="1.0000000000000000e+00" itree="396">
      <Node pos="s" depth="0" NCoef="0" IVar="1" Cut="9.9469924926757812e+01" cType="1" res="-1.9963866099715233e-02" rms="4.7321856021881104e-01" purity="4.8858824372291565e-01" nType="0">
        <Node pos="l" depth="1" NCoef="0" IVar="-1" Cut="0.0000000000000000e+00" cType="1" res="-1.9054807489737868e-03" rms="4.1760554909706116e-01" purity="2.4669009447097778e-01" nType="-99"/>
        <Node pos="r" depth="1" NCoef="0" IVar="1" Cut="1.3305581665039062e+02" cType="1" res="-6.6343857906758785e-03" rms="4.7576099634170532e-01" purity="5.1071906089782715e-01" nType="0">
          <Node pos="l" depth="2" NCoef="0" IVar="-1" Cut="0.0000000000000000e+00" cType="1" res="3.0867027817294002e-04" rms="4.7735181450843811e-01" purity="5.5902606248855591e-01" nType="-99"/>
          <Node pos="r" depth="2" NCoef="0" IVar="-1" Cut="0.0000000000000000e+00" cType="1" res="-1.0269499616697431e-03" rms="4.6347156167030334e-01" purity="3.7345653772354126e-01" nType="-99"/>
        </Node>
      </Node>
    </BinaryTree>
    <BinaryTree type="DecisionTree" boostWeight="1.0000000000000000e+00" itree="397">
      <Node pos="s" depth="0" NCoef="0" IVar="1" Cut="1.4732101440429688e+02" cType="1" res="-2.2251579910516739e-02" rms="4.7405636310577393e-01" purity="4.8668751120567322e-01" nType="0">
        <Node pos="l" depth="1" NCoef="0" IVar="0" Cut="2.8446240234375000e+02" cType="1" res="-8.1698782742023468e-03" rms="4.7690552473068237e-01" purity="5.1149952411651611e-01" nType="0">
          <Node pos="l" depth="2" NCoef="0" IVar="-1" Cut="0.0000000000000000e+00" cType="1" res="1.7674495757091790e-04" rms="4.7787475585937500e-01" purity="5.4687476158142090e-01" nType="-99"/>
          <Node pos="r" depth="2" NCoef="0" IVar="-1" Cut="0.0000000000000000e+00" cType="1" res="-1.1371769942343235e-03" rms="4.6486893296241760e-01" purity="3.6933428049087524e-01" nType="-99"/>
        </Node>
        <Node pos="r" depth="1" NCoef="0" IVar="-1" Cut="0.0000000000000000e+00" cType="1" res="-1.8378407694399357e-03" rms="4.1551047563552856e-01" purity="2.2725938260555267e-01" nType="-99"/>
      </Node>
    </BinaryTree>
    <BinaryTree type="DecisionTree" boostWeight="1.0000000000000000e+00" itree="398">
      <Node pos="s" depth="0" NCoef="0" IVar="4" Cut="6.9706341552734375e+02" cType="1" res="-1.8505357205867767e-02" rms="4.7726473212242126e-01" purity="4.9378371238708496e-01" nType="0">
        <Node pos="l" depth="1" NCoef="0" IVar="2" Cut="9.1508807373046875e+02" cType="1" res="-4.9277152866125107e-02" rms="4.7494551539421082e-01" purity="4.5983931422233582e-01" nType="0">
          <Node pos="l" depth="2" NCoef="0" IVar="-1" Cut="0.0000000000000000e+00" cType="1" res="-1.0273556108586490e-04" rms="4.7719025611877441e-01" purity="5.1616287231445312e-01" nType="-99"/>
          <Node pos="r" depth="2" NCoef="0" IVar="-1" Cut="0.0000000000000000e+00" cType="1" res="-2.0293400157243013e-03" rms="4.4353586435317993e-01" purity="2.8787681460380554e-01" nType="-99"/>
        </Node>
        <Node pos="r" depth="1" NCoef="0" IVar="2" Cut="1.1526160888671875e+03" cType="1" res="8.7157972157001495e-03" rms="4.7765737771987915e-01" purity="5.2381134033203125e-01" nType="0">
          <Node pos="l" depth="2" NCoef="0" IVar="-1" Cut="0.0000000000000000e+00" cType="1" res="2.0110728219151497e-03" rms="4.6193674206733704e-01" purity="6.5332269668579102e-01" nType="-99"/>
          <Node pos="r" depth="2" NCoef="0" IVar="-1" Cut="0.0000000000000000e+00" cType="1" res="-5.3418503375723958e-04" rms="4.7852104902267456e-01" purity="4.5904949307441711e-01" nType="-99"/>
        </Node>
      </Node>
    </BinaryTree>
    <BinaryTree type="DecisionTree" boostWeight="1.0000000000000000e+00" itree="399">
      <Node pos="s" depth="0" NCoef="0" IVar="1" Cut="1.3245687866210938e+02" cType="1" res="-5.8835605159401894e-03" rms="4.7522360086441040e-01" purity="5.0629264116287231e-01" nType="0">
        <Node pos="l" depth="1" NCoef="0" IVar="5" Cut="7.8485673666000366e-01" cType="1" res="1.4945901930332184e-02" rms="4.7537440061569214e-01" purity="5.4513317346572876e-01" nType="0">
          <Node pos="l" depth="2" NCoef="0" IVar="-1" Cut="0.0000000000000000e+00" cType="1" res="-2.3499680537497625e-05" rms="4.7700145840644836e-01" purity="5.2489840984344482e-01" nType="-99"/>
          <Node pos="r" depth="2" NCoef="0" IVar="-1" Cut="0.0000000000000000e+00" cType="1" res="1.8617064924910665e-03" rms="4.5767784118652344e-01" purity="6.4912348985671997e-01" nType="-99"/>
        </Node>
        <Node pos="r" depth="1" NCoef="0" IVar="4" Cut="9.6115765380859375e+02" cType="1" res="-6.6880591213703156e-02" rms="4.6949607133865356e-01" purity="3.9255195856094360e-01" nType="0">
          <Node pos="l" depth="2" NCoef="0" IVar="-1" Cut="0.0000000000000000e+00" cType="1" res="-1.1938703246414661e-03" rms="4.6297237277030945e-01" purity="3.6785843968391418e-01" nType="-99"/>
          <Node pos="r" depth="2" NCoef="0" IVar="-1" Cut="0.0000000000000000e+00" cType="1" res="8.9565837697591633e-05" rms="4.7912552952766418e-01" purity="4.5928388833999634e-01" nType="-99"/>
        </Node>
      </Node>
    </BinaryTree>
    <BinaryTree type="DecisionTree" boostWeight="1.0000000000000000e+00" itree="400">
      <Node pos="s" depth="0" NCoef="0" IVar="3" Cut="8.7079077959060669e-01" cType="1" res="-2.3756884038448334e-02" rms="4.7723820805549622e-01" purity="4.8895695805549622e-01" nType="0">
        <Node pos="l" depth="1" NCoef="0" IVar="5" Cut="6.2984788417816162e-01" cType="1" res="-9.0056695044040680e-02" rms="4.6740841865539551e-01" purity="3.5017037391662598e-01" nType="0">
          <Node pos="l" depth="2" NCoef="0" IVar="-1" Cut="0.0000000000000000e+00" cType="1" res="-1.3955164467915893e-03" rms="4.5826303958892822e-01" purity="3.1869119405746460e-01" nType="-99"/>
          <Node pos="r" depth="2" NCoef="0" IVar="-1" Cut="0.0000000000000000e+00" cType="1" res="-5.9848793171113357e-05" rms="4.8226132988929749e-01" purity="4.3935504555702209e-01" nType="-99"/>
        </Node>
        <Node pos="r" depth="1" NCoef="0" IVar="2" Cut="7.3703948974609375e+02" cType="1" res="2.2370442748069763e-03" rms="4.7853717207908630e-01" purity="5.4337054491043091e-01" nType="0">
          <Node pos="l" depth="2" NCoef="0" IVar="-1" Cut="0.0000000000000000e+00" cType="1" res="1.8918690038844943e-03" rms="4.5556735992431641e-01" purity="6.7378950119018555e-01" nType="-99"/>
          <Node pos="r" depth="2" NCoef="0" IVar="-1" Cut="0.0000000000000000e+00" cType="1" res="-2.4478041450493038e-04" rms="4.8129206895828247e-01" purity="5.1579010486602783e-01" nType="-99"/>
        </Node>
      </Node>
    </BinaryTree>
    <BinaryTree type="DecisionTree" boostWeight="1.0000000000000000e+00" itree="401">
      <Node pos="s" depth="0" NCoef="0" IVar="2" Cut="1.2417255859375000e+03" cType="1" res="-1.4611857943236828e-02" rms="4.7534611821174622e-01" purity="4.9444562196731567e-01" nType="0">
        <Node pos="l" depth="1" NCoef="0" IVar="4" Cut="6.9415100097656250e+02" cType="1" res="8.2702357321977615e-03" rms="4.7269997000694275e-01" purity="5.2722531557083130e-01" nType="0">
          <Node pos="l" depth="2" NCoef="0" IVar="-1" Cut="0.0000000000000000e+00" cType="1" res="-5.1300122868269682e-04" rms="4.7081482410430908e-01" purity="4.7204166650772095e-01" nType="-99"/>
          <Node pos="r" depth="2" NCoef="0" IVar="-1" Cut="0.0000000000000000e+00" cType="1" res="1.7703641206026077e-03" rms="4.6470770239830017e-01" purity="6.3518184423446655e-01" nType="-99"/>
        </Node>
        <Node pos="r" depth="1" NCoef="0" IVar="4" Cut="8.6134039306640625e+02" cType="1" res="-6.0435581952333450e-02" rms="4.7731485962867737e-01" purity="4.2880085110664368e-01" nType="0">
          <Node pos="l" depth="2" NCoef="0" IVar="-1" Cut="0.0000000000000000e+00" cType="1" res="-2.2072878200560808e-03" rms="4.3313848972320557e-01" purity="2.7669933438301086e-01" nType="-99"/>
          <Node pos="r" depth="2" NCoef="0" IVar="-1" Cut="0.0000000000000000e+00" cType="1" res="-1.6177035286091268e-04" rms="4.8273524641990662e-01" purity="4.8293343186378479e-01" nType="-99"/>
        </Node>
      </Node>
    </BinaryTree>
    <BinaryTree type="DecisionTree" boostWeight="1.0000000000000000e+00" itree="402">
      <Node pos="s" depth="0" NCoef="0" IVar="2" Cut="7.8215124511718750e+02" cType="1" res="-2.0613688975572586e-02" rms="4.7476327419281006e-01" purity="4.8916402459144592e-01" nType="0">
        <Node pos="l" depth="1" NCoef="0" IVar="4" Cut="4.9906838989257812e+02" cType="1" res="3.5698894411325455e-02" rms="4.7863215208053589e-01" purity="5.8028399944305420e-01" nType="0">
          <Node pos="l" depth="2" NCoef="0" IVar="-1" Cut="0.0000000000000000e+00" cType="1" res="-7.1109656710177660e-04" rms="4.8024368286132812e-01" purity="4.7964078187942505e-01" nType="-99"/>
          <Node pos="r" depth="2" NCoef="0" IVar="-1" Cut="0.0000000000000000e+00" cType="1" res="1.8197384197264910e-03" rms="4.6832743287086487e-01" purity="6.5071380138397217e-01" nType="-99"/>
        </Node>
        <Node pos="r" depth="1" NCoef="0" IVar="4" Cut="6.2005102539062500e+02" cType="1" res="-3.9174839854240417e-02" rms="4.7201126813888550e-01" purity="4.5913001894950867e-01" nType="0">
          <Node pos="l" depth="2" NCoef="0" IVar="-1" Cut="0.0000000000000000e+00" cType="1" res="-1.9937392789870501e-03" rms="4.2319464683532715e-01" purity="2.6631888747215271e-01" nType="-99"/>
          <Node pos="r" depth="2" NCoef="0" IVar="-1" Cut="0.0000000000000000e+00" cType="1" res="-1.4085616567172110e-04" rms="4.7620871663093567e-01" purity="4.9926999211311340e-01" nType="-99"/>
        </Node>
      </Node>
    </BinaryTree>
    <BinaryTree type="DecisionTree" boostWeight="1.0000000000000000e+00" itree="403">
      <Node pos="s" depth="0" NCoef="0" IVar="4" Cut="1.2464561767578125e+03" cType="1" res="-7.6338662765920162e-03" rms="4.7606706619262695e-01" purity="5.0340354442596436e-01" nType="0">
        <Node pos="l" depth="1" NCoef="0" IVar="2" Cut="1.3897778320312500e+03" cType="1" res="-1.7239315435290337e-02" rms="4.7539353370666504e-01" purity="4.9644187092781067e-01" nType="0">
          <Node pos="l" depth="2" NCoef="0" IVar="-1" Cut="0.0000000000000000e+00" cType="1" res="-3.5113400372210890e-05" rms="4.7553682327270508e-01" purity="5.1657778024673462e-01" nType="-99"/>
          <Node pos="r" depth="2" NCoef="0" IVar="-1" Cut="0.0000000000000000e+00" cType="1" res="-1.3306278269737959e-03" rms="4.6576288342475891e-01" purity="3.8354355096817017e-01" nType="-99"/>
        </Node>
        <Node pos="r" depth="1" NCoef="0" IVar="-1" Cut="0.0000000000000000e+00" cType="1" res="2.0475070923566818e-03" rms="4.6773403882980347e-01" purity="5.9162420034408569e-01" nType="-99"/>
      </Node>
    </BinaryTree>
    <BinaryTree type="DecisionTree" boostWeight="1.0000000000000000e+00" itree="404">
      <Node pos="s" depth="0" NCoef="0" IVar="4" Cut="9.4580462646484375e+02" cType="1" res="-7.7713066712021828e-03" rms="4.7466462850570679e-01" purity="5.0076961517333984e-01" nType="0">
        <Node pos="l" depth="1" NCoef="0" IVar="2" Cut="1.3270198974609375e+03" cType="1" res="-2.8156824409961700e-02" rms="4.7210460901260376e-01" purity="4.8225894570350647e-01" nType="0">
          <Node pos="l" depth="2" NCoef="0" IVar="-1" Cut="0.0000000000000000e+00" cType="1" res="-1.8463048036210239e-04" rms="4.7195491194725037e-01" purity="5.0170928239822388e-01" nType="-99"/>
          <Node pos="r" depth="2" NCoef="0" IVar="-1" Cut="0.0000000000000000e+00" cType="1" res="-1.9622435793280602e-03" rms="4.5044746994972229e-01" purity="3.1213280558586121e-01" nType="-99"/>
        </Node>
        <Node pos="r" depth="1" NCoef="0" IVar="2" Cut="1.3941014404296875e+03" cType="1" res="6.3506640493869781e-02" rms="4.7670498490333557e-01" purity="5.6549221277236938e-01" nType="0">
          <Node pos="l" depth="2" NCoef="0" IVar="-1" Cut="0.0000000000000000e+00" cType="1" res="3.8207015022635460e-03" rms="4.5402464270591736e-01" purity="7.1096831560134888e-01" nType="-99"/>
          <Node pos="r" depth="2" NCoef="0" IVar="-1" Cut="0.0000000000000000e+00" cType="1" res="3.8593646604567766e-04" rms="4.7883614897727966e-01" purity="5.1362144947052002e-01" nType="-99"/>
        </Node>
      </Node>
    </BinaryTree>
    <BinaryTree type="DecisionTree" boostWeight="1.0000000000000000e+00" itree="405">
      <Node pos="s" depth="0" NCoef="0" IVar="0" Cut="6.2686191558837891e+01" cType="1" res="-1.2891838327050209e-02" rms="4.7693991661071777e-01" purity="4.9763998389244080e-01" nType="0">
        <Node pos="l" depth="1" NCoef="0" IVar="-1" Cut="0.0000000000000000e+00" cType="1" res="-1.6485159285366535e-03" rms="4.3950235843658447e-01" purity="3.0539596080780029e-01" nType="-99"/>
        <Node pos="r" depth="1" NCoef="0" IVar="4" Cut="4.7236004638671875e+02" cType="1" res="-1.9731149077415466e-03" rms="4.7845906019210815e-01" purity="5.1419693231582642e-01" nType="0">
          <Node pos="l" depth="2" NCoef="0" IVar="-1" Cut="0.0000000000000000e+00" cType="1" res="-1.3728124322369695e-03" rms="4.5732513070106506e-01" purity="3.9129766821861267e-01" nType="-99"/>
          <Node pos="r" depth="2" NCoef="0" IVar="-1" Cut="0.0000000000000000e+00" cType="1" res="1.1723321949830279e-04" rms="4.7912058234214783e-01" purity="5.2506709098815918e-01" nType="-99"/>
        </Node>
      </Node>
    </BinaryTree>
    <BinaryTree type="DecisionTree" boostWeight="1.0000000000000000e+00" itree="406">
      <Node pos="s" depth="0" NCoef="0" IVar="4" Cut="6.6287957763671875e+02" cType="1" res="-6.9791781716048717e-03" rms="4.7641867399215698e-01" purity="5.0690501928329468e-01" nType="0">
        <Node pos="l" depth="1" NCoef="0" IVar="2" Cut="9.1876464843750000e+02" cType="1" res="-5.2652593702077866e-02" rms="4.7330975532531738e-01" purity="4.5828217267990112e-01" nType="0">
          <Node pos="l" depth="2" NCoef="0" IVar="-1" Cut="0.0000000000000000e+00" cType="1" res="-2.9285388882271945e-04" rms="4.7774627804756165e-01" purity="5.0689905881881714e-01" nType="-99"/>
          <Node pos="r" depth="2" NCoef="0" IVar="-1" Cut="0.0000000000000000e+00" cType="1" res="-2.0178148988634348e-03" rms="4.3133717775344849e-01" purity="2.6838564872741699e-01" nType="-99"/>
        </Node>
        <Node pos="r" depth="1" NCoef="0" IVar="2" Cut="1.0900925292968750e+03" cType="1" res="2.6114294305443764e-02" rms="4.7592800855636597e-01" purity="5.4213553667068481e-01" nType="0">
          <Node pos="l" depth="2" NCoef="0" IVar="-1" Cut="0.0000000000000000e+00" cType="1" res="1.8632170977070928e-03" rms="4.5910555124282837e-01" purity="6.4309960603713989e-01" nType="-99"/>
          <Node pos="r" depth="2" NCoef="0" IVar="-1" Cut="0.0000000000000000e+00" cType="1" res="-1.1922306293854490e-04" rms="4.8007425665855408e-01" purity="4.9363815784454346e-01" nType="-99"/>
        </Node>
      </Node>
    </BinaryTree>
    <BinaryTree type="DecisionTree" boostWeight="1.0000000000000000e+00" itree="407">
      <Node pos="s" depth="0" NCoef="0" IVar="4" Cut="8.8896545410156250e+02" cType="1" res="-1.4015930704772472e-02" rms="4.7391194105148315e-01" purity="4.9622428417205811e-01" nType="0">
        <Node pos="l" depth="1" NCoef="0" IVar="2" Cut="1.0027663574218750e+03" cType="1" res="-3.5533502697944641e-02" rms="4.7097221016883850e-01" purity="4.7644415497779846e-01" nType="0">
          <Node pos="l" depth="2" NCoef="0" IVar="-1" Cut="0.0000000000000000e+00" cType="1" res="-9.7243304480798542e-05" rms="4.7375032305717468e-01" purity="5.1796859502792358e-01" nType="-99"/>
          <Node pos="r" depth="2" NCoef="0" IVar="-1" Cut="0.0000000000000000e+00" cType="1" res="-1.2775370851159096e-03" rms="4.5858019590377808e-01" purity="3.8650667667388916e-01" nType="-99"/>
        </Node>
        <Node pos="r" depth="1" NCoef="0" IVar="0" Cut="2.9864291381835938e+02" cType="1" res="4.3795265257358551e-02" rms="4.7693735361099243e-01" purity="5.4936742782592773e-01" nType="0">
          <Node pos="l" depth="2" NCoef="0" IVar="-1" Cut="0.0000000000000000e+00" cType="1" res="1.7886883579194546e-03" rms="4.6611717343330383e-01" purity="6.3190233707427979e-01" nType="-99"/>
          <Node pos="r" depth="2" NCoef="0" IVar="-1" Cut="0.0000000000000000e+00" cType="1" res="-6.5268221078440547e-04" rms="4.8165738582611084e-01" purity="3.9954629540443420e-01" nType="-99"/>
        </Node>
      </Node>
    </BinaryTree>
    <BinaryTree type="DecisionTree" boostWeight="1.0000000000000000e+00" itree="408">
      <Node pos="s" depth="0" NCoef="0" IVar="2" Cut="7.5476843261718750e+02" cType="1" res="-1.3517380692064762e-02" rms="4.7497588396072388e-01" purity="4.9834918975830078e-01" nType="0">
        <Node pos="l" depth="1" NCoef="0" IVar="4" Cut="5.2227154541015625e+02" cType="1" res="5.4271530359983444e-02" rms="4.6911045908927917e-01" purity="5.9857964515686035e-01" nType="0">
          <Node pos="l" depth="2" NCoef="0" IVar="-1" Cut="0.0000000000000000e+00" cType="1" res="-2.2964239178691059e-05" rms="4.8240414261817932e-01" purity="5.3239887952804565e-01" nType="-99"/>
          <Node pos="r" depth="2" NCoef="0" IVar="-1" Cut="0.0000000000000000e+00" cType="1" res="2.3928319569677114e-03" rms="4.4322434067726135e-01" purity="6.7865908145904541e-01" nType="-99"/>
        </Node>
        <Node pos="r" depth="1" NCoef="0" IVar="4" Cut="5.7244708251953125e+02" cType="1" res="-3.0577156692743301e-02" rms="4.7491911053657532e-01" purity="4.7312512993812561e-01" nType="0">
          <Node pos="l" depth="2" NCoef="0" IVar="-1" Cut="0.0000000000000000e+00" cType="1" res="-2.0763780921697617e-03" rms="4.0654018521308899e-01" purity="2.4596488475799561e-01" nType="-99"/>
          <Node pos="r" depth="2" NCoef="0" IVar="-1" Cut="0.0000000000000000e+00" cType="1" res="-1.6768237401265651e-04" rms="4.7916743159294128e-01" purity="5.0133424997329712e-01" nType="-99"/>
        </Node>
      </Node>
    </BinaryTree>
    <BinaryTree type="DecisionTree" boostWeight="1.0000000000000000e+00" itree="409">
      <Node pos="s" depth="0" NCoef="0" IVar="4" Cut="8.5140258789062500e+02" cType="1" res="-2.0481154322624207e-02" rms="4.7688165307044983e-01" purity="4.9155893921852112e-01" nType="0">
        <Node pos="l" depth="1" NCoef="0" IVar="2" Cut="9.8680993652343750e+02" cType="1" res="-4.4114161282777786e-02" rms="4.7354596853256226e-01" purity="4.6892797946929932e-01" nType="0">
          <Node pos="l" depth="2" NCoef="0" IVar="-1" Cut="0.0000000000000000e+00" cType="1" res="-1.4536041999235749e-04" rms="4.7886654734611511e-01" purity="5.1876312494277954e-01" nType="-99"/>
          <Node pos="r" depth="2" NCoef="0" IVar="-1" Cut="0.0000000000000000e+00" cType="1" res="-1.5098816948011518e-03" rms="4.5270565152168274e-01" purity="3.6071792244911194e-01" nType="-99"/>
        </Node>
        <Node pos="r" depth="1" NCoef="0" IVar="2" Cut="1.4992175292968750e+03" cType="1" res="3.0928574502468109e-02" rms="4.8005700111389160e-01" purity="5.4078894853591919e-01" nType="0">
          <Node pos="l" depth="2" NCoef="0" IVar="-1" Cut="0.0000000000000000e+00" cType="1" res="1.9110223511233926e-03" rms="4.6491900086402893e-01" purity="6.3816583156585693e-01" nType="-99"/>
          <Node pos="r" depth="2" NCoef="0" IVar="-1" Cut="0.0000000000000000e+00" cType="1" res="-5.3056172328069806e-04" rms="4.8413425683975220e-01" purity="4.4686490297317505e-01" nType="-99"/>
        </Node>
      </Node>
    </BinaryTree>
    <BinaryTree type="DecisionTree" boostWeight="1.0000000000000000e+00" itree="410">
      <Node pos="s" depth="0" NCoef="0" IVar="4" Cut="9.0837988281250000e+02" cType="1" res="-6.3174157403409481e-03" rms="4.7518578171730042e-01" purity="5.0285667181015015e-01" nType="0">
        <Node pos="l" depth="1" NCoef="0" IVar="2" Cut="1.2186218261718750e+03" cType="1" res="-2.6991175487637520e-02" rms="4.7257360816001892e-01" purity="4.8478192090988159e-01" nType="0">
          <Node pos="l" depth="2" NCoef="0" IVar="-1" Cut="0.0000000000000000e+00" cType="1" res="-4.8982994485413656e-05" rms="4.7358754277229309e-01" purity="5.1570552587509155e-01" nType="-99"/>
          <Node pos="r" depth="2" NCoef="0" IVar="-1" Cut="0.0000000000000000e+00" cType="1" res="-1.7373603768646717e-03" rms="4.4676300883293152e-01" purity="3.2216334342956543e-01" nType="-99"/>
        </Node>
        <Node pos="r" depth="1" NCoef="0" IVar="1" Cut="1.3516355895996094e+02" cType="1" res="5.3074341267347336e-02" rms="4.7765946388244629e-01" purity="5.5478191375732422e-01" nType="0">
          <Node pos="l" depth="2" NCoef="0" IVar="-1" Cut="0.0000000000000000e+00" cType="1" res="1.4149196213111281e-03" rms="4.7747161984443665e-01" purity="6.0971742868423462e-01" nType="-99"/>
          <Node pos="r" depth="2" NCoef="0" IVar="-1" Cut="0.0000000000000000e+00" cType="1" res="-2.2337096743285656e-04" rms="4.7110611200332642e-01" purity="4.1049563884735107e-01" nType="-99"/>
        </Node>
      </Node>
    </BinaryTree>
    <BinaryTree type="DecisionTree" boostWeight="1.0000000000000000e+00" itree="411">
      <Node pos="s" depth="0" NCoef="0" IVar="4" Cut="6.8389404296875000e+02" cType="1" res="-3.8991805631667376e-03" rms="4.7510293126106262e-01" purity="5.0733578205108643e-01" nType="0">
        <Node pos="l" depth="1" NCoef="0" IVar="2" Cut="8.9372705078125000e+02" cType="1" res="-4.7491509467363358e-02" rms="4.6953928470611572e-01" purity="4.5541211962699890e-01" nType="0">
          <Node pos="l" depth="2" NCoef="0" IVar="-1" Cut="0.0000000000000000e+00" cType="1" res="-9.5633884484414011e-05" rms="4.7404819726943970e-01" purity="5.1697844266891479e-01" nType="-99"/>
          <Node pos="r" depth="2" NCoef="0" IVar="-1" Cut="0.0000000000000000e+00" cType="1" res="-1.7758014146238565e-03" rms="4.3940091133117676e-01" purity="2.9352673888206482e-01" nType="-99"/>
        </Node>
        <Node pos="r" depth="1" NCoef="0" IVar="2" Cut="9.2606335449218750e+02" cType="1" res="3.4511581063270569e-02" rms="4.7665911912918091e-01" purity="5.5308753252029419e-01" nType="0">
          <Node pos="l" depth="2" NCoef="0" IVar="-1" Cut="0.0000000000000000e+00" cType="1" res="3.2179832924157381e-03" rms="4.3831485509872437e-01" purity="7.1675878763198853e-01" nType="-99"/>
          <Node pos="r" depth="2" NCoef="0" IVar="-1" Cut="0.0000000000000000e+00" cType="1" res="3.1603922252543271e-04" rms="4.7933170199394226e-01" purity="5.3237849473953247e-01" nType="-99"/>
        </Node>
      </Node>
    </BinaryTree>
    <BinaryTree type="DecisionTree" boostWeight="1.0000000000000000e+00" itree="412">
      <Node pos="s" depth="0" NCoef="0" IVar="0" Cut="9.0373802185058594e+01" cType="1" res="-9.1790640726685524e-03" rms="4.7835275530815125e-01" purity="5.0556135177612305e-01" nType="0">
        <Node pos="l" depth="1" NCoef="0" IVar="2" Cut="7.4344653320312500e+02" cType="1" res="-8.6928889155387878e-02" rms="4.7241470217704773e-01" purity="4.0428578853607178e-01" nType="0">
          <Node pos="l" depth="2" NCoef="0" IVar="-1" Cut="0.0000000000000000e+00" cType="1" res="1.3817721628583968e-04" rms="4.7564864158630371e-01" purity="5.1884841918945312e-01" nType="-99"/>
          <Node pos="r" depth="2" NCoef="0" IVar="-1" Cut="0.0000000000000000e+00" cType="1" res="-1.5837488463148475e-03" rms="4.6520069241523743e-01" purity="3.5622027516365051e-01" nType="-99"/>
        </Node>
        <Node pos="r" depth="1" NCoef="0" IVar="0" Cut="1.2246477508544922e+02" cType="1" res="8.6931698024272919e-03" rms="4.7792273759841919e-01" purity="5.2884137630462646e-01" nType="0">
          <Node pos="l" depth="2" NCoef="0" IVar="-1" Cut="0.0000000000000000e+00" cType="1" res="2.0939004607498646e-03" rms="4.5632946491241455e-01" purity="6.7305481433868408e-01" nType="-99"/>
          <Node pos="r" depth="2" NCoef="0" IVar="-1" Cut="0.0000000000000000e+00" cType="1" res="-2.4042390577960759e-04" rms="4.8037293553352356e-01" purity="4.9093684554100037e-01" nType="-99"/>
        </Node>
      </Node>
    </BinaryTree>
    <BinaryTree type="DecisionTree" boostWeight="1.0000000000000000e+00" itree="413">
      <Node pos="s" depth="0" NCoef="0" IVar="0" Cut="1.7755136108398438e+02" cType="1" res="2.3082301486283541e-03" rms="4.7445026040077209e-01" purity="5.1262855529785156e-01" nType="0">
        <Node pos="l" depth="1" NCoef="0" IVar="0" Cut="1.0378712463378906e+02" cType="1" res="3.5541877150535583e-02" rms="4.7372543811798096e-01" purity="5.7368296384811401e-01" nType="0">
          <Node pos="l" depth="2" NCoef="0" IVar="-1" Cut="0.0000000000000000e+00" cType="1" res="-2.5000155437737703e-04" rms="4.7844129800796509e-01" purity="4.9004447460174561e-01" nType="-99"/>
          <Node pos="r" depth="2" NCoef="0" IVar="-1" Cut="0.0000000000000000e+00" cType="1" res="1.4657092979177833e-03" rms="4.6592605113983154e-01" purity="6.3850396871566772e-01" nType="-99"/>
        </Node>
        <Node pos="r" depth="1" NCoef="0" IVar="3" Cut="9.3015950918197632e-01" cType="1" res="-4.4598069041967392e-02" rms="4.7150185704231262e-01" purity="4.2645582556724548e-01" nType="0">
          <Node pos="l" depth="2" NCoef="0" IVar="-1" Cut="0.0000000000000000e+00" cType="1" res="-8.5403269622474909e-04" rms="4.6898975968360901e-01" purity="3.7784141302108765e-01" nType="-99"/>
          <Node pos="r" depth="2" NCoef="0" IVar="-1" Cut="0.0000000000000000e+00" cType="1" res="5.8589340187609196e-04" rms="4.7247540950775146e-01" purity="5.9700304269790649e-01" nType="-99"/>
        </Node>
      </Node>
    </BinaryTree>
    <BinaryTree type="DecisionTree" boostWeight="1.0000000000000000e+00" itree="414">
      <Node pos="s" depth="0" NCoef="0" IVar="0" Cut="4.6533706665039062e+02" cType="1" res="-2.0447159186005592e-02" rms="4.7462704777717590e-01" purity="4.8731967806816101e-01" nType="0">
        <Node pos="l" depth="1" NCoef="0" IVar="0" Cut="8.6221656799316406e+01" cType="1" res="-1.1662963777780533e-02" rms="4.7588613629341125e-01" purity="5.0313502550125122e-01" nType="0">
          <Node pos="l" depth="2" NCoef="0" IVar="-1" Cut="0.0000000000000000e+00" cType="1" res="-1.0126004926860332e-03" rms="4.7661250829696655e-01" purity="4.0477651357650757e-01" nType="-99"/>
          <Node pos="r" depth="2" NCoef="0" IVar="-1" Cut="0.0000000000000000e+00" cType="1" res="3.0110970328678377e-05" rms="4.7459521889686584e-01" purity="5.2337479591369629e-01" nType="-99"/>
        </Node>
        <Node pos="r" depth="1" NCoef="0" IVar="-1" Cut="0.0000000000000000e+00" cType="1" res="-1.5349191380664706e-03" rms="4.4514477252960205e-01" purity="2.9392278194427490e-01" nType="-99"/>
      </Node>
    </BinaryTree>
    <BinaryTree type="DecisionTree" boostWeight="1.0000000000000000e+00" itree="415">
      <Node pos="s" depth="0" NCoef="0" IVar="4" Cut="6.8293841552734375e+02" cType="1" res="-7.1138804778456688e-03" rms="4.7382244467735291e-01" purity="5.0305652618408203e-01" nType="0">
        <Node pos="l" depth="1" NCoef="0" IVar="2" Cut="8.1304132080078125e+02" cType="1" res="-4.3924435973167419e-02" rms="4.6841010451316833e-01" purity="4.5640695095062256e-01" nType="0">
          <Node pos="l" depth="2" NCoef="0" IVar="-1" Cut="0.0000000000000000e+00" cType="1" res="1.4262372860684991e-04" rms="4.7150105237960815e-01" purity="5.3557556867599487e-01" nType="-99"/>
          <Node pos="r" depth="2" NCoef="0" IVar="-1" Cut="0.0000000000000000e+00" cType="1" res="-1.4877239009365439e-03" rms="4.5125707983970642e-01" purity="3.3285006880760193e-01" nType="-99"/>
        </Node>
        <Node pos="r" depth="1" NCoef="0" IVar="2" Cut="1.7387038574218750e+03" cType="1" res="2.3347241804003716e-02" rms="4.7610774636268616e-01" purity="5.4165953397750854e-01" nType="0">
          <Node pos="l" depth="2" NCoef="0" IVar="-1" Cut="0.0000000000000000e+00" cType="1" res="8.2607939839363098e-04" rms="4.7380968928337097e-01" purity="5.7636392116546631e-01" nType="-99"/>
          <Node pos="r" depth="2" NCoef="0" IVar="-1" Cut="0.0000000000000000e+00" cType="1" res="-9.1679242905229330e-04" rms="4.7305598855018616e-01" purity="4.1118991374969482e-01" nType="-99"/>
        </Node>
      </Node>
    </BinaryTree>
    <BinaryTree type="DecisionTree" boostWeight="1.0000000000000000e+00" itree="416">
      <Node pos="s" depth="0" NCoef="0" IVar="1" Cut="9.9903724670410156e+01" cType="1" res="-9.8262624815106392e-03" rms="4.7446000576019287e-01" purity="5.0010794401168823e-01" nType="0">
        <Node pos="l" depth="1" NCoef="0" IVar="-1" Cut="0.0000000000000000e+00" cType="1" res="-1.8212072318419814e-03" rms="4.2066434025764465e-01" purity="2.4393437802791595e-01" nType="-99"/>
        <Node pos="r" depth="1" NCoef="0" IVar="1" Cut="1.3644068908691406e+02" cType="1" res="3.5552508197724819e-03" rms="4.7664359211921692e-01" purity="5.2284288406372070e-01" nType="0">
          <Node pos="l" depth="2" NCoef="0" IVar="-1" Cut="0.0000000000000000e+00" cType="1" res="3.6804197588935494e-04" rms="4.7870570421218872e-01" purity="5.6345844268798828e-01" nType="-99"/>
          <Node pos="r" depth="2" NCoef="0" IVar="-1" Cut="0.0000000000000000e+00" cType="1" res="-9.3311979435384274e-04" rms="4.6015492081642151e-01" purity="3.5619550943374634e-01" nType="-99"/>
        </Node>
      </Node>
    </BinaryTree>
    <BinaryTree type="DecisionTree" boostWeight="1.0000000000000000e+00" itree="417">
      <Node pos="s" depth="0" NCoef="0" IVar="0" Cut="6.7829383850097656e+01" cType="1" res="-1.8357260152697563e-02" rms="4.7512698173522949e-01" purity="4.9172285199165344e-01" nType="0">
        <Node pos="l" depth="1" NCoef="0" IVar="-1" Cut="0.0000000000000000e+00" cType="1" res="-1.5408176695927978e-03" rms="4.6058955788612366e-01" purity="3.3599758148193359e-01" nType="-99"/>
        <Node pos="r" depth="1" NCoef="0" IVar="0" Cut="1.9839872741699219e+02" cType="1" res="-6.5067606046795845e-03" rms="4.7514051198959351e-01" purity="5.0844722986221313e-01" nType="0">
          <Node pos="l" depth="2" NCoef="0" IVar="-1" Cut="0.0000000000000000e+00" cType="1" res="3.0031858477741480e-04" rms="4.7485542297363281e-01" purity="5.6624943017959595e-01" nType="-99"/>
          <Node pos="r" depth="2" NCoef="0" IVar="-1" Cut="0.0000000000000000e+00" cType="1" res="-6.2930973945185542e-04" rms="4.7284677624702454e-01" purity="4.1511723399162292e-01" nType="-99"/>
        </Node>
      </Node>
    </BinaryTree>
    <BinaryTree type="DecisionTree" boostWeight="1.0000000000000000e+00" itree="418">
      <Node pos="s" depth="0" NCoef="0" IVar="0" Cut="6.4517669677734375e+01" cType="1" res="-1.6209067776799202e-02" rms="4.7522437572479248e-01" purity="4.9333742260932922e-01" nType="0">
        <Node pos="l" depth="1" NCoef="0" IVar="-1" Cut="0.0000000000000000e+00" cType="1" res="-1.8487850902602077e-03" rms="4.4328626990318298e-01" purity="2.9419189691543579e-01" nType="-99"/>
        <Node pos="r" depth="1" NCoef="0" IVar="4" Cut="8.0890783691406250e+02" cType="1" res="-1.6973833553493023e-03" rms="4.7595837712287903e-01" purity="5.1357460021972656e-01" nType="0">
          <Node pos="l" depth="2" NCoef="0" IVar="-1" Cut="0.0000000000000000e+00" cType="1" res="-4.4011246063746512e-04" rms="4.7141444683074951e-01" purity="4.8551404476165771e-01" nType="-99"/>
          <Node pos="r" depth="2" NCoef="0" IVar="-1" Cut="0.0000000000000000e+00" cType="1" res="7.2923791594803333e-04" rms="4.7968405485153198e-01" purity="5.5844610929489136e-01" nType="-99"/>
        </Node>
      </Node>
    </BinaryTree>
    <BinaryTree type="DecisionTree" boostWeight="1.0000000000000000e+00" itree="419">
      <Node pos="s" depth="0" NCoef="0" IVar="1" Cut="1.0659043884277344e+02" cType="1" res="-8.9576318860054016e-03" rms="4.7613525390625000e-01" purity="5.0165033340454102e-01" nType="0">
        <Node pos="l" depth="1" NCoef="0" IVar="2" Cut="1.0510069580078125e+03" cType="1" res="-9.3460418283939362e-02" rms="4.6131646633148193e-01" purity="3.4945893287658691e-01" nType="0">
          <Node pos="l" depth="2" NCoef="0" IVar="-1" Cut="0.0000000000000000e+00" cType="1" res="-9.2573941219598055e-04" rms="4.5877397060394287e-01" purity="3.7889906764030457e-01" nType="-99"/>
          <Node pos="r" depth="2" NCoef="0" IVar="-1" Cut="0.0000000000000000e+00" cType="1" res="-1.3869397807866335e-03" rms="4.6247977018356323e-01" purity="3.2534801959991455e-01" nType="-99"/>
        </Node>
        <Node pos="r" depth="1" NCoef="0" IVar="0" Cut="9.8766769409179688e+01" cType="1" res="4.1304724290966988e-03" rms="4.7705253958702087e-01" purity="5.2522230148315430e-01" nType="0">
          <Node pos="l" depth="2" NCoef="0" IVar="-1" Cut="0.0000000000000000e+00" cType="1" res="-9.3139935052022338e-04" rms="4.7425854206085205e-01" purity="4.3479102849960327e-01" nType="-99"/>
          <Node pos="r" depth="2" NCoef="0" IVar="-1" Cut="0.0000000000000000e+00" cType="1" res="4.1117882938124239e-04" rms="4.7572410106658936e-01" purity="5.5126613378524780e-01" nType="-99"/>
        </Node>
      </Node>
    </BinaryTree>
    <BinaryTree type="DecisionTree" boostWeight="1.0000000000000000e+00" itree="420">
      <Node pos="s" depth="0" NCoef="0" IVar="2" Cut="1.3166179199218750e+03" cType="1" res="-1.8155360594391823e-02" rms="4.7630393505096436e-01" purity="4.9161610007286072e-01" nType="0">
        <Node pos="l" depth="1" NCoef="0" IVar="4" Cut="6.6342797851562500e+02" cType="1" res="4.5152814127504826e-03" rms="4.7476884722709656e-01" purity="5.2230888605117798e-01" nType="0">
          <Node pos="l" depth="2" NCoef="0" IVar="-1" Cut="0.0000000000000000e+00" cType="1" res="-5.2385451272130013e-04" rms="4.7366604208946228e-01" purity="4.6656078100204468e-01" nType="-99"/>
          <Node pos="r" depth="2" NCoef="0" IVar="-1" Cut="0.0000000000000000e+00" cType="1" res="9.2739408137276769e-04" rms="4.7130206227302551e-01" purity="5.9078270196914673e-01" nType="-99"/>
        </Node>
        <Node pos="r" depth="1" NCoef="0" IVar="4" Cut="1.1003576660156250e+03" cType="1" res="-7.6309390366077423e-02" rms="4.7530013322830200e-01" purity="4.1288390755653381e-01" nType="0">
          <Node pos="l" depth="2" NCoef="0" IVar="-1" Cut="0.0000000000000000e+00" cType="1" res="-1.5601273626089096e-03" rms="4.6517002582550049e-01" purity="3.6583966016769409e-01" nType="-99"/>
          <Node pos="r" depth="2" NCoef="0" IVar="-1" Cut="0.0000000000000000e+00" cType="1" res="-2.9525495483539999e-04" rms="4.8005354404449463e-01" purity="4.6441411972045898e-01" nType="-99"/>
        </Node>
      </Node>
    </BinaryTree>
    <BinaryTree type="DecisionTree" boostWeight="1.0000000000000000e+00" itree="421">
      <Node pos="s" depth="0" NCoef="0" IVar="3" Cut="8.6732602119445801e-01" cType="1" res="-1.0382255539298058e-02" rms="4.7488245368003845e-01" purity="4.9960899353027344e-01" nType="0">
        <Node pos="l" depth="1" NCoef="0" IVar="5" Cut="6.2739396095275879e-01" cType="1" res="-7.7954187989234924e-02" rms="4.6792098879814148e-01" purity="3.5612177848815918e-01" nType="0">
          <Node pos="l" depth="2" NCoef="0" IVar="-1" Cut="0.0000000000000000e+00" cType="1" res="-1.2370260665193200e-03" rms="4.5982664823532104e-01" purity="3.2725480198860168e-01" nType="-99"/>
          <Node pos="r" depth="2" NCoef="0" IVar="-1" Cut="0.0000000000000000e+00" cType="1" res="-8.4569037426263094e-05" rms="4.8012888431549072e-01" purity="4.2805552482604980e-01" nType="-99"/>
        </Node>
        <Node pos="r" depth="1" NCoef="0" IVar="2" Cut="1.2417255859375000e+03" cType="1" res="1.1464354582130909e-02" rms="4.7505983710289001e-01" purity="5.4599964618682861e-01" nType="0">
          <Node pos="l" depth="2" NCoef="0" IVar="-1" Cut="0.0000000000000000e+00" cType="1" res="6.3164252787828445e-04" rms="4.7028899192810059e-01" purity="5.8170145750045776e-01" nType="-99"/>
          <Node pos="r" depth="2" NCoef="0" IVar="-1" Cut="0.0000000000000000e+00" cType="1" res="-5.9532723389565945e-04" rms="4.8071524500846863e-01" purity="4.7106444835662842e-01" nType="-99"/>
        </Node>
      </Node>
    </BinaryTree>
    <BinaryTree type="DecisionTree" boostWeight="1.0000000000000000e+00" itree="422">
      <Node pos="s" depth="0" NCoef="0" IVar="4" Cut="1.0000953979492188e+03" cType="1" res="-2.4554556235671043e-02" rms="4.7641220688819885e-01" purity="4.8701360821723938e-01" nType="0">
        <Node pos="l" depth="1" NCoef="0" IVar="2" Cut="1.2936066894531250e+03" cType="1" res="-4.3676283210515976e-02" rms="4.7549301385879517e-01" purity="4.7148513793945312e-01" nType="0">
          <Node pos="l" depth="2" NCoef="0" IVar="-1" Cut="0.0000000000000000e+00" cType="1" res="-4.1653920197859406e-04" rms="4.7622582316398621e-01" purity="4.9127611517906189e-01" nType="-99"/>
          <Node pos="r" depth="2" NCoef="0" IVar="-1" Cut="0.0000000000000000e+00" cType="1" res="-1.8534638220444322e-03" rms="4.5509079098701477e-01" purity="3.2771012187004089e-01" nType="-99"/>
        </Node>
        <Node pos="r" depth="1" NCoef="0" IVar="2" Cut="1.6332705078125000e+03" cType="1" res="5.8409851044416428e-02" rms="4.7148224711418152e-01" purity="5.5438774824142456e-01" nType="0">
          <Node pos="l" depth="2" NCoef="0" IVar="-1" Cut="0.0000000000000000e+00" cType="1" res="2.7606429066509008e-03" rms="4.5753383636474609e-01" purity="6.6115123033523560e-01" nType="-99"/>
          <Node pos="r" depth="2" NCoef="0" IVar="-1" Cut="0.0000000000000000e+00" cType="1" res="-1.0928628762485459e-04" rms="4.7186666727066040e-01" purity="4.6983766555786133e-01" nType="-99"/>
        </Node>
      </Node>
    </BinaryTree>
    <BinaryTree type="DecisionTree" boostWeight="1.0000000000000000e+00" itree="423">
      <Node pos="s" depth="0" NCoef="0" IVar="0" Cut="6.4517669677734375e+01" cType="1" res="-2.5759444106370211e-03" rms="4.7660636901855469e-01" purity="5.0688862800598145e-01" nType="0">
        <Node pos="l" depth="1" NCoef="0" IVar="-1" Cut="0.0000000000000000e+00" cType="1" res="-1.4477620134130120e-03" rms="4.5129656791687012e-01" purity="3.2742297649383545e-01" nType="-99"/>
        <Node pos="r" depth="1" NCoef="0" IVar="2" Cut="1.5895379638671875e+03" cType="1" res="8.2546779885888100e-03" rms="4.7758498787879944e-01" purity="5.2420884370803833e-01" nType="0">
          <Node pos="l" depth="2" NCoef="0" IVar="-1" Cut="0.0000000000000000e+00" cType="1" res="4.2349417344667017e-04" rms="4.7642534971237183e-01" purity="5.4846912622451782e-01" nType="-99"/>
          <Node pos="r" depth="2" NCoef="0" IVar="-1" Cut="0.0000000000000000e+00" cType="1" res="-1.0126065462827682e-03" rms="4.7391524910926819e-01" purity="4.0481624007225037e-01" nType="-99"/>
        </Node>
      </Node>
    </BinaryTree>
    <BinaryTree type="DecisionTree" boostWeight="1.0000000000000000e+00" itree="424">
      <Node pos="s" depth="0" NCoef="0" IVar="1" Cut="1.3811256408691406e+02" cType="1" res="-1.9321460276842117e-02" rms="4.7378644347190857e-01" purity="4.8770371079444885e-01" nType="0">
        <Node pos="l" depth="1" NCoef="0" IVar="0" Cut="3.7747174072265625e+02" cType="1" res="-3.6837314255535603e-03" rms="4.7780832648277283e-01" purity="5.2230566740036011e-01" nType="0">
          <Node pos="l" depth="2" NCoef="0" IVar="-1" Cut="0.0000000000000000e+00" cType="1" res="9.6177551313303411e-05" rms="4.7825273871421814e-01" purity="5.4028004407882690e-01" nType="-99"/>
          <Node pos="r" depth="2" NCoef="0" IVar="-1" Cut="0.0000000000000000e+00" cType="1" res="-1.1500492691993713e-03" rms="4.6413108706474304e-01" purity="3.5742864012718201e-01" nType="-99"/>
        </Node>
        <Node pos="r" depth="1" NCoef="0" IVar="5" Cut="4.5499709248542786e-01" cType="1" res="-9.8053492605686188e-02" rms="4.4471877813339233e-01" purity="3.1349164247512817e-01" nType="0">
          <Node pos="l" depth="2" NCoef="0" IVar="-1" Cut="0.0000000000000000e+00" cType="1" res="-5.7805090909823775e-04" rms="4.6316054463386536e-01" purity="3.7385538220405579e-01" nType="-99"/>
          <Node pos="r" depth="2" NCoef="0" IVar="-1" Cut="0.0000000000000000e+00" cType="1" res="-1.5155875589698553e-03" rms="4.2554363608360291e-01" purity="2.6818221807479858e-01" nType="-99"/>
        </Node>
      </Node>
    </BinaryTree>
    <BinaryTree type="DecisionTree" boostWeight="1.0000000000000000e+00" itree="425">
      <Node pos="s" depth="0" NCoef="0" IVar="1" Cut="1.0801229095458984e+02" cType="1" res="-9.8188854753971100e-03" rms="4.7443720698356628e-01" purity="5.0048583745956421e-01" nType="0">
        <Node pos="l" depth="1" NCoef="0" IVar="3" Cut="9.0718847513198853e-01" cType="1" res="-8.9234858751296997e-02" rms="4.5891299843788147e-01" purity="3.5937497019767761e-01" nType="0">
          <Node pos="l" depth="2" NCoef="0" IVar="-1" Cut="0.0000000000000000e+00" cType="1" res="-1.2980328174307942e-03" rms="4.4449192285537720e-01" purity="2.8925436735153198e-01" nType="-99"/>
          <Node pos="r" depth="2" NCoef="0" IVar="-1" Cut="0.0000000000000000e+00" cType="1" res="-5.6639366084709764e-04" rms="4.8034331202507019e-01" purity="4.9108642339706421e-01" nType="-99"/>
        </Node>
        <Node pos="r" depth="1" NCoef="0" IVar="1" Cut="1.3725105285644531e+02" cType="1" res="3.6645329091697931e-03" rms="4.7570803761482239e-01" purity="5.2444392442703247e-01" nType="0">
          <Node pos="l" depth="2" NCoef="0" IVar="-1" Cut="0.0000000000000000e+00" cType="1" res="4.1783350752666593e-04" rms="4.7678855061531067e-01" purity="5.6866312026977539e-01" nType="-99"/>
          <Node pos="r" depth="2" NCoef="0" IVar="-1" Cut="0.0000000000000000e+00" cType="1" res="-1.0621581459417939e-03" rms="4.6056243777275085e-01" purity="3.4205722808837891e-01" nType="-99"/>
        </Node>
      </Node>
    </BinaryTree>
    <BinaryTree type="DecisionTree" boostWeight="1.0000000000000000e+00" itree="426">
      <Node pos="s" depth="0" NCoef="0" IVar="3" Cut="8.6758041381835938e-01" cType="1" res="-7.0719602517783642e-03" rms="4.7381475567817688e-01" purity="5.0460666418075562e-01" nType="0">
        <Node pos="l" depth="1" NCoef="0" IVar="2" Cut="1.1262985839843750e+03" cType="1" res="-6.8912923336029053e-02" rms="4.6968036890029907e-01" purity="3.7082383036613464e-01" nType="0">
          <Node pos="l" depth="2" NCoef="0" IVar="-1" Cut="0.0000000000000000e+00" cType="1" res="-4.7128548612818122e-04" rms="4.7804707288742065e-01" purity="4.1005629301071167e-01" nType="-99"/>
          <Node pos="r" depth="2" NCoef="0" IVar="-1" Cut="0.0000000000000000e+00" cType="1" res="-1.2967903167009354e-03" rms="4.5448657870292664e-01" purity="3.1791347265243530e-01" nType="-99"/>
        </Node>
        <Node pos="r" depth="1" NCoef="0" IVar="2" Cut="1.4590039062500000e+03" cType="1" res="1.1750647798180580e-02" rms="4.7346532344818115e-01" purity="5.4532635211944580e-01" nType="0">
          <Node pos="l" depth="2" NCoef="0" IVar="-1" Cut="0.0000000000000000e+00" cType="1" res="4.9714121269062161e-04" rms="4.7014036774635315e-01" purity="5.7158946990966797e-01" nType="-99"/>
          <Node pos="r" depth="2" NCoef="0" IVar="-1" Cut="0.0000000000000000e+00" cType="1" res="-8.5282733198255301e-04" rms="4.8000088334083557e-01" purity="4.3818366527557373e-01" nType="-99"/>
        </Node>
      </Node>
    </BinaryTree>
    <BinaryTree type="DecisionTree" boostWeight="1.0000000000000000e+00" itree="427">
      <Node pos="s" depth="0" NCoef="0" IVar="0" Cut="6.7829383850097656e+01" cType="1" res="-1.7310021445155144e-02" rms="4.7661188244819641e-01" purity="4.9175581336021423e-01" nType="0">
        <Node pos="l" depth="1" NCoef="0" IVar="-1" Cut="0.0000000000000000e+00" cType="1" res="-1.7249139491468668e-03" rms="4.4069367647171021e-01" purity="3.0094194412231445e-01" nType="-99"/>
        <Node pos="r" depth="1" NCoef="0" IVar="3" Cut="9.5693224668502808e-01" cType="1" res="-2.5181327946484089e-03" rms="4.7838330268859863e-01" purity="5.1379233598709106e-01" nType="0">
          <Node pos="l" depth="2" NCoef="0" IVar="-1" Cut="0.0000000000000000e+00" cType="1" res="-2.0176667021587491e-04" rms="4.8292523622512817e-01" purity="4.8783022165298462e-01" nType="-99"/>
          <Node pos="r" depth="2" NCoef="0" IVar="-1" Cut="0.0000000000000000e+00" cType="1" res="2.2645122371613979e-03" rms="4.2904117703437805e-01" purity="7.2269576787948608e-01" nType="-99"/>
        </Node>
      </Node>
    </BinaryTree>
    <BinaryTree type="DecisionTree" boostWeight="1.0000000000000000e+00" itree="428">
      <Node pos="s" depth="0" NCoef="0" IVar="4" Cut="6.6620928955078125e+02" cType="1" res="1.5346781583502889e-03" rms="4.7586262226104736e-01" purity="5.1312279701232910e-01" nType="0">
        <Node pos="l" depth="1" NCoef="0" IVar="2" Cut="8.9770855712890625e+02" cType="1" res="-4.6567603945732117e-02" rms="4.7211724519729614e-01" purity="4.5739772915840149e-01" nType="0">
          <Node pos="l" depth="2" NCoef="0" IVar="-1" Cut="0.0000000000000000e+00" cType="1" res="-1.8479215214028955e-04" rms="4.7783264517784119e-01" purity="5.1073819398880005e-01" nType="-99"/>
          <Node pos="r" depth="2" NCoef="0" IVar="-1" Cut="0.0000000000000000e+00" cType="1" res="-1.8205207306891680e-03" rms="4.3371039628982544e-01" purity="2.8095716238021851e-01" nType="-99"/>
        </Node>
        <Node pos="r" depth="1" NCoef="0" IVar="2" Cut="1.4132587890625000e+03" cType="1" res="3.6273784935474396e-02" rms="4.7553291916847229e-01" purity="5.5336701869964600e-01" nType="0">
          <Node pos="l" depth="2" NCoef="0" IVar="-1" Cut="0.0000000000000000e+00" cType="1" res="1.2627071700990200e-03" rms="4.7055318951606750e-01" purity="6.0892117023468018e-01" nType="-99"/>
          <Node pos="r" depth="2" NCoef="0" IVar="-1" Cut="0.0000000000000000e+00" cType="1" res="-3.2097776420414448e-04" rms="4.7825753688812256e-01" purity="4.5829990506172180e-01" nType="-99"/>
        </Node>
      </Node>
    </BinaryTree>
    <BinaryTree type="DecisionTree" boostWeight="1.0000000000000000e+00" itree="429">
      <Node pos="s" depth="0" NCoef="0" IVar="2" Cut="1.1954455566406250e+03" cType="1" res="-2.2922286763787270e-02" rms="4.7708299756050110e-01" purity="4.8904862999916077e-01" nType="0">
        <Node pos="l" depth="1" NCoef="0" IVar="4" Cut="6.5987933349609375e+02" cType="1" res="-7.5440196087583899e-04" rms="4.7639954090118408e-01" purity="5.2202838659286499e-01" nType="0">
          <Node pos="l" depth="2" NCoef="0" IVar="-1" Cut="0.0000000000000000e+00" cType="1" res="-6.4484385075047612e-04" rms="4.7234556078910828e-01" purity="4.6300873160362244e-01" nType="-99"/>
          <Node pos="r" depth="2" NCoef="0" IVar="-1" Cut="0.0000000000000000e+00" cType="1" res="1.2446048203855753e-03" rms="4.7436985373497009e-01" purity="6.1505293846130371e-01" nType="-99"/>
        </Node>
        <Node pos="r" depth="1" NCoef="0" IVar="4" Cut="9.5516918945312500e+02" cType="1" res="-6.4249634742736816e-02" rms="4.7560375928878784e-01" purity="4.2756485939025879e-01" nType="0">
          <Node pos="l" depth="2" NCoef="0" IVar="-1" Cut="0.0000000000000000e+00" cType="1" res="-1.9756776746362448e-03" rms="4.5208194851875305e-01" purity="3.2779407501220703e-01" nType="-99"/>
          <Node pos="r" depth="2" NCoef="0" IVar="-1" Cut="0.0000000000000000e+00" cType="1" res="-3.5145994843333028e-06" rms="4.7986525297164917e-01" purity="4.9334231019020081e-01" nType="-99"/>
        </Node>
      </Node>
    </BinaryTree>
    <BinaryTree type="DecisionTree" boostWeight="1.0000000000000000e+00" itree="430">
      <Node pos="s" depth="0" NCoef="0" IVar="4" Cut="6.3949011230468750e+02" cType="1" res="-8.1497086212038994e-03" rms="4.7518858313560486e-01" purity="5.0124341249465942e-01" nType="0">
        <Node pos="l" depth="1" NCoef="0" IVar="2" Cut="8.0139794921875000e+02" cType="1" res="-5.4197922348976135e-02" rms="4.6307519078254700e-01" purity="4.4653335213661194e-01" nType="0">
          <Node pos="l" depth="2" NCoef="0" IVar="-1" Cut="0.0000000000000000e+00" cType="1" res="2.3667408095207065e-04" rms="4.6811738610267639e-01" purity="5.4637050628662109e-01" nType="-99"/>
          <Node pos="r" depth="2" NCoef="0" IVar="-1" Cut="0.0000000000000000e+00" cType="1" res="-1.9199775997549295e-03" rms="4.2935290932655334e-01" purity="2.7527928352355957e-01" nType="-99"/>
        </Node>
        <Node pos="r" depth="1" NCoef="0" IVar="2" Cut="1.2575606689453125e+03" cType="1" res="1.9830346107482910e-02" rms="4.8024877905845642e-01" purity="5.3448665142059326e-01" nType="0">
          <Node pos="l" depth="2" NCoef="0" IVar="-1" Cut="0.0000000000000000e+00" cType="1" res="1.0504710953682661e-03" rms="4.7690650820732117e-01" purity="5.9706580638885498e-01" nType="-99"/>
          <Node pos="r" depth="2" NCoef="0" IVar="-1" Cut="0.0000000000000000e+00" cType="1" res="-3.5370115074329078e-04" rms="4.8013135790824890e-01" purity="4.6349203586578369e-01" nType="-99"/>
        </Node>
      </Node>
    </BinaryTree>
    <BinaryTree type="DecisionTree" boostWeight="1.0000000000000000e+00" itree="431">
      <Node pos="s" depth="0" NCoef="0" IVar="2" Cut="6.8409606933593750e+02" cType="1" res="-6.6740959882736206e-03" rms="4.7725936770439148e-01" purity="5.0424528121948242e-01" nType="0">
        <Node pos="l" depth="1" NCoef="0" IVar="3" Cut="9.0253835916519165e-01" cType="1" res="7.9303108155727386e-02" rms="4.7796368598937988e-01" purity="6.4210414886474609e-01" nType="0">
          <Node pos="l" depth="2" NCoef="0" IVar="-1" Cut="0.0000000000000000e+00" cType="1" res="2.5925883091986179e-03" rms="4.7195649147033691e-01" purity="6.3497513532638550e-01" nType="-99"/>
          <Node pos="r" depth="2" NCoef="0" IVar="-1" Cut="0.0000000000000000e+00" cType="1" res="3.4581535146571696e-04" rms="4.7603210806846619e-01" purity="6.4956635236740112e-01" nType="-99"/>
        </Node>
        <Node pos="r" depth="1" NCoef="0" IVar="4" Cut="6.6179705810546875e+02" cType="1" res="-1.8914790824055672e-02" rms="4.7589752078056335e-01" purity="4.8461818695068359e-01" nType="0">
          <Node pos="l" depth="2" NCoef="0" IVar="-1" Cut="0.0000000000000000e+00" cType="1" res="-1.2839736882597208e-03" rms="4.5492810010910034e-01" purity="3.6947318911552429e-01" nType="-99"/>
          <Node pos="r" depth="2" NCoef="0" IVar="-1" Cut="0.0000000000000000e+00" cType="1" res="3.4532509744167328e-04" rms="4.8058706521987915e-01" purity="5.4094457626342773e-01" nType="-99"/>
        </Node>
      </Node>
    </BinaryTree>
    <BinaryTree type="DecisionTree" boostWeight="1.0000000000000000e+00" itree="432">
      <Node pos="s" depth="0" NCoef="0" IVar="4" Cut="8.2202392578125000e+02" cType="1" res="3.7338964175432920e-03" rms="4.7525724768638611e-01" purity="5.1532691717147827e-01" nType="0">
        <Node pos="l" depth="1" NCoef="0" IVar="0" Cut="1.6737004089355469e+02" cType="1" res="-2.1933466196060181e-02" rms="4.7322639822959900e-01" purity="4.9005123972892761e-01" nType="0">
          <Node pos="l" depth="2" NCoef="0" IVar="-1" Cut="0.0000000000000000e+00" cType="1" res="2.3897839128039777e-04" rms="4.7177514433860779e-01" purity="5.4457497596740723e-01" nType="-99"/>
          <Node pos="r" depth="2" NCoef="0" IVar="-1" Cut="0.0000000000000000e+00" cType="1" res="-1.1108790058642626e-03" rms="4.6932533383369446e-01" purity="3.9947500824928284e-01" nType="-99"/>
        </Node>
        <Node pos="r" depth="1" NCoef="0" IVar="2" Cut="1.5353577880859375e+03" cType="1" res="5.0542935729026794e-02" rms="4.7538375854492188e-01" purity="5.6142163276672363e-01" nType="0">
          <Node pos="l" depth="2" NCoef="0" IVar="-1" Cut="0.0000000000000000e+00" cType="1" res="1.9857937004417181e-03" rms="4.5993041992187500e-01" purity="6.3805365562438965e-01" nType="-99"/>
          <Node pos="r" depth="2" NCoef="0" IVar="-1" Cut="0.0000000000000000e+00" cType="1" res="-3.1238424708135426e-04" rms="4.8549273610115051e-01" purity="4.6025684475898743e-01" nType="-99"/>
        </Node>
      </Node>
    </BinaryTree>
    <BinaryTree type="DecisionTree" boostWeight="1.0000000000000000e+00" itree="433">
      <Node pos="s" depth="0" NCoef="0" IVar="4" Cut="1.1318413085937500e+03" cType="1" res="-2.0581558346748352e-02" rms="4.7694915533065796e-01" purity="4.9185669422149658e-01" nType="0">
        <Node pos="l" depth="1" NCoef="0" IVar="2" Cut="8.7503955078125000e+02" cType="1" res="-3.3935733139514923e-02" rms="4.7663989663124084e-01" purity="4.8304125666618347e-01" nType="0">
          <Node pos="l" depth="2" NCoef="0" IVar="-1" Cut="0.0000000000000000e+00" cType="1" res="5.5025197798386216e-04" rms="4.7086295485496521e-01" purity="5.6491529941558838e-01" nType="-99"/>
          <Node pos="r" depth="2" NCoef="0" IVar="-1" Cut="0.0000000000000000e+00" cType="1" res="-9.9679920822381973e-04" rms="4.7554743289947510e-01" purity="4.3340119719505310e-01" nType="-99"/>
        </Node>
        <Node pos="r" depth="1" NCoef="0" IVar="2" Cut="1.9081315917968750e+03" cType="1" res="7.6959155499935150e-02" rms="4.6777975559234619e-01" purity="5.5624604225158691e-01" nType="0">
          <Node pos="l" depth="2" NCoef="0" IVar="-1" Cut="0.0000000000000000e+00" cType="1" res="2.9652137309312820e-03" rms="4.4941452145576477e-01" purity="6.4772313833236694e-01" nType="-99"/>
          <Node pos="r" depth="2" NCoef="0" IVar="-1" Cut="0.0000000000000000e+00" cType="1" res="4.2160177144978661e-06" rms="4.7245272994041443e-01" purity="4.6753588318824768e-01" nType="-99"/>
        </Node>
      </Node>
    </BinaryTree>
    <BinaryTree type="DecisionTree" boostWeight="1.0000000000000000e+00" itree="434">
      <Node pos="s" depth="0" NCoef="0" IVar="1" Cut="1.4190861511230469e+02" cType="1" res="4.5645353384315968e-03" rms="4.7231128811836243e-01" purity="5.1200866699218750e-01" nType="0">
        <Node pos="l" depth="1" NCoef="0" IVar="4" Cut="4.9637332153320312e+02" cType="1" res="1.7304604873061180e-02" rms="4.7404956817626953e-01" purity="5.4076910018920898e-01" nType="0">
          <Node pos="l" depth="2" NCoef="0" IVar="-1" Cut="0.0000000000000000e+00" cType="1" res="-1.1162683367729187e-03" rms="4.6791464090347290e-01" purity="4.2622998356819153e-01" nType="-99"/>
          <Node pos="r" depth="2" NCoef="0" IVar="-1" Cut="0.0000000000000000e+00" cType="1" res="4.8874539788812399e-04" rms="4.7332373261451721e-01" purity="5.5622726678848267e-01" nType="-99"/>
        </Node>
        <Node pos="r" depth="1" NCoef="0" IVar="-1" Cut="0.0000000000000000e+00" cType="1" res="-1.0003995848819613e-03" rms="4.4940394163131714e-01" purity="3.0711129307746887e-01" nType="-99"/>
      </Node>
    </BinaryTree>
    <BinaryTree type="DecisionTree" boostWeight="1.0000000000000000e+00" itree="435">
      <Node pos="s" depth="0" NCoef="0" IVar="0" Cut="4.5534732055664062e+02" cType="1" res="-7.6935254037380219e-03" rms="4.7683721780776978e-01" purity="5.0495374202728271e-01" nType="0">
        <Node pos="l" depth="1" NCoef="0" IVar="0" Cut="8.7850250244140625e+01" cType="1" res="2.0311528351157904e-03" rms="4.7765988111495972e-01" purity="5.2148413658142090e-01" nType="0">
          <Node pos="l" depth="2" NCoef="0" IVar="-1" Cut="0.0000000000000000e+00" cType="1" res="-7.4122502701357007e-04" rms="4.8273169994354248e-01" purity="4.3520212173461914e-01" nType="-99"/>
          <Node pos="r" depth="2" NCoef="0" IVar="-1" Cut="0.0000000000000000e+00" cType="1" res="2.3286156647372991e-04" rms="4.7560739517211914e-01" purity="5.4050439596176147e-01" nType="-99"/>
        </Node>
        <Node pos="r" depth="1" NCoef="0" IVar="-1" Cut="0.0000000000000000e+00" cType="1" res="-1.5265034744516015e-03" rms="4.4875702261924744e-01" purity="2.9722043871879578e-01" nType="-99"/>
      </Node>
    </BinaryTree>
    <BinaryTree type="DecisionTree" boostWeight="1.0000000000000000e+00" itree="436">
      <Node pos="s" depth="0" NCoef="0" IVar="4" Cut="5.8919195556640625e+02" cType="1" res="-3.0164634808897972e-03" rms="4.7386071085929871e-01" purity="5.0797373056411743e-01" nType="0">
        <Node pos="l" depth="1" NCoef="0" IVar="2" Cut="6.5789459228515625e+02" cType="1" res="-5.6522786617279053e-02" rms="4.6137294173240662e-01" purity="4.4526115059852600e-01" nType="0">
          <Node pos="l" depth="2" NCoef="0" IVar="-1" Cut="0.0000000000000000e+00" cType="1" res="1.3708777260035276e-03" rms="4.6414837241172791e-01" purity="6.3261812925338745e-01" nType="-99"/>
          <Node pos="r" depth="2" NCoef="0" IVar="-1" Cut="0.0000000000000000e+00" cType="1" res="-1.5205562813207507e-03" rms="4.4484314322471619e-01" purity="3.4555983543395996e-01" nType="-99"/>
        </Node>
        <Node pos="r" depth="1" NCoef="0" IVar="2" Cut="1.1460590820312500e+03" cType="1" res="1.7972540110349655e-02" rms="4.7703430056571960e-01" purity="5.3257411718368530e-01" nType="0">
          <Node pos="l" depth="2" NCoef="0" IVar="-1" Cut="0.0000000000000000e+00" cType="1" res="1.2602253118529916e-03" rms="4.7080934047698975e-01" purity="6.0647624731063843e-01" nType="-99"/>
          <Node pos="r" depth="2" NCoef="0" IVar="-1" Cut="0.0000000000000000e+00" cType="1" res="-4.5116178807802498e-04" rms="4.7750714421272278e-01" purity="4.6322351694107056e-01" nType="-99"/>
        </Node>
      </Node>
    </BinaryTree>
    <BinaryTree type="DecisionTree" boostWeight="1.0000000000000000e+00" itree="437">
      <Node pos="s" depth="0" NCoef="0" IVar="4" Cut="6.8293841552734375e+02" cType="1" res="-1.5623977407813072e-02" rms="4.7512051463127136e-01" purity="4.9330690503120422e-01" nType="0">
        <Node pos="l" depth="1" NCoef="0" IVar="2" Cut="7.3141015625000000e+02" cType="1" res="-5.3850740194320679e-02" rms="4.7029832005500793e-01" purity="4.4669109582901001e-01" nType="0">
          <Node pos="l" depth="2" NCoef="0" IVar="-1" Cut="0.0000000000000000e+00" cType="1" res="1.8123592599295080e-04" rms="4.8017114400863647e-01" purity="5.6583696603775024e-01" nType="-99"/>
          <Node pos="r" depth="2" NCoef="0" IVar="-1" Cut="0.0000000000000000e+00" cType="1" res="-1.1873730691149831e-03" rms="4.5928755402565002e-01" purity="3.7148416042327881e-01" nType="-99"/>
        </Node>
        <Node pos="r" depth="1" NCoef="0" IVar="2" Cut="1.1398256835937500e+03" cType="1" res="1.5916088595986366e-02" rms="4.7676050662994385e-01" purity="5.3176856040954590e-01" nType="0">
          <Node pos="l" depth="2" NCoef="0" IVar="-1" Cut="0.0000000000000000e+00" cType="1" res="1.5946292551234365e-03" rms="4.6974769234657288e-01" purity="6.3684052228927612e-01" nType="-99"/>
          <Node pos="r" depth="2" NCoef="0" IVar="-1" Cut="0.0000000000000000e+00" cType="1" res="-3.0040447018109262e-04" rms="4.7651341557502747e-01" purity="4.7496166825294495e-01" nType="-99"/>
        </Node>
      </Node>
    </BinaryTree>
    <BinaryTree type="DecisionTree" boostWeight="1.0000000000000000e+00" itree="438">
      <Node pos="s" depth="0" NCoef="0" IVar="3" Cut="8.9924210309982300e-01" cType="1" res="-1.8287707120180130e-02" rms="4.7388440370559692e-01" purity="4.9126181006431580e-01" nType="0">
        <Node pos="l" depth="1" NCoef="0" IVar="4" Cut="6.7558160400390625e+02" cType="1" res="-4.6636596322059631e-02" rms="4.7244969010353088e-01" purity="4.0440690517425537e-01" nType="0">
          <Node pos="l" depth="2" NCoef="0" IVar="-1" Cut="0.0000000000000000e+00" cType="1" res="-1.0880130575969815e-03" rms="4.5534563064575195e-01" purity="3.4827277064323425e-01" nType="-99"/>
          <Node pos="r" depth="2" NCoef="0" IVar="-1" Cut="0.0000000000000000e+00" cType="1" res="-1.3577421486843377e-04" rms="4.8342216014862061e-01" purity="4.5185813307762146e-01" nType="-99"/>
        </Node>
        <Node pos="r" depth="1" NCoef="0" IVar="2" Cut="8.5621423339843750e+02" cType="1" res="1.6423011198639870e-02" rms="4.7332867980003357e-01" purity="5.9760791063308716e-01" nType="0">
          <Node pos="l" depth="2" NCoef="0" IVar="-1" Cut="0.0000000000000000e+00" cType="1" res="1.7888227012008429e-03" rms="4.4829043745994568e-01" purity="6.8717122077941895e-01" nType="-99"/>
          <Node pos="r" depth="2" NCoef="0" IVar="-1" Cut="0.0000000000000000e+00" cType="1" res="-2.0215593394823372e-04" rms="4.8113790154457092e-01" purity="5.5847704410552979e-01" nType="-99"/>
        </Node>
      </Node>
    </BinaryTree>
    <BinaryTree type="DecisionTree" boostWeight="1.0000000000000000e+00" itree="439">
      <Node pos="s" depth="0" NCoef="0" IVar="4" Cut="5.3330407714843750e+02" cType="1" res="-1.8043814226984978e-02" rms="4.7526413202285767e-01" purity="4.9050965905189514e-01" nType="0">
        <Node pos="l" depth="1" NCoef="0" IVar="2" Cut="6.6800592041015625e+02" cType="1" res="-8.8093400001525879e-02" rms="4.6894508600234985e-01" purity="4.1416212916374207e-01" nType="0">
          <Node pos="l" depth="2" NCoef="0" IVar="-1" Cut="0.0000000000000000e+00" cType="1" res="-1.2790691107511520e-04" rms="4.9601557850837708e-01" purity="5.4526734352111816e-01" nType="-99"/>
          <Node pos="r" depth="2" NCoef="0" IVar="-1" Cut="0.0000000000000000e+00" cType="1" res="-1.9720697309821844e-03" rms="4.1937762498855591e-01" purity="2.6860755681991577e-01" nType="-99"/>
        </Node>
        <Node pos="r" depth="1" NCoef="0" IVar="2" Cut="8.6420062255859375e+02" cType="1" res="-2.6985011063516140e-03" rms="4.7526058554649353e-01" purity="5.0723457336425781e-01" nType="0">
          <Node pos="l" depth="2" NCoef="0" IVar="-1" Cut="0.0000000000000000e+00" cType="1" res="1.0901269270107150e-03" rms="4.6174940466880798e-01" purity="5.9487968683242798e-01" nType="-99"/>
          <Node pos="r" depth="2" NCoef="0" IVar="-1" Cut="0.0000000000000000e+00" cType="1" res="-3.1949035474099219e-04" rms="4.7734966874122620e-01" purity="4.8220518231391907e-01" nType="-99"/>
        </Node>
      </Node>
    </BinaryTree>
    <BinaryTree type="DecisionTree" boostWeight="1.0000000000000000e+00" itree="440">
      <Node pos="s" depth="0" NCoef="0" IVar="3" Cut="8.6439841985702515e-01" cType="1" res="-1.5541726723313332e-02" rms="4.7393399477005005e-01" purity="4.9525469541549683e-01" nType="0">
        <Node pos="l" depth="1" NCoef="0" IVar="5" Cut="3.9882415533065796e-01" cType="1" res="-7.7612690627574921e-02" rms="4.6745741367340088e-01" purity="3.5811847448348999e-01" nType="0">
          <Node pos="l" depth="2" NCoef="0" IVar="-1" Cut="0.0000000000000000e+00" cType="1" res="-1.4974386431276798e-03" rms="4.5155888795852661e-01" purity="3.0700445175170898e-01" nType="-99"/>
          <Node pos="r" depth="2" NCoef="0" IVar="-1" Cut="0.0000000000000000e+00" cType="1" res="-2.8005914646200836e-04" rms="4.7824648022651672e-01" purity="4.1372933983802795e-01" nType="-99"/>
        </Node>
        <Node pos="r" depth="1" NCoef="0" IVar="1" Cut="1.0352208709716797e+02" cType="1" res="5.2932917606085539e-04" rms="4.7427442669868469e-01" purity="5.3076118230819702e-01" nType="0">
          <Node pos="l" depth="2" NCoef="0" IVar="-1" Cut="0.0000000000000000e+00" cType="1" res="-1.1346441460773349e-03" rms="4.6541601419448853e-01" purity="3.4879243373870850e-01" nType="-99"/>
          <Node pos="r" depth="2" NCoef="0" IVar="-1" Cut="0.0000000000000000e+00" cType="1" res="1.7300086619798094e-04" rms="4.7413805127143860e-01" purity="5.5054676532745361e-01" nType="-99"/>
        </Node>
      </Node>
    </BinaryTree>
    <BinaryTree type="DecisionTree" boostWeight="1.0000000000000000e+00" itree="441">
      <Node pos="s" depth="0" NCoef="0" IVar="0" Cut="6.9389511108398438e+01" cType="1" res="6.6718496382236481e-03" rms="4.7545868158340454e-01" purity="5.1920980215072632e-01" nType="0">
        <Node pos="l" depth="1" NCoef="0" IVar="-1" Cut="0.0000000000000000e+00" cType="1" res="-1.2662985827773809e-03" rms="4.6040970087051392e-01" purity="3.5089531540870667e-01" nType="-99"/>
        <Node pos="r" depth="1" NCoef="0" IVar="0" Cut="2.3806695556640625e+02" cType="1" res="1.9218429923057556e-02" rms="4.7562155127525330e-01" purity="5.3896814584732056e-01" nType="0">
          <Node pos="l" depth="2" NCoef="0" IVar="-1" Cut="0.0000000000000000e+00" cType="1" res="7.5287191430106759e-04" rms="4.7336214780807495e-01" purity="5.9223002195358276e-01" nType="-99"/>
          <Node pos="r" depth="2" NCoef="0" IVar="-1" Cut="0.0000000000000000e+00" cType="1" res="-4.9299380043521523e-04" rms="4.7602424025535583e-01" purity="4.2053052783012390e-01" nType="-99"/>
        </Node>
      </Node>
    </BinaryTree>
    <BinaryTree type="DecisionTree" boostWeight="1.0000000000000000e+00" itree="442">
      <Node pos="s" depth="0" NCoef="0" IVar="1" Cut="9.9469924926757812e+01" cType="1" res="-1.4387715607881546e-02" rms="4.7693982720375061e-01" purity="4.9998235702514648e-01" nType="0">
        <Node pos="l" depth="1" NCoef="0" IVar="-1" Cut="0.0000000000000000e+00" cType="1" res="-1.4438084326684475e-03" rms="4.3908265233039856e-01" purity="2.8327777981758118e-01" nType="-99"/>
        <Node pos="r" depth="1" NCoef="0" IVar="0" Cut="1.6297673034667969e+02" cType="1" res="-5.6770085357129574e-03" rms="4.7888317704200745e-01" purity="5.1782333850860596e-01" nType="0">
          <Node pos="l" depth="2" NCoef="0" IVar="-1" Cut="0.0000000000000000e+00" cType="1" res="3.0397289083339274e-04" rms="4.7566002607345581e-01" purity="5.7000237703323364e-01" nType="-99"/>
          <Node pos="r" depth="2" NCoef="0" IVar="-1" Cut="0.0000000000000000e+00" cType="1" res="-4.9768463941290975e-04" rms="4.8117282986640930e-01" purity="4.5244082808494568e-01" nType="-99"/>
        </Node>
      </Node>
    </BinaryTree>
    <BinaryTree type="DecisionTree" boostWeight="1.0000000000000000e+00" itree="443">
      <Node pos="s" depth="0" NCoef="0" IVar="5" Cut="8.2612884044647217e-01" cType="1" res="-1.6801062971353531e-02" rms="4.7742167115211487e-01" purity="4.9406114220619202e-01" nType="0">
        <Node pos="l" depth="1" NCoef="0" IVar="0" Cut="9.0638061523437500e+01" cType="1" res="-2.5689741596579552e-02" rms="4.7711983323097229e-01" purity="4.8029759526252747e-01" nType="0">
          <Node pos="l" depth="2" NCoef="0" IVar="-1" Cut="0.0000000000000000e+00" cType="1" res="-1.0060507338494062e-03" rms="4.7757199406623840e-01" purity="4.0670472383499146e-01" nType="-99"/>
          <Node pos="r" depth="2" NCoef="0" IVar="-1" Cut="0.0000000000000000e+00" cType="1" res="-1.9383089966140687e-04" rms="4.7615912556648254e-01" purity="4.9851825833320618e-01" nType="-99"/>
        </Node>
        <Node pos="r" depth="1" NCoef="0" IVar="-1" Cut="0.0000000000000000e+00" cType="1" res="1.2534819543361664e-03" rms="4.7223386168479919e-01" purity="6.2247443199157715e-01" nType="-99"/>
      </Node>
    </BinaryTree>
    <BinaryTree type="DecisionTree" boostWeight="1.0000000000000000e+00" itree="444">
      <Node pos="s" depth="0" NCoef="0" IVar="4" Cut="5.5401696777343750e+02" cType="1" res="-8.7320115417242050e-03" rms="4.7724130749702454e-01" purity="5.0358843803405762e-01" nType="0">
        <Node pos="l" depth="1" NCoef="0" IVar="2" Cut="7.0468426513671875e+02" cType="1" res="-9.5843784511089325e-02" rms="4.6803274750709534e-01" purity="4.1150215268135071e-01" nType="0">
          <Node pos="l" depth="2" NCoef="0" IVar="-1" Cut="0.0000000000000000e+00" cType="1" res="-3.8711220258846879e-04" rms="4.9267581105232239e-01" purity="5.3732389211654663e-01" nType="-99"/>
          <Node pos="r" depth="2" NCoef="0" IVar="-1" Cut="0.0000000000000000e+00" cType="1" res="-2.0517157390713692e-03" rms="4.1641974449157715e-01" purity="2.5019863247871399e-01" nType="-99"/>
        </Node>
        <Node pos="r" depth="1" NCoef="0" IVar="2" Cut="8.0603546142578125e+02" cType="1" res="1.6908064484596252e-02" rms="4.7689661383628845e-01" purity="5.3069263696670532e-01" nType="0">
          <Node pos="l" depth="2" NCoef="0" IVar="-1" Cut="0.0000000000000000e+00" cType="1" res="1.7152127111330628e-03" rms="4.6266165375709534e-01" purity="6.4495456218719482e-01" nType="-99"/>
          <Node pos="r" depth="2" NCoef="0" IVar="-1" Cut="0.0000000000000000e+00" cType="1" res="7.8547403973061591e-05" rms="4.7806683182716370e-01" purity="5.1248192787170410e-01" nType="-99"/>
        </Node>
      </Node>
    </BinaryTree>
    <BinaryTree type="DecisionTree" boostWeight="1.0000000000000000e+00" itree="445">
      <Node pos="s" depth="0" NCoef="0" IVar="3" Cut="8.7065976858139038e-01" cType="1" res="-1.3861370272934437e-02" rms="4.7497642040252686e-01" purity="4.9739789962768555e-01" nType="0">
        <Node pos="l" depth="1" NCoef="0" IVar="5" Cut="4.0825325250625610e-01" cType="1" res="-6.3241608440876007e-02" rms="4.7117930650711060e-01" purity="3.7522500753402710e-01" nType="0">
          <Node pos="l" depth="2" NCoef="0" IVar="-1" Cut="0.0000000000000000e+00" cType="1" res="-1.3962137745693326e-03" rms="4.5754000544548035e-01" purity="3.2255065441131592e-01" nType="-99"/>
          <Node pos="r" depth="2" NCoef="0" IVar="-1" Cut="0.0000000000000000e+00" cType="1" res="-9.9639255495276302e-05" rms="4.7832074761390686e-01" purity="4.2873942852020264e-01" nType="-99"/>
        </Node>
        <Node pos="r" depth="1" NCoef="0" IVar="2" Cut="6.9223754882812500e+02" cType="1" res="5.9058740735054016e-03" rms="4.7505146265029907e-01" purity="5.4630458354949951e-01" nType="0">
          <Node pos="l" depth="2" NCoef="0" IVar="-1" Cut="0.0000000000000000e+00" cType="1" res="2.2106277756392956e-03" rms="4.4261381030082703e-01" purity="6.9146835803985596e-01" nType="-99"/>
          <Node pos="r" depth="2" NCoef="0" IVar="-1" Cut="0.0000000000000000e+00" cType="1" res="-1.5031623479444534e-04" rms="4.7823891043663025e-01" purity="5.2298879623413086e-01" nType="-99"/>
        </Node>
      </Node>
    </BinaryTree>
    <BinaryTree type="DecisionTree" boostWeight="1.0000000000000000e+00" itree="446">
      <Node pos="s" depth="0" NCoef="0" IVar="3" Cut="9.3071025609970093e-01" cType="1" res="-1.8541087629273534e-03" rms="4.7278022766113281e-01" purity="5.0626051425933838e-01" nType="0">
        <Node pos="l" depth="1" NCoef="0" IVar="2" Cut="6.8691271972656250e+02" cType="1" res="-2.4010615423321724e-02" rms="4.7866091132164001e-01" purity="4.5452567934989929e-01" nType="0">
          <Node pos="l" depth="2" NCoef="0" IVar="-1" Cut="0.0000000000000000e+00" cType="1" res="1.8564503407105803e-03" rms="4.7283878922462463e-01" purity="6.1923223733901978e-01" nType="-99"/>
          <Node pos="r" depth="2" NCoef="0" IVar="-1" Cut="0.0000000000000000e+00" cType="1" res="-5.2792817587032914e-04" rms="4.7710886597633362e-01" purity="4.3331038951873779e-01" nType="-99"/>
        </Node>
        <Node pos="r" depth="1" NCoef="0" IVar="3" Cut="9.4909852743148804e-01" cType="1" res="7.5681023299694061e-02" rms="4.4295802712440491e-01" purity="6.8730288743972778e-01" nType="0">
          <Node pos="l" depth="2" NCoef="0" IVar="-1" Cut="0.0000000000000000e+00" cType="1" res="2.8309584595263004e-03" rms="4.2420309782028198e-01" purity="7.1088492870330811e-01" nType="-99"/>
          <Node pos="r" depth="2" NCoef="0" IVar="-1" Cut="0.0000000000000000e+00" cType="1" res="1.0759416036307812e-03" rms="4.5108810067176819e-01" purity="6.7338657379150391e-01" nType="-99"/>
        </Node>
      </Node>
    </BinaryTree>
    <BinaryTree type="DecisionTree" boostWeight="1.0000000000000000e+00" itree="447">
      <Node pos="s" depth="0" NCoef="0" IVar="2" Cut="7.3074060058593750e+02" cType="1" res="-1.6603518277406693e-02" rms="4.7259870171546936e-01" purity="4.9332097172737122e-01" nType="0">
        <Node pos="l" depth="1" NCoef="0" IVar="3" Cut="9.3298858404159546e-01" cType="1" res="6.6439725458621979e-02" rms="4.6925747394561768e-01" purity="6.2614518404006958e-01" nType="0">
          <Node pos="l" depth="2" NCoef="0" IVar="-1" Cut="0.0000000000000000e+00" cType="1" res="2.0468225702643394e-03" rms="4.6021384000778198e-01" purity="6.3318014144897461e-01" nType="-99"/>
          <Node pos="r" depth="2" NCoef="0" IVar="-1" Cut="0.0000000000000000e+00" cType="1" res="-9.3086744891479611e-04" rms="4.7190555930137634e-01" purity="6.0929793119430542e-01" nType="-99"/>
        </Node>
        <Node pos="r" depth="1" NCoef="0" IVar="4" Cut="6.5530377197265625e+02" cType="1" res="-3.3713217824697495e-02" rms="4.7147038578987122e-01" purity="4.6595472097396851e-01" nType="0">
          <Node pos="l" depth="2" NCoef="0" IVar="-1" Cut="0.0000000000000000e+00" cType="1" res="-1.5351048205047846e-03" rms="4.5221844315528870e-01" purity="3.3458304405212402e-01" nType="-99"/>
          <Node pos="r" depth="2" NCoef="0" IVar="-1" Cut="0.0000000000000000e+00" cType="1" res="4.3410072976257652e-05" rms="4.7376543283462524e-01" purity="5.1718616485595703e-01" nType="-99"/>
        </Node>
      </Node>
    </BinaryTree>
    <BinaryTree type="DecisionTree" boostWeight="1.0000000000000000e+00" itree="448">
      <Node pos="s" depth="0" NCoef="0" IVar="5" Cut="8.4963721036911011e-01" cType="1" res="-3.3168520312756300e-03" rms="4.7500786185264587e-01" purity="5.0813752412796021e-01" nType="0">
        <Node pos="l" depth="1" NCoef="0" IVar="2" Cut="1.3734759521484375e+03" cType="1" res="-1.3120975345373154e-02" rms="4.7566196322441101e-01" purity="4.9386060237884521e-01" nType="0">
          <Node pos="l" depth="2" NCoef="0" IVar="-1" Cut="0.0000000000000000e+00" cType="1" res="1.0982198728015646e-04" rms="4.7546148300170898e-01" purity="5.2420353889465332e-01" nType="-99"/>
          <Node pos="r" depth="2" NCoef="0" IVar="-1" Cut="0.0000000000000000e+00" cType="1" res="-9.6589257009327412e-04" rms="4.7098684310913086e-01" purity="4.0104705095291138e-01" nType="-99"/>
        </Node>
        <Node pos="r" depth="1" NCoef="0" IVar="-1" Cut="0.0000000000000000e+00" cType="1" res="2.6972135528922081e-03" rms="4.4545143842697144e-01" purity="7.0085459947586060e-01" nType="-99"/>
      </Node>
    </BinaryTree>
    <BinaryTree type="DecisionTree" boostWeight="1.0000000000000000e+00" itree="449">
      <Node pos="s" depth="0" NCoef="0" IVar="1" Cut="1.0875257110595703e+02" cType="1" res="-9.1204661875963211e-03" rms="4.7283038496971130e-01" purity="5.0040036439895630e-01" nType="0">
        <Node pos="l" depth="1" NCoef="0" IVar="1" Cut="9.9977935791015625e+01" cType="1" res="-8.7537199258804321e-02" rms="4.5786514878273010e-01" purity="3.6588847637176514e-01" nType="0">
          <Node pos="l" depth="2" NCoef="0" IVar="-1" Cut="0.0000000000000000e+00" cType="1" res="-1.4906385913491249e-03" rms="4.4408550858497620e-01" purity="2.8245943784713745e-01" nType="-99"/>
          <Node pos="r" depth="2" NCoef="0" IVar="-1" Cut="0.0000000000000000e+00" cType="1" res="-6.0409773141145706e-04" rms="4.6730253100395203e-01" purity="4.4727542996406555e-01" nType="-99"/>
        </Node>
        <Node pos="r" depth="1" NCoef="0" IVar="1" Cut="1.3628874206542969e+02" cType="1" res="5.1651480607688427e-03" rms="4.7411140799522400e-01" purity="5.2490514516830444e-01" nType="0">
          <Node pos="l" depth="2" NCoef="0" IVar="-1" Cut="0.0000000000000000e+00" cType="1" res="4.0991060086525977e-04" rms="4.7550094127655029e-01" purity="5.7029432058334351e-01" nType="-99"/>
          <Node pos="r" depth="2" NCoef="0" IVar="-1" Cut="0.0000000000000000e+00" cType="1" res="-8.3102699136361480e-04" rms="4.6253585815429688e-01" purity="3.6214196681976318e-01" nType="-99"/>
        </Node>
      </Node>
    </BinaryTree>
    <BinaryTree type="DecisionTree" boostWeight="1.0000000000000000e+00" itree="450">
      <Node pos="s" depth="0" NCoef="0" IVar="2" Cut="8.1552978515625000e+02" cType="1" res="-1.6137490049004555e-02" rms="4.7234326601028442e-01" purity="4.9092411994934082e-01" nType="0">
        <Node pos="l" depth="1" NCoef="0" IVar="4" Cut="4.6928707885742188e+02" cType="1" res="3.3581662923097610e-02" rms="4.7060966491699219e-01" purity="5.7037484645843506e-01" nType="0">
          <Node pos="l" depth="2" NCoef="0" IVar="-1" Cut="0.0000000000000000e+00" cType="1" res="-1.0216583032160997e-03" rms="4.7411239147186279e-01" purity="4.4232887029647827e-01" nType="-99"/>
          <Node pos="r" depth="2" NCoef="0" IVar="-1" Cut="0.0000000000000000e+00" cType="1" res="1.1137364199385047e-03" rms="4.6495684981346130e-01" purity="6.0787117481231689e-01" nType="-99"/>
        </Node>
        <Node pos="r" depth="1" NCoef="0" IVar="4" Cut="6.8223223876953125e+02" cType="1" res="-3.5546440631151199e-02" rms="4.7159790992736816e-01" purity="4.5990881323814392e-01" nType="0">
          <Node pos="l" depth="2" NCoef="0" IVar="-1" Cut="0.0000000000000000e+00" cType="1" res="-1.5980479074642062e-03" rms="4.4460389018058777e-01" purity="3.1363835930824280e-01" nType="-99"/>
          <Node pos="r" depth="2" NCoef="0" IVar="-1" Cut="0.0000000000000000e+00" cType="1" res="-5.1739680202445015e-05" rms="4.7583565115928650e-01" purity="5.0820815563201904e-01" nType="-99"/>
        </Node>
      </Node>
    </BinaryTree>
    <BinaryTree type="DecisionTree" boostWeight="1.0000000000000000e+00" itree="451">
      <Node pos="s" depth="0" NCoef="0" IVar="5" Cut="8.3411592245101929e-01" cType="1" res="-5.1448014564812183e-03" rms="4.7178035974502563e-01" purity="5.0210803747177124e-01" nType="0">
        <Node pos="l" depth="1" NCoef="0" IVar="0" Cut="6.8411994934082031e+01" cType="1" res="-1.6567697748541832e-02" rms="4.7169706225395203e-01" purity="4.8577398061752319e-01" nType="0">
          <Node pos="l" depth="2" NCoef="0" IVar="-1" Cut="0.0000000000000000e+00" cType="1" res="-1.4313093852251768e-03" rms="4.4712173938751221e-01" purity="3.1636711955070496e-01" nType="-99"/>
          <Node pos="r" depth="2" NCoef="0" IVar="-1" Cut="0.0000000000000000e+00" cType="1" res="-6.0907168517587706e-05" rms="4.7287306189537048e-01" purity="5.0550931692123413e-01" nType="-99"/>
        </Node>
        <Node pos="r" depth="1" NCoef="0" IVar="-1" Cut="0.0000000000000000e+00" cType="1" res="2.6365499943494797e-03" rms="4.5222961902618408e-01" purity="6.9108158349990845e-01" nType="-99"/>
      </Node>
    </BinaryTree>
    <BinaryTree type="DecisionTree" boostWeight="1.0000000000000000e+00" itree="452">
      <Node pos="s" depth="0" NCoef="0" IVar="4" Cut="4.9637332153320312e+02" cType="1" res="-6.9307503290474415e-03" rms="4.7411701083183289e-01" purity="5.0107288360595703e-01" nType="0">
        <Node pos="l" depth="1" NCoef="0" IVar="-1" Cut="0.0000000000000000e+00" cType="1" res="-1.4710134128108621e-03" rms="4.6598166227340698e-01" purity="3.9125263690948486e-01" nType="-99"/>
        <Node pos="r" depth="1" NCoef="0" IVar="2" Cut="7.3911724853515625e+02" cType="1" res="7.0011834613978863e-03" rms="4.7347199916839600e-01" purity="5.1582783460617065e-01" nType="0">
          <Node pos="l" depth="2" NCoef="0" IVar="-1" Cut="0.0000000000000000e+00" cType="1" res="2.2141966037452221e-03" rms="4.4210126996040344e-01" purity="6.7325925827026367e-01" nType="-99"/>
          <Node pos="r" depth="2" NCoef="0" IVar="-1" Cut="0.0000000000000000e+00" cType="1" res="-1.0702781582949683e-04" rms="4.7578343749046326e-01" purity="4.9456769227981567e-01" nType="-99"/>
        </Node>
      </Node>
    </BinaryTree>
    <BinaryTree type="DecisionTree" boostWeight="1.0000000000000000e+00" itree="453">
      <Node pos="s" depth="0" NCoef="0" IVar="1" Cut="1.4190861511230469e+02" cType="1" res="5.1521226851036772e-05" rms="4.7510167956352234e-01" purity="5.1146495342254639e-01" nType="0">
        <Node pos="l" depth="1" NCoef="0" IVar="4" Cut="7.8322283935546875e+02" cType="1" res="1.2393646873533726e-02" rms="4.7763895988464355e-01" purity="5.3909462690353394e-01" nType="0">
          <Node pos="l" depth="2" NCoef="0" IVar="-1" Cut="0.0000000000000000e+00" cType="1" res="-2.2698109387420118e-04" rms="4.7704517841339111e-01" purity="5.0941938161849976e-01" nType="-99"/>
          <Node pos="r" depth="2" NCoef="0" IVar="-1" Cut="0.0000000000000000e+00" cType="1" res="9.8708132281899452e-04" rms="4.7518929839134216e-01" purity="5.8751708269119263e-01" nType="-99"/>
        </Node>
        <Node pos="r" depth="1" NCoef="0" IVar="-1" Cut="0.0000000000000000e+00" cType="1" res="-1.0863535571843386e-03" rms="4.4519081711769104e-01" purity="3.0603593587875366e-01" nType="-99"/>
      </Node>
    </BinaryTree>
    <BinaryTree type="DecisionTree" boostWeight="1.0000000000000000e+00" itree="454">
      <Node pos="s" depth="0" NCoef="0" IVar="5" Cut="8.0725443363189697e-01" cType="1" res="2.5399166624993086e-03" rms="4.7477120161056519e-01" purity="5.1544708013534546e-01" nType="0">
        <Node pos="l" depth="1" NCoef="0" IVar="3" Cut="9.6234625577926636e-01" cType="1" res="-8.3684306591749191e-03" rms="4.7558617591857910e-01" purity="5.0010061264038086e-01" nType="0">
          <Node pos="l" depth="2" NCoef="0" IVar="-1" Cut="0.0000000000000000e+00" cType="1" res="-2.4050725915003568e-04" rms="4.7803953289985657e-01" purity="4.8007509112358093e-01" nType="-99"/>
          <Node pos="r" depth="2" NCoef="0" IVar="-1" Cut="0.0000000000000000e+00" cType="1" res="2.1665091626346111e-03" rms="4.3680122494697571e-01" purity="7.2529840469360352e-01" nType="-99"/>
        </Node>
        <Node pos="r" depth="1" NCoef="0" IVar="4" Cut="7.7921893310546875e+02" cType="1" res="7.5185477733612061e-02" rms="4.6279564499855042e-01" purity="6.1764872074127197e-01" nType="0">
          <Node pos="l" depth="2" NCoef="0" IVar="-1" Cut="0.0000000000000000e+00" cType="1" res="6.1956117860972881e-04" rms="4.6405345201492310e-01" purity="5.7582581043243408e-01" nType="-99"/>
          <Node pos="r" depth="2" NCoef="0" IVar="-1" Cut="0.0000000000000000e+00" cType="1" res="2.4086034391075373e-03" rms="4.5686048269271851e-01" purity="6.6785556077957153e-01" nType="-99"/>
        </Node>
      </Node>
    </BinaryTree>
    <BinaryTree type="DecisionTree" boostWeight="1.0000000000000000e+00" itree="455">
      <Node pos="s" depth="0" NCoef="0" IVar="4" Cut="5.1117098999023438e+02" cType="1" res="-6.7972131073474884e-03" rms="4.7206777334213257e-01" purity="5.0147122144699097e-01" nType="0">
        <Node pos="l" depth="1" NCoef="0" IVar="2" Cut="6.1509332275390625e+02" cType="1" res="-8.6395323276519775e-02" rms="4.5854425430297852e-01" purity="4.0740150213241577e-01" nType="0">
          <Node pos="l" depth="2" NCoef="0" IVar="-1" Cut="0.0000000000000000e+00" cType="1" res="1.0251168860122561e-03" rms="4.7298547625541687e-01" purity="6.0650652647018433e-01" nType="-99"/>
          <Node pos="r" depth="2" NCoef="0" IVar="-1" Cut="0.0000000000000000e+00" cType="1" res="-1.9634207710623741e-03" rms="4.2248865962028503e-01" purity="2.7594527602195740e-01" nType="-99"/>
        </Node>
        <Node pos="r" depth="1" NCoef="0" IVar="2" Cut="8.5645117187500000e+02" cType="1" res="5.9932991862297058e-03" rms="4.7295725345611572e-01" purity="5.1658713817596436e-01" nType="0">
          <Node pos="l" depth="2" NCoef="0" IVar="-1" Cut="0.0000000000000000e+00" cType="1" res="1.6046968521550298e-03" rms="4.5834383368492126e-01" purity="6.3130265474319458e-01" nType="-99"/>
          <Node pos="r" depth="2" NCoef="0" IVar="-1" Cut="0.0000000000000000e+00" cType="1" res="-2.6283427723683417e-04" rms="4.7472387552261353e-01" purity="4.8202088475227356e-01" nType="-99"/>
        </Node>
      </Node>
    </BinaryTree>
    <BinaryTree type="DecisionTree" boostWeight="1.0000000000000000e+00" itree="456">
      <Node pos="s" depth="0" NCoef="0" IVar="0" Cut="6.4517669677734375e+01" cType="1" res="3.7934368010610342e-03" rms="4.7586661577224731e-01" purity="5.1728099584579468e-01" nType="0">
        <Node pos="l" depth="1" NCoef="0" IVar="-1" Cut="0.0000000000000000e+00" cType="1" res="-1.2820316478610039e-03" rms="4.5858207345008850e-01" purity="3.5116717219352722e-01" nType="-99"/>
        <Node pos="r" depth="1" NCoef="0" IVar="3" Cut="8.6438387632369995e-01" cType="1" res="1.2527151964604855e-02" rms="4.7621616721153259e-01" purity="5.3099250793457031e-01" nType="0">
          <Node pos="l" depth="2" NCoef="0" IVar="-1" Cut="0.0000000000000000e+00" cType="1" res="-4.8682827036827803e-04" rms="4.8340368270874023e-01" purity="4.0418228507041931e-01" nType="-99"/>
          <Node pos="r" depth="2" NCoef="0" IVar="-1" Cut="0.0000000000000000e+00" cType="1" res="4.2234460124745965e-04" rms="4.7359484434127808e-01" purity="5.6182861328125000e-01" nType="-99"/>
        </Node>
      </Node>
    </BinaryTree>
    <BinaryTree type="DecisionTree" boostWeight="1.0000000000000000e+00" itree="457">
      <Node pos="s" depth="0" NCoef="0" IVar="1" Cut="9.9764961242675781e+01" cType="1" res="-1.5895016491413116e-02" rms="4.7210481762886047e-01" purity="4.9084997177124023e-01" nType="0">
        <Node pos="l" depth="1" NCoef="0" IVar="-1" Cut="0.0000000000000000e+00" cType="1" res="-1.5510445227846503e-03" rms="4.3131962418556213e-01" purity="2.6529300212860107e-01" nType="-99"/>
        <Node pos="r" depth="1" NCoef="0" IVar="2" Cut="7.5466528320312500e+02" cType="1" res="-4.7469357959926128e-03" rms="4.7421848773956299e-01" purity="5.1197737455368042e-01" nType="0">
          <Node pos="l" depth="2" NCoef="0" IVar="-1" Cut="0.0000000000000000e+00" cType="1" res="1.1305070947855711e-03" rms="4.6323329210281372e-01" purity="6.1908489465713501e-01" nType="-99"/>
          <Node pos="r" depth="2" NCoef="0" IVar="-1" Cut="0.0000000000000000e+00" cType="1" res="-3.1048103119246662e-04" rms="4.7539585828781128e-01" purity="4.8616111278533936e-01" nType="-99"/>
        </Node>
      </Node>
    </BinaryTree>
    <BinaryTree type="DecisionTree" boostWeight="1.0000000000000000e+00" itree="458">
      <Node pos="s" depth="0" NCoef="0" IVar="2" Cut="1.4108916015625000e+03" cType="1" res="-2.3664698004722595e-02" rms="4.7659635543823242e-01" purity="4.8756286501884460e-01" nType="0">
        <Node pos="l" depth="1" NCoef="0" IVar="4" Cut="8.9179229736328125e+02" cType="1" res="-5.4211644455790520e-03" rms="4.7471377253532410e-01" purity="5.1475167274475098e-01" nType="0">
          <Node pos="l" depth="2" NCoef="0" IVar="-1" Cut="0.0000000000000000e+00" cType="1" res="-3.8549871533177793e-04" rms="4.7365689277648926e-01" purity="4.9012118577957153e-01" nType="-99"/>
          <Node pos="r" depth="2" NCoef="0" IVar="-1" Cut="0.0000000000000000e+00" cType="1" res="3.1574640888720751e-03" rms="4.5330750942230225e-01" purity="7.0053690671920776e-01" nType="-99"/>
        </Node>
        <Node pos="r" depth="1" NCoef="0" IVar="4" Cut="1.0506373291015625e+03" cType="1" res="-8.4243312478065491e-02" rms="4.7782421112060547e-01" purity="3.9728111028671265e-01" nType="0">
          <Node pos="l" depth="2" NCoef="0" IVar="-1" Cut="0.0000000000000000e+00" cType="1" res="-2.0440940279513597e-03" rms="4.4562301039695740e-01" purity="2.8879940509796143e-01" nType="-99"/>
          <Node pos="r" depth="2" NCoef="0" IVar="-1" Cut="0.0000000000000000e+00" cType="1" res="-2.9420899227261543e-04" rms="4.8588541150093079e-01" purity="4.6376144886016846e-01" nType="-99"/>
        </Node>
      </Node>
    </BinaryTree>
    <BinaryTree type="DecisionTree" boostWeight="1.0000000000000000e+00" itree="459">
      <Node pos="s" depth="0" NCoef="0" IVar="4" Cut="6.9706341552734375e+02" cType="1" res="-1.6393676633015275e-03" rms="4.7338557243347168e-01" purity="5.0940811634063721e-01" nType="0">
        <Node pos="l" depth="1" NCoef="0" IVar="2" Cut="8.8309814453125000e+02" cType="1" res="-4.6431120485067368e-02" rms="4.7192606329917908e-01" purity="4.5687100291252136e-01" nType="0">
          <Node pos="l" depth="2" NCoef="0" IVar="-1" Cut="0.0000000000000000e+00" cType="1" res="-1.0318345448467880e-04" rms="4.7735619544982910e-01" purity="5.2009701728820801e-01" nType="-99"/>
          <Node pos="r" depth="2" NCoef="0" IVar="-1" Cut="0.0000000000000000e+00" cType="1" res="-1.6425398644059896e-03" rms="4.4520488381385803e-01" purity="3.0871316790580750e-01" nType="-99"/>
        </Node>
        <Node pos="r" depth="1" NCoef="0" IVar="2" Cut="1.3597546386718750e+03" cType="1" res="3.8350023329257965e-02" rms="4.7110012173652649e-01" purity="5.5631238222122192e-01" nType="0">
          <Node pos="l" depth="2" NCoef="0" IVar="-1" Cut="0.0000000000000000e+00" cType="1" res="1.8022630829364061e-03" rms="4.5736387372016907e-01" purity="6.3401967287063599e-01" nType="-99"/>
          <Node pos="r" depth="2" NCoef="0" IVar="-1" Cut="0.0000000000000000e+00" cType="1" res="-4.5388416037894785e-04" rms="4.7835141420364380e-01" purity="4.5974832773208618e-01" nType="-99"/>
        </Node>
      </Node>
    </BinaryTree>
    <BinaryTree type="DecisionTree" boostWeight="1.0000000000000000e+00" itree="460">
      <Node pos="s" depth="0" NCoef="0" IVar="4" Cut="4.9132504272460938e+02" cType="1" res="-1.4092338271439075e-02" rms="4.7535124421119690e-01" purity="4.9684587121009827e-01" nType="0">
        <Node pos="l" depth="1" NCoef="0" IVar="-1" Cut="0.0000000000000000e+00" cType="1" res="-1.6096057370305061e-03" rms="4.6213769912719727e-01" purity="3.6920925974845886e-01" nType="-99"/>
        <Node pos="r" depth="1" NCoef="0" IVar="2" Cut="7.4922094726562500e+02" cType="1" res="-1.4326964446809143e-04" rms="4.7509357333183289e-01" purity="5.1258534193038940e-01" nType="0">
          <Node pos="l" depth="2" NCoef="0" IVar="-1" Cut="0.0000000000000000e+00" cType="1" res="2.0494011696428061e-03" rms="4.5694133639335632e-01" purity="6.6641074419021606e-01" nType="-99"/>
          <Node pos="r" depth="2" NCoef="0" IVar="-1" Cut="0.0000000000000000e+00" cType="1" res="-2.2296540555544198e-04" rms="4.7586849331855774e-01" purity="4.8998016119003296e-01" nType="-99"/>
        </Node>
      </Node>
    </BinaryTree>
    <BinaryTree type="DecisionTree" boostWeight="1.0000000000000000e+00" itree="461">
      <Node pos="s" depth="0" NCoef="0" IVar="4" Cut="1.2499213867187500e+03" cType="1" res="-1.8744647502899170e-02" rms="4.7262257337570190e-01" purity="4.8940539360046387e-01" nType="0">
        <Node pos="l" depth="1" NCoef="0" IVar="0" Cut="3.2216574096679688e+02" cType="1" res="-2.8129374608397484e-02" rms="4.7094601392745972e-01" purity="4.8088175058364868e-01" nType="0">
          <Node pos="l" depth="2" NCoef="0" IVar="-1" Cut="0.0000000000000000e+00" cType="1" res="-2.1905984613113105e-04" rms="4.7459262609481812e-01" purity="5.0834792852401733e-01" nType="-99"/>
          <Node pos="r" depth="2" NCoef="0" IVar="-1" Cut="0.0000000000000000e+00" cType="1" res="-1.3041509082540870e-03" rms="4.3885686993598938e-01" purity="3.1250947713851929e-01" nType="-99"/>
        </Node>
        <Node pos="r" depth="1" NCoef="0" IVar="-1" Cut="0.0000000000000000e+00" cType="1" res="1.8282582750543952e-03" rms="4.7734826803207397e-01" purity="6.0071080923080444e-01" nType="-99"/>
      </Node>
    </BinaryTree>
    <BinaryTree type="DecisionTree" boostWeight="1.0000000000000000e+00" itree="462">
      <Node pos="s" depth="0" NCoef="0" IVar="1" Cut="1.3932090759277344e+02" cType="1" res="-1.2990990653634071e-02" rms="4.7378444671630859e-01" purity="4.9508646130561829e-01" nType="0">
        <Node pos="l" depth="1" NCoef="0" IVar="4" Cut="5.1117098999023438e+02" cType="1" res="1.5852432698011398e-03" rms="4.7731214761734009e-01" purity="5.2817130088806152e-01" nType="0">
          <Node pos="l" depth="2" NCoef="0" IVar="-1" Cut="0.0000000000000000e+00" cType="1" res="-1.0460654739290476e-03" rms="4.6526685357093811e-01" purity="4.2731341719627380e-01" nType="-99"/>
          <Node pos="r" depth="2" NCoef="0" IVar="-1" Cut="0.0000000000000000e+00" cType="1" res="2.4785293499007821e-04" rms="4.7811284661293030e-01" purity="5.4624569416046143e-01" nType="-99"/>
        </Node>
        <Node pos="r" depth="1" NCoef="0" IVar="4" Cut="8.0107568359375000e+02" cType="1" res="-9.3045853078365326e-02" rms="4.4549834728240967e-01" purity="3.1337952613830566e-01" nType="0">
          <Node pos="l" depth="2" NCoef="0" IVar="-1" Cut="0.0000000000000000e+00" cType="1" res="-1.5154334250837564e-03" rms="4.2639109492301941e-01" purity="2.8109610080718994e-01" nType="-99"/>
          <Node pos="r" depth="2" NCoef="0" IVar="-1" Cut="0.0000000000000000e+00" cType="1" res="-6.9638621062040329e-04" rms="4.6505451202392578e-01" purity="3.5337641835212708e-01" nType="-99"/>
        </Node>
      </Node>
    </BinaryTree>
    <BinaryTree type="DecisionTree" boostWeight="1.0000000000000000e+00" itree="463">
      <Node pos="s" depth="0" NCoef="0" IVar="4" Cut="7.2327484130859375e+02" cType="1" res="-4.3816473335027695e-03" rms="4.7453719377517700e-01" purity="5.0323522090911865e-01" nType="0">
        <Node pos="l" depth="1" NCoef="0" IVar="2" Cut="1.0274722900390625e+03" cType="1" res="-3.2578174024820328e-02" rms="4.7195428609848022e-01" purity="4.7277611494064331e-01" nType="0">
          <Node pos="l" depth="2" NCoef="0" IVar="-1" Cut="0.0000000000000000e+00" cType="1" res="-1.3186178694013506e-04" rms="4.7522532939910889e-01" purity="5.0823664665222168e-01" nType="-99"/>
          <Node pos="r" depth="2" NCoef="0" IVar="-1" Cut="0.0000000000000000e+00" cType="1" res="-1.7268535448238254e-03" rms="4.3794184923171997e-01" purity="3.0161261558532715e-01" nType="-99"/>
        </Node>
        <Node pos="r" depth="1" NCoef="0" IVar="2" Cut="1.2747224121093750e+03" cType="1" res="2.4541554972529411e-02" rms="4.7543787956237793e-01" purity="5.3447932004928589e-01" nType="0">
          <Node pos="l" depth="2" NCoef="0" IVar="-1" Cut="0.0000000000000000e+00" cType="1" res="2.0158966071903706e-03" rms="4.6751636266708374e-01" purity="6.5330004692077637e-01" nType="-99"/>
          <Node pos="r" depth="2" NCoef="0" IVar="-1" Cut="0.0000000000000000e+00" cType="1" res="-4.4470146531239152e-04" rms="4.7299176454544067e-01" purity="4.4842612743377686e-01" nType="-99"/>
        </Node>
      </Node>
    </BinaryTree>
    <BinaryTree type="DecisionTree" boostWeight="1.0000000000000000e+00" itree="464">
      <Node pos="s" depth="0" NCoef="0" IVar="0" Cut="1.5897511291503906e+02" cType="1" res="-2.0629612728953362e-02" rms="4.7322830557823181e-01" purity="4.9087306857109070e-01" nType="0">
        <Node pos="l" depth="1" NCoef="0" IVar="4" Cut="7.0919982910156250e+02" cType="1" res="1.1873230338096619e-02" rms="4.7328385710716248e-01" purity="5.5301725864410400e-01" nType="0">
          <Node pos="l" depth="2" NCoef="0" IVar="-1" Cut="0.0000000000000000e+00" cType="1" res="-3.9293812005780637e-04" rms="4.7601449489593506e-01" purity="5.0100773572921753e-01" nType="-99"/>
          <Node pos="r" depth="2" NCoef="0" IVar="-1" Cut="0.0000000000000000e+00" cType="1" res="1.2238263152539730e-03" rms="4.6373146772384644e-01" purity="6.2879109382629395e-01" nType="-99"/>
        </Node>
        <Node pos="r" depth="1" NCoef="0" IVar="4" Cut="8.8423455810546875e+02" cType="1" res="-5.7105392217636108e-02" rms="4.7049966454505920e-01" purity="4.2113274335861206e-01" nType="0">
          <Node pos="l" depth="2" NCoef="0" IVar="-1" Cut="0.0000000000000000e+00" cType="1" res="-1.1882391991093755e-03" rms="4.6309077739715576e-01" purity="3.8904678821563721e-01" nType="-99"/>
          <Node pos="r" depth="2" NCoef="0" IVar="-1" Cut="0.0000000000000000e+00" cType="1" res="3.1969364499673247e-05" rms="4.7670385241508484e-01" purity="4.7453236579895020e-01" nType="-99"/>
        </Node>
      </Node>
    </BinaryTree>
    <BinaryTree type="DecisionTree" boostWeight="1.0000000000000000e+00" itree="465">
      <Node pos="s" depth="0" NCoef="0" IVar="3" Cut="8.7080627679824829e-01" cType="1" res="-1.0505661368370056e-02" rms="4.7454655170440674e-01" purity="4.9791729450225830e-01" nType="0">
        <Node pos="l" depth="1" NCoef="0" IVar="4" Cut="5.8460852050781250e+02" cType="1" res="-5.6019753217697144e-02" rms="4.6749126911163330e-01" purity="3.7372612953186035e-01" nType="0">
          <Node pos="l" depth="2" NCoef="0" IVar="-1" Cut="0.0000000000000000e+00" cType="1" res="-1.4595782849937677e-03" rms="4.4424143433570862e-01" purity="2.9579979181289673e-01" nType="-99"/>
          <Node pos="r" depth="2" NCoef="0" IVar="-1" Cut="0.0000000000000000e+00" cType="1" res="-3.2648278283886611e-04" rms="4.7351300716400146e-01" purity="4.0559953451156616e-01" nType="-99"/>
        </Node>
        <Node pos="r" depth="1" NCoef="0" IVar="0" Cut="9.3171310424804688e+01" cType="1" res="8.0524012446403503e-03" rms="4.7614639997482300e-01" purity="5.4855537414550781e-01" nType="0">
          <Node pos="l" depth="2" NCoef="0" IVar="-1" Cut="0.0000000000000000e+00" cType="1" res="-9.1289728879928589e-04" rms="4.7077199816703796e-01" purity="4.4422185420989990e-01" nType="-99"/>
          <Node pos="r" depth="2" NCoef="0" IVar="-1" Cut="0.0000000000000000e+00" cType="1" res="4.5939095434732735e-04" rms="4.7572538256645203e-01" purity="5.7529985904693604e-01" nType="-99"/>
        </Node>
      </Node>
    </BinaryTree>
    <BinaryTree type="DecisionTree" boostWeight="1.0000000000000000e+00" itree="466">
      <Node pos="s" depth="0" NCoef="0" IVar="2" Cut="1.3070635986328125e+03" cType="1" res="-1.4208784326910973e-02" rms="4.7469058632850647e-01" purity="4.9565878510475159e-01" nType="0">
        <Node pos="l" depth="1" NCoef="0" IVar="4" Cut="6.8717266845703125e+02" cType="1" res="1.0186810046434402e-02" rms="4.7226312756538391e-01" purity="5.2998656034469604e-01" nType="0">
          <Node pos="l" depth="2" NCoef="0" IVar="-1" Cut="0.0000000000000000e+00" cType="1" res="-4.5351000153459609e-04" rms="4.7001639008522034e-01" purity="4.7114774584770203e-01" nType="-99"/>
          <Node pos="r" depth="2" NCoef="0" IVar="-1" Cut="0.0000000000000000e+00" cType="1" res="1.5085886698216200e-03" rms="4.6767410635948181e-01" purity="6.2699663639068604e-01" nType="-99"/>
        </Node>
        <Node pos="r" depth="1" NCoef="0" IVar="4" Cut="9.3589166259765625e+02" cType="1" res="-7.4979372322559357e-02" rms="4.7527009248733521e-01" purity="4.1014671325683594e-01" nType="0">
          <Node pos="l" depth="2" NCoef="0" IVar="-1" Cut="0.0000000000000000e+00" cType="1" res="-2.1209898404777050e-03" rms="4.3878126144409180e-01" purity="2.8002864122390747e-01" nType="-99"/>
          <Node pos="r" depth="2" NCoef="0" IVar="-1" Cut="0.0000000000000000e+00" cType="1" res="-3.9264193037524819e-04" rms="4.8222672939300537e-01" purity="4.6524757146835327e-01" nType="-99"/>
        </Node>
      </Node>
    </BinaryTree>
    <BinaryTree type="DecisionTree" boostWeight="1.0000000000000000e+00" itree="467">
      <Node pos="s" depth="0" NCoef="0" IVar="1" Cut="1.4678958129882812e+02" cType="1" res="-1.4502804726362228e-02" rms="4.7392517328262329e-01" purity="4.9568647146224976e-01" nType="0">
        <Node pos="l" depth="1" NCoef="0" IVar="4" Cut="1.2748469238281250e+03" cType="1" res="-4.9166744574904442e-03" rms="4.7649163007736206e-01" purity="5.1731872558593750e-01" nType="0">
          <Node pos="l" depth="2" NCoef="0" IVar="-1" Cut="0.0000000000000000e+00" cType="1" res="-2.0666196360252798e-04" rms="4.7637656331062317e-01" purity="5.1022946834564209e-01" nType="-99"/>
          <Node pos="r" depth="2" NCoef="0" IVar="-1" Cut="0.0000000000000000e+00" cType="1" res="2.1552662365138531e-03" rms="4.6137455105781555e-01" purity="6.1717742681503296e-01" nType="-99"/>
        </Node>
        <Node pos="r" depth="1" NCoef="0" IVar="-1" Cut="0.0000000000000000e+00" cType="1" res="-1.3395221903920174e-03" rms="4.3280288577079773e-01" purity="2.6574808359146118e-01" nType="-99"/>
      </Node>
    </BinaryTree>
    <BinaryTree type="DecisionTree" boostWeight="1.0000000000000000e+00" itree="468">
      <Node pos="s" depth="0" NCoef="0" IVar="4" Cut="4.9637332153320312e+02" cType="1" res="-9.4967372715473175e-03" rms="4.7217136621475220e-01" purity="5.0022363662719727e-01" nType="0">
        <Node pos="l" depth="1" NCoef="0" IVar="-1" Cut="0.0000000000000000e+00" cType="1" res="-1.4931273180991411e-03" rms="4.5763453841209412e-01" purity="3.8063740730285645e-01" nType="-99"/>
        <Node pos="r" depth="1" NCoef="0" IVar="3" Cut="8.6442720890045166e-01" cType="1" res="4.0321392007172108e-03" rms="4.7226318717002869e-01" purity="5.1538401842117310e-01" nType="0">
          <Node pos="l" depth="2" NCoef="0" IVar="-1" Cut="0.0000000000000000e+00" cType="1" res="-8.5175299318507314e-04" rms="4.6844160556793213e-01" purity="3.6378940939903259e-01" nType="-99"/>
          <Node pos="r" depth="2" NCoef="0" IVar="-1" Cut="0.0000000000000000e+00" cType="1" res="3.9671600097790360e-04" rms="4.7124075889587402e-01" purity="5.5637115240097046e-01" nType="-99"/>
        </Node>
      </Node>
    </BinaryTree>
    <BinaryTree type="DecisionTree" boostWeight="1.0000000000000000e+00" itree="469">
      <Node pos="s" depth="0" NCoef="0" IVar="3" Cut="8.9629888534545898e-01" cType="1" res="-7.8518716618418694e-03" rms="4.7036775946617126e-01" purity="4.9939748644828796e-01" nType="0">
        <Node pos="l" depth="1" NCoef="0" IVar="2" Cut="6.7121514892578125e+02" cType="1" res="-4.6358447521924973e-02" rms="4.7034460306167603e-01" purity="4.0013593435287476e-01" nType="0">
          <Node pos="l" depth="2" NCoef="0" IVar="-1" Cut="0.0000000000000000e+00" cType="1" res="1.2270171428099275e-03" rms="4.8005807399749756e-01" purity="5.6191241741180420e-01" nType="-99"/>
          <Node pos="r" depth="2" NCoef="0" IVar="-1" Cut="0.0000000000000000e+00" cType="1" res="-7.3307420825585723e-04" rms="4.6735286712646484e-01" purity="3.8275375962257385e-01" nType="-99"/>
        </Node>
        <Node pos="r" depth="1" NCoef="0" IVar="0" Cut="8.1545265197753906e+01" cType="1" res="3.6019176244735718e-02" rms="4.6653684973716736e-01" purity="6.1248743534088135e-01" nType="0">
          <Node pos="l" depth="2" NCoef="0" IVar="-1" Cut="0.0000000000000000e+00" cType="1" res="-6.3446437707170844e-04" rms="4.7308793663978577e-01" purity="4.7928231954574585e-01" nType="-99"/>
          <Node pos="r" depth="2" NCoef="0" IVar="-1" Cut="0.0000000000000000e+00" cType="1" res="9.9671538919210434e-04" rms="4.6391490101814270e-01" purity="6.3675278425216675e-01" nType="-99"/>
        </Node>
      </Node>
    </BinaryTree>
    <BinaryTree type="DecisionTree" boostWeight="1.0000000000000000e+00" itree="470">
      <Node pos="s" depth="0" NCoef="0" IVar="4" Cut="5.9837628173828125e+02" cType="1" res="5.2974652498960495e-03" rms="4.7186237573623657e-01" purity="5.1391690969467163e-01" nType="0">
        <Node pos="l" depth="1" NCoef="0" IVar="2" Cut="7.4054412841796875e+02" cType="1" res="-4.3046392500400543e-02" rms="4.6389710903167725e-01" purity="4.5785948634147644e-01" nType="0">
          <Node pos="l" depth="2" NCoef="0" IVar="-1" Cut="0.0000000000000000e+00" cType="1" res="9.8665617406368256e-04" rms="4.6494305133819580e-01" purity="6.0608416795730591e-01" nType="-99"/>
          <Node pos="r" depth="2" NCoef="0" IVar="-1" Cut="0.0000000000000000e+00" cType="1" res="-1.8428929615765810e-03" rms="4.3413135409355164e-01" purity="2.7926424145698547e-01" nType="-99"/>
        </Node>
        <Node pos="r" depth="1" NCoef="0" IVar="2" Cut="1.2329395751953125e+03" cType="1" res="2.4859678000211716e-02" rms="4.7364732623100281e-01" purity="5.3660035133361816e-01" nType="0">
          <Node pos="l" depth="2" NCoef="0" IVar="-1" Cut="0.0000000000000000e+00" cType="1" res="1.1212733807042241e-03" rms="4.6795952320098877e-01" purity="5.9595918655395508e-01" nType="-99"/>
          <Node pos="r" depth="2" NCoef="0" IVar="-1" Cut="0.0000000000000000e+00" cType="1" res="-3.1041892361827195e-04" rms="4.7614985704421997e-01" purity="4.6522191166877747e-01" nType="-99"/>
        </Node>
      </Node>
    </BinaryTree>
    <BinaryTree type="DecisionTree" boostWeight="1.0000000000000000e+00" itree="471">
      <Node pos="s" depth="0" NCoef="0" IVar="4" Cut="1.2499213867187500e+03" cType="1" res="-1.3063468039035797e-02" rms="4.7150367498397827e-01" purity="4.9372628331184387e-01" nType="0">
        <Node pos="l" depth="1" NCoef="0" IVar="0" Cut="9.2107765197753906e+01" cType="1" res="-2.3021329194307327e-02" rms="4.7067391872406006e-01" purity="4.8581847548484802e-01" nType="0">
          <Node pos="l" depth="2" NCoef="0" IVar="-1" Cut="0.0000000000000000e+00" cType="1" res="-1.1904541170224547e-03" rms="4.6475514769554138e-01" purity="3.8836389780044556e-01" nType="-99"/>
          <Node pos="r" depth="2" NCoef="0" IVar="-1" Cut="0.0000000000000000e+00" cType="1" res="-7.3247567343059927e-05" rms="4.7055324912071228e-01" purity="5.1171445846557617e-01" nType="-99"/>
        </Node>
        <Node pos="r" depth="1" NCoef="0" IVar="-1" Cut="0.0000000000000000e+00" cType="1" res="2.0755110308527946e-03" rms="4.6350628137588501e-01" purity="5.9481292963027954e-01" nType="-99"/>
      </Node>
    </BinaryTree>
    <BinaryTree type="DecisionTree" boostWeight="1.0000000000000000e+00" itree="472">
      <Node pos="s" depth="0" NCoef="0" IVar="0" Cut="2.4593000793457031e+02" cType="1" res="-3.2439574133604765e-03" rms="4.7284594178199768e-01" purity="5.0852692127227783e-01" nType="0">
        <Node pos="l" depth="1" NCoef="0" IVar="0" Cut="8.0394981384277344e+01" cType="1" res="1.8865581601858139e-02" rms="4.7238293290138245e-01" purity="5.5166822671890259e-01" nType="0">
          <Node pos="l" depth="2" NCoef="0" IVar="-1" Cut="0.0000000000000000e+00" cType="1" res="-7.5079151429235935e-04" rms="4.7209531068801880e-01" purity="4.0869304537773132e-01" nType="-99"/>
          <Node pos="r" depth="2" NCoef="0" IVar="-1" Cut="0.0000000000000000e+00" cType="1" res="6.2415306456387043e-04" rms="4.7066384553909302e-01" purity="5.8470994234085083e-01" nType="-99"/>
        </Node>
        <Node pos="r" depth="1" NCoef="0" IVar="4" Cut="7.5015991210937500e+02" cType="1" res="-6.6098310053348541e-02" rms="4.6849450469017029e-01" purity="3.8588201999664307e-01" nType="0">
          <Node pos="l" depth="2" NCoef="0" IVar="-1" Cut="0.0000000000000000e+00" cType="1" res="-1.3575247721746564e-03" rms="4.4459751248359680e-01" purity="3.2534599304199219e-01" nType="-99"/>
          <Node pos="r" depth="2" NCoef="0" IVar="-1" Cut="0.0000000000000000e+00" cType="1" res="-6.3975795637816191e-04" rms="4.7684127092361450e-01" purity="4.1087597608566284e-01" nType="-99"/>
        </Node>
      </Node>
    </BinaryTree>
    <BinaryTree type="DecisionTree" boostWeight="1.0000000000000000e+00" itree="473">
      <Node pos="s" depth="0" NCoef="0" IVar="2" Cut="6.9852978515625000e+02" cType="1" res="-1.6079828143119812e-02" rms="4.7231721878051758e-01" purity="4.9154266715049744e-01" nType="0">
        <Node pos="l" depth="1" NCoef="0" IVar="5" Cut="3.8786587119102478e-01" cType="1" res="1.0271824896335602e-01" rms="4.5592468976974487e-01" purity="6.6133815050125122e-01" nType="0">
          <Node pos="l" depth="2" NCoef="0" IVar="-1" Cut="0.0000000000000000e+00" cType="1" res="8.4664078895002604e-04" rms="4.7287717461585999e-01" purity="6.0183346271514893e-01" nType="-99"/>
          <Node pos="r" depth="2" NCoef="0" IVar="-1" Cut="0.0000000000000000e+00" cType="1" res="4.0362207219004631e-03" rms="4.2109823226928711e-01" purity="7.3961156606674194e-01" nType="-99"/>
        </Node>
        <Node pos="r" depth="1" NCoef="0" IVar="4" Cut="5.9114715576171875e+02" cType="1" res="-3.3222477883100510e-02" rms="4.7217461466789246e-01" purity="4.6704104542732239e-01" nType="0">
          <Node pos="l" depth="2" NCoef="0" IVar="-1" Cut="0.0000000000000000e+00" cType="1" res="-1.3874731957912445e-03" rms="4.4252040982246399e-01" purity="3.3799460530281067e-01" nType="-99"/>
          <Node pos="r" depth="2" NCoef="0" IVar="-1" Cut="0.0000000000000000e+00" cType="1" res="-2.4625170044600964e-04" rms="4.7630947828292847e-01" purity="4.9334493279457092e-01" nType="-99"/>
        </Node>
      </Node>
    </BinaryTree>
    <BinaryTree type="DecisionTree" boostWeight="1.0000000000000000e+00" itree="474">
      <Node pos="s" depth="0" NCoef="0" IVar="1" Cut="1.4648118591308594e+02" cType="1" res="-2.6629343628883362e-02" rms="4.7299882769584656e-01" purity="4.8036625981330872e-01" nType="0">
        <Node pos="l" depth="1" NCoef="0" IVar="5" Cut="8.0814248323440552e-01" cType="1" res="-1.4586731791496277e-02" rms="4.7672599554061890e-01" purity="5.0504255294799805e-01" nType="0">
          <Node pos="l" depth="2" NCoef="0" IVar="-1" Cut="0.0000000000000000e+00" cType="1" res="-3.6779604852199554e-04" rms="4.7658556699752808e-01" purity="4.8984315991401672e-01" nType="-99"/>
          <Node pos="r" depth="2" NCoef="0" IVar="-1" Cut="0.0000000000000000e+00" cType="1" res="1.1422155657783151e-03" rms="4.7034376859664917e-01" purity="6.1837261915206909e-01" nType="-99"/>
        </Node>
        <Node pos="r" depth="1" NCoef="0" IVar="-1" Cut="0.0000000000000000e+00" cType="1" res="-1.7006270354613662e-03" rms="4.1393601894378662e-01" purity="2.2974112629890442e-01" nType="-99"/>
      </Node>
    </BinaryTree>
    <BinaryTree type="DecisionTree" boostWeight="1.0000000000000000e+00" itree="475">
      <Node pos="s" depth="0" NCoef="0" IVar="0" Cut="4.5559866333007812e+02" cType="1" res="-1.3612329959869385e-02" rms="4.7391265630722046e-01" purity="4.9675935506820679e-01" nType="0">
        <Node pos="l" depth="1" NCoef="0" IVar="1" Cut="1.3322288513183594e+02" cType="1" res="-3.3225391525775194e-03" rms="4.7519668936729431e-01" purity="5.1510334014892578e-01" nType="0">
          <Node pos="l" depth="2" NCoef="0" IVar="-1" Cut="0.0000000000000000e+00" cType="1" res="2.5383502361364663e-04" rms="4.7673267126083374e-01" purity="5.5375611782073975e-01" nType="-99"/>
          <Node pos="r" depth="2" NCoef="0" IVar="-1" Cut="0.0000000000000000e+00" cType="1" res="-8.6800224380567670e-04" rms="4.6505931019783020e-01" purity="3.9087861776351929e-01" nType="-99"/>
        </Node>
        <Node pos="r" depth="1" NCoef="0" IVar="-1" Cut="0.0000000000000000e+00" cType="1" res="-1.5379036776721478e-03" rms="4.4225972890853882e-01" purity="2.8695487976074219e-01" nType="-99"/>
      </Node>
    </BinaryTree>
    <BinaryTree type="DecisionTree" boostWeight="1.0000000000000000e+00" itree="476">
      <Node pos="s" depth="0" NCoef="0" IVar="0" Cut="1.9607154846191406e+02" cType="1" res="-2.1069234237074852e-02" rms="4.7044226527214050e-01" purity="4.8413124680519104e-01" nType="0">
        <Node pos="l" depth="1" NCoef="0" IVar="4" Cut="1.1102315673828125e+03" cType="1" res="2.4553469847887754e-03" rms="4.7058510780334473e-01" purity="5.3370821475982666e-01" nType="0">
          <Node pos="l" depth="2" NCoef="0" IVar="-1" Cut="0.0000000000000000e+00" cType="1" res="-1.9542369409464300e-04" rms="4.7127857804298401e-01" purity="5.1740968227386475e-01" nType="-99"/>
          <Node pos="r" depth="2" NCoef="0" IVar="-1" Cut="0.0000000000000000e+00" cType="1" res="4.2344392277300358e-03" rms="4.2135903239250183e-01" purity="7.2800648212432861e-01" nType="-99"/>
        </Node>
        <Node pos="r" depth="1" NCoef="0" IVar="4" Cut="6.5836932373046875e+02" cType="1" res="-6.1693802475929260e-02" rms="4.6741598844528198e-01" purity="3.9851683378219604e-01" nType="0">
          <Node pos="l" depth="2" NCoef="0" IVar="-1" Cut="0.0000000000000000e+00" cType="1" res="-1.6614559572190046e-03" rms="4.2997592687606812e-01" purity="2.8556555509567261e-01" nType="-99"/>
          <Node pos="r" depth="2" NCoef="0" IVar="-1" Cut="0.0000000000000000e+00" cType="1" res="-4.5223702909424901e-04" rms="4.7662767767906189e-01" purity="4.3889075517654419e-01" nType="-99"/>
        </Node>
      </Node>
    </BinaryTree>
    <BinaryTree type="DecisionTree" boostWeight="1.0000000000000000e+00" itree="477">
      <Node pos="s" depth="0" NCoef="0" IVar="4" Cut="7.2763812255859375e+02" cType="1" res="-9.9805798381567001e-03" rms="4.7472664713859558e-01" purity="5.0158357620239258e-01" nType="0">
        <Node pos="l" depth="1" NCoef="0" IVar="2" Cut="1.0316534423828125e+03" cType="1" res="-3.9058849215507507e-02" rms="4.7338500618934631e-01" purity="4.6909508109092712e-01" nType="0">
          <Node pos="l" depth="2" NCoef="0" IVar="-1" Cut="0.0000000000000000e+00" cType="1" res="-2.7600736939348280e-04" rms="4.7566825151443481e-01" purity="4.9948474764823914e-01" nType="-99"/>
          <Node pos="r" depth="2" NCoef="0" IVar="-1" Cut="0.0000000000000000e+00" cType="1" res="-1.8002142896875739e-03" rms="4.4315069913864136e-01" purity="3.0020475387573242e-01" nType="-99"/>
        </Node>
        <Node pos="r" depth="1" NCoef="0" IVar="2" Cut="1.4441950683593750e+03" cType="1" res="2.0369721576571465e-02" rms="4.7422501444816589e-01" purity="5.3549331426620483e-01" nType="0">
          <Node pos="l" depth="2" NCoef="0" IVar="-1" Cut="0.0000000000000000e+00" cType="1" res="1.1168867349624634e-03" rms="4.6773764491081238e-01" purity="5.9992873668670654e-01" nType="-99"/>
          <Node pos="r" depth="2" NCoef="0" IVar="-1" Cut="0.0000000000000000e+00" cType="1" res="-6.1834970256313682e-04" rms="4.7663018107414246e-01" purity="4.3896621465682983e-01" nType="-99"/>
        </Node>
      </Node>
    </BinaryTree>
    <BinaryTree type="DecisionTree" boostWeight="1.0000000000000000e+00" itree="478">
      <Node pos="s" depth="0" NCoef="0" IVar="0" Cut="1.9812413024902344e+02" cType="1" res="-1.0790005326271057e-02" rms="4.7153452038764954e-01" purity="4.9673944711685181e-01" nType="0">
        <Node pos="l" depth="1" NCoef="0" IVar="0" Cut="8.0622344970703125e+01" cType="1" res="1.6346164047718048e-02" rms="4.6968305110931396e-01" purity="5.5130422115325928e-01" nType="0">
          <Node pos="l" depth="2" NCoef="0" IVar="-1" Cut="0.0000000000000000e+00" cType="1" res="-1.0879576439037919e-03" rms="4.6570467948913574e-01" purity="3.8263189792633057e-01" nType="-99"/>
          <Node pos="r" depth="2" NCoef="0" IVar="-1" Cut="0.0000000000000000e+00" cType="1" res="8.2894641673192382e-04" rms="4.6647551655769348e-01" purity="6.0138821601867676e-01" nType="-99"/>
        </Node>
        <Node pos="r" depth="1" NCoef="0" IVar="4" Cut="6.4396057128906250e+02" cType="1" res="-5.8255344629287720e-02" rms="4.7101157903671265e-01" purity="4.0129718184471130e-01" nType="0">
          <Node pos="l" depth="2" NCoef="0" IVar="-1" Cut="0.0000000000000000e+00" cType="1" res="-1.6655721701681614e-03" rms="4.2479300498962402e-01" purity="2.7870902419090271e-01" nType="-99"/>
          <Node pos="r" depth="2" NCoef="0" IVar="-1" Cut="0.0000000000000000e+00" cType="1" res="-4.1021342622116208e-04" rms="4.8112997412681580e-01" purity="4.3994414806365967e-01" nType="-99"/>
        </Node>
      </Node>
    </BinaryTree>
    <BinaryTree type="DecisionTree" boostWeight="1.0000000000000000e+00" itree="479">
      <Node pos="s" depth="0" NCoef="0" IVar="3" Cut="9.5638537406921387e-01" cType="1" res="-1.1320794932544231e-02" rms="4.7266387939453125e-01" purity="4.9537426233291626e-01" nType="0">
        <Node pos="l" depth="1" NCoef="0" IVar="4" Cut="7.4640093994140625e+02" cType="1" res="-2.3166297003626823e-02" rms="4.7580951452255249e-01" purity="4.6892911195755005e-01" nType="0">
          <Node pos="l" depth="2" NCoef="0" IVar="-1" Cut="0.0000000000000000e+00" cType="1" res="-7.1293482324108481e-04" rms="4.7116178274154663e-01" purity="4.3273207545280457e-01" nType="-99"/>
          <Node pos="r" depth="2" NCoef="0" IVar="-1" Cut="0.0000000000000000e+00" cType="1" res="2.0677009888458997e-04" rms="4.7906681895256042e-01" purity="5.1428228616714478e-01" nType="-99"/>
        </Node>
        <Node pos="r" depth="1" NCoef="0" IVar="-1" Cut="0.0000000000000000e+00" cType="1" res="2.5632991455495358e-03" rms="4.2841836810112000e-01" purity="7.3519456386566162e-01" nType="-99"/>
      </Node>
    </BinaryTree>
    <BinaryTree type="DecisionTree" boostWeight="1.0000000000000000e+00" itree="480">
      <Node pos="s" depth="0" NCoef="0" IVar="0" Cut="1.9661616516113281e+02" cType="1" res="-2.7364259585738182e-03" rms="4.7249224781990051e-01" purity="5.0826632976531982e-01" nType="0">
        <Node pos="l" depth="1" NCoef="0" IVar="0" Cut="1.0105507659912109e+02" cType="1" res="2.9555024579167366e-02" rms="4.7264817357063293e-01" purity="5.7045787572860718e-01" nType="0">
          <Node pos="l" depth="2" NCoef="0" IVar="-1" Cut="0.0000000000000000e+00" cType="1" res="-6.3291611149907112e-04" rms="4.8179045319557190e-01" purity="4.5300409197807312e-01" nType="-99"/>
          <Node pos="r" depth="2" NCoef="0" IVar="-1" Cut="0.0000000000000000e+00" cType="1" res="1.4444439439103007e-03" rms="4.6045967936515808e-01" purity="6.4373898506164551e-01" nType="-99"/>
        </Node>
        <Node pos="r" depth="1" NCoef="0" IVar="2" Cut="1.0972537841796875e+03" cType="1" res="-5.6949313730001450e-02" rms="4.6723854541778564e-01" purity="4.0385535359382629e-01" nType="0">
          <Node pos="l" depth="2" NCoef="0" IVar="-1" Cut="0.0000000000000000e+00" cType="1" res="-1.3808155199512839e-04" rms="4.6996679902076721e-01" purity="4.6422228217124939e-01" nType="-99"/>
          <Node pos="r" depth="2" NCoef="0" IVar="-1" Cut="0.0000000000000000e+00" cType="1" res="-1.1065512662753463e-03" rms="4.6275845170021057e-01" purity="3.6405605077743530e-01" nType="-99"/>
        </Node>
      </Node>
    </BinaryTree>
    <BinaryTree type="DecisionTree" boostWeight="1.0000000000000000e+00" itree="481">
      <Node pos="s" depth="0" NCoef="0" IVar="1" Cut="9.9138389587402344e+01" cType="1" res="-1.4702643267810345e-02" rms="4.7348773479461670e-01" purity="4.9519574642181396e-01" nType="0">
        <Node pos="l" depth="1" NCoef="0" IVar="-1" Cut="0.0000000000000000e+00" cType="1" res="-1.6572721069678664e-03" rms="4.1772803664207458e-01" purity="2.5563555955886841e-01" nType="-99"/>
        <Node pos="r" depth="1" NCoef="0" IVar="4" Cut="5.0327966308593750e+02" cType="1" res="-3.3996838610619307e-03" rms="4.7637188434600830e-01" purity="5.1608210802078247e-01" nType="0">
          <Node pos="l" depth="2" NCoef="0" IVar="-1" Cut="0.0000000000000000e+00" cType="1" res="-1.4221619348973036e-03" rms="4.6917104721069336e-01" purity="4.0434753894805908e-01" nType="-99"/>
          <Node pos="r" depth="2" NCoef="0" IVar="-1" Cut="0.0000000000000000e+00" cType="1" res="1.9329848873894662e-04" rms="4.7555646300315857e-01" purity="5.3349131345748901e-01" nType="-99"/>
        </Node>
      </Node>
    </BinaryTree>
    <BinaryTree type="DecisionTree" boostWeight="1.0000000000000000e+00" itree="482">
      <Node pos="s" depth="0" NCoef="0" IVar="4" Cut="6.6559100341796875e+02" cType="1" res="-6.0304380021989346e-03" rms="4.7172266244888306e-01" purity="5.0175476074218750e-01" nType="0">
        <Node pos="l" depth="1" NCoef="0" IVar="2" Cut="7.2495550537109375e+02" cType="1" res="-4.1645899415016174e-02" rms="4.6281117200851440e-01" purity="4.5441165566444397e-01" nType="0">
          <Node pos="l" depth="2" NCoef="0" IVar="-1" Cut="0.0000000000000000e+00" cType="1" res="8.5839745588600636e-04" rms="4.5900553464889526e-01" purity="6.0108292102813721e-01" nType="-99"/>
          <Node pos="r" depth="2" NCoef="0" IVar="-1" Cut="0.0000000000000000e+00" cType="1" res="-1.2702960520982742e-03" rms="4.5545142889022827e-01" purity="3.5738053917884827e-01" nType="-99"/>
        </Node>
        <Node pos="r" depth="1" NCoef="0" IVar="2" Cut="1.0370264892578125e+03" cType="1" res="1.9545864313840866e-02" rms="4.7637990117073059e-01" purity="5.3575295209884644e-01" nType="0">
          <Node pos="l" depth="2" NCoef="0" IVar="-1" Cut="0.0000000000000000e+00" cType="1" res="2.1888113114982843e-03" rms="4.5653164386749268e-01" purity="6.6577160358428955e-01" nType="-99"/>
          <Node pos="r" depth="2" NCoef="0" IVar="-1" Cut="0.0000000000000000e+00" cType="1" res="-1.7117691459134221e-04" rms="4.7935873270034790e-01" purity="4.9009978771209717e-01" nType="-99"/>
        </Node>
      </Node>
    </BinaryTree>
    <BinaryTree type="DecisionTree" boostWeight="1.0000000000000000e+00" itree="483">
      <Node pos="s" depth="0" NCoef="0" IVar="1" Cut="1.4388386535644531e+02" cType="1" res="-2.7733981609344482e-02" rms="4.7043254971504211e-01" purity="4.8224732279777527e-01" nType="0">
        <Node pos="l" depth="1" NCoef="0" IVar="4" Cut="1.2423070068359375e+03" cType="1" res="-1.5684122219681740e-02" rms="4.7368457913398743e-01" purity="5.0808602571487427e-01" nType="0">
          <Node pos="l" depth="2" NCoef="0" IVar="-1" Cut="0.0000000000000000e+00" cType="1" res="-4.0520442416891456e-04" rms="4.7307026386260986e-01" purity="4.9765044450759888e-01" nType="-99"/>
          <Node pos="r" depth="2" NCoef="0" IVar="-1" Cut="0.0000000000000000e+00" cType="1" res="3.0223682988435030e-03" rms="4.4772228598594666e-01" purity="6.6452121734619141e-01" nType="-99"/>
        </Node>
        <Node pos="r" depth="1" NCoef="0" IVar="-1" Cut="0.0000000000000000e+00" cType="1" res="-1.5293330652639270e-03" rms="4.2681264877319336e-01" purity="2.5667399168014526e-01" nType="-99"/>
      </Node>
    </BinaryTree>
    <BinaryTree type="DecisionTree" boostWeight="1.0000000000000000e+00" itree="484">
      <Node pos="s" depth="0" NCoef="0" IVar="0" Cut="1.5894352722167969e+02" cType="1" res="-1.9136238843202591e-02" rms="4.7596463561058044e-01" purity="4.9139145016670227e-01" nType="0">
        <Node pos="l" depth="1" NCoef="0" IVar="0" Cut="7.9560447692871094e+01" cType="1" res="7.9880384728312492e-03" rms="4.7314739227294922e-01" purity="5.4676932096481323e-01" nType="0">
          <Node pos="l" depth="2" NCoef="0" IVar="-1" Cut="0.0000000000000000e+00" cType="1" res="-1.0763383470475674e-03" rms="4.6524959802627563e-01" purity="3.8204374909400940e-01" nType="-99"/>
          <Node pos="r" depth="2" NCoef="0" IVar="-1" Cut="0.0000000000000000e+00" cType="1" res="7.1028957609087229e-04" rms="4.7173240780830383e-01" purity="6.0553377866744995e-01" nType="-99"/>
        </Node>
        <Node pos="r" depth="1" NCoef="0" IVar="4" Cut="1.2272205810546875e+03" cType="1" res="-4.9937751144170761e-02" rms="4.7727823257446289e-01" purity="4.2850601673126221e-01" nType="0">
          <Node pos="l" depth="2" NCoef="0" IVar="-1" Cut="0.0000000000000000e+00" cType="1" res="-8.2530744839459658e-04" rms="4.7350901365280151e-01" purity="4.1856378316879272e-01" nType="-99"/>
          <Node pos="r" depth="2" NCoef="0" IVar="-1" Cut="0.0000000000000000e+00" cType="1" res="7.1723351720720530e-04" rms="4.9484267830848694e-01" purity="5.0492417812347412e-01" nType="-99"/>
        </Node>
      </Node>
    </BinaryTree>
    <BinaryTree type="DecisionTree" boostWeight="1.0000000000000000e+00" itree="485">
      <Node pos="s" depth="0" NCoef="0" IVar="0" Cut="1.0647899627685547e+02" cType="1" res="-2.4961952120065689e-02" rms="4.7525456547737122e-01" purity="4.8796707391738892e-01" nType="0">
        <Node pos="l" depth="1" NCoef="0" IVar="0" Cut="9.1718215942382812e+01" cType="1" res="-8.0213166773319244e-02" rms="4.7032502293586731e-01" purity="4.2256143689155579e-01" nType="0">
          <Node pos="l" depth="2" NCoef="0" IVar="-1" Cut="0.0000000000000000e+00" cType="1" res="-1.4950463082641363e-03" rms="4.6196043491363525e-01" purity="3.5967347025871277e-01" nType="-99"/>
          <Node pos="r" depth="2" NCoef="0" IVar="-1" Cut="0.0000000000000000e+00" cType="1" res="6.1661720974370837e-04" rms="4.7301146388053894e-01" purity="5.9052324295043945e-01" nType="-99"/>
        </Node>
        <Node pos="r" depth="1" NCoef="0" IVar="2" Cut="1.2917678222656250e+03" cType="1" res="-3.7735668011009693e-03" rms="4.7543120384216309e-01" purity="5.1304960250854492e-01" nType="0">
          <Node pos="l" depth="2" NCoef="0" IVar="-1" Cut="0.0000000000000000e+00" cType="1" res="3.3356758649460971e-04" rms="4.7320115566253662e-01" purity="5.5383890867233276e-01" nType="-99"/>
          <Node pos="r" depth="2" NCoef="0" IVar="-1" Cut="0.0000000000000000e+00" cType="1" res="-6.9708429509773850e-04" rms="4.7621318697929382e-01" purity="4.3403568863868713e-01" nType="-99"/>
        </Node>
      </Node>
    </BinaryTree>
    <BinaryTree type="DecisionTree" boostWeight="1.0000000000000000e+00" itree="486">
      <Node pos="s" depth="0" NCoef="0" IVar="2" Cut="7.4443322753906250e+02" cType="1" res="-8.0368174239993095e-03" rms="4.6990513801574707e-01" purity="4.9965724349021912e-01" nType="0">
        <Node pos="l" depth="1" NCoef="0" IVar="3" Cut="8.8987857103347778e-01" cType="1" res="6.9806225597858429e-02" rms="4.5466417074203491e-01" purity="6.1561852693557739e-01" nType="0">
          <Node pos="l" depth="2" NCoef="0" IVar="-1" Cut="0.0000000000000000e+00" cType="1" res="-9.0588786406442523e-05" rms="4.8472490906715393e-01" purity="4.7026398777961731e-01" nType="-99"/>
          <Node pos="r" depth="2" NCoef="0" IVar="-1" Cut="0.0000000000000000e+00" cType="1" res="3.4321572165936232e-03" rms="4.1272297501564026e-01" purity="7.4960041046142578e-01" nType="-99"/>
        </Node>
        <Node pos="r" depth="1" NCoef="0" IVar="4" Cut="5.8207946777343750e+02" cType="1" res="-2.5565655902028084e-02" rms="4.7149991989135742e-01" purity="4.7354486584663391e-01" nType="0">
          <Node pos="l" depth="2" NCoef="0" IVar="-1" Cut="0.0000000000000000e+00" cType="1" res="-1.7420965014025569e-03" rms="4.2626282572746277e-01" purity="2.8116425871849060e-01" nType="-99"/>
          <Node pos="r" depth="2" NCoef="0" IVar="-1" Cut="0.0000000000000000e+00" cType="1" res="-1.0899097833316773e-04" rms="4.7507256269454956e-01" purity="5.0193411111831665e-01" nType="-99"/>
        </Node>
      </Node>
    </BinaryTree>
    <BinaryTree type="DecisionTree" boostWeight="1.0000000000000000e+00" itree="487">
      <Node pos="s" depth="0" NCoef="0" IVar="3" Cut="9.5955997705459595e-01" cType="1" res="-1.7833802849054337e-02" rms="4.7074300050735474e-01" purity="4.8898431658744812e-01" nType="0">
        <Node pos="l" depth="1" NCoef="0" IVar="4" Cut="5.5226910400390625e+02" cType="1" res="-2.9285898432135582e-02" rms="4.7424238920211792e-01" purity="4.6432152390480042e-01" nType="0">
          <Node pos="l" depth="2" NCoef="0" IVar="-1" Cut="0.0000000000000000e+00" cType="1" res="-1.1507783783599734e-03" rms="4.6644344925880432e-01" purity="4.0301492810249329e-01" nType="-99"/>
          <Node pos="r" depth="2" NCoef="0" IVar="-1" Cut="0.0000000000000000e+00" cType="1" res="-1.9959363271482289e-04" rms="4.7519168257713318e-01" purity="4.8117953538894653e-01" nType="-99"/>
        </Node>
        <Node pos="r" depth="1" NCoef="0" IVar="-1" Cut="0.0000000000000000e+00" cType="1" res="2.5484708603471518e-03" rms="4.1678059101104736e-01" purity="7.3722791671752930e-01" nType="-99"/>
      </Node>
    </BinaryTree>
    <BinaryTree type="DecisionTree" boostWeight="1.0000000000000000e+00" itree="488">
      <Node pos="s" depth="0" NCoef="0" IVar="1" Cut="1.0266946411132812e+02" cType="1" res="-1.9643343985080719e-03" rms="4.7315806150436401e-01" purity="5.0894510746002197e-01" nType="0">
        <Node pos="l" depth="1" NCoef="0" IVar="-1" Cut="0.0000000000000000e+00" cType="1" res="-1.1006550630554557e-03" rms="4.4904321432113647e-01" purity="3.2097691297531128e-01" nType="-99"/>
        <Node pos="r" depth="1" NCoef="0" IVar="2" Cut="6.3944171142578125e+02" cType="1" res="7.7359667047858238e-03" rms="4.7466319799423218e-01" purity="5.2918487787246704e-01" nType="0">
          <Node pos="l" depth="2" NCoef="0" IVar="-1" Cut="0.0000000000000000e+00" cType="1" res="2.5460666511207819e-03" rms="4.4513124227523804e-01" purity="6.8386489152908325e-01" nType="-99"/>
          <Node pos="r" depth="2" NCoef="0" IVar="-1" Cut="0.0000000000000000e+00" cType="1" res="-3.3728567359503359e-05" rms="4.7587728500366211e-01" purity="5.1563405990600586e-01" nType="-99"/>
        </Node>
      </Node>
    </BinaryTree>
    <BinaryTree type="DecisionTree" boostWeight="1.0000000000000000e+00" itree="489">
      <Node pos="s" depth="0" NCoef="0" IVar="3" Cut="8.9618039131164551e-01" cType="1" res="-2.3051360622048378e-02" rms="4.7202268242835999e-01" purity="4.8305404186248779e-01" nType="0">
        <Node pos="l" depth="1" NCoef="0" IVar="1" Cut="1.3244029235839844e+02" cType="1" res="-5.0662804394960403e-02" rms="4.7237879037857056e-01" purity="3.9584705233573914e-01" nType="0">
          <Node pos="l" depth="2" NCoef="0" IVar="-1" Cut="0.0000000000000000e+00" cType="1" res="-3.8240454159677029e-04" rms="4.8139208555221558e-01" purity="4.3244972825050354e-01" nType="-99"/>
          <Node pos="r" depth="2" NCoef="0" IVar="-1" Cut="0.0000000000000000e+00" cType="1" res="-1.2267858255654573e-03" rms="4.4249641895294189e-01" purity="2.9762807488441467e-01" nType="-99"/>
        </Node>
        <Node pos="r" depth="1" NCoef="0" IVar="4" Cut="9.6288232421875000e+02" cType="1" res="7.7698812820017338e-03" rms="4.6971169114112854e-01" purity="5.8039879798889160e-01" nType="0">
          <Node pos="l" depth="2" NCoef="0" IVar="-1" Cut="0.0000000000000000e+00" cType="1" res="-1.9439466996118426e-04" rms="4.6958702802658081e-01" purity="5.6182670593261719e-01" nType="-99"/>
          <Node pos="r" depth="2" NCoef="0" IVar="-1" Cut="0.0000000000000000e+00" cType="1" res="1.5801975969225168e-03" rms="4.6320503950119019e-01" purity="6.5035867691040039e-01" nType="-99"/>
        </Node>
      </Node>
    </BinaryTree>
    <BinaryTree type="DecisionTree" boostWeight="1.0000000000000000e+00" itree="490">
      <Node pos="s" depth="0" NCoef="0" IVar="1" Cut="1.4416984558105469e+02" cType="1" res="-3.2253977842628956e-03" rms="4.7193709015846252e-01" purity="5.0536310672760010e-01" nType="0">
        <Node pos="l" depth="1" NCoef="0" IVar="1" Cut="1.0275762939453125e+02" cType="1" res="6.8702115677297115e-03" rms="4.7385126352310181e-01" purity="5.3023105859756470e-01" nType="0">
          <Node pos="l" depth="2" NCoef="0" IVar="-1" Cut="0.0000000000000000e+00" cType="1" res="-1.1400076327845454e-03" rms="4.5563083887100220e-01" purity="3.2749354839324951e-01" nType="-99"/>
          <Node pos="r" depth="2" NCoef="0" IVar="-1" Cut="0.0000000000000000e+00" cType="1" res="2.9593339422717690e-04" rms="4.7451990842819214e-01" purity="5.5338639020919800e-01" nType="-99"/>
        </Node>
        <Node pos="r" depth="1" NCoef="0" IVar="-1" Cut="0.0000000000000000e+00" cType="1" res="-1.0755655821412802e-03" rms="4.4664365053176880e-01" purity="2.9661551117897034e-01" nType="-99"/>
      </Node>
    </BinaryTree>
    <BinaryTree type="DecisionTree" boostWeight="1.0000000000000000e+00" itree="491">
      <Node pos="s" depth="0" NCoef="0" IVar="2" Cut="9.9557989501953125e+02" cType="1" res="-2.1642053499817848e-02" rms="4.7504401206970215e-01" purity="4.8758780956268311e-01" nType="0">
        <Node pos="l" depth="1" NCoef="0" IVar="4" Cut="7.0904022216796875e+02" cType="1" res="1.4377468265593052e-02" rms="4.7324877977371216e-01" purity="5.3869360685348511e-01" nType="0">
          <Node pos="l" depth="2" NCoef="0" IVar="-1" Cut="0.0000000000000000e+00" cType="1" res="-1.2685931869782507e-04" rms="4.7505545616149902e-01" purity="5.0730633735656738e-01" nType="-99"/>
          <Node pos="r" depth="2" NCoef="0" IVar="-1" Cut="0.0000000000000000e+00" cType="1" res="2.7471177745610476e-03" rms="4.4600671529769897e-01" purity="6.9964957237243652e-01" nType="-99"/>
        </Node>
        <Node pos="r" depth="1" NCoef="0" IVar="4" Cut="7.2045477294921875e+02" cType="1" res="-5.3956005722284317e-02" rms="4.7432687878608704e-01" purity="4.4173955917358398e-01" nType="0">
          <Node pos="l" depth="2" NCoef="0" IVar="-1" Cut="0.0000000000000000e+00" cType="1" res="-1.6415967838838696e-03" rms="4.3292906880378723e-01" purity="2.9154139757156372e-01" nType="-99"/>
          <Node pos="r" depth="2" NCoef="0" IVar="-1" Cut="0.0000000000000000e+00" cType="1" res="-4.7981290845200419e-04" rms="4.8090180754661560e-01" purity="4.7594866156578064e-01" nType="-99"/>
        </Node>
      </Node>
    </BinaryTree>
    <BinaryTree type="DecisionTree" boostWeight="1.0000000000000000e+00" itree="492">
      <Node pos="s" depth="0" NCoef="0" IVar="1" Cut="1.0241307067871094e+02" cType="1" res="-8.3896145224571228e-03" rms="4.7181099653244019e-01" purity="5.0100427865982056e-01" nType="0">
        <Node pos="l" depth="1" NCoef="0" IVar="-1" Cut="0.0000000000000000e+00" cType="1" res="-1.4040452660992742e-03" rms="4.4259080290794373e-01" purity="2.9440793395042419e-01" nType="-99"/>
        <Node pos="r" depth="1" NCoef="0" IVar="0" Cut="2.3592489624023438e+02" cType="1" res="3.7920919712632895e-03" rms="4.7333773970603943e-01" purity="5.2373689413070679e-01" nType="0">
          <Node pos="l" depth="2" NCoef="0" IVar="-1" Cut="0.0000000000000000e+00" cType="1" res="4.8049670294858515e-04" rms="4.7236308455467224e-01" purity="5.7308894395828247e-01" nType="-99"/>
          <Node pos="r" depth="2" NCoef="0" IVar="-1" Cut="0.0000000000000000e+00" cType="1" res="-7.9813663614913821e-04" rms="4.6987876296043396e-01" purity="3.9929774403572083e-01" nType="-99"/>
        </Node>
      </Node>
    </BinaryTree>
    <BinaryTree type="DecisionTree" boostWeight="1.0000000000000000e+00" itree="493">
      <Node pos="s" depth="0" NCoef="0" IVar="4" Cut="8.7141473388671875e+02" cType="1" res="-2.5801124051213264e-02" rms="4.7233262658119202e-01" purity="4.8072955012321472e-01" nType="0">
        <Node pos="l" depth="1" NCoef="0" IVar="2" Cut="8.0164080810546875e+02" cType="1" res="-4.7537934035062790e-02" rms="4.7087293863296509e-01" purity="4.5878374576568604e-01" nType="0">
          <Node pos="l" depth="2" NCoef="0" IVar="-1" Cut="0.0000000000000000e+00" cType="1" res="1.8757584621198475e-04" rms="4.7251346707344055e-01" purity="5.4269158840179443e-01" nType="-99"/>
          <Node pos="r" depth="2" NCoef="0" IVar="-1" Cut="0.0000000000000000e+00" cType="1" res="-1.0992545867338777e-03" rms="4.6629738807678223e-01" purity="4.0861687064170837e-01" nType="-99"/>
        </Node>
        <Node pos="r" depth="1" NCoef="0" IVar="2" Cut="1.7325224609375000e+03" cType="1" res="2.7862519025802612e-02" rms="4.7164693474769592e-01" purity="5.3490918874740601e-01" nType="0">
          <Node pos="l" depth="2" NCoef="0" IVar="-1" Cut="0.0000000000000000e+00" cType="1" res="1.3727248879149556e-03" rms="4.6675071120262146e-01" purity="6.0282880067825317e-01" nType="-99"/>
          <Node pos="r" depth="2" NCoef="0" IVar="-1" Cut="0.0000000000000000e+00" cType="1" res="-8.5166341159492731e-04" rms="4.6716481447219849e-01" purity="4.0828728675842285e-01" nType="-99"/>
        </Node>
      </Node>
    </BinaryTree>
    <BinaryTree type="DecisionTree" boostWeight="1.0000000000000000e+00" itree="494">
      <Node pos="s" depth="0" NCoef="0" IVar="1" Cut="1.4388386535644531e+02" cType="1" res="-1.3889131136238575e-02" rms="4.7353979945182800e-01" purity="4.9460074305534363e-01" nType="0">
        <Node pos="l" depth="1" NCoef="0" IVar="4" Cut="5.2686254882812500e+02" cType="1" res="-2.7601362671703100e-03" rms="4.7594729065895081e-01" purity="5.2035975456237793e-01" nType="0">
          <Node pos="l" depth="2" NCoef="0" IVar="-1" Cut="0.0000000000000000e+00" cType="1" res="-9.2849886277690530e-04" rms="4.6930336952209473e-01" purity="4.4345501065254211e-01" nType="-99"/>
          <Node pos="r" depth="2" NCoef="0" IVar="-1" Cut="0.0000000000000000e+00" cType="1" res="1.5735306078568101e-04" rms="4.7626262903213501e-01" purity="5.3591930866241455e-01" nType="-99"/>
        </Node>
        <Node pos="r" depth="1" NCoef="0" IVar="-1" Cut="0.0000000000000000e+00" cType="1" res="-1.2819390976801515e-03" rms="4.4244524836540222e-01" purity="2.8109434247016907e-01" nType="-99"/>
      </Node>
    </BinaryTree>
    <BinaryTree type="DecisionTree" boostWeight="1.0000000000000000e+00" itree="495">
      <Node pos="s" depth="0" NCoef="0" IVar="1" Cut="1.4012745666503906e+02" cType="1" res="-1.0096007026731968e-02" rms="4.7564524412155151e-01" purity="4.9840947985649109e-01" nType="0">
        <Node pos="l" depth="1" NCoef="0" IVar="2" Cut="6.8117474365234375e+02" cType="1" res="2.0637225825339556e-03" rms="4.7883906960487366e-01" purity="5.2830845117568970e-01" nType="0">
          <Node pos="l" depth="2" NCoef="0" IVar="-1" Cut="0.0000000000000000e+00" cType="1" res="1.2807749444618821e-03" rms="4.6530854701995850e-01" purity="6.3285022974014282e-01" nType="-99"/>
          <Node pos="r" depth="2" NCoef="0" IVar="-1" Cut="0.0000000000000000e+00" cType="1" res="-1.2757258082274348e-04" rms="4.8007640242576599e-01" purity="5.1202559471130371e-01" nType="-99"/>
        </Node>
        <Node pos="r" depth="1" NCoef="0" IVar="3" Cut="8.9522254467010498e-01" cType="1" res="-8.4811933338642120e-02" rms="4.4834804534912109e-01" purity="3.1469383835792542e-01" nType="0">
          <Node pos="l" depth="2" NCoef="0" IVar="-1" Cut="0.0000000000000000e+00" cType="1" res="-1.1065462604165077e-03" rms="4.3160754442214966e-01" purity="2.6393043994903564e-01" nType="-99"/>
          <Node pos="r" depth="2" NCoef="0" IVar="-1" Cut="0.0000000000000000e+00" cType="1" res="-8.9251511963084340e-04" rms="4.6827191114425659e-01" purity="3.7899219989776611e-01" nType="-99"/>
        </Node>
      </Node>
    </BinaryTree>
    <BinaryTree type="DecisionTree" boostWeight="1.0000000000000000e+00" itree="496">
      <Node pos="s" depth="0" NCoef="0" IVar="1" Cut="1.4539009094238281e+02" cType="1" res="-1.2688490562140942e-02" rms="4.7309401631355286e-01" purity="4.9651995301246643e-01" nType="0">
        <Node pos="l" depth="1" NCoef="0" IVar="4" Cut="8.2202392578125000e+02" cType="1" res="-6.6870974842458963e-04" rms="4.7648793458938599e-01" purity="5.2183294296264648e-01" nType="0">
          <Node pos="l" depth="2" NCoef="0" IVar="-1" Cut="0.0000000000000000e+00" cType="1" res="-3.7785113090649247e-04" rms="4.7524413466453552e-01" purity="4.9329468607902527e-01" nType="-99"/>
          <Node pos="r" depth="2" NCoef="0" IVar="-1" Cut="0.0000000000000000e+00" cType="1" res="8.8765885448083282e-04" rms="4.7477680444717407e-01" purity="5.8108782768249512e-01" nType="-99"/>
        </Node>
        <Node pos="r" depth="1" NCoef="0" IVar="-1" Cut="0.0000000000000000e+00" cType="1" res="-1.5035464894026518e-03" rms="4.2177295684814453e-01" purity="2.5234222412109375e-01" nType="-99"/>
      </Node>
    </BinaryTree>
    <BinaryTree type="DecisionTree" boostWeight="1.0000000000000000e+00" itree="497">
      <Node pos="s" depth="0" NCoef="0" IVar="4" Cut="8.4282824707031250e+02" cType="1" res="-4.9942256882786751e-03" rms="4.7604373097419739e-01" purity="5.0705045461654663e-01" nType="0">
        <Node pos="l" depth="1" NCoef="0" IVar="0" Cut="1.3081866455078125e+02" cType="1" res="-2.2412154823541641e-02" rms="4.7463724017143250e-01" purity="4.9053063988685608e-01" nType="0">
          <Node pos="l" depth="2" NCoef="0" IVar="-1" Cut="0.0000000000000000e+00" cType="1" res="3.2708863727748394e-04" rms="4.7346544265747070e-01" purity="5.5030333995819092e-01" nType="-99"/>
          <Node pos="r" depth="2" NCoef="0" IVar="-1" Cut="0.0000000000000000e+00" cType="1" res="-8.2011875929310918e-04" rms="4.7250041365623474e-01" purity="4.3769401311874390e-01" nType="-99"/>
        </Node>
        <Node pos="r" depth="1" NCoef="0" IVar="2" Cut="1.5145179443359375e+03" cType="1" res="3.0730506405234337e-02" rms="4.7692939639091492e-01" purity="5.4093319177627563e-01" nType="0">
          <Node pos="l" depth="2" NCoef="0" IVar="-1" Cut="0.0000000000000000e+00" cType="1" res="1.3812553370371461e-03" rms="4.6900254487991333e-01" purity="6.1523324251174927e-01" nType="-99"/>
          <Node pos="r" depth="2" NCoef="0" IVar="-1" Cut="0.0000000000000000e+00" cType="1" res="-2.7649066760204732e-04" rms="4.8034295439720154e-01" purity="4.6106731891632080e-01" nType="-99"/>
        </Node>
      </Node>
    </BinaryTree>
    <BinaryTree type="DecisionTree" boostWeight="1.0000000000000000e+00" itree="498">
      <Node pos="s" depth="0" NCoef="0" IVar="5" Cut="8.1491637229919434e-01" cType="1" res="-4.2996703996323049e-04" rms="4.7401431202888489e-01" purity="5.0963348150253296e-01" nType="0">
        <Node pos="l" depth="1" NCoef="0" IVar="5" Cut="2.5044825673103333e-01" cType="1" res="-1.1176160536706448e-02" rms="4.7406888008117676e-01" purity="4.9303576350212097e-01" nType="0">
          <Node pos="l" depth="2" NCoef="0" IVar="-1" Cut="0.0000000000000000e+00" cType="1" res="5.6706310715526342e-04" rms="4.7461912035942078e-01" purity="5.4926449060440063e-01" nType="-99"/>
          <Node pos="r" depth="2" NCoef="0" IVar="-1" Cut="0.0000000000000000e+00" cType="1" res="-3.6219801404513419e-04" rms="4.7300213575363159e-01" purity="4.7431334853172302e-01" nType="-99"/>
        </Node>
        <Node pos="r" depth="1" NCoef="0" IVar="3" Cut="9.1480177640914917e-01" cType="1" res="8.1022568047046661e-02" rms="4.6560466289520264e-01" purity="6.3543820381164551e-01" nType="0">
          <Node pos="l" depth="2" NCoef="0" IVar="-1" Cut="0.0000000000000000e+00" cType="1" res="3.5768300294876099e-03" rms="4.4570672512054443e-01" purity="6.7539632320404053e-01" nType="-99"/>
          <Node pos="r" depth="2" NCoef="0" IVar="-1" Cut="0.0000000000000000e+00" cType="1" res="-5.6754037359496579e-05" rms="4.6420520544052124e-01" purity="6.0334044694900513e-01" nType="-99"/>
        </Node>
      </Node>
    </BinaryTree>
    <BinaryTree type="DecisionTree" boostWeight="1.0000000000000000e+00" itree="499">
      <Node pos="s" depth="0" NCoef="0" IVar="1" Cut="9.9469924926757812e+01" cType="1" res="-1.1963940225541592e-02" rms="4.7288689017295837e-01" purity="4.9792921543121338e-01" nType="0">
        <Node pos="l" depth="1" NCoef="0" IVar="-1" Cut="0.0000000000000000e+00" cType="1" res="-1.5026129549369216e-03" rms="4.2758801579475403e-01" purity="2.6859089732170105e-01" nType="-99"/>
        <Node pos="r" depth="1" NCoef="0" IVar="1" Cut="1.2818252563476562e+02" cType="1" res="-2.9859601054340601e-03" rms="4.7504219412803650e-01" purity="5.1571333408355713e-01" nType="0">
          <Node pos="l" depth="2" NCoef="0" IVar="-1" Cut="0.0000000000000000e+00" cType="1" res="4.4709807843901217e-04" rms="4.7448369860649109e-01" purity="5.7143419981002808e-01" nType="-99"/>
          <Node pos="r" depth="2" NCoef="0" IVar="-1" Cut="0.0000000000000000e+00" cType="1" res="-6.6822755616158247e-04" rms="4.7220170497894287e-01" purity="4.3075188994407654e-01" nType="-99"/>
        </Node>
      </Node>
    </BinaryTree>
    <BinaryTree type="DecisionTree" boostWeight="1.0000000000000000e+00" itree="500">
      <Node pos="s" depth="0" NCoef="0" IVar="4" Cut="4.8813433837890625e+02" cType="1" res="-4.2617921717464924e-03" rms="4.7344788908958435e-01" purity="5.0630992650985718e-01" nType="0">
        <Node pos="l" depth="1" NCoef="0" IVar="-1" Cut="0.0000000000000000e+00" cType="1" res="-1.4335782034322619e-03" rms="4.6854346990585327e-01" purity="3.9477515220642090e-01" nType="-99"/>
        <Node pos="r" depth="1" NCoef="0" IVar="0" Cut="4.5588919067382812e+02" cType="1" res="7.8369649127125740e-03" rms="4.7258207201957703e-01" purity="5.1963961124420166e-01" nType="0">
          <Node pos="l" depth="2" NCoef="0" IVar="-1" Cut="0.0000000000000000e+00" cType="1" res="2.6478501968085766e-04" rms="4.7232538461685181e-01" purity="5.3600502014160156e-01" nType="-99"/>
          <Node pos="r" depth="2" NCoef="0" IVar="-1" Cut="0.0000000000000000e+00" cType="1" res="-1.1366117978468537e-03" rms="4.6330410242080688e-01" purity="3.3171090483665466e-01" nType="-99"/>
        </Node>
      </Node>
    </BinaryTree>
    <BinaryTree type="DecisionTree" boostWeight="1.0000000000000000e+00" itree="501">
      <Node pos="s" depth="0" NCoef="0" IVar="4" Cut="5.4047155761718750e+02" cType="1" res="1.2557668378576636e-03" rms="4.7169971466064453e-01" purity="5.1205527782440186e-01" nType="0">
        <Node pos="l" depth="1" NCoef="0" IVar="2" Cut="6.6800592041015625e+02" cType="1" res="-8.3878062665462494e-02" rms="4.6030670404434204e-01" purity="4.1827377676963806e-01" nType="0">
          <Node pos="l" depth="2" NCoef="0" IVar="-1" Cut="0.0000000000000000e+00" cType="1" res="4.9355719238519669e-04" rms="4.7682482004165649e-01" purity="5.8363747596740723e-01" nType="-99"/>
          <Node pos="r" depth="2" NCoef="0" IVar="-1" Cut="0.0000000000000000e+00" cType="1" res="-2.1953338291496038e-03" rms="4.1409185528755188e-01" purity="2.5370782613754272e-01" nType="-99"/>
        </Node>
        <Node pos="r" depth="1" NCoef="0" IVar="5" Cut="7.7511799335479736e-01" cType="1" res="2.0405011251568794e-02" rms="4.7211447358131409e-01" purity="5.3314965963363647e-01" nType="0">
          <Node pos="l" depth="2" NCoef="0" IVar="-1" Cut="0.0000000000000000e+00" cType="1" res="6.4561652834527194e-05" rms="4.7254455089569092e-01" purity="5.1172775030136108e-01" nType="-99"/>
          <Node pos="r" depth="2" NCoef="0" IVar="-1" Cut="0.0000000000000000e+00" cType="1" res="1.8258347408846021e-03" rms="4.6176391839981079e-01" purity="6.3860237598419189e-01" nType="-99"/>
        </Node>
      </Node>
    </BinaryTree>
    <BinaryTree type="DecisionTree" boostWeight="1.0000000000000000e+00" itree="502">
      <Node pos="s" depth="0" NCoef="0" IVar="3" Cut="8.9636033773422241e-01" cType="1" res="-5.9828860685229301e-03" rms="4.7056859731674194e-01" purity="5.0207680463790894e-01" nType="0">
        <Node pos="l" depth="1" NCoef="0" IVar="5" Cut="1.9603896141052246e-01" cType="1" res="-4.2548105120658875e-02" rms="4.7069168090820312e-01" purity="4.0260475873947144e-01" nType="0">
          <Node pos="l" depth="2" NCoef="0" IVar="-1" Cut="0.0000000000000000e+00" cType="1" res="-1.5431341016665101e-03" rms="4.4808956980705261e-01" purity="3.1919246912002563e-01" nType="-99"/>
          <Node pos="r" depth="2" NCoef="0" IVar="-1" Cut="0.0000000000000000e+00" cType="1" res="-3.3491387148387730e-04" rms="4.7330582141876221e-01" purity="4.1916230320930481e-01" nType="-99"/>
        </Node>
        <Node pos="r" depth="1" NCoef="0" IVar="1" Cut="1.2669847106933594e+02" cType="1" res="3.4833762794733047e-02" rms="4.6706208586692810e-01" purity="6.1311453580856323e-01" nType="0">
          <Node pos="l" depth="2" NCoef="0" IVar="-1" Cut="0.0000000000000000e+00" cType="1" res="1.1629380751401186e-03" rms="4.6197727322578430e-01" purity="6.5725928544998169e-01" nType="-99"/>
          <Node pos="r" depth="2" NCoef="0" IVar="-1" Cut="0.0000000000000000e+00" cType="1" res="5.8966441429220140e-05" rms="4.7257933020591736e-01" purity="5.4923707246780396e-01" nType="-99"/>
        </Node>
      </Node>
    </BinaryTree>
    <BinaryTree type="DecisionTree" boostWeight="1.0000000000000000e+00" itree="503">
      <Node pos="s" depth="0" NCoef="0" IVar="1" Cut="1.3019731140136719e+02" cType="1" res="-1.3140091672539711e-02" rms="4.7475597262382507e-01" purity="4.9792087078094482e-01" nType="0">
        <Node pos="l" depth="1" NCoef="0" IVar="1" Cut="1.0877247619628906e+02" cType="1" res="6.1780535615980625e-03" rms="4.7611215710639954e-01" purity="5.3875827789306641e-01" nType="0">
          <Node pos="l" depth="2" NCoef="0" IVar="-1" Cut="0.0000000000000000e+00" cType="1" res="-9.0518582146614790e-04" rms="4.6349421143531799e-01" purity="3.8246640563011169e-01" nType="-99"/>
          <Node pos="r" depth="2" NCoef="0" IVar="-1" Cut="0.0000000000000000e+00" cType="1" res="4.5174686238169670e-04" rms="4.7749826312065125e-01" purity="5.8139115571975708e-01" nType="-99"/>
        </Node>
        <Node pos="r" depth="1" NCoef="0" IVar="4" Cut="8.6666510009765625e+02" cType="1" res="-5.7342380285263062e-02" rms="4.6865218877792358e-01" purity="4.0447986125946045e-01" nType="0">
          <Node pos="l" depth="2" NCoef="0" IVar="-1" Cut="0.0000000000000000e+00" cType="1" res="-1.1668633669614792e-03" rms="4.5780369639396667e-01" purity="3.6796656250953674e-01" nType="-99"/>
          <Node pos="r" depth="2" NCoef="0" IVar="-1" Cut="0.0000000000000000e+00" cType="1" res="2.4422068963758647e-04" rms="4.8313155770301819e-01" purity="4.8333781957626343e-01" nType="-99"/>
        </Node>
      </Node>
    </BinaryTree>
    <BinaryTree type="DecisionTree" boostWeight="1.0000000000000000e+00" itree="504">
      <Node pos="s" depth="0" NCoef="0" IVar="4" Cut="5.5888024902343750e+02" cType="1" res="-1.1570303468033671e-03" rms="4.7385841608047485e-01" purity="5.1147782802581787e-01" nType="0">
        <Node pos="l" depth="1" NCoef="0" IVar="2" Cut="6.5068695068359375e+02" cType="1" res="-5.7339236140251160e-02" rms="4.6410131454467773e-01" purity="4.4935023784637451e-01" nType="0">
          <Node pos="l" depth="2" NCoef="0" IVar="-1" Cut="0.0000000000000000e+00" cType="1" res="8.7742973119020462e-04" rms="4.6656221151351929e-01" purity="6.0368180274963379e-01" nType="-99"/>
          <Node pos="r" depth="2" NCoef="0" IVar="-1" Cut="0.0000000000000000e+00" cType="1" res="-1.6663413261994720e-03" rms="4.4709920883178711e-01" purity="3.3678111433982849e-01" nType="-99"/>
        </Node>
        <Node pos="r" depth="1" NCoef="0" IVar="2" Cut="7.5379333496093750e+02" cType="1" res="1.5911102294921875e-02" rms="4.7547012567520142e-01" purity="5.3035217523574829e-01" nType="0">
          <Node pos="l" depth="2" NCoef="0" IVar="-1" Cut="0.0000000000000000e+00" cType="1" res="2.9829072300344706e-03" rms="4.3803709745407104e-01" purity="6.9898843765258789e-01" nType="-99"/>
          <Node pos="r" depth="2" NCoef="0" IVar="-1" Cut="0.0000000000000000e+00" cType="1" res="9.9571567261591554e-05" rms="4.7712045907974243e-01" purity="5.1668131351470947e-01" nType="-99"/>
        </Node>
      </Node>
    </BinaryTree>
    <BinaryTree type="DecisionTree" boostWeight="1.0000000000000000e+00" itree="505">
      <Node pos="s" depth="0" NCoef="0" IVar="2" Cut="8.4080493164062500e+02" cType="1" res="-1.6714300960302353e-02" rms="4.7010636329650879e-01" purity="4.8982617259025574e-01" nType="0">
        <Node pos="l" depth="1" NCoef="0" IVar="4" Cut="5.5033752441406250e+02" cType="1" res="3.5470079630613327e-02" rms="4.6947717666625977e-01" purity="5.7138365507125854e-01" nType="0">
          <Node pos="l" depth="2" NCoef="0" IVar="-1" Cut="0.0000000000000000e+00" cType="1" res="-1.6189899179153144e-04" rms="4.7421428561210632e-01" purity="5.1877719163894653e-01" nType="-99"/>
          <Node pos="r" depth="2" NCoef="0" IVar="-1" Cut="0.0000000000000000e+00" cType="1" res="1.6580888768658042e-03" rms="4.5826122164726257e-01" purity="6.3210368156433105e-01" nType="-99"/>
        </Node>
        <Node pos="r" depth="1" NCoef="0" IVar="4" Cut="6.9377154541015625e+02" cType="1" res="-3.8277313113212585e-02" rms="4.6867266297340393e-01" purity="4.5612597465515137e-01" nType="0">
          <Node pos="l" depth="2" NCoef="0" IVar="-1" Cut="0.0000000000000000e+00" cType="1" res="-1.4294437132775784e-03" rms="4.4373366236686707e-01" purity="3.2509675621986389e-01" nType="-99"/>
          <Node pos="r" depth="2" NCoef="0" IVar="-1" Cut="0.0000000000000000e+00" cType="1" res="-1.8750313029158860e-04" rms="4.7351178526878357e-01" purity="4.9817132949829102e-01" nType="-99"/>
        </Node>
      </Node>
    </BinaryTree>
    <BinaryTree type="DecisionTree" boostWeight="1.0000000000000000e+00" itree="506">
      <Node pos="s" depth="0" NCoef="0" IVar="3" Cut="9.3471467494964600e-01" cType="1" res="-3.9189276285469532e-03" rms="4.7214132547378540e-01" purity="5.0773859024047852e-01" nType="0">
        <Node pos="l" depth="1" NCoef="0" IVar="4" Cut="7.1418572998046875e+02" cType="1" res="-2.2063026204705238e-02" rms="4.7740596532821655e-01" purity="4.5985087752342224e-01" nType="0">
          <Node pos="l" depth="2" NCoef="0" IVar="-1" Cut="0.0000000000000000e+00" cType="1" res="-7.6284498209133744e-04" rms="4.7168663144111633e-01" purity="4.1842117905616760e-01" nType="-99"/>
          <Node pos="r" depth="2" NCoef="0" IVar="-1" Cut="0.0000000000000000e+00" cType="1" res="2.0208855858072639e-04" rms="4.8052155971527100e-01" purity="5.0185221433639526e-01" nType="-99"/>
        </Node>
        <Node pos="r" depth="1" NCoef="0" IVar="5" Cut="4.0401795506477356e-01" cType="1" res="6.4950667321681976e-02" rms="4.4491568207740784e-01" purity="6.8950575590133667e-01" nType="0">
          <Node pos="l" depth="2" NCoef="0" IVar="-1" Cut="0.0000000000000000e+00" cType="1" res="4.6768790343776345e-04" rms="4.5965626835823059e-01" purity="6.4115881919860840e-01" nType="-99"/>
          <Node pos="r" depth="2" NCoef="0" IVar="-1" Cut="0.0000000000000000e+00" cType="1" res="2.4923433084040880e-03" rms="4.3038463592529297e-01" purity="7.2634416818618774e-01" nType="-99"/>
        </Node>
      </Node>
    </BinaryTree>
    <BinaryTree type="DecisionTree" boostWeight="1.0000000000000000e+00" itree="507">
      <Node pos="s" depth="0" NCoef="0" IVar="4" Cut="4.7236004638671875e+02" cType="1" res="2.3478784132748842e-03" rms="4.7173112630844116e-01" purity="5.1020622253417969e-01" nType="0">
        <Node pos="l" depth="1" NCoef="0" IVar="-1" Cut="0.0000000000000000e+00" cType="1" res="-1.4351962599903345e-03" rms="4.6245554089546204e-01" purity="3.8937562704086304e-01" nType="-99"/>
        <Node pos="r" depth="1" NCoef="0" IVar="1" Cut="1.3852383422851562e+02" cType="1" res="1.2205431237816811e-02" rms="4.7129350900650024e-01" purity="5.2098983526229858e-01" nType="0">
          <Node pos="l" depth="2" NCoef="0" IVar="-1" Cut="0.0000000000000000e+00" cType="1" res="4.5326392864808440e-04" rms="4.7289675474166870e-01" purity="5.5603790283203125e-01" nType="-99"/>
          <Node pos="r" depth="2" NCoef="0" IVar="-1" Cut="0.0000000000000000e+00" cType="1" res="-8.3135790191590786e-04" rms="4.5510986447334290e-01" purity="3.4505623579025269e-01" nType="-99"/>
        </Node>
      </Node>
    </BinaryTree>
    <BinaryTree type="DecisionTree" boostWeight="1.0000000000000000e+00" itree="508">
      <Node pos="s" depth="0" NCoef="0" IVar="3" Cut="8.6740624904632568e-01" cType="1" res="-1.1108253151178360e-02" rms="4.7252979874610901e-01" purity="4.9685710668563843e-01" nType="0">
        <Node pos="l" depth="1" NCoef="0" IVar="2" Cut="1.1280827636718750e+03" cType="1" res="-6.7088648676872253e-02" rms="4.6514061093330383e-01" purity="3.6115080118179321e-01" nType="0">
          <Node pos="l" depth="2" NCoef="0" IVar="-1" Cut="0.0000000000000000e+00" cType="1" res="-3.5670900251716375e-04" rms="4.7864490747451782e-01" purity="4.1403910517692566e-01" nType="-99"/>
          <Node pos="r" depth="2" NCoef="0" IVar="-1" Cut="0.0000000000000000e+00" cType="1" res="-1.2975048739463091e-03" rms="4.4161471724510193e-01" purity="2.9177382588386536e-01" nType="-99"/>
        </Node>
        <Node pos="r" depth="1" NCoef="0" IVar="1" Cut="1.0645250701904297e+02" cType="1" res="7.6195518486201763e-03" rms="4.7350102663040161e-01" purity="5.4225659370422363e-01" nType="0">
          <Node pos="l" depth="2" NCoef="0" IVar="-1" Cut="0.0000000000000000e+00" cType="1" res="-1.1199713917449117e-03" rms="4.6014761924743652e-01" purity="3.7413525581359863e-01" nType="-99"/>
          <Node pos="r" depth="2" NCoef="0" IVar="-1" Cut="0.0000000000000000e+00" cType="1" res="3.3782690297812223e-04" rms="4.7390922904014587e-01" purity="5.6521469354629517e-01" nType="-99"/>
        </Node>
      </Node>
    </BinaryTree>
    <BinaryTree type="DecisionTree" boostWeight="1.0000000000000000e+00" itree="509">
      <Node pos="s" depth="0" NCoef="0" IVar="0" Cut="1.8786193847656250e+02" cType="1" res="-8.1423837691545486e-03" rms="4.7155609726905823e-01" purity="5.0243473052978516e-01" nType="0">
        <Node pos="l" depth="1" NCoef="0" IVar="0" Cut="8.7842941284179688e+01" cType="1" res="2.0553933456540108e-02" rms="4.7224056720733643e-01" purity="5.6220984458923340e-01" nType="0">
          <Node pos="l" depth="2" NCoef="0" IVar="-1" Cut="0.0000000000000000e+00" cType="1" res="-5.9856608277186751e-04" rms="4.7226682305335999e-01" purity="4.4032260775566101e-01" nType="-99"/>
          <Node pos="r" depth="2" NCoef="0" IVar="-1" Cut="0.0000000000000000e+00" cType="1" res="7.8272726386785507e-04" rms="4.6995240449905396e-01" purity="6.0800445079803467e-01" nType="-99"/>
        </Node>
        <Node pos="r" depth="1" NCoef="0" IVar="4" Cut="6.1738970947265625e+02" cType="1" res="-5.4267868399620056e-02" rms="4.6677145361900330e-01" purity="4.0635406970977783e-01" nType="0">
          <Node pos="l" depth="2" NCoef="0" IVar="-1" Cut="0.0000000000000000e+00" cType="1" res="-1.4629821525886655e-03" rms="4.1934525966644287e-01" purity="2.8992733359336853e-01" nType="-99"/>
          <Node pos="r" depth="2" NCoef="0" IVar="-1" Cut="0.0000000000000000e+00" cType="1" res="-5.1053089555352926e-04" rms="4.7550344467163086e-01" purity="4.3374913930892944e-01" nType="-99"/>
        </Node>
      </Node>
    </BinaryTree>
    <BinaryTree type="DecisionTree" boostWeight="1.0000000000000000e+00" itree="510">
      <Node pos="s" depth="0" NCoef="0" IVar="4" Cut="6.8389404296875000e+02" cType="1" res="-6.1140400357544422e-03" rms="4.7133281826972961e-01" purity="5.0234788656234741e-01" nType="0">
        <Node pos="l" depth="1" NCoef="0" IVar="2" Cut="8.0148931884765625e+02" cType="1" res="-4.2408235371112823e-02" rms="4.6784105896949768e-01" purity="4.5528554916381836e-01" nType="0">
          <Node pos="l" depth="2" NCoef="0" IVar="-1" Cut="0.0000000000000000e+00" cType="1" res="3.0420618713833392e-04" rms="4.7178903222084045e-01" purity="5.5730724334716797e-01" nType="-99"/>
          <Node pos="r" depth="2" NCoef="0" IVar="-1" Cut="0.0000000000000000e+00" cType="1" res="-1.3740393333137035e-03" rms="4.5276230573654175e-01" purity="3.3457699418067932e-01" nType="-99"/>
        </Node>
        <Node pos="r" depth="1" NCoef="0" IVar="2" Cut="1.0167122802734375e+03" cType="1" res="2.3894343525171280e-02" rms="4.7209787368774414e-01" purity="5.4125940799713135e-01" nType="0">
          <Node pos="l" depth="2" NCoef="0" IVar="-1" Cut="0.0000000000000000e+00" cType="1" res="2.7549152728170156e-03" rms="4.4637531042098999e-01" purity="7.0060211420059204e-01" nType="-99"/>
          <Node pos="r" depth="2" NCoef="0" IVar="-1" Cut="0.0000000000000000e+00" cType="1" res="-2.5067798560485244e-05" rms="4.7478932142257690e-01" purity="5.0187599658966064e-01" nType="-99"/>
        </Node>
      </Node>
    </BinaryTree>
    <BinaryTree type="DecisionTree" boostWeight="1.0000000000000000e+00" itree="511">
      <Node pos="s" depth="0" NCoef="0" IVar="3" Cut="8.7389099597930908e-01" cType="1" res="-1.9805899355560541e-03" rms="4.7161957621574402e-01" purity="5.0708144903182983e-01" nType="0">
        <Node pos="l" depth="1" NCoef="0" IVar="1" Cut="1.3043861389160156e+02" cType="1" res="-4.5133851468563080e-02" rms="4.6736937761306763e-01" purity="3.8834339380264282e-01" nType="0">
          <Node pos="l" depth="2" NCoef="0" IVar="-1" Cut="0.0000000000000000e+00" cType="1" res="-2.0900464733131230e-04" rms="4.7569981217384338e-01" purity="4.3304994702339172e-01" nType="-99"/>
          <Node pos="r" depth="2" NCoef="0" IVar="-1" Cut="0.0000000000000000e+00" cType="1" res="-1.2353819329291582e-03" rms="4.4146984815597534e-01" purity="2.8961846232414246e-01" nType="-99"/>
        </Node>
        <Node pos="r" depth="1" NCoef="0" IVar="2" Cut="8.3526892089843750e+02" cType="1" res="1.7638992518186569e-02" rms="4.7223713994026184e-01" purity="5.6106549501419067e-01" nType="0">
          <Node pos="l" depth="2" NCoef="0" IVar="-1" Cut="0.0000000000000000e+00" cType="1" res="1.1621278245002031e-03" rms="4.6220186352729797e-01" purity="6.3441503047943115e-01" nType="-99"/>
          <Node pos="r" depth="2" NCoef="0" IVar="-1" Cut="0.0000000000000000e+00" cType="1" res="-1.5108583284018096e-05" rms="4.7512564063072205e-01" purity="5.3049290180206299e-01" nType="-99"/>
        </Node>
      </Node>
    </BinaryTree>
    <BinaryTree type="DecisionTree" boostWeight="1.0000000000000000e+00" itree="512">
      <Node pos="s" depth="0" NCoef="0" IVar="0" Cut="1.9812413024902344e+02" cType="1" res="-2.1349972113966942e-02" rms="4.7123143076896667e-01" purity="4.8680475354194641e-01" nType="0">
        <Node pos="l" depth="1" NCoef="0" IVar="0" Cut="9.1971290588378906e+01" cType="1" res="3.5963100381195545e-03" rms="4.7190439701080322e-01" purity="5.3905451297760010e-01" nType="0">
          <Node pos="l" depth="2" NCoef="0" IVar="-1" Cut="0.0000000000000000e+00" cType="1" res="-7.9168658703565598e-04" rms="4.6848520636558533e-01" purity="4.1947913169860840e-01" nType="-99"/>
          <Node pos="r" depth="2" NCoef="0" IVar="-1" Cut="0.0000000000000000e+00" cType="1" res="5.6452205171808600e-04" rms="4.7061771154403687e-01" purity="5.9376132488250732e-01" nType="-99"/>
        </Node>
        <Node pos="r" depth="1" NCoef="0" IVar="1" Cut="1.2366223907470703e+02" cType="1" res="-6.6419340670108795e-02" rms="4.6664425730705261e-01" purity="3.9240729808807373e-01" nType="0">
          <Node pos="l" depth="2" NCoef="0" IVar="-1" Cut="0.0000000000000000e+00" cType="1" res="-4.2894916987279430e-06" rms="4.6913686394691467e-01" purity="4.6653866767883301e-01" nType="-99"/>
          <Node pos="r" depth="2" NCoef="0" IVar="-1" Cut="0.0000000000000000e+00" cType="1" res="-1.4053444610908628e-03" rms="4.5891726016998291e-01" purity="3.3870494365692139e-01" nType="-99"/>
        </Node>
      </Node>
    </BinaryTree>
    <BinaryTree type="DecisionTree" boostWeight="1.0000000000000000e+00" itree="513">
      <Node pos="s" depth="0" NCoef="0" IVar="4" Cut="7.5775555419921875e+02" cType="1" res="1.2377453967928886e-03" rms="4.7179508209228516e-01" purity="5.0975269079208374e-01" nType="0">
        <Node pos="l" depth="1" NCoef="0" IVar="2" Cut="9.1261535644531250e+02" cType="1" res="-3.2755915075540543e-02" rms="4.6722221374511719e-01" purity="4.7108963131904602e-01" nType="0">
          <Node pos="l" depth="2" NCoef="0" IVar="-1" Cut="0.0000000000000000e+00" cType="1" res="2.1083399769850075e-04" rms="4.7217151522636414e-01" purity="5.3994941711425781e-01" nType="-99"/>
          <Node pos="r" depth="2" NCoef="0" IVar="-1" Cut="0.0000000000000000e+00" cType="1" res="-1.4475283678621054e-03" rms="4.4309517741203308e-01" purity="3.3318170905113220e-01" nType="-99"/>
        </Node>
        <Node pos="r" depth="1" NCoef="0" IVar="2" Cut="1.4377540283203125e+03" cType="1" res="4.7868449240922928e-02" rms="4.7404783964157104e-01" purity="5.6278866529464722e-01" nType="0">
          <Node pos="l" depth="2" NCoef="0" IVar="-1" Cut="0.0000000000000000e+00" cType="1" res="1.7136733513325453e-03" rms="4.6550190448760986e-01" purity="6.3406014442443848e-01" nType="-99"/>
          <Node pos="r" depth="2" NCoef="0" IVar="-1" Cut="0.0000000000000000e+00" cType="1" res="-8.0938072642311454e-05" rms="4.7917851805686951e-01" purity="4.7361582517623901e-01" nType="-99"/>
        </Node>
      </Node>
    </BinaryTree>
    <BinaryTree type="DecisionTree" boostWeight="1.0000000000000000e+00" itree="514">
      <Node pos="s" depth="0" NCoef="0" IVar="3" Cut="9.0593886375427246e-01" cType="1" res="-5.1334775052964687e-03" rms="4.7627028822898865e-01" purity="5.0686389207839966e-01" nType="0">
        <Node pos="l" depth="1" NCoef="0" IVar="4" Cut="6.7558160400390625e+02" cType="1" res="-3.0585916712880135e-02" rms="4.8011332750320435e-01" purity="4.3225771188735962e-01" nType="0">
          <Node pos="l" depth="2" NCoef="0" IVar="-1" Cut="0.0000000000000000e+00" cType="1" res="-8.6622819071635604e-04" rms="4.7072073817253113e-01" purity="3.8152998685836792e-01" nType="-99"/>
          <Node pos="r" depth="2" NCoef="0" IVar="-1" Cut="0.0000000000000000e+00" cType="1" res="-5.3478288464248180e-06" rms="4.8527383804321289e-01" purity="4.7229701280593872e-01" nType="-99"/>
        </Node>
        <Node pos="r" depth="1" NCoef="0" IVar="5" Cut="5.5185234546661377e-01" cType="1" res="3.4658893942832947e-02" rms="4.6743014454841614e-01" purity="6.2350314855575562e-01" nType="0">
          <Node pos="l" depth="2" NCoef="0" IVar="-1" Cut="0.0000000000000000e+00" cType="1" res="1.6130348667502403e-03" rms="4.6067190170288086e-01" purity="6.6312056779861450e-01" nType="-99"/>
          <Node pos="r" depth="2" NCoef="0" IVar="-1" Cut="0.0000000000000000e+00" cType="1" res="-2.1633526193909347e-04" rms="4.7111952304840088e-01" purity="5.7574146986007690e-01" nType="-99"/>
        </Node>
      </Node>
    </BinaryTree>
    <BinaryTree type="DecisionTree" boostWeight="1.0000000000000000e+00" itree="515">
      <Node pos="s" depth="0" NCoef="0" IVar="2" Cut="1.2269552001953125e+03" cType="1" res="-1.1366199702024460e-02" rms="4.6994939446449280e-01" purity="4.9644064903259277e-01" nType="0">
        <Node pos="l" depth="1" NCoef="0" IVar="4" Cut="7.3547753906250000e+02" cType="1" res="1.5754982829093933e-02" rms="4.6759679913520813e-01" purity="5.3497779369354248e-01" nType="0">
          <Node pos="l" depth="2" NCoef="0" IVar="-1" Cut="0.0000000000000000e+00" cType="1" res="-2.4150892568286508e-04" rms="4.6653658151626587e-01" purity="4.8949876427650452e-01" nType="-99"/>
          <Node pos="r" depth="2" NCoef="0" IVar="-1" Cut="0.0000000000000000e+00" cType="1" res="2.2671825718134642e-03" rms="4.5805215835571289e-01" purity="6.6820055246353149e-01" nType="-99"/>
        </Node>
        <Node pos="r" depth="1" NCoef="0" IVar="4" Cut="8.9641259765625000e+02" cType="1" res="-6.4561769366264343e-02" rms="4.7000652551651001e-01" purity="4.2085376381874084e-01" nType="0">
          <Node pos="l" depth="2" NCoef="0" IVar="-1" Cut="0.0000000000000000e+00" cType="1" res="-1.8067003693431616e-03" rms="4.3238776922225952e-01" purity="2.9815500974655151e-01" nType="-99"/>
          <Node pos="r" depth="2" NCoef="0" IVar="-1" Cut="0.0000000000000000e+00" cType="1" res="-3.6305250250734389e-04" rms="4.7992095351219177e-01" purity="4.7367957234382629e-01" nType="-99"/>
        </Node>
      </Node>
    </BinaryTree>
    <BinaryTree type="DecisionTree" boostWeight="1.0000000000000000e+00" itree="516">
      <Node pos="s" depth="0" NCoef="0" IVar="3" Cut="9.3438380956649780e-01" cType="1" res="-6.6067739389836788e-03" rms="4.7266411781311035e-01" purity="5.0239968299865723e-01" nType="0">
        <Node pos="l" depth="1" NCoef="0" IVar="4" Cut="1.2486899414062500e+03" cType="1" res="-2.1680280566215515e-02" rms="4.7777953743934631e-01" purity="4.5921742916107178e-01" nType="0">
          <Node pos="l" depth="2" NCoef="0" IVar="-1" Cut="0.0000000000000000e+00" cType="1" res="-3.9141401066444814e-04" rms="4.7705948352813721e-01" purity="4.5409134030342102e-01" nType="-99"/>
          <Node pos="r" depth="2" NCoef="0" IVar="-1" Cut="0.0000000000000000e+00" cType="1" res="1.0824500350281596e-03" rms="4.7773385047912598e-01" purity="5.2698189020156860e-01" nType="-99"/>
        </Node>
        <Node pos="r" depth="1" NCoef="0" IVar="0" Cut="1.0480376434326172e+02" cType="1" res="5.2104301750659943e-02" rms="4.4737255573272705e-01" purity="6.7059385776519775e-01" nType="0">
          <Node pos="l" depth="2" NCoef="0" IVar="-1" Cut="0.0000000000000000e+00" cType="1" res="-7.0169765967875719e-04" rms="4.7410434484481812e-01" purity="5.7316631078720093e-01" nType="-99"/>
          <Node pos="r" depth="2" NCoef="0" IVar="-1" Cut="0.0000000000000000e+00" cType="1" res="2.2069546394050121e-03" rms="4.2989137768745422e-01" purity="7.1187460422515869e-01" nType="-99"/>
        </Node>
      </Node>
    </BinaryTree>
    <BinaryTree type="DecisionTree" boostWeight="1.0000000000000000e+00" itree="517">
      <Node pos="s" depth="0" NCoef="0" IVar="5" Cut="3.8899978995323181e-01" cType="1" res="-6.7822490818798542e-03" rms="4.7030124068260193e-01" purity="5.0350320339202881e-01" nType="0">
        <Node pos="l" depth="1" NCoef="0" IVar="4" Cut="6.2956909179687500e+02" cType="1" res="-4.2646944522857666e-02" rms="4.6980187296867371e-01" purity="4.6380922198295593e-01" nType="0">
          <Node pos="l" depth="2" NCoef="0" IVar="-1" Cut="0.0000000000000000e+00" cType="1" res="-1.2110171373933554e-03" rms="4.5467364788055420e-01" purity="3.9620363712310791e-01" nType="-99"/>
          <Node pos="r" depth="2" NCoef="0" IVar="-1" Cut="0.0000000000000000e+00" cType="1" res="-1.0996009223163128e-04" rms="4.7677516937255859e-01" purity="5.1083129644393921e-01" nType="-99"/>
        </Node>
        <Node pos="r" depth="1" NCoef="0" IVar="0" Cut="1.8089961242675781e+02" cType="1" res="2.1929431706666946e-02" rms="4.6872702240943909e-01" purity="5.3528046607971191e-01" nType="0">
          <Node pos="l" depth="2" NCoef="0" IVar="-1" Cut="0.0000000000000000e+00" cType="1" res="7.8841345384716988e-04" rms="4.6428489685058594e-01" purity="5.8923608064651489e-01" nType="-99"/>
          <Node pos="r" depth="2" NCoef="0" IVar="-1" Cut="0.0000000000000000e+00" cType="1" res="-1.8233915034215897e-04" rms="4.7262898087501526e-01" purity="4.6032631397247314e-01" nType="-99"/>
        </Node>
      </Node>
    </BinaryTree>
    <BinaryTree type="DecisionTree" boostWeight="1.0000000000000000e+00" itree="518">
      <Node pos="s" depth="0" NCoef="0" IVar="1" Cut="1.4708995056152344e+02" cType="1" res="-2.4558819830417633e-02" rms="4.7130048274993896e-01" purity="4.8596560955047607e-01" nType="0">
        <Node pos="l" depth="1" NCoef="0" IVar="4" Cut="4.9132504272460938e+02" cType="1" res="-1.5098711475729942e-02" rms="4.7538796067237854e-01" purity="5.0871646404266357e-01" nType="0">
          <Node pos="l" depth="2" NCoef="0" IVar="-1" Cut="0.0000000000000000e+00" cType="1" res="-1.3793958351016045e-03" rms="4.6151661872863770e-01" purity="3.9667415618896484e-01" nType="-99"/>
          <Node pos="r" depth="2" NCoef="0" IVar="-1" Cut="0.0000000000000000e+00" cType="1" res="-4.4001848436892033e-05" rms="4.7585654258728027e-01" purity="5.2359318733215332e-01" nType="-99"/>
        </Node>
        <Node pos="r" depth="1" NCoef="0" IVar="-1" Cut="0.0000000000000000e+00" cType="1" res="-1.4263893244788051e-03" rms="4.1078442335128784e-01" purity="2.3954609036445618e-01" nType="-99"/>
      </Node>
    </BinaryTree>
    <BinaryTree type="DecisionTree" boostWeight="1.0000000000000000e+00" itree="519">
      <Node pos="s" depth="0" NCoef="0" IVar="1" Cut="1.3286671447753906e+02" cType="1" res="-1.5814153477549553e-02" rms="4.7277596592903137e-01" purity="4.9674361944198608e-01" nType="0">
        <Node pos="l" depth="1" NCoef="0" IVar="1" Cut="1.0787286376953125e+02" cType="1" res="1.4951004413887858e-03" rms="4.7474199533462524e-01" purity="5.3614604473114014e-01" nType="0">
          <Node pos="l" depth="2" NCoef="0" IVar="-1" Cut="0.0000000000000000e+00" cType="1" res="-9.1430061729624867e-04" rms="4.6362251043319702e-01" purity="3.8051003217697144e-01" nType="-99"/>
          <Node pos="r" depth="2" NCoef="0" IVar="-1" Cut="0.0000000000000000e+00" cType="1" res="2.8627659776248038e-04" rms="4.7578266263008118e-01" purity="5.7150787115097046e-01" nType="-99"/>
        </Node>
        <Node pos="r" depth="1" NCoef="0" IVar="4" Cut="8.5795788574218750e+02" cType="1" res="-6.8640477955341339e-02" rms="4.6273839473724365e-01" purity="3.7649089097976685e-01" nType="0">
          <Node pos="l" depth="2" NCoef="0" IVar="-1" Cut="0.0000000000000000e+00" cType="1" res="-1.2003297451883554e-03" rms="4.5078942179679871e-01" purity="3.5204231739044189e-01" nType="-99"/>
          <Node pos="r" depth="2" NCoef="0" IVar="-1" Cut="0.0000000000000000e+00" cType="1" res="-3.0834256904199719e-04" rms="4.8025098443031311e-01" purity="4.2084169387817383e-01" nType="-99"/>
        </Node>
      </Node>
    </BinaryTree>
    <BinaryTree type="DecisionTree" boostWeight="1.0000000000000000e+00" itree="520">
      <Node pos="s" depth="0" NCoef="0" IVar="0" Cut="6.3170722961425781e+01" cType="1" res="6.7695374600589275e-03" rms="4.7383925318717957e-01" purity="5.1845091581344604e-01" nType="0">
        <Node pos="l" depth="1" NCoef="0" IVar="-1" Cut="0.0000000000000000e+00" cType="1" res="-1.3541236985474825e-03" rms="4.5278069376945496e-01" purity="3.3903312683105469e-01" nType="-99"/>
        <Node pos="r" depth="1" NCoef="0" IVar="2" Cut="1.3433157958984375e+03" cType="1" res="1.6993235796689987e-02" rms="4.7425955533981323e-01" purity="5.3409695625305176e-01" nType="0">
          <Node pos="l" depth="2" NCoef="0" IVar="-1" Cut="0.0000000000000000e+00" cType="1" res="6.4222700893878937e-04" rms="4.7062015533447266e-01" purity="5.6773585081100464e-01" nType="-99"/>
          <Node pos="r" depth="2" NCoef="0" IVar="-1" Cut="0.0000000000000000e+00" cType="1" res="-5.2031938685104251e-04" rms="4.7911113500595093e-01" purity="4.4862604141235352e-01" nType="-99"/>
        </Node>
      </Node>
    </BinaryTree>
    <BinaryTree type="DecisionTree" boostWeight="1.0000000000000000e+00" itree="521">
      <Node pos="s" depth="0" NCoef="0" IVar="2" Cut="1.0244472656250000e+03" cType="1" res="-1.2943879701197147e-03" rms="4.7073325514793396e-01" purity="5.0667643547058105e-01" nType="0">
        <Node pos="l" depth="1" NCoef="0" IVar="4" Cut="5.9888800048828125e+02" cType="1" res="2.9139818623661995e-02" rms="4.6719208359718323e-01" purity="5.5197840929031372e-01" nType="0">
          <Node pos="l" depth="2" NCoef="0" IVar="-1" Cut="0.0000000000000000e+00" cType="1" res="-3.5084594856016338e-04" rms="4.6560278534889221e-01" purity="4.8132210969924927e-01" nType="-99"/>
          <Node pos="r" depth="2" NCoef="0" IVar="-1" Cut="0.0000000000000000e+00" cType="1" res="1.5897727571427822e-03" rms="4.6209010481834412e-01" purity="6.2947946786880493e-01" nType="-99"/>
        </Node>
        <Node pos="r" depth="1" NCoef="0" IVar="4" Cut="7.2045477294921875e+02" cType="1" res="-3.2436400651931763e-02" rms="4.7230368852615356e-01" purity="4.6032083034515381e-01" nType="0">
          <Node pos="l" depth="2" NCoef="0" IVar="-1" Cut="0.0000000000000000e+00" cType="1" res="-2.1680481731891632e-03" rms="4.0456387400627136e-01" purity="2.2500544786453247e-01" nType="-99"/>
          <Node pos="r" depth="2" NCoef="0" IVar="-1" Cut="0.0000000000000000e+00" cType="1" res="8.3405720943119377e-05" rms="4.7862815856933594e-01" purity="5.1441282033920288e-01" nType="-99"/>
        </Node>
      </Node>
    </BinaryTree>
    <BinaryTree type="DecisionTree" boostWeight="1.0000000000000000e+00" itree="522">
      <Node pos="s" depth="0" NCoef="0" IVar="4" Cut="1.0000953979492188e+03" cType="1" res="-3.1746386084705591e-03" rms="4.7266241908073425e-01" purity="5.0555795431137085e-01" nType="0">
        <Node pos="l" depth="1" NCoef="0" IVar="2" Cut="1.0997131347656250e+03" cType="1" res="-1.8987005576491356e-02" rms="4.7142019867897034e-01" purity="4.8988485336303711e-01" nType="0">
          <Node pos="l" depth="2" NCoef="0" IVar="-1" Cut="0.0000000000000000e+00" cType="1" res="1.0088220005854964e-04" rms="4.7259894013404846e-01" purity="5.2616614103317261e-01" nType="-99"/>
          <Node pos="r" depth="2" NCoef="0" IVar="-1" Cut="0.0000000000000000e+00" cType="1" res="-1.0805287165567279e-03" rms="4.6266323328018188e-01" purity="4.0101501345634460e-01" nType="-99"/>
        </Node>
        <Node pos="r" depth="1" NCoef="0" IVar="2" Cut="1.7221934814453125e+03" cType="1" res="6.7859284579753876e-02" rms="4.7170877456665039e-01" purity="5.7596617937088013e-01" nType="0">
          <Node pos="l" depth="2" NCoef="0" IVar="-1" Cut="0.0000000000000000e+00" cType="1" res="3.1927244272083044e-03" rms="4.4074821472167969e-01" purity="6.8553626537322998e-01" nType="-99"/>
          <Node pos="r" depth="2" NCoef="0" IVar="-1" Cut="0.0000000000000000e+00" cType="1" res="-3.0496667022816837e-04" rms="4.8456874489784241e-01" purity="4.6656754612922668e-01" nType="-99"/>
        </Node>
      </Node>
    </BinaryTree>
    <BinaryTree type="DecisionTree" boostWeight="1.0000000000000000e+00" itree="523">
      <Node pos="s" depth="0" NCoef="0" IVar="0" Cut="2.0147238159179688e+02" cType="1" res="9.1870427131652832e-03" rms="4.7237321734428406e-01" purity="5.1972275972366333e-01" nType="0">
        <Node pos="l" depth="1" NCoef="0" IVar="1" Cut="1.3811051940917969e+02" cType="1" res="3.5188492387533188e-02" rms="4.6879830956459045e-01" purity="5.7400161027908325e-01" nType="0">
          <Node pos="l" depth="2" NCoef="0" IVar="-1" Cut="0.0000000000000000e+00" cType="1" res="8.4343971684575081e-04" rms="4.6784147620201111e-01" purity="6.0167104005813599e-01" nType="-99"/>
          <Node pos="r" depth="2" NCoef="0" IVar="-1" Cut="0.0000000000000000e+00" cType="1" res="-7.2202587034553289e-04" rms="4.6540570259094238e-01" purity="3.8558816909790039e-01" nType="-99"/>
        </Node>
        <Node pos="r" depth="1" NCoef="0" IVar="4" Cut="1.2252404785156250e+03" cType="1" res="-3.7922296673059464e-02" rms="4.7517180442810059e-01" purity="4.2138043045997620e-01" nType="0">
          <Node pos="l" depth="2" NCoef="0" IVar="-1" Cut="0.0000000000000000e+00" cType="1" res="-6.6819839412346482e-04" rms="4.7355774044990540e-01" purity="4.1389268636703491e-01" nType="-99"/>
          <Node pos="r" depth="2" NCoef="0" IVar="-1" Cut="0.0000000000000000e+00" cType="1" res="4.2368422145955265e-04" rms="4.7890871763229370e-01" purity="4.6457976102828979e-01" nType="-99"/>
        </Node>
      </Node>
    </BinaryTree>
    <BinaryTree type="DecisionTree" boostWeight="1.0000000000000000e+00" itree="524">
      <Node pos="s" depth="0" NCoef="0" IVar="5" Cut="8.3411592245101929e-01" cType="1" res="-7.8957283403724432e-04" rms="4.7406715154647827e-01" purity="5.1075315475463867e-01" nType="0">
        <Node pos="l" depth="1" NCoef="0" IVar="2" Cut="1.0994078369140625e+03" cType="1" res="-8.9979423210024834e-03" rms="4.7470355033874512e-01" purity="4.9711769819259644e-01" nType="0">
          <Node pos="l" depth="2" NCoef="0" IVar="-1" Cut="0.0000000000000000e+00" cType="1" res="2.3224507458508015e-04" rms="4.7411134839057922e-01" purity="5.3466117382049561e-01" nType="-99"/>
          <Node pos="r" depth="2" NCoef="0" IVar="-1" Cut="0.0000000000000000e+00" cType="1" res="-6.0242117615416646e-04" rms="4.7351923584938049e-01" purity="4.4284459948539734e-01" nType="-99"/>
        </Node>
        <Node pos="r" depth="1" NCoef="0" IVar="-1" Cut="0.0000000000000000e+00" cType="1" res="1.6382117755711079e-03" rms="4.5893746614456177e-01" purity="6.5156161785125732e-01" nType="-99"/>
      </Node>
    </BinaryTree>
    <BinaryTree type="DecisionTree" boostWeight="1.0000000000000000e+00" itree="525">
      <Node pos="s" depth="0" NCoef="0" IVar="1" Cut="1.3762495422363281e+02" cType="1" res="-1.5751412138342857e-02" rms="4.7307008504867554e-01" purity="4.9550825357437134e-01" nType="0">
        <Node pos="l" depth="1" NCoef="0" IVar="2" Cut="1.7934699707031250e+03" cType="1" res="-2.7921192813664675e-03" rms="4.7614881396293640e-01" purity="5.2923470735549927e-01" nType="0">
          <Node pos="l" depth="2" NCoef="0" IVar="-1" Cut="0.0000000000000000e+00" cType="1" res="1.1723782517947257e-04" rms="4.7523653507232666e-01" purity="5.4267781972885132e-01" nType="-99"/>
          <Node pos="r" depth="2" NCoef="0" IVar="-1" Cut="0.0000000000000000e+00" cType="1" res="-1.2515609851107001e-03" rms="4.7411757707595825e-01" purity="4.0313073992729187e-01" nType="-99"/>
        </Node>
        <Node pos="r" depth="1" NCoef="0" IVar="4" Cut="8.6843804931640625e+02" cType="1" res="-7.9280413687229156e-02" rms="4.5233836770057678e-01" purity="3.3017444610595703e-01" nType="0">
          <Node pos="l" depth="2" NCoef="0" IVar="-1" Cut="0.0000000000000000e+00" cType="1" res="-1.4148263726383448e-03" rms="4.3360367417335510e-01" purity="2.8757619857788086e-01" nType="-99"/>
          <Node pos="r" depth="2" NCoef="0" IVar="-1" Cut="0.0000000000000000e+00" cType="1" res="2.4135508283507079e-05" rms="4.7767409682273865e-01" purity="4.1590240597724915e-01" nType="-99"/>
        </Node>
      </Node>
    </BinaryTree>
    <BinaryTree type="DecisionTree" boostWeight="1.0000000000000000e+00" itree="526">
      <Node pos="s" depth="0" NCoef="0" IVar="4" Cut="1.0000953979492188e+03" cType="1" res="-2.0553883165121078e-02" rms="4.7176352143287659e-01" purity="4.8911932110786438e-01" nType="0">
        <Node pos="l" depth="1" NCoef="0" IVar="2" Cut="1.3767014160156250e+03" cType="1" res="-3.8211107254028320e-02" rms="4.7030556201934814e-01" purity="4.7348561882972717e-01" nType="0">
          <Node pos="l" depth="2" NCoef="0" IVar="-1" Cut="0.0000000000000000e+00" cType="1" res="-3.7429557414725423e-04" rms="4.6991038322448730e-01" purity="4.9125012755393982e-01" nType="-99"/>
          <Node pos="r" depth="2" NCoef="0" IVar="-1" Cut="0.0000000000000000e+00" cType="1" res="-1.8686486873775721e-03" rms="4.5820447802543640e-01" purity="3.2087129354476929e-01" nType="-99"/>
        </Node>
        <Node pos="r" depth="1" NCoef="0" IVar="0" Cut="3.2583569335937500e+02" cType="1" res="5.5458407849073410e-02" rms="4.7048220038414001e-01" purity="5.5642068386077881e-01" nType="0">
          <Node pos="l" depth="2" NCoef="0" IVar="-1" Cut="0.0000000000000000e+00" cType="1" res="1.7509949393570423e-03" rms="4.5977136492729187e-01" purity="6.3496738672256470e-01" nType="-99"/>
          <Node pos="r" depth="2" NCoef="0" IVar="-1" Cut="0.0000000000000000e+00" cType="1" res="-2.8064777143299580e-04" rms="4.7986516356468201e-01" purity="4.1410523653030396e-01" nType="-99"/>
        </Node>
      </Node>
    </BinaryTree>
    <BinaryTree type="DecisionTree" boostWeight="1.0000000000000000e+00" itree="527">
      <Node pos="s" depth="0" NCoef="0" IVar="1" Cut="1.4416984558105469e+02" cType="1" res="-1.5750655904412270e-02" rms="4.7211518883705139e-01" purity="4.9321448802947998e-01" nType="0">
        <Node pos="l" depth="1" NCoef="0" IVar="0" Cut="6.7065048217773438e+01" cType="1" res="-5.7553951628506184e-03" rms="4.7492778301239014e-01" purity="5.1686239242553711e-01" nType="0">
          <Node pos="l" depth="2" NCoef="0" IVar="-1" Cut="0.0000000000000000e+00" cType="1" res="-1.0918664047494531e-03" rms="4.7378906607627869e-01" purity="3.6599117517471313e-01" nType="-99"/>
          <Node pos="r" depth="2" NCoef="0" IVar="-1" Cut="0.0000000000000000e+00" cType="1" res="4.9272977776126936e-05" rms="4.7421258687973022e-01" purity="5.3328579664230347e-01" nType="-99"/>
        </Node>
        <Node pos="r" depth="1" NCoef="0" IVar="-1" Cut="0.0000000000000000e+00" cType="1" res="-1.2984913773834705e-03" rms="4.3359604477882385e-01" purity="2.7050662040710449e-01" nType="-99"/>
      </Node>
    </BinaryTree>
    <BinaryTree type="DecisionTree" boostWeight="1.0000000000000000e+00" itree="528">
      <Node pos="s" depth="0" NCoef="0" IVar="0" Cut="8.9931587219238281e+01" cType="1" res="-1.7437450587749481e-02" rms="4.7426754236221313e-01" purity="4.9231150746345520e-01" nType="0">
        <Node pos="l" depth="1" NCoef="0" IVar="5" Cut="6.4033514261245728e-01" cType="1" res="-7.8070402145385742e-02" rms="4.6925908327102661e-01" purity="3.9740908145904541e-01" nType="0">
          <Node pos="l" depth="2" NCoef="0" IVar="-1" Cut="0.0000000000000000e+00" cType="1" res="-1.2465066974982619e-03" rms="4.6261975169181824e-01" purity="3.7236037850379944e-01" nType="-99"/>
          <Node pos="r" depth="2" NCoef="0" IVar="-1" Cut="0.0000000000000000e+00" cType="1" res="-4.6395853860303760e-04" rms="4.8146390914916992e-01" purity="4.5651265978813171e-01" nType="-99"/>
        </Node>
        <Node pos="r" depth="1" NCoef="0" IVar="0" Cut="4.5834704589843750e+02" cType="1" res="-3.4243694972246885e-03" rms="4.7431617975234985e-01" purity="5.1424467563629150e-01" nType="0">
          <Node pos="l" depth="2" NCoef="0" IVar="-1" Cut="0.0000000000000000e+00" cType="1" res="9.7044350695796311e-05" rms="4.7508314251899719e-01" purity="5.3311467170715332e-01" nType="-99"/>
          <Node pos="r" depth="2" NCoef="0" IVar="-1" Cut="0.0000000000000000e+00" cType="1" res="-1.2781927362084389e-03" rms="4.5400777459144592e-01" purity="3.1507483124732971e-01" nType="-99"/>
        </Node>
      </Node>
    </BinaryTree>
    <BinaryTree type="DecisionTree" boostWeight="1.0000000000000000e+00" itree="529">
      <Node pos="s" depth="0" NCoef="0" IVar="2" Cut="7.2529016113281250e+02" cType="1" res="-2.4261867627501488e-02" rms="4.7177588939666748e-01" purity="4.8138499259948730e-01" nType="0">
        <Node pos="l" depth="1" NCoef="0" IVar="4" Cut="5.0737106323242188e+02" cType="1" res="5.1581803709268570e-02" rms="4.7336760163307190e-01" purity="6.0773313045501709e-01" nType="0">
          <Node pos="l" depth="2" NCoef="0" IVar="-1" Cut="0.0000000000000000e+00" cType="1" res="-2.6087160222232342e-04" rms="4.9203100800514221e-01" purity="5.1983129978179932e-01" nType="-99"/>
          <Node pos="r" depth="2" NCoef="0" IVar="-1" Cut="0.0000000000000000e+00" cType="1" res="3.5049510188400745e-03" rms="4.2708706855773926e-01" purity="7.3213112354278564e-01" nType="-99"/>
        </Node>
        <Node pos="r" depth="1" NCoef="0" IVar="4" Cut="5.6099597167968750e+02" cType="1" res="-3.9363268762826920e-02" rms="4.6999952197074890e-01" purity="4.5622754096984863e-01" nType="0">
          <Node pos="l" depth="2" NCoef="0" IVar="-1" Cut="0.0000000000000000e+00" cType="1" res="-1.9158106297254562e-03" rms="4.0246263146400452e-01" purity="2.4412241578102112e-01" nType="-99"/>
          <Node pos="r" depth="2" NCoef="0" IVar="-1" Cut="0.0000000000000000e+00" cType="1" res="-3.4751626662909985e-04" rms="4.7481498122215271e-01" purity="4.8079794645309448e-01" nType="-99"/>
        </Node>
      </Node>
    </BinaryTree>
    <BinaryTree type="DecisionTree" boostWeight="1.0000000000000000e+00" itree="530">
      <Node pos="s" depth="0" NCoef="0" IVar="0" Cut="1.0905315399169922e+02" cType="1" res="-1.3040008954703808e-02" rms="4.7513595223426819e-01" purity="4.9785807728767395e-01" nType="0">
        <Node pos="l" depth="1" NCoef="0" IVar="0" Cut="8.0582084655761719e+01" cType="1" res="-5.0008174031972885e-02" rms="4.8147672414779663e-01" purity="4.6193903684616089e-01" nType="0">
          <Node pos="l" depth="2" NCoef="0" IVar="-1" Cut="0.0000000000000000e+00" cType="1" res="-1.2919418513774872e-03" rms="4.6555212140083313e-01" purity="3.6201056838035583e-01" nType="-99"/>
          <Node pos="r" depth="2" NCoef="0" IVar="-1" Cut="0.0000000000000000e+00" cType="1" res="-1.0191553883487359e-05" rms="4.9114814400672913e-01" purity="5.5737060308456421e-01" nType="-99"/>
        </Node>
        <Node pos="r" depth="1" NCoef="0" IVar="0" Cut="3.2232180786132812e+02" cType="1" res="2.3182013537734747e-03" rms="4.7162547707557678e-01" purity="5.1278036832809448e-01" nType="0">
          <Node pos="l" depth="2" NCoef="0" IVar="-1" Cut="0.0000000000000000e+00" cType="1" res="4.1620887350291014e-04" rms="4.7261318564414978e-01" purity="5.5904084444046021e-01" nType="-99"/>
          <Node pos="r" depth="2" NCoef="0" IVar="-1" Cut="0.0000000000000000e+00" cType="1" res="-9.6532737370580435e-04" rms="4.5946204662322998e-01" purity="3.5237860679626465e-01" nType="-99"/>
        </Node>
      </Node>
    </BinaryTree>
    <BinaryTree type="DecisionTree" boostWeight="1.0000000000000000e+00" itree="531">
      <Node pos="s" depth="0" NCoef="0" IVar="3" Cut="8.7397348880767822e-01" cType="1" res="-2.3497205227613449e-02" rms="4.6985974907875061e-01" purity="4.8731103539466858e-01" nType="0">
        <Node pos="l" depth="1" NCoef="0" IVar="1" Cut="1.3227906799316406e+02" cType="1" res="-7.2802707552909851e-02" rms="4.6523925662040710e-01" purity="3.6141803860664368e-01" nType="0">
          <Node pos="l" depth="2" NCoef="0" IVar="-1" Cut="0.0000000000000000e+00" cType="1" res="-5.7176942937076092e-04" rms="4.7722157835960388e-01" purity="4.0580964088439941e-01" nType="-99"/>
          <Node pos="r" depth="2" NCoef="0" IVar="-1" Cut="0.0000000000000000e+00" cType="1" res="-1.5638947952538729e-03" rms="4.2649337649345398e-01" purity="2.5064617395401001e-01" nType="-99"/>
        </Node>
        <Node pos="r" depth="1" NCoef="0" IVar="4" Cut="1.1318413085937500e+03" cType="1" res="-8.8705052621662617e-04" rms="4.7023770213127136e-01" purity="5.4504215717315674e-01" nType="0">
          <Node pos="l" depth="2" NCoef="0" IVar="-1" Cut="0.0000000000000000e+00" cType="1" res="-2.0568919717334211e-04" rms="4.7099152207374573e-01" purity="5.3726136684417725e-01" nType="-99"/>
          <Node pos="r" depth="2" NCoef="0" IVar="-1" Cut="0.0000000000000000e+00" cType="1" res="1.6081064241006970e-03" rms="4.5423191785812378e-01" purity="6.0580694675445557e-01" nType="-99"/>
        </Node>
      </Node>
    </BinaryTree>
    <BinaryTree type="DecisionTree" boostWeight="1.0000000000000000e+00" itree="532">
      <Node pos="s" depth="0" NCoef="0" IVar="1" Cut="1.0691110992431641e+02" cType="1" res="-9.9309459328651428e-03" rms="4.7394773364067078e-01" purity="5.0103986263275146e-01" nType="0">
        <Node pos="l" depth="1" NCoef="0" IVar="2" Cut="1.1036870117187500e+03" cType="1" res="-8.2767918705940247e-02" rms="4.5344612002372742e-01" purity="3.4864312410354614e-01" nType="0">
          <Node pos="l" depth="2" NCoef="0" IVar="-1" Cut="0.0000000000000000e+00" cType="1" res="-2.8011720860376954e-04" rms="4.6052360534667969e-01" purity="4.1867312788963318e-01" nType="-99"/>
          <Node pos="r" depth="2" NCoef="0" IVar="-1" Cut="0.0000000000000000e+00" cType="1" res="-1.5428160550072789e-03" rms="4.4096750020980835e-01" purity="2.9127079248428345e-01" nType="-99"/>
        </Node>
        <Node pos="r" depth="1" NCoef="0" IVar="4" Cut="5.1533831787109375e+02" cType="1" res="9.0354087296873331e-04" rms="4.7597068548202515e-01" purity="5.2370882034301758e-01" nType="0">
          <Node pos="l" depth="2" NCoef="0" IVar="-1" Cut="0.0000000000000000e+00" cType="1" res="-9.1250042896717787e-04" rms="4.6719375252723694e-01" purity="4.3942207098007202e-01" nType="-99"/>
          <Node pos="r" depth="2" NCoef="0" IVar="-1" Cut="0.0000000000000000e+00" cType="1" res="1.7894159827847034e-04" rms="4.7654840350151062e-01" purity="5.3733301162719727e-01" nType="-99"/>
        </Node>
      </Node>
    </BinaryTree>
    <BinaryTree type="DecisionTree" boostWeight="1.0000000000000000e+00" itree="533">
      <Node pos="s" depth="0" NCoef="0" IVar="4" Cut="1.0874218750000000e+03" cType="1" res="8.0937007442116737e-03" rms="4.7309148311614990e-01" purity="5.1945364475250244e-01" nType="0">
        <Node pos="l" depth="1" NCoef="0" IVar="2" Cut="1.0440008544921875e+03" cType="1" res="-3.5327975638210773e-03" rms="4.7320535778999329e-01" purity="5.1159739494323730e-01" nType="0">
          <Node pos="l" depth="2" NCoef="0" IVar="-1" Cut="0.0000000000000000e+00" cType="1" res="3.9786376873962581e-04" rms="4.7410702705383301e-01" purity="5.5366742610931396e-01" nType="-99"/>
          <Node pos="r" depth="2" NCoef="0" IVar="-1" Cut="0.0000000000000000e+00" cType="1" res="-6.7519664298743010e-04" rms="4.6837845444679260e-01" purity="4.4443666934967041e-01" nType="-99"/>
        </Node>
        <Node pos="r" depth="1" NCoef="0" IVar="2" Cut="1.7083646240234375e+03" cType="1" res="7.9240120947360992e-02" rms="4.6611928939819336e-01" purity="5.6752860546112061e-01" nType="0">
          <Node pos="l" depth="2" NCoef="0" IVar="-1" Cut="0.0000000000000000e+00" cType="1" res="3.0024421866983175e-03" rms="4.4609516859054565e-01" purity="6.6560655832290649e-01" nType="-99"/>
          <Node pos="r" depth="2" NCoef="0" IVar="-1" Cut="0.0000000000000000e+00" cType="1" res="5.2183168008923531e-04" rms="4.7308740019798279e-01" purity="5.0397104024887085e-01" nType="-99"/>
        </Node>
      </Node>
    </BinaryTree>
    <BinaryTree type="DecisionTree" boostWeight="1.0000000000000000e+00" itree="534">
      <Node pos="s" depth="0" NCoef="0" IVar="0" Cut="1.6579058837890625e+02" cType="1" res="-5.9214746579527855e-03" rms="4.7300335764884949e-01" purity="5.0285881757736206e-01" nType="0">
        <Node pos="l" depth="1" NCoef="0" IVar="0" Cut="8.5091712951660156e+01" cType="1" res="2.2664351388812065e-02" rms="4.6901741623878479e-01" purity="5.6147235631942749e-01" nType="0">
          <Node pos="l" depth="2" NCoef="0" IVar="-1" Cut="0.0000000000000000e+00" cType="1" res="-6.8867317168042064e-04" rms="4.7104451060295105e-01" purity="4.1598457098007202e-01" nType="-99"/>
          <Node pos="r" depth="2" NCoef="0" IVar="-1" Cut="0.0000000000000000e+00" cType="1" res="9.6375693101435900e-04" rms="4.6463626623153687e-01" purity="6.2250381708145142e-01" nType="-99"/>
        </Node>
        <Node pos="r" depth="1" NCoef="0" IVar="4" Cut="6.5092877197265625e+02" cType="1" res="-4.1604012250900269e-02" rms="4.7552698850631714e-01" purity="4.2969393730163574e-01" nType="0">
          <Node pos="l" depth="2" NCoef="0" IVar="-1" Cut="0.0000000000000000e+00" cType="1" res="-1.3533021556213498e-03" rms="4.5308175683021545e-01" purity="3.4737548232078552e-01" nType="-99"/>
          <Node pos="r" depth="2" NCoef="0" IVar="-1" Cut="0.0000000000000000e+00" cType="1" res="-2.1863130677957088e-04" rms="4.8175665736198425e-01" purity="4.6273249387741089e-01" nType="-99"/>
        </Node>
      </Node>
    </BinaryTree>
    <BinaryTree type="DecisionTree" boostWeight="1.0000000000000000e+00" itree="535">
      <Node pos="s" depth="0" NCoef="0" IVar="2" Cut="6.8409606933593750e+02" cType="1" res="-7.0082857273519039e-03" rms="4.7486528754234314e-01" purity="5.0306802988052368e-01" nType="0">
        <Node pos="l" depth="1" NCoef="0" IVar="5" Cut="3.4398192167282104e-01" cType="1" res="6.3581079244613647e-02" rms="4.7348225116729736e-01" purity="6.2240940332412720e-01" nType="0">
          <Node pos="l" depth="2" NCoef="0" IVar="-1" Cut="0.0000000000000000e+00" cType="1" res="2.3129097826313227e-05" rms="4.8708710074424744e-01" purity="5.5801755189895630e-01" nType="-99"/>
          <Node pos="r" depth="2" NCoef="0" IVar="-1" Cut="0.0000000000000000e+00" cType="1" res="2.5482526980340481e-03" rms="4.5191949605941772e-01" purity="6.8454587459564209e-01" nType="-99"/>
        </Node>
        <Node pos="r" depth="1" NCoef="0" IVar="4" Cut="6.5530377197265625e+02" cType="1" res="-1.7783179879188538e-02" rms="4.7415247559547424e-01" purity="4.8485150933265686e-01" nType="0">
          <Node pos="l" depth="2" NCoef="0" IVar="-1" Cut="0.0000000000000000e+00" cType="1" res="-9.8861556034535170e-04" rms="4.5744293928146362e-01" purity="3.8777396082878113e-01" nType="-99"/>
          <Node pos="r" depth="2" NCoef="0" IVar="-1" Cut="0.0000000000000000e+00" cType="1" res="1.3572959869634360e-04" rms="4.7903397679328918e-01" purity="5.2802437543869019e-01" nType="-99"/>
        </Node>
      </Node>
    </BinaryTree>
    <BinaryTree type="DecisionTree" boostWeight="1.0000000000000000e+00" itree="536">
      <Node pos="s" depth="0" NCoef="0" IVar="0" Cut="1.8119171142578125e+02" cType="1" res="-8.6360014975070953e-03" rms="4.7197842597961426e-01" purity="4.9733543395996094e-01" nType="0">
        <Node pos="l" depth="1" NCoef="0" IVar="5" Cut="3.9565259218215942e-01" cType="1" res="1.6400456428527832e-02" rms="4.7216552495956421e-01" purity="5.5479782819747925e-01" nType="0">
          <Node pos="l" depth="2" NCoef="0" IVar="-1" Cut="0.0000000000000000e+00" cType="1" res="-4.0404297760687768e-04" rms="4.7524306178092957e-01" purity="5.0760781764984131e-01" nType="-99"/>
          <Node pos="r" depth="2" NCoef="0" IVar="-1" Cut="0.0000000000000000e+00" cType="1" res="9.3370169633999467e-04" rms="4.6602421998977661e-01" purity="5.9777343273162842e-01" nType="-99"/>
        </Node>
        <Node pos="r" depth="1" NCoef="0" IVar="4" Cut="6.2649176025390625e+02" cType="1" res="-4.5021783560514450e-02" rms="4.6933147311210632e-01" purity="4.1382473707199097e-01" nType="0">
          <Node pos="l" depth="2" NCoef="0" IVar="-1" Cut="0.0000000000000000e+00" cType="1" res="-1.5207782853394747e-03" rms="4.2243432998657227e-01" purity="2.9839581251144409e-01" nType="-99"/>
          <Node pos="r" depth="2" NCoef="0" IVar="-1" Cut="0.0000000000000000e+00" cType="1" res="-2.9229553183540702e-04" rms="4.7952371835708618e-01" purity="4.4778943061828613e-01" nType="-99"/>
        </Node>
      </Node>
    </BinaryTree>
    <BinaryTree type="DecisionTree" boostWeight="1.0000000000000000e+00" itree="537">
      <Node pos="s" depth="0" NCoef="0" IVar="5" Cut="1.7783865332603455e-01" cType="1" res="-5.8419769629836082e-03" rms="4.7084447741508484e-01" purity="5.0443917512893677e-01" nType="0">
        <Node pos="l" depth="1" NCoef="0" IVar="4" Cut="7.2120239257812500e+02" cType="1" res="-9.6096396446228027e-02" rms="4.7165536880493164e-01" purity="4.1510653495788574e-01" nType="0">
          <Node pos="l" depth="2" NCoef="0" IVar="-1" Cut="0.0000000000000000e+00" cType="1" res="-1.8058337736874819e-03" rms="4.7060799598693848e-01" purity="3.8632947206497192e-01" nType="-99"/>
          <Node pos="r" depth="2" NCoef="0" IVar="-1" Cut="0.0000000000000000e+00" cType="1" res="-6.8280519917607307e-04" rms="4.6866926550865173e-01" purity="4.5836386084556580e-01" nType="-99"/>
        </Node>
        <Node pos="r" depth="1" NCoef="0" IVar="1" Cut="1.4210603332519531e+02" cType="1" res="7.8172320500016212e-03" rms="4.6921154856681824e-01" purity="5.1795887947082520e-01" nType="0">
          <Node pos="l" depth="2" NCoef="0" IVar="-1" Cut="0.0000000000000000e+00" cType="1" res="3.4023012267425656e-04" rms="4.7224295139312744e-01" purity="5.4927033185958862e-01" nType="-99"/>
          <Node pos="r" depth="2" NCoef="0" IVar="-1" Cut="0.0000000000000000e+00" cType="1" res="-1.0848497040569782e-03" rms="4.3375805020332336e-01" purity="2.8662961721420288e-01" nType="-99"/>
        </Node>
      </Node>
    </BinaryTree>
    <BinaryTree type="DecisionTree" boostWeight="1.0000000000000000e+00" itree="538">
      <Node pos="s" depth="0" NCoef="0" IVar="1" Cut="1.3507324218750000e+02" cType="1" res="-3.1107843387871981e-03" rms="4.7297435998916626e-01" purity="5.0746870040893555e-01" nType="0">
        <Node pos="l" depth="1" NCoef="0" IVar="0" Cut="1.5701475524902344e+02" cType="1" res="1.7007445916533470e-02" rms="4.7592687606811523e-01" purity="5.5248963832855225e-01" nType="0">
          <Node pos="l" depth="2" NCoef="0" IVar="-1" Cut="0.0000000000000000e+00" cType="1" res="6.8582070525735617e-04" rms="4.6893465518951416e-01" purity="5.9937268495559692e-01" nType="-99"/>
          <Node pos="r" depth="2" NCoef="0" IVar="-1" Cut="0.0000000000000000e+00" cType="1" res="-1.5955387789290398e-04" rms="4.8322877287864685e-01" purity="4.9302658438682556e-01" nType="-99"/>
        </Node>
        <Node pos="r" depth="1" NCoef="0" IVar="5" Cut="2.8124886751174927e-01" cType="1" res="-7.4026554822921753e-02" rms="4.5538264513015747e-01" purity="3.4877210855484009e-01" nType="0">
          <Node pos="l" depth="2" NCoef="0" IVar="-1" Cut="0.0000000000000000e+00" cType="1" res="1.9760329450946301e-04" rms="4.7424346208572388e-01" purity="4.4111377000808716e-01" nType="-99"/>
          <Node pos="r" depth="2" NCoef="0" IVar="-1" Cut="0.0000000000000000e+00" cType="1" res="-1.2185208033770323e-03" rms="4.4459545612335205e-01" purity="3.1645354628562927e-01" nType="-99"/>
        </Node>
      </Node>
    </BinaryTree>
    <BinaryTree type="DecisionTree" boostWeight="1.0000000000000000e+00" itree="539">
      <Node pos="s" depth="0" NCoef="0" IVar="2" Cut="1.0622512207031250e+03" cType="1" res="-1.1820019222795963e-02" rms="4.7437590360641479e-01" purity="4.9997067451477051e-01" nType="0">
        <Node pos="l" depth="1" NCoef="0" IVar="4" Cut="6.7063940429687500e+02" cType="1" res="9.9478177726268768e-03" rms="4.7056990861892700e-01" purity="5.3391331434249878e-01" nType="0">
          <Node pos="l" depth="2" NCoef="0" IVar="-1" Cut="0.0000000000000000e+00" cType="1" res="-2.7575885178521276e-04" rms="4.6909931302070618e-01" purity="4.8885592818260193e-01" nType="-99"/>
          <Node pos="r" depth="2" NCoef="0" IVar="-1" Cut="0.0000000000000000e+00" cType="1" res="1.3267588801681995e-03" rms="4.6783354878425598e-01" purity="6.3385480642318726e-01" nType="-99"/>
        </Node>
        <Node pos="r" depth="1" NCoef="0" IVar="4" Cut="9.0817260742187500e+02" cType="1" res="-3.7410233169794083e-02" rms="4.7754430770874023e-01" purity="4.6006780862808228e-01" nType="0">
          <Node pos="l" depth="2" NCoef="0" IVar="-1" Cut="0.0000000000000000e+00" cType="1" res="-1.2198237236589193e-03" rms="4.6299529075622559e-01" purity="3.8484334945678711e-01" nType="-99"/>
          <Node pos="r" depth="2" NCoef="0" IVar="-1" Cut="0.0000000000000000e+00" cType="1" res="1.0459524492034689e-04" rms="4.8396870493888855e-01" purity="5.1850688457489014e-01" nType="-99"/>
        </Node>
      </Node>
    </BinaryTree>
    <BinaryTree type="DecisionTree" boostWeight="1.0000000000000000e+00" itree="540">
      <Node pos="s" depth="0" NCoef="0" IVar="2" Cut="1.1431435546875000e+03" cType="1" res="2.0136982202529907e-03" rms="4.6873688697814941e-01" purity="5.0938200950622559e-01" nType="0">
        <Node pos="l" depth="1" NCoef="0" IVar="4" Cut="6.8535150146484375e+02" cType="1" res="2.9040021821856499e-02" rms="4.6633249521255493e-01" purity="5.4961091279983521e-01" nType="0">
          <Node pos="l" depth="2" NCoef="0" IVar="-1" Cut="0.0000000000000000e+00" cType="1" res="5.4553618156205630e-07" rms="4.6682569384574890e-01" purity="5.0303435325622559e-01" nType="-99"/>
          <Node pos="r" depth="2" NCoef="0" IVar="-1" Cut="0.0000000000000000e+00" cType="1" res="1.8012755317613482e-03" rms="4.5901975035667419e-01" purity="6.5050673484802246e-01" nType="-99"/>
        </Node>
        <Node pos="r" depth="1" NCoef="0" IVar="4" Cut="9.0887750244140625e+02" cType="1" res="-4.0458265691995621e-02" rms="4.6935668587684631e-01" purity="4.4616210460662842e-01" nType="0">
          <Node pos="l" depth="2" NCoef="0" IVar="-1" Cut="0.0000000000000000e+00" cType="1" res="-1.7529424512758851e-03" rms="4.3093103170394897e-01" purity="3.0931398272514343e-01" nType="-99"/>
          <Node pos="r" depth="2" NCoef="0" IVar="-1" Cut="0.0000000000000000e+00" cType="1" res="4.9567455425858498e-04" rms="4.7891864180564880e-01" purity="5.3398382663726807e-01" nType="-99"/>
        </Node>
      </Node>
    </BinaryTree>
    <BinaryTree type="DecisionTree" boostWeight="1.0000000000000000e+00" itree="541">
      <Node pos="s" depth="0" NCoef="0" IVar="0" Cut="2.1694364929199219e+02" cType="1" res="-6.5901647321879864e-03" rms="4.6783170104026794e-01" purity="4.9900880455970764e-01" nType="0">
        <Node pos="l" depth="1" NCoef="0" IVar="0" Cut="8.7004844665527344e+01" cType="1" res="1.9748892635107040e-02" rms="4.6877145767211914e-01" purity="5.5427670478820801e-01" nType="0">
          <Node pos="l" depth="2" NCoef="0" IVar="-1" Cut="0.0000000000000000e+00" cType="1" res="-6.4291839953511953e-04" rms="4.6776378154754639e-01" purity="4.2293575406074524e-01" nType="-99"/>
          <Node pos="r" depth="2" NCoef="0" IVar="-1" Cut="0.0000000000000000e+00" cType="1" res="7.0243957452476025e-04" rms="4.6715158224105835e-01" purity="5.9504091739654541e-01" nType="-99"/>
        </Node>
        <Node pos="r" depth="1" NCoef="0" IVar="1" Cut="1.2853198242187500e+02" cType="1" res="-6.0856539756059647e-02" rms="4.6117126941680908e-01" purity="3.8514044880867004e-01" nType="0">
          <Node pos="l" depth="2" NCoef="0" IVar="-1" Cut="0.0000000000000000e+00" cType="1" res="-4.0924319182522595e-04" rms="4.6765926480293274e-01" purity="4.3698701262474060e-01" nType="-99"/>
          <Node pos="r" depth="2" NCoef="0" IVar="-1" Cut="0.0000000000000000e+00" cType="1" res="-1.2491489760577679e-03" rms="4.4925901293754578e-01" purity="3.1716361641883850e-01" nType="-99"/>
        </Node>
      </Node>
    </BinaryTree>
    <BinaryTree type="DecisionTree" boostWeight="1.0000000000000000e+00" itree="542">
      <Node pos="s" depth="0" NCoef="0" IVar="4" Cut="5.4047155761718750e+02" cType="1" res="-9.9685089662671089e-03" rms="4.7227749228477478e-01" purity="4.9861836433410645e-01" nType="0">
        <Node pos="l" depth="1" NCoef="0" IVar="2" Cut="6.6713946533203125e+02" cType="1" res="-8.9282020926475525e-02" rms="4.5650070905685425e-01" purity="4.0469607710838318e-01" nType="0">
          <Node pos="l" depth="2" NCoef="0" IVar="-1" Cut="0.0000000000000000e+00" cType="1" res="9.4573915703222156e-05" rms="4.8156395554542542e-01" purity="5.6210643053054810e-01" nType="-99"/>
          <Node pos="r" depth="2" NCoef="0" IVar="-1" Cut="0.0000000000000000e+00" cType="1" res="-1.9953276496380568e-03" rms="4.1326344013214111e-01" purity="2.5974211096763611e-01" nType="-99"/>
        </Node>
        <Node pos="r" depth="1" NCoef="0" IVar="1" Cut="9.9764961242675781e+01" cType="1" res="9.3392068520188332e-03" rms="4.7403478622436523e-01" purity="5.2148240804672241e-01" nType="0">
          <Node pos="l" depth="2" NCoef="0" IVar="-1" Cut="0.0000000000000000e+00" cType="1" res="-1.1557551333680749e-03" rms="4.5334899425506592e-01" purity="3.1150165200233459e-01" nType="-99"/>
          <Node pos="r" depth="2" NCoef="0" IVar="-1" Cut="0.0000000000000000e+00" cType="1" res="3.0255349702201784e-04" rms="4.7473883628845215e-01" purity="5.4082131385803223e-01" nType="-99"/>
        </Node>
      </Node>
    </BinaryTree>
    <BinaryTree type="DecisionTree" boostWeight="1.0000000000000000e+00" itree="543">
      <Node pos="s" depth="0" NCoef="0" IVar="4" Cut="8.9402337646484375e+02" cType="1" res="-8.8613973930478096e-03" rms="4.7443521022796631e-01" purity="5.0356519222259521e-01" nType="0">
        <Node pos="l" depth="1" NCoef="0" IVar="2" Cut="1.0997131347656250e+03" cType="1" res="-2.9504628852009773e-02" rms="4.7400328516960144e-01" purity="4.8469182848930359e-01" nType="0">
          <Node pos="l" depth="2" NCoef="0" IVar="-1" Cut="0.0000000000000000e+00" cType="1" res="-9.6499688879703172e-06" rms="4.7540462017059326e-01" purity="5.2564054727554321e-01" nType="-99"/>
          <Node pos="r" depth="2" NCoef="0" IVar="-1" Cut="0.0000000000000000e+00" cType="1" res="-1.5751282917335629e-03" rms="4.5452421903610229e-01" purity="3.3996874094009399e-01" nType="-99"/>
        </Node>
        <Node pos="r" depth="1" NCoef="0" IVar="2" Cut="1.4106103515625000e+03" cType="1" res="4.6050701290369034e-02" rms="4.7120013833045959e-01" purity="5.5376929044723511e-01" nType="0">
          <Node pos="l" depth="2" NCoef="0" IVar="-1" Cut="0.0000000000000000e+00" cType="1" res="2.9079467058181763e-03" rms="4.5335423946380615e-01" purity="6.9994503259658813e-01" nType="-99"/>
          <Node pos="r" depth="2" NCoef="0" IVar="-1" Cut="0.0000000000000000e+00" cType="1" res="-6.4958498114719987e-05" rms="4.7229295969009399e-01" purity="4.7824788093566895e-01" nType="-99"/>
        </Node>
      </Node>
    </BinaryTree>
    <BinaryTree type="DecisionTree" boostWeight="1.0000000000000000e+00" itree="544">
      <Node pos="s" depth="0" NCoef="0" IVar="2" Cut="6.9515893554687500e+02" cType="1" res="-1.3853912241756916e-03" rms="4.7454294562339783e-01" purity="5.0949972867965698e-01" nType="0">
        <Node pos="l" depth="1" NCoef="0" IVar="4" Cut="4.7947631835937500e+02" cType="1" res="5.5146854370832443e-02" rms="4.6826049685478210e-01" purity="6.1458396911621094e-01" nType="0">
          <Node pos="l" depth="2" NCoef="0" IVar="-1" Cut="0.0000000000000000e+00" cType="1" res="-5.8343546697869897e-04" rms="4.9308648705482483e-01" purity="4.9664071202278137e-01" nType="-99"/>
          <Node pos="r" depth="2" NCoef="0" IVar="-1" Cut="0.0000000000000000e+00" cType="1" res="3.5105978604406118e-03" rms="4.1967877745628357e-01" purity="7.3509335517883301e-01" nType="-99"/>
        </Node>
        <Node pos="r" depth="1" NCoef="0" IVar="4" Cut="5.7872491455078125e+02" cType="1" res="-1.0665209032595158e-02" rms="4.7492375969886780e-01" purity="4.9225005507469177e-01" nType="0">
          <Node pos="l" depth="2" NCoef="0" IVar="-1" Cut="0.0000000000000000e+00" cType="1" res="-1.0939553612843156e-03" rms="4.5380800962448120e-01" purity="3.6230918765068054e-01" nType="-99"/>
          <Node pos="r" depth="2" NCoef="0" IVar="-1" Cut="0.0000000000000000e+00" cType="1" res="1.0273316547682043e-05" rms="4.7719225287437439e-01" purity="5.1279711723327637e-01" nType="-99"/>
        </Node>
      </Node>
    </BinaryTree>
    <BinaryTree type="DecisionTree" boostWeight="1.0000000000000000e+00" itree="545">
      <Node pos="s" depth="0" NCoef="0" IVar="0" Cut="6.4517669677734375e+01" cType="1" res="-8.3520961925387383e-03" rms="4.7123214602470398e-01" purity="5.0091201066970825e-01" nType="0">
        <Node pos="l" depth="1" NCoef="0" IVar="-1" Cut="0.0000000000000000e+00" cType="1" res="-1.1977058602496982e-03" rms="4.5974880456924438e-01" purity="3.4845566749572754e-01" nType="-99"/>
        <Node pos="r" depth="1" NCoef="0" IVar="4" Cut="5.1533831787109375e+02" cType="1" res="-1.9342995074111968e-04" rms="4.7141024470329285e-01" purity="5.1472908258438110e-01" nType="0">
          <Node pos="l" depth="2" NCoef="0" IVar="-1" Cut="0.0000000000000000e+00" cType="1" res="-1.1276256991550326e-03" rms="4.6084675192832947e-01" purity="4.1730728745460510e-01" nType="-99"/>
          <Node pos="r" depth="2" NCoef="0" IVar="-1" Cut="0.0000000000000000e+00" cType="1" res="2.0555181254167110e-04" rms="4.7175714373588562e-01" purity="5.3047358989715576e-01" nType="-99"/>
        </Node>
      </Node>
    </BinaryTree>
    <BinaryTree type="DecisionTree" boostWeight="1.0000000000000000e+00" itree="546">
      <Node pos="s" depth="0" NCoef="0" IVar="2" Cut="1.2362207031250000e+03" cType="1" res="-2.4789655581116676e-02" rms="4.7473704814910889e-01" purity="4.8571026325225830e-01" nType="0">
        <Node pos="l" depth="1" NCoef="0" IVar="4" Cut="5.1862628173828125e+02" cType="1" res="-5.6576787028461695e-04" rms="4.7542273998260498e-01" purity="5.2426105737686157e-01" nType="0">
          <Node pos="l" depth="2" NCoef="0" IVar="-1" Cut="0.0000000000000000e+00" cType="1" res="-1.0330684017390013e-03" rms="4.6668910980224609e-01" purity="4.2958590388298035e-01" nType="-99"/>
          <Node pos="r" depth="2" NCoef="0" IVar="-1" Cut="0.0000000000000000e+00" cType="1" res="3.0153058469295502e-04" rms="4.7581163048744202e-01" purity="5.4914826154708862e-01" nType="-99"/>
        </Node>
        <Node pos="r" depth="1" NCoef="0" IVar="4" Cut="8.9641259765625000e+02" cType="1" res="-7.1184717118740082e-02" rms="4.6994796395301819e-01" purity="4.1187557578086853e-01" nType="0">
          <Node pos="l" depth="2" NCoef="0" IVar="-1" Cut="0.0000000000000000e+00" cType="1" res="-1.8930439837276936e-03" rms="4.3507817387580872e-01" purity="2.8783658146858215e-01" nType="-99"/>
          <Node pos="r" depth="2" NCoef="0" IVar="-1" Cut="0.0000000000000000e+00" cType="1" res="-4.3686284334398806e-04" rms="4.7829186916351318e-01" purity="4.6396628022193909e-01" nType="-99"/>
        </Node>
      </Node>
    </BinaryTree>
    <BinaryTree type="DecisionTree" boostWeight="1.0000000000000000e+00" itree="547">
      <Node pos="s" depth="0" NCoef="0" IVar="4" Cut="9.0034338378906250e+02" cType="1" res="-8.9368559420108795e-03" rms="4.6879398822784424e-01" purity="4.9753081798553467e-01" nType="0">
        <Node pos="l" depth="1" NCoef="0" IVar="2" Cut="1.0860726318359375e+03" cType="1" res="-3.6103349179029465e-02" rms="4.6632158756256104e-01" purity="4.6871683001518250e-01" nType="0">
          <Node pos="l" depth="2" NCoef="0" IVar="-1" Cut="0.0000000000000000e+00" cType="1" res="-1.7797597683966160e-04" rms="4.7015464305877686e-01" purity="5.0810611248016357e-01" nType="-99"/>
          <Node pos="r" depth="2" NCoef="0" IVar="-1" Cut="0.0000000000000000e+00" cType="1" res="-1.4050182653591037e-03" rms="4.4569584727287292e-01" purity="3.4657511115074158e-01" nType="-99"/>
        </Node>
        <Node pos="r" depth="1" NCoef="0" IVar="2" Cut="1.7191695556640625e+03" cType="1" res="7.0844225585460663e-02" rms="4.6693152189254761e-01" purity="5.8215004205703735e-01" nType="0">
          <Node pos="l" depth="2" NCoef="0" IVar="-1" Cut="0.0000000000000000e+00" cType="1" res="2.2710890043526888e-03" rms="4.5503121614456177e-01" purity="6.5135031938552856e-01" nType="-99"/>
          <Node pos="r" depth="2" NCoef="0" IVar="-1" Cut="0.0000000000000000e+00" cType="1" res="-1.4201075828168541e-04" rms="4.7600707411766052e-01" purity="4.6340423822402954e-01" nType="-99"/>
        </Node>
      </Node>
    </BinaryTree>
    <BinaryTree type="DecisionTree" boostWeight="1.0000000000000000e+00" itree="548">
      <Node pos="s" depth="0" NCoef="0" IVar="0" Cut="6.8099517822265625e+01" cType="1" res="-6.1398153193295002e-03" rms="4.7157609462738037e-01" purity="5.0155937671661377e-01" nType="0">
        <Node pos="l" depth="1" NCoef="0" IVar="-1" Cut="0.0000000000000000e+00" cType="1" res="-1.2168472167104483e-03" rms="4.5416721701622009e-01" purity="3.3731332421302795e-01" nType="-99"/>
        <Node pos="r" depth="1" NCoef="0" IVar="4" Cut="6.5628100585937500e+02" cType="1" res="5.0235521048307419e-03" rms="4.7232353687286377e-01" purity="5.2083927392959595e-01" nType="0">
          <Node pos="l" depth="2" NCoef="0" IVar="-1" Cut="0.0000000000000000e+00" cType="1" res="-5.4177234414964914e-04" rms="4.6545720100402832e-01" purity="4.6446532011032104e-01" nType="-99"/>
          <Node pos="r" depth="2" NCoef="0" IVar="-1" Cut="0.0000000000000000e+00" cType="1" res="5.2354927174746990e-04" rms="4.7462031245231628e-01" purity="5.5677580833435059e-01" nType="-99"/>
        </Node>
      </Node>
    </BinaryTree>
    <BinaryTree type="DecisionTree" boostWeight="1.0000000000000000e+00" itree="549">
      <Node pos="s" depth="0" NCoef="0" IVar="4" Cut="5.3459771728515625e+02" cType="1" res="2.4659899063408375e-03" rms="4.7080290317535400e-01" purity="5.1083981990814209e-01" nType="0">
        <Node pos="l" depth="1" NCoef="0" IVar="2" Cut="6.3869384765625000e+02" cType="1" res="-6.1677716672420502e-02" rms="4.5843687653541565e-01" purity="4.2981529235839844e-01" nType="0">
          <Node pos="l" depth="2" NCoef="0" IVar="-1" Cut="0.0000000000000000e+00" cType="1" res="8.8436238002032042e-04" rms="4.7544452548027039e-01" purity="5.9727126359939575e-01" nType="-99"/>
          <Node pos="r" depth="2" NCoef="0" IVar="-1" Cut="0.0000000000000000e+00" cType="1" res="-1.7619811696931720e-03" rms="4.2337822914123535e-01" purity="2.9549488425254822e-01" nType="-99"/>
        </Node>
        <Node pos="r" depth="1" NCoef="0" IVar="2" Cut="1.0930885009765625e+03" cType="1" res="1.6059756278991699e-02" rms="4.7226464748382568e-01" purity="5.2801108360290527e-01" nType="0">
          <Node pos="l" depth="2" NCoef="0" IVar="-1" Cut="0.0000000000000000e+00" cType="1" res="1.0717504192143679e-03" rms="4.6501266956329346e-01" purity="5.9818643331527710e-01" nType="-99"/>
          <Node pos="r" depth="2" NCoef="0" IVar="-1" Cut="0.0000000000000000e+00" cType="1" res="-3.7318994873203337e-04" rms="4.7491562366485596e-01" purity="4.6409669518470764e-01" nType="-99"/>
        </Node>
      </Node>
    </BinaryTree>
    <BinaryTree type="DecisionTree" boostWeight="1.0000000000000000e+00" itree="550">
      <Node pos="s" depth="0" NCoef="0" IVar="0" Cut="2.4103637695312500e+02" cType="1" res="-4.6852286905050278e-03" rms="4.7165817022323608e-01" purity="5.0632506608963013e-01" nType="0">
        <Node pos="l" depth="1" NCoef="0" IVar="0" Cut="8.5196975708007812e+01" cType="1" res="1.0787069797515869e-02" rms="4.7482767701148987e-01" purity="5.4969185590744019e-01" nType="0">
          <Node pos="l" depth="2" NCoef="0" IVar="-1" Cut="0.0000000000000000e+00" cType="1" res="-8.3088316023349762e-04" rms="4.6550011634826660e-01" purity="4.0731829404830933e-01" nType="-99"/>
          <Node pos="r" depth="2" NCoef="0" IVar="-1" Cut="0.0000000000000000e+00" cType="1" res="5.6727649644017220e-04" rms="4.7539281845092773e-01" purity="5.9149217605590820e-01" nType="-99"/>
        </Node>
        <Node pos="r" depth="1" NCoef="0" IVar="4" Cut="7.6907983398437500e+02" cType="1" res="-4.5929986983537674e-02" rms="4.6057066321372986e-01" purity="3.9072155952453613e-01" nType="0">
          <Node pos="l" depth="2" NCoef="0" IVar="-1" Cut="0.0000000000000000e+00" cType="1" res="-1.2800657423213124e-03" rms="4.3315550684928894e-01" purity="3.1043037772178650e-01" nType="-99"/>
          <Node pos="r" depth="2" NCoef="0" IVar="-1" Cut="0.0000000000000000e+00" cType="1" res="-1.1853740579681471e-04" rms="4.7311684489250183e-01" purity="4.4101384282112122e-01" nType="-99"/>
        </Node>
      </Node>
    </BinaryTree>
    <BinaryTree type="DecisionTree" boostWeight="1.0000000000000000e+00" itree="551">
      <Node pos="s" depth="0" NCoef="0" IVar="0" Cut="4.5559866333007812e+02" cType="1" res="-1.6290321946144104e-02" rms="4.7255966067314148e-01" purity="4.9460041522979736e-01" nType="0">
        <Node pos="l" depth="1" NCoef="0" IVar="4" Cut="8.6632086181640625e+02" cType="1" res="-9.4419671222567558e-03" rms="4.7341081500053406e-01" purity="5.0968682765960693e-01" nType="0">
          <Node pos="l" depth="2" NCoef="0" IVar="-1" Cut="0.0000000000000000e+00" cType="1" res="-3.9319065399467945e-04" rms="4.7072142362594604e-01" purity="4.8725059628486633e-01" nType="-99"/>
          <Node pos="r" depth="2" NCoef="0" IVar="-1" Cut="0.0000000000000000e+00" cType="1" res="5.7275110157206655e-04" rms="4.7753986716270447e-01" purity="5.6871205568313599e-01" nType="-99"/>
        </Node>
        <Node pos="r" depth="1" NCoef="0" IVar="-1" Cut="0.0000000000000000e+00" cType="1" res="-1.2391485506668687e-03" rms="4.5341861248016357e-01" purity="3.0792534351348877e-01" nType="-99"/>
      </Node>
    </BinaryTree>
    <BinaryTree type="DecisionTree" boostWeight="1.0000000000000000e+00" itree="552">
      <Node pos="s" depth="0" NCoef="0" IVar="2" Cut="8.3477471923828125e+02" cType="1" res="1.3026546221226454e-03" rms="4.7074696421623230e-01" purity="5.1264506578445435e-01" nType="0">
        <Node pos="l" depth="1" NCoef="0" IVar="0" Cut="1.3198382568359375e+02" cType="1" res="7.8577026724815369e-02" rms="4.5682227611541748e-01" purity="6.1545503139495850e-01" nType="0">
          <Node pos="l" depth="2" NCoef="0" IVar="-1" Cut="0.0000000000000000e+00" cType="1" res="3.2805826049298048e-03" rms="4.3014943599700928e-01" purity="6.9690239429473877e-01" nType="-99"/>
          <Node pos="r" depth="2" NCoef="0" IVar="-1" Cut="0.0000000000000000e+00" cType="1" res="-1.8434079538565129e-04" rms="4.7226306796073914e-01" purity="5.1480054855346680e-01" nType="-99"/>
        </Node>
        <Node pos="r" depth="1" NCoef="0" IVar="4" Cut="6.4520483398437500e+02" cType="1" res="-2.7939343824982643e-02" rms="4.7262632846832275e-01" purity="4.7373992204666138e-01" nType="0">
          <Node pos="l" depth="2" NCoef="0" IVar="-1" Cut="0.0000000000000000e+00" cType="1" res="-1.4306436059996486e-03" rms="4.3760940432548523e-01" purity="3.0272978544235229e-01" nType="-99"/>
          <Node pos="r" depth="2" NCoef="0" IVar="-1" Cut="0.0000000000000000e+00" cType="1" res="-1.6419580788351595e-04" rms="4.7699475288391113e-01" purity="5.0592893362045288e-01" nType="-99"/>
        </Node>
      </Node>
    </BinaryTree>
    <BinaryTree type="DecisionTree" boostWeight="1.0000000000000000e+00" itree="553">
      <Node pos="s" depth="0" NCoef="0" IVar="1" Cut="1.4190861511230469e+02" cType="1" res="-1.1931086890399456e-02" rms="4.7242641448974609e-01" purity="4.9606546759605408e-01" nType="0">
        <Node pos="l" depth="1" NCoef="0" IVar="4" Cut="5.3414514160156250e+02" cType="1" res="5.9826071374118328e-03" rms="4.7682672739028931e-01" purity="5.3427803516387939e-01" nType="0">
          <Node pos="l" depth="2" NCoef="0" IVar="-1" Cut="0.0000000000000000e+00" cType="1" res="-1.0152303148061037e-03" rms="4.6850195527076721e-01" purity="4.3484267592430115e-01" nType="-99"/>
          <Node pos="r" depth="2" NCoef="0" IVar="-1" Cut="0.0000000000000000e+00" cType="1" res="3.9949093479663134e-04" rms="4.7687476873397827e-01" purity="5.5750149488449097e-01" nType="-99"/>
        </Node>
        <Node pos="r" depth="1" NCoef="0" IVar="-1" Cut="0.0000000000000000e+00" cType="1" res="-1.4450147282332182e-03" rms="4.2711430788040161e-01" purity="2.5672990083694458e-01" nType="-99"/>
      </Node>
    </BinaryTree>
    <BinaryTree type="DecisionTree" boostWeight="1.0000000000000000e+00" itree="554">
      <Node pos="s" depth="0" NCoef="0" IVar="4" Cut="4.9637332153320312e+02" cType="1" res="1.4279113383963704e-03" rms="4.7484496235847473e-01" purity="5.1612097024917603e-01" nType="0">
        <Node pos="l" depth="1" NCoef="0" IVar="-1" Cut="0.0000000000000000e+00" cType="1" res="-1.0874038562178612e-03" rms="4.7210171818733215e-01" purity="4.2256644368171692e-01" nType="-99"/>
        <Node pos="r" depth="1" NCoef="0" IVar="1" Cut="1.4204550170898438e+02" cType="1" res="1.1680091731250286e-02" rms="4.7424253821372986e-01" purity="5.2832746505737305e-01" nType="0">
          <Node pos="l" depth="2" NCoef="0" IVar="-1" Cut="0.0000000000000000e+00" cType="1" res="3.3579632872715592e-04" rms="4.7598814964294434e-01" purity="5.5379027128219604e-01" nType="-99"/>
          <Node pos="r" depth="2" NCoef="0" IVar="-1" Cut="0.0000000000000000e+00" cType="1" res="-7.1754551026970148e-04" rms="4.5425483584403992e-01" purity="3.2746177911758423e-01" nType="-99"/>
        </Node>
      </Node>
    </BinaryTree>
    <BinaryTree type="DecisionTree" boostWeight="1.0000000000000000e+00" itree="555">
      <Node pos="s" depth="0" NCoef="0" IVar="4" Cut="5.9837628173828125e+02" cType="1" res="9.5969568064901978e-05" rms="4.7086277604103088e-01" purity="5.1015430688858032e-01" nType="0">
        <Node pos="l" depth="1" NCoef="0" IVar="2" Cut="6.1268493652343750e+02" cType="1" res="-5.7129606604576111e-02" rms="4.6421352028846741e-01" purity="4.4082981348037720e-01" nType="0">
          <Node pos="l" depth="2" NCoef="0" IVar="-1" Cut="0.0000000000000000e+00" cType="1" res="1.4474056661128998e-03" rms="4.7437745332717896e-01" purity="6.3135886192321777e-01" nType="-99"/>
          <Node pos="r" depth="2" NCoef="0" IVar="-1" Cut="0.0000000000000000e+00" cType="1" res="-1.2525158235803246e-03" rms="4.5473703742027283e-01" purity="3.8739854097366333e-01" nType="-99"/>
        </Node>
        <Node pos="r" depth="1" NCoef="0" IVar="2" Cut="1.1511009521484375e+03" cType="1" res="2.4419164285063744e-02" rms="4.7156223654747009e-01" purity="5.3962004184722900e-01" nType="0">
          <Node pos="l" depth="2" NCoef="0" IVar="-1" Cut="0.0000000000000000e+00" cType="1" res="1.5450142091140151e-03" rms="4.6303546428680420e-01" purity="6.2495261430740356e-01" nType="-99"/>
          <Node pos="r" depth="2" NCoef="0" IVar="-1" Cut="0.0000000000000000e+00" cType="1" res="-3.7077374872751534e-04" rms="4.7308555245399475e-01" purity="4.6541151404380798e-01" nType="-99"/>
        </Node>
      </Node>
    </BinaryTree>
    <BinaryTree type="DecisionTree" boostWeight="1.0000000000000000e+00" itree="556">
      <Node pos="s" depth="0" NCoef="0" IVar="2" Cut="2.0021997070312500e+03" cType="1" res="-3.9004380814731121e-03" rms="4.7085863351821899e-01" purity="5.0639092922210693e-01" nType="0">
        <Node pos="l" depth="1" NCoef="0" IVar="4" Cut="6.0152874755859375e+02" cType="1" res="4.1263783350586891e-03" rms="4.7038939595222473e-01" purity="5.1773118972778320e-01" nType="0">
          <Node pos="l" depth="2" NCoef="0" IVar="-1" Cut="0.0000000000000000e+00" cType="1" res="-7.2713772533461452e-04" rms="4.6179303526878357e-01" purity="4.4828462600708008e-01" nType="-99"/>
          <Node pos="r" depth="2" NCoef="0" IVar="-1" Cut="0.0000000000000000e+00" cType="1" res="5.0250085769221187e-04" rms="4.7219207882881165e-01" purity="5.5096769332885742e-01" nType="-99"/>
        </Node>
        <Node pos="r" depth="1" NCoef="0" IVar="-1" Cut="0.0000000000000000e+00" cType="1" res="-1.4006870333105326e-03" rms="4.6393951773643494e-01" purity="3.5481736063957214e-01" nType="-99"/>
      </Node>
    </BinaryTree>
    <BinaryTree type="DecisionTree" boostWeight="1.0000000000000000e+00" itree="557">
      <Node pos="s" depth="0" NCoef="0" IVar="1" Cut="1.4431687927246094e+02" cType="1" res="-1.2711443006992340e-02" rms="4.7325336933135986e-01" purity="4.9909240007400513e-01" nType="0">
        <Node pos="l" depth="1" NCoef="0" IVar="0" Cut="2.0147238159179688e+02" cType="1" res="-7.8021475928835571e-05" rms="4.7611251473426819e-01" purity="5.2698105573654175e-01" nType="0">
          <Node pos="l" depth="2" NCoef="0" IVar="-1" Cut="0.0000000000000000e+00" cType="1" res="2.8382142772898078e-04" rms="4.7566515207290649e-01" purity="5.7067281007766724e-01" nType="-99"/>
          <Node pos="r" depth="2" NCoef="0" IVar="-1" Cut="0.0000000000000000e+00" cType="1" res="-4.8595489352010190e-04" rms="4.7512748837471008e-01" purity="4.3702879548072815e-01" nType="-99"/>
        </Node>
        <Node pos="r" depth="1" NCoef="0" IVar="-1" Cut="0.0000000000000000e+00" cType="1" res="-1.4175556134432554e-03" rms="4.3324807286262512e-01" purity="2.6052096486091614e-01" nType="-99"/>
      </Node>
    </BinaryTree>
    <BinaryTree type="DecisionTree" boostWeight="1.0000000000000000e+00" itree="558">
      <Node pos="s" depth="0" NCoef="0" IVar="5" Cut="8.1004154682159424e-01" cType="1" res="-8.7814750149846077e-03" rms="4.7148346900939941e-01" purity="5.0012314319610596e-01" nType="0">
        <Node pos="l" depth="1" NCoef="0" IVar="3" Cut="9.0574419498443604e-01" cType="1" res="-1.9070828333497047e-02" rms="4.7137135267257690e-01" purity="4.8398479819297791e-01" nType="0">
          <Node pos="l" depth="2" NCoef="0" IVar="-1" Cut="0.0000000000000000e+00" cType="1" res="-5.4194405674934387e-04" rms="4.7510579228401184e-01" purity="4.1599920392036438e-01" nType="-99"/>
          <Node pos="r" depth="2" NCoef="0" IVar="-1" Cut="0.0000000000000000e+00" cType="1" res="3.6654141149483621e-04" rms="4.6232864260673523e-01" purity="6.0153204202651978e-01" nType="-99"/>
        </Node>
        <Node pos="r" depth="1" NCoef="0" IVar="2" Cut="1.0616557617187500e+03" cType="1" res="6.5804064273834229e-02" rms="4.6554532647132874e-01" purity="6.1710667610168457e-01" nType="0">
          <Node pos="l" depth="2" NCoef="0" IVar="-1" Cut="0.0000000000000000e+00" cType="1" res="2.2098987828940153e-03" rms="4.3624109029769897e-01" purity="6.8533194065093994e-01" nType="-99"/>
          <Node pos="r" depth="2" NCoef="0" IVar="-1" Cut="0.0000000000000000e+00" cType="1" res="5.0917518092319369e-04" rms="4.8485165834426880e-01" purity="5.6255209445953369e-01" nType="-99"/>
        </Node>
      </Node>
    </BinaryTree>
    <BinaryTree type="DecisionTree" boostWeight="1.0000000000000000e+00" itree="559">
      <Node pos="s" depth="0" NCoef="0" IVar="3" Cut="8.6439007520675659e-01" cType="1" res="-6.4717768691480160e-03" rms="4.7260528802871704e-01" purity="5.0194436311721802e-01" nType="0">
        <Node pos="l" depth="1" NCoef="0" IVar="2" Cut="1.1699935302734375e+03" cType="1" res="-6.3534460961818695e-02" rms="4.6790832281112671e-01" purity="3.6430498957633972e-01" nType="0">
          <Node pos="l" depth="2" NCoef="0" IVar="-1" Cut="0.0000000000000000e+00" cType="1" res="-4.4318044092506170e-04" rms="4.7335863113403320e-01" purity="4.0045043826103210e-01" nType="-99"/>
          <Node pos="r" depth="2" NCoef="0" IVar="-1" Cut="0.0000000000000000e+00" cType="1" res="-1.2135436991229653e-03" rms="4.5461347699165344e-01" purity="3.0411407351493835e-01" nType="-99"/>
        </Node>
        <Node pos="r" depth="1" NCoef="0" IVar="4" Cut="5.3330407714843750e+02" cType="1" res="8.8461954146623611e-03" rms="4.7268688678741455e-01" purity="5.3889244794845581e-01" nType="0">
          <Node pos="l" depth="2" NCoef="0" IVar="-1" Cut="0.0000000000000000e+00" cType="1" res="-7.2489440208300948e-04" rms="4.7083202004432678e-01" purity="4.7367069125175476e-01" nType="-99"/>
          <Node pos="r" depth="2" NCoef="0" IVar="-1" Cut="0.0000000000000000e+00" cType="1" res="3.4077433519996703e-04" rms="4.7220212221145630e-01" purity="5.5199640989303589e-01" nType="-99"/>
        </Node>
      </Node>
    </BinaryTree>
    <BinaryTree type="DecisionTree" boostWeight="1.0000000000000000e+00" itree="560">
      <Node pos="s" depth="0" NCoef="0" IVar="2" Cut="1.2863634033203125e+03" cType="1" res="8.3326426101848483e-04" rms="4.7080886363983154e-01" purity="5.1024234294891357e-01" nType="0">
        <Node pos="l" depth="1" NCoef="0" IVar="4" Cut="6.9819122314453125e+02" cType="1" res="2.5216789916157722e-02" rms="4.6903967857360840e-01" purity="5.4521948099136353e-01" nType="0">
          <Node pos="l" depth="2" NCoef="0" IVar="-1" Cut="0.0000000000000000e+00" cType="1" res="-1.8262033700011671e-04" rms="4.7129297256469727e-01" purity="4.9001529812812805e-01" nType="-99"/>
          <Node pos="r" depth="2" NCoef="0" IVar="-1" Cut="0.0000000000000000e+00" cType="1" res="1.8467999761924148e-03" rms="4.5689207315444946e-01" purity="6.4743345975875854e-01" nType="-99"/>
        </Node>
        <Node pos="r" depth="1" NCoef="0" IVar="4" Cut="1.0021080932617188e+03" cType="1" res="-5.4155677556991577e-02" rms="4.7015547752380371e-01" purity="4.3136322498321533e-01" nType="0">
          <Node pos="l" depth="2" NCoef="0" IVar="-1" Cut="0.0000000000000000e+00" cType="1" res="-1.6799451550468802e-03" rms="4.4629731774330139e-01" purity="3.2618513703346252e-01" nType="-99"/>
          <Node pos="r" depth="2" NCoef="0" IVar="-1" Cut="0.0000000000000000e+00" cType="1" res="7.5571182378553203e-07" rms="4.7705227136611938e-01" purity="4.9892529845237732e-01" nType="-99"/>
        </Node>
      </Node>
    </BinaryTree>
    <BinaryTree type="DecisionTree" boostWeight="1.0000000000000000e+00" itree="561">
      <Node pos="s" depth="0" NCoef="0" IVar="5" Cut="8.4633827209472656e-01" cType="1" res="6.4438451081514359e-03" rms="4.7331210970878601e-01" purity="5.2122360467910767e-01" nType="0">
        <Node pos="l" depth="1" NCoef="0" IVar="1" Cut="1.0922996520996094e+02" cType="1" res="-1.3120223302394152e-03" rms="4.7407087683677673e-01" purity="5.0887173414230347e-01" nType="0">
          <Node pos="l" depth="2" NCoef="0" IVar="-1" Cut="0.0000000000000000e+00" cType="1" res="-7.8786187805235386e-04" rms="4.6159031987190247e-01" purity="3.8605999946594238e-01" nType="-99"/>
          <Node pos="r" depth="2" NCoef="0" IVar="-1" Cut="0.0000000000000000e+00" cType="1" res="1.6327851335518062e-04" rms="4.7568181157112122e-01" purity="5.3346252441406250e-01" nType="-99"/>
        </Node>
        <Node pos="r" depth="1" NCoef="0" IVar="-1" Cut="0.0000000000000000e+00" cType="1" res="2.0646771881729364e-03" rms="4.5255798101425171e-01" purity="6.7605066299438477e-01" nType="-99"/>
      </Node>
    </BinaryTree>
    <BinaryTree type="DecisionTree" boostWeight="1.0000000000000000e+00" itree="562">
      <Node pos="s" depth="0" NCoef="0" IVar="4" Cut="8.4602508544921875e+02" cType="1" res="-5.5827284231781960e-03" rms="4.7300693392753601e-01" purity="5.0648581981658936e-01" nType="0">
        <Node pos="l" depth="1" NCoef="0" IVar="2" Cut="9.2408221435546875e+02" cType="1" res="-2.7466561645269394e-02" rms="4.7077903151512146e-01" purity="4.8358631134033203e-01" nType="0">
          <Node pos="l" depth="2" NCoef="0" IVar="-1" Cut="0.0000000000000000e+00" cType="1" res="3.2059141085483134e-04" rms="4.7210073471069336e-01" purity="5.5300295352935791e-01" nType="-99"/>
          <Node pos="r" depth="2" NCoef="0" IVar="-1" Cut="0.0000000000000000e+00" cType="1" res="-1.2071987148374319e-03" rms="4.6154060959815979e-01" purity="3.9077535271644592e-01" nType="-99"/>
        </Node>
        <Node pos="r" depth="1" NCoef="0" IVar="2" Cut="1.3747012939453125e+03" cType="1" res="4.0698971599340439e-02" rms="4.7437074780464172e-01" purity="5.5491548776626587e-01" nType="0">
          <Node pos="l" depth="2" NCoef="0" IVar="-1" Cut="0.0000000000000000e+00" cType="1" res="2.2289906628429890e-03" rms="4.5823386311531067e-01" purity="6.7712968587875366e-01" nType="-99"/>
          <Node pos="r" depth="2" NCoef="0" IVar="-1" Cut="0.0000000000000000e+00" cType="1" res="-2.0269621018087491e-05" rms="4.7891068458557129e-01" purity="4.8150110244750977e-01" nType="-99"/>
        </Node>
      </Node>
    </BinaryTree>
    <BinaryTree type="DecisionTree" boostWeight="1.0000000000000000e+00" itree="563">
      <Node pos="s" depth="0" NCoef="0" IVar="2" Cut="7.8792401123046875e+02" cType="1" res="-1.9314154982566833e-02" rms="4.7015184164047241e-01" purity="4.9103125929832458e-01" nType="0">
        <Node pos="l" depth="1" NCoef="0" IVar="0" Cut="9.0590515136718750e+01" cType="1" res="5.5779378861188889e-02" rms="4.5754152536392212e-01" purity="5.9775537252426147e-01" nType="0">
          <Node pos="l" depth="2" NCoef="0" IVar="-1" Cut="0.0000000000000000e+00" cType="1" res="-3.2594765070825815e-04" rms="4.6851477026939392e-01" purity="4.6867871284484863e-01" nType="-99"/>
          <Node pos="r" depth="2" NCoef="0" IVar="-1" Cut="0.0000000000000000e+00" cType="1" res="1.8865680322051048e-03" rms="4.4729122519493103e-01" purity="6.5979373455047607e-01" nType="-99"/>
        </Node>
        <Node pos="r" depth="1" NCoef="0" IVar="4" Cut="5.9792675781250000e+02" cType="1" res="-4.2562957853078842e-02" rms="4.7156998515129089e-01" purity="4.5798969268798828e-01" nType="0">
          <Node pos="l" depth="2" NCoef="0" IVar="-1" Cut="0.0000000000000000e+00" cType="1" res="-1.7985707381740212e-03" rms="4.2377316951751709e-01" purity="2.6484510302543640e-01" nType="-99"/>
          <Node pos="r" depth="2" NCoef="0" IVar="-1" Cut="0.0000000000000000e+00" cType="1" res="-3.9282286888919771e-04" rms="4.7565099596977234e-01" purity="4.8482617735862732e-01" nType="-99"/>
        </Node>
      </Node>
    </BinaryTree>
    <BinaryTree type="DecisionTree" boostWeight="1.0000000000000000e+00" itree="564">
      <Node pos="s" depth="0" NCoef="0" IVar="4" Cut="4.9736447143554688e+02" cType="1" res="-2.4497979320585728e-03" rms="4.7339186072349548e-01" purity="5.0649231672286987e-01" nType="0">
        <Node pos="l" depth="1" NCoef="0" IVar="5" Cut="3.3254405856132507e-01" cType="1" res="-8.1491529941558838e-02" rms="4.6557626128196716e-01" purity="4.1298338770866394e-01" nType="0">
          <Node pos="l" depth="2" NCoef="0" IVar="-1" Cut="0.0000000000000000e+00" cType="1" res="-1.1351100401952863e-03" rms="4.5553883910179138e-01" purity="4.0605315566062927e-01" nType="-99"/>
          <Node pos="r" depth="2" NCoef="0" IVar="-1" Cut="0.0000000000000000e+00" cType="1" res="-1.1298345634713769e-03" rms="4.7561004757881165e-01" purity="4.2006263136863708e-01" nType="-99"/>
        </Node>
        <Node pos="r" depth="1" NCoef="0" IVar="0" Cut="4.5246627807617188e+02" cType="1" res="7.8934058547019958e-03" rms="4.7342965006828308e-01" purity="5.1872861385345459e-01" nType="0">
          <Node pos="l" depth="2" NCoef="0" IVar="-1" Cut="0.0000000000000000e+00" cType="1" res="2.7885270537808537e-04" rms="4.7470450401306152e-01" purity="5.3886270523071289e-01" nType="-99"/>
          <Node pos="r" depth="2" NCoef="0" IVar="-1" Cut="0.0000000000000000e+00" cType="1" res="-1.0720485588535666e-03" rms="4.4860199093818665e-01" purity="3.1230050325393677e-01" nType="-99"/>
        </Node>
      </Node>
    </BinaryTree>
    <BinaryTree type="DecisionTree" boostWeight="1.0000000000000000e+00" itree="565">
      <Node pos="s" depth="0" NCoef="0" IVar="3" Cut="8.5479426383972168e-01" cType="1" res="-4.3329223990440369e-03" rms="4.7185599803924561e-01" purity="5.0618249177932739e-01" nType="0">
        <Node pos="l" depth="1" NCoef="0" IVar="-1" Cut="0.0000000000000000e+00" cType="1" res="-1.1180610163137317e-03" rms="4.5446410775184631e-01" purity="3.3372500538825989e-01" nType="-99"/>
        <Node pos="r" depth="1" NCoef="0" IVar="0" Cut="3.0258755493164062e+02" cType="1" res="4.5869685709476471e-03" rms="4.7247803211212158e-01" purity="5.2238684892654419e-01" nType="0">
          <Node pos="l" depth="2" NCoef="0" IVar="-1" Cut="0.0000000000000000e+00" cType="1" res="2.9523766716010869e-04" rms="4.7375190258026123e-01" purity="5.5539768934249878e-01" nType="-99"/>
          <Node pos="r" depth="2" NCoef="0" IVar="-1" Cut="0.0000000000000000e+00" cType="1" res="-7.1084382943809032e-04" rms="4.6238100528717041e-01" purity="3.7804669141769409e-01" nType="-99"/>
        </Node>
      </Node>
    </BinaryTree>
    <BinaryTree type="DecisionTree" boostWeight="1.0000000000000000e+00" itree="566">
      <Node pos="s" depth="0" NCoef="0" IVar="4" Cut="1.2184293212890625e+03" cType="1" res="-2.0705115050077438e-02" rms="4.7141525149345398e-01" purity="4.8880988359451294e-01" nType="0">
        <Node pos="l" depth="1" NCoef="0" IVar="4" Cut="6.6682153320312500e+02" cType="1" res="-2.9825598001480103e-02" rms="4.7074574232101440e-01" purity="4.8174697160720825e-01" nType="0">
          <Node pos="l" depth="2" NCoef="0" IVar="-1" Cut="0.0000000000000000e+00" cType="1" res="-8.0899451859295368e-04" rms="4.6282318234443665e-01" purity="4.3608602881431580e-01" nType="-99"/>
          <Node pos="r" depth="2" NCoef="0" IVar="-1" Cut="0.0000000000000000e+00" cType="1" res="-8.0688478192314506e-05" rms="4.7619560360908508e-01" purity="5.2165383100509644e-01" nType="-99"/>
        </Node>
        <Node pos="r" depth="1" NCoef="0" IVar="-1" Cut="0.0000000000000000e+00" cType="1" res="1.3691866770386696e-03" rms="4.6676033735275269e-01" purity="5.6826514005661011e-01" nType="-99"/>
      </Node>
    </BinaryTree>
    <BinaryTree type="DecisionTree" boostWeight="1.0000000000000000e+00" itree="567">
      <Node pos="s" depth="0" NCoef="0" IVar="1" Cut="1.2685733795166016e+02" cType="1" res="-2.5667429435998201e-03" rms="4.6865579485893250e-01" purity="5.0748509168624878e-01" nType="0">
        <Node pos="l" depth="1" NCoef="0" IVar="2" Cut="1.7455434570312500e+03" cType="1" res="2.5239283218979836e-02" rms="4.6635225415229797e-01" purity="5.5313837528228760e-01" nType="0">
          <Node pos="l" depth="2" NCoef="0" IVar="-1" Cut="0.0000000000000000e+00" cType="1" res="6.5082026412710547e-04" rms="4.6471479535102844e-01" purity="5.7046276330947876e-01" nType="-99"/>
          <Node pos="r" depth="2" NCoef="0" IVar="-1" Cut="0.0000000000000000e+00" cType="1" res="-1.1032298207283020e-03" rms="4.6461769938468933e-01" purity="4.0464365482330322e-01" nType="-99"/>
        </Node>
        <Node pos="r" depth="1" NCoef="0" IVar="3" Cut="8.7716388702392578e-01" cType="1" res="-4.2090013623237610e-02" rms="4.6908274292945862e-01" purity="4.4259384274482727e-01" nType="0">
          <Node pos="l" depth="2" NCoef="0" IVar="-1" Cut="0.0000000000000000e+00" cType="1" res="-1.1313516879454255e-03" rms="4.4724377989768982e-01" purity="3.1724742054939270e-01" nType="-99"/>
          <Node pos="r" depth="2" NCoef="0" IVar="-1" Cut="0.0000000000000000e+00" cType="1" res="-1.5026313485577703e-04" rms="4.7856643795967102e-01" purity="5.1695770025253296e-01" nType="-99"/>
        </Node>
      </Node>
    </BinaryTree>
    <BinaryTree type="DecisionTree" boostWeight="1.0000000000000000e+00" itree="568">
      <Node pos="s" depth="0" NCoef="0" IVar="0" Cut="1.9637670898437500e+02" cType="1" res="-3.9306604303419590e-03" rms="4.6969199180603027e-01" purity="5.0410127639770508e-01" nType="0">
        <Node pos="l" depth="1" NCoef="0" IVar="0" Cut="8.9953208923339844e+01" cType="1" res="2.2978864610195160e-02" rms="4.7016635537147522e-01" purity="5.6408303976058960e-01" nType="0">
          <Node pos="l" depth="2" NCoef="0" IVar="-1" Cut="0.0000000000000000e+00" cType="1" res="-8.0718751996755600e-04" rms="4.6857300400733948e-01" purity="4.1413938999176025e-01" nType="-99"/>
          <Node pos="r" depth="2" NCoef="0" IVar="-1" Cut="0.0000000000000000e+00" cType="1" res="1.0447973618283868e-03" rms="4.6660214662551880e-01" purity="6.2643134593963623e-01" nType="-99"/>
        </Node>
        <Node pos="r" depth="1" NCoef="0" IVar="4" Cut="8.7754266357421875e+02" cType="1" res="-5.0334379076957703e-02" rms="4.6523085236549377e-01" purity="4.0066668391227722e-01" nType="0">
          <Node pos="l" depth="2" NCoef="0" IVar="-1" Cut="0.0000000000000000e+00" cType="1" res="-1.1413586325943470e-03" rms="4.5335385203361511e-01" purity="3.5591250658035278e-01" nType="-99"/>
          <Node pos="r" depth="2" NCoef="0" IVar="-1" Cut="0.0000000000000000e+00" cType="1" res="1.6658399545121938e-04" rms="4.7508472204208374e-01" purity="4.6506649255752563e-01" nType="-99"/>
        </Node>
      </Node>
    </BinaryTree>
    <BinaryTree type="DecisionTree" boostWeight="1.0000000000000000e+00" itree="569">
      <Node pos="s" depth="0" NCoef="0" IVar="3" Cut="9.5918530225753784e-01" cType="1" res="-7.5529282912611961e-03" rms="4.6964162588119507e-01" purity="5.0140875577926636e-01" nType="0">
        <Node pos="l" depth="1" NCoef="0" IVar="4" Cut="6.7147210693359375e+02" cType="1" res="-1.8468279391527176e-02" rms="4.7323697805404663e-01" purity="4.7568759322166443e-01" nType="0">
          <Node pos="l" depth="2" NCoef="0" IVar="-1" Cut="0.0000000000000000e+00" cType="1" res="-7.3673360748216510e-04" rms="4.6813780069351196e-01" purity="4.2998802661895752e-01" nType="-99"/>
          <Node pos="r" depth="2" NCoef="0" IVar="-1" Cut="0.0000000000000000e+00" cType="1" res="1.3359873264562339e-04" rms="4.7536528110504150e-01" purity="5.1104611158370972e-01" nType="-99"/>
        </Node>
        <Node pos="r" depth="1" NCoef="0" IVar="-1" Cut="0.0000000000000000e+00" cType="1" res="2.6903422549366951e-03" rms="4.2105257511138916e-01" purity="7.4213218688964844e-01" nType="-99"/>
      </Node>
    </BinaryTree>
    <BinaryTree type="DecisionTree" boostWeight="1.0000000000000000e+00" itree="570">
      <Node pos="s" depth="0" NCoef="0" IVar="0" Cut="6.6542304992675781e+01" cType="1" res="-1.4054841361939907e-02" rms="4.7199022769927979e-01" purity="4.9734798073768616e-01" nType="0">
        <Node pos="l" depth="1" NCoef="0" IVar="-1" Cut="0.0000000000000000e+00" cType="1" res="-1.3144555268809199e-03" rms="4.4991531968116760e-01" purity="3.2303097844123840e-01" nType="-99"/>
        <Node pos="r" depth="1" NCoef="0" IVar="0" Cut="1.5109349060058594e+02" cType="1" res="-4.0307664312422276e-03" rms="4.7305551171302795e-01" purity="5.1522457599639893e-01" nType="0">
          <Node pos="l" depth="2" NCoef="0" IVar="-1" Cut="0.0000000000000000e+00" cType="1" res="6.4641074277460575e-04" rms="4.6961843967437744e-01" purity="5.9953612089157104e-01" nType="-99"/>
          <Node pos="r" depth="2" NCoef="0" IVar="-1" Cut="0.0000000000000000e+00" cType="1" res="-5.5042549502104521e-04" rms="4.7323074936866760e-01" purity="4.4255736470222473e-01" nType="-99"/>
        </Node>
      </Node>
    </BinaryTree>
    <BinaryTree type="DecisionTree" boostWeight="1.0000000000000000e+00" itree="571">
      <Node pos="s" depth="0" NCoef="0" IVar="2" Cut="6.2283349609375000e+02" cType="1" res="-1.4436790719628334e-02" rms="4.7199279069900513e-01" purity="4.9441906809806824e-01" nType="0">
        <Node pos="l" depth="1" NCoef="0" IVar="-1" Cut="0.0000000000000000e+00" cType="1" res="2.2922651842236519e-03" rms="4.5912721753120422e-01" purity="6.7202085256576538e-01" nType="-99"/>
        <Node pos="r" depth="1" NCoef="0" IVar="4" Cut="5.3387493896484375e+02" cType="1" res="-2.3281229659914970e-02" rms="4.7167715430259705e-01" purity="4.8160359263420105e-01" nType="0">
          <Node pos="l" depth="2" NCoef="0" IVar="-1" Cut="0.0000000000000000e+00" cType="1" res="-1.5914075775071979e-03" rms="4.3637534976005554e-01" purity="3.2904246449470520e-01" nType="-99"/>
          <Node pos="r" depth="2" NCoef="0" IVar="-1" Cut="0.0000000000000000e+00" cType="1" res="-1.6105898248497397e-04" rms="4.7420054674148560e-01" purity="5.0000947713851929e-01" nType="-99"/>
        </Node>
      </Node>
    </BinaryTree>
    <BinaryTree type="DecisionTree" boostWeight="1.0000000000000000e+00" itree="572">
      <Node pos="s" depth="0" NCoef="0" IVar="4" Cut="7.2763812255859375e+02" cType="1" res="-8.1057287752628326e-04" rms="4.7129082679748535e-01" purity="5.1068168878555298e-01" nType="0">
        <Node pos="l" depth="1" NCoef="0" IVar="2" Cut="8.9770855712890625e+02" cType="1" res="-2.8484635055065155e-02" rms="4.6833482384681702e-01" purity="4.7608366608619690e-01" nType="0">
          <Node pos="l" depth="2" NCoef="0" IVar="-1" Cut="0.0000000000000000e+00" cType="1" res="1.3475288869813085e-04" rms="4.6919724345207214e-01" purity="5.3648680448532104e-01" nType="-99"/>
          <Node pos="r" depth="2" NCoef="0" IVar="-1" Cut="0.0000000000000000e+00" cType="1" res="-1.3941853540018201e-03" rms="4.5561084151268005e-01" purity="3.4059599041938782e-01" nType="-99"/>
        </Node>
        <Node pos="r" depth="1" NCoef="0" IVar="0" Cut="3.3960168457031250e+02" cType="1" res="2.8964219614863396e-02" rms="4.7264456748962402e-01" purity="5.4790610074996948e-01" nType="0">
          <Node pos="l" depth="2" NCoef="0" IVar="-1" Cut="0.0000000000000000e+00" cType="1" res="8.3031511167064309e-04" rms="4.6988072991371155e-01" purity="5.9051042795181274e-01" nType="-99"/>
          <Node pos="r" depth="2" NCoef="0" IVar="-1" Cut="0.0000000000000000e+00" cType="1" res="-4.6716778888367116e-04" rms="4.7642096877098083e-01" purity="4.0308651328086853e-01" nType="-99"/>
        </Node>
      </Node>
    </BinaryTree>
    <BinaryTree type="DecisionTree" boostWeight="1.0000000000000000e+00" itree="573">
      <Node pos="s" depth="0" NCoef="0" IVar="1" Cut="1.0241307067871094e+02" cType="1" res="5.5940913625818212e-06" rms="4.7004485130310059e-01" purity="5.1042228937149048e-01" nType="0">
        <Node pos="l" depth="1" NCoef="0" IVar="-1" Cut="0.0000000000000000e+00" cType="1" res="-1.1959883850067854e-03" rms="4.4252383708953857e-01" purity="3.0233979225158691e-01" nType="-99"/>
        <Node pos="r" depth="1" NCoef="0" IVar="4" Cut="5.3330407714843750e+02" cType="1" res="1.1151335202157497e-02" rms="4.7161316871643066e-01" purity="5.3312224149703979e-01" nType="0">
          <Node pos="l" depth="2" NCoef="0" IVar="-1" Cut="0.0000000000000000e+00" cType="1" res="-8.1673305248841643e-04" rms="4.5641720294952393e-01" purity="4.4422599673271179e-01" nType="-99"/>
          <Node pos="r" depth="2" NCoef="0" IVar="-1" Cut="0.0000000000000000e+00" cType="1" res="4.1689045610837638e-04" rms="4.7349479794502258e-01" purity="5.5177605152130127e-01" nType="-99"/>
        </Node>
      </Node>
    </BinaryTree>
    <BinaryTree type="DecisionTree" boostWeight="1.0000000000000000e+00" itree="574">
      <Node pos="s" depth="0" NCoef="0" IVar="2" Cut="7.2861627197265625e+02" cType="1" res="-8.6803743615746498e-03" rms="4.7062218189239502e-01" purity="5.0053524971008301e-01" nType="0">
        <Node pos="l" depth="1" NCoef="0" IVar="4" Cut="4.7676187133789062e+02" cType="1" res="6.4969472587108612e-02" rms="4.6287199854850769e-01" purity="6.2367409467697144e-01" nType="0">
          <Node pos="l" depth="2" NCoef="0" IVar="-1" Cut="0.0000000000000000e+00" cType="1" res="-4.0495317080058157e-04" rms="4.8608756065368652e-01" purity="4.9470636248588562e-01" nType="-99"/>
          <Node pos="r" depth="2" NCoef="0" IVar="-1" Cut="0.0000000000000000e+00" cType="1" res="2.9538010712713003e-03" rms="4.3523454666137695e-01" purity="7.1191626787185669e-01" nType="-99"/>
        </Node>
        <Node pos="r" depth="1" NCoef="0" IVar="4" Cut="6.5530377197265625e+02" cType="1" res="-2.3575838655233383e-02" rms="4.7077545523643494e-01" purity="4.7563073039054871e-01" nType="0">
          <Node pos="l" depth="2" NCoef="0" IVar="-1" Cut="0.0000000000000000e+00" cType="1" res="-1.0567678837105632e-03" rms="4.6233218908309937e-01" purity="3.7245365977287292e-01" nType="-99"/>
          <Node pos="r" depth="2" NCoef="0" IVar="-1" Cut="0.0000000000000000e+00" cType="1" res="-2.6661191441235133e-05" rms="4.7200831770896912e-01" purity="5.1391291618347168e-01" nType="-99"/>
        </Node>
      </Node>
    </BinaryTree>
    <BinaryTree type="DecisionTree" boostWeight="1.0000000000000000e+00" itree="575">
      <Node pos="s" depth="0" NCoef="0" IVar="0" Cut="6.4517669677734375e+01" cType="1" res="-1.9399695098400116e-02" rms="4.6958369016647339e-01" purity="4.8986479640007019e-01" nType="0">
        <Node pos="l" depth="1" NCoef="0" IVar="-1" Cut="0.0000000000000000e+00" cType="1" res="-1.3245565351098776e-03" rms="4.5166316628456116e-01" purity="3.3053439855575562e-01" nType="-99"/>
        <Node pos="r" depth="1" NCoef="0" IVar="4" Cut="9.3059344482421875e+02" cType="1" res="-1.1436767876148224e-02" rms="4.7039628028869629e-01" purity="5.0450742244720459e-01" nType="0">
          <Node pos="l" depth="2" NCoef="0" IVar="-1" Cut="0.0000000000000000e+00" cType="1" res="-4.1851654532365501e-04" rms="4.6936005353927612e-01" purity="4.9079009890556335e-01" nType="-99"/>
          <Node pos="r" depth="2" NCoef="0" IVar="-1" Cut="0.0000000000000000e+00" cType="1" res="6.7410065094009042e-04" rms="4.6986064314842224e-01" purity="5.4796010255813599e-01" nType="-99"/>
        </Node>
      </Node>
    </BinaryTree>
    <BinaryTree type="DecisionTree" boostWeight="1.0000000000000000e+00" itree="576">
      <Node pos="s" depth="0" NCoef="0" IVar="4" Cut="4.8594100952148438e+02" cType="1" res="-1.6908459365367889e-02" rms="4.7321516275405884e-01" purity="4.9239951372146606e-01" nType="0">
        <Node pos="l" depth="1" NCoef="0" IVar="-1" Cut="0.0000000000000000e+00" cType="1" res="-1.2807843741029501e-03" rms="4.6068814396858215e-01" purity="3.9047127962112427e-01" nType="-99"/>
        <Node pos="r" depth="1" NCoef="0" IVar="2" Cut="8.5099237060546875e+02" cType="1" res="-7.6072500087320805e-03" rms="4.7377783060073853e-01" purity="5.0426858663558960e-01" nType="0">
          <Node pos="l" depth="2" NCoef="0" IVar="-1" Cut="0.0000000000000000e+00" cType="1" res="1.0434546275064349e-03" rms="4.6872475743293762e-01" purity="6.0996824502944946e-01" nType="-99"/>
          <Node pos="r" depth="2" NCoef="0" IVar="-1" Cut="0.0000000000000000e+00" cType="1" res="-4.4414176954887807e-04" rms="4.7333931922912598e-01" purity="4.6786886453628540e-01" nType="-99"/>
        </Node>
      </Node>
    </BinaryTree>
    <BinaryTree type="DecisionTree" boostWeight="1.0000000000000000e+00" itree="577">
      <Node pos="s" depth="0" NCoef="0" IVar="2" Cut="1.7097161865234375e+03" cType="1" res="-1.6566798090934753e-02" rms="4.7072297334671021e-01" purity="4.9021103978157043e-01" nType="0">
        <Node pos="l" depth="1" NCoef="0" IVar="4" Cut="8.8861968994140625e+02" cType="1" res="-5.1320688799023628e-03" rms="4.6966409683227539e-01" purity="5.0655198097229004e-01" nType="0">
          <Node pos="l" depth="2" NCoef="0" IVar="-1" Cut="0.0000000000000000e+00" cType="1" res="-3.5221342113800347e-04" rms="4.6683380007743835e-01" purity="4.8201337456703186e-01" nType="-99"/>
          <Node pos="r" depth="2" NCoef="0" IVar="-1" Cut="0.0000000000000000e+00" cType="1" res="1.2088166549801826e-03" rms="4.7350618243217468e-01" purity="6.0427069664001465e-01" nType="-99"/>
        </Node>
        <Node pos="r" depth="1" NCoef="0" IVar="0" Cut="1.9904214477539062e+02" cType="1" res="-9.7292765974998474e-02" rms="4.7028717398643494e-01" purity="3.7484827637672424e-01" nType="0">
          <Node pos="l" depth="2" NCoef="0" IVar="-1" Cut="0.0000000000000000e+00" cType="1" res="-1.8155854195356369e-03" rms="4.6950507164001465e-01" purity="3.7911707162857056e-01" nType="-99"/>
          <Node pos="r" depth="2" NCoef="0" IVar="-1" Cut="0.0000000000000000e+00" cType="1" res="-6.7651161225512624e-04" rms="4.6657523512840271e-01" purity="3.7084704637527466e-01" nType="-99"/>
        </Node>
      </Node>
    </BinaryTree>
    <BinaryTree type="DecisionTree" boostWeight="1.0000000000000000e+00" itree="578">
      <Node pos="s" depth="0" NCoef="0" IVar="3" Cut="8.6433845758438110e-01" cType="1" res="-5.4252254776656628e-03" rms="4.7038218379020691e-01" purity="5.0718235969543457e-01" nType="0">
        <Node pos="l" depth="1" NCoef="0" IVar="2" Cut="8.9100897216796875e+02" cType="1" res="-6.6767327487468719e-02" rms="4.6763467788696289e-01" purity="3.6220845580101013e-01" nType="0">
          <Node pos="l" depth="2" NCoef="0" IVar="-1" Cut="0.0000000000000000e+00" cType="1" res="-1.2740666279569268e-03" rms="4.6198523044586182e-01" purity="3.3900600671768188e-01" nType="-99"/>
          <Node pos="r" depth="2" NCoef="0" IVar="-1" Cut="0.0000000000000000e+00" cType="1" res="-5.3397315787151456e-04" rms="4.6929872035980225e-01" purity="3.7612363696098328e-01" nType="-99"/>
        </Node>
        <Node pos="r" depth="1" NCoef="0" IVar="1" Cut="1.4416984558105469e+02" cType="1" res="9.7548980265855789e-03" rms="4.6982502937316895e-01" purity="5.4305857419967651e-01" nType="0">
          <Node pos="l" depth="2" NCoef="0" IVar="-1" Cut="0.0000000000000000e+00" cType="1" res="3.4450140083208680e-04" rms="4.7026127576828003e-01" purity="5.6825119256973267e-01" nType="-99"/>
          <Node pos="r" depth="2" NCoef="0" IVar="-1" Cut="0.0000000000000000e+00" cType="1" res="-1.1091028572991490e-03" rms="4.5372506976127625e-01" purity="3.0674907565116882e-01" nType="-99"/>
        </Node>
      </Node>
    </BinaryTree>
    <BinaryTree type="DecisionTree" boostWeight="1.0000000000000000e+00" itree="579">
      <Node pos="s" depth="0" NCoef="0" IVar="2" Cut="8.5056689453125000e+02" cType="1" res="-9.1807506978511810e-03" rms="4.7262996435165405e-01" purity="5.0166505575180054e-01" nType="0">
        <Node pos="l" depth="1" NCoef="0" IVar="4" Cut="5.9122875976562500e+02" cType="1" res="2.6011455804109573e-02" rms="4.7069436311721802e-01" purity="5.5958145856857300e-01" nType="0">
          <Node pos="l" depth="2" NCoef="0" IVar="-1" Cut="0.0000000000000000e+00" cType="1" res="-2.9174215160310268e-04" rms="4.7424590587615967e-01" purity="5.0555318593978882e-01" nType="-99"/>
          <Node pos="r" depth="2" NCoef="0" IVar="-1" Cut="0.0000000000000000e+00" cType="1" res="2.6012337766587734e-03" rms="4.4606703519821167e-01" purity="6.8180602788925171e-01" nType="-99"/>
        </Node>
        <Node pos="r" depth="1" NCoef="0" IVar="4" Cut="8.9766571044921875e+02" cType="1" res="-2.5487225502729416e-02" rms="4.7263658046722412e-01" purity="4.7482919692993164e-01" nType="0">
          <Node pos="l" depth="2" NCoef="0" IVar="-1" Cut="0.0000000000000000e+00" cType="1" res="-8.5376226343214512e-04" rms="4.7191694378852844e-01" purity="4.3263673782348633e-01" nType="-99"/>
          <Node pos="r" depth="2" NCoef="0" IVar="-1" Cut="0.0000000000000000e+00" cType="1" res="4.2763358214870095e-04" rms="4.6888476610183716e-01" purity="5.3908735513687134e-01" nType="-99"/>
        </Node>
      </Node>
    </BinaryTree>
    <BinaryTree type="DecisionTree" boostWeight="1.0000000000000000e+00" itree="580">
      <Node pos="s" depth="0" NCoef="0" IVar="2" Cut="1.2352324218750000e+03" cType="1" res="6.2410240061581135e-03" rms="4.7183203697204590e-01" purity="5.1636570692062378e-01" nType="0">
        <Node pos="l" depth="1" NCoef="0" IVar="4" Cut="7.6963922119140625e+02" cType="1" res="2.4975862354040146e-02" rms="4.6998739242553711e-01" purity="5.4816991090774536e-01" nType="0">
          <Node pos="l" depth="2" NCoef="0" IVar="-1" Cut="0.0000000000000000e+00" cType="1" res="2.0682760805357248e-05" rms="4.7123244404792786e-01" purity="5.1318234205245972e-01" nType="-99"/>
          <Node pos="r" depth="2" NCoef="0" IVar="-1" Cut="0.0000000000000000e+00" cType="1" res="2.4416337255388498e-03" rms="4.5366519689559937e-01" purity="6.8358725309371948e-01" nType="-99"/>
        </Node>
        <Node pos="r" depth="1" NCoef="0" IVar="4" Cut="9.2660021972656250e+02" cType="1" res="-3.3082947134971619e-02" rms="4.7327467799186707e-01" purity="4.4960936903953552e-01" nType="0">
          <Node pos="l" depth="2" NCoef="0" IVar="-1" Cut="0.0000000000000000e+00" cType="1" res="-1.6562851378694177e-03" rms="4.4309481978416443e-01" purity="3.1114736199378967e-01" nType="-99"/>
          <Node pos="r" depth="2" NCoef="0" IVar="-1" Cut="0.0000000000000000e+00" cType="1" res="4.6529239625670016e-04" rms="4.7753655910491943e-01" purity="5.2637684345245361e-01" nType="-99"/>
        </Node>
      </Node>
    </BinaryTree>
    <BinaryTree type="DecisionTree" boostWeight="1.0000000000000000e+00" itree="581">
      <Node pos="s" depth="0" NCoef="0" IVar="0" Cut="6.4517669677734375e+01" cType="1" res="-1.3534993864595890e-02" rms="4.7316455841064453e-01" purity="4.9832361936569214e-01" nType="0">
        <Node pos="l" depth="1" NCoef="0" IVar="-1" Cut="0.0000000000000000e+00" cType="1" res="-1.3653626665472984e-03" rms="4.5361602306365967e-01" purity="3.3680394291877747e-01" nType="-99"/>
        <Node pos="r" depth="1" NCoef="0" IVar="4" Cut="7.0443017578125000e+02" cType="1" res="-5.0324103794991970e-03" rms="4.7400397062301636e-01" purity="5.1310116052627563e-01" nType="0">
          <Node pos="l" depth="2" NCoef="0" IVar="-1" Cut="0.0000000000000000e+00" cType="1" res="-5.1623588660731912e-04" rms="4.7164204716682434e-01" purity="4.7562345862388611e-01" nType="-99"/>
          <Node pos="r" depth="2" NCoef="0" IVar="-1" Cut="0.0000000000000000e+00" cType="1" res="3.3953640377148986e-04" rms="4.7454476356506348e-01" purity="5.4574263095855713e-01" nType="-99"/>
        </Node>
      </Node>
    </BinaryTree>
    <BinaryTree type="DecisionTree" boostWeight="1.0000000000000000e+00" itree="582">
      <Node pos="s" depth="0" NCoef="0" IVar="2" Cut="1.7182647705078125e+03" cType="1" res="-1.1506344191730022e-02" rms="4.6956390142440796e-01" purity="4.9749675393104553e-01" nType="0">
        <Node pos="l" depth="1" NCoef="0" IVar="1" Cut="1.3422599792480469e+02" cType="1" res="9.5168309053406119e-04" rms="4.6828526258468628e-01" purity="5.1454889774322510e-01" nType="0">
          <Node pos="l" depth="2" NCoef="0" IVar="-1" Cut="0.0000000000000000e+00" cType="1" res="2.6764703216031194e-04" rms="4.6918538212776184e-01" purity="5.4855769872665405e-01" nType="-99"/>
          <Node pos="r" depth="2" NCoef="0" IVar="-1" Cut="0.0000000000000000e+00" cType="1" res="-8.2874088548123837e-04" rms="4.5932814478874207e-01" purity="3.7834790349006653e-01" nType="-99"/>
        </Node>
        <Node pos="r" depth="1" NCoef="0" IVar="1" Cut="1.2653775024414062e+02" cType="1" res="-9.9096685647964478e-02" rms="4.6921020746231079e-01" purity="3.7760627269744873e-01" nType="0">
          <Node pos="l" depth="2" NCoef="0" IVar="-1" Cut="0.0000000000000000e+00" cType="1" res="-1.6013600397855043e-03" rms="4.6192255616188049e-01" purity="3.6447298526763916e-01" nType="-99"/>
          <Node pos="r" depth="2" NCoef="0" IVar="-1" Cut="0.0000000000000000e+00" cType="1" res="-8.5602432955056429e-04" rms="4.7492274641990662e-01" purity="3.9231958985328674e-01" nType="-99"/>
        </Node>
      </Node>
    </BinaryTree>
    <BinaryTree type="DecisionTree" boostWeight="1.0000000000000000e+00" itree="583">
      <Node pos="s" depth="0" NCoef="0" IVar="2" Cut="6.8409606933593750e+02" cType="1" res="1.2219815980643034e-03" rms="4.7315505146980286e-01" purity="5.1496350765228271e-01" nType="0">
        <Node pos="l" depth="1" NCoef="0" IVar="5" Cut="3.3747911453247070e-01" cType="1" res="8.6745843291282654e-02" rms="4.6179595589637756e-01" purity="6.5151208639144897e-01" nType="0">
          <Node pos="l" depth="2" NCoef="0" IVar="-1" Cut="0.0000000000000000e+00" cType="1" res="-8.4545834397431463e-05" rms="4.8129567503929138e-01" purity="5.4708409309387207e-01" nType="-99"/>
          <Node pos="r" depth="2" NCoef="0" IVar="-1" Cut="0.0000000000000000e+00" cType="1" res="4.6816947869956493e-03" rms="4.1768637299537659e-01" purity="7.6428061723709106e-01" nType="-99"/>
        </Node>
        <Node pos="r" depth="1" NCoef="0" IVar="4" Cut="6.5359008789062500e+02" cType="1" res="-1.0877533815801144e-02" rms="4.7349447011947632e-01" purity="4.9564525485038757e-01" nType="0">
          <Node pos="l" depth="2" NCoef="0" IVar="-1" Cut="0.0000000000000000e+00" cType="1" res="-9.4200618332251906e-04" rms="4.6731999516487122e-01" purity="4.0095508098602295e-01" nType="-99"/>
          <Node pos="r" depth="2" NCoef="0" IVar="-1" Cut="0.0000000000000000e+00" cType="1" res="2.3632236116100103e-04" rms="4.7387123107910156e-01" purity="5.3688079118728638e-01" nType="-99"/>
        </Node>
      </Node>
    </BinaryTree>
    <BinaryTree type="DecisionTree" boostWeight="1.0000000000000000e+00" itree="584">
      <Node pos="s" depth="0" NCoef="0" IVar="3" Cut="8.6441469192504883e-01" cType="1" res="-3.6940765567123890e-03" rms="4.6906548738479614e-01" purity="5.0540834665298462e-01" nType="0">
        <Node pos="l" depth="1" NCoef="0" IVar="1" Cut="1.2429803466796875e+02" cType="1" res="-6.2207985669374466e-02" rms="4.6603736281394958e-01" purity="3.6654236912727356e-01" nType="0">
          <Node pos="l" depth="2" NCoef="0" IVar="-1" Cut="0.0000000000000000e+00" cType="1" res="-3.7922392948530614e-04" rms="4.7726377844810486e-01" purity="4.1131213307380676e-01" nType="-99"/>
          <Node pos="r" depth="2" NCoef="0" IVar="-1" Cut="0.0000000000000000e+00" cType="1" res="-1.1112968204542994e-03" rms="4.5283871889114380e-01" purity="3.2414683699607849e-01" nType="-99"/>
        </Node>
        <Node pos="r" depth="1" NCoef="0" IVar="1" Cut="1.4410403442382812e+02" cType="1" res="1.1069829575717449e-02" rms="4.6867367625236511e-01" purity="5.4044616222381592e-01" nType="0">
          <Node pos="l" depth="2" NCoef="0" IVar="-1" Cut="0.0000000000000000e+00" cType="1" res="3.5741666215471923e-04" rms="4.6932250261306763e-01" purity="5.6442523002624512e-01" nType="-99"/>
          <Node pos="r" depth="2" NCoef="0" IVar="-1" Cut="0.0000000000000000e+00" cType="1" res="-1.0608610464259982e-03" rms="4.5071190595626831e-01" purity="3.0610799789428711e-01" nType="-99"/>
        </Node>
      </Node>
    </BinaryTree>
    <BinaryTree type="DecisionTree" boostWeight="1.0000000000000000e+00" itree="585">
      <Node pos="s" depth="0" NCoef="0" IVar="1" Cut="1.0111934661865234e+02" cType="1" res="-1.1963675729930401e-02" rms="4.7035139799118042e-01" purity="4.9620541930198669e-01" nType="0">
        <Node pos="l" depth="1" NCoef="0" IVar="-1" Cut="0.0000000000000000e+00" cType="1" res="-1.3569636503234506e-03" rms="4.4291585683822632e-01" purity="2.9113736748695374e-01" nType="-99"/>
        <Node pos="r" depth="1" NCoef="0" IVar="3" Cut="8.9318585395812988e-01" cType="1" res="-3.1808395870029926e-03" rms="4.7168684005737305e-01" purity="5.1429134607315063e-01" nType="0">
          <Node pos="l" depth="2" NCoef="0" IVar="-1" Cut="0.0000000000000000e+00" cType="1" res="-4.2016856605187058e-04" rms="4.7798109054565430e-01" purity="4.2144918441772461e-01" nType="-99"/>
          <Node pos="r" depth="2" NCoef="0" IVar="-1" Cut="0.0000000000000000e+00" cType="1" res="5.0246901810169220e-04" rms="4.6345737576484680e-01" purity="6.0716032981872559e-01" nType="-99"/>
        </Node>
      </Node>
    </BinaryTree>
    <BinaryTree type="DecisionTree" boostWeight="1.0000000000000000e+00" itree="586">
      <Node pos="s" depth="0" NCoef="0" IVar="1" Cut="1.3411058044433594e+02" cType="1" res="-1.2146282941102982e-02" rms="4.7256439924240112e-01" purity="4.9800851941108704e-01" nType="0">
        <Node pos="l" depth="1" NCoef="0" IVar="0" Cut="3.1763314819335938e+02" cType="1" res="4.1493987664580345e-03" rms="4.7394475340843201e-01" purity="5.3722697496414185e-01" nType="0">
          <Node pos="l" depth="2" NCoef="0" IVar="-1" Cut="0.0000000000000000e+00" cType="1" res="2.7879863046109676e-04" rms="4.7496354579925537e-01" purity="5.6538379192352295e-01" nType="-99"/>
          <Node pos="r" depth="2" NCoef="0" IVar="-1" Cut="0.0000000000000000e+00" cType="1" res="-8.1931310705840588e-04" rms="4.6252894401550293e-01" purity="3.8592210412025452e-01" nType="-99"/>
        </Node>
        <Node pos="r" depth="1" NCoef="0" IVar="4" Cut="8.7483624267578125e+02" cType="1" res="-6.7578189074993134e-02" rms="4.6356967091560364e-01" purity="3.6460193991661072e-01" nType="0">
          <Node pos="l" depth="2" NCoef="0" IVar="-1" Cut="0.0000000000000000e+00" cType="1" res="-1.1535604717209935e-03" rms="4.6168184280395508e-01" purity="3.4897053241729736e-01" nType="-99"/>
          <Node pos="r" depth="2" NCoef="0" IVar="-1" Cut="0.0000000000000000e+00" cType="1" res="-4.0049798553809524e-04" rms="4.6436190605163574e-01" purity="3.9008098840713501e-01" nType="-99"/>
        </Node>
      </Node>
    </BinaryTree>
    <BinaryTree type="DecisionTree" boostWeight="1.0000000000000000e+00" itree="587">
      <Node pos="s" depth="0" NCoef="0" IVar="0" Cut="6.8099517822265625e+01" cType="1" res="-8.2667460665106773e-03" rms="4.7259330749511719e-01" purity="5.0304597616195679e-01" nType="0">
        <Node pos="l" depth="1" NCoef="0" IVar="-1" Cut="0.0000000000000000e+00" cType="1" res="-1.2720262166112661e-03" rms="4.5618674159049988e-01" purity="3.3550718426704407e-01" nType="-99"/>
        <Node pos="r" depth="1" NCoef="0" IVar="2" Cut="1.3417056884765625e+03" cType="1" res="1.9516564207151532e-03" rms="4.7327753901481628e-01" purity="5.2164876461029053e-01" nType="0">
          <Node pos="l" depth="2" NCoef="0" IVar="-1" Cut="0.0000000000000000e+00" cType="1" res="3.7202655221335590e-04" rms="4.6839946508407593e-01" purity="5.5435585975646973e-01" nType="-99"/>
          <Node pos="r" depth="2" NCoef="0" IVar="-1" Cut="0.0000000000000000e+00" cType="1" res="-7.1162171661853790e-04" rms="4.8167639970779419e-01" purity="4.3565115332603455e-01" nType="-99"/>
        </Node>
      </Node>
    </BinaryTree>
    <BinaryTree type="DecisionTree" boostWeight="1.0000000000000000e+00" itree="588">
      <Node pos="s" depth="0" NCoef="0" IVar="1" Cut="1.4459587097167969e+02" cType="1" res="-7.1013639681041241e-03" rms="4.6800133585929871e-01" purity="5.0136744976043701e-01" nType="0">
        <Node pos="l" depth="1" NCoef="0" IVar="1" Cut="1.0431701660156250e+02" cType="1" res="3.4133472945541143e-03" rms="4.7052195668220520e-01" purity="5.2778524160385132e-01" nType="0">
          <Node pos="l" depth="2" NCoef="0" IVar="-1" Cut="0.0000000000000000e+00" cType="1" res="-1.0721191065385938e-03" rms="4.4859653711318970e-01" purity="3.3494806289672852e-01" nType="-99"/>
          <Node pos="r" depth="2" NCoef="0" IVar="-1" Cut="0.0000000000000000e+00" cType="1" res="2.5359951541759074e-04" rms="4.7230663895606995e-01" purity="5.5497258901596069e-01" nType="-99"/>
        </Node>
        <Node pos="r" depth="1" NCoef="0" IVar="-1" Cut="0.0000000000000000e+00" cType="1" res="-1.1958867544308305e-03" rms="4.3503263592720032e-01" purity="2.7237203717231750e-01" nType="-99"/>
      </Node>
    </BinaryTree>
    <BinaryTree type="DecisionTree" boostWeight="1.0000000000000000e+00" itree="589">
      <Node pos="s" depth="0" NCoef="0" IVar="4" Cut="5.9946795654296875e+02" cType="1" res="7.9295942559838295e-03" rms="4.7115245461463928e-01" purity="5.1935857534408569e-01" nType="0">
        <Node pos="l" depth="1" NCoef="0" IVar="2" Cut="7.3262713623046875e+02" cType="1" res="-4.6973634511232376e-02" rms="4.6469494700431824e-01" purity="4.5072129368782043e-01" nType="0">
          <Node pos="l" depth="2" NCoef="0" IVar="-1" Cut="0.0000000000000000e+00" cType="1" res="8.7635853560641408e-05" rms="4.7856765985488892e-01" purity="5.6082272529602051e-01" nType="-99"/>
          <Node pos="r" depth="2" NCoef="0" IVar="-1" Cut="0.0000000000000000e+00" cType="1" res="-1.3635895447805524e-03" rms="4.3757367134094238e-01" purity="3.1100755929946899e-01" nType="-99"/>
        </Node>
        <Node pos="r" depth="1" NCoef="0" IVar="2" Cut="9.7203265380859375e+02" cType="1" res="3.1515359878540039e-02" rms="4.7194230556488037e-01" purity="5.4884433746337891e-01" nType="0">
          <Node pos="l" depth="2" NCoef="0" IVar="-1" Cut="0.0000000000000000e+00" cType="1" res="2.0644066389650106e-03" rms="4.5770892500877380e-01" purity="6.6125553846359253e-01" nType="-99"/>
          <Node pos="r" depth="2" NCoef="0" IVar="-1" Cut="0.0000000000000000e+00" cType="1" res="5.7736466260394081e-05" rms="4.7404327988624573e-01" purity="5.0755602121353149e-01" nType="-99"/>
        </Node>
      </Node>
    </BinaryTree>
    <BinaryTree type="DecisionTree" boostWeight="1.0000000000000000e+00" itree="590">
      <Node pos="s" depth="0" NCoef="0" IVar="3" Cut="9.5349103212356567e-01" cType="1" res="-6.8192714825272560e-03" rms="4.6985140442848206e-01" purity="5.0340044498443604e-01" nType="0">
        <Node pos="l" depth="1" NCoef="0" IVar="0" Cut="8.5038093566894531e+01" cType="1" res="-1.8878417089581490e-02" rms="4.7426506876945496e-01" purity="4.7435146570205688e-01" nType="0">
          <Node pos="l" depth="2" NCoef="0" IVar="-1" Cut="0.0000000000000000e+00" cType="1" res="-1.1828278657048941e-03" rms="4.5425993204116821e-01" purity="3.4781935811042786e-01" nType="-99"/>
          <Node pos="r" depth="2" NCoef="0" IVar="-1" Cut="0.0000000000000000e+00" cType="1" res="-4.7158202505670488e-05" rms="4.7669723629951477e-01" purity="5.0008261203765869e-01" nType="-99"/>
        </Node>
        <Node pos="r" depth="1" NCoef="0" IVar="4" Cut="6.7087524414062500e+02" cType="1" res="8.0676935613155365e-02" rms="4.2639836668968201e-01" purity="7.1416789293289185e-01" nType="0">
          <Node pos="l" depth="2" NCoef="0" IVar="-1" Cut="0.0000000000000000e+00" cType="1" res="4.8081661225296557e-04" rms="4.5483234524726868e-01" purity="6.4568430185317993e-01" nType="-99"/>
          <Node pos="r" depth="2" NCoef="0" IVar="-1" Cut="0.0000000000000000e+00" cType="1" res="3.4542100038379431e-03" rms="3.9901545643806458e-01" purity="7.6397049427032471e-01" nType="-99"/>
        </Node>
      </Node>
    </BinaryTree>
    <BinaryTree type="DecisionTree" boostWeight="1.0000000000000000e+00" itree="591">
      <Node pos="s" depth="0" NCoef="0" IVar="3" Cut="9.1233193874359131e-01" cType="1" res="8.9759072288870811e-03" rms="4.7165778279304504e-01" purity="5.2203714847564697e-01" nType="0">
        <Node pos="l" depth="1" NCoef="0" IVar="1" Cut="1.0890672302246094e+02" cType="1" res="-9.6095427870750427e-03" rms="4.7915849089622498e-01" purity="4.5517683029174805e-01" nType="0">
          <Node pos="l" depth="2" NCoef="0" IVar="-1" Cut="0.0000000000000000e+00" cType="1" res="-7.8246975317597389e-04" rms="4.6263983845710754e-01" purity="3.4628924727439880e-01" nType="-99"/>
          <Node pos="r" depth="2" NCoef="0" IVar="-1" Cut="0.0000000000000000e+00" cType="1" res="1.7004655092023313e-05" rms="4.8184365034103394e-01" purity="4.7795975208282471e-01" nType="-99"/>
        </Node>
        <Node pos="r" depth="1" NCoef="0" IVar="2" Cut="8.7145147705078125e+02" cType="1" res="4.2062435299158096e-02" rms="4.5613059401512146e-01" purity="6.4106434583663940e-01" nType="0">
          <Node pos="l" depth="2" NCoef="0" IVar="-1" Cut="0.0000000000000000e+00" cType="1" res="1.9545510876923800e-03" rms="4.3748185038566589e-01" purity="7.0824486017227173e-01" nType="-99"/>
          <Node pos="r" depth="2" NCoef="0" IVar="-1" Cut="0.0000000000000000e+00" cType="1" res="3.5788383684121072e-04" rms="4.6515554189682007e-01" purity="6.0168379545211792e-01" nType="-99"/>
        </Node>
      </Node>
    </BinaryTree>
    <BinaryTree type="DecisionTree" boostWeight="1.0000000000000000e+00" itree="592">
      <Node pos="s" depth="0" NCoef="0" IVar="3" Cut="8.6438387632369995e-01" cType="1" res="-2.5940364226698875e-02" rms="4.7155052423477173e-01" purity="4.8318985104560852e-01" nType="0">
        <Node pos="l" depth="1" NCoef="0" IVar="4" Cut="6.4839898681640625e+02" cType="1" res="-8.8100321590900421e-02" rms="4.5959833264350891e-01" purity="3.3741769194602966e-01" nType="0">
          <Node pos="l" depth="2" NCoef="0" IVar="-1" Cut="0.0000000000000000e+00" cType="1" res="-1.3591467868536711e-03" rms="4.3924281001091003e-01" purity="2.8665891289710999e-01" nType="-99"/>
          <Node pos="r" depth="2" NCoef="0" IVar="-1" Cut="0.0000000000000000e+00" cType="1" res="-7.7417248394340277e-04" rms="4.7132456302642822e-01" purity="3.7257105112075806e-01" nType="-99"/>
        </Node>
        <Node pos="r" depth="1" NCoef="0" IVar="4" Cut="6.9706341552734375e+02" cType="1" res="-1.0294733569025993e-02" rms="4.7322702407836914e-01" purity="5.1988065242767334e-01" nType="0">
          <Node pos="l" depth="2" NCoef="0" IVar="-1" Cut="0.0000000000000000e+00" cType="1" res="-5.8821815764531493e-04" rms="4.6883833408355713e-01" purity="4.7595176100730896e-01" nType="-99"/>
          <Node pos="r" depth="2" NCoef="0" IVar="-1" Cut="0.0000000000000000e+00" cType="1" res="2.9121129773557186e-04" rms="4.7554200887680054e-01" purity="5.5984938144683838e-01" nType="-99"/>
        </Node>
      </Node>
    </BinaryTree>
    <BinaryTree type="DecisionTree" boostWeight="1.0000000000000000e+00" itree="593">
      <Node pos="s" depth="0" NCoef="0" IVar="1" Cut="9.9764961242675781e+01" cType="1" res="-2.1332886070013046e-02" rms="4.7189652919769287e-01" purity="4.8907747864723206e-01" nType="0">
        <Node pos="l" depth="1" NCoef="0" IVar="-1" Cut="0.0000000000000000e+00" cType="1" res="-1.4313076389953494e-03" rms="4.3655243515968323e-01" purity="2.7556607127189636e-01" nType="-99"/>
        <Node pos="r" depth="1" NCoef="0" IVar="4" Cut="5.4810174560546875e+02" cType="1" res="-1.2924531474709511e-02" rms="4.7366982698440552e-01" purity="5.0646936893463135e-01" nType="0">
          <Node pos="l" depth="2" NCoef="0" IVar="-1" Cut="0.0000000000000000e+00" cType="1" res="-9.6982793183997273e-04" rms="4.5205512642860413e-01" purity="4.2038631439208984e-01" nType="-99"/>
          <Node pos="r" depth="2" NCoef="0" IVar="-1" Cut="0.0000000000000000e+00" cType="1" res="5.2034934924449772e-05" rms="4.7812697291374207e-01" purity="5.2998578548431396e-01" nType="-99"/>
        </Node>
      </Node>
    </BinaryTree>
    <BinaryTree type="DecisionTree" boostWeight="1.0000000000000000e+00" itree="594">
      <Node pos="s" depth="0" NCoef="0" IVar="0" Cut="1.9632406616210938e+02" cType="1" res="-1.8988295923918486e-03" rms="4.6666681766510010e-01" purity="5.0635766983032227e-01" nType="0">
        <Node pos="l" depth="1" NCoef="0" IVar="0" Cut="8.9742652893066406e+01" cType="1" res="2.2164700552821159e-02" rms="4.6671596169471741e-01" purity="5.6349432468414307e-01" nType="0">
          <Node pos="l" depth="2" NCoef="0" IVar="-1" Cut="0.0000000000000000e+00" cType="1" res="-7.6498446287587285e-04" rms="4.7271320223808289e-01" purity="4.2176523804664612e-01" nType="-99"/>
          <Node pos="r" depth="2" NCoef="0" IVar="-1" Cut="0.0000000000000000e+00" cType="1" res="9.7329932032153010e-04" rms="4.6055531501770020e-01" purity="6.1950105428695679e-01" nType="-99"/>
        </Node>
        <Node pos="r" depth="1" NCoef="0" IVar="4" Cut="6.6441540527343750e+02" cType="1" res="-4.3199755251407623e-02" rms="4.6368050575256348e-01" purity="4.0829235315322876e-01" nType="0">
          <Node pos="l" depth="2" NCoef="0" IVar="-1" Cut="0.0000000000000000e+00" cType="1" res="-1.3624200364574790e-03" rms="4.2520204186439514e-01" purity="2.9827177524566650e-01" nType="-99"/>
          <Node pos="r" depth="2" NCoef="0" IVar="-1" Cut="0.0000000000000000e+00" cType="1" res="-2.2603268735110760e-04" rms="4.7446951270103455e-01" purity="4.4977355003356934e-01" nType="-99"/>
        </Node>
      </Node>
    </BinaryTree>
    <BinaryTree type="DecisionTree" boostWeight="1.0000000000000000e+00" itree="595">
      <Node pos="s" depth="0" NCoef="0" IVar="1" Cut="9.9912246704101562e+01" cType="1" res="-4.8430371098220348e-03" rms="4.6850702166557312e-01" purity="5.0279557704925537e-01" nType="0">
        <Node pos="l" depth="1" NCoef="0" IVar="-1" Cut="0.0000000000000000e+00" cType="1" res="-1.5504525508731604e-03" rms="4.2802220582962036e-01" purity="2.6853042840957642e-01" nType="-99"/>
        <Node pos="r" depth="1" NCoef="0" IVar="2" Cut="9.4135211181640625e+02" cType="1" res="5.2959900349378586e-03" rms="4.7026610374450684e-01" purity="5.2214896678924561e-01" nType="0">
          <Node pos="l" depth="2" NCoef="0" IVar="-1" Cut="0.0000000000000000e+00" cType="1" res="6.8894127616658807e-04" rms="4.6675616502761841e-01" purity="5.7857209444046021e-01" nType="-99"/>
          <Node pos="r" depth="2" NCoef="0" IVar="-1" Cut="0.0000000000000000e+00" cType="1" res="-3.0762463575229049e-04" rms="4.7117546200752258e-01" purity="4.7960710525512695e-01" nType="-99"/>
        </Node>
      </Node>
    </BinaryTree>
    <BinaryTree type="DecisionTree" boostWeight="1.0000000000000000e+00" itree="596">
      <Node pos="s" depth="0" NCoef="0" IVar="4" Cut="5.9837628173828125e+02" cType="1" res="-5.4195951670408249e-03" rms="4.7028103470802307e-01" purity="5.0259166955947876e-01" nType="0">
        <Node pos="l" depth="1" NCoef="0" IVar="2" Cut="7.3026245117187500e+02" cType="1" res="-5.9330541640520096e-02" rms="4.5715343952178955e-01" purity="4.3405246734619141e-01" nType="0">
          <Node pos="l" depth="2" NCoef="0" IVar="-1" Cut="0.0000000000000000e+00" cType="1" res="-1.5990599058568478e-04" rms="4.7172898054122925e-01" purity="5.4246681928634644e-01" nType="-99"/>
          <Node pos="r" depth="2" NCoef="0" IVar="-1" Cut="0.0000000000000000e+00" cType="1" res="-1.4480653917416930e-03" rms="4.3203049898147583e-01" purity="3.0538409948348999e-01" nType="-99"/>
        </Node>
        <Node pos="r" depth="1" NCoef="0" IVar="2" Cut="1.1462775878906250e+03" cType="1" res="1.7840454354882240e-02" rms="4.7394320368766785e-01" purity="5.3216308355331421e-01" nType="0">
          <Node pos="l" depth="2" NCoef="0" IVar="-1" Cut="0.0000000000000000e+00" cType="1" res="1.0298214619979262e-03" rms="4.7009968757629395e-01" purity="6.0129237174987793e-01" nType="-99"/>
          <Node pos="r" depth="2" NCoef="0" IVar="-1" Cut="0.0000000000000000e+00" cType="1" res="-2.4803585256449878e-04" rms="4.7449466586112976e-01" purity="4.7235104441642761e-01" nType="-99"/>
        </Node>
      </Node>
    </BinaryTree>
    <BinaryTree type="DecisionTree" boostWeight="1.0000000000000000e+00" itree="597">
      <Node pos="s" depth="0" NCoef="0" IVar="3" Cut="8.8037937879562378e-01" cType="1" res="7.4002761393785477e-03" rms="4.6899443864822388e-01" purity="5.1800119876861572e-01" nType="0">
        <Node pos="l" depth="1" NCoef="0" IVar="4" Cut="8.4008697509765625e+02" cType="1" res="-3.2728660851716995e-02" rms="4.6899047493934631e-01" purity="4.0152797102928162e-01" nType="0">
          <Node pos="l" depth="2" NCoef="0" IVar="-1" Cut="0.0000000000000000e+00" cType="1" res="-7.8371283598244190e-04" rms="4.6150782704353333e-01" purity="3.6729547381401062e-01" nType="-99"/>
          <Node pos="r" depth="2" NCoef="0" IVar="-1" Cut="0.0000000000000000e+00" cType="1" res="4.9770792247727513e-04" rms="4.7832471132278442e-01" purity="4.7715577483177185e-01" nType="-99"/>
        </Node>
        <Node pos="r" depth="1" NCoef="0" IVar="2" Cut="1.7688897705078125e+03" cType="1" res="3.2529793679714203e-02" rms="4.6724531054496765e-01" purity="5.9093910455703735e-01" nType="0">
          <Node pos="l" depth="2" NCoef="0" IVar="-1" Cut="0.0000000000000000e+00" cType="1" res="8.2726514665409923e-04" rms="4.6389737725257874e-01" purity="6.0765391588211060e-01" nType="-99"/>
          <Node pos="r" depth="2" NCoef="0" IVar="-1" Cut="0.0000000000000000e+00" cType="1" res="-9.2128006508573890e-04" rms="4.8328393697738647e-01" purity="4.5079159736633301e-01" nType="-99"/>
        </Node>
      </Node>
    </BinaryTree>
    <BinaryTree type="DecisionTree" boostWeight="1.0000000000000000e+00" itree="598">
      <Node pos="s" depth="0" NCoef="0" IVar="2" Cut="1.0622512207031250e+03" cType="1" res="-1.6563028097152710e-02" rms="4.7317206859588623e-01" purity="4.9520936608314514e-01" nType="0">
        <Node pos="l" depth="1" NCoef="0" IVar="3" Cut="8.8031733036041260e-01" cType="1" res="6.3862074166536331e-03" rms="4.7045031189918518e-01" purity="5.3006047010421753e-01" nType="0">
          <Node pos="l" depth="2" NCoef="0" IVar="-1" Cut="0.0000000000000000e+00" cType="1" res="-5.3304195171222091e-04" rms="4.6957340836524963e-01" purity="4.0181413292884827e-01" nType="-99"/>
          <Node pos="r" depth="2" NCoef="0" IVar="-1" Cut="0.0000000000000000e+00" cType="1" res="7.1972777368500829e-04" rms="4.6836629509925842e-01" purity="6.1683648824691772e-01" nType="-99"/>
        </Node>
        <Node pos="r" depth="1" NCoef="0" IVar="4" Cut="1.0073594970703125e+03" cType="1" res="-4.4625774025917053e-02" rms="4.7497457265853882e-01" purity="4.5259273052215576e-01" nType="0">
          <Node pos="l" depth="2" NCoef="0" IVar="-1" Cut="0.0000000000000000e+00" cType="1" res="-1.2660063803195953e-03" rms="4.7035124897956848e-01" purity="3.9599448442459106e-01" nType="-99"/>
          <Node pos="r" depth="2" NCoef="0" IVar="-1" Cut="0.0000000000000000e+00" cType="1" res="4.4090146548114717e-04" rms="4.7212252020835876e-01" purity="5.3372699022293091e-01" nType="-99"/>
        </Node>
      </Node>
    </BinaryTree>
    <BinaryTree type="DecisionTree" boostWeight="1.0000000000000000e+00" itree="599">
      <Node pos="s" depth="0" NCoef="0" IVar="2" Cut="6.9515893554687500e+02" cType="1" res="-1.4262956567108631e-02" rms="4.7156971693038940e-01" purity="4.9677115678787231e-01" nType="0">
        <Node pos="l" depth="1" NCoef="0" IVar="1" Cut="1.2016058349609375e+02" cType="1" res="8.4608547389507294e-02" rms="4.5997527241706848e-01" purity="6.4890092611312866e-01" nType="0">
          <Node pos="l" depth="2" NCoef="0" IVar="-1" Cut="0.0000000000000000e+00" cType="1" res="6.3308153767138720e-04" rms="4.7757422924041748e-01" purity="6.0056650638580322e-01" nType="-99"/>
          <Node pos="r" depth="2" NCoef="0" IVar="-1" Cut="0.0000000000000000e+00" cType="1" res="2.6727584190666676e-03" rms="4.4227632880210876e-01" purity="6.8606823682785034e-01" nType="-99"/>
        </Node>
        <Node pos="r" depth="1" NCoef="0" IVar="4" Cut="5.7872491455078125e+02" cType="1" res="-2.8159232810139656e-02" rms="4.7151774168014526e-01" purity="4.7538954019546509e-01" nType="0">
          <Node pos="l" depth="2" NCoef="0" IVar="-1" Cut="0.0000000000000000e+00" cType="1" res="-1.3346171472221613e-03" rms="4.4377359747886658e-01" purity="3.3689007163047791e-01" nType="-99"/>
          <Node pos="r" depth="2" NCoef="0" IVar="-1" Cut="0.0000000000000000e+00" cType="1" res="-2.4245558597613126e-04" rms="4.7478610277175903e-01" purity="4.9773010611534119e-01" nType="-99"/>
        </Node>
      </Node>
    </BinaryTree>
    <BinaryTree type="DecisionTree" boostWeight="1.0000000000000000e+00" itree="600">
      <Node pos="s" depth="0" NCoef="0" IVar="1" Cut="1.0333511352539062e+02" cType="1" res="-1.1942000128328800e-02" rms="4.6780508756637573e-01" purity="4.9601426720619202e-01" nType="0">
        <Node pos="l" depth="1" NCoef="0" IVar="-1" Cut="0.0000000000000000e+00" cType="1" res="-1.4507004525512457e-03" rms="4.3259119987487793e-01" purity="2.8551355004310608e-01" nType="-99"/>
        <Node pos="r" depth="1" NCoef="0" IVar="4" Cut="5.9216296386718750e+02" cType="1" res="9.8606315441429615e-04" rms="4.7002458572387695e-01" purity="5.2048736810684204e-01" nType="0">
          <Node pos="l" depth="2" NCoef="0" IVar="-1" Cut="0.0000000000000000e+00" cType="1" res="-7.7713723294436932e-04" rms="4.6462535858154297e-01" purity="4.5375004410743713e-01" nType="-99"/>
          <Node pos="r" depth="2" NCoef="0" IVar="-1" Cut="0.0000000000000000e+00" cType="1" res="3.8269927608780563e-04" rms="4.7035944461822510e-01" purity="5.4762071371078491e-01" nType="-99"/>
        </Node>
      </Node>
    </BinaryTree>
    <BinaryTree type="DecisionTree" boostWeight="1.0000000000000000e+00" itree="601">
      <Node pos="s" depth="0" NCoef="0" IVar="0" Cut="6.7829383850097656e+01" cType="1" res="-1.5381963923573494e-02" rms="4.7034275531768799e-01" purity="4.9426248669624329e-01" nType="0">
        <Node pos="l" depth="1" NCoef="0" IVar="-1" Cut="0.0000000000000000e+00" cType="1" res="-1.1130953207612038e-03" rms="4.6279728412628174e-01" purity="3.5353866219520569e-01" nType="-99"/>
        <Node pos="r" depth="1" NCoef="0" IVar="0" Cut="1.1136456298828125e+02" cType="1" res="-7.3272986337542534e-03" rms="4.7048062086105347e-01" purity="5.0985455513000488e-01" nType="0">
          <Node pos="l" depth="2" NCoef="0" IVar="-1" Cut="0.0000000000000000e+00" cType="1" res="8.2896812818944454e-04" rms="4.6514809131622314e-01" purity="5.9137755632400513e-01" nType="-99"/>
          <Node pos="r" depth="2" NCoef="0" IVar="-1" Cut="0.0000000000000000e+00" cType="1" res="-3.3370879827998579e-04" rms="4.7080403566360474e-01" purity="4.8757943511009216e-01" nType="-99"/>
        </Node>
      </Node>
    </BinaryTree>
    <BinaryTree type="DecisionTree" boostWeight="1.0000000000000000e+00" itree="602">
      <Node pos="s" depth="0" NCoef="0" IVar="4" Cut="6.3645098876953125e+02" cType="1" res="-5.1603135652840137e-03" rms="4.6988421678543091e-01" purity="5.0391358137130737e-01" nType="0">
        <Node pos="l" depth="1" NCoef="0" IVar="2" Cut="8.2131182861328125e+02" cType="1" res="-4.6106781810522079e-02" rms="4.6343129873275757e-01" purity="4.5090258121490479e-01" nType="0">
          <Node pos="l" depth="2" NCoef="0" IVar="-1" Cut="0.0000000000000000e+00" cType="1" res="-1.4209786604624242e-04" rms="4.6981325745582581e-01" purity="5.2134060859680176e-01" nType="-99"/>
          <Node pos="r" depth="2" NCoef="0" IVar="-1" Cut="0.0000000000000000e+00" cType="1" res="-1.5778472879901528e-03" rms="4.3763151764869690e-01" purity="2.9360607266426086e-01" nType="-99"/>
        </Node>
        <Node pos="r" depth="1" NCoef="0" IVar="1" Cut="1.0791755676269531e+02" cType="1" res="1.8027432262897491e-02" rms="4.7192648053169250e-01" purity="5.3393334150314331e-01" nType="0">
          <Node pos="l" depth="2" NCoef="0" IVar="-1" Cut="0.0000000000000000e+00" cType="1" res="-8.0187717685475945e-04" rms="4.7356319427490234e-01" purity="3.9507785439491272e-01" nType="-99"/>
          <Node pos="r" depth="2" NCoef="0" IVar="-1" Cut="0.0000000000000000e+00" cType="1" res="5.2195991156622767e-04" rms="4.7031810879707336e-01" purity="5.5849725008010864e-01" nType="-99"/>
        </Node>
      </Node>
    </BinaryTree>
    <BinaryTree type="DecisionTree" boostWeight="1.0000000000000000e+00" itree="603">
      <Node pos="s" depth="0" NCoef="0" IVar="1" Cut="1.4678958129882812e+02" cType="1" res="-5.8662495575845242e-03" rms="4.7003120183944702e-01" purity="5.0175130367279053e-01" nType="0">
        <Node pos="l" depth="1" NCoef="0" IVar="3" Cut="8.5804873704910278e-01" cType="1" res="2.8353226371109486e-03" rms="4.7238826751708984e-01" purity="5.2474129199981689e-01" nType="0">
          <Node pos="l" depth="2" NCoef="0" IVar="-1" Cut="0.0000000000000000e+00" cType="1" res="-8.8248704560101032e-04" rms="4.6781989932060242e-01" purity="3.6179518699645996e-01" nType="-99"/>
          <Node pos="r" depth="2" NCoef="0" IVar="-1" Cut="0.0000000000000000e+00" cType="1" res="2.2203367552720010e-04" rms="4.7200649976730347e-01" purity="5.4777258634567261e-01" nType="-99"/>
        </Node>
        <Node pos="r" depth="1" NCoef="0" IVar="-1" Cut="0.0000000000000000e+00" cType="1" res="-1.1470000026747584e-03" rms="4.3609711527824402e-01" purity="2.7061006426811218e-01" nType="-99"/>
      </Node>
    </BinaryTree>
    <BinaryTree type="DecisionTree" boostWeight="1.0000000000000000e+00" itree="604">
      <Node pos="s" depth="0" NCoef="0" IVar="2" Cut="1.0275411376953125e+03" cType="1" res="-1.1918003670871258e-02" rms="4.7089639306068420e-01" purity="4.9926126003265381e-01" nType="0">
        <Node pos="l" depth="1" NCoef="0" IVar="4" Cut="7.0218963623046875e+02" cType="1" res="2.0798824727535248e-02" rms="4.6872791647911072e-01" purity="5.4914575815200806e-01" nType="0">
          <Node pos="l" depth="2" NCoef="0" IVar="-1" Cut="0.0000000000000000e+00" cType="1" res="3.7438767321873456e-06" rms="4.7079065442085266e-01" purity="5.1303327083587646e-01" nType="-99"/>
          <Node pos="r" depth="2" NCoef="0" IVar="-1" Cut="0.0000000000000000e+00" cType="1" res="2.1257230546325445e-03" rms="4.5173403620719910e-01" purity="6.9000488519668579e-01" nType="-99"/>
        </Node>
        <Node pos="r" depth="1" NCoef="0" IVar="4" Cut="8.4075103759765625e+02" cType="1" res="-4.5757591724395752e-02" rms="4.7074264287948608e-01" purity="4.4766482710838318e-01" nType="0">
          <Node pos="l" depth="2" NCoef="0" IVar="-1" Cut="0.0000000000000000e+00" cType="1" res="-1.4374870806932449e-03" rms="4.5361402630805969e-01" purity="3.5109642148017883e-01" nType="-99"/>
          <Node pos="r" depth="2" NCoef="0" IVar="-1" Cut="0.0000000000000000e+00" cType="1" res="-1.2551918916869909e-04" rms="4.7547772526741028e-01" purity="4.9948078393936157e-01" nType="-99"/>
        </Node>
      </Node>
    </BinaryTree>
    <BinaryTree type="DecisionTree" boostWeight="1.0000000000000000e+00" itree="605">
      <Node pos="s" depth="0" NCoef="0" IVar="3" Cut="9.5870643854141235e-01" cType="1" res="2.1839074906893075e-04" rms="4.6836236119270325e-01" purity="5.0768506526947021e-01" nType="0">
        <Node pos="l" depth="1" NCoef="0" IVar="0" Cut="1.5920117187500000e+02" cType="1" res="-9.8339430987834930e-03" rms="4.7275176644325256e-01" purity="4.8320162296295166e-01" nType="0">
          <Node pos="l" depth="2" NCoef="0" IVar="-1" Cut="0.0000000000000000e+00" cType="1" res="3.5223236773163080e-04" rms="4.7460409998893738e-01" purity="5.4897773265838623e-01" nType="-99"/>
          <Node pos="r" depth="2" NCoef="0" IVar="-1" Cut="0.0000000000000000e+00" cType="1" res="-5.8693310711532831e-04" rms="4.6849602460861206e-01" purity="4.1352301836013794e-01" nType="-99"/>
        </Node>
        <Node pos="r" depth="1" NCoef="0" IVar="-1" Cut="0.0000000000000000e+00" cType="1" res="2.5899573229253292e-03" rms="4.1251233220100403e-01" purity="7.3977303504943848e-01" nType="-99"/>
      </Node>
    </BinaryTree>
    <BinaryTree type="DecisionTree" boostWeight="1.0000000000000000e+00" itree="606">
      <Node pos="s" depth="0" NCoef="0" IVar="2" Cut="6.9515893554687500e+02" cType="1" res="-1.7082069069147110e-02" rms="4.7143071889877319e-01" purity="4.9469083547592163e-01" nType="0">
        <Node pos="l" depth="1" NCoef="0" IVar="5" Cut="4.5589742064476013e-01" cType="1" res="6.8563036620616913e-02" rms="4.5851260423660278e-01" purity="6.3384640216827393e-01" nType="0">
          <Node pos="l" depth="2" NCoef="0" IVar="-1" Cut="0.0000000000000000e+00" cType="1" res="5.1457510562613606e-04" rms="4.6939954161643982e-01" purity="5.8897161483764648e-01" nType="-99"/>
          <Node pos="r" depth="2" NCoef="0" IVar="-1" Cut="0.0000000000000000e+00" cType="1" res="2.7919542044401169e-03" rms="4.3251946568489075e-01" purity="7.0645219087600708e-01" nType="-99"/>
        </Node>
        <Node pos="r" depth="1" NCoef="0" IVar="4" Cut="6.0362548828125000e+02" cType="1" res="-3.0332246795296669e-02" rms="4.7201174497604370e-01" purity="4.7316199541091919e-01" nType="0">
          <Node pos="l" depth="2" NCoef="0" IVar="-1" Cut="0.0000000000000000e+00" cType="1" res="-1.3554617762565613e-03" rms="4.4020238518714905e-01" purity="3.3088934421539307e-01" nType="-99"/>
          <Node pos="r" depth="2" NCoef="0" IVar="-1" Cut="0.0000000000000000e+00" cType="1" res="-1.9023939967155457e-04" rms="4.7725898027420044e-01" purity="5.0605839490890503e-01" nType="-99"/>
        </Node>
      </Node>
    </BinaryTree>
    <BinaryTree type="DecisionTree" boostWeight="1.0000000000000000e+00" itree="607">
      <Node pos="s" depth="0" NCoef="0" IVar="2" Cut="1.1549223632812500e+03" cType="1" res="-1.3825366273522377e-02" rms="4.6821650862693787e-01" purity="4.9425080418586731e-01" nType="0">
        <Node pos="l" depth="1" NCoef="0" IVar="4" Cut="6.8431866455078125e+02" cType="1" res="1.4950987882912159e-02" rms="4.6685847640037537e-01" purity="5.3931367397308350e-01" nType="0">
          <Node pos="l" depth="2" NCoef="0" IVar="-1" Cut="0.0000000000000000e+00" cType="1" res="-2.2484401415567845e-04" rms="4.6707475185394287e-01" purity="4.8917800188064575e-01" nType="-99"/>
          <Node pos="r" depth="2" NCoef="0" IVar="-1" Cut="0.0000000000000000e+00" cType="1" res="1.5421331627294421e-03" rms="4.6013525128364563e-01" purity="6.4462608098983765e-01" nType="-99"/>
        </Node>
        <Node pos="r" depth="1" NCoef="0" IVar="4" Cut="9.5996343994140625e+02" cType="1" res="-5.8612175285816193e-02" rms="4.6680665016174316e-01" purity="4.2411607503890991e-01" nType="0">
          <Node pos="l" depth="2" NCoef="0" IVar="-1" Cut="0.0000000000000000e+00" cType="1" res="-1.4799711061641574e-03" rms="4.5386919379234314e-01" purity="3.4705591201782227e-01" nType="-99"/>
          <Node pos="r" depth="2" NCoef="0" IVar="-1" Cut="0.0000000000000000e+00" cType="1" res="-1.3931325520388782e-04" rms="4.7084179520606995e-01" purity="4.8416987061500549e-01" nType="-99"/>
        </Node>
      </Node>
    </BinaryTree>
    <BinaryTree type="DecisionTree" boostWeight="1.0000000000000000e+00" itree="608">
      <Node pos="s" depth="0" NCoef="0" IVar="2" Cut="1.3599189453125000e+03" cType="1" res="-1.3518360443413258e-02" rms="4.6957203745841980e-01" purity="4.9524596333503723e-01" nType="0">
        <Node pos="l" depth="1" NCoef="0" IVar="4" Cut="8.9818218994140625e+02" cType="1" res="5.0797346048057079e-03" rms="4.6913844347000122e-01" purity="5.2391475439071655e-01" nType="0">
          <Node pos="l" depth="2" NCoef="0" IVar="-1" Cut="0.0000000000000000e+00" cType="1" res="-1.0540760558797047e-04" rms="4.6840247511863708e-01" purity="5.0645041465759277e-01" nType="-99"/>
          <Node pos="r" depth="2" NCoef="0" IVar="-1" Cut="0.0000000000000000e+00" cType="1" res="2.1293780300766230e-03" rms="4.6325850486755371e-01" purity="6.7129427194595337e-01" nType="-99"/>
        </Node>
        <Node pos="r" depth="1" NCoef="0" IVar="4" Cut="1.1003576660156250e+03" cType="1" res="-6.4182914793491364e-02" rms="4.6700909733772278e-01" purity="4.1714701056480408e-01" nType="0">
          <Node pos="l" depth="2" NCoef="0" IVar="-1" Cut="0.0000000000000000e+00" cType="1" res="-1.5804787399247289e-03" rms="4.5139983296394348e-01" purity="3.4478217363357544e-01" nType="-99"/>
          <Node pos="r" depth="2" NCoef="0" IVar="-1" Cut="0.0000000000000000e+00" cType="1" res="6.7757914621324744e-06" rms="4.7280564904212952e-01" purity="4.8744860291481018e-01" nType="-99"/>
        </Node>
      </Node>
    </BinaryTree>
    <BinaryTree type="DecisionTree" boostWeight="1.0000000000000000e+00" itree="609">
      <Node pos="s" depth="0" NCoef="0" IVar="2" Cut="7.9484027099609375e+02" cType="1" res="8.4740677848458290e-03" rms="4.6992343664169312e-01" purity="5.1835376024246216e-01" nType="0">
        <Node pos="l" depth="1" NCoef="0" IVar="1" Cut="1.3074121093750000e+02" cType="1" res="5.7522587478160858e-02" rms="4.6133762598037720e-01" purity="5.9839773178100586e-01" nType="0">
          <Node pos="l" depth="2" NCoef="0" IVar="-1" Cut="0.0000000000000000e+00" cType="1" res="1.7082758713513613e-03" rms="4.5173951983451843e-01" purity="6.4879000186920166e-01" nType="-99"/>
          <Node pos="r" depth="2" NCoef="0" IVar="-1" Cut="0.0000000000000000e+00" cType="1" res="-4.7987626749090850e-04" rms="4.7590473294258118e-01" purity="4.5432010293006897e-01" nType="-99"/>
        </Node>
        <Node pos="r" depth="1" NCoef="0" IVar="4" Cut="6.4637463378906250e+02" cType="1" res="-7.5685088522732258e-03" rms="4.7159197926521301e-01" purity="4.9217328429222107e-01" nType="0">
          <Node pos="l" depth="2" NCoef="0" IVar="-1" Cut="0.0000000000000000e+00" cType="1" res="-1.1559465201571584e-03" rms="4.4769313931465149e-01" purity="3.3824482560157776e-01" nType="-99"/>
          <Node pos="r" depth="2" NCoef="0" IVar="-1" Cut="0.0000000000000000e+00" cType="1" res="1.8651393475010991e-04" rms="4.7497245669364929e-01" purity="5.2848923206329346e-01" nType="-99"/>
        </Node>
      </Node>
    </BinaryTree>
    <BinaryTree type="DecisionTree" boostWeight="1.0000000000000000e+00" itree="610">
      <Node pos="s" depth="0" NCoef="0" IVar="0" Cut="6.7829383850097656e+01" cType="1" res="-4.3494184501469135e-03" rms="4.7212609648704529e-01" purity="5.0623095035552979e-01" nType="0">
        <Node pos="l" depth="1" NCoef="0" IVar="-1" Cut="0.0000000000000000e+00" cType="1" res="-1.1282234918326139e-03" rms="4.6024665236473083e-01" purity="3.4663113951683044e-01" nType="-99"/>
        <Node pos="r" depth="1" NCoef="0" IVar="4" Cut="6.1966931152343750e+02" cType="1" res="5.1161544397473335e-03" rms="4.7245234251022339e-01" purity="5.2373445034027100e-01" nType="0">
          <Node pos="l" depth="2" NCoef="0" IVar="-1" Cut="0.0000000000000000e+00" cType="1" res="-6.3127541216090322e-04" rms="4.6830767393112183e-01" purity="4.6663576364517212e-01" nType="-99"/>
          <Node pos="r" depth="2" NCoef="0" IVar="-1" Cut="0.0000000000000000e+00" cType="1" res="4.7305267071351409e-04" rms="4.7272500395774841e-01" purity="5.5197274684906006e-01" nType="-99"/>
        </Node>
      </Node>
    </BinaryTree>
    <BinaryTree type="DecisionTree" boostWeight="1.0000000000000000e+00" itree="611">
      <Node pos="s" depth="0" NCoef="0" IVar="4" Cut="6.8293841552734375e+02" cType="1" res="-7.0253326557576656e-03" rms="4.7030714154243469e-01" purity="5.0206935405731201e-01" nType="0">
        <Node pos="l" depth="1" NCoef="0" IVar="2" Cut="8.3624426269531250e+02" cType="1" res="-4.3883200734853745e-02" rms="4.6486937999725342e-01" purity="4.5014768838882446e-01" nType="0">
          <Node pos="l" depth="2" NCoef="0" IVar="-1" Cut="0.0000000000000000e+00" cType="1" res="9.1729642008431256e-05" rms="4.7229900956153870e-01" purity="5.3740733861923218e-01" nType="-99"/>
          <Node pos="r" depth="2" NCoef="0" IVar="-1" Cut="0.0000000000000000e+00" cType="1" res="-1.5049342764541507e-03" rms="4.3940722942352295e-01" purity="3.0243930220603943e-01" nType="-99"/>
        </Node>
        <Node pos="r" depth="1" NCoef="0" IVar="1" Cut="1.0691110992431641e+02" cType="1" res="2.2552933543920517e-02" rms="4.7255122661590576e-01" purity="5.4373627901077271e-01" nType="0">
          <Node pos="l" depth="2" NCoef="0" IVar="-1" Cut="0.0000000000000000e+00" cType="1" res="-9.9571142345666885e-04" rms="4.6912580728530884e-01" purity="3.6145728826522827e-01" nType="-99"/>
          <Node pos="r" depth="2" NCoef="0" IVar="-1" Cut="0.0000000000000000e+00" cType="1" res="6.8870192626491189e-04" rms="4.7080424427986145e-01" purity="5.7508087158203125e-01" nType="-99"/>
        </Node>
      </Node>
    </BinaryTree>
    <BinaryTree type="DecisionTree" boostWeight="1.0000000000000000e+00" itree="612">
      <Node pos="s" depth="0" NCoef="0" IVar="1" Cut="9.9903724670410156e+01" cType="1" res="-1.4086037874221802e-02" rms="4.7000294923782349e-01" purity="4.9362951517105103e-01" nType="0">
        <Node pos="l" depth="1" NCoef="0" IVar="-1" Cut="0.0000000000000000e+00" cType="1" res="-1.3882978819310665e-03" rms="4.2961859703063965e-01" purity="2.7373355627059937e-01" nType="-99"/>
        <Node pos="r" depth="1" NCoef="0" IVar="4" Cut="5.4047155761718750e+02" cType="1" res="-5.2389325574040413e-03" rms="4.7247740626335144e-01" purity="5.1346939802169800e-01" nType="0">
          <Node pos="l" depth="2" NCoef="0" IVar="-1" Cut="0.0000000000000000e+00" cType="1" res="-8.7317731231451035e-04" rms="4.5734092593193054e-01" purity="4.2774674296379089e-01" nType="-99"/>
          <Node pos="r" depth="2" NCoef="0" IVar="-1" Cut="0.0000000000000000e+00" cType="1" res="1.4720458420924842e-04" rms="4.7502070665359497e-01" purity="5.3456676006317139e-01" nType="-99"/>
        </Node>
      </Node>
    </BinaryTree>
    <BinaryTree type="DecisionTree" boostWeight="1.0000000000000000e+00" itree="613">
      <Node pos="s" depth="0" NCoef="0" IVar="1" Cut="1.3762495422363281e+02" cType="1" res="-1.8916275352239609e-02" rms="4.7022747993469238e-01" purity="4.9188643693923950e-01" nType="0">
        <Node pos="l" depth="1" NCoef="0" IVar="5" Cut="4.5831042528152466e-01" cType="1" res="-6.8265614099800587e-03" rms="4.7316864132881165e-01" purity="5.2434849739074707e-01" nType="0">
          <Node pos="l" depth="2" NCoef="0" IVar="-1" Cut="0.0000000000000000e+00" cType="1" res="-4.9366219900548458e-04" rms="4.7271627187728882e-01" purity="4.9144375324249268e-01" nType="-99"/>
          <Node pos="r" depth="2" NCoef="0" IVar="-1" Cut="0.0000000000000000e+00" cType="1" res="3.3082300797104836e-04" rms="4.7212570905685425e-01" purity="5.6012213230133057e-01" nType="-99"/>
        </Node>
        <Node pos="r" depth="1" NCoef="0" IVar="5" Cut="4.7912201285362244e-01" cType="1" res="-7.8314885497093201e-02" rms="4.5081609487533569e-01" purity="3.3239519596099854e-01" nType="0">
          <Node pos="l" depth="2" NCoef="0" IVar="-1" Cut="0.0000000000000000e+00" cType="1" res="-4.1710442746989429e-04" rms="4.5558729767799377e-01" purity="3.7165719270706177e-01" nType="-99"/>
          <Node pos="r" depth="2" NCoef="0" IVar="-1" Cut="0.0000000000000000e+00" cType="1" res="-1.4435764169320464e-03" rms="4.4218590855598450e-01" purity="2.9793703556060791e-01" nType="-99"/>
        </Node>
      </Node>
    </BinaryTree>
    <BinaryTree type="DecisionTree" boostWeight="1.0000000000000000e+00" itree="614">
      <Node pos="s" depth="0" NCoef="0" IVar="3" Cut="8.9636033773422241e-01" cType="1" res="-5.3371451795101166e-03" rms="4.6478134393692017e-01" purity="5.0066554546356201e-01" nType="0">
        <Node pos="l" depth="1" NCoef="0" IVar="5" Cut="7.8633576631546021e-01" cType="1" res="-3.9638470858335495e-02" rms="4.6530252695083618e-01" purity="4.0004321932792664e-01" nType="0">
          <Node pos="l" depth="2" NCoef="0" IVar="-1" Cut="0.0000000000000000e+00" cType="1" res="-6.5595074556767941e-04" rms="4.6301245689392090e-01" purity="3.8571801781654358e-01" nType="-99"/>
          <Node pos="r" depth="2" NCoef="0" IVar="-1" Cut="0.0000000000000000e+00" cType="1" res="9.2679623048752546e-04" rms="4.7104895114898682e-01" purity="5.1562243700027466e-01" nType="-99"/>
        </Node>
        <Node pos="r" depth="1" NCoef="0" IVar="2" Cut="8.1018109130859375e+02" cType="1" res="3.3934988081455231e-02" rms="4.6106106042861938e-01" purity="6.1586970090866089e-01" nType="0">
          <Node pos="l" depth="2" NCoef="0" IVar="-1" Cut="0.0000000000000000e+00" cType="1" res="2.0396823529154062e-03" rms="4.4513916969299316e-01" purity="7.0940476655960083e-01" nType="-99"/>
          <Node pos="r" depth="2" NCoef="0" IVar="-1" Cut="0.0000000000000000e+00" cType="1" res="2.4760517408140004e-04" rms="4.6543848514556885e-01" purity="5.8008611202239990e-01" nType="-99"/>
        </Node>
      </Node>
    </BinaryTree>
    <BinaryTree type="DecisionTree" boostWeight="1.0000000000000000e+00" itree="615">
      <Node pos="s" depth="0" NCoef="0" IVar="1" Cut="9.9138389587402344e+01" cType="1" res="-1.2736381962895393e-02" rms="4.6800360083580017e-01" purity="4.9501320719718933e-01" nType="0">
        <Node pos="l" depth="1" NCoef="0" IVar="-1" Cut="0.0000000000000000e+00" cType="1" res="-1.3272580690681934e-03" rms="4.3777835369110107e-01" purity="2.8153517842292786e-01" nType="-99"/>
        <Node pos="r" depth="1" NCoef="0" IVar="1" Cut="1.4718794250488281e+02" cType="1" res="-4.8668477684259415e-03" rms="4.6945762634277344e-01" purity="5.1214301586151123e-01" nType="0">
          <Node pos="l" depth="2" NCoef="0" IVar="-1" Cut="0.0000000000000000e+00" cType="1" res="1.0711622599046677e-04" rms="4.7252586483955383e-01" purity="5.3992414474487305e-01" nType="-99"/>
          <Node pos="r" depth="2" NCoef="0" IVar="-1" Cut="0.0000000000000000e+00" cType="1" res="-1.3706854078918695e-03" rms="4.2323967814445496e-01" purity="2.4598544836044312e-01" nType="-99"/>
        </Node>
      </Node>
    </BinaryTree>
    <BinaryTree type="DecisionTree" boostWeight="1.0000000000000000e+00" itree="616">
      <Node pos="s" depth="0" NCoef="0" IVar="1" Cut="1.3162062072753906e+02" cType="1" res="-7.9576727002859116e-03" rms="4.7016954421997070e-01" purity="5.0268572568893433e-01" nType="0">
        <Node pos="l" depth="1" NCoef="0" IVar="5" Cut="2.7045154571533203e-01" cType="1" res="1.5063274651765823e-02" rms="4.7120016813278198e-01" purity="5.4917037487030029e-01" nType="0">
          <Node pos="l" depth="2" NCoef="0" IVar="-1" Cut="0.0000000000000000e+00" cType="1" res="-5.8944907505065203e-04" rms="4.7116628289222717e-01" purity="4.8857018351554871e-01" nType="-99"/>
          <Node pos="r" depth="2" NCoef="0" IVar="-1" Cut="0.0000000000000000e+00" cType="1" res="6.1201484641060233e-04" rms="4.6954241394996643e-01" purity="5.7429170608520508e-01" nType="-99"/>
        </Node>
        <Node pos="r" depth="1" NCoef="0" IVar="4" Cut="9.8530627441406250e+02" cType="1" res="-6.6201008856296539e-02" rms="4.6246254444122314e-01" purity="3.8507869839668274e-01" nType="0">
          <Node pos="l" depth="2" NCoef="0" IVar="-1" Cut="0.0000000000000000e+00" cType="1" res="-1.1914555216208100e-03" rms="4.5823803544044495e-01" purity="3.6472660303115845e-01" nType="-99"/>
          <Node pos="r" depth="2" NCoef="0" IVar="-1" Cut="0.0000000000000000e+00" cType="1" res="2.0613726519513875e-04" rms="4.6679952740669250e-01" purity="4.5004025101661682e-01" nType="-99"/>
        </Node>
      </Node>
    </BinaryTree>
    <BinaryTree type="DecisionTree" boostWeight="1.0000000000000000e+00" itree="617">
      <Node pos="s" depth="0" NCoef="0" IVar="4" Cut="1.0037093505859375e+03" cType="1" res="-1.4798029325902462e-02" rms="4.6795117855072021e-01" purity="4.9185547232627869e-01" nType="0">
        <Node pos="l" depth="1" NCoef="0" IVar="2" Cut="1.1077587890625000e+03" cType="1" res="-3.2215822488069534e-02" rms="4.6603927016258240e-01" purity="4.7539195418357849e-01" nType="0">
          <Node pos="l" depth="2" NCoef="0" IVar="-1" Cut="0.0000000000000000e+00" cType="1" res="-5.7470633691991679e-06" rms="4.6684747934341431e-01" purity="5.1949375867843628e-01" nType="-99"/>
          <Node pos="r" depth="2" NCoef="0" IVar="-1" Cut="0.0000000000000000e+00" cType="1" res="-1.4214135007932782e-03" rms="4.5469054579734802e-01" purity="3.6716306209564209e-01" nType="-99"/>
        </Node>
        <Node pos="r" depth="1" NCoef="0" IVar="2" Cut="1.6332705078125000e+03" cType="1" res="6.8066403269767761e-02" rms="4.6814945340156555e-01" purity="5.7017999887466431e-01" nType="0">
          <Node pos="l" depth="2" NCoef="0" IVar="-1" Cut="0.0000000000000000e+00" cType="1" res="2.9234192334115505e-03" rms="4.4182580709457397e-01" purity="6.7771017551422119e-01" nType="-99"/>
          <Node pos="r" depth="2" NCoef="0" IVar="-1" Cut="0.0000000000000000e+00" cType="1" res="1.0205339640378952e-04" rms="4.7920513153076172e-01" purity="4.8503038287162781e-01" nType="-99"/>
        </Node>
      </Node>
    </BinaryTree>
    <BinaryTree type="DecisionTree" boostWeight="1.0000000000000000e+00" itree="618">
      <Node pos="s" depth="0" NCoef="0" IVar="4" Cut="6.5628100585937500e+02" cType="1" res="-1.9579937681555748e-02" rms="4.7387406229972839e-01" purity="4.9181470274925232e-01" nType="0">
        <Node pos="l" depth="1" NCoef="0" IVar="2" Cut="9.3319317626953125e+02" cType="1" res="-6.2400601804256439e-02" rms="4.6377584338188171e-01" purity="4.2857992649078369e-01" nType="0">
          <Node pos="l" depth="2" NCoef="0" IVar="-1" Cut="0.0000000000000000e+00" cType="1" res="-5.8205041568726301e-04" rms="4.7430554032325745e-01" purity="4.7694236040115356e-01" nType="-99"/>
          <Node pos="r" depth="2" NCoef="0" IVar="-1" Cut="0.0000000000000000e+00" cType="1" res="-1.7077821539714932e-03" rms="4.0977647900581360e-01" purity="2.4419684708118439e-01" nType="-99"/>
        </Node>
        <Node pos="r" depth="1" NCoef="0" IVar="2" Cut="2.0021738281250000e+03" cType="1" res="1.1299698613584042e-02" rms="4.7865325212478638e-01" purity="5.3741574287414551e-01" nType="0">
          <Node pos="l" depth="2" NCoef="0" IVar="-1" Cut="0.0000000000000000e+00" cType="1" res="3.7996791070327163e-04" rms="4.7981852293014526e-01" purity="5.5815213918685913e-01" nType="-99"/>
          <Node pos="r" depth="2" NCoef="0" IVar="-1" Cut="0.0000000000000000e+00" cType="1" res="-1.1139052221551538e-03" rms="4.5577624440193176e-01" purity="3.6062368750572205e-01" nType="-99"/>
        </Node>
      </Node>
    </BinaryTree>
    <BinaryTree type="DecisionTree" boostWeight="1.0000000000000000e+00" itree="619">
      <Node pos="s" depth="0" NCoef="0" IVar="1" Cut="9.9764961242675781e+01" cType="1" res="1.7240043962374330e-03" rms="4.6921700239181519e-01" purity="5.1274925470352173e-01" nType="0">
        <Node pos="l" depth="1" NCoef="0" IVar="-1" Cut="0.0000000000000000e+00" cType="1" res="-1.1488624149933457e-03" rms="4.4542106986045837e-01" purity="3.0626368522644043e-01" nType="-99"/>
        <Node pos="r" depth="1" NCoef="0" IVar="1" Cut="1.2594900512695312e+02" cType="1" res="9.5014534890651703e-03" rms="4.7020059823989868e-01" purity="5.2926450967788696e-01" nType="0">
          <Node pos="l" depth="2" NCoef="0" IVar="-1" Cut="0.0000000000000000e+00" cType="1" res="8.2802999531850219e-04" rms="4.6599692106246948e-01" purity="5.9261989593505859e-01" nType="-99"/>
          <Node pos="r" depth="2" NCoef="0" IVar="-1" Cut="0.0000000000000000e+00" cType="1" res="-4.3460298911668360e-04" rms="4.7145932912826538e-01" purity="4.6200302243232727e-01" nType="-99"/>
        </Node>
      </Node>
    </BinaryTree>
    <BinaryTree type="DecisionTree" boostWeight="1.0000000000000000e+00" itree="620">
      <Node pos="s" depth="0" NCoef="0" IVar="0" Cut="2.4568336486816406e+02" cType="1" res="-8.7762093171477318e-03" rms="4.7006860375404358e-01" purity="5.0291877985000610e-01" nType="0">
        <Node pos="l" depth="1" NCoef="0" IVar="0" Cut="8.0108589172363281e+01" cType="1" res="8.0390023067593575e-03" rms="4.7361558675765991e-01" purity="5.4821223020553589e-01" nType="0">
          <Node pos="l" depth="2" NCoef="0" IVar="-1" Cut="0.0000000000000000e+00" cType="1" res="-8.6898042354732752e-04" rms="4.6591815352439880e-01" purity="3.9596676826477051e-01" nType="-99"/>
          <Node pos="r" depth="2" NCoef="0" IVar="-1" Cut="0.0000000000000000e+00" cType="1" res="4.1489428258500993e-04" rms="4.7379252314567566e-01" purity="5.8248627185821533e-01" nType="-99"/>
        </Node>
        <Node pos="r" depth="1" NCoef="0" IVar="2" Cut="9.8373577880859375e+02" cType="1" res="-5.3323585540056229e-02" rms="4.5756238698959351e-01" purity="3.8292604684829712e-01" nType="0">
          <Node pos="l" depth="2" NCoef="0" IVar="-1" Cut="0.0000000000000000e+00" cType="1" res="4.8087764298543334e-04" rms="4.6174314618110657e-01" purity="4.7752735018730164e-01" nType="-99"/>
          <Node pos="r" depth="2" NCoef="0" IVar="-1" Cut="0.0000000000000000e+00" cType="1" res="-9.6139998640865088e-04" rms="4.5414960384368896e-01" purity="3.6000284552574158e-01" nType="-99"/>
        </Node>
      </Node>
    </BinaryTree>
    <BinaryTree type="DecisionTree" boostWeight="1.0000000000000000e+00" itree="621">
      <Node pos="s" depth="0" NCoef="0" IVar="1" Cut="1.2815995788574219e+02" cType="1" res="-1.0597168467938900e-02" rms="4.6770641207695007e-01" purity="4.9430999159812927e-01" nType="0">
        <Node pos="l" depth="1" NCoef="0" IVar="1" Cut="9.9155639648437500e+01" cType="1" res="1.5984006226062775e-02" rms="4.6899610757827759e-01" purity="5.4327297210693359e-01" nType="0">
          <Node pos="l" depth="2" NCoef="0" IVar="-1" Cut="0.0000000000000000e+00" cType="1" res="-1.4383976813405752e-03" rms="4.2880943417549133e-01" purity="2.6254555583000183e-01" nType="-99"/>
          <Node pos="r" depth="2" NCoef="0" IVar="-1" Cut="0.0000000000000000e+00" cType="1" res="6.3591264188289642e-04" rms="4.7130534052848816e-01" purity="5.8610731363296509e-01" nType="-99"/>
        </Node>
        <Node pos="r" depth="1" NCoef="0" IVar="4" Cut="8.6666510009765625e+02" cType="1" res="-5.4132115095853806e-02" rms="4.6229669451713562e-01" purity="4.1411787271499634e-01" nType="0">
          <Node pos="l" depth="2" NCoef="0" IVar="-1" Cut="0.0000000000000000e+00" cType="1" res="-1.1299786856397986e-03" rms="4.5160436630249023e-01" purity="3.7764236330986023e-01" nType="-99"/>
          <Node pos="r" depth="2" NCoef="0" IVar="-1" Cut="0.0000000000000000e+00" cType="1" res="2.7783703990280628e-04" rms="4.7798568010330200e-01" purity="4.9712806940078735e-01" nType="-99"/>
        </Node>
      </Node>
    </BinaryTree>
    <BinaryTree type="DecisionTree" boostWeight="1.0000000000000000e+00" itree="622">
      <Node pos="s" depth="0" NCoef="0" IVar="3" Cut="8.9616930484771729e-01" cType="1" res="-1.4001824893057346e-02" rms="4.6607360243797302e-01" purity="4.9300602078437805e-01" nType="0">
        <Node pos="l" depth="1" NCoef="0" IVar="2" Cut="1.2032357177734375e+03" cType="1" res="-4.9144528806209564e-02" rms="4.6690234541893005e-01" purity="3.9065781235694885e-01" nType="0">
          <Node pos="l" depth="2" NCoef="0" IVar="-1" Cut="0.0000000000000000e+00" cType="1" res="-3.2416160684078932e-04" rms="4.7037926316261292e-01" purity="4.2439410090446472e-01" nType="-99"/>
          <Node pos="r" depth="2" NCoef="0" IVar="-1" Cut="0.0000000000000000e+00" cType="1" res="-1.0619672248139977e-03" rms="4.5759275555610657e-01" purity="3.3186525106430054e-01" nType="-99"/>
        </Node>
        <Node pos="r" depth="1" NCoef="0" IVar="2" Cut="8.1018109130859375e+02" cType="1" res="2.4516463279724121e-02" rms="4.6210369467735291e-01" purity="6.0518515110015869e-01" nType="0">
          <Node pos="l" depth="2" NCoef="0" IVar="-1" Cut="0.0000000000000000e+00" cType="1" res="1.8325854325667024e-03" rms="4.4019061326980591e-01" purity="6.9193816184997559e-01" nType="-99"/>
          <Node pos="r" depth="2" NCoef="0" IVar="-1" Cut="0.0000000000000000e+00" cType="1" res="3.6461631680140272e-05" rms="4.6859127283096313e-01" purity="5.7090729475021362e-01" nType="-99"/>
        </Node>
      </Node>
    </BinaryTree>
    <BinaryTree type="DecisionTree" boostWeight="1.0000000000000000e+00" itree="623">
      <Node pos="s" depth="0" NCoef="0" IVar="1" Cut="1.3475128173828125e+02" cType="1" res="-1.5384288504719734e-02" rms="4.7041201591491699e-01" purity="4.9373060464859009e-01" nType="0">
        <Node pos="l" depth="1" NCoef="0" IVar="1" Cut="1.0000483703613281e+02" cType="1" res="2.1159150637686253e-03" rms="4.7319364547729492e-01" purity="5.3568708896636963e-01" nType="0">
          <Node pos="l" depth="2" NCoef="0" IVar="-1" Cut="0.0000000000000000e+00" cType="1" res="-1.1766973184421659e-03" rms="4.4298201799392700e-01" purity="2.9188501834869385e-01" nType="-99"/>
          <Node pos="r" depth="2" NCoef="0" IVar="-1" Cut="0.0000000000000000e+00" cType="1" res="2.1535139239858836e-04" rms="4.7496098279953003e-01" purity="5.6159794330596924e-01" nType="-99"/>
        </Node>
        <Node pos="r" depth="1" NCoef="0" IVar="0" Cut="1.6511416625976562e+02" cType="1" res="-7.6454527676105499e-02" rms="4.5533457398414612e-01" purity="3.4731554985046387e-01" nType="0">
          <Node pos="l" depth="2" NCoef="0" IVar="-1" Cut="0.0000000000000000e+00" cType="1" res="-5.3363735787570477e-04" rms="4.6317949891090393e-01" purity="4.1694274544715881e-01" nType="-99"/>
          <Node pos="r" depth="2" NCoef="0" IVar="-1" Cut="0.0000000000000000e+00" cType="1" res="-1.2439928250387311e-03" rms="4.4708713889122009e-01" purity="2.9405647516250610e-01" nType="-99"/>
        </Node>
      </Node>
    </BinaryTree>
    <BinaryTree type="DecisionTree" boostWeight="1.0000000000000000e+00" itree="624">
      <Node pos="s" depth="0" NCoef="0" IVar="0" Cut="2.4593000793457031e+02" cType="1" res="4.6373633085750043e-04" rms="4.6652066707611084e-01" purity="5.0718152523040771e-01" nType="0">
        <Node pos="l" depth="1" NCoef="0" IVar="0" Cut="8.0381668090820312e+01" cType="1" res="1.7463004216551781e-02" rms="4.6709066629409790e-01" purity="5.5010825395584106e-01" nType="0">
          <Node pos="l" depth="2" NCoef="0" IVar="-1" Cut="0.0000000000000000e+00" cType="1" res="-8.5459445836022496e-04" rms="4.5784699916839600e-01" purity="3.8509389758110046e-01" nType="-99"/>
          <Node pos="r" depth="2" NCoef="0" IVar="-1" Cut="0.0000000000000000e+00" cType="1" res="6.6751072881743312e-04" rms="4.6706110239028931e-01" purity="5.9189927577972412e-01" nType="-99"/>
        </Node>
        <Node pos="r" depth="1" NCoef="0" IVar="2" Cut="9.7665472412109375e+02" cType="1" res="-4.6300474554300308e-02" rms="4.6173125505447388e-01" purity="3.8909208774566650e-01" nType="0">
          <Node pos="l" depth="2" NCoef="0" IVar="-1" Cut="0.0000000000000000e+00" cType="1" res="6.9229019572958350e-04" rms="4.5229884982109070e-01" purity="4.8503315448760986e-01" nType="-99"/>
          <Node pos="r" depth="2" NCoef="0" IVar="-1" Cut="0.0000000000000000e+00" cType="1" res="-8.8228250388056040e-04" rms="4.6140488982200623e-01" purity="3.6590680480003357e-01" nType="-99"/>
        </Node>
      </Node>
    </BinaryTree>
    <BinaryTree type="DecisionTree" boostWeight="1.0000000000000000e+00" itree="625">
      <Node pos="s" depth="0" NCoef="0" IVar="3" Cut="9.3359071016311646e-01" cType="1" res="-8.8279172778129578e-03" rms="4.6982556581497192e-01" purity="5.0238043069839478e-01" nType="0">
        <Node pos="l" depth="1" NCoef="0" IVar="0" Cut="1.5358863830566406e+02" cType="1" res="-2.7040779590606689e-02" rms="4.7488027811050415e-01" purity="4.5291134715080261e-01" nType="0">
          <Node pos="l" depth="2" NCoef="0" IVar="-1" Cut="0.0000000000000000e+00" cType="1" res="1.1824435932794586e-04" rms="4.7895666956901550e-01" purity="5.1997315883636475e-01" nType="-99"/>
          <Node pos="r" depth="2" NCoef="0" IVar="-1" Cut="0.0000000000000000e+00" cType="1" res="-8.0556381726637483e-04" rms="4.6807166934013367e-01" purity="3.8492086529731750e-01" nType="-99"/>
        </Node>
        <Node pos="r" depth="1" NCoef="0" IVar="5" Cut="6.7565065622329712e-01" cType="1" res="5.8353208005428314e-02" rms="4.4428026676177979e-01" purity="6.8485540151596069e-01" nType="0">
          <Node pos="l" depth="2" NCoef="0" IVar="-1" Cut="0.0000000000000000e+00" cType="1" res="6.1050208751112223e-04" rms="4.5453557372093201e-01" purity="6.5119063854217529e-01" nType="-99"/>
          <Node pos="r" depth="2" NCoef="0" IVar="-1" Cut="0.0000000000000000e+00" cType="1" res="3.6322453524917364e-03" rms="4.1094923019409180e-01" purity="7.6300799846649170e-01" nType="-99"/>
        </Node>
      </Node>
    </BinaryTree>
    <BinaryTree type="DecisionTree" boostWeight="1.0000000000000000e+00" itree="626">
      <Node pos="s" depth="0" NCoef="0" IVar="3" Cut="8.9285975694656372e-01" cType="1" res="-2.5814326945692301e-03" rms="4.6814611554145813e-01" purity="5.0794291496276855e-01" nType="0">
        <Node pos="l" depth="1" NCoef="0" IVar="5" Cut="7.8152120113372803e-01" cType="1" res="-3.7164144217967987e-02" rms="4.7389239072799683e-01" purity="4.0799993276596069e-01" nType="0">
          <Node pos="l" depth="2" NCoef="0" IVar="-1" Cut="0.0000000000000000e+00" cType="1" res="-6.9137691752985120e-04" rms="4.7362139821052551e-01" purity="3.9124363660812378e-01" nType="-99"/>
          <Node pos="r" depth="2" NCoef="0" IVar="-1" Cut="0.0000000000000000e+00" cType="1" res="1.5787933953106403e-03" rms="4.5483464002609253e-01" purity="5.4110640287399292e-01" nType="-99"/>
        </Node>
        <Node pos="r" depth="1" NCoef="0" IVar="2" Cut="1.0197662963867188e+03" cType="1" res="3.0902557075023651e-02" rms="4.6004393696784973e-01" purity="6.0471063852310181e-01" nType="0">
          <Node pos="l" depth="2" NCoef="0" IVar="-1" Cut="0.0000000000000000e+00" cType="1" res="1.6634830972179770e-03" rms="4.4340032339096069e-01" purity="6.7667376995086670e-01" nType="-99"/>
          <Node pos="r" depth="2" NCoef="0" IVar="-1" Cut="0.0000000000000000e+00" cType="1" res="-2.7058747946284711e-04" rms="4.7143337130546570e-01" purity="5.3253287076950073e-01" nType="-99"/>
        </Node>
      </Node>
    </BinaryTree>
    <BinaryTree type="DecisionTree" boostWeight="1.0000000000000000e+00" itree="627">
      <Node pos="s" depth="0" NCoef="0" IVar="1" Cut="1.0111934661865234e+02" cType="1" res="-1.7265636473894119e-02" rms="4.6909290552139282e-01" purity="4.9275019764900208e-01" nType="0">
        <Node pos="l" depth="1" NCoef="0" IVar="-1" Cut="0.0000000000000000e+00" cType="1" res="-1.2534247944131494e-03" rms="4.3609815835952759e-01" purity="2.9261815547943115e-01" nType="-99"/>
        <Node pos="r" depth="1" NCoef="0" IVar="1" Cut="1.4278215026855469e+02" cType="1" res="-9.0006832033395767e-03" rms="4.7132393717765808e-01" purity="5.1202064752578735e-01" nType="0">
          <Node pos="l" depth="2" NCoef="0" IVar="-1" Cut="0.0000000000000000e+00" cType="1" res="2.6790739866555668e-05" rms="4.7481864690780640e-01" purity="5.4335337877273560e-01" nType="-99"/>
          <Node pos="r" depth="2" NCoef="0" IVar="-1" Cut="0.0000000000000000e+00" cType="1" res="-1.0325092589482665e-03" rms="4.3819648027420044e-01" purity="2.8882300853729248e-01" nType="-99"/>
        </Node>
      </Node>
    </BinaryTree>
    <BinaryTree type="DecisionTree" boostWeight="1.0000000000000000e+00" itree="628">
      <Node pos="s" depth="0" NCoef="0" IVar="5" Cut="7.8879624605178833e-01" cType="1" res="-3.4273499622941017e-03" rms="4.6778240799903870e-01" purity="5.0463885068893433e-01" nType="0">
        <Node pos="l" depth="1" NCoef="0" IVar="4" Cut="1.0694676513671875e+03" cType="1" res="-1.7071450129151344e-02" rms="4.6811300516128540e-01" purity="4.8511204123497009e-01" nType="0">
          <Node pos="l" depth="2" NCoef="0" IVar="-1" Cut="0.0000000000000000e+00" cType="1" res="-4.5830701128579676e-04" rms="4.6674114465713501e-01" purity="4.7213572263717651e-01" nType="-99"/>
          <Node pos="r" depth="2" NCoef="0" IVar="-1" Cut="0.0000000000000000e+00" cType="1" res="1.3572797179222107e-03" rms="4.6679005026817322e-01" purity="5.7565569877624512e-01" nType="-99"/>
        </Node>
        <Node pos="r" depth="1" NCoef="0" IVar="4" Cut="6.8207830810546875e+02" cType="1" res="7.6312594115734100e-02" rms="4.5778357982635498e-01" purity="6.1875879764556885e-01" nType="0">
          <Node pos="l" depth="2" NCoef="0" IVar="-1" Cut="0.0000000000000000e+00" cType="1" res="4.6338787069544196e-04" rms="4.5664781332015991e-01" purity="5.6207823753356934e-01" nType="-99"/>
          <Node pos="r" depth="2" NCoef="0" IVar="-1" Cut="0.0000000000000000e+00" cType="1" res="1.9892428535968065e-03" rms="4.5570534467697144e-01" purity="6.5623438358306885e-01" nType="-99"/>
        </Node>
      </Node>
    </BinaryTree>
    <BinaryTree type="DecisionTree" boostWeight="1.0000000000000000e+00" itree="629">
      <Node pos="s" depth="0" NCoef="0" IVar="4" Cut="4.9318350219726562e+02" cType="1" res="1.0468726977705956e-03" rms="4.6829801797866821e-01" purity="5.1119863986968994e-01" nType="0">
        <Node pos="l" depth="1" NCoef="0" IVar="-1" Cut="0.0000000000000000e+00" cType="1" res="-1.0098743950948119e-03" rms="4.5989024639129639e-01" purity="4.2137131094932556e-01" nType="-99"/>
        <Node pos="r" depth="1" NCoef="0" IVar="2" Cut="7.4420837402343750e+02" cType="1" res="1.0708704590797424e-02" rms="4.6850734949111938e-01" purity="5.2282929420471191e-01" nType="0">
          <Node pos="l" depth="2" NCoef="0" IVar="-1" Cut="0.0000000000000000e+00" cType="1" res="2.3302040062844753e-03" rms="4.3669605255126953e-01" purity="6.8951410055160522e-01" nType="-99"/>
          <Node pos="r" depth="2" NCoef="0" IVar="-1" Cut="0.0000000000000000e+00" cType="1" res="-4.1419447370572016e-05" rms="4.7111639380455017e-01" purity="4.9995145201683044e-01" nType="-99"/>
        </Node>
      </Node>
    </BinaryTree>
    <BinaryTree type="DecisionTree" boostWeight="1.0000000000000000e+00" itree="630">
      <Node pos="s" depth="0" NCoef="0" IVar="4" Cut="1.0549311523437500e+03" cType="1" res="-8.9866546913981438e-03" rms="4.7068253159523010e-01" purity="4.9836674332618713e-01" nType="0">
        <Node pos="l" depth="1" NCoef="0" IVar="2" Cut="1.3393840332031250e+03" cType="1" res="-2.3080168291926384e-02" rms="4.7039550542831421e-01" purity="4.8778301477432251e-01" nType="0">
          <Node pos="l" depth="2" NCoef="0" IVar="-1" Cut="0.0000000000000000e+00" cType="1" res="-1.5413534129038453e-04" rms="4.6933194994926453e-01" purity="5.0746631622314453e-01" nType="-99"/>
          <Node pos="r" depth="2" NCoef="0" IVar="-1" Cut="0.0000000000000000e+00" cType="1" res="-1.3693945948034525e-03" rms="4.6812224388122559e-01" purity="3.5605311393737793e-01" nType="-99"/>
        </Node>
        <Node pos="r" depth="1" NCoef="0" IVar="2" Cut="1.6973994140625000e+03" cType="1" res="6.9090001285076141e-02" rms="4.6458822488784790e-01" purity="5.5699962377548218e-01" nType="0">
          <Node pos="l" depth="2" NCoef="0" IVar="-1" Cut="0.0000000000000000e+00" cType="1" res="4.3274965137243271e-03" rms="4.2647385597229004e-01" purity="7.2075766324996948e-01" nType="-99"/>
          <Node pos="r" depth="2" NCoef="0" IVar="-1" Cut="0.0000000000000000e+00" cType="1" res="-2.0008164574392140e-04" rms="4.7057163715362549e-01" purity="4.4648870825767517e-01" nType="-99"/>
        </Node>
      </Node>
    </BinaryTree>
    <BinaryTree type="DecisionTree" boostWeight="1.0000000000000000e+00" itree="631">
      <Node pos="s" depth="0" NCoef="0" IVar="2" Cut="8.0716894531250000e+02" cType="1" res="2.5534999440424144e-04" rms="4.7028905153274536e-01" purity="5.1050299406051636e-01" nType="0">
        <Node pos="l" depth="1" NCoef="0" IVar="4" Cut="5.0322167968750000e+02" cType="1" res="4.6159837394952774e-02" rms="4.7045686841011047e-01" purity="5.9584265947341919e-01" nType="0">
          <Node pos="l" depth="2" NCoef="0" IVar="-1" Cut="0.0000000000000000e+00" cType="1" res="-4.8233481356874108e-04" rms="4.8215028643608093e-01" purity="4.9683129787445068e-01" nType="-99"/>
          <Node pos="r" depth="2" NCoef="0" IVar="-1" Cut="0.0000000000000000e+00" cType="1" res="1.8892885418608785e-03" rms="4.5632737874984741e-01" purity="6.5757524967193604e-01" nType="-99"/>
        </Node>
        <Node pos="r" depth="1" NCoef="0" IVar="4" Cut="6.5875091552734375e+02" cType="1" res="-1.5642682090401649e-02" rms="4.6918499469757080e-01" purity="4.8094743490219116e-01" nType="0">
          <Node pos="l" depth="2" NCoef="0" IVar="-1" Cut="0.0000000000000000e+00" cType="1" res="-1.3386133359745145e-03" rms="4.4406437873840332e-01" purity="3.1004038453102112e-01" nType="-99"/>
          <Node pos="r" depth="2" NCoef="0" IVar="-1" Cut="0.0000000000000000e+00" cType="1" res="1.3206209405325353e-04" rms="4.7254171967506409e-01" purity="5.2530610561370850e-01" nType="-99"/>
        </Node>
      </Node>
    </BinaryTree>
    <BinaryTree type="DecisionTree" boostWeight="1.0000000000000000e+00" itree="632">
      <Node pos="s" depth="0" NCoef="0" IVar="2" Cut="1.3214108886718750e+03" cType="1" res="-1.5987636521458626e-02" rms="4.7157683968544006e-01" purity="4.9445801973342896e-01" nType="0">
        <Node pos="l" depth="1" NCoef="0" IVar="4" Cut="5.4810937500000000e+02" cType="1" res="6.5927589312195778e-03" rms="4.6901610493659973e-01" purity="5.2824497222900391e-01" nType="0">
          <Node pos="l" depth="2" NCoef="0" IVar="-1" Cut="0.0000000000000000e+00" cType="1" res="-8.2957505946978927e-04" rms="4.6246498823165894e-01" purity="4.3539926409721375e-01" nType="-99"/>
          <Node pos="r" depth="2" NCoef="0" IVar="-1" Cut="0.0000000000000000e+00" cType="1" res="5.2741059334948659e-04" rms="4.6917510032653809e-01" purity="5.6330704689025879e-01" nType="-99"/>
        </Node>
        <Node pos="r" depth="1" NCoef="0" IVar="4" Cut="1.2400961914062500e+03" cType="1" res="-7.4760146439075470e-02" rms="4.7315174341201782e-01" purity="4.0651699900627136e-01" nType="0">
          <Node pos="l" depth="2" NCoef="0" IVar="-1" Cut="0.0000000000000000e+00" cType="1" res="-1.4469403540715575e-03" rms="4.6640914678573608e-01" purity="3.6635717749595642e-01" nType="-99"/>
          <Node pos="r" depth="2" NCoef="0" IVar="-1" Cut="0.0000000000000000e+00" cType="1" res="1.0994359763571993e-04" rms="4.7676670551300049e-01" purity="4.9143329262733459e-01" nType="-99"/>
        </Node>
      </Node>
    </BinaryTree>
    <BinaryTree type="DecisionTree" boostWeight="1.0000000000000000e+00" itree="633">
      <Node pos="s" depth="0" NCoef="0" IVar="1" Cut="1.3516355895996094e+02" cType="1" res="-2.4805483408272266e-03" rms="4.6669125556945801e-01" purity="5.0598597526550293e-01" nType="0">
        <Node pos="l" depth="1" NCoef="0" IVar="4" Cut="6.9036993408203125e+02" cType="1" res="1.5101431868970394e-02" rms="4.6877703070640564e-01" purity="5.4702168703079224e-01" nType="0">
          <Node pos="l" depth="2" NCoef="0" IVar="-1" Cut="0.0000000000000000e+00" cType="1" res="-3.1514302827417850e-04" rms="4.6824532747268677e-01" purity="4.9446037411689758e-01" nType="-99"/>
          <Node pos="r" depth="2" NCoef="0" IVar="-1" Cut="0.0000000000000000e+00" cType="1" res="8.2930980715900660e-04" rms="4.6687117218971252e-01" purity="5.9516239166259766e-01" nType="-99"/>
        </Node>
        <Node pos="r" depth="1" NCoef="0" IVar="1" Cut="1.4724482727050781e+02" cType="1" res="-7.0113420486450195e-02" rms="4.5225200057029724e-01" purity="3.4813341498374939e-01" nType="0">
          <Node pos="l" depth="2" NCoef="0" IVar="-1" Cut="0.0000000000000000e+00" cType="1" res="-6.2328815693035722e-04" rms="4.6721503138542175e-01" purity="4.0980574488639832e-01" nType="-99"/>
          <Node pos="r" depth="2" NCoef="0" IVar="-1" Cut="0.0000000000000000e+00" cType="1" res="-1.3017983874306083e-03" rms="4.2659524083137512e-01" purity="2.5702917575836182e-01" nType="-99"/>
        </Node>
      </Node>
    </BinaryTree>
    <BinaryTree type="DecisionTree" boostWeight="1.0000000000000000e+00" itree="634">
      <Node pos="s" depth="0" NCoef="0" IVar="3" Cut="8.7077695131301880e-01" cType="1" res="3.3671918790787458e-03" rms="4.6876403689384460e-01" purity="5.1241546869277954e-01" nType="0">
        <Node pos="l" depth="1" NCoef="0" IVar="5" Cut="6.4775091409683228e-01" cType="1" res="-4.0032520890235901e-02" rms="4.6956428885459900e-01" purity="3.8882014155387878e-01" nType="0">
          <Node pos="l" depth="2" NCoef="0" IVar="-1" Cut="0.0000000000000000e+00" cType="1" res="-9.2810078058391809e-04" rms="4.6377739310264587e-01" purity="3.5098177194595337e-01" nType="-99"/>
          <Node pos="r" depth="2" NCoef="0" IVar="-1" Cut="0.0000000000000000e+00" cType="1" res="1.2560780160129070e-03" rms="4.6642616391181946e-01" purity="5.1470053195953369e-01" nType="-99"/>
        </Node>
        <Node pos="r" depth="1" NCoef="0" IVar="5" Cut="4.7583854198455811e-01" cType="1" res="1.9982483237981796e-02" rms="4.6739178895950317e-01" purity="5.5973309278488159e-01" nType="0">
          <Node pos="l" depth="2" NCoef="0" IVar="-1" Cut="0.0000000000000000e+00" cType="1" res="9.6924050012603402e-04" rms="4.6258038282394409e-01" purity="5.9237217903137207e-01" nType="-99"/>
          <Node pos="r" depth="2" NCoef="0" IVar="-1" Cut="0.0000000000000000e+00" cType="1" res="-1.4120530977379531e-04" rms="4.6989589929580688e-01" purity="5.2980542182922363e-01" nType="-99"/>
        </Node>
      </Node>
    </BinaryTree>
    <BinaryTree type="DecisionTree" boostWeight="1.0000000000000000e+00" itree="635">
      <Node pos="s" depth="0" NCoef="0" IVar="4" Cut="1.1328769531250000e+03" cType="1" res="-1.6041932627558708e-02" rms="4.7199511528015137e-01" purity="4.9616003036499023e-01" nType="0">
        <Node pos="l" depth="1" NCoef="0" IVar="2" Cut="8.7036529541015625e+02" cType="1" res="-2.8348160907626152e-02" rms="4.7193369269371033e-01" purity="4.8660320043563843e-01" nType="0">
          <Node pos="l" depth="2" NCoef="0" IVar="-1" Cut="0.0000000000000000e+00" cType="1" res="1.6125930415000767e-04" rms="4.6858468651771545e-01" purity="5.4438847303390503e-01" nType="-99"/>
          <Node pos="r" depth="2" NCoef="0" IVar="-1" Cut="0.0000000000000000e+00" cType="1" res="-7.6356431236490607e-04" rms="4.7242990136146545e-01" purity="4.4859769940376282e-01" nType="-99"/>
        </Node>
        <Node pos="r" depth="1" NCoef="0" IVar="2" Cut="1.9871013183593750e+03" cType="1" res="8.1538744270801544e-02" rms="4.6099495887756348e-01" purity="5.7193952798843384e-01" nType="0">
          <Node pos="l" depth="2" NCoef="0" IVar="-1" Cut="0.0000000000000000e+00" cType="1" res="3.6750459112226963e-03" rms="4.3871346116065979e-01" purity="6.8867105245590210e-01" nType="-99"/>
          <Node pos="r" depth="2" NCoef="0" IVar="-1" Cut="0.0000000000000000e+00" cType="1" res="5.1939628065156285e-06" rms="4.6611317992210388e-01" purity="4.6431094408035278e-01" nType="-99"/>
        </Node>
      </Node>
    </BinaryTree>
    <BinaryTree type="DecisionTree" boostWeight="1.0000000000000000e+00" itree="636">
      <Node pos="s" depth="0" NCoef="0" IVar="2" Cut="1.4590039062500000e+03" cType="1" res="-2.1465040743350983e-02" rms="4.7120791673660278e-01" purity="4.8894879221916199e-01" nType="0">
        <Node pos="l" depth="1" NCoef="0" IVar="4" Cut="9.8619738769531250e+02" cType="1" res="-6.6786194220185280e-03" rms="4.6939599514007568e-01" purity="5.1112723350524902e-01" nType="0">
          <Node pos="l" depth="2" NCoef="0" IVar="-1" Cut="0.0000000000000000e+00" cType="1" res="-2.6453411555849016e-04" rms="4.6996161341667175e-01" purity="4.9743473529815674e-01" nType="-99"/>
          <Node pos="r" depth="2" NCoef="0" IVar="-1" Cut="0.0000000000000000e+00" cType="1" res="2.8482212219387293e-03" rms="4.3647468090057373e-01" purity="6.9430935382843018e-01" nType="-99"/>
        </Node>
        <Node pos="r" depth="1" NCoef="0" IVar="4" Cut="1.1531193847656250e+03" cType="1" res="-8.3366364240646362e-02" rms="4.7373485565185547e-01" purity="3.9610168337821960e-01" nType="0">
          <Node pos="l" depth="2" NCoef="0" IVar="-1" Cut="0.0000000000000000e+00" cType="1" res="-1.9034168217331171e-03" rms="4.5425143837928772e-01" purity="3.0629277229309082e-01" nType="-99"/>
          <Node pos="r" depth="2" NCoef="0" IVar="-1" Cut="0.0000000000000000e+00" cType="1" res="-2.1562578695011325e-05" rms="4.7876849770545959e-01" purity="4.8642325401306152e-01" nType="-99"/>
        </Node>
      </Node>
    </BinaryTree>
    <BinaryTree type="DecisionTree" boostWeight="1.0000000000000000e+00" itree="637">
      <Node pos="s" depth="0" NCoef="0" IVar="0" Cut="2.3977992248535156e+02" cType="1" res="-1.4623942784965038e-02" rms="4.7327449917793274e-01" purity="4.9831670522689819e-01" nType="0">
        <Node pos="l" depth="1" NCoef="0" IVar="0" Cut="8.3649810791015625e+01" cType="1" res="1.1874283663928509e-03" rms="4.7408270835876465e-01" purity="5.3763383626937866e-01" nType="0">
          <Node pos="l" depth="2" NCoef="0" IVar="-1" Cut="0.0000000000000000e+00" cType="1" res="-6.9790880661457777e-04" rms="4.6047195792198181e-01" purity="4.0197715163230896e-01" nType="-99"/>
          <Node pos="r" depth="2" NCoef="0" IVar="-1" Cut="0.0000000000000000e+00" cType="1" res="2.5253734202124178e-04" rms="4.7663712501525879e-01" purity="5.7327204942703247e-01" nType="-99"/>
        </Node>
        <Node pos="r" depth="1" NCoef="0" IVar="1" Cut="1.2442529296875000e+02" cType="1" res="-5.8937791734933853e-02" rms="4.6816501021385193e-01" purity="3.8812425732612610e-01" nType="0">
          <Node pos="l" depth="2" NCoef="0" IVar="-1" Cut="0.0000000000000000e+00" cType="1" res="1.5053467359393835e-04" rms="4.7629418969154358e-01" purity="4.7005683183670044e-01" nType="-99"/>
          <Node pos="r" depth="2" NCoef="0" IVar="-1" Cut="0.0000000000000000e+00" cType="1" res="-1.3765470357611775e-03" rms="4.5496270060539246e-01" purity="3.2606461644172668e-01" nType="-99"/>
        </Node>
      </Node>
    </BinaryTree>
    <BinaryTree type="DecisionTree" boostWeight="1.0000000000000000e+00" itree="638">
      <Node pos="s" depth="0" NCoef="0" IVar="3" Cut="8.6758041381835938e-01" cType="1" res="-2.2359056398272514e-02" rms="4.7116613388061523e-01" purity="4.8878252506256104e-01" nType="0">
        <Node pos="l" depth="1" NCoef="0" IVar="2" Cut="1.2674047851562500e+03" cType="1" res="-7.0430070161819458e-02" rms="4.6481212973594666e-01" purity="3.5800227522850037e-01" nType="0">
          <Node pos="l" depth="2" NCoef="0" IVar="-1" Cut="0.0000000000000000e+00" cType="1" res="-6.0150807257741690e-04" rms="4.7369834780693054e-01" purity="3.8889133930206299e-01" nType="-99"/>
          <Node pos="r" depth="2" NCoef="0" IVar="-1" Cut="0.0000000000000000e+00" cType="1" res="-1.2913567479699850e-03" rms="4.4250190258026123e-01" purity="2.9425320029258728e-01" nType="-99"/>
        </Node>
        <Node pos="r" depth="1" NCoef="0" IVar="2" Cut="8.3332116699218750e+02" cType="1" res="-6.8331998772919178e-03" rms="4.7215563058853149e-01" purity="5.3102159500122070e-01" nType="0">
          <Node pos="l" depth="2" NCoef="0" IVar="-1" Cut="0.0000000000000000e+00" cType="1" res="8.2961597945541143e-04" rms="4.6019288897514343e-01" purity="6.1387622356414795e-01" nType="-99"/>
          <Node pos="r" depth="2" NCoef="0" IVar="-1" Cut="0.0000000000000000e+00" cType="1" res="-4.0952919516712427e-04" rms="4.7523534297943115e-01" purity="4.9880695343017578e-01" nType="-99"/>
        </Node>
      </Node>
    </BinaryTree>
    <BinaryTree type="DecisionTree" boostWeight="1.0000000000000000e+00" itree="639">
      <Node pos="s" depth="0" NCoef="0" IVar="5" Cut="8.1405109167098999e-01" cType="1" res="6.7238863266538829e-05" rms="4.6666976809501648e-01" purity="5.0628608465194702e-01" nType="0">
        <Node pos="l" depth="1" NCoef="0" IVar="0" Cut="6.7829383850097656e+01" cType="1" res="-1.2161170132458210e-02" rms="4.6786481142044067e-01" purity="4.8828423023223877e-01" nType="0">
          <Node pos="l" depth="2" NCoef="0" IVar="-1" Cut="0.0000000000000000e+00" cType="1" res="-1.3362544123083353e-03" rms="4.4870442152023315e-01" purity="3.2413816452026367e-01" nType="-99"/>
          <Node pos="r" depth="2" NCoef="0" IVar="-1" Cut="0.0000000000000000e+00" cType="1" res="-1.6918464098125696e-05" rms="4.6878075599670410e-01" purity="5.0733166933059692e-01" nType="-99"/>
        </Node>
        <Node pos="r" depth="1" NCoef="0" IVar="2" Cut="1.0648609619140625e+03" cType="1" res="9.6498847007751465e-02" rms="4.4552809000015259e-01" purity="6.4824634790420532e-01" nType="0">
          <Node pos="l" depth="2" NCoef="0" IVar="-1" Cut="0.0000000000000000e+00" cType="1" res="3.8006990216672421e-03" rms="4.0270149707794189e-01" purity="7.4111139774322510e-01" nType="-99"/>
          <Node pos="r" depth="2" NCoef="0" IVar="-1" Cut="0.0000000000000000e+00" cType="1" res="6.4613152062520385e-04" rms="4.7306641936302185e-01" purity="5.6617093086242676e-01" nType="-99"/>
        </Node>
      </Node>
    </BinaryTree>
    <BinaryTree type="DecisionTree" boostWeight="1.0000000000000000e+00" itree="640">
      <Node pos="s" depth="0" NCoef="0" IVar="4" Cut="1.1318413085937500e+03" cType="1" res="3.8027432747185230e-03" rms="4.6883681416511536e-01" purity="5.1497739553451538e-01" nType="0">
        <Node pos="l" depth="1" NCoef="0" IVar="2" Cut="1.4011943359375000e+03" cType="1" res="-6.9253095425665379e-03" rms="4.6853330731391907e-01" purity="5.0672787427902222e-01" nType="0">
          <Node pos="l" depth="2" NCoef="0" IVar="-1" Cut="0.0000000000000000e+00" cType="1" res="1.3012383715249598e-04" rms="4.6924623847007751e-01" purity="5.3058689832687378e-01" nType="-99"/>
          <Node pos="r" depth="2" NCoef="0" IVar="-1" Cut="0.0000000000000000e+00" cType="1" res="-1.3203804846853018e-03" rms="4.5245468616485596e-01" purity="3.5553219914436340e-01" nType="-99"/>
        </Node>
        <Node pos="r" depth="1" NCoef="0" IVar="0" Cut="2.4833764648437500e+02" cType="1" res="8.6929656565189362e-02" rms="4.6282890439033508e-01" purity="5.7889932394027710e-01" nType="0">
          <Node pos="l" depth="2" NCoef="0" IVar="-1" Cut="0.0000000000000000e+00" cType="1" res="3.8473363965749741e-03" rms="4.3128755688667297e-01" purity="7.2247254848480225e-01" nType="-99"/>
          <Node pos="r" depth="2" NCoef="0" IVar="-1" Cut="0.0000000000000000e+00" cType="1" res="2.1046235633548349e-04" rms="4.7871157526969910e-01" purity="4.4695982336997986e-01" nType="-99"/>
        </Node>
      </Node>
    </BinaryTree>
    <BinaryTree type="DecisionTree" boostWeight="1.0000000000000000e+00" itree="641">
      <Node pos="s" depth="0" NCoef="0" IVar="0" Cut="4.5770452880859375e+02" cType="1" res="-5.0120269879698753e-03" rms="4.6988418698310852e-01" purity="5.0471800565719604e-01" nType="0">
        <Node pos="l" depth="1" NCoef="0" IVar="4" Cut="4.8039352416992188e+02" cType="1" res="4.3267766013741493e-03" rms="4.7098943591117859e-01" purity="5.2219271659851074e-01" nType="0">
          <Node pos="l" depth="2" NCoef="0" IVar="-1" Cut="0.0000000000000000e+00" cType="1" res="-1.2249663705006242e-03" rms="4.6019876003265381e-01" purity="3.9655220508575439e-01" nType="-99"/>
          <Node pos="r" depth="2" NCoef="0" IVar="-1" Cut="0.0000000000000000e+00" cType="1" res="2.2722297580912709e-04" rms="4.7108566761016846e-01" purity="5.3584671020507812e-01" nType="-99"/>
        </Node>
        <Node pos="r" depth="1" NCoef="0" IVar="-1" Cut="0.0000000000000000e+00" cType="1" res="-1.4544528676196933e-03" rms="4.3937250971794128e-01" purity="2.8614124655723572e-01" nType="-99"/>
      </Node>
    </BinaryTree>
    <BinaryTree type="DecisionTree" boostWeight="1.0000000000000000e+00" itree="642">
      <Node pos="s" depth="0" NCoef="0" IVar="1" Cut="1.4326747131347656e+02" cType="1" res="-6.0990811325609684e-03" rms="4.6608975529670715e-01" purity="5.0109231472015381e-01" nType="0">
        <Node pos="l" depth="1" NCoef="0" IVar="4" Cut="5.1708618164062500e+02" cType="1" res="4.5087491162121296e-03" rms="4.6895268559455872e-01" purity="5.2875500917434692e-01" nType="0">
          <Node pos="l" depth="2" NCoef="0" IVar="-1" Cut="0.0000000000000000e+00" cType="1" res="-8.7833747966215014e-04" rms="4.6887582540512085e-01" purity="4.3557894229888916e-01" nType="-99"/>
          <Node pos="r" depth="2" NCoef="0" IVar="-1" Cut="0.0000000000000000e+00" cType="1" res="2.7350071468390524e-04" rms="4.6790784597396851e-01" purity="5.4588997364044189e-01" nType="-99"/>
        </Node>
        <Node pos="r" depth="1" NCoef="0" IVar="-1" Cut="0.0000000000000000e+00" cType="1" res="-1.1327895335853100e-03" rms="4.3240052461624146e-01" purity="2.7527731657028198e-01" nType="-99"/>
      </Node>
    </BinaryTree>
    <BinaryTree type="DecisionTree" boostWeight="1.0000000000000000e+00" itree="643">
      <Node pos="s" depth="0" NCoef="0" IVar="4" Cut="4.8526031494140625e+02" cType="1" res="-9.1147748753428459e-03" rms="4.6966221928596497e-01" purity="5.0036442279815674e-01" nType="0">
        <Node pos="l" depth="1" NCoef="0" IVar="-1" Cut="0.0000000000000000e+00" cType="1" res="-1.4439276419579983e-03" rms="4.6274846792221069e-01" purity="3.7927827239036560e-01" nType="-99"/>
        <Node pos="r" depth="1" NCoef="0" IVar="1" Cut="1.4732101440429688e+02" cType="1" res="2.7512123342603445e-03" rms="4.6906432509422302e-01" purity="5.1474124193191528e-01" nType="0">
          <Node pos="l" depth="2" NCoef="0" IVar="-1" Cut="0.0000000000000000e+00" cType="1" res="2.0021293312311172e-04" rms="4.7136366367340088e-01" purity="5.3849303722381592e-01" nType="-99"/>
          <Node pos="r" depth="2" NCoef="0" IVar="-1" Cut="0.0000000000000000e+00" cType="1" res="-1.1728026438504457e-03" rms="4.3216982483863831e-01" purity="2.6831284165382385e-01" nType="-99"/>
        </Node>
      </Node>
    </BinaryTree>
    <BinaryTree type="DecisionTree" boostWeight="1.0000000000000000e+00" itree="644">
      <Node pos="s" depth="0" NCoef="0" IVar="2" Cut="6.4145678710937500e+02" cType="1" res="1.7068337183445692e-03" rms="4.7298288345336914e-01" purity="5.1458519697189331e-01" nType="0">
        <Node pos="l" depth="1" NCoef="0" IVar="-1" Cut="0.0000000000000000e+00" cType="1" res="1.5383358113467693e-03" rms="4.7202265262603760e-01" purity="6.3658672571182251e-01" nType="-99"/>
        <Node pos="r" depth="1" NCoef="0" IVar="4" Cut="5.5421643066406250e+02" cType="1" res="-5.7228631339967251e-03" rms="4.7243252396583557e-01" purity="5.0245803594589233e-01" nType="0">
          <Node pos="l" depth="2" NCoef="0" IVar="-1" Cut="0.0000000000000000e+00" cType="1" res="-1.1526842135936022e-03" rms="4.4629928469657898e-01" purity="3.6152902245521545e-01" nType="-99"/>
          <Node pos="r" depth="2" NCoef="0" IVar="-1" Cut="0.0000000000000000e+00" cType="1" res="1.0555764310993254e-04" rms="4.7514796257019043e-01" purity="5.2435088157653809e-01" nType="-99"/>
        </Node>
      </Node>
    </BinaryTree>
    <BinaryTree type="DecisionTree" boostWeight="1.0000000000000000e+00" itree="645">
      <Node pos="s" depth="0" NCoef="0" IVar="4" Cut="8.4637402343750000e+02" cType="1" res="-1.4510838314890862e-02" rms="4.6894660592079163e-01" purity="4.9627336859703064e-01" nType="0">
        <Node pos="l" depth="1" NCoef="0" IVar="2" Cut="8.1842706298828125e+02" cType="1" res="-3.5968240350484848e-02" rms="4.6726682782173157e-01" purity="4.7343534231185913e-01" nType="0">
          <Node pos="l" depth="2" NCoef="0" IVar="-1" Cut="0.0000000000000000e+00" cType="1" res="2.6196747785434127e-04" rms="4.7189596295356750e-01" purity="5.6139218807220459e-01" nType="-99"/>
          <Node pos="r" depth="2" NCoef="0" IVar="-1" Cut="0.0000000000000000e+00" cType="1" res="-1.0072154691442847e-03" rms="4.6025720238685608e-01" purity="4.0986558794975281e-01" nType="-99"/>
        </Node>
        <Node pos="r" depth="1" NCoef="0" IVar="2" Cut="1.5016790771484375e+03" cType="1" res="3.3135149627923965e-02" rms="4.6915930509567261e-01" purity="5.4698497056961060e-01" nType="0">
          <Node pos="l" depth="2" NCoef="0" IVar="-1" Cut="0.0000000000000000e+00" cType="1" res="1.7671405803412199e-03" rms="4.5337289571762085e-01" purity="6.4381271600723267e-01" nType="-99"/>
          <Node pos="r" depth="2" NCoef="0" IVar="-1" Cut="0.0000000000000000e+00" cType="1" res="-4.3676514178514481e-04" rms="4.7577542066574097e-01" purity="4.4922256469726562e-01" nType="-99"/>
        </Node>
      </Node>
    </BinaryTree>
    <BinaryTree type="DecisionTree" boostWeight="1.0000000000000000e+00" itree="646">
      <Node pos="s" depth="0" NCoef="0" IVar="0" Cut="6.6542304992675781e+01" cType="1" res="-7.6936082914471626e-03" rms="4.7096952795982361e-01" purity="5.0338220596313477e-01" nType="0">
        <Node pos="l" depth="1" NCoef="0" IVar="-1" Cut="0.0000000000000000e+00" cType="1" res="-1.1164313182234764e-03" rms="4.4935604929924011e-01" purity="3.4036996960639954e-01" nType="-99"/>
        <Node pos="r" depth="1" NCoef="0" IVar="4" Cut="5.3330407714843750e+02" cType="1" res="1.0414021089673042e-03" rms="4.7248211503028870e-01" purity="5.2136915922164917e-01" nType="0">
          <Node pos="l" depth="2" NCoef="0" IVar="-1" Cut="0.0000000000000000e+00" cType="1" res="-8.8141718879342079e-04" rms="4.5909360051155090e-01" purity="4.4720962643623352e-01" nType="-99"/>
          <Node pos="r" depth="2" NCoef="0" IVar="-1" Cut="0.0000000000000000e+00" cType="1" res="1.9427915685810149e-04" rms="4.7402930259704590e-01" purity="5.3477543592453003e-01" nType="-99"/>
        </Node>
      </Node>
    </BinaryTree>
    <BinaryTree type="DecisionTree" boostWeight="1.0000000000000000e+00" itree="647">
      <Node pos="s" depth="0" NCoef="0" IVar="1" Cut="1.0875257110595703e+02" cType="1" res="-1.1918649077415466e-02" rms="4.6539941430091858e-01" purity="4.9310204386711121e-01" nType="0">
        <Node pos="l" depth="1" NCoef="0" IVar="2" Cut="1.0993947753906250e+03" cType="1" res="-1.0313159227371216e-01" rms="4.4408380985260010e-01" purity="3.3166408538818359e-01" nType="0">
          <Node pos="l" depth="2" NCoef="0" IVar="-1" Cut="0.0000000000000000e+00" cType="1" res="-1.0295414831489325e-03" rms="4.5055094361305237e-01" purity="3.6909842491149902e-01" nType="-99"/>
          <Node pos="r" depth="2" NCoef="0" IVar="-1" Cut="0.0000000000000000e+00" cType="1" res="-1.5173606807366014e-03" rms="4.3424406647682190e-01" purity="2.8794541954994202e-01" nType="-99"/>
        </Node>
        <Node pos="r" depth="1" NCoef="0" IVar="4" Cut="8.8930310058593750e+02" cType="1" res="5.2748578600585461e-03" rms="4.6731895208358765e-01" purity="5.2353286743164062e-01" nType="0">
          <Node pos="l" depth="2" NCoef="0" IVar="-1" Cut="0.0000000000000000e+00" cType="1" res="-2.0255653362255543e-04" rms="4.6761816740036011e-01" purity="5.0182831287384033e-01" nType="-99"/>
          <Node pos="r" depth="2" NCoef="0" IVar="-1" Cut="0.0000000000000000e+00" cType="1" res="9.7291741985827684e-04" rms="4.6264073252677917e-01" purity="5.8367681503295898e-01" nType="-99"/>
        </Node>
      </Node>
    </BinaryTree>
    <BinaryTree type="DecisionTree" boostWeight="1.0000000000000000e+00" itree="648">
      <Node pos="s" depth="0" NCoef="0" IVar="0" Cut="4.5534732055664062e+02" cType="1" res="-1.8874980509281158e-02" rms="4.6903112530708313e-01" purity="4.8974063992500305e-01" nType="0">
        <Node pos="l" depth="1" NCoef="0" IVar="2" Cut="7.9484027099609375e+02" cType="1" res="-8.3369603380560875e-03" rms="4.7175371646881104e-01" purity="5.1088482141494751e-01" nType="0">
          <Node pos="l" depth="2" NCoef="0" IVar="-1" Cut="0.0000000000000000e+00" cType="1" res="5.5148079991340637e-04" rms="4.6724849939346313e-01" purity="5.7526260614395142e-01" nType="-99"/>
          <Node pos="r" depth="2" NCoef="0" IVar="-1" Cut="0.0000000000000000e+00" cType="1" res="-3.4374307142570615e-04" rms="4.7250276803970337e-01" purity="4.8762112855911255e-01" nType="-99"/>
        </Node>
        <Node pos="r" depth="1" NCoef="0" IVar="-1" Cut="0.0000000000000000e+00" cType="1" res="-1.5076888957992196e-03" rms="4.2170599102973938e-01" purity="2.5997138023376465e-01" nType="-99"/>
      </Node>
    </BinaryTree>
    <BinaryTree type="DecisionTree" boostWeight="1.0000000000000000e+00" itree="649">
      <Node pos="s" depth="0" NCoef="0" IVar="0" Cut="6.7829383850097656e+01" cType="1" res="-1.6444863751530647e-02" rms="4.6983146667480469e-01" purity="4.9286207556724548e-01" nType="0">
        <Node pos="l" depth="1" NCoef="0" IVar="-1" Cut="0.0000000000000000e+00" cType="1" res="-1.2324623530730605e-03" rms="4.4846475124359131e-01" purity="3.3066889643669128e-01" nType="-99"/>
        <Node pos="r" depth="1" NCoef="0" IVar="2" Cut="1.5550440673828125e+03" cType="1" res="-7.9470193013548851e-03" rms="4.7120076417922974e-01" purity="5.0981992483139038e-01" nType="0">
          <Node pos="l" depth="2" NCoef="0" IVar="-1" Cut="0.0000000000000000e+00" cType="1" res="8.1625890743453056e-05" rms="4.7004246711730957e-01" purity="5.3150016069412231e-01" nType="-99"/>
          <Node pos="r" depth="2" NCoef="0" IVar="-1" Cut="0.0000000000000000e+00" cType="1" res="-9.6596626099199057e-04" rms="4.7164636850357056e-01" purity="4.0398299694061279e-01" nType="-99"/>
        </Node>
      </Node>
    </BinaryTree>
    <BinaryTree type="DecisionTree" boostWeight="1.0000000000000000e+00" itree="650">
      <Node pos="s" depth="0" NCoef="0" IVar="2" Cut="6.0120489501953125e+02" cType="1" res="8.5637569427490234e-03" rms="4.7061172127723694e-01" purity="5.2125096321105957e-01" nType="0">
        <Node pos="l" depth="1" NCoef="0" IVar="-1" Cut="0.0000000000000000e+00" cType="1" res="2.3245809134095907e-03" rms="4.6463701128959656e-01" purity="6.6335284709930420e-01" nType="-99"/>
        <Node pos="r" depth="1" NCoef="0" IVar="4" Cut="5.3387493896484375e+02" cType="1" res="2.1819786634296179e-03" rms="4.7019633650779724e-01" purity="5.1277959346771240e-01" nType="0">
          <Node pos="l" depth="2" NCoef="0" IVar="-1" Cut="0.0000000000000000e+00" cType="1" res="-1.1203135363757610e-03" rms="4.4310438632965088e-01" purity="3.6826381087303162e-01" nType="-99"/>
          <Node pos="r" depth="2" NCoef="0" IVar="-1" Cut="0.0000000000000000e+00" cType="1" res="2.3845311079639941e-04" rms="4.7258630394935608e-01" purity="5.3346860408782959e-01" nType="-99"/>
        </Node>
      </Node>
    </BinaryTree>
    <BinaryTree type="DecisionTree" boostWeight="1.0000000000000000e+00" itree="651">
      <Node pos="s" depth="0" NCoef="0" IVar="1" Cut="1.0814468383789062e+02" cType="1" res="-1.5333615243434906e-02" rms="4.7082075476646423e-01" purity="4.9676603078842163e-01" nType="0">
        <Node pos="l" depth="1" NCoef="0" IVar="5" Cut="4.2916676402091980e-01" cType="1" res="-7.4507169425487518e-02" rms="4.5144966244697571e-01" purity="3.5708388686180115e-01" nType="0">
          <Node pos="l" depth="2" NCoef="0" IVar="-1" Cut="0.0000000000000000e+00" cType="1" res="-1.7092296620830894e-03" rms="4.3335086107254028e-01" purity="3.0216187238693237e-01" nType="-99"/>
          <Node pos="r" depth="2" NCoef="0" IVar="-1" Cut="0.0000000000000000e+00" cType="1" res="1.8379354514763691e-05" rms="4.6124932169914246e-01" purity="4.2378425598144531e-01" nType="-99"/>
        </Node>
        <Node pos="r" depth="1" NCoef="0" IVar="4" Cut="4.8594100952148438e+02" cType="1" res="-4.9673155881464481e-03" rms="4.7337201237678528e-01" purity="5.2123618125915527e-01" nType="0">
          <Node pos="l" depth="2" NCoef="0" IVar="-1" Cut="0.0000000000000000e+00" cType="1" res="-1.2403298169374466e-03" rms="4.8433485627174377e-01" purity="4.2989760637283325e-01" nType="-99"/>
          <Node pos="r" depth="2" NCoef="0" IVar="-1" Cut="0.0000000000000000e+00" cType="1" res="8.6687905422877520e-05" rms="4.7095897793769836e-01" purity="5.3225880861282349e-01" nType="-99"/>
        </Node>
      </Node>
    </BinaryTree>
    <BinaryTree type="DecisionTree" boostWeight="1.0000000000000000e+00" itree="652">
      <Node pos="s" depth="0" NCoef="0" IVar="2" Cut="8.8688305664062500e+02" cType="1" res="-2.8508524410426617e-03" rms="4.6773758530616760e-01" purity="5.0760483741760254e-01" nType="0">
        <Node pos="l" depth="1" NCoef="0" IVar="0" Cut="1.7648333740234375e+02" cType="1" res="4.3181177228689194e-02" rms="4.6317586302757263e-01" purity="5.7720983028411865e-01" nType="0">
          <Node pos="l" depth="2" NCoef="0" IVar="-1" Cut="0.0000000000000000e+00" cType="1" res="1.1962919961661100e-03" rms="4.5609831809997559e-01" purity="6.1268717050552368e-01" nType="-99"/>
          <Node pos="r" depth="2" NCoef="0" IVar="-1" Cut="0.0000000000000000e+00" cType="1" res="-3.2759882742539048e-04" rms="4.7760841250419617e-01" purity="4.7157302498817444e-01" nType="-99"/>
        </Node>
        <Node pos="r" depth="1" NCoef="0" IVar="4" Cut="6.4529510498046875e+02" cType="1" res="-2.8325404971837997e-02" rms="4.6830216050148010e-01" purity="4.6908476948738098e-01" nType="0">
          <Node pos="l" depth="2" NCoef="0" IVar="-1" Cut="0.0000000000000000e+00" cType="1" res="-1.5053782844915986e-03" rms="4.3044623732566833e-01" purity="2.8230458498001099e-01" nType="-99"/>
          <Node pos="r" depth="2" NCoef="0" IVar="-1" Cut="0.0000000000000000e+00" cType="1" res="-2.0981580018997192e-04" rms="4.7220686078071594e-01" purity="4.9804341793060303e-01" nType="-99"/>
        </Node>
      </Node>
    </BinaryTree>
    <BinaryTree type="DecisionTree" boostWeight="1.0000000000000000e+00" itree="653">
      <Node pos="s" depth="0" NCoef="0" IVar="4" Cut="9.5133929443359375e+02" cType="1" res="-3.0344752594828606e-03" rms="4.7204667329788208e-01" purity="5.0668269395828247e-01" nType="0">
        <Node pos="l" depth="1" NCoef="0" IVar="2" Cut="7.1192602539062500e+02" cType="1" res="-2.0083686336874962e-02" rms="4.7125205397605896e-01" purity="4.9142345786094666e-01" nType="0">
          <Node pos="l" depth="2" NCoef="0" IVar="-1" Cut="0.0000000000000000e+00" cType="1" res="8.3655118942260742e-04" rms="4.7279590368270874e-01" purity="6.0942506790161133e-01" nType="-99"/>
          <Node pos="r" depth="2" NCoef="0" IVar="-1" Cut="0.0000000000000000e+00" cType="1" res="-5.3023273358121514e-04" rms="4.6943435072898865e-01" purity="4.6232819557189941e-01" nType="-99"/>
        </Node>
        <Node pos="r" depth="1" NCoef="0" IVar="2" Cut="1.5895227050781250e+03" cType="1" res="5.5503550916910172e-02" rms="4.7008192539215088e-01" purity="5.5907505750656128e-01" nType="0">
          <Node pos="l" depth="2" NCoef="0" IVar="-1" Cut="0.0000000000000000e+00" cType="1" res="2.5711955968290567e-03" rms="4.5849794149398804e-01" purity="6.7085212469100952e-01" nType="-99"/>
          <Node pos="r" depth="2" NCoef="0" IVar="-1" Cut="0.0000000000000000e+00" cType="1" res="6.4368061430286616e-05" rms="4.7207850217819214e-01" purity="4.7572618722915649e-01" nType="-99"/>
        </Node>
      </Node>
    </BinaryTree>
    <BinaryTree type="DecisionTree" boostWeight="1.0000000000000000e+00" itree="654">
      <Node pos="s" depth="0" NCoef="0" IVar="2" Cut="1.2340979003906250e+03" cType="1" res="1.3205574359744787e-03" rms="4.7261109948158264e-01" purity="5.1235854625701904e-01" nType="0">
        <Node pos="l" depth="1" NCoef="0" IVar="4" Cut="7.6636090087890625e+02" cType="1" res="2.0511113107204437e-02" rms="4.6934601664543152e-01" purity="5.4312837123870850e-01" nType="0">
          <Node pos="l" depth="2" NCoef="0" IVar="-1" Cut="0.0000000000000000e+00" cType="1" res="3.1347302865469828e-05" rms="4.7060298919677734e-01" purity="5.1175355911254883e-01" nType="-99"/>
          <Node pos="r" depth="2" NCoef="0" IVar="-1" Cut="0.0000000000000000e+00" cType="1" res="1.7596873221918941e-03" rms="4.5814242959022522e-01" purity="6.5958362817764282e-01" nType="-99"/>
        </Node>
        <Node pos="r" depth="1" NCoef="0" IVar="4" Cut="9.5996343994140625e+02" cType="1" res="-3.7637397646903992e-02" rms="4.7680127620697021e-01" purity="4.4989398121833801e-01" nType="0">
          <Node pos="l" depth="2" NCoef="0" IVar="-1" Cut="0.0000000000000000e+00" cType="1" res="-1.2636651517823339e-03" rms="4.6636521816253662e-01" purity="3.6734962463378906e-01" nType="-99"/>
          <Node pos="r" depth="2" NCoef="0" IVar="-1" Cut="0.0000000000000000e+00" cType="1" res="-6.0150679928483441e-05" rms="4.7927826642990112e-01" purity="4.9617791175842285e-01" nType="-99"/>
        </Node>
      </Node>
    </BinaryTree>
    <BinaryTree type="DecisionTree" boostWeight="1.0000000000000000e+00" itree="655">
      <Node pos="s" depth="0" NCoef="0" IVar="1" Cut="1.4539009094238281e+02" cType="1" res="-4.5952363871037960e-03" rms="4.6604216098785400e-01" purity="5.0262004137039185e-01" nType="0">
        <Node pos="l" depth="1" NCoef="0" IVar="4" Cut="4.7236004638671875e+02" cType="1" res="5.5165593512356281e-03" rms="4.6919056773185730e-01" purity="5.2845722436904907e-01" nType="0">
          <Node pos="l" depth="2" NCoef="0" IVar="-1" Cut="0.0000000000000000e+00" cType="1" res="-1.3633321505039930e-03" rms="4.7780787944793701e-01" purity="4.1083049774169922e-01" nType="-99"/>
          <Node pos="r" depth="2" NCoef="0" IVar="-1" Cut="0.0000000000000000e+00" cType="1" res="2.4512200616300106e-04" rms="4.6719193458557129e-01" purity="5.3902590274810791e-01" nType="-99"/>
        </Node>
        <Node pos="r" depth="1" NCoef="0" IVar="-1" Cut="0.0000000000000000e+00" cType="1" res="-1.2216117465868592e-03" rms="4.2388573288917542e-01" purity="2.6057097315788269e-01" nType="-99"/>
      </Node>
    </BinaryTree>
    <BinaryTree type="DecisionTree" boostWeight="1.0000000000000000e+00" itree="656">
      <Node pos="s" depth="0" NCoef="0" IVar="4" Cut="7.6523083496093750e+02" cType="1" res="-1.1586168548092246e-03" rms="4.6754750609397888e-01" purity="5.0748175382614136e-01" nType="0">
        <Node pos="l" depth="1" NCoef="0" IVar="2" Cut="8.8388800048828125e+02" cType="1" res="-3.2586563378572464e-02" rms="4.6370086073875427e-01" purity="4.6670797467231750e-01" nType="0">
          <Node pos="l" depth="2" NCoef="0" IVar="-1" Cut="0.0000000000000000e+00" cType="1" res="4.1925028199329972e-05" rms="4.6786597371101379e-01" purity="5.3071653842926025e-01" nType="-99"/>
          <Node pos="r" depth="2" NCoef="0" IVar="-1" Cut="0.0000000000000000e+00" cType="1" res="-1.1663273908197880e-03" rms="4.5113834738731384e-01" purity="3.6353987455368042e-01" nType="-99"/>
        </Node>
        <Node pos="r" depth="1" NCoef="0" IVar="2" Cut="1.1002354736328125e+03" cType="1" res="4.1152209043502808e-02" rms="4.6936479210853577e-01" purity="5.6237465143203735e-01" nType="0">
          <Node pos="l" depth="2" NCoef="0" IVar="-1" Cut="0.0000000000000000e+00" cType="1" res="3.4625632688403130e-03" rms="4.3546089529991150e-01" purity="7.3484045267105103e-01" nType="-99"/>
          <Node pos="r" depth="2" NCoef="0" IVar="-1" Cut="0.0000000000000000e+00" cType="1" res="2.2382140741683543e-04" rms="4.7386065125465393e-01" purity="5.1881331205368042e-01" nType="-99"/>
        </Node>
      </Node>
    </BinaryTree>
    <BinaryTree type="DecisionTree" boostWeight="1.0000000000000000e+00" itree="657">
      <Node pos="s" depth="0" NCoef="0" IVar="0" Cut="8.9931587219238281e+01" cType="1" res="-3.7823033053427935e-03" rms="4.7025996446609497e-01" purity="5.0592571496963501e-01" nType="0">
        <Node pos="l" depth="1" NCoef="0" IVar="5" Cut="4.0468698740005493e-01" cType="1" res="-6.2309980392456055e-02" rms="4.6850422024726868e-01" purity="4.1159233450889587e-01" nType="0">
          <Node pos="l" depth="2" NCoef="0" IVar="-1" Cut="0.0000000000000000e+00" cType="1" res="-1.4281822368502617e-03" rms="4.5286861062049866e-01" purity="3.5264196991920471e-01" nType="-99"/>
          <Node pos="r" depth="2" NCoef="0" IVar="-1" Cut="0.0000000000000000e+00" cType="1" res="-1.9722922297660261e-04" rms="4.7805941104888916e-01" purity="4.6850228309631348e-01" nType="-99"/>
        </Node>
        <Node pos="r" depth="1" NCoef="0" IVar="2" Cut="1.4333946533203125e+03" cType="1" res="9.6270386129617691e-03" rms="4.6963542699813843e-01" purity="5.2753859758377075e-01" nType="0">
          <Node pos="l" depth="2" NCoef="0" IVar="-1" Cut="0.0000000000000000e+00" cType="1" res="4.5614069676958025e-04" rms="4.6812084317207336e-01" purity="5.5864417552947998e-01" nType="-99"/>
          <Node pos="r" depth="2" NCoef="0" IVar="-1" Cut="0.0000000000000000e+00" cType="1" res="-5.9301528381183743e-04" rms="4.7035294771194458e-01" purity="4.3118491768836975e-01" nType="-99"/>
        </Node>
      </Node>
    </BinaryTree>
    <BinaryTree type="DecisionTree" boostWeight="1.0000000000000000e+00" itree="658">
      <Node pos="s" depth="0" NCoef="0" IVar="0" Cut="6.4517669677734375e+01" cType="1" res="-1.3869228772819042e-02" rms="4.7090882062911987e-01" purity="4.9463403224945068e-01" nType="0">
        <Node pos="l" depth="1" NCoef="0" IVar="-1" Cut="0.0000000000000000e+00" cType="1" res="-1.3813138939440250e-03" rms="4.3576174974441528e-01" purity="3.0121073126792908e-01" nType="-99"/>
        <Node pos="r" depth="1" NCoef="0" IVar="4" Cut="5.9837628173828125e+02" cType="1" res="-3.8716220296919346e-03" rms="4.7301882505416870e-01" purity="5.1353740692138672e-01" nType="0">
          <Node pos="l" depth="2" NCoef="0" IVar="-1" Cut="0.0000000000000000e+00" cType="1" res="-7.2720937896519899e-04" rms="4.6690633893013000e-01" purity="4.5689609646797180e-01" nType="-99"/>
          <Node pos="r" depth="2" NCoef="0" IVar="-1" Cut="0.0000000000000000e+00" cType="1" res="2.3384472297038883e-04" rms="4.7409936785697937e-01" purity="5.3562617301940918e-01" nType="-99"/>
        </Node>
      </Node>
    </BinaryTree>
    <BinaryTree type="DecisionTree" boostWeight="1.0000000000000000e+00" itree="659">
      <Node pos="s" depth="0" NCoef="0" IVar="0" Cut="6.8411994934082031e+01" cType="1" res="-2.2230207920074463e-02" rms="4.7014236450195312e-01" purity="4.8529785871505737e-01" nType="0">
        <Node pos="l" depth="1" NCoef="0" IVar="-1" Cut="0.0000000000000000e+00" cType="1" res="-1.1246777139604092e-03" rms="4.6310630440711975e-01" purity="3.4448990225791931e-01" nType="-99"/>
        <Node pos="r" depth="1" NCoef="0" IVar="0" Cut="1.5549694824218750e+02" cType="1" res="-1.4610466547310352e-02" rms="4.7025847434997559e-01" purity="5.0045269727706909e-01" nType="0">
          <Node pos="l" depth="2" NCoef="0" IVar="-1" Cut="0.0000000000000000e+00" cType="1" res="2.7786355349235237e-04" rms="4.7347658872604370e-01" purity="5.8351808786392212e-01" nType="-99"/>
          <Node pos="r" depth="2" NCoef="0" IVar="-1" Cut="0.0000000000000000e+00" cType="1" res="-5.9364363551139832e-04" rms="4.6552038192749023e-01" purity="4.2458945512771606e-01" nType="-99"/>
        </Node>
      </Node>
    </BinaryTree>
    <BinaryTree type="DecisionTree" boostWeight="1.0000000000000000e+00" itree="660">
      <Node pos="s" depth="0" NCoef="0" IVar="4" Cut="6.8539532470703125e+02" cType="1" res="-2.2867169231176376e-02" rms="4.7040605545043945e-01" purity="4.8621475696563721e-01" nType="0">
        <Node pos="l" depth="1" NCoef="0" IVar="2" Cut="7.5768292236328125e+02" cType="1" res="-5.4812349379062653e-02" rms="4.6425476670265198e-01" purity="4.3630594015121460e-01" nType="0">
          <Node pos="l" depth="2" NCoef="0" IVar="-1" Cut="0.0000000000000000e+00" cType="1" res="3.4923945349873975e-05" rms="4.7173199057579041e-01" purity="5.5155742168426514e-01" nType="-99"/>
          <Node pos="r" depth="2" NCoef="0" IVar="-1" Cut="0.0000000000000000e+00" cType="1" res="-1.2586099328473210e-03" rms="4.5314899086952209e-01" purity="3.4474125504493713e-01" nType="-99"/>
        </Node>
        <Node pos="r" depth="1" NCoef="0" IVar="5" Cut="3.9854523539543152e-01" cType="1" res="3.5261427983641624e-03" rms="4.7380617260932922e-01" purity="5.2744972705841064e-01" nType="0">
          <Node pos="l" depth="2" NCoef="0" IVar="-1" Cut="0.0000000000000000e+00" cType="1" res="-5.6244916049763560e-04" rms="4.7538647055625916e-01" purity="4.8211559653282166e-01" nType="-99"/>
          <Node pos="r" depth="2" NCoef="0" IVar="-1" Cut="0.0000000000000000e+00" cType="1" res="5.1032885676249862e-04" rms="4.7066712379455566e-01" purity="5.5935555696487427e-01" nType="-99"/>
        </Node>
      </Node>
    </BinaryTree>
    <BinaryTree type="DecisionTree" boostWeight="1.0000000000000000e+00" itree="661">
      <Node pos="s" depth="0" NCoef="0" IVar="3" Cut="8.6437380313873291e-01" cType="1" res="-2.1848708391189575e-02" rms="4.6985074877738953e-01" purity="4.8678287863731384e-01" nType="0">
        <Node pos="l" depth="1" NCoef="0" IVar="2" Cut="1.1502636718750000e+03" cType="1" res="-8.9683488011360168e-02" rms="4.5800071954727173e-01" purity="3.3522468805313110e-01" nType="0">
          <Node pos="l" depth="2" NCoef="0" IVar="-1" Cut="0.0000000000000000e+00" cType="1" res="-6.0523056890815496e-04" rms="4.7562536597251892e-01" purity="3.9075964689254761e-01" nType="-99"/>
          <Node pos="r" depth="2" NCoef="0" IVar="-1" Cut="0.0000000000000000e+00" cType="1" res="-1.6397142317146063e-03" rms="4.2641413211822510e-01" purity="2.6012051105499268e-01" nType="-99"/>
        </Node>
        <Node pos="r" depth="1" NCoef="0" IVar="0" Cut="9.3171310424804688e+01" cType="1" res="-3.2704342156648636e-03" rms="4.7134447097778320e-01" purity="5.2829092741012573e-01" nType="0">
          <Node pos="l" depth="2" NCoef="0" IVar="-1" Cut="0.0000000000000000e+00" cType="1" res="-9.3733711401000619e-04" rms="4.7448062896728516e-01" purity="4.3474292755126953e-01" nType="-99"/>
          <Node pos="r" depth="2" NCoef="0" IVar="-1" Cut="0.0000000000000000e+00" cType="1" res="2.5379072758369148e-04" rms="4.6884268522262573e-01" purity="5.5483508110046387e-01" nType="-99"/>
        </Node>
      </Node>
    </BinaryTree>
    <BinaryTree type="DecisionTree" boostWeight="1.0000000000000000e+00" itree="662">
      <Node pos="s" depth="0" NCoef="0" IVar="4" Cut="9.5311706542968750e+02" cType="1" res="-1.1192998848855495e-02" rms="4.6921420097351074e-01" purity="4.9618798494338989e-01" nType="0">
        <Node pos="l" depth="1" NCoef="0" IVar="2" Cut="1.2618135986328125e+03" cType="1" res="-2.3871926590800285e-02" rms="4.6703505516052246e-01" purity="4.8399031162261963e-01" nType="0">
          <Node pos="l" depth="2" NCoef="0" IVar="-1" Cut="0.0000000000000000e+00" cType="1" res="-1.2077679275535047e-04" rms="4.6837770938873291e-01" purity="5.0932431221008301e-01" nType="-99"/>
          <Node pos="r" depth="2" NCoef="0" IVar="-1" Cut="0.0000000000000000e+00" cType="1" res="-1.5038351994007826e-03" rms="4.4476675987243652e-01" purity="3.2278522849082947e-01" nType="-99"/>
        </Node>
        <Node pos="r" depth="1" NCoef="0" IVar="2" Cut="1.3616043701171875e+03" cType="1" res="3.1611237674951553e-02" rms="4.7399878501892090e-01" purity="5.3736758232116699e-01" nType="0">
          <Node pos="l" depth="2" NCoef="0" IVar="-1" Cut="0.0000000000000000e+00" cType="1" res="2.2020367905497551e-03" rms="4.4881203770637512e-01" purity="6.7329126596450806e-01" nType="-99"/>
          <Node pos="r" depth="2" NCoef="0" IVar="-1" Cut="0.0000000000000000e+00" cType="1" res="9.9313838290981948e-05" rms="4.7895014286041260e-01" purity="4.9447405338287354e-01" nType="-99"/>
        </Node>
      </Node>
    </BinaryTree>
    <BinaryTree type="DecisionTree" boostWeight="1.0000000000000000e+00" itree="663">
      <Node pos="s" depth="0" NCoef="0" IVar="2" Cut="1.1574140625000000e+03" cType="1" res="-1.8992237746715546e-02" rms="4.7036659717559814e-01" purity="4.8927634954452515e-01" nType="0">
        <Node pos="l" depth="1" NCoef="0" IVar="4" Cut="5.6999157714843750e+02" cType="1" res="3.5317817237228155e-03" rms="4.6841156482696533e-01" purity="5.2527296543121338e-01" nType="0">
          <Node pos="l" depth="2" NCoef="0" IVar="-1" Cut="0.0000000000000000e+00" cType="1" res="-6.0195504920557141e-04" rms="4.5970368385314941e-01" purity="4.5014485716819763e-01" nType="-99"/>
          <Node pos="r" depth="2" NCoef="0" IVar="-1" Cut="0.0000000000000000e+00" cType="1" res="5.0940754590556026e-04" rms="4.7162467241287231e-01" purity="5.7087808847427368e-01" nType="-99"/>
        </Node>
        <Node pos="r" depth="1" NCoef="0" IVar="4" Cut="1.2241209716796875e+03" cType="1" res="-5.5738136172294617e-02" rms="4.7123351693153381e-01" purity="4.3055111169815063e-01" nType="0">
          <Node pos="l" depth="2" NCoef="0" IVar="-1" Cut="0.0000000000000000e+00" cType="1" res="-1.1425662087276578e-03" rms="4.6817004680633545e-01" purity="4.0068799257278442e-01" nType="-99"/>
          <Node pos="r" depth="2" NCoef="0" IVar="-1" Cut="0.0000000000000000e+00" cType="1" res="1.0431421687826514e-03" rms="4.6354460716247559e-01" purity="5.3871655464172363e-01" nType="-99"/>
        </Node>
      </Node>
    </BinaryTree>
    <BinaryTree type="DecisionTree" boostWeight="1.0000000000000000e+00" itree="664">
      <Node pos="s" depth="0" NCoef="0" IVar="1" Cut="1.2831219482421875e+02" cType="1" res="-6.2599759548902512e-03" rms="4.6747776865959167e-01" purity="4.9900302290916443e-01" nType="0">
        <Node pos="l" depth="1" NCoef="0" IVar="1" Cut="1.1094268798828125e+02" cType="1" res="2.1724326536059380e-02" rms="4.6864816546440125e-01" purity="5.5132728815078735e-01" nType="0">
          <Node pos="l" depth="2" NCoef="0" IVar="-1" Cut="0.0000000000000000e+00" cType="1" res="-5.5146054364740849e-04" rms="4.6198615431785583e-01" purity="4.1279128193855286e-01" nType="-99"/>
          <Node pos="r" depth="2" NCoef="0" IVar="-1" Cut="0.0000000000000000e+00" cType="1" res="8.4069324657320976e-04" rms="4.6901512145996094e-01" purity="6.0705602169036865e-01" nType="-99"/>
        </Node>
        <Node pos="r" depth="1" NCoef="0" IVar="3" Cut="8.7039399147033691e-01" cType="1" res="-5.2832037210464478e-02" rms="4.6177899837493896e-01" purity="4.1192382574081421e-01" nType="0">
          <Node pos="l" depth="2" NCoef="0" IVar="-1" Cut="0.0000000000000000e+00" cType="1" res="-1.3005702057853341e-03" rms="4.2636281251907349e-01" purity="2.6911023259162903e-01" nType="-99"/>
          <Node pos="r" depth="2" NCoef="0" IVar="-1" Cut="0.0000000000000000e+00" cType="1" res="-3.0443342984654009e-04" rms="4.7415015101432800e-01" purity="4.7957986593246460e-01" nType="-99"/>
        </Node>
      </Node>
    </BinaryTree>
    <BinaryTree type="DecisionTree" boostWeight="1.0000000000000000e+00" itree="665">
      <Node pos="s" depth="0" NCoef="0" IVar="0" Cut="2.0200447082519531e+02" cType="1" res="-1.5559625811874866e-02" rms="4.6490955352783203e-01" purity="4.8875099420547485e-01" nType="0">
        <Node pos="l" depth="1" NCoef="0" IVar="0" Cut="8.4737060546875000e+01" cType="1" res="1.2169134803116322e-02" rms="4.6532917022705078e-01" purity="5.4909610748291016e-01" nType="0">
          <Node pos="l" depth="2" NCoef="0" IVar="-1" Cut="0.0000000000000000e+00" cType="1" res="-8.9025788474828005e-04" rms="4.5801672339439392e-01" purity="3.8785594701766968e-01" nType="-99"/>
          <Node pos="r" depth="2" NCoef="0" IVar="-1" Cut="0.0000000000000000e+00" cType="1" res="7.0837145904079080e-04" rms="4.6456903219223022e-01" purity="6.0636490583419800e-01" nType="-99"/>
        </Node>
        <Node pos="r" depth="1" NCoef="0" IVar="4" Cut="6.7393963623046875e+02" cType="1" res="-6.4816020429134369e-02" rms="4.6006029844284058e-01" purity="3.8155612349510193e-01" nType="0">
          <Node pos="l" depth="2" NCoef="0" IVar="-1" Cut="0.0000000000000000e+00" cType="1" res="-1.2410191120579839e-03" rms="4.3689608573913574e-01" purity="3.1868731975555420e-01" nType="-99"/>
          <Node pos="r" depth="2" NCoef="0" IVar="-1" Cut="0.0000000000000000e+00" cType="1" res="-6.7110551754012704e-04" rms="4.6704006195068359e-01" purity="4.0388578176498413e-01" nType="-99"/>
        </Node>
      </Node>
    </BinaryTree>
    <BinaryTree type="DecisionTree" boostWeight="1.0000000000000000e+00" itree="666">
      <Node pos="s" depth="0" NCoef="0" IVar="2" Cut="7.3074060058593750e+02" cType="1" res="-4.2412639595568180e-03" rms="4.6955716609954834e-01" purity="5.0444042682647705e-01" nType="0">
        <Node pos="l" depth="1" NCoef="0" IVar="5" Cut="3.1368759274482727e-01" cType="1" res="6.3999950885772705e-02" rms="4.6478152275085449e-01" purity="6.2214356660842896e-01" nType="0">
          <Node pos="l" depth="2" NCoef="0" IVar="-1" Cut="0.0000000000000000e+00" cType="1" res="-2.8941663913428783e-04" rms="4.8255002498626709e-01" purity="5.3251338005065918e-01" nType="-99"/>
          <Node pos="r" depth="2" NCoef="0" IVar="-1" Cut="0.0000000000000000e+00" cType="1" res="2.7447389438748360e-03" rms="4.3767547607421875e-01" purity="6.9766038656234741e-01" nType="-99"/>
        </Node>
        <Node pos="r" depth="1" NCoef="0" IVar="3" Cut="9.5638805627822876e-01" cType="1" res="-1.7578780651092529e-02" rms="4.6932712197303772e-01" purity="4.8143571615219116e-01" nType="0">
          <Node pos="l" depth="2" NCoef="0" IVar="-1" Cut="0.0000000000000000e+00" cType="1" res="-4.3160983477719128e-04" rms="4.7249147295951843e-01" purity="4.5267254114151001e-01" nType="-99"/>
          <Node pos="r" depth="2" NCoef="0" IVar="-1" Cut="0.0000000000000000e+00" cType="1" res="2.5230057071894407e-03" rms="4.2487525939941406e-01" purity="7.3418003320693970e-01" nType="-99"/>
        </Node>
      </Node>
    </BinaryTree>
    <BinaryTree type="DecisionTree" boostWeight="1.0000000000000000e+00" itree="667">
      <Node pos="s" depth="0" NCoef="0" IVar="4" Cut="1.2486899414062500e+03" cType="1" res="1.3383520126808435e-04" rms="4.7018209099769592e-01" purity="5.1131927967071533e-01" nType="0">
        <Node pos="l" depth="1" NCoef="0" IVar="2" Cut="1.4472716064453125e+03" cType="1" res="-8.8189132511615753e-03" rms="4.7013360261917114e-01" purity="5.0489598512649536e-01" nType="0">
          <Node pos="l" depth="2" NCoef="0" IVar="-1" Cut="0.0000000000000000e+00" cType="1" res="7.6183088822290301e-05" rms="4.6997615694999695e-01" purity="5.2567893266677856e-01" nType="-99"/>
          <Node pos="r" depth="2" NCoef="0" IVar="-1" Cut="0.0000000000000000e+00" cType="1" res="-1.2684237444773316e-03" rms="4.6113142371177673e-01" purity="3.6697754263877869e-01" nType="-99"/>
        </Node>
        <Node pos="r" depth="1" NCoef="0" IVar="-1" Cut="0.0000000000000000e+00" cType="1" res="2.0351633429527283e-03" rms="4.5629999041557312e-01" purity="5.9131300449371338e-01" nType="-99"/>
      </Node>
    </BinaryTree>
    <BinaryTree type="DecisionTree" boostWeight="1.0000000000000000e+00" itree="668">
      <Node pos="s" depth="0" NCoef="0" IVar="2" Cut="8.8688305664062500e+02" cType="1" res="-7.6987226493656635e-03" rms="4.7297540307044983e-01" purity="5.0617837905883789e-01" nType="0">
        <Node pos="l" depth="1" NCoef="0" IVar="4" Cut="6.5930944824218750e+02" cType="1" res="2.6147210970520973e-02" rms="4.7071743011474609e-01" purity="5.5785584449768066e-01" nType="0">
          <Node pos="l" depth="2" NCoef="0" IVar="-1" Cut="0.0000000000000000e+00" cType="1" res="8.0149206041824073e-05" rms="4.7278353571891785e-01" purity="5.2664494514465332e-01" nType="-99"/>
          <Node pos="r" depth="2" NCoef="0" IVar="-1" Cut="0.0000000000000000e+00" cType="1" res="2.9312088154256344e-03" rms="4.4582396745681763e-01" purity="7.1309316158294678e-01" nType="-99"/>
        </Node>
        <Node pos="r" depth="1" NCoef="0" IVar="4" Cut="6.9830853271484375e+02" cType="1" res="-2.6842735707759857e-02" rms="4.7317707538604736e-01" purity="4.7694841027259827e-01" nType="0">
          <Node pos="l" depth="2" NCoef="0" IVar="-1" Cut="0.0000000000000000e+00" cType="1" res="-1.1744066141545773e-03" rms="4.4771856069564819e-01" purity="3.3382430672645569e-01" nType="-99"/>
          <Node pos="r" depth="2" NCoef="0" IVar="-1" Cut="0.0000000000000000e+00" cType="1" res="-1.4472659677267075e-04" rms="4.7833326458930969e-01" purity="5.1589363813400269e-01" nType="-99"/>
        </Node>
      </Node>
    </BinaryTree>
    <BinaryTree type="DecisionTree" boostWeight="1.0000000000000000e+00" itree="669">
      <Node pos="s" depth="0" NCoef="0" IVar="4" Cut="1.2457539062500000e+03" cType="1" res="-3.6358530633151531e-03" rms="4.6564656496047974e-01" purity="5.0360703468322754e-01" nType="0">
        <Node pos="l" depth="1" NCoef="0" IVar="2" Cut="1.3681182861328125e+03" cType="1" res="-1.2816529721021652e-02" rms="4.6393847465515137e-01" purity="4.9575746059417725e-01" nType="0">
          <Node pos="l" depth="2" NCoef="0" IVar="-1" Cut="0.0000000000000000e+00" cType="1" res="5.3622101404471323e-05" rms="4.6226850152015686e-01" purity="5.2006149291992188e-01" nType="-99"/>
          <Node pos="r" depth="2" NCoef="0" IVar="-1" Cut="0.0000000000000000e+00" cType="1" res="-1.1191078228875995e-03" rms="4.6419426798820496e-01" purity="3.8276398181915283e-01" nType="-99"/>
        </Node>
        <Node pos="r" depth="1" NCoef="0" IVar="-1" Cut="0.0000000000000000e+00" cType="1" res="1.8480811268091202e-03" rms="4.7211024165153503e-01" purity="5.9531617164611816e-01" nType="-99"/>
      </Node>
    </BinaryTree>
    <BinaryTree type="DecisionTree" boostWeight="1.0000000000000000e+00" itree="670">
      <Node pos="s" depth="0" NCoef="0" IVar="1" Cut="1.2615726470947266e+02" cType="1" res="-1.1001461185514927e-02" rms="4.7247946262359619e-01" purity="5.0056004524230957e-01" nType="0">
        <Node pos="l" depth="1" NCoef="0" IVar="2" Cut="1.4966674804687500e+03" cType="1" res="1.4307804405689240e-02" rms="4.7009679675102234e-01" purity="5.4080694913864136e-01" nType="0">
          <Node pos="l" depth="2" NCoef="0" IVar="-1" Cut="0.0000000000000000e+00" cType="1" res="5.6436355225741863e-04" rms="4.6763911843299866e-01" purity="5.6770157814025879e-01" nType="-99"/>
          <Node pos="r" depth="2" NCoef="0" IVar="-1" Cut="0.0000000000000000e+00" cType="1" res="-8.6068338714540005e-04" rms="4.7249838709831238e-01" purity="4.2367026209831238e-01" nType="-99"/>
        </Node>
        <Node pos="r" depth="1" NCoef="0" IVar="4" Cut="1.0554320068359375e+03" cType="1" res="-4.4091023504734039e-02" rms="4.7354057431221008e-01" purity="4.4794094562530518e-01" nType="0">
          <Node pos="l" depth="2" NCoef="0" IVar="-1" Cut="0.0000000000000000e+00" cType="1" res="-8.5430999752134085e-04" rms="4.7143155336380005e-01" purity="4.3091189861297607e-01" nType="-99"/>
          <Node pos="r" depth="2" NCoef="0" IVar="-1" Cut="0.0000000000000000e+00" cType="1" res="6.9922901457175612e-04" rms="4.7329863905906677e-01" purity="5.2789974212646484e-01" nType="-99"/>
        </Node>
      </Node>
    </BinaryTree>
    <BinaryTree type="DecisionTree" boostWeight="1.0000000000000000e+00" itree="671">
      <Node pos="s" depth="0" NCoef="0" IVar="0" Cut="4.5891732788085938e+02" cType="1" res="-1.7384450882673264e-02" rms="4.6780297160148621e-01" purity="4.9083164334297180e-01" nType="0">
        <Node pos="l" depth="1" NCoef="0" IVar="0" Cut="8.8122756958007812e+01" cType="1" res="-7.6019074767827988e-03" rms="4.6938848495483398e-01" purity="5.0964367389678955e-01" nType="0">
          <Node pos="l" depth="2" NCoef="0" IVar="-1" Cut="0.0000000000000000e+00" cType="1" res="-9.9792750552296638e-04" rms="4.6361586451530457e-01" purity="3.8979685306549072e-01" nType="-99"/>
          <Node pos="r" depth="2" NCoef="0" IVar="-1" Cut="0.0000000000000000e+00" cType="1" res="1.3844702334608883e-04" rms="4.6927255392074585e-01" purity="5.3788197040557861e-01" nType="-99"/>
        </Node>
        <Node pos="r" depth="1" NCoef="0" IVar="-1" Cut="0.0000000000000000e+00" cType="1" res="-1.5517636202275753e-03" rms="4.3258932232856750e-01" purity="2.7023407816886902e-01" nType="-99"/>
      </Node>
    </BinaryTree>
    <BinaryTree type="DecisionTree" boostWeight="1.0000000000000000e+00" itree="672">
      <Node pos="s" depth="0" NCoef="0" IVar="4" Cut="8.2202392578125000e+02" cType="1" res="-9.6379136666655540e-03" rms="4.6897181868553162e-01" purity="4.9941781163215637e-01" nType="0">
        <Node pos="l" depth="1" NCoef="0" IVar="2" Cut="1.1869078369140625e+03" cType="1" res="-3.4125529229640961e-02" rms="4.6518206596374512e-01" purity="4.7174382209777832e-01" nType="0">
          <Node pos="l" depth="2" NCoef="0" IVar="-1" Cut="0.0000000000000000e+00" cType="1" res="-3.1694734934717417e-04" rms="4.6722105145454407e-01" purity="4.9282202124595642e-01" nType="-99"/>
          <Node pos="r" depth="2" NCoef="0" IVar="-1" Cut="0.0000000000000000e+00" cType="1" res="-1.6493048751726747e-03" rms="4.3476077914237976e-01" purity="3.0607527494430542e-01" nType="-99"/>
        </Node>
        <Node pos="r" depth="1" NCoef="0" IVar="2" Cut="1.7037985839843750e+03" cType="1" res="3.7369623780250549e-02" rms="4.7262006998062134e-01" purity="5.5254209041595459e-01" nType="0">
          <Node pos="l" depth="2" NCoef="0" IVar="-1" Cut="0.0000000000000000e+00" cType="1" res="1.0987455025315285e-03" rms="4.6738025546073914e-01" purity="5.9650397300720215e-01" nType="-99"/>
          <Node pos="r" depth="2" NCoef="0" IVar="-1" Cut="0.0000000000000000e+00" cType="1" res="-2.1923126769252121e-04" rms="4.7916173934936523e-01" purity="4.5972740650177002e-01" nType="-99"/>
        </Node>
      </Node>
    </BinaryTree>
    <BinaryTree type="DecisionTree" boostWeight="1.0000000000000000e+00" itree="673">
      <Node pos="s" depth="0" NCoef="0" IVar="4" Cut="1.0730485839843750e+03" cType="1" res="-8.2777766510844231e-03" rms="4.6809786558151245e-01" purity="5.0108158588409424e-01" nType="0">
        <Node pos="l" depth="1" NCoef="0" IVar="2" Cut="1.0638393554687500e+03" cType="1" res="-2.0030619576573372e-02" rms="4.6682339906692505e-01" purity="4.9054947495460510e-01" nType="0">
          <Node pos="l" depth="2" NCoef="0" IVar="-1" Cut="0.0000000000000000e+00" cType="1" res="1.2539215094875544e-04" rms="4.6618935465812683e-01" purity="5.3476160764694214e-01" nType="-99"/>
          <Node pos="r" depth="2" NCoef="0" IVar="-1" Cut="0.0000000000000000e+00" cType="1" res="-9.1357884230092168e-04" rms="4.6407574415206909e-01" purity="4.1497552394866943e-01" nType="-99"/>
        </Node>
        <Node pos="r" depth="1" NCoef="0" IVar="0" Cut="2.5079254150390625e+02" cType="1" res="6.1473004519939423e-02" rms="4.6957653760910034e-01" purity="5.6358772516250610e-01" nType="0">
          <Node pos="l" depth="2" NCoef="0" IVar="-1" Cut="0.0000000000000000e+00" cType="1" res="1.9532612059265375e-03" rms="4.5800462365150452e-01" purity="6.6111057996749878e-01" nType="-99"/>
          <Node pos="r" depth="2" NCoef="0" IVar="-1" Cut="0.0000000000000000e+00" cType="1" res="2.7870948542840779e-04" rms="4.7886139154434204e-01" purity="4.5286035537719727e-01" nType="-99"/>
        </Node>
      </Node>
    </BinaryTree>
    <BinaryTree type="DecisionTree" boostWeight="1.0000000000000000e+00" itree="674">
      <Node pos="s" depth="0" NCoef="0" IVar="0" Cut="2.9038763427734375e+02" cType="1" res="-2.4726842530071735e-03" rms="4.6846830844879150e-01" purity="5.0654727220535278e-01" nType="0">
        <Node pos="l" depth="1" NCoef="0" IVar="3" Cut="8.6745482683181763e-01" cType="1" res="1.4018889516592026e-02" rms="4.6875584125518799e-01" purity="5.4357743263244629e-01" nType="0">
          <Node pos="l" depth="2" NCoef="0" IVar="-1" Cut="0.0000000000000000e+00" cType="1" res="-5.5728346342220902e-04" rms="4.7049546241760254e-01" purity="3.9524754881858826e-01" nType="-99"/>
          <Node pos="r" depth="2" NCoef="0" IVar="-1" Cut="0.0000000000000000e+00" cType="1" res="5.6754506658762693e-04" rms="4.6676990389823914e-01" purity="5.8796852827072144e-01" nType="-99"/>
        </Node>
        <Node pos="r" depth="1" NCoef="0" IVar="2" Cut="1.1130141601562500e+03" cType="1" res="-6.6378019750118256e-02" rms="4.6182298660278320e-01" purity="3.6305454373359680e-01" nType="0">
          <Node pos="l" depth="2" NCoef="0" IVar="-1" Cut="0.0000000000000000e+00" cType="1" res="2.3011793382465839e-04" rms="4.6907496452331543e-01" purity="4.5114794373512268e-01" nType="-99"/>
          <Node pos="r" depth="2" NCoef="0" IVar="-1" Cut="0.0000000000000000e+00" cType="1" res="-1.2379902182146907e-03" rms="4.5501396059989929e-01" purity="3.2877659797668457e-01" nType="-99"/>
        </Node>
      </Node>
    </BinaryTree>
    <BinaryTree type="DecisionTree" boostWeight="1.0000000000000000e+00" itree="675">
      <Node pos="s" depth="0" NCoef="0" IVar="4" Cut="4.9637332153320312e+02" cType="1" res="-4.7220480628311634e-03" rms="4.7015276551246643e-01" purity="5.0374275445938110e-01" nType="0">
        <Node pos="l" depth="1" NCoef="0" IVar="4" Cut="4.5247326660156250e+02" cType="1" res="-8.0450057983398438e-02" rms="4.7268834710121155e-01" purity="4.1407376527786255e-01" nType="0">
          <Node pos="l" depth="2" NCoef="0" IVar="-1" Cut="0.0000000000000000e+00" cType="1" res="-1.5595103614032269e-03" rms="4.6935576200485229e-01" purity="3.7926095724105835e-01" nType="-99"/>
          <Node pos="r" depth="2" NCoef="0" IVar="-1" Cut="0.0000000000000000e+00" cType="1" res="-5.1026220899075270e-04" rms="4.7210904955863953e-01" purity="4.5353156328201294e-01" nType="-99"/>
        </Node>
        <Node pos="r" depth="1" NCoef="0" IVar="2" Cut="7.0456347656250000e+02" cType="1" res="5.1167989149689674e-03" rms="4.6892553567886353e-01" purity="5.1539283990859985e-01" nType="0">
          <Node pos="l" depth="2" NCoef="0" IVar="-1" Cut="0.0000000000000000e+00" cType="1" res="3.2489879522472620e-03" rms="4.2578062415122986e-01" purity="7.3167413473129272e-01" nType="-99"/>
          <Node pos="r" depth="2" NCoef="0" IVar="-1" Cut="0.0000000000000000e+00" cType="1" res="-8.3327475294936448e-05" rms="4.7071382403373718e-01" purity="4.9771440029144287e-01" nType="-99"/>
        </Node>
      </Node>
    </BinaryTree>
    <BinaryTree type="DecisionTree" boostWeight="1.0000000000000000e+00" itree="676">
      <Node pos="s" depth="0" NCoef="0" IVar="4" Cut="8.3257269287109375e+02" cType="1" res="-6.0401996597647667e-03" rms="4.7095984220504761e-01" purity="5.0270837545394897e-01" nType="0">
        <Node pos="l" depth="1" NCoef="0" IVar="2" Cut="1.0512397460937500e+03" cType="1" res="-2.3374848067760468e-02" rms="4.6820592880249023e-01" purity="4.8051229119300842e-01" nType="0">
          <Node pos="l" depth="2" NCoef="0" IVar="-1" Cut="0.0000000000000000e+00" cType="1" res="2.1256519175949506e-05" rms="4.6976917982101440e-01" purity="5.2249842882156372e-01" nType="-99"/>
          <Node pos="r" depth="2" NCoef="0" IVar="-1" Cut="0.0000000000000000e+00" cType="1" res="-1.3337268028408289e-03" rms="4.5290565490722656e-01" purity="3.3789649605751038e-01" nType="-99"/>
        </Node>
        <Node pos="r" depth="1" NCoef="0" IVar="5" Cut="6.3507527112960815e-01" cType="1" res="2.8526253998279572e-02" rms="4.7451713681221008e-01" purity="5.4696881771087646e-01" nType="0">
          <Node pos="l" depth="2" NCoef="0" IVar="-1" Cut="0.0000000000000000e+00" cType="1" res="9.7615621052682400e-04" rms="4.7080600261688232e-01" purity="5.7426714897155762e-01" nType="-99"/>
          <Node pos="r" depth="2" NCoef="0" IVar="-1" Cut="0.0000000000000000e+00" cType="1" res="-1.6690927441231906e-04" rms="4.7718325257301331e-01" purity="5.0610315799713135e-01" nType="-99"/>
        </Node>
      </Node>
    </BinaryTree>
    <BinaryTree type="DecisionTree" boostWeight="1.0000000000000000e+00" itree="677">
      <Node pos="s" depth="0" NCoef="0" IVar="4" Cut="1.0119453735351562e+03" cType="1" res="-1.7314214259386063e-02" rms="4.6635353565216064e-01" purity="4.8865762352943420e-01" nType="0">
        <Node pos="l" depth="1" NCoef="0" IVar="2" Cut="1.2707669677734375e+03" cType="1" res="-3.3197879791259766e-02" rms="4.6359845995903015e-01" purity="4.7329920530319214e-01" nType="0">
          <Node pos="l" depth="2" NCoef="0" IVar="-1" Cut="0.0000000000000000e+00" cType="1" res="-1.5843697474338114e-04" rms="4.6235841512680054e-01" purity="5.0545042753219604e-01" nType="-99"/>
          <Node pos="r" depth="2" NCoef="0" IVar="-1" Cut="0.0000000000000000e+00" cType="1" res="-1.7196908593177795e-03" rms="4.5355513691902161e-01" purity="3.1868177652359009e-01" nType="-99"/>
        </Node>
        <Node pos="r" depth="1" NCoef="0" IVar="2" Cut="1.5152866210937500e+03" cType="1" res="5.9151254594326019e-02" rms="4.7197264432907104e-01" purity="5.6259465217590332e-01" nType="0">
          <Node pos="l" depth="2" NCoef="0" IVar="-1" Cut="0.0000000000000000e+00" cType="1" res="3.5747704096138477e-03" rms="4.3339139223098755e-01" purity="7.0882511138916016e-01" nType="-99"/>
          <Node pos="r" depth="2" NCoef="0" IVar="-1" Cut="0.0000000000000000e+00" cType="1" res="2.0314594439696521e-04" rms="4.8134833574295044e-01" purity="4.9662995338439941e-01" nType="-99"/>
        </Node>
      </Node>
    </BinaryTree>
    <BinaryTree type="DecisionTree" boostWeight="1.0000000000000000e+00" itree="678">
      <Node pos="s" depth="0" NCoef="0" IVar="2" Cut="8.1552978515625000e+02" cType="1" res="-1.3245902955532074e-02" rms="4.6978175640106201e-01" purity="4.9416550993919373e-01" nType="0">
        <Node pos="l" depth="1" NCoef="0" IVar="4" Cut="5.3058221435546875e+02" cType="1" res="3.7596046924591064e-02" rms="4.6578446030616760e-01" purity="5.7780301570892334e-01" nType="0">
          <Node pos="l" depth="2" NCoef="0" IVar="-1" Cut="0.0000000000000000e+00" cType="1" res="-3.7223400431685150e-04" rms="4.7485312819480896e-01" purity="4.9431890249252319e-01" nType="-99"/>
          <Node pos="r" depth="2" NCoef="0" IVar="-1" Cut="0.0000000000000000e+00" cType="1" res="1.8446723697707057e-03" rms="4.4959175586700439e-01" purity="6.5495413541793823e-01" nType="-99"/>
        </Node>
        <Node pos="r" depth="1" NCoef="0" IVar="4" Cut="6.4637463378906250e+02" cType="1" res="-3.1950205564498901e-02" rms="4.6986156702041626e-01" purity="4.6339604258537292e-01" nType="0">
          <Node pos="l" depth="2" NCoef="0" IVar="-1" Cut="0.0000000000000000e+00" cType="1" res="-1.5200395137071609e-03" rms="4.3448650836944580e-01" purity="2.8430989384651184e-01" nType="-99"/>
          <Node pos="r" depth="2" NCoef="0" IVar="-1" Cut="0.0000000000000000e+00" cType="1" res="-1.7031346214935184e-04" rms="4.7469088435173035e-01" purity="5.0249868631362915e-01" nType="-99"/>
        </Node>
      </Node>
    </BinaryTree>
    <BinaryTree type="DecisionTree" boostWeight="1.0000000000000000e+00" itree="679">
      <Node pos="s" depth="0" NCoef="0" IVar="0" Cut="2.3622422790527344e+02" cType="1" res="-1.3249423354864120e-02" rms="4.7092106938362122e-01" purity="4.9578550457954407e-01" nType="0">
        <Node pos="l" depth="1" NCoef="0" IVar="0" Cut="8.4371276855468750e+01" cType="1" res="6.0739004984498024e-03" rms="4.7269749641418457e-01" purity="5.4312252998352051e-01" nType="0">
          <Node pos="l" depth="2" NCoef="0" IVar="-1" Cut="0.0000000000000000e+00" cType="1" res="-7.9092662781476974e-04" rms="4.6718877553939819e-01" purity="4.0183374285697937e-01" nType="-99"/>
          <Node pos="r" depth="2" NCoef="0" IVar="-1" Cut="0.0000000000000000e+00" cType="1" res="4.2412520269863307e-04" rms="4.7256886959075928e-01" purity="5.8244049549102783e-01" nType="-99"/>
        </Node>
        <Node pos="r" depth="1" NCoef="0" IVar="4" Cut="7.3612170410156250e+02" cType="1" res="-6.0670346021652222e-02" rms="4.6312838792800903e-01" purity="3.7961676716804504e-01" nType="0">
          <Node pos="l" depth="2" NCoef="0" IVar="-1" Cut="0.0000000000000000e+00" cType="1" res="-1.4380402863025665e-03" rms="4.2368140816688538e-01" purity="2.8866121172904968e-01" nType="-99"/>
          <Node pos="r" depth="2" NCoef="0" IVar="-1" Cut="0.0000000000000000e+00" cType="1" res="-4.4091197196394205e-04" rms="4.8000359535217285e-01" purity="4.2752251029014587e-01" nType="-99"/>
        </Node>
      </Node>
    </BinaryTree>
    <BinaryTree type="DecisionTree" boostWeight="1.0000000000000000e+00" itree="680">
      <Node pos="s" depth="0" NCoef="0" IVar="2" Cut="6.0120489501953125e+02" cType="1" res="-6.0909348540008068e-03" rms="4.6945592761039734e-01" purity="5.0374698638916016e-01" nType="0">
        <Node pos="l" depth="1" NCoef="0" IVar="-1" Cut="0.0000000000000000e+00" cType="1" res="1.7457302892580628e-03" rms="4.6097731590270996e-01" purity="6.4667075872421265e-01" nType="-99"/>
        <Node pos="r" depth="1" NCoef="0" IVar="4" Cut="5.0806927490234375e+02" cType="1" res="-1.1629619635641575e-02" rms="4.6934354305267334e-01" purity="4.9548637866973877e-01" nType="0">
          <Node pos="l" depth="2" NCoef="0" IVar="-1" Cut="0.0000000000000000e+00" cType="1" res="-1.7632739618420601e-03" rms="4.2923602461814880e-01" purity="3.1386327743530273e-01" nType="-99"/>
          <Node pos="r" depth="2" NCoef="0" IVar="-1" Cut="0.0000000000000000e+00" cType="1" res="6.0544130064954516e-06" rms="4.7091904282569885e-01" purity="5.1179426908493042e-01" nType="-99"/>
        </Node>
      </Node>
    </BinaryTree>
    <BinaryTree type="DecisionTree" boostWeight="1.0000000000000000e+00" itree="681">
      <Node pos="s" depth="0" NCoef="0" IVar="1" Cut="9.9160873413085938e+01" cType="1" res="-1.7767878249287605e-02" rms="4.7023239731788635e-01" purity="4.9008750915527344e-01" nType="0">
        <Node pos="l" depth="1" NCoef="0" IVar="-1" Cut="0.0000000000000000e+00" cType="1" res="-1.2080715969204903e-03" rms="4.3718701601028442e-01" purity="2.8022691607475281e-01" nType="-99"/>
        <Node pos="r" depth="1" NCoef="0" IVar="3" Cut="8.6442720890045166e-01" cType="1" res="-1.1328958906233311e-02" rms="4.7221606969833374e-01" purity="5.0705128908157349e-01" nType="0">
          <Node pos="l" depth="2" NCoef="0" IVar="-1" Cut="0.0000000000000000e+00" cType="1" res="-7.8198179835453629e-04" rms="4.6198815107345581e-01" purity="3.6344966292381287e-01" nType="-99"/>
          <Node pos="r" depth="2" NCoef="0" IVar="-1" Cut="0.0000000000000000e+00" cType="1" res="2.1511346858460456e-05" rms="4.7377711534500122e-01" purity="5.4162669181823730e-01" nType="-99"/>
        </Node>
      </Node>
    </BinaryTree>
    <BinaryTree type="DecisionTree" boostWeight="1.0000000000000000e+00" itree="682">
      <Node pos="s" depth="0" NCoef="0" IVar="0" Cut="4.5246627807617188e+02" cType="1" res="-1.6851194202899933e-02" rms="4.6622055768966675e-01" purity="4.9089783430099487e-01" nType="0">
        <Node pos="l" depth="1" NCoef="0" IVar="0" Cut="9.3578529357910156e+01" cType="1" res="-9.5782624557614326e-03" rms="4.6797105669975281e-01" purity="5.0821077823638916e-01" nType="0">
          <Node pos="l" depth="2" NCoef="0" IVar="-1" Cut="0.0000000000000000e+00" cType="1" res="-9.9549652077257633e-04" rms="4.6504086256027222e-01" purity="3.9852985739707947e-01" nType="-99"/>
          <Node pos="r" depth="2" NCoef="0" IVar="-1" Cut="0.0000000000000000e+00" cType="1" res="1.6601147945038974e-04" rms="4.6701401472091675e-01" purity="5.4065442085266113e-01" nType="-99"/>
        </Node>
        <Node pos="r" depth="1" NCoef="0" IVar="-1" Cut="0.0000000000000000e+00" cType="1" res="-1.2489948421716690e-03" rms="4.3576863408088684e-01" purity="2.8553533554077148e-01" nType="-99"/>
      </Node>
    </BinaryTree>
    <BinaryTree type="DecisionTree" boostWeight="1.0000000000000000e+00" itree="683">
      <Node pos="s" depth="0" NCoef="0" IVar="2" Cut="6.9223754882812500e+02" cType="1" res="-1.3512829318642616e-02" rms="4.7221943736076355e-01" purity="4.9579250812530518e-01" nType="0">
        <Node pos="l" depth="1" NCoef="0" IVar="4" Cut="4.8887872314453125e+02" cType="1" res="5.1102016121149063e-02" rms="4.7352313995361328e-01" purity="6.2876063585281372e-01" nType="0">
          <Node pos="l" depth="2" NCoef="0" IVar="-1" Cut="0.0000000000000000e+00" cType="1" res="-3.3342675305902958e-04" rms="4.9430683255195618e-01" purity="5.2191543579101562e-01" nType="-99"/>
          <Node pos="r" depth="2" NCoef="0" IVar="-1" Cut="0.0000000000000000e+00" cType="1" res="3.1087195966392756e-03" rms="4.3963575363159180e-01" purity="7.3707097768783569e-01" nType="-99"/>
        </Node>
        <Node pos="r" depth="1" NCoef="0" IVar="4" Cut="5.9114715576171875e+02" cType="1" res="-2.3197446018457413e-02" rms="4.7126090526580811e-01" purity="4.7586292028427124e-01" nType="0">
          <Node pos="l" depth="2" NCoef="0" IVar="-1" Cut="0.0000000000000000e+00" cType="1" res="-1.3330735964700580e-03" rms="4.3854063749313354e-01" purity="3.2045409083366394e-01" nType="-99"/>
          <Node pos="r" depth="2" NCoef="0" IVar="-1" Cut="0.0000000000000000e+00" cType="1" res="-8.9368040789850056e-05" rms="4.7590395808219910e-01" purity="5.0811427831649780e-01" nType="-99"/>
        </Node>
      </Node>
    </BinaryTree>
    <BinaryTree type="DecisionTree" boostWeight="1.0000000000000000e+00" itree="684">
      <Node pos="s" depth="0" NCoef="0" IVar="4" Cut="6.2665521240234375e+02" cType="1" res="-2.8616450726985931e-03" rms="4.6721377968788147e-01" purity="5.0567960739135742e-01" nType="0">
        <Node pos="l" depth="1" NCoef="0" IVar="2" Cut="7.8346752929687500e+02" cType="1" res="-3.5819787532091141e-02" rms="4.6337842941284180e-01" purity="4.5861378312110901e-01" nType="0">
          <Node pos="l" depth="2" NCoef="0" IVar="-1" Cut="0.0000000000000000e+00" cType="1" res="4.4056575279682875e-04" rms="4.7415587306022644e-01" purity="5.7301115989685059e-01" nType="-99"/>
          <Node pos="r" depth="2" NCoef="0" IVar="-1" Cut="0.0000000000000000e+00" cType="1" res="-1.5766680007800460e-03" rms="4.2878827452659607e-01" purity="2.8039458394050598e-01" nType="-99"/>
        </Node>
        <Node pos="r" depth="1" NCoef="0" IVar="2" Cut="1.3770396728515625e+03" cType="1" res="1.4840931631624699e-02" rms="4.6830436587333679e-01" purity="5.3095966577529907e-01" nType="0">
          <Node pos="l" depth="2" NCoef="0" IVar="-1" Cut="0.0000000000000000e+00" cType="1" res="8.9236680651083589e-04" rms="4.6641102433204651e-01" purity="5.9632438421249390e-01" nType="-99"/>
          <Node pos="r" depth="2" NCoef="0" IVar="-1" Cut="0.0000000000000000e+00" cType="1" res="-5.9849652461707592e-04" rms="4.6518698334693909e-01" purity="4.2315620183944702e-01" nType="-99"/>
        </Node>
      </Node>
    </BinaryTree>
    <BinaryTree type="DecisionTree" boostWeight="1.0000000000000000e+00" itree="685">
      <Node pos="s" depth="0" NCoef="0" IVar="4" Cut="9.3508398437500000e+02" cType="1" res="-6.6895694471895695e-03" rms="4.7008019685745239e-01" purity="5.0384324789047241e-01" nType="0">
        <Node pos="l" depth="1" NCoef="0" IVar="2" Cut="1.2431956787109375e+03" cType="1" res="-1.9913993775844574e-02" rms="4.6860527992248535e-01" purity="4.9006587266921997e-01" nType="0">
          <Node pos="l" depth="2" NCoef="0" IVar="-1" Cut="0.0000000000000000e+00" cType="1" res="-1.3999349903315306e-05" rms="4.7048285603523254e-01" purity="5.2158069610595703e-01" nType="-99"/>
          <Node pos="r" depth="2" NCoef="0" IVar="-1" Cut="0.0000000000000000e+00" cType="1" res="-1.5269389841705561e-03" rms="4.4261309504508972e-01" purity="3.1146433949470520e-01" nType="-99"/>
        </Node>
        <Node pos="r" depth="1" NCoef="0" IVar="0" Cut="1.5979605102539062e+02" cType="1" res="3.6436762660741806e-02" rms="4.7229239344596863e-01" purity="5.4877263307571411e-01" nType="0">
          <Node pos="l" depth="2" NCoef="0" IVar="-1" Cut="0.0000000000000000e+00" cType="1" res="1.4242850011214614e-03" rms="4.6324071288108826e-01" purity="6.5842097997665405e-01" nType="-99"/>
          <Node pos="r" depth="2" NCoef="0" IVar="-1" Cut="0.0000000000000000e+00" cType="1" res="1.7328480316791683e-04" rms="4.7638303041458130e-01" purity="4.7814679145812988e-01" nType="-99"/>
        </Node>
      </Node>
    </BinaryTree>
    <BinaryTree type="DecisionTree" boostWeight="1.0000000000000000e+00" itree="686">
      <Node pos="s" depth="0" NCoef="0" IVar="4" Cut="4.9637332153320312e+02" cType="1" res="-2.0152769982814789e-02" rms="4.6810713410377502e-01" purity="4.8227596282958984e-01" nType="0">
        <Node pos="l" depth="1" NCoef="0" IVar="5" Cut="3.7628018856048584e-01" cType="1" res="-1.0630130767822266e-01" rms="4.5896726846694946e-01" purity="3.7851288914680481e-01" nType="0">
          <Node pos="l" depth="2" NCoef="0" IVar="-1" Cut="0.0000000000000000e+00" cType="1" res="-1.7863046377897263e-03" rms="4.5365774631500244e-01" purity="3.5398131608963013e-01" nType="-99"/>
          <Node pos="r" depth="2" NCoef="0" IVar="-1" Cut="0.0000000000000000e+00" cType="1" res="-1.0873269056901336e-03" rms="4.6298462152481079e-01" purity="4.0399131178855896e-01" nType="-99"/>
        </Node>
        <Node pos="r" depth="1" NCoef="0" IVar="2" Cut="1.1303378906250000e+03" cType="1" res="-8.4116635844111443e-03" rms="4.6811297535896301e-01" purity="4.9641770124435425e-01" nType="0">
          <Node pos="l" depth="2" NCoef="0" IVar="-1" Cut="0.0000000000000000e+00" cType="1" res="4.4897521729581058e-04" rms="4.6526592969894409e-01" purity="5.5268603563308716e-01" nType="-99"/>
          <Node pos="r" depth="2" NCoef="0" IVar="-1" Cut="0.0000000000000000e+00" cType="1" res="-6.7022151779383421e-04" rms="4.6808594465255737e-01" purity="4.3400725722312927e-01" nType="-99"/>
        </Node>
      </Node>
    </BinaryTree>
    <BinaryTree type="DecisionTree" boostWeight="1.0000000000000000e+00" itree="687">
      <Node pos="s" depth="0" NCoef="0" IVar="0" Cut="4.5246627807617188e+02" cType="1" res="-8.5243601351976395e-03" rms="4.6625536680221558e-01" purity="4.9947249889373779e-01" nType="0">
        <Node pos="l" depth="1" NCoef="0" IVar="0" Cut="1.6718966674804688e+02" cType="1" res="-3.6784331314265728e-04" rms="4.6663135290145874e-01" purity="5.1756536960601807e-01" nType="0">
          <Node pos="l" depth="2" NCoef="0" IVar="-1" Cut="0.0000000000000000e+00" cType="1" res="3.8939673686400056e-04" rms="4.6283328533172607e-01" purity="5.6831723451614380e-01" nType="-99"/>
          <Node pos="r" depth="2" NCoef="0" IVar="-1" Cut="0.0000000000000000e+00" cType="1" res="-4.7853699652478099e-04" rms="4.7001218795776367e-01" purity="4.4387820363044739e-01" nType="-99"/>
        </Node>
        <Node pos="r" depth="1" NCoef="0" IVar="-1" Cut="0.0000000000000000e+00" cType="1" res="-1.2329930905252695e-03" rms="4.5239529013633728e-01" purity="2.9956039786338806e-01" nType="-99"/>
      </Node>
    </BinaryTree>
    <BinaryTree type="DecisionTree" boostWeight="1.0000000000000000e+00" itree="688">
      <Node pos="s" depth="0" NCoef="0" IVar="3" Cut="8.6759203672409058e-01" cType="1" res="-1.5271684387698770e-03" rms="4.6723139286041260e-01" purity="5.0563591718673706e-01" nType="0">
        <Node pos="l" depth="1" NCoef="0" IVar="4" Cut="6.7547991943359375e+02" cType="1" res="-5.3430110216140747e-02" rms="4.6433240175247192e-01" purity="3.6721542477607727e-01" nType="0">
          <Node pos="l" depth="2" NCoef="0" IVar="-1" Cut="0.0000000000000000e+00" cType="1" res="-1.0371780954301357e-03" rms="4.4851678609848022e-01" purity="3.1298887729644775e-01" nType="-99"/>
          <Node pos="r" depth="2" NCoef="0" IVar="-1" Cut="0.0000000000000000e+00" cType="1" res="-2.5510622072033584e-04" rms="4.7542157769203186e-01" purity="4.1576710343360901e-01" nType="-99"/>
        </Node>
        <Node pos="r" depth="1" NCoef="0" IVar="2" Cut="9.9543865966796875e+02" cType="1" res="1.5512206591665745e-02" rms="4.6692290902137756e-01" purity="5.5107843875885010e-01" nType="0">
          <Node pos="l" depth="2" NCoef="0" IVar="-1" Cut="0.0000000000000000e+00" cType="1" res="9.6025870880112052e-04" rms="4.6664911508560181e-01" purity="6.1754721403121948e-01" nType="-99"/>
          <Node pos="r" depth="2" NCoef="0" IVar="-1" Cut="0.0000000000000000e+00" cType="1" res="-2.4583347840234637e-04" rms="4.6486887335777283e-01" purity="4.9351578950881958e-01" nType="-99"/>
        </Node>
      </Node>
    </BinaryTree>
    <BinaryTree type="DecisionTree" boostWeight="1.0000000000000000e+00" itree="689">
      <Node pos="s" depth="0" NCoef="0" IVar="2" Cut="7.0959259033203125e+02" cType="1" res="-1.0926971212029457e-02" rms="4.6813240647315979e-01" purity="4.9823740124702454e-01" nType="0">
        <Node pos="l" depth="1" NCoef="0" IVar="4" Cut="4.8474645996093750e+02" cType="1" res="5.9978008270263672e-02" rms="4.5748981833457947e-01" purity="6.2806266546249390e-01" nType="0">
          <Node pos="l" depth="2" NCoef="0" IVar="-1" Cut="0.0000000000000000e+00" cType="1" res="-4.8150377551792189e-05" rms="4.8229888081550598e-01" purity="5.2541649341583252e-01" nType="-99"/>
          <Node pos="r" depth="2" NCoef="0" IVar="-1" Cut="0.0000000000000000e+00" cType="1" res="2.7010482735931873e-03" rms="4.2803436517715454e-01" purity="7.1529036760330200e-01" nType="-99"/>
        </Node>
        <Node pos="r" depth="1" NCoef="0" IVar="4" Cut="7.1112170410156250e+02" cType="1" res="-2.3461218923330307e-02" rms="4.6887472271919250e-01" purity="4.7528749704360962e-01" nType="0">
          <Node pos="l" depth="2" NCoef="0" IVar="-1" Cut="0.0000000000000000e+00" cType="1" res="-9.9851435516029596e-04" rms="4.5824709534645081e-01" purity="3.9212104678153992e-01" nType="-99"/>
          <Node pos="r" depth="2" NCoef="0" IVar="-1" Cut="0.0000000000000000e+00" cType="1" res="1.8262493540532887e-04" rms="4.7276684641838074e-01" purity="5.3155136108398438e-01" nType="-99"/>
        </Node>
      </Node>
    </BinaryTree>
    <BinaryTree type="DecisionTree" boostWeight="1.0000000000000000e+00" itree="690">
      <Node pos="s" depth="0" NCoef="0" IVar="4" Cut="1.3397037353515625e+03" cType="1" res="2.3203105665743351e-03" rms="4.6570587158203125e-01" purity="5.0828921794891357e-01" nType="0">
        <Node pos="l" depth="1" NCoef="0" IVar="2" Cut="1.5026690673828125e+03" cType="1" res="-4.1622291319072247e-03" rms="4.6503207087516785e-01" purity="5.0283896923065186e-01" nType="0">
          <Node pos="l" depth="2" NCoef="0" IVar="-1" Cut="0.0000000000000000e+00" cType="1" res="1.6509457782376558e-04" rms="4.6326842904090881e-01" purity="5.2200281620025635e-01" nType="-99"/>
          <Node pos="r" depth="2" NCoef="0" IVar="-1" Cut="0.0000000000000000e+00" cType="1" res="-1.3077573385089636e-03" rms="4.6496850252151489e-01" purity="3.7152776122093201e-01" nType="-99"/>
        </Node>
        <Node pos="r" depth="1" NCoef="0" IVar="-1" Cut="0.0000000000000000e+00" cType="1" res="2.1486466284841299e-03" rms="4.6264374256134033e-01" purity="6.0496056079864502e-01" nType="-99"/>
      </Node>
    </BinaryTree>
    <BinaryTree type="DecisionTree" boostWeight="1.0000000000000000e+00" itree="691">
      <Node pos="s" depth="0" NCoef="0" IVar="2" Cut="1.3070635986328125e+03" cType="1" res="1.8095573177561164e-03" rms="4.6673157811164856e-01" purity="5.1011490821838379e-01" nType="0">
        <Node pos="l" depth="1" NCoef="0" IVar="4" Cut="5.9404632568359375e+02" cType="1" res="2.3066600784659386e-02" rms="4.6421644091606140e-01" purity="5.4285937547683716e-01" nType="0">
          <Node pos="l" depth="2" NCoef="0" IVar="-1" Cut="0.0000000000000000e+00" cType="1" res="-5.7150213979184628e-04" rms="4.6139687299728394e-01" purity="4.5499265193939209e-01" nType="-99"/>
          <Node pos="r" depth="2" NCoef="0" IVar="-1" Cut="0.0000000000000000e+00" cType="1" res="1.1619846336543560e-03" rms="4.6139872074127197e-01" purity="6.0191214084625244e-01" nType="-99"/>
        </Node>
        <Node pos="r" depth="1" NCoef="0" IVar="4" Cut="9.4750048828125000e+02" cType="1" res="-5.2895966917276382e-02" rms="4.6873080730438232e-01" purity="4.2584609985351562e-01" nType="0">
          <Node pos="l" depth="2" NCoef="0" IVar="-1" Cut="0.0000000000000000e+00" cType="1" res="-1.5889434143900871e-03" rms="4.3877783417701721e-01" purity="3.0903187394142151e-01" nType="-99"/>
          <Node pos="r" depth="2" NCoef="0" IVar="-1" Cut="0.0000000000000000e+00" cType="1" res="-2.6089930906891823e-04" rms="4.7747406363487244e-01" purity="4.7790527343750000e-01" nType="-99"/>
        </Node>
      </Node>
    </BinaryTree>
    <BinaryTree type="DecisionTree" boostWeight="1.0000000000000000e+00" itree="692">
      <Node pos="s" depth="0" NCoef="0" IVar="0" Cut="6.8099517822265625e+01" cType="1" res="-2.5556458160281181e-02" rms="4.6744987368583679e-01" purity="4.8070996999740601e-01" nType="0">
        <Node pos="l" depth="1" NCoef="0" IVar="-1" Cut="0.0000000000000000e+00" cType="1" res="-1.3352847890928388e-03" rms="4.4794502854347229e-01" purity="3.1895959377288818e-01" nType="-99"/>
        <Node pos="r" depth="1" NCoef="0" IVar="0" Cut="3.7273083496093750e+02" cType="1" res="-1.5954632312059402e-02" rms="4.6874254941940308e-01" purity="4.9964407086372375e-01" nType="0">
          <Node pos="l" depth="2" NCoef="0" IVar="-1" Cut="0.0000000000000000e+00" cType="1" res="-7.9011872003320605e-05" rms="4.7122350335121155e-01" purity="5.2823680639266968e-01" nType="-99"/>
          <Node pos="r" depth="2" NCoef="0" IVar="-1" Cut="0.0000000000000000e+00" cType="1" res="-1.0169531451538205e-03" rms="4.4663330912590027e-01" purity="3.1940445303916931e-01" nType="-99"/>
        </Node>
      </Node>
    </BinaryTree>
    <BinaryTree type="DecisionTree" boostWeight="1.0000000000000000e+00" itree="693">
      <Node pos="s" depth="0" NCoef="0" IVar="0" Cut="6.4517669677734375e+01" cType="1" res="-1.5013788826763630e-02" rms="4.6569681167602539e-01" purity="4.8991543054580688e-01" nType="0">
        <Node pos="l" depth="1" NCoef="0" IVar="-1" Cut="0.0000000000000000e+00" cType="1" res="-1.1007393477484584e-03" rms="4.4266745448112488e-01" purity="3.2465392351150513e-01" nType="-99"/>
        <Node pos="r" depth="1" NCoef="0" IVar="0" Cut="1.9546446228027344e+02" cType="1" res="-7.9074427485466003e-03" rms="4.6714007854461670e-01" purity="5.0524991750717163e-01" nType="0">
          <Node pos="l" depth="2" NCoef="0" IVar="-1" Cut="0.0000000000000000e+00" cType="1" res="2.5958858896046877e-04" rms="4.6838173270225525e-01" purity="5.7226848602294922e-01" nType="-99"/>
          <Node pos="r" depth="2" NCoef="0" IVar="-1" Cut="0.0000000000000000e+00" cType="1" res="-5.8223371161147952e-04" rms="4.6297553181648254e-01" purity="4.0235796570777893e-01" nType="-99"/>
        </Node>
      </Node>
    </BinaryTree>
    <BinaryTree type="DecisionTree" boostWeight="1.0000000000000000e+00" itree="694">
      <Node pos="s" depth="0" NCoef="0" IVar="0" Cut="6.8411994934082031e+01" cType="1" res="-1.4356430619955063e-02" rms="4.6697393059730530e-01" purity="4.8954749107360840e-01" nType="0">
        <Node pos="l" depth="1" NCoef="0" IVar="-1" Cut="0.0000000000000000e+00" cType="1" res="-1.4370103599503636e-03" rms="4.3932700157165527e-01" purity="3.0359190702438354e-01" nType="-99"/>
        <Node pos="r" depth="1" NCoef="0" IVar="2" Cut="1.7182647705078125e+03" cType="1" res="-1.5882271109148860e-03" rms="4.6855565905570984e-01" purity="5.1183438301086426e-01" nType="0">
          <Node pos="l" depth="2" NCoef="0" IVar="-1" Cut="0.0000000000000000e+00" cType="1" res="1.7576329992152750e-04" rms="4.6753638982772827e-01" purity="5.3152227401733398e-01" nType="-99"/>
          <Node pos="r" depth="2" NCoef="0" IVar="-1" Cut="0.0000000000000000e+00" cType="1" res="-1.0849431855604053e-03" rms="4.6687939763069153e-01" purity="3.8184186816215515e-01" nType="-99"/>
        </Node>
      </Node>
    </BinaryTree>
    <BinaryTree type="DecisionTree" boostWeight="1.0000000000000000e+00" itree="695">
      <Node pos="s" depth="0" NCoef="0" IVar="0" Cut="8.9931587219238281e+01" cType="1" res="-1.4286629855632782e-02" rms="4.6886840462684631e-01" purity="4.9662205576896667e-01" nType="0">
        <Node pos="l" depth="1" NCoef="0" IVar="5" Cut="6.1863714456558228e-01" cType="1" res="-8.2171075046062469e-02" rms="4.6280300617218018e-01" purity="3.8403591513633728e-01" nType="0">
          <Node pos="l" depth="2" NCoef="0" IVar="-1" Cut="0.0000000000000000e+00" cType="1" res="-1.4192755334079266e-03" rms="4.5395210385322571e-01" purity="3.4610122442245483e-01" nType="-99"/>
          <Node pos="r" depth="2" NCoef="0" IVar="-1" Cut="0.0000000000000000e+00" cType="1" res="1.3011877308599651e-04" rms="4.7319468855857849e-01" purity="4.8314651846885681e-01" nType="-99"/>
        </Node>
        <Node pos="r" depth="1" NCoef="0" IVar="2" Cut="1.4333946533203125e+03" cType="1" res="1.9771663937717676e-03" rms="4.6885269880294800e-01" purity="5.2359551191329956e-01" nType="0">
          <Node pos="l" depth="2" NCoef="0" IVar="-1" Cut="0.0000000000000000e+00" cType="1" res="3.3276414615102112e-04" rms="4.6714356541633606e-01" purity="5.5603706836700439e-01" nType="-99"/>
          <Node pos="r" depth="2" NCoef="0" IVar="-1" Cut="0.0000000000000000e+00" cType="1" res="-7.3736131889745593e-04" rms="4.6973082423210144e-01" purity="4.2159220576286316e-01" nType="-99"/>
        </Node>
      </Node>
    </BinaryTree>
    <BinaryTree type="DecisionTree" boostWeight="1.0000000000000000e+00" itree="696">
      <Node pos="s" depth="0" NCoef="0" IVar="4" Cut="7.0270977783203125e+02" cType="1" res="-1.0812912136316299e-02" rms="4.6997004747390747e-01" purity="4.9737671017646790e-01" nType="0">
        <Node pos="l" depth="1" NCoef="0" IVar="2" Cut="8.6923529052734375e+02" cType="1" res="-4.4427324086427689e-02" rms="4.6641734242439270e-01" purity="4.5198559761047363e-01" nType="0">
          <Node pos="l" depth="2" NCoef="0" IVar="-1" Cut="0.0000000000000000e+00" cType="1" res="-2.0263565238565207e-04" rms="4.7190433740615845e-01" purity="5.1454305648803711e-01" nType="-99"/>
          <Node pos="r" depth="2" NCoef="0" IVar="-1" Cut="0.0000000000000000e+00" cType="1" res="-1.3387909857556224e-03" rms="4.4758921861648560e-01" purity="3.2133111357688904e-01" nType="-99"/>
        </Node>
        <Node pos="r" depth="1" NCoef="0" IVar="2" Cut="9.9174072265625000e+02" cType="1" res="2.2063177078962326e-02" rms="4.7110459208488464e-01" purity="5.4177087545394897e-01" nType="0">
          <Node pos="l" depth="2" NCoef="0" IVar="-1" Cut="0.0000000000000000e+00" cType="1" res="3.3145744819194078e-03" rms="4.3410399556159973e-01" purity="7.3492270708084106e-01" nType="-99"/>
          <Node pos="r" depth="2" NCoef="0" IVar="-1" Cut="0.0000000000000000e+00" cType="1" res="1.5364110367954709e-05" rms="4.7420489788055420e-01" purity="5.0775641202926636e-01" nType="-99"/>
        </Node>
      </Node>
    </BinaryTree>
    <BinaryTree type="DecisionTree" boostWeight="1.0000000000000000e+00" itree="697">
      <Node pos="s" depth="0" NCoef="0" IVar="4" Cut="9.5130975341796875e+02" cType="1" res="-4.3319980613887310e-03" rms="4.6851319074630737e-01" purity="5.0052505731582642e-01" nType="0">
        <Node pos="l" depth="1" NCoef="0" IVar="5" Cut="8.2475006580352783e-01" cType="1" res="-2.3002374917268753e-02" rms="4.6761107444763184e-01" purity="4.8038709163665771e-01" nType="0">
          <Node pos="l" depth="2" NCoef="0" IVar="-1" Cut="0.0000000000000000e+00" cType="1" res="-4.7260336577892303e-04" rms="4.6759513020515442e-01" purity="4.6578934788703918e-01" nType="-99"/>
          <Node pos="r" depth="2" NCoef="0" IVar="-1" Cut="0.0000000000000000e+00" cType="1" res="1.4070398174226284e-03" rms="4.5684796571731567e-01" purity="6.3438981771469116e-01" nType="-99"/>
        </Node>
        <Node pos="r" depth="1" NCoef="0" IVar="2" Cut="1.9953933105468750e+03" cType="1" res="6.4035303890705109e-02" rms="4.6545296907424927e-01" purity="5.7426649332046509e-01" nType="0">
          <Node pos="l" depth="2" NCoef="0" IVar="-1" Cut="0.0000000000000000e+00" cType="1" res="1.8434308003634214e-03" rms="4.5732912421226501e-01" purity="6.2514102458953857e-01" nType="-99"/>
          <Node pos="r" depth="2" NCoef="0" IVar="-1" Cut="0.0000000000000000e+00" cType="1" res="-4.1154344216920435e-04" rms="4.7374355792999268e-01" purity="4.3726623058319092e-01" nType="-99"/>
        </Node>
      </Node>
    </BinaryTree>
    <BinaryTree type="DecisionTree" boostWeight="1.0000000000000000e+00" itree="698">
      <Node pos="s" depth="0" NCoef="0" IVar="4" Cut="1.2130299072265625e+03" cType="1" res="8.9615443721413612e-03" rms="4.6706205606460571e-01" purity="5.1616930961608887e-01" nType="0">
        <Node pos="l" depth="1" NCoef="0" IVar="2" Cut="9.0419604492187500e+02" cType="1" res="-8.9114895672537386e-05" rms="4.6674790978431702e-01" purity="5.0894433259963989e-01" nType="0">
          <Node pos="l" depth="2" NCoef="0" IVar="-1" Cut="0.0000000000000000e+00" cType="1" res="8.4589887410402298e-04" rms="4.6295654773712158e-01" purity="5.8086007833480835e-01" nType="-99"/>
          <Node pos="r" depth="2" NCoef="0" IVar="-1" Cut="0.0000000000000000e+00" cType="1" res="-4.8342146328650415e-04" rms="4.6643528342247009e-01" purity="4.6015623211860657e-01" nType="-99"/>
        </Node>
        <Node pos="r" depth="1" NCoef="0" IVar="-1" Cut="0.0000000000000000e+00" cType="1" res="1.9428863888606429e-03" rms="4.5841056108474731e-01" purity="5.9752988815307617e-01" nType="-99"/>
      </Node>
    </BinaryTree>
    <BinaryTree type="DecisionTree" boostWeight="1.0000000000000000e+00" itree="699">
      <Node pos="s" depth="0" NCoef="0" IVar="3" Cut="8.7394827604293823e-01" cType="1" res="-2.4191012606024742e-02" rms="4.6719208359718323e-01" purity="4.8324081301689148e-01" nType="0">
        <Node pos="l" depth="1" NCoef="0" IVar="5" Cut="4.4221073389053345e-01" cType="1" res="-6.4484320580959320e-02" rms="4.6162751317024231e-01" purity="3.6355656385421753e-01" nType="0">
          <Node pos="l" depth="2" NCoef="0" IVar="-1" Cut="0.0000000000000000e+00" cType="1" res="-1.2761396355926991e-03" rms="4.4691714644432068e-01" purity="3.1565719842910767e-01" nType="-99"/>
          <Node pos="r" depth="2" NCoef="0" IVar="-1" Cut="0.0000000000000000e+00" cType="1" res="-1.7210567602887750e-04" rms="4.7432559728622437e-01" purity="4.2302832007408142e-01" nType="-99"/>
        </Node>
        <Node pos="r" depth="1" NCoef="0" IVar="2" Cut="9.0521087646484375e+02" cType="1" res="-5.9305201284587383e-03" rms="4.6855258941650391e-01" purity="5.3748047351837158e-01" nType="0">
          <Node pos="l" depth="2" NCoef="0" IVar="-1" Cut="0.0000000000000000e+00" cType="1" res="8.2079751882702112e-04" rms="4.6327623724937439e-01" purity="6.1979305744171143e-01" nType="-99"/>
          <Node pos="r" depth="2" NCoef="0" IVar="-1" Cut="0.0000000000000000e+00" cType="1" res="-5.3800770547240973e-04" rms="4.6924662590026855e-01" purity="4.8957031965255737e-01" nType="-99"/>
        </Node>
      </Node>
    </BinaryTree>
    <BinaryTree type="DecisionTree" boostWeight="1.0000000000000000e+00" itree="700">
      <Node pos="s" depth="0" NCoef="0" IVar="0" Cut="2.0200447082519531e+02" cType="1" res="-2.5696743279695511e-02" rms="4.6703395247459412e-01" purity="4.8028784990310669e-01" nType="0">
        <Node pos="l" depth="1" NCoef="0" IVar="2" Cut="1.0244472656250000e+03" cType="1" res="-6.9236767012625933e-04" rms="4.6908777952194214e-01" purity="5.3881269693374634e-01" nType="0">
          <Node pos="l" depth="2" NCoef="0" IVar="-1" Cut="0.0000000000000000e+00" cType="1" res="5.1127996994182467e-04" rms="4.6281042695045471e-01" purity="5.7427990436553955e-01" nType="-99"/>
          <Node pos="r" depth="2" NCoef="0" IVar="-1" Cut="0.0000000000000000e+00" cType="1" res="-6.6130305640399456e-04" rms="4.7469869256019592e-01" purity="4.8703140020370483e-01" nType="-99"/>
        </Node>
        <Node pos="r" depth="1" NCoef="0" IVar="4" Cut="7.6358685302734375e+02" cType="1" res="-7.2177596390247345e-02" rms="4.5959118008613586e-01" purity="3.7149554491043091e-01" nType="0">
          <Node pos="l" depth="2" NCoef="0" IVar="-1" Cut="0.0000000000000000e+00" cType="1" res="-1.5689238207414746e-03" rms="4.3146514892578125e-01" purity="2.9710710048675537e-01" nType="-99"/>
          <Node pos="r" depth="2" NCoef="0" IVar="-1" Cut="0.0000000000000000e+00" cType="1" res="-4.2099281563423574e-04" rms="4.7550985217094421e-01" purity="4.2771992087364197e-01" nType="-99"/>
        </Node>
      </Node>
    </BinaryTree>
    <BinaryTree type="DecisionTree" boostWeight="1.0000000000000000e+00" itree="701">
      <Node pos="s" depth="0" NCoef="0" IVar="1" Cut="1.0922996520996094e+02" cType="1" res="-5.2246381528675556e-03" rms="4.6947926282882690e-01" purity="5.0266039371490479e-01" nType="0">
        <Node pos="l" depth="1" NCoef="0" IVar="2" Cut="1.1132412109375000e+03" cType="1" res="-6.6358298063278198e-02" rms="4.4929882884025574e-01" purity="3.7164422869682312e-01" nType="0">
          <Node pos="l" depth="2" NCoef="0" IVar="-1" Cut="0.0000000000000000e+00" cType="1" res="-3.3921826980076730e-04" rms="4.5560902357101440e-01" purity="4.3510201573371887e-01" nType="-99"/>
          <Node pos="r" depth="2" NCoef="0" IVar="-1" Cut="0.0000000000000000e+00" cType="1" res="-1.3164636911824346e-03" rms="4.3819731473922729e-01" purity="3.0583426356315613e-01" nType="-99"/>
        </Node>
        <Node pos="r" depth="1" NCoef="0" IVar="2" Cut="6.1725921630859375e+02" cType="1" res="5.5864518508315086e-03" rms="4.7213545441627502e-01" purity="5.2582973241806030e-01" nType="0">
          <Node pos="l" depth="2" NCoef="0" IVar="-1" Cut="0.0000000000000000e+00" cType="1" res="1.7481746617704630e-03" rms="4.7161638736724854e-01" purity="6.6437053680419922e-01" nType="-99"/>
          <Node pos="r" depth="2" NCoef="0" IVar="-1" Cut="0.0000000000000000e+00" cType="1" res="-1.3075720744382124e-05" rms="4.7156897187232971e-01" purity="5.1506352424621582e-01" nType="-99"/>
        </Node>
      </Node>
    </BinaryTree>
    <BinaryTree type="DecisionTree" boostWeight="1.0000000000000000e+00" itree="702">
      <Node pos="s" depth="0" NCoef="0" IVar="2" Cut="1.4683067626953125e+03" cType="1" res="-2.2607091814279556e-02" rms="4.7258764505386353e-01" purity="4.8921340703964233e-01" nType="0">
        <Node pos="l" depth="1" NCoef="0" IVar="4" Cut="9.7286730957031250e+02" cType="1" res="-8.4536811336874962e-03" rms="4.7253623604774475e-01" purity="5.1271021366119385e-01" nType="0">
          <Node pos="l" depth="2" NCoef="0" IVar="-1" Cut="0.0000000000000000e+00" cType="1" res="-3.1437660800293088e-04" rms="4.7239384055137634e-01" purity="4.9654969573020935e-01" nType="-99"/>
          <Node pos="r" depth="2" NCoef="0" IVar="-1" Cut="0.0000000000000000e+00" cType="1" res="3.0189703684300184e-03" rms="4.4913271069526672e-01" purity="7.0798581838607788e-01" nType="-99"/>
        </Node>
        <Node pos="r" depth="1" NCoef="0" IVar="4" Cut="1.2484316406250000e+03" cType="1" res="-7.9119034111499786e-02" rms="4.6855053305625916e-01" purity="3.9539492130279541e-01" nType="0">
          <Node pos="l" depth="2" NCoef="0" IVar="-1" Cut="0.0000000000000000e+00" cType="1" res="-1.4121436979621649e-03" rms="4.5632353425025940e-01" purity="3.4866067767143250e-01" nType="-99"/>
          <Node pos="r" depth="2" NCoef="0" IVar="-1" Cut="0.0000000000000000e+00" cType="1" res="-4.0393532253801823e-04" rms="4.8195403814315796e-01" purity="4.6568462252616882e-01" nType="-99"/>
        </Node>
      </Node>
    </BinaryTree>
    <BinaryTree type="DecisionTree" boostWeight="1.0000000000000000e+00" itree="703">
      <Node pos="s" depth="0" NCoef="0" IVar="0" Cut="9.3435569763183594e+01" cType="1" res="-6.0570500791072845e-03" rms="4.7002789378166199e-01" purity="5.0097811222076416e-01" nType="0">
        <Node pos="l" depth="1" NCoef="0" IVar="2" Cut="8.3243597412109375e+02" cType="1" res="-5.6523308157920837e-02" rms="4.6503645181655884e-01" purity="4.1346082091331482e-01" nType="0">
          <Node pos="l" depth="2" NCoef="0" IVar="-1" Cut="0.0000000000000000e+00" cType="1" res="-1.2505667109508067e-04" rms="4.7010052204132080e-01" purity="4.7546660900115967e-01" nType="-99"/>
          <Node pos="r" depth="2" NCoef="0" IVar="-1" Cut="0.0000000000000000e+00" cType="1" res="-1.1805609101429582e-03" rms="4.5818561315536499e-01" purity="3.6840918660163879e-01" nType="-99"/>
        </Node>
        <Node pos="r" depth="1" NCoef="0" IVar="0" Cut="1.9369323730468750e+02" cType="1" res="7.2168223559856415e-03" rms="4.7043359279632568e-01" purity="5.2399724721908569e-01" nType="0">
          <Node pos="l" depth="2" NCoef="0" IVar="-1" Cut="0.0000000000000000e+00" cType="1" res="5.7863967958837748e-04" rms="4.6933379769325256e-01" purity="6.0368776321411133e-01" nType="-99"/>
          <Node pos="r" depth="2" NCoef="0" IVar="-1" Cut="0.0000000000000000e+00" cType="1" res="-3.2349990215152502e-04" rms="4.6997341513633728e-01" purity="4.2981147766113281e-01" nType="-99"/>
        </Node>
      </Node>
    </BinaryTree>
    <BinaryTree type="DecisionTree" boostWeight="1.0000000000000000e+00" itree="704">
      <Node pos="s" depth="0" NCoef="0" IVar="2" Cut="6.9852978515625000e+02" cType="1" res="-2.0772254094481468e-02" rms="4.6497693657875061e-01" purity="4.8166626691818237e-01" nType="0">
        <Node pos="l" depth="1" NCoef="0" IVar="1" Cut="1.1983850860595703e+02" cType="1" res="6.0876738280057907e-02" rms="4.6579343080520630e-01" purity="6.3452011346817017e-01" nType="0">
          <Node pos="l" depth="2" NCoef="0" IVar="-1" Cut="0.0000000000000000e+00" cType="1" res="-4.6482202014885843e-04" rms="4.8464435338973999e-01" purity="5.3167861700057983e-01" nType="-99"/>
          <Node pos="r" depth="2" NCoef="0" IVar="-1" Cut="0.0000000000000000e+00" cType="1" res="2.8483464848250151e-03" rms="4.4007781147956848e-01" purity="7.1009516716003418e-01" nType="-99"/>
        </Node>
        <Node pos="r" depth="1" NCoef="0" IVar="4" Cut="5.9234014892578125e+02" cType="1" res="-3.3072080463171005e-02" rms="4.6360924839973450e-01" purity="4.5863994956016541e-01" nType="0">
          <Node pos="l" depth="2" NCoef="0" IVar="-1" Cut="0.0000000000000000e+00" cType="1" res="-1.6274034278467298e-03" rms="4.1995617747306824e-01" purity="2.8026661276817322e-01" nType="-99"/>
          <Node pos="r" depth="2" NCoef="0" IVar="-1" Cut="0.0000000000000000e+00" cType="1" res="-1.3584404950961471e-04" rms="4.6991419792175293e-01" purity="5.0019961595535278e-01" nType="-99"/>
        </Node>
      </Node>
    </BinaryTree>
    <BinaryTree type="DecisionTree" boostWeight="1.0000000000000000e+00" itree="705">
      <Node pos="s" depth="0" NCoef="0" IVar="5" Cut="4.1178455948829651e-01" cType="1" res="-1.7562400549650192e-02" rms="4.6756839752197266e-01" purity="4.8846673965454102e-01" nType="0">
        <Node pos="l" depth="1" NCoef="0" IVar="0" Cut="8.0126220703125000e+01" cType="1" res="-5.3359601646661758e-02" rms="4.6697744727134705e-01" purity="4.4527211785316467e-01" nType="0">
          <Node pos="l" depth="2" NCoef="0" IVar="-1" Cut="0.0000000000000000e+00" cType="1" res="-1.4015048509463668e-03" rms="4.5127987861633301e-01" purity="3.3737251162528992e-01" nType="-99"/>
          <Node pos="r" depth="2" NCoef="0" IVar="-1" Cut="0.0000000000000000e+00" cType="1" res="-6.5486854873597622e-04" rms="4.6922925114631653e-01" purity="4.6608084440231323e-01" nType="-99"/>
        </Node>
        <Node pos="r" depth="1" NCoef="0" IVar="0" Cut="1.4158517456054688e+02" cType="1" res="1.1718500405550003e-02" rms="4.6601119637489319e-01" purity="5.2379858493804932e-01" nType="0">
          <Node pos="l" depth="2" NCoef="0" IVar="-1" Cut="0.0000000000000000e+00" cType="1" res="1.0634044883772731e-03" rms="4.5820173621177673e-01" purity="6.0959208011627197e-01" nType="-99"/>
          <Node pos="r" depth="2" NCoef="0" IVar="-1" Cut="0.0000000000000000e+00" cType="1" res="-3.7653342587873340e-04" rms="4.6851578354835510e-01" purity="4.5442393422126770e-01" nType="-99"/>
        </Node>
      </Node>
    </BinaryTree>
    <BinaryTree type="DecisionTree" boostWeight="1.0000000000000000e+00" itree="706">
      <Node pos="s" depth="0" NCoef="0" IVar="0" Cut="6.7829383850097656e+01" cType="1" res="-3.8611999480053782e-04" rms="4.6891611814498901e-01" purity="5.0876700878143311e-01" nType="0">
        <Node pos="l" depth="1" NCoef="0" IVar="-1" Cut="0.0000000000000000e+00" cType="1" res="-1.1873139301314950e-03" rms="4.5876857638359070e-01" purity="3.4218364953994751e-01" nType="-99"/>
        <Node pos="r" depth="1" NCoef="0" IVar="0" Cut="1.9839872741699219e+02" cType="1" res="9.6406480297446251e-03" rms="4.6889197826385498e-01" purity="5.2668505907058716e-01" nType="0">
          <Node pos="l" depth="2" NCoef="0" IVar="-1" Cut="0.0000000000000000e+00" cType="1" res="6.5471633570268750e-04" rms="4.6619492769241333e-01" purity="5.9819358587265015e-01" nType="-99"/>
          <Node pos="r" depth="2" NCoef="0" IVar="-1" Cut="0.0000000000000000e+00" cType="1" res="-4.6803441364318132e-04" rms="4.6986415982246399e-01" purity="4.1379424929618835e-01" nType="-99"/>
        </Node>
      </Node>
    </BinaryTree>
    <BinaryTree type="DecisionTree" boostWeight="1.0000000000000000e+00" itree="707">
      <Node pos="s" depth="0" NCoef="0" IVar="4" Cut="4.9637332153320312e+02" cType="1" res="1.0987743735313416e-02" rms="4.6995490789413452e-01" purity="5.2163517475128174e-01" nType="0">
        <Node pos="l" depth="1" NCoef="0" IVar="-1" Cut="0.0000000000000000e+00" cType="1" res="-8.3215814083814621e-04" rms="4.6313160657882690e-01" purity="4.2877468466758728e-01" nType="-99"/>
        <Node pos="r" depth="1" NCoef="0" IVar="2" Cut="1.5743270263671875e+03" cType="1" res="2.0001916214823723e-02" rms="4.7005942463874817e-01" purity="5.3351622819900513e-01" nType="0">
          <Node pos="l" depth="2" NCoef="0" IVar="-1" Cut="0.0000000000000000e+00" cType="1" res="5.3021172061562538e-04" rms="4.6817913651466370e-01" purity="5.5353808403015137e-01" nType="-99"/>
          <Node pos="r" depth="2" NCoef="0" IVar="-1" Cut="0.0000000000000000e+00" cType="1" res="-4.8374352627433836e-04" rms="4.7498083114624023e-01" purity="4.4011691212654114e-01" nType="-99"/>
        </Node>
      </Node>
    </BinaryTree>
    <BinaryTree type="DecisionTree" boostWeight="1.0000000000000000e+00" itree="708">
      <Node pos="s" depth="0" NCoef="0" IVar="1" Cut="1.0845836639404297e+02" cType="1" res="-1.2480983277782798e-03" rms="4.6934729814529419e-01" purity="5.0707745552062988e-01" nType="0">
        <Node pos="l" depth="1" NCoef="0" IVar="2" Cut="1.1246745605468750e+03" cType="1" res="-7.4138909578323364e-02" rms="4.5371288061141968e-01" purity="3.5688886046409607e-01" nType="0">
          <Node pos="l" depth="2" NCoef="0" IVar="-1" Cut="0.0000000000000000e+00" cType="1" res="-9.7537071269471198e-05" rms="4.6947509050369263e-01" purity="4.4933584332466125e-01" nType="-99"/>
          <Node pos="r" depth="2" NCoef="0" IVar="-1" Cut="0.0000000000000000e+00" cType="1" res="-1.6114454483613372e-03" rms="4.2776286602020264e-01" purity="2.6725825667381287e-01" nType="-99"/>
        </Node>
        <Node pos="r" depth="1" NCoef="0" IVar="4" Cut="1.2486899414062500e+03" cType="1" res="1.2814126908779144e-02" rms="4.7100773453712463e-01" purity="5.3605210781097412e-01" nType="0">
          <Node pos="l" depth="2" NCoef="0" IVar="-1" Cut="0.0000000000000000e+00" cType="1" res="2.9760023608105257e-05" rms="4.7094064950942993e-01" purity="5.2647042274475098e-01" nType="-99"/>
          <Node pos="r" depth="2" NCoef="0" IVar="-1" Cut="0.0000000000000000e+00" cType="1" res="3.0072622466832399e-03" rms="4.4843974709510803e-01" purity="6.6009098291397095e-01" nType="-99"/>
        </Node>
      </Node>
    </BinaryTree>
    <BinaryTree type="DecisionTree" boostWeight="1.0000000000000000e+00" itree="709">
      <Node pos="s" depth="0" NCoef="0" IVar="1" Cut="1.4556765747070312e+02" cType="1" res="9.6393813146278262e-04" rms="4.6793454885482788e-01" purity="5.0934016704559326e-01" nType="0">
        <Node pos="l" depth="1" NCoef="0" IVar="1" Cut="1.1430903625488281e+02" cType="1" res="8.8917054235935211e-03" rms="4.7025960683822632e-01" purity="5.3252643346786499e-01" nType="0">
          <Node pos="l" depth="2" NCoef="0" IVar="-1" Cut="0.0000000000000000e+00" cType="1" res="-6.3185341423377395e-04" rms="4.7014427185058594e-01" purity="4.3144160509109497e-01" nType="-99"/>
          <Node pos="r" depth="2" NCoef="0" IVar="-1" Cut="0.0000000000000000e+00" cType="1" res="4.6981225023046136e-04" rms="4.6885770559310913e-01" purity="5.6870007514953613e-01" nType="-99"/>
        </Node>
        <Node pos="r" depth="1" NCoef="0" IVar="-1" Cut="0.0000000000000000e+00" cType="1" res="-9.2974212020635605e-04" rms="4.3796995282173157e-01" purity="2.8804016113281250e-01" nType="-99"/>
      </Node>
    </BinaryTree>
    <BinaryTree type="DecisionTree" boostWeight="1.0000000000000000e+00" itree="710">
      <Node pos="s" depth="0" NCoef="0" IVar="0" Cut="6.4517669677734375e+01" cType="1" res="-5.5135609582066536e-03" rms="4.6277260780334473e-01" purity="5.0063550472259521e-01" nType="0">
        <Node pos="l" depth="1" NCoef="0" IVar="-1" Cut="0.0000000000000000e+00" cType="1" res="-1.4995544916018844e-03" rms="4.3700534105300903e-01" purity="2.9837998747825623e-01" nType="-99"/>
        <Node pos="r" depth="1" NCoef="0" IVar="2" Cut="9.2636810302734375e+02" cType="1" res="7.1442788466811180e-03" rms="4.6366468071937561e-01" purity="5.2229487895965576e-01" nType="0">
          <Node pos="l" depth="2" NCoef="0" IVar="-1" Cut="0.0000000000000000e+00" cType="1" res="8.8296190369874239e-04" rms="4.5909729599952698e-01" purity="5.9409397840499878e-01" nType="-99"/>
          <Node pos="r" depth="2" NCoef="0" IVar="-1" Cut="0.0000000000000000e+00" cType="1" res="-2.9288540827110410e-04" rms="4.6451452374458313e-01" purity="4.7700288891792297e-01" nType="-99"/>
        </Node>
      </Node>
    </BinaryTree>
    <BinaryTree type="DecisionTree" boostWeight="1.0000000000000000e+00" itree="711">
      <Node pos="s" depth="0" NCoef="0" IVar="0" Cut="6.7829383850097656e+01" cType="1" res="1.0955459438264370e-03" rms="4.6831917762756348e-01" purity="5.1058971881866455e-01" nType="0">
        <Node pos="l" depth="1" NCoef="0" IVar="-1" Cut="0.0000000000000000e+00" cType="1" res="-1.1861728271469474e-03" rms="4.4732055068016052e-01" purity="3.2403582334518433e-01" nType="-99"/>
        <Node pos="r" depth="1" NCoef="0" IVar="2" Cut="2.0256257324218750e+03" cType="1" res="1.1472508311271667e-02" rms="4.6933791041374207e-01" purity="5.3062909841537476e-01" nType="0">
          <Node pos="l" depth="2" NCoef="0" IVar="-1" Cut="0.0000000000000000e+00" cType="1" res="3.1243186094798148e-04" rms="4.6858114004135132e-01" purity="5.4282844066619873e-01" nType="-99"/>
          <Node pos="r" depth="2" NCoef="0" IVar="-1" Cut="0.0000000000000000e+00" cType="1" res="-9.3566416762769222e-04" rms="4.6878433227539062e-01" purity="3.8356959819793701e-01" nType="-99"/>
        </Node>
      </Node>
    </BinaryTree>
    <BinaryTree type="DecisionTree" boostWeight="1.0000000000000000e+00" itree="712">
      <Node pos="s" depth="0" NCoef="0" IVar="0" Cut="1.2887686157226562e+02" cType="1" res="8.7652896763756871e-04" rms="4.6853473782539368e-01" purity="5.1005220413208008e-01" nType="0">
        <Node pos="l" depth="1" NCoef="0" IVar="0" Cut="8.2082595825195312e+01" cType="1" res="3.9030738174915314e-02" rms="4.6158510446548462e-01" purity="5.7292157411575317e-01" nType="0">
          <Node pos="l" depth="2" NCoef="0" IVar="-1" Cut="0.0000000000000000e+00" cType="1" res="-3.2544927671551704e-04" rms="4.6218657493591309e-01" purity="4.2074781656265259e-01" nType="-99"/>
          <Node pos="r" depth="2" NCoef="0" IVar="-1" Cut="0.0000000000000000e+00" cType="1" res="1.5274002216756344e-03" rms="4.5730370283126831e-01" purity="6.6233694553375244e-01" nType="-99"/>
        </Node>
        <Node pos="r" depth="1" NCoef="0" IVar="4" Cut="6.6192498779296875e+02" cType="1" res="-2.3295089602470398e-02" rms="4.7128909826278687e-01" purity="4.7022294998168945e-01" nType="0">
          <Node pos="l" depth="2" NCoef="0" IVar="-1" Cut="0.0000000000000000e+00" cType="1" res="-8.3020358579233289e-04" rms="4.6134734153747559e-01" purity="4.1816732287406921e-01" nType="-99"/>
          <Node pos="r" depth="2" NCoef="0" IVar="-1" Cut="0.0000000000000000e+00" cType="1" res="-8.4411280113272369e-05" rms="4.7491443157196045e-01" purity="4.9495142698287964e-01" nType="-99"/>
        </Node>
      </Node>
    </BinaryTree>
    <BinaryTree type="DecisionTree" boostWeight="1.0000000000000000e+00" itree="713">
      <Node pos="s" depth="0" NCoef="0" IVar="3" Cut="8.9627540111541748e-01" cType="1" res="-2.6961942203342915e-03" rms="4.6406173706054688e-01" purity="5.0294631719589233e-01" nType="0">
        <Node pos="l" depth="1" NCoef="0" IVar="4" Cut="6.3330505371093750e+02" cType="1" res="-2.9134802520275116e-02" rms="4.6666076779365540e-01" purity="4.0818485617637634e-01" nType="0">
          <Node pos="l" depth="2" NCoef="0" IVar="-1" Cut="0.0000000000000000e+00" cType="1" res="-9.6375949215143919e-04" rms="4.4378715753555298e-01" purity="3.3922871947288513e-01" nType="-99"/>
          <Node pos="r" depth="2" NCoef="0" IVar="-1" Cut="0.0000000000000000e+00" cType="1" res="-1.3652519555762410e-05" rms="4.7721177339553833e-01" purity="4.4828113913536072e-01" nType="-99"/>
        </Node>
        <Node pos="r" depth="1" NCoef="0" IVar="2" Cut="8.5621423339843750e+02" cType="1" res="2.6876557618379593e-02" rms="4.5933771133422852e-01" purity="6.0894125699996948e-01" nType="0">
          <Node pos="l" depth="2" NCoef="0" IVar="-1" Cut="0.0000000000000000e+00" cType="1" res="2.2163784597069025e-03" rms="4.3103981018066406e-01" purity="7.1065038442611694e-01" nType="-99"/>
          <Node pos="r" depth="2" NCoef="0" IVar="-1" Cut="0.0000000000000000e+00" cType="1" res="-5.4369520512409508e-05" rms="4.6860092878341675e-01" purity="5.6263434886932373e-01" nType="-99"/>
        </Node>
      </Node>
    </BinaryTree>
    <BinaryTree type="DecisionTree" boostWeight="1.0000000000000000e+00" itree="714">
      <Node pos="s" depth="0" NCoef="0" IVar="5" Cut="8.3142817020416260e-01" cType="1" res="-4.4849920086562634e-03" rms="4.6703067421913147e-01" purity="5.0225794315338135e-01" nType="0">
        <Node pos="l" depth="1" NCoef="0" IVar="1" Cut="1.4560113525390625e+02" cType="1" res="-1.3330349698662758e-02" rms="4.6810001134872437e-01" purity="4.8820164799690247e-01" nType="0">
          <Node pos="l" depth="2" NCoef="0" IVar="-1" Cut="0.0000000000000000e+00" cType="1" res="-6.7227971157990396e-05" rms="4.7079294919967651e-01" purity="5.1240670680999756e-01" nType="-99"/>
          <Node pos="r" depth="2" NCoef="0" IVar="-1" Cut="0.0000000000000000e+00" cType="1" res="-1.1516544036567211e-03" rms="4.3472352623939514e-01" purity="2.6998558640480042e-01" nType="-99"/>
        </Node>
        <Node pos="r" depth="1" NCoef="0" IVar="-1" Cut="0.0000000000000000e+00" cType="1" res="1.6870303079485893e-03" rms="4.4507071375846863e-01" purity="6.5027552843093872e-01" nType="-99"/>
      </Node>
    </BinaryTree>
    <BinaryTree type="DecisionTree" boostWeight="1.0000000000000000e+00" itree="715">
      <Node pos="s" depth="0" NCoef="0" IVar="4" Cut="4.7622619628906250e+02" cType="1" res="6.8366732448339462e-03" rms="4.6656760573387146e-01" purity="5.1616358757019043e-01" nType="0">
        <Node pos="l" depth="1" NCoef="0" IVar="-1" Cut="0.0000000000000000e+00" cType="1" res="-1.0924293892458081e-03" rms="4.6911153197288513e-01" purity="4.1045051813125610e-01" nType="-99"/>
        <Node pos="r" depth="1" NCoef="0" IVar="1" Cut="1.3921051025390625e+02" cType="1" res="1.5234475955367088e-02" rms="4.6546909213066101e-01" purity="5.2651423215866089e-01" nType="0">
          <Node pos="l" depth="2" NCoef="0" IVar="-1" Cut="0.0000000000000000e+00" cType="1" res="4.6742628910578787e-04" rms="4.6778717637062073e-01" purity="5.6123256683349609e-01" nType="-99"/>
          <Node pos="r" depth="2" NCoef="0" IVar="-1" Cut="0.0000000000000000e+00" cType="1" res="-6.8146159173920751e-04" rms="4.4589367508888245e-01" purity="3.3288270235061646e-01" nType="-99"/>
        </Node>
      </Node>
    </BinaryTree>
    <BinaryTree type="DecisionTree" boostWeight="1.0000000000000000e+00" itree="716">
      <Node pos="s" depth="0" NCoef="0" IVar="2" Cut="6.6015234375000000e+02" cType="1" res="-1.0492561385035515e-02" rms="4.6915492415428162e-01" purity="4.9991431832313538e-01" nType="0">
        <Node pos="l" depth="1" NCoef="0" IVar="-1" Cut="0.0000000000000000e+00" cType="1" res="1.8923613242805004e-03" rms="4.5598047971725464e-01" purity="6.6088658571243286e-01" nType="-99"/>
        <Node pos="r" depth="1" NCoef="0" IVar="4" Cut="5.8835913085937500e+02" cType="1" res="-2.2059945389628410e-02" rms="4.6915209293365479e-01" purity="4.8215985298156738e-01" nType="0">
          <Node pos="l" depth="2" NCoef="0" IVar="-1" Cut="0.0000000000000000e+00" cType="1" res="-1.1564209125936031e-03" rms="4.4827330112457275e-01" purity="3.6462542414665222e-01" nType="-99"/>
          <Node pos="r" depth="2" NCoef="0" IVar="-1" Cut="0.0000000000000000e+00" cType="1" res="-9.5662115199957043e-05" rms="4.7253164649009705e-01" purity="5.0986355543136597e-01" nType="-99"/>
        </Node>
      </Node>
    </BinaryTree>
    <BinaryTree type="DecisionTree" boostWeight="1.0000000000000000e+00" itree="717">
      <Node pos="s" depth="0" NCoef="0" IVar="2" Cut="9.0030889892578125e+02" cType="1" res="-4.5484339352697134e-04" rms="4.6628281474113464e-01" purity="5.0647550821304321e-01" nType="0">
        <Node pos="l" depth="1" NCoef="0" IVar="5" Cut="6.4514255523681641e-01" cType="1" res="4.2372435331344604e-02" rms="4.6118727326393127e-01" purity="5.7315963506698608e-01" nType="0">
          <Node pos="l" depth="2" NCoef="0" IVar="-1" Cut="0.0000000000000000e+00" cType="1" res="2.3443937243428081e-04" rms="4.6838182210922241e-01" purity="5.3714621067047119e-01" nType="-99"/>
          <Node pos="r" depth="2" NCoef="0" IVar="-1" Cut="0.0000000000000000e+00" cType="1" res="3.0333644244819880e-03" rms="4.2042407393455505e-01" purity="7.0004111528396606e-01" nType="-99"/>
        </Node>
        <Node pos="r" depth="1" NCoef="0" IVar="4" Cut="7.2180828857421875e+02" cType="1" res="-2.5619730353355408e-02" rms="4.6742439270019531e-01" purity="4.6729251742362976e-01" nType="0">
          <Node pos="l" depth="2" NCoef="0" IVar="-1" Cut="0.0000000000000000e+00" cType="1" res="-1.2247165432199836e-03" rms="4.3897375464439392e-01" purity="3.2329362630844116e-01" nType="-99"/>
          <Node pos="r" depth="2" NCoef="0" IVar="-1" Cut="0.0000000000000000e+00" cType="1" res="-1.5930168956401758e-05" rms="4.7393947839736938e-01" purity="5.1510524749755859e-01" nType="-99"/>
        </Node>
      </Node>
    </BinaryTree>
    <BinaryTree type="DecisionTree" boostWeight="1.0000000000000000e+00" itree="718">
      <Node pos="s" depth="0" NCoef="0" IVar="4" Cut="4.9637332153320312e+02" cType="1" res="-2.4410176556557417e-03" rms="4.6860611438751221e-01" purity="5.0647073984146118e-01" nType="0">
        <Node pos="l" depth="1" NCoef="0" IVar="-1" Cut="0.0000000000000000e+00" cType="1" res="-1.2924659531563520e-03" rms="4.5810270309448242e-01" purity="3.8575485348701477e-01" nType="-99"/>
        <Node pos="r" depth="1" NCoef="0" IVar="4" Cut="6.7204406738281250e+02" cType="1" res="1.0176398791372776e-02" rms="4.6853181719779968e-01" purity="5.2247452735900879e-01" nType="0">
          <Node pos="l" depth="2" NCoef="0" IVar="-1" Cut="0.0000000000000000e+00" cType="1" res="-2.8546329122036695e-04" rms="4.6395841240882874e-01" purity="4.7527262568473816e-01" nType="-99"/>
          <Node pos="r" depth="2" NCoef="0" IVar="-1" Cut="0.0000000000000000e+00" cType="1" res="4.3972409912385046e-04" rms="4.7025731205940247e-01" purity="5.4877471923828125e-01" nType="-99"/>
        </Node>
      </Node>
    </BinaryTree>
    <BinaryTree type="DecisionTree" boostWeight="1.0000000000000000e+00" itree="719">
      <Node pos="s" depth="0" NCoef="0" IVar="2" Cut="7.5124841308593750e+02" cType="1" res="-1.7916142940521240e-02" rms="4.6577522158622742e-01" purity="4.8662966489791870e-01" nType="0">
        <Node pos="l" depth="1" NCoef="0" IVar="4" Cut="4.9450448608398438e+02" cType="1" res="2.9818542301654816e-02" rms="4.6284809708595276e-01" purity="5.8454644680023193e-01" nType="0">
          <Node pos="l" depth="2" NCoef="0" IVar="-1" Cut="0.0000000000000000e+00" cType="1" res="-8.1630656495690346e-04" rms="4.7394371032714844e-01" purity="4.6722805500030518e-01" nType="-99"/>
          <Node pos="r" depth="2" NCoef="0" IVar="-1" Cut="0.0000000000000000e+00" cType="1" res="2.1330956369638443e-03" rms="4.3923139572143555e-01" purity="6.8826001882553101e-01" nType="-99"/>
        </Node>
        <Node pos="r" depth="1" NCoef="0" IVar="4" Cut="6.7660101318359375e+02" cType="1" res="-2.9932063072919846e-02" rms="4.6573904156684875e-01" purity="4.6198174357414246e-01" nType="0">
          <Node pos="l" depth="2" NCoef="0" IVar="-1" Cut="0.0000000000000000e+00" cType="1" res="-1.1019904632121325e-03" rms="4.4234716892242432e-01" purity="3.4097239375114441e-01" nType="-99"/>
          <Node pos="r" depth="2" NCoef="0" IVar="-1" Cut="0.0000000000000000e+00" cType="1" res="-7.4341798608656973e-05" rms="4.7347411513328552e-01" purity="5.1520192623138428e-01" nType="-99"/>
        </Node>
      </Node>
    </BinaryTree>
    <BinaryTree type="DecisionTree" boostWeight="1.0000000000000000e+00" itree="720">
      <Node pos="s" depth="0" NCoef="0" IVar="2" Cut="1.2417255859375000e+03" cType="1" res="-8.0638909712433815e-03" rms="4.6832129359245300e-01" purity="5.0084906816482544e-01" nType="0">
        <Node pos="l" depth="1" NCoef="0" IVar="4" Cut="8.8022802734375000e+02" cType="1" res="1.6346212476491928e-02" rms="4.6643596887588501e-01" purity="5.4250752925872803e-01" nType="0">
          <Node pos="l" depth="2" NCoef="0" IVar="-1" Cut="0.0000000000000000e+00" cType="1" res="1.3114570174366236e-04" rms="4.6778544783592224e-01" purity="5.2787941694259644e-01" nType="-99"/>
          <Node pos="r" depth="2" NCoef="0" IVar="-1" Cut="0.0000000000000000e+00" cType="1" res="2.5176517665386200e-03" rms="4.4059380888938904e-01" purity="7.0679956674575806e-01" nType="-99"/>
        </Node>
        <Node pos="r" depth="1" NCoef="0" IVar="4" Cut="8.8409234619140625e+02" cType="1" res="-5.4091896861791611e-02" rms="4.6840772032737732e-01" purity="4.2229738831520081e-01" nType="0">
          <Node pos="l" depth="2" NCoef="0" IVar="-1" Cut="0.0000000000000000e+00" cType="1" res="-1.6631641192361712e-03" rms="4.2157796025276184e-01" purity="2.6990842819213867e-01" nType="-99"/>
          <Node pos="r" depth="2" NCoef="0" IVar="-1" Cut="0.0000000000000000e+00" cType="1" res="-2.1924573229625821e-04" rms="4.8054066300392151e-01" purity="4.8402819037437439e-01" nType="-99"/>
        </Node>
      </Node>
    </BinaryTree>
    <BinaryTree type="DecisionTree" boostWeight="1.0000000000000000e+00" itree="721">
      <Node pos="s" depth="0" NCoef="0" IVar="0" Cut="3.3989489746093750e+02" cType="1" res="-3.6465525627136230e-03" rms="4.6899092197418213e-01" purity="5.0472110509872437e-01" nType="0">
        <Node pos="l" depth="1" NCoef="0" IVar="4" Cut="4.9200103759765625e+02" cType="1" res="6.2108049169182777e-03" rms="4.7047078609466553e-01" purity="5.3127568960189819e-01" nType="0">
          <Node pos="l" depth="2" NCoef="0" IVar="-1" Cut="0.0000000000000000e+00" cType="1" res="-8.2407612353563309e-04" rms="4.7355392575263977e-01" purity="4.4113951921463013e-01" nType="-99"/>
          <Node pos="r" depth="2" NCoef="0" IVar="-1" Cut="0.0000000000000000e+00" cType="1" res="2.4652745923958719e-04" rms="4.6935886144638062e-01" purity="5.4393839836120605e-01" nType="-99"/>
        </Node>
        <Node pos="r" depth="1" NCoef="0" IVar="5" Cut="5.5136215686798096e-01" cType="1" res="-6.0980737209320068e-02" rms="4.5608526468276978e-01" purity="3.5026916861534119e-01" nType="0">
          <Node pos="l" depth="2" NCoef="0" IVar="-1" Cut="0.0000000000000000e+00" cType="1" res="-1.0812538675963879e-03" rms="4.4968435168266296e-01" purity="3.1436204910278320e-01" nType="-99"/>
          <Node pos="r" depth="2" NCoef="0" IVar="-1" Cut="0.0000000000000000e+00" cType="1" res="-3.3612127299420536e-04" rms="4.6298938989639282e-01" purity="4.0266531705856323e-01" nType="-99"/>
        </Node>
      </Node>
    </BinaryTree>
    <BinaryTree type="DecisionTree" boostWeight="1.0000000000000000e+00" itree="722">
      <Node pos="s" depth="0" NCoef="0" IVar="3" Cut="9.5667558908462524e-01" cType="1" res="-1.7103523015975952e-02" rms="4.6950167417526245e-01" purity="4.9244669079780579e-01" nType="0">
        <Node pos="l" depth="1" NCoef="0" IVar="4" Cut="9.0074560546875000e+02" cType="1" res="-2.7148989960551262e-02" rms="4.7351223230361938e-01" purity="4.6603402495384216e-01" nType="0">
          <Node pos="l" depth="2" NCoef="0" IVar="-1" Cut="0.0000000000000000e+00" cType="1" res="-5.9476331807672977e-04" rms="4.6958693861961365e-01" purity="4.4721367955207825e-01" nType="-99"/>
          <Node pos="r" depth="2" NCoef="0" IVar="-1" Cut="0.0000000000000000e+00" cType="1" res="2.2005179198458791e-04" rms="4.8178654909133911e-01" purity="5.1810222864151001e-01" nType="-99"/>
        </Node>
        <Node pos="r" depth="1" NCoef="0" IVar="5" Cut="4.7583863139152527e-01" cType="1" res="7.2093568742275238e-02" rms="4.2189800739288330e-01" purity="7.2697401046752930e-01" nType="0">
          <Node pos="l" depth="2" NCoef="0" IVar="-1" Cut="0.0000000000000000e+00" cType="1" res="3.2579982653260231e-03" rms="3.9483278989791870e-01" purity="7.6183015108108521e-01" nType="-99"/>
          <Node pos="r" depth="2" NCoef="0" IVar="-1" Cut="0.0000000000000000e+00" cType="1" res="8.6336792446672916e-04" rms="4.4432610273361206e-01" purity="6.9192218780517578e-01" nType="-99"/>
        </Node>
      </Node>
    </BinaryTree>
    <BinaryTree type="DecisionTree" boostWeight="1.0000000000000000e+00" itree="723">
      <Node pos="s" depth="0" NCoef="0" IVar="4" Cut="6.2836334228515625e+02" cType="1" res="-7.1148453280329704e-03" rms="4.6518021821975708e-01" purity="4.9847215414047241e-01" nType="0">
        <Node pos="l" depth="1" NCoef="0" IVar="2" Cut="7.4795892333984375e+02" cType="1" res="-4.3645326048135757e-02" rms="4.5396456122398376e-01" purity="4.4085231423377991e-01" nType="0">
          <Node pos="l" depth="2" NCoef="0" IVar="-1" Cut="0.0000000000000000e+00" cType="1" res="4.5357190538197756e-04" rms="4.6377193927764893e-01" purity="5.8056497573852539e-01" nType="-99"/>
          <Node pos="r" depth="2" NCoef="0" IVar="-1" Cut="0.0000000000000000e+00" cType="1" res="-1.3709346530959010e-03" rms="4.3243640661239624e-01" purity="2.9959994554519653e-01" nType="-99"/>
        </Node>
        <Node pos="r" depth="1" NCoef="0" IVar="2" Cut="9.9500891113281250e+02" cType="1" res="1.2890512123703957e-02" rms="4.7000753879547119e-01" purity="5.3002679347991943e-01" nType="0">
          <Node pos="l" depth="2" NCoef="0" IVar="-1" Cut="0.0000000000000000e+00" cType="1" res="1.4819651842117310e-03" rms="4.5866462588310242e-01" purity="6.4323955774307251e-01" nType="-99"/>
          <Node pos="r" depth="2" NCoef="0" IVar="-1" Cut="0.0000000000000000e+00" cType="1" res="-1.7503670824225992e-04" rms="4.7180715203285217e-01" purity="4.8822963237762451e-01" nType="-99"/>
        </Node>
      </Node>
    </BinaryTree>
    <BinaryTree type="DecisionTree" boostWeight="1.0000000000000000e+00" itree="724">
      <Node pos="s" depth="0" NCoef="0" IVar="4" Cut="5.3330407714843750e+02" cType="1" res="-1.4903599396348000e-02" rms="4.6432885527610779e-01" purity="4.8729225993156433e-01" nType="0">
        <Node pos="l" depth="1" NCoef="0" IVar="2" Cut="5.9700524902343750e+02" cType="1" res="-9.1744311153888702e-02" rms="4.4918271899223328e-01" purity="3.8649034500122070e-01" nType="0">
          <Node pos="l" depth="2" NCoef="0" IVar="-1" Cut="0.0000000000000000e+00" cType="1" res="6.8206369178369641e-04" rms="4.7024586796760559e-01" purity="5.7974201440811157e-01" nType="-99"/>
          <Node pos="r" depth="2" NCoef="0" IVar="-1" Cut="0.0000000000000000e+00" cType="1" res="-1.7716023139655590e-03" rms="4.3018549680709839e-01" purity="3.1123161315917969e-01" nType="-99"/>
        </Node>
        <Node pos="r" depth="1" NCoef="0" IVar="2" Cut="1.1949940185546875e+03" cType="1" res="1.6328922938555479e-03" rms="4.6586990356445312e-01" purity="5.0898534059524536e-01" nType="0">
          <Node pos="l" depth="2" NCoef="0" IVar="-1" Cut="0.0000000000000000e+00" cType="1" res="4.9366039456799626e-04" rms="4.6314024925231934e-01" purity="5.5788242816925049e-01" nType="-99"/>
          <Node pos="r" depth="2" NCoef="0" IVar="-1" Cut="0.0000000000000000e+00" cType="1" res="-5.1024177810177207e-04" rms="4.6698930859565735e-01" purity="4.4040626287460327e-01" nType="-99"/>
        </Node>
      </Node>
    </BinaryTree>
    <BinaryTree type="DecisionTree" boostWeight="1.0000000000000000e+00" itree="725">
      <Node pos="s" depth="0" NCoef="0" IVar="1" Cut="1.2815995788574219e+02" cType="1" res="-3.4534931182861328e-03" rms="4.6913647651672363e-01" purity="5.0548762083053589e-01" nType="0">
        <Node pos="l" depth="1" NCoef="0" IVar="1" Cut="1.1365763092041016e+02" cType="1" res="1.7011005431413651e-02" rms="4.6752500534057617e-01" purity="5.4655545949935913e-01" nType="0">
          <Node pos="l" depth="2" NCoef="0" IVar="-1" Cut="0.0000000000000000e+00" cType="1" res="-4.1779052116908133e-04" rms="4.6655970811843872e-01" purity="4.4180399179458618e-01" nType="-99"/>
          <Node pos="r" depth="2" NCoef="0" IVar="-1" Cut="0.0000000000000000e+00" cType="1" res="7.3133577825501561e-04" rms="4.6619755029678345e-01" purity="6.0129618644714355e-01" nType="-99"/>
        </Node>
        <Node pos="r" depth="1" NCoef="0" IVar="4" Cut="8.6666510009765625e+02" cType="1" res="-3.9298582822084427e-02" rms="4.6980255842208862e-01" purity="4.3355414271354675e-01" nType="0">
          <Node pos="l" depth="2" NCoef="0" IVar="-1" Cut="0.0000000000000000e+00" cType="1" res="-9.6384482458233833e-04" rms="4.6300718188285828e-01" purity="3.9855748414993286e-01" nType="-99"/>
          <Node pos="r" depth="2" NCoef="0" IVar="-1" Cut="0.0000000000000000e+00" cType="1" res="4.0644139517098665e-04" rms="4.7693961858749390e-01" purity="5.0548732280731201e-01" nType="-99"/>
        </Node>
      </Node>
    </BinaryTree>
    <BinaryTree type="DecisionTree" boostWeight="1.0000000000000000e+00" itree="726">
      <Node pos="s" depth="0" NCoef="0" IVar="1" Cut="1.0241307067871094e+02" cType="1" res="-2.5257677771151066e-03" rms="4.6670493483543396e-01" purity="5.0565665960311890e-01" nType="0">
        <Node pos="l" depth="1" NCoef="0" IVar="-1" Cut="0.0000000000000000e+00" cType="1" res="-1.0382970795035362e-03" rms="4.2969122529029846e-01" purity="2.9993271827697754e-01" nType="-99"/>
        <Node pos="r" depth="1" NCoef="0" IVar="1" Cut="1.3077494812011719e+02" cType="1" res="7.0483740419149399e-03" rms="4.6987378597259521e-01" purity="5.2952569723129272e-01" nType="0">
          <Node pos="l" depth="2" NCoef="0" IVar="-1" Cut="0.0000000000000000e+00" cType="1" res="4.2373168980702758e-04" rms="4.7015139460563660e-01" purity="5.7861918210983276e-01" nType="-99"/>
          <Node pos="r" depth="2" NCoef="0" IVar="-1" Cut="0.0000000000000000e+00" cType="1" res="-4.6033592661842704e-04" rms="4.6684619784355164e-01" purity="4.2138180136680603e-01" nType="-99"/>
        </Node>
      </Node>
    </BinaryTree>
    <BinaryTree type="DecisionTree" boostWeight="1.0000000000000000e+00" itree="727">
      <Node pos="s" depth="0" NCoef="0" IVar="2" Cut="9.1580810546875000e+02" cType="1" res="-8.4300339221954346e-03" rms="4.7066366672515869e-01" purity="5.0350260734558105e-01" nType="0">
        <Node pos="l" depth="1" NCoef="0" IVar="4" Cut="5.2287811279296875e+02" cType="1" res="2.3511758074164391e-02" rms="4.7026857733726501e-01" purity="5.6196695566177368e-01" nType="0">
          <Node pos="l" depth="2" NCoef="0" IVar="-1" Cut="0.0000000000000000e+00" cType="1" res="-4.5621380559168756e-04" rms="4.7369164228439331e-01" purity="4.8191049695014954e-01" nType="-99"/>
          <Node pos="r" depth="2" NCoef="0" IVar="-1" Cut="0.0000000000000000e+00" cType="1" res="9.7979849670082331e-04" rms="4.6560984849929810e-01" purity="6.0708492994308472e-01" nType="-99"/>
        </Node>
        <Node pos="r" depth="1" NCoef="0" IVar="4" Cut="7.0570416259765625e+02" cType="1" res="-2.9042242094874382e-02" rms="4.6976685523986816e-01" purity="4.6577525138854980e-01" nType="0">
          <Node pos="l" depth="2" NCoef="0" IVar="-1" Cut="0.0000000000000000e+00" cType="1" res="-1.4259583549574018e-03" rms="4.4953894615173340e-01" purity="3.1373798847198486e-01" nType="-99"/>
          <Node pos="r" depth="2" NCoef="0" IVar="-1" Cut="0.0000000000000000e+00" cType="1" res="-1.0590090823825449e-04" rms="4.7249191999435425e-01" purity="5.0592732429504395e-01" nType="-99"/>
        </Node>
      </Node>
    </BinaryTree>
    <BinaryTree type="DecisionTree" boostWeight="1.0000000000000000e+00" itree="728">
      <Node pos="s" depth="0" NCoef="0" IVar="2" Cut="8.7738970947265625e+02" cType="1" res="-2.2450186312198639e-02" rms="4.6677348017692566e-01" purity="4.8683866858482361e-01" nType="0">
        <Node pos="l" depth="1" NCoef="0" IVar="3" Cut="8.7387752532958984e-01" cType="1" res="1.3239026069641113e-02" rms="4.6610650420188904e-01" purity="5.5151355266571045e-01" nType="0">
          <Node pos="l" depth="2" NCoef="0" IVar="-1" Cut="0.0000000000000000e+00" cType="1" res="-5.9678207617253065e-04" rms="4.6827384829521179e-01" purity="3.9310121536254883e-01" nType="-99"/>
          <Node pos="r" depth="2" NCoef="0" IVar="-1" Cut="0.0000000000000000e+00" cType="1" res="8.1192149082198739e-04" rms="4.6226501464843750e-01" purity="6.2606006860733032e-01" nType="-99"/>
        </Node>
        <Node pos="r" depth="1" NCoef="0" IVar="4" Cut="7.6725543212890625e+02" cType="1" res="-4.0604609996080399e-02" rms="4.6606490015983582e-01" purity="4.5393979549407959e-01" nType="0">
          <Node pos="l" depth="2" NCoef="0" IVar="-1" Cut="0.0000000000000000e+00" cType="1" res="-1.2982228072360158e-03" rms="4.4402915239334106e-01" purity="3.3962514996528625e-01" nType="-99"/>
          <Node pos="r" depth="2" NCoef="0" IVar="-1" Cut="0.0000000000000000e+00" cType="1" res="-1.1948336032219231e-04" rms="4.7425955533981323e-01" purity="5.1555365324020386e-01" nType="-99"/>
        </Node>
      </Node>
    </BinaryTree>
    <BinaryTree type="DecisionTree" boostWeight="1.0000000000000000e+00" itree="729">
      <Node pos="s" depth="0" NCoef="0" IVar="0" Cut="2.3622422790527344e+02" cType="1" res="8.3494335412979126e-03" rms="4.6200427412986755e-01" purity="5.1404738426208496e-01" nType="0">
        <Node pos="l" depth="1" NCoef="0" IVar="0" Cut="8.8970497131347656e+01" cType="1" res="3.0040355399250984e-02" rms="4.6361002326011658e-01" purity="5.6620848178863525e-01" nType="0">
          <Node pos="l" depth="2" NCoef="0" IVar="-1" Cut="0.0000000000000000e+00" cType="1" res="-7.3112465906888247e-04" rms="4.6996575593948364e-01" purity="4.0531882643699646e-01" nType="-99"/>
          <Node pos="r" depth="2" NCoef="0" IVar="-1" Cut="0.0000000000000000e+00" cType="1" res="1.1392626911401749e-03" rms="4.5708683133125305e-01" purity="6.2664067745208740e-01" nType="-99"/>
        </Node>
        <Node pos="r" depth="1" NCoef="0" IVar="4" Cut="7.6907983398437500e+02" cType="1" res="-4.5708909630775452e-02" rms="4.5348522067070007e-01" purity="3.8405090570449829e-01" nType="0">
          <Node pos="l" depth="2" NCoef="0" IVar="-1" Cut="0.0000000000000000e+00" cType="1" res="-1.2798722600564361e-03" rms="4.1745972633361816e-01" purity="2.9644915461540222e-01" nType="-99"/>
          <Node pos="r" depth="2" NCoef="0" IVar="-1" Cut="0.0000000000000000e+00" cType="1" res="-1.4961058332119137e-04" rms="4.7129476070404053e-01" purity="4.3901538848876953e-01" nType="-99"/>
        </Node>
      </Node>
    </BinaryTree>
    <BinaryTree type="DecisionTree" boostWeight="1.0000000000000000e+00" itree="730">
      <Node pos="s" depth="0" NCoef="0" IVar="4" Cut="5.7334155273437500e+02" cType="1" res="-1.0809902101755142e-02" rms="4.6932449936866760e-01" purity="4.9567514657974243e-01" nType="0">
        <Node pos="l" depth="1" NCoef="0" IVar="2" Cut="6.1763269042968750e+02" cType="1" res="-6.0231741517782211e-02" rms="4.5639979839324951e-01" purity="4.3120837211608887e-01" nType="0">
          <Node pos="l" depth="2" NCoef="0" IVar="-1" Cut="0.0000000000000000e+00" cType="1" res="1.7994837835431099e-03" rms="4.6982395648956299e-01" purity="6.5938436985015869e-01" nType="-99"/>
          <Node pos="r" depth="2" NCoef="0" IVar="-1" Cut="0.0000000000000000e+00" cType="1" res="-1.4986171154305339e-03" rms="4.3882271647453308e-01" purity="3.4905681014060974e-01" nType="-99"/>
        </Node>
        <Node pos="r" depth="1" NCoef="0" IVar="2" Cut="1.1229221191406250e+03" cType="1" res="6.0087810270488262e-03" rms="4.7246491909027100e-01" purity="5.1761376857757568e-01" nType="0">
          <Node pos="l" depth="2" NCoef="0" IVar="-1" Cut="0.0000000000000000e+00" cType="1" res="7.3479581624269485e-04" rms="4.7536754608154297e-01" purity="5.8745384216308594e-01" nType="-99"/>
          <Node pos="r" depth="2" NCoef="0" IVar="-1" Cut="0.0000000000000000e+00" cType="1" res="-3.8181358831934631e-04" rms="4.6735444664955139e-01" purity="4.5385858416557312e-01" nType="-99"/>
        </Node>
      </Node>
    </BinaryTree>
    <BinaryTree type="DecisionTree" boostWeight="1.0000000000000000e+00" itree="731">
      <Node pos="s" depth="0" NCoef="0" IVar="4" Cut="9.0034338378906250e+02" cType="1" res="-9.8019884899258614e-04" rms="4.6863499283790588e-01" purity="5.0562375783920288e-01" nType="0">
        <Node pos="l" depth="1" NCoef="0" IVar="2" Cut="1.0027663574218750e+03" cType="1" res="-2.1073197945952415e-02" rms="4.6673113107681274e-01" purity="4.8250401020050049e-01" nType="0">
          <Node pos="l" depth="2" NCoef="0" IVar="-1" Cut="0.0000000000000000e+00" cType="1" res="3.7490515387617052e-04" rms="4.7137567400932312e-01" purity="5.5027025938034058e-01" nType="-99"/>
          <Node pos="r" depth="2" NCoef="0" IVar="-1" Cut="0.0000000000000000e+00" cType="1" res="-1.2915621045976877e-03" rms="4.4759362936019897e-01" purity="3.6044317483901978e-01" nType="-99"/>
        </Node>
        <Node pos="r" depth="1" NCoef="0" IVar="0" Cut="3.7349075317382812e+02" cType="1" res="6.0055352747440338e-02" rms="4.6912309527397156e-01" purity="5.7585352659225464e-01" nType="0">
          <Node pos="l" depth="2" NCoef="0" IVar="-1" Cut="0.0000000000000000e+00" cType="1" res="1.8469302449375391e-03" rms="4.6249070763587952e-01" purity="6.4604657888412476e-01" nType="-99"/>
          <Node pos="r" depth="2" NCoef="0" IVar="-1" Cut="0.0000000000000000e+00" cType="1" res="-4.9362581921741366e-04" rms="4.7249794006347656e-01" purity="3.9477109909057617e-01" nType="-99"/>
        </Node>
      </Node>
    </BinaryTree>
    <BinaryTree type="DecisionTree" boostWeight="1.0000000000000000e+00" itree="732">
      <Node pos="s" depth="0" NCoef="0" IVar="2" Cut="7.2529016113281250e+02" cType="1" res="-5.7818489149212837e-03" rms="4.6840149164199829e-01" purity="5.0332522392272949e-01" nType="0">
        <Node pos="l" depth="1" NCoef="0" IVar="4" Cut="4.6530572509765625e+02" cType="1" res="4.9428828060626984e-02" rms="4.6388852596282959e-01" purity="6.1689263582229614e-01" nType="0">
          <Node pos="l" depth="2" NCoef="0" IVar="-1" Cut="0.0000000000000000e+00" cType="1" res="-8.5273897275328636e-04" rms="4.8625567555427551e-01" purity="4.5825836062431335e-01" nType="-99"/>
          <Node pos="r" depth="2" NCoef="0" IVar="-1" Cut="0.0000000000000000e+00" cType="1" res="2.4768265429884195e-03" rms="4.3989059329032898e-01" purity="7.0437681674957275e-01" nType="-99"/>
        </Node>
        <Node pos="r" depth="1" NCoef="0" IVar="4" Cut="6.5530377197265625e+02" cType="1" res="-1.6640067100524902e-02" rms="4.6851897239685059e-01" purity="4.8099008202552795e-01" nType="0">
          <Node pos="l" depth="2" NCoef="0" IVar="-1" Cut="0.0000000000000000e+00" cType="1" res="-8.4969867020845413e-04" rms="4.5778214931488037e-01" purity="3.7425878643989563e-01" nType="-99"/>
          <Node pos="r" depth="2" NCoef="0" IVar="-1" Cut="0.0000000000000000e+00" cType="1" res="3.7066274671815336e-05" rms="4.7127619385719299e-01" purity="5.2255004644393921e-01" nType="-99"/>
        </Node>
      </Node>
    </BinaryTree>
    <BinaryTree type="DecisionTree" boostWeight="1.0000000000000000e+00" itree="733">
      <Node pos="s" depth="0" NCoef="0" IVar="1" Cut="9.9903724670410156e+01" cType="1" res="-1.3797062449157238e-02" rms="4.6856123208999634e-01" purity="4.9581217765808105e-01" nType="0">
        <Node pos="l" depth="1" NCoef="0" IVar="-1" Cut="0.0000000000000000e+00" cType="1" res="-1.3151948805898428e-03" rms="4.2980265617370605e-01" purity="2.7076968550682068e-01" nType="-99"/>
        <Node pos="r" depth="1" NCoef="0" IVar="4" Cut="8.3257269287109375e+02" cType="1" res="-4.9762739799916744e-03" rms="4.7073131799697876e-01" purity="5.1529723405838013e-01" nType="0">
          <Node pos="l" depth="2" NCoef="0" IVar="-1" Cut="0.0000000000000000e+00" cType="1" res="-3.4477698500268161e-04" rms="4.6943679451942444e-01" purity="4.9431896209716797e-01" nType="-99"/>
          <Node pos="r" depth="2" NCoef="0" IVar="-1" Cut="0.0000000000000000e+00" cType="1" res="5.0147913862019777e-04" rms="4.7131836414337158e-01" purity="5.5716675519943237e-01" nType="-99"/>
        </Node>
      </Node>
    </BinaryTree>
    <BinaryTree type="DecisionTree" boostWeight="1.0000000000000000e+00" itree="734">
      <Node pos="s" depth="0" NCoef="0" IVar="5" Cut="7.7045774459838867e-01" cType="1" res="8.1990141188725829e-04" rms="4.6889269351959229e-01" purity="5.1125311851501465e-01" nType="0">
        <Node pos="l" depth="1" NCoef="0" IVar="5" Cut="1.7912535369396210e-01" cType="1" res="-9.7696818411350250e-03" rms="4.6985259652137756e-01" purity="4.9559172987937927e-01" nType="0">
          <Node pos="l" depth="2" NCoef="0" IVar="-1" Cut="0.0000000000000000e+00" cType="1" res="-1.0118829086422920e-03" rms="4.6784797310829163e-01" purity="4.5377713441848755e-01" nType="-99"/>
          <Node pos="r" depth="2" NCoef="0" IVar="-1" Cut="0.0000000000000000e+00" cType="1" res="-1.1621576049947180e-05" rms="4.6958541870117188e-01" purity="5.0258916616439819e-01" nType="-99"/>
        </Node>
        <Node pos="r" depth="1" NCoef="0" IVar="2" Cut="1.1725311279296875e+03" cType="1" res="5.5302422493696213e-02" rms="4.6008577942848206e-01" purity="5.9182947874069214e-01" nType="0">
          <Node pos="l" depth="2" NCoef="0" IVar="-1" Cut="0.0000000000000000e+00" cType="1" res="1.9544935785233974e-03" rms="4.4964149594306946e-01" purity="6.6463005542755127e-01" nType="-99"/>
          <Node pos="r" depth="2" NCoef="0" IVar="-1" Cut="0.0000000000000000e+00" cType="1" res="6.1499536968767643e-05" rms="4.6738633513450623e-01" purity="5.0335907936096191e-01" nType="-99"/>
        </Node>
      </Node>
    </BinaryTree>
    <BinaryTree type="DecisionTree" boostWeight="1.0000000000000000e+00" itree="735">
      <Node pos="s" depth="0" NCoef="0" IVar="2" Cut="2.0021997070312500e+03" cType="1" res="-1.4594113454222679e-02" rms="4.7315210103988647e-01" purity="4.9612337350845337e-01" nType="0">
        <Node pos="l" depth="1" NCoef="0" IVar="4" Cut="1.1431394042968750e+03" cType="1" res="-8.0637102946639061e-03" rms="4.7372895479202271e-01" purity="5.0687175989151001e-01" nType="0">
          <Node pos="l" depth="2" NCoef="0" IVar="-1" Cut="0.0000000000000000e+00" cType="1" res="-2.2332441585604101e-04" rms="4.7317853569984436e-01" purity="5.0019335746765137e-01" nType="-99"/>
          <Node pos="r" depth="2" NCoef="0" IVar="-1" Cut="0.0000000000000000e+00" cType="1" res="1.4609362697228789e-03" rms="4.7196769714355469e-01" purity="6.0572475194931030e-01" nType="-99"/>
        </Node>
        <Node pos="r" depth="1" NCoef="0" IVar="-1" Cut="0.0000000000000000e+00" cType="1" res="-1.2502700556069613e-03" rms="4.5703878998756409e-01" purity="3.5559868812561035e-01" nType="-99"/>
      </Node>
    </BinaryTree>
    <BinaryTree type="DecisionTree" boostWeight="1.0000000000000000e+00" itree="736">
      <Node pos="s" depth="0" NCoef="0" IVar="5" Cut="6.1774986982345581e-01" cType="1" res="-1.1356212198734283e-02" rms="4.6785423159599304e-01" purity="4.9881312251091003e-01" nType="0">
        <Node pos="l" depth="1" NCoef="0" IVar="4" Cut="7.7154425048828125e+02" cType="1" res="-3.3068824559450150e-02" rms="4.6694654226303101e-01" purity="4.6931576728820801e-01" nType="0">
          <Node pos="l" depth="2" NCoef="0" IVar="-1" Cut="0.0000000000000000e+00" cType="1" res="-8.6759094847366214e-04" rms="4.6391436457633972e-01" purity="4.3463227152824402e-01" nType="-99"/>
          <Node pos="r" depth="2" NCoef="0" IVar="-1" Cut="0.0000000000000000e+00" cType="1" res="2.1581084001809359e-04" rms="4.6845224499702454e-01" purity="5.2819317579269409e-01" nType="-99"/>
        </Node>
        <Node pos="r" depth="1" NCoef="0" IVar="2" Cut="9.1243164062500000e+02" cType="1" res="3.5639245063066483e-02" rms="4.6636378765106201e-01" purity="5.6265801191329956e-01" nType="0">
          <Node pos="l" depth="2" NCoef="0" IVar="-1" Cut="0.0000000000000000e+00" cType="1" res="1.9823759794235229e-03" rms="4.4250971078872681e-01" purity="6.6009563207626343e-01" nType="-99"/>
          <Node pos="r" depth="2" NCoef="0" IVar="-1" Cut="0.0000000000000000e+00" cType="1" res="1.0028565156972036e-04" rms="4.7384476661682129e-01" purity="5.1874154806137085e-01" nType="-99"/>
        </Node>
      </Node>
    </BinaryTree>
    <BinaryTree type="DecisionTree" boostWeight="1.0000000000000000e+00" itree="737">
      <Node pos="s" depth="0" NCoef="0" IVar="4" Cut="8.5260382080078125e+02" cType="1" res="-7.3417164385318756e-03" rms="4.6547609567642212e-01" purity="5.0089609622955322e-01" nType="0">
        <Node pos="l" depth="1" NCoef="0" IVar="2" Cut="8.8110003662109375e+02" cType="1" res="-2.7578920125961304e-02" rms="4.6179291605949402e-01" purity="4.7567579150199890e-01" nType="0">
          <Node pos="l" depth="2" NCoef="0" IVar="-1" Cut="0.0000000000000000e+00" cType="1" res="3.5794681025436148e-05" rms="4.6130803227424622e-01" purity="5.3106302022933960e-01" nType="-99"/>
          <Node pos="r" depth="2" NCoef="0" IVar="-1" Cut="0.0000000000000000e+00" cType="1" res="-8.5309537826105952e-04" rms="4.5998623967170715e-01" purity="4.1235458850860596e-01" nType="-99"/>
        </Node>
        <Node pos="r" depth="1" NCoef="0" IVar="2" Cut="1.2812628173828125e+03" cType="1" res="3.7837993353605270e-02" rms="4.7046479582786560e-01" purity="5.5720061063766479e-01" nType="0">
          <Node pos="l" depth="2" NCoef="0" IVar="-1" Cut="0.0000000000000000e+00" cType="1" res="2.3830628488212824e-03" rms="4.4502744078636169e-01" purity="6.8764692544937134e-01" nType="-99"/>
          <Node pos="r" depth="2" NCoef="0" IVar="-1" Cut="0.0000000000000000e+00" cType="1" res="9.9892218713648617e-05" rms="4.7684791684150696e-01" purity="5.0437676906585693e-01" nType="-99"/>
        </Node>
      </Node>
    </BinaryTree>
    <BinaryTree type="DecisionTree" boostWeight="1.0000000000000000e+00" itree="738">
      <Node pos="s" depth="0" NCoef="0" IVar="3" Cut="8.6750841140747070e-01" cType="1" res="-1.5435032546520233e-02" rms="4.6839135885238647e-01" purity="4.9353951215744019e-01" nType="0">
        <Node pos="l" depth="1" NCoef="0" IVar="5" Cut="4.5709592103958130e-01" cType="1" res="-5.8361664414405823e-02" rms="4.6101748943328857e-01" purity="3.6079385876655579e-01" nType="0">
          <Node pos="l" depth="2" NCoef="0" IVar="-1" Cut="0.0000000000000000e+00" cType="1" res="-1.2911399826407433e-03" rms="4.4944766163825989e-01" purity="3.0550026893615723e-01" nType="-99"/>
          <Node pos="r" depth="2" NCoef="0" IVar="-1" Cut="0.0000000000000000e+00" cType="1" res="1.9283400615677238e-04" rms="4.6725767850875854e-01" purity="4.3886280059814453e-01" nType="-99"/>
        </Node>
        <Node pos="r" depth="1" NCoef="0" IVar="4" Cut="1.2353947753906250e+03" cType="1" res="-1.7191544175148010e-03" rms="4.6989715099334717e-01" purity="5.3595423698425293e-01" nType="0">
          <Node pos="l" depth="2" NCoef="0" IVar="-1" Cut="0.0000000000000000e+00" cType="1" res="-1.3968514394946396e-04" rms="4.7001841664314270e-01" purity="5.3221422433853149e-01" nType="-99"/>
          <Node pos="r" depth="2" NCoef="0" IVar="-1" Cut="0.0000000000000000e+00" cType="1" res="1.4218655414879322e-03" rms="4.6062305569648743e-01" purity="5.8072203397750854e-01" nType="-99"/>
        </Node>
      </Node>
    </BinaryTree>
    <BinaryTree type="DecisionTree" boostWeight="1.0000000000000000e+00" itree="739">
      <Node pos="s" depth="0" NCoef="0" IVar="0" Cut="1.4954780578613281e+02" cType="1" res="-1.2657481245696545e-02" rms="4.6807241439819336e-01" purity="4.9409982562065125e-01" nType="0">
        <Node pos="l" depth="1" NCoef="0" IVar="0" Cut="1.3837254333496094e+02" cType="1" res="1.1201103217899799e-02" rms="4.6825867891311646e-01" purity="5.5411225557327271e-01" nType="0">
          <Node pos="l" depth="2" NCoef="0" IVar="-1" Cut="0.0000000000000000e+00" cType="1" res="3.9295828901231289e-04" rms="4.6647420525550842e-01" purity="5.6547009944915771e-01" nType="-99"/>
          <Node pos="r" depth="2" NCoef="0" IVar="-1" Cut="0.0000000000000000e+00" cType="1" res="-1.2161191552877426e-03" rms="4.7118479013442993e-01" purity="4.6013024449348450e-01" nType="-99"/>
        </Node>
        <Node pos="r" depth="1" NCoef="0" IVar="1" Cut="1.2671510314941406e+02" cType="1" res="-3.6446787416934967e-02" rms="4.6667373180389404e-01" purity="4.3426164984703064e-01" nType="0">
          <Node pos="l" depth="2" NCoef="0" IVar="-1" Cut="0.0000000000000000e+00" cType="1" res="-1.2872248771600425e-04" rms="4.6884185075759888e-01" purity="4.8450145125389099e-01" nType="-99"/>
          <Node pos="r" depth="2" NCoef="0" IVar="-1" Cut="0.0000000000000000e+00" cType="1" res="-9.2006300110369921e-04" rms="4.6178719401359558e-01" purity="3.7323883175849915e-01" nType="-99"/>
        </Node>
      </Node>
    </BinaryTree>
    <BinaryTree type="DecisionTree" boostWeight="1.0000000000000000e+00" itree="740">
      <Node pos="s" depth="0" NCoef="0" IVar="3" Cut="8.7397348880767822e-01" cType="1" res="-2.5980025529861450e-03" rms="4.6437811851501465e-01" purity="5.0421434640884399e-01" nType="0">
        <Node pos="l" depth="1" NCoef="0" IVar="1" Cut="1.3244029235839844e+02" cType="1" res="-4.1805863380432129e-02" rms="4.5927667617797852e-01" purity="3.8036188483238220e-01" nType="0">
          <Node pos="l" depth="2" NCoef="0" IVar="-1" Cut="0.0000000000000000e+00" cType="1" res="-2.2007864026818424e-04" rms="4.7067245841026306e-01" purity="4.2649039626121521e-01" nType="-99"/>
          <Node pos="r" depth="2" NCoef="0" IVar="-1" Cut="0.0000000000000000e+00" cType="1" res="-1.2119415914639831e-03" rms="4.2216271162033081e-01" purity="2.6260063052177429e-01" nType="-99"/>
        </Node>
        <Node pos="r" depth="1" NCoef="0" IVar="2" Cut="8.4930480957031250e+02" cType="1" res="1.5354503877460957e-02" rms="4.6559464931488037e-01" purity="5.6092393398284912e-01" nType="0">
          <Node pos="l" depth="2" NCoef="0" IVar="-1" Cut="0.0000000000000000e+00" cType="1" res="1.4854077016934752e-03" rms="4.4829550385475159e-01" purity="6.5448534488677979e-01" nType="-99"/>
          <Node pos="r" depth="2" NCoef="0" IVar="-1" Cut="0.0000000000000000e+00" cType="1" res="-1.6699588741175830e-04" rms="4.7081667184829712e-01" purity="5.1925414800643921e-01" nType="-99"/>
        </Node>
      </Node>
    </BinaryTree>
    <BinaryTree type="DecisionTree" boostWeight="1.0000000000000000e+00" itree="741">
      <Node pos="s" depth="0" NCoef="0" IVar="2" Cut="1.0000457153320312e+03" cType="1" res="-1.8228659406304359e-02" rms="4.6688610315322876e-01" purity="4.8999446630477905e-01" nType="0">
        <Node pos="l" depth="1" NCoef="0" IVar="5" Cut="7.7521991729736328e-01" cType="1" res="1.2116347439587116e-02" rms="4.6835201978683472e-01" purity="5.4420924186706543e-01" nType="0">
          <Node pos="l" depth="2" NCoef="0" IVar="-1" Cut="0.0000000000000000e+00" cType="1" res="-8.0098019680008292e-05" rms="4.7178685665130615e-01" purity="5.2091485261917114e-01" nType="-99"/>
          <Node pos="r" depth="2" NCoef="0" IVar="-1" Cut="0.0000000000000000e+00" cType="1" res="2.7207776438444853e-03" rms="4.2638301849365234e-01" purity="7.0257234573364258e-01" nType="-99"/>
        </Node>
        <Node pos="r" depth="1" NCoef="0" IVar="4" Cut="1.0813436279296875e+03" cType="1" res="-4.5385994017124176e-02" rms="4.6389013528823853e-01" purity="4.4147479534149170e-01" nType="0">
          <Node pos="l" depth="2" NCoef="0" IVar="-1" Cut="0.0000000000000000e+00" cType="1" res="-9.2326733283698559e-04" rms="4.6118238568305969e-01" purity="4.1647425293922424e-01" nType="-99"/>
          <Node pos="r" depth="2" NCoef="0" IVar="-1" Cut="0.0000000000000000e+00" cType="1" res="1.6386614879593253e-04" rms="4.6632316708564758e-01" purity="5.0722932815551758e-01" nType="-99"/>
        </Node>
      </Node>
    </BinaryTree>
    <BinaryTree type="DecisionTree" boostWeight="1.0000000000000000e+00" itree="742">
      <Node pos="s" depth="0" NCoef="0" IVar="0" Cut="6.8099517822265625e+01" cType="1" res="-3.1968562398105860e-03" rms="4.6903759241104126e-01" purity="5.0671398639678955e-01" nType="0">
        <Node pos="l" depth="1" NCoef="0" IVar="-1" Cut="0.0000000000000000e+00" cType="1" res="-1.0424208594486117e-03" rms="4.4717445969581604e-01" purity="3.3569094538688660e-01" nType="-99"/>
        <Node pos="r" depth="1" NCoef="0" IVar="0" Cut="4.5974069213867188e+02" cType="1" res="5.3650462068617344e-03" rms="4.7069227695465088e-01" purity="5.2612888813018799e-01" nType="0">
          <Node pos="l" depth="2" NCoef="0" IVar="-1" Cut="0.0000000000000000e+00" cType="1" res="2.1592414123006165e-04" rms="4.7170355916023254e-01" purity="5.4506695270538330e-01" nType="-99"/>
          <Node pos="r" depth="2" NCoef="0" IVar="-1" Cut="0.0000000000000000e+00" cType="1" res="-1.0600537061691284e-03" rms="4.4930002093315125e-01" purity="3.0778327584266663e-01" nType="-99"/>
        </Node>
      </Node>
    </BinaryTree>
    <BinaryTree type="DecisionTree" boostWeight="1.0000000000000000e+00" itree="743">
      <Node pos="s" depth="0" NCoef="0" IVar="0" Cut="4.2080157470703125e+02" cType="1" res="-1.0576334781944752e-02" rms="4.6889320015907288e-01" purity="4.9958646297454834e-01" nType="0">
        <Node pos="l" depth="1" NCoef="0" IVar="4" Cut="9.9642852783203125e+02" cType="1" res="-3.4310815390199423e-03" rms="4.7000056505203247e-01" purity="5.1825076341629028e-01" nType="0">
          <Node pos="l" depth="2" NCoef="0" IVar="-1" Cut="0.0000000000000000e+00" cType="1" res="-2.7222128119319677e-04" rms="4.6965512633323669e-01" purity="5.0048989057540894e-01" nType="-99"/>
          <Node pos="r" depth="2" NCoef="0" IVar="-1" Cut="0.0000000000000000e+00" cType="1" res="1.3192879268899560e-03" rms="4.6393227577209473e-01" purity="6.1797350645065308e-01" nType="-99"/>
        </Node>
        <Node pos="r" depth="1" NCoef="0" IVar="-1" Cut="0.0000000000000000e+00" cType="1" res="-1.0096746264025569e-03" rms="4.5180842280387878e-01" purity="3.1545317173004150e-01" nType="-99"/>
      </Node>
    </BinaryTree>
    <BinaryTree type="DecisionTree" boostWeight="1.0000000000000000e+00" itree="744">
      <Node pos="s" depth="0" NCoef="0" IVar="4" Cut="5.4132385253906250e+02" cType="1" res="-1.0494095273315907e-02" rms="4.6783247590065002e-01" purity="4.9961379170417786e-01" nType="0">
        <Node pos="l" depth="1" NCoef="0" IVar="0" Cut="1.3922158813476562e+02" cType="1" res="-7.6079331338405609e-02" rms="4.5959225296974182e-01" purity="4.2445608973503113e-01" nType="0">
          <Node pos="l" depth="2" NCoef="0" IVar="-1" Cut="0.0000000000000000e+00" cType="1" res="-3.1693693017587066e-04" rms="4.7372809052467346e-01" purity="5.0445568561553955e-01" nType="-99"/>
          <Node pos="r" depth="2" NCoef="0" IVar="-1" Cut="0.0000000000000000e+00" cType="1" res="-1.8745557172223926e-03" rms="4.1953754425048828e-01" purity="2.9247665405273438e-01" nType="-99"/>
        </Node>
        <Node pos="r" depth="1" NCoef="0" IVar="1" Cut="1.4281646728515625e+02" cType="1" res="4.8330705612897873e-03" rms="4.6841543912887573e-01" purity="5.1717799901962280e-01" nType="0">
          <Node pos="l" depth="2" NCoef="0" IVar="-1" Cut="0.0000000000000000e+00" cType="1" res="3.0988306389190257e-04" rms="4.7120758891105652e-01" purity="5.5107736587524414e-01" nType="-99"/>
          <Node pos="r" depth="2" NCoef="0" IVar="-1" Cut="0.0000000000000000e+00" cType="1" res="-1.1162849841639400e-03" rms="4.3619403243064880e-01" purity="2.8006112575531006e-01" nType="-99"/>
        </Node>
      </Node>
    </BinaryTree>
    <BinaryTree type="DecisionTree" boostWeight="1.0000000000000000e+00" itree="745">
      <Node pos="s" depth="0" NCoef="0" IVar="1" Cut="1.0875257110595703e+02" cType="1" res="-2.0546250045299530e-02" rms="4.6969118714332581e-01" purity="4.9005630612373352e-01" nType="0">
        <Node pos="l" depth="1" NCoef="0" IVar="2" Cut="1.0389183349609375e+03" cType="1" res="-8.1398904323577881e-02" rms="4.5623716711997986e-01" purity="3.5444176197052002e-01" nType="0">
          <Node pos="l" depth="2" NCoef="0" IVar="-1" Cut="0.0000000000000000e+00" cType="1" res="-2.6987033197656274e-04" rms="4.6185246109962463e-01" purity="4.3612366914749146e-01" nType="-99"/>
          <Node pos="r" depth="2" NCoef="0" IVar="-1" Cut="0.0000000000000000e+00" cType="1" res="-1.5268097631633282e-03" rms="4.4649884104728699e-01" purity="2.9517915844917297e-01" nType="-99"/>
        </Node>
        <Node pos="r" depth="1" NCoef="0" IVar="4" Cut="9.0034338378906250e+02" cType="1" res="-9.9479528144001961e-03" rms="4.7119230031967163e-01" purity="5.1367539167404175e-01" nType="0">
          <Node pos="l" depth="2" NCoef="0" IVar="-1" Cut="0.0000000000000000e+00" cType="1" res="-4.2487416067160666e-04" rms="4.7107979655265808e-01" purity="4.9448284506797791e-01" nType="-99"/>
          <Node pos="r" depth="2" NCoef="0" IVar="-1" Cut="0.0000000000000000e+00" cType="1" res="6.9921830436214805e-04" rms="4.6772709488868713e-01" purity="5.6962275505065918e-01" nType="-99"/>
        </Node>
      </Node>
    </BinaryTree>
    <BinaryTree type="DecisionTree" boostWeight="1.0000000000000000e+00" itree="746">
      <Node pos="s" depth="0" NCoef="0" IVar="4" Cut="4.7788293457031250e+02" cType="1" res="-9.8364092409610748e-03" rms="4.7172069549560547e-01" purity="5.0105249881744385e-01" nType="0">
        <Node pos="l" depth="1" NCoef="0" IVar="-1" Cut="0.0000000000000000e+00" cType="1" res="-1.4847507700324059e-03" rms="4.5988252758979797e-01" purity="3.8172653317451477e-01" nType="-99"/>
        <Node pos="r" depth="1" NCoef="0" IVar="2" Cut="7.3014843750000000e+02" cType="1" res="5.4238783195614815e-04" rms="4.7168692946434021e-01" purity="5.1326310634613037e-01" nType="0">
          <Node pos="l" depth="2" NCoef="0" IVar="-1" Cut="0.0000000000000000e+00" cType="1" res="1.7788936384022236e-03" rms="4.5409056544303894e-01" purity="6.7222654819488525e-01" nType="-99"/>
          <Node pos="r" depth="2" NCoef="0" IVar="-1" Cut="0.0000000000000000e+00" cType="1" res="-1.5279425133485347e-04" rms="4.7283208370208740e-01" purity="4.9311140179634094e-01" nType="-99"/>
        </Node>
      </Node>
    </BinaryTree>
    <BinaryTree type="DecisionTree" boostWeight="1.0000000000000000e+00" itree="747">
      <Node pos="s" depth="0" NCoef="0" IVar="1" Cut="1.4556765747070312e+02" cType="1" res="-4.0807458572089672e-03" rms="4.6832281351089478e-01" purity="5.0504469871520996e-01" nType="0">
        <Node pos="l" depth="1" NCoef="0" IVar="4" Cut="8.4837408447265625e+02" cType="1" res="6.4732842147350311e-03" rms="4.7094735503196716e-01" purity="5.3095573186874390e-01" nType="0">
          <Node pos="l" depth="2" NCoef="0" IVar="-1" Cut="0.0000000000000000e+00" cType="1" res="-1.7637446580920368e-04" rms="4.6993702650070190e-01" purity="5.0885570049285889e-01" nType="-99"/>
          <Node pos="r" depth="2" NCoef="0" IVar="-1" Cut="0.0000000000000000e+00" cType="1" res="8.7739183800294995e-04" rms="4.7056153416633606e-01" purity="5.8472889661788940e-01" nType="-99"/>
        </Node>
        <Node pos="r" depth="1" NCoef="0" IVar="-1" Cut="0.0000000000000000e+00" cType="1" res="-1.2590121477842331e-03" rms="4.3032723665237427e-01" purity="2.6102113723754883e-01" nType="-99"/>
      </Node>
    </BinaryTree>
    <BinaryTree type="DecisionTree" boostWeight="1.0000000000000000e+00" itree="748">
      <Node pos="s" depth="0" NCoef="0" IVar="4" Cut="1.0467618408203125e+03" cType="1" res="-1.7569215968251228e-02" rms="4.7014796733856201e-01" purity="4.9255093932151794e-01" nType="0">
        <Node pos="l" depth="1" NCoef="0" IVar="2" Cut="8.8443267822265625e+02" cType="1" res="-2.8158836066722870e-02" rms="4.6929663419723511e-01" purity="4.8263546824455261e-01" nType="0">
          <Node pos="l" depth="2" NCoef="0" IVar="-1" Cut="0.0000000000000000e+00" cType="1" res="1.7656479030847549e-04" rms="4.6789360046386719e-01" purity="5.4717338085174561e-01" nType="-99"/>
          <Node pos="r" depth="2" NCoef="0" IVar="-1" Cut="0.0000000000000000e+00" cType="1" res="-7.9861027188599110e-04" rms="4.6826547384262085e-01" purity="4.3499600887298584e-01" nType="-99"/>
        </Node>
        <Node pos="r" depth="1" NCoef="0" IVar="2" Cut="1.8084310302734375e+03" cType="1" res="3.8826573640108109e-02" rms="4.7065985202789307e-01" purity="5.4535669088363647e-01" nType="0">
          <Node pos="l" depth="2" NCoef="0" IVar="-1" Cut="0.0000000000000000e+00" cType="1" res="2.3775892332196236e-03" rms="4.4923385977745056e-01" purity="6.5846258401870728e-01" nType="-99"/>
          <Node pos="r" depth="2" NCoef="0" IVar="-1" Cut="0.0000000000000000e+00" cType="1" res="-5.2523153135553002e-04" rms="4.7766932845115662e-01" purity="4.3934339284896851e-01" nType="-99"/>
        </Node>
      </Node>
    </BinaryTree>
    <BinaryTree type="DecisionTree" boostWeight="1.0000000000000000e+00" itree="749">
      <Node pos="s" depth="0" NCoef="0" IVar="2" Cut="5.9487322998046875e+02" cType="1" res="-1.0674526914954185e-02" rms="4.6833673119544983e-01" purity="4.9649393558502197e-01" nType="0">
        <Node pos="l" depth="1" NCoef="0" IVar="-1" Cut="0.0000000000000000e+00" cType="1" res="1.8783342093229294e-03" rms="4.6442458033561707e-01" purity="6.4353370666503906e-01" nType="-99"/>
        <Node pos="r" depth="1" NCoef="0" IVar="4" Cut="5.6901330566406250e+02" cType="1" res="-1.6887586563825607e-02" rms="4.6784511208534241e-01" purity="4.8764321208000183e-01" nType="0">
          <Node pos="l" depth="2" NCoef="0" IVar="-1" Cut="0.0000000000000000e+00" cType="1" res="-9.9728885106742382e-04" rms="4.4381341338157654e-01" purity="3.9023274183273315e-01" nType="-99"/>
          <Node pos="r" depth="2" NCoef="0" IVar="-1" Cut="0.0000000000000000e+00" cType="1" res="-6.6251879616174847e-05" rms="4.7217655181884766e-01" purity="5.0961261987686157e-01" nType="-99"/>
        </Node>
      </Node>
    </BinaryTree>
    <BinaryTree type="DecisionTree" boostWeight="1.0000000000000000e+00" itree="750">
      <Node pos="s" depth="0" NCoef="0" IVar="2" Cut="1.0535961914062500e+03" cType="1" res="-1.7735669389367104e-02" rms="4.6699395775794983e-01" purity="4.8894935846328735e-01" nType="0">
        <Node pos="l" depth="1" NCoef="0" IVar="4" Cut="4.8148919677734375e+02" cType="1" res="1.0999832302331924e-02" rms="4.6344870328903198e-01" purity="5.3343731164932251e-01" nType="0">
          <Node pos="l" depth="2" NCoef="0" IVar="-1" Cut="0.0000000000000000e+00" cType="1" res="-8.6813332745805383e-04" rms="4.5825901627540588e-01" purity="4.1420668363571167e-01" nType="-99"/>
          <Node pos="r" depth="2" NCoef="0" IVar="-1" Cut="0.0000000000000000e+00" cType="1" res="4.3685580021701753e-04" rms="4.6310639381408691e-01" purity="5.5759912729263306e-01" nType="-99"/>
        </Node>
        <Node pos="r" depth="1" NCoef="0" IVar="4" Cut="1.2167564697265625e+03" cType="1" res="-5.0949107855558395e-02" rms="4.6886941790580750e-01" purity="4.3752869963645935e-01" nType="0">
          <Node pos="l" depth="2" NCoef="0" IVar="-1" Cut="0.0000000000000000e+00" cType="1" res="-9.4356975750997663e-04" rms="4.6581196784973145e-01" purity="4.1643950343132019e-01" nType="-99"/>
          <Node pos="r" depth="2" NCoef="0" IVar="-1" Cut="0.0000000000000000e+00" cType="1" res="4.7081639058887959e-04" rms="4.7301232814788818e-01" purity="5.2585840225219727e-01" nType="-99"/>
        </Node>
      </Node>
    </BinaryTree>
    <BinaryTree type="DecisionTree" boostWeight="1.0000000000000000e+00" itree="751">
      <Node pos="s" depth="0" NCoef="0" IVar="0" Cut="1.0971871948242188e+02" cType="1" res="-7.6862149871885777e-03" rms="4.6949195861816406e-01" purity="5.0255471467971802e-01" nType="0">
        <Node pos="l" depth="1" NCoef="0" IVar="2" Cut="6.6095306396484375e+02" cType="1" res="-4.6064924448728561e-02" rms="4.7288355231285095e-01" purity="4.5755210518836975e-01" nType="0">
          <Node pos="l" depth="2" NCoef="0" IVar="-1" Cut="0.0000000000000000e+00" cType="1" res="2.0036736968904734e-03" rms="4.4979193806648254e-01" purity="6.4484202861785889e-01" nType="-99"/>
          <Node pos="r" depth="2" NCoef="0" IVar="-1" Cut="0.0000000000000000e+00" cType="1" res="-1.0470194974914193e-03" rms="4.7176018357276917e-01" purity="4.1699776053428650e-01" nType="-99"/>
        </Node>
        <Node pos="r" depth="1" NCoef="0" IVar="0" Cut="1.9239698791503906e+02" cType="1" res="8.8096754625439644e-03" rms="4.6705856919288635e-01" purity="5.2189767360687256e-01" nType="0">
          <Node pos="l" depth="2" NCoef="0" IVar="-1" Cut="0.0000000000000000e+00" cType="1" res="6.2848965171724558e-04" rms="4.6166267991065979e-01" purity="6.0680049657821655e-01" nType="-99"/>
          <Node pos="r" depth="2" NCoef="0" IVar="-1" Cut="0.0000000000000000e+00" cType="1" res="-2.7720935759134591e-04" rms="4.7106054425239563e-01" purity="4.3286681175231934e-01" nType="-99"/>
        </Node>
      </Node>
    </BinaryTree>
    <BinaryTree type="DecisionTree" boostWeight="1.0000000000000000e+00" itree="752">
      <Node pos="s" depth="0" NCoef="0" IVar="4" Cut="5.3330407714843750e+02" cType="1" res="-3.2329945825040340e-03" rms="4.6554198861122131e-01" purity="5.0155234336853027e-01" nType="0">
        <Node pos="l" depth="1" NCoef="0" IVar="2" Cut="6.4115197753906250e+02" cType="1" res="-7.1986868977546692e-02" rms="4.4634723663330078e-01" purity="4.1234260797500610e-01" nType="0">
          <Node pos="l" depth="2" NCoef="0" IVar="-1" Cut="0.0000000000000000e+00" cType="1" res="6.3135463278740644e-04" rms="4.6969714760780334e-01" purity="5.9275752305984497e-01" nType="-99"/>
          <Node pos="r" depth="2" NCoef="0" IVar="-1" Cut="0.0000000000000000e+00" cType="1" res="-1.9378709839656949e-03" rms="4.0576821565628052e-01" purity="2.6605570316314697e-01" nType="-99"/>
        </Node>
        <Node pos="r" depth="1" NCoef="0" IVar="2" Cut="9.8603509521484375e+02" cType="1" res="1.2443076819181442e-02" rms="4.6839797496795654e-01" purity="5.2189242839813232e-01" nType="0">
          <Node pos="l" depth="2" NCoef="0" IVar="-1" Cut="0.0000000000000000e+00" cType="1" res="1.1718998430296779e-03" rms="4.6065607666969299e-01" purity="6.0565042495727539e-01" nType="-99"/>
          <Node pos="r" depth="2" NCoef="0" IVar="-1" Cut="0.0000000000000000e+00" cType="1" res="-2.4630760890431702e-04" rms="4.7013142704963684e-01" purity="4.7566834092140198e-01" nType="-99"/>
        </Node>
      </Node>
    </BinaryTree>
    <BinaryTree type="DecisionTree" boostWeight="1.0000000000000000e+00" itree="753">
      <Node pos="s" depth="0" NCoef="0" IVar="4" Cut="5.7334155273437500e+02" cType="1" res="-5.5613699369132519e-03" rms="4.6602615714073181e-01" purity="4.9732750654220581e-01" nType="0">
        <Node pos="l" depth="1" NCoef="0" IVar="2" Cut="6.5062591552734375e+02" cType="1" res="-5.6173823773860931e-02" rms="4.5175787806510925e-01" purity="4.2849555611610413e-01" nType="0">
          <Node pos="l" depth="2" NCoef="0" IVar="-1" Cut="0.0000000000000000e+00" cType="1" res="5.2437395788729191e-04" rms="4.6565723419189453e-01" purity="5.8120846748352051e-01" nType="-99"/>
          <Node pos="r" depth="2" NCoef="0" IVar="-1" Cut="0.0000000000000000e+00" cType="1" res="-1.3600909151136875e-03" rms="4.3534511327743530e-01" purity="3.3765330910682678e-01" nType="-99"/>
        </Node>
        <Node pos="r" depth="1" NCoef="0" IVar="2" Cut="1.4944525146484375e+03" cType="1" res="1.1484831571578979e-02" rms="4.6950772404670715e-01" purity="5.2051007747650146e-01" nType="0">
          <Node pos="l" depth="2" NCoef="0" IVar="-1" Cut="0.0000000000000000e+00" cType="1" res="5.7806156110018492e-04" rms="4.6674951910972595e-01" purity="5.5974531173706055e-01" nType="-99"/>
          <Node pos="r" depth="2" NCoef="0" IVar="-1" Cut="0.0000000000000000e+00" cType="1" res="-7.0923293242231011e-04" rms="4.7125643491744995e-01" purity="4.0831130743026733e-01" nType="-99"/>
        </Node>
      </Node>
    </BinaryTree>
    <BinaryTree type="DecisionTree" boostWeight="1.0000000000000000e+00" itree="754">
      <Node pos="s" depth="0" NCoef="0" IVar="4" Cut="6.5258892822265625e+02" cType="1" res="-1.5233013546094298e-03" rms="4.6838000416755676e-01" purity="5.0639069080352783e-01" nType="0">
        <Node pos="l" depth="1" NCoef="0" IVar="2" Cut="6.1763269042968750e+02" cType="1" res="-3.1002135947346687e-02" rms="4.6295726299285889e-01" purity="4.6138289570808411e-01" nType="0">
          <Node pos="l" depth="2" NCoef="0" IVar="-1" Cut="0.0000000000000000e+00" cType="1" res="2.7302948292344809e-03" rms="4.4688409566879272e-01" purity="6.9208759069442749e-01" nType="-99"/>
          <Node pos="r" depth="2" NCoef="0" IVar="-1" Cut="0.0000000000000000e+00" cType="1" res="-8.3114881999790668e-04" rms="4.5997452735900879e-01" purity="4.1900804638862610e-01" nType="-99"/>
        </Node>
        <Node pos="r" depth="1" NCoef="0" IVar="2" Cut="8.6867364501953125e+02" cType="1" res="1.7960535362362862e-02" rms="4.7091811895370483e-01" purity="5.3613829612731934e-01" nType="0">
          <Node pos="l" depth="2" NCoef="0" IVar="-1" Cut="0.0000000000000000e+00" cType="1" res="3.3961434382945299e-03" rms="4.1281887888908386e-01" purity="7.2602117061614990e-01" nType="-99"/>
          <Node pos="r" depth="2" NCoef="0" IVar="-1" Cut="0.0000000000000000e+00" cType="1" res="8.2452621427364647e-05" rms="4.7405982017517090e-01" purity="5.1821690797805786e-01" nType="-99"/>
        </Node>
      </Node>
    </BinaryTree>
    <BinaryTree type="DecisionTree" boostWeight="1.0000000000000000e+00" itree="755">
      <Node pos="s" depth="0" NCoef="0" IVar="4" Cut="6.8293841552734375e+02" cType="1" res="-1.5458585694432259e-02" rms="4.6366697549819946e-01" purity="4.8816525936126709e-01" nType="0">
        <Node pos="l" depth="1" NCoef="0" IVar="2" Cut="7.3375549316406250e+02" cType="1" res="-4.8773642629384995e-02" rms="4.5700880885124207e-01" purity="4.3664041161537170e-01" nType="0">
          <Node pos="l" depth="2" NCoef="0" IVar="-1" Cut="0.0000000000000000e+00" cType="1" res="6.3477852381765842e-04" rms="4.6503835916519165e-01" purity="5.9917598962783813e-01" nType="-99"/>
          <Node pos="r" depth="2" NCoef="0" IVar="-1" Cut="0.0000000000000000e+00" cType="1" res="-1.2246862752363086e-03" rms="4.4494405388832092e-01" purity="3.4055450558662415e-01" nType="-99"/>
        </Node>
        <Node pos="r" depth="1" NCoef="0" IVar="1" Cut="1.4106716918945312e+02" cType="1" res="1.1241523548960686e-02" rms="4.6722316741943359e-01" purity="5.2945947647094727e-01" nType="0">
          <Node pos="l" depth="2" NCoef="0" IVar="-1" Cut="0.0000000000000000e+00" cType="1" res="4.9045874038711190e-04" rms="4.6967053413391113e-01" purity="5.7085263729095459e-01" nType="-99"/>
          <Node pos="r" depth="2" NCoef="0" IVar="-1" Cut="0.0000000000000000e+00" cType="1" res="-1.0331134544685483e-03" rms="4.4120335578918457e-01" purity="3.0081605911254883e-01" nType="-99"/>
        </Node>
      </Node>
    </BinaryTree>
    <BinaryTree type="DecisionTree" boostWeight="1.0000000000000000e+00" itree="756">
      <Node pos="s" depth="0" NCoef="0" IVar="3" Cut="8.6431002616882324e-01" cType="1" res="-4.0799900889396667e-03" rms="4.6240857243537903e-01" purity="5.0094252824783325e-01" nType="0">
        <Node pos="l" depth="1" NCoef="0" IVar="3" Cut="8.5518622398376465e-01" cType="1" res="-7.8174509108066559e-02" rms="4.5239916443824768e-01" purity="3.3304560184478760e-01" nType="0">
          <Node pos="l" depth="2" NCoef="0" IVar="-1" Cut="0.0000000000000000e+00" cType="1" res="-2.7562744799070060e-04" rms="4.7696298360824585e-01" purity="4.0033251047134399e-01" nType="-99"/>
          <Node pos="r" depth="2" NCoef="0" IVar="-1" Cut="0.0000000000000000e+00" cType="1" res="-1.2101178290322423e-03" rms="4.3601739406585693e-01" purity="2.9784202575683594e-01" nType="-99"/>
        </Node>
        <Node pos="r" depth="1" NCoef="0" IVar="2" Cut="6.8409606933593750e+02" cType="1" res="1.5532180666923523e-02" rms="4.6304166316986084e-01" purity="5.4538339376449585e-01" nType="0">
          <Node pos="l" depth="2" NCoef="0" IVar="-1" Cut="0.0000000000000000e+00" cType="1" res="1.8592915730550885e-03" rms="4.4595786929130554e-01" purity="6.8368047475814819e-01" nType="-99"/>
          <Node pos="r" depth="2" NCoef="0" IVar="-1" Cut="0.0000000000000000e+00" cType="1" res="7.8856981417629868e-05" rms="4.6462136507034302e-01" purity="5.2460837364196777e-01" nType="-99"/>
        </Node>
      </Node>
    </BinaryTree>
    <BinaryTree type="DecisionTree" boostWeight="1.0000000000000000e+00" itree="757">
      <Node pos="s" depth="0" NCoef="0" IVar="0" Cut="1.5358863830566406e+02" cType="1" res="-1.8846269696950912e-02" rms="4.6656504273414612e-01" purity="4.8832839727401733e-01" nType="0">
        <Node pos="l" depth="1" NCoef="0" IVar="1" Cut="1.2365489196777344e+02" cType="1" res="6.9819227792322636e-03" rms="4.6473363041877747e-01" purity="5.4898554086685181e-01" nType="0">
          <Node pos="l" depth="2" NCoef="0" IVar="-1" Cut="0.0000000000000000e+00" cType="1" res="-5.1793950842693448e-04" rms="4.7262668609619141e-01" purity="5.1548796892166138e-01" nType="-99"/>
          <Node pos="r" depth="2" NCoef="0" IVar="-1" Cut="0.0000000000000000e+00" cType="1" res="8.5120310541242361e-04" rms="4.5232349634170532e-01" purity="5.8469599485397339e-01" nType="-99"/>
        </Node>
        <Node pos="r" depth="1" NCoef="0" IVar="1" Cut="1.2685733795166016e+02" cType="1" res="-4.6040203422307968e-02" rms="4.6694415807723999e-01" purity="4.2446386814117432e-01" nType="0">
          <Node pos="l" depth="2" NCoef="0" IVar="-1" Cut="0.0000000000000000e+00" cType="1" res="-2.5111416471190751e-04" rms="4.6938970685005188e-01" purity="4.7414648532867432e-01" nType="-99"/>
          <Node pos="r" depth="2" NCoef="0" IVar="-1" Cut="0.0000000000000000e+00" cType="1" res="-1.0645251022651792e-03" rms="4.6140950918197632e-01" purity="3.6308416724205017e-01" nType="-99"/>
        </Node>
      </Node>
    </BinaryTree>
    <BinaryTree type="DecisionTree" boostWeight="1.0000000000000000e+00" itree="758">
      <Node pos="s" depth="0" NCoef="0" IVar="4" Cut="7.3142663574218750e+02" cType="1" res="-1.6595013439655304e-02" rms="4.6522310376167297e-01" purity="4.8971888422966003e-01" nType="0">
        <Node pos="l" depth="1" NCoef="0" IVar="2" Cut="7.4040264892578125e+02" cType="1" res="-4.1321627795696259e-02" rms="4.5834371447563171e-01" purity="4.5516961812973022e-01" nType="0">
          <Node pos="l" depth="2" NCoef="0" IVar="-1" Cut="0.0000000000000000e+00" cType="1" res="5.1166303455829620e-04" rms="4.5877471566200256e-01" purity="5.8880388736724854e-01" nType="-99"/>
          <Node pos="r" depth="2" NCoef="0" IVar="-1" Cut="0.0000000000000000e+00" cType="1" res="-1.0241466807201505e-03" rms="4.5380344986915588e-01" purity="3.8525998592376709e-01" nType="-99"/>
        </Node>
        <Node pos="r" depth="1" NCoef="0" IVar="3" Cut="8.6118984222412109e-01" cType="1" res="1.0604763403534889e-02" rms="4.7117856144905090e-01" purity="5.2772378921508789e-01" nType="0">
          <Node pos="l" depth="2" NCoef="0" IVar="-1" Cut="0.0000000000000000e+00" cType="1" res="-8.1045570550486445e-04" rms="4.7093331813812256e-01" purity="3.6936369538307190e-01" nType="-99"/>
          <Node pos="r" depth="2" NCoef="0" IVar="-1" Cut="0.0000000000000000e+00" cType="1" res="4.6067783841863275e-04" rms="4.6966227889060974e-01" purity="5.6098902225494385e-01" nType="-99"/>
        </Node>
      </Node>
    </BinaryTree>
    <BinaryTree type="DecisionTree" boostWeight="1.0000000000000000e+00" itree="759">
      <Node pos="s" depth="0" NCoef="0" IVar="4" Cut="7.0792687988281250e+02" cType="1" res="-9.3581993132829666e-03" rms="4.6863573789596558e-01" purity="4.9846616387367249e-01" nType="0">
        <Node pos="l" depth="1" NCoef="0" IVar="2" Cut="8.9770855712890625e+02" cType="1" res="-4.7759559005498886e-02" rms="4.6702101826667786e-01" purity="4.4580933451652527e-01" nType="0">
          <Node pos="l" depth="2" NCoef="0" IVar="-1" Cut="0.0000000000000000e+00" cType="1" res="-2.2995533072389662e-04" rms="4.7419574856758118e-01" purity="5.1470971107482910e-01" nType="-99"/>
          <Node pos="r" depth="2" NCoef="0" IVar="-1" Cut="0.0000000000000000e+00" cType="1" res="-1.4493709895759821e-03" rms="4.4142454862594604e-01" purity="2.9101887345314026e-01" nType="-99"/>
        </Node>
        <Node pos="r" depth="1" NCoef="0" IVar="0" Cut="2.8470248413085938e+02" cType="1" res="3.0078088864684105e-02" rms="4.6701323986053467e-01" purity="5.5254215002059937e-01" nType="0">
          <Node pos="l" depth="2" NCoef="0" IVar="-1" Cut="0.0000000000000000e+00" cType="1" res="9.9419674370437860e-04" rms="4.5876353979110718e-01" purity="6.0968029499053955e-01" nType="-99"/>
          <Node pos="r" depth="2" NCoef="0" IVar="-1" Cut="0.0000000000000000e+00" cType="1" res="-4.0408730274066329e-04" rms="4.8080754280090332e-01" purity="4.1829282045364380e-01" nType="-99"/>
        </Node>
      </Node>
    </BinaryTree>
    <BinaryTree type="DecisionTree" boostWeight="1.0000000000000000e+00" itree="760">
      <Node pos="s" depth="0" NCoef="0" IVar="0" Cut="4.2080157470703125e+02" cType="1" res="-6.4359130337834358e-03" rms="4.6560466289520264e-01" purity="4.9933531880378723e-01" nType="0">
        <Node pos="l" depth="1" NCoef="0" IVar="4" Cut="8.2688043212890625e+02" cType="1" res="2.3922317195683718e-03" rms="4.6689483523368835e-01" purity="5.1966321468353271e-01" nType="0">
          <Node pos="l" depth="2" NCoef="0" IVar="-1" Cut="0.0000000000000000e+00" cType="1" res="-3.6745663965120912e-04" rms="4.6406579017639160e-01" purity="4.8240786790847778e-01" nType="-99"/>
          <Node pos="r" depth="2" NCoef="0" IVar="-1" Cut="0.0000000000000000e+00" cType="1" res="1.1583539890125394e-03" rms="4.6757221221923828e-01" purity="6.0648864507675171e-01" nType="-99"/>
        </Node>
        <Node pos="r" depth="1" NCoef="0" IVar="-1" Cut="0.0000000000000000e+00" cType="1" res="-1.1111065978184342e-03" rms="4.4414475560188293e-01" purity="3.0387490987777710e-01" nType="-99"/>
      </Node>
    </BinaryTree>
    <BinaryTree type="DecisionTree" boostWeight="1.0000000000000000e+00" itree="761">
      <Node pos="s" depth="0" NCoef="0" IVar="1" Cut="9.9469924926757812e+01" cType="1" res="-9.8650101572275162e-03" rms="4.6750399470329285e-01" purity="5.0029057264328003e-01" nType="0">
        <Node pos="l" depth="1" NCoef="0" IVar="-1" Cut="0.0000000000000000e+00" cType="1" res="-1.1393516324460506e-03" rms="4.3888378143310547e-01" purity="2.8580725193023682e-01" nType="-99"/>
        <Node pos="r" depth="1" NCoef="0" IVar="3" Cut="8.6758041381835938e-01" cType="1" res="-2.8772503137588501e-03" rms="4.6899884939193726e-01" purity="5.1734614372253418e-01" nType="0">
          <Node pos="l" depth="2" NCoef="0" IVar="-1" Cut="0.0000000000000000e+00" cType="1" res="-6.4010586356744170e-04" rms="4.7111177444458008e-01" purity="3.8241359591484070e-01" nType="-99"/>
          <Node pos="r" depth="2" NCoef="0" IVar="-1" Cut="0.0000000000000000e+00" cType="1" res="2.0707816292997450e-04" rms="4.6730735898017883e-01" purity="5.6052422523498535e-01" nType="-99"/>
        </Node>
      </Node>
    </BinaryTree>
    <BinaryTree type="DecisionTree" boostWeight="1.0000000000000000e+00" itree="762">
      <Node pos="s" depth="0" NCoef="0" IVar="2" Cut="1.8935605468750000e+03" cType="1" res="-1.9048875197768211e-02" rms="4.6411806344985962e-01" purity="4.8780941963195801e-01" nType="0">
        <Node pos="l" depth="1" NCoef="0" IVar="3" Cut="8.7372231483459473e-01" cType="1" res="-5.7552712969481945e-03" rms="4.6440184116363525e-01" purity="5.0618982315063477e-01" nType="0">
          <Node pos="l" depth="2" NCoef="0" IVar="-1" Cut="0.0000000000000000e+00" cType="1" res="-5.8714929036796093e-04" rms="4.6343582868576050e-01" purity="3.8102340698242188e-01" nType="-99"/>
          <Node pos="r" depth="2" NCoef="0" IVar="-1" Cut="0.0000000000000000e+00" cType="1" res="2.1670589921995997e-04" rms="4.6367898583412170e-01" purity="5.6247246265411377e-01" nType="-99"/>
        </Node>
        <Node pos="r" depth="1" NCoef="0" IVar="-1" Cut="0.0000000000000000e+00" cType="1" res="-1.6025198856368661e-03" rms="4.4391000270843506e-01" purity="3.2201546430587769e-01" nType="-99"/>
      </Node>
    </BinaryTree>
    <BinaryTree type="DecisionTree" boostWeight="1.0000000000000000e+00" itree="763">
      <Node pos="s" depth="0" NCoef="0" IVar="2" Cut="1.0058884277343750e+03" cType="1" res="1.3459445908665657e-02" rms="4.6298980712890625e-01" purity="5.2084785699844360e-01" nType="0">
        <Node pos="l" depth="1" NCoef="0" IVar="4" Cut="7.0539599609375000e+02" cType="1" res="4.9790486693382263e-02" rms="4.5916345715522766e-01" purity="5.8116251230239868e-01" nType="0">
          <Node pos="l" depth="2" NCoef="0" IVar="-1" Cut="0.0000000000000000e+00" cType="1" res="4.3628283310681581e-04" rms="4.6417862176895142e-01" purity="5.4200536012649536e-01" nType="-99"/>
          <Node pos="r" depth="2" NCoef="0" IVar="-1" Cut="0.0000000000000000e+00" cType="1" res="3.8987924344837666e-03" rms="4.1913115978240967e-01" purity="7.5909507274627686e-01" nType="-99"/>
        </Node>
        <Node pos="r" depth="1" NCoef="0" IVar="4" Cut="1.0862657470703125e+03" cType="1" res="-1.9381785765290260e-02" rms="4.6397998929023743e-01" purity="4.6632677316665649e-01" nType="0">
          <Node pos="l" depth="2" NCoef="0" IVar="-1" Cut="0.0000000000000000e+00" cType="1" res="-6.6114822402596474e-04" rms="4.6205350756645203e-01" purity="4.3531543016433716e-01" nType="-99"/>
          <Node pos="r" depth="2" NCoef="0" IVar="-1" Cut="0.0000000000000000e+00" cType="1" res="7.8209274215623736e-04" rms="4.6177977323532104e-01" purity="5.4367130994796753e-01" nType="-99"/>
        </Node>
      </Node>
    </BinaryTree>
    <BinaryTree type="DecisionTree" boostWeight="1.0000000000000000e+00" itree="764">
      <Node pos="s" depth="0" NCoef="0" IVar="4" Cut="6.9706341552734375e+02" cType="1" res="-8.9833559468388557e-03" rms="4.6595221757888794e-01" purity="4.9662423133850098e-01" nType="0">
        <Node pos="l" depth="1" NCoef="0" IVar="2" Cut="7.5010070800781250e+02" cType="1" res="-4.0767256170511246e-02" rms="4.5860266685485840e-01" purity="4.4619971513748169e-01" nType="0">
          <Node pos="l" depth="2" NCoef="0" IVar="-1" Cut="0.0000000000000000e+00" cType="1" res="3.7725726724602282e-04" rms="4.6454149484634399e-01" purity="5.7393133640289307e-01" nType="-99"/>
          <Node pos="r" depth="2" NCoef="0" IVar="-1" Cut="0.0000000000000000e+00" cType="1" res="-1.0959877399727702e-03" rms="4.4911438226699829e-01" purity="3.5594469308853149e-01" nType="-99"/>
        </Node>
        <Node pos="r" depth="1" NCoef="0" IVar="2" Cut="1.1526160888671875e+03" cType="1" res="2.0572356879711151e-02" rms="4.7076240181922913e-01" purity="5.4351371526718140e-01" nType="0">
          <Node pos="l" depth="2" NCoef="0" IVar="-1" Cut="0.0000000000000000e+00" cType="1" res="1.5692960005253553e-03" rms="4.5937281847000122e-01" purity="6.4971202611923218e-01" nType="-99"/>
          <Node pos="r" depth="2" NCoef="0" IVar="-1" Cut="0.0000000000000000e+00" cType="1" res="-1.4687723887618631e-04" rms="4.7387856245040894e-01" purity="4.8743981122970581e-01" nType="-99"/>
        </Node>
      </Node>
    </BinaryTree>
    <BinaryTree type="DecisionTree" boostWeight="1.0000000000000000e+00" itree="765">
      <Node pos="s" depth="0" NCoef="0" IVar="1" Cut="1.4200451660156250e+02" cType="1" res="-1.1539515107870102e-02" rms="4.6797451376914978e-01" purity="4.9818429350852966e-01" nType="0">
        <Node pos="l" depth="1" NCoef="0" IVar="1" Cut="1.0018883514404297e+02" cType="1" res="-5.1559874555096030e-04" rms="4.7203254699707031e-01" purity="5.2956682443618774e-01" nType="0">
          <Node pos="l" depth="2" NCoef="0" IVar="-1" Cut="0.0000000000000000e+00" cType="1" res="-9.8429934587329626e-04" rms="4.4525715708732605e-01" purity="3.0250421166419983e-01" nType="-99"/>
          <Node pos="r" depth="2" NCoef="0" IVar="-1" Cut="0.0000000000000000e+00" cType="1" res="1.0943545203190297e-04" rms="4.7367167472839355e-01" purity="5.4976898431777954e-01" nType="-99"/>
        </Node>
        <Node pos="r" depth="1" NCoef="0" IVar="-1" Cut="0.0000000000000000e+00" cType="1" res="-1.1112374486401677e-03" rms="4.3070933222770691e-01" purity="2.7860555052757263e-01" nType="-99"/>
      </Node>
    </BinaryTree>
    <BinaryTree type="DecisionTree" boostWeight="1.0000000000000000e+00" itree="766">
      <Node pos="s" depth="0" NCoef="0" IVar="5" Cut="4.8214259743690491e-01" cType="1" res="-4.5265811495482922e-03" rms="4.6530076861381531e-01" purity="5.0201201438903809e-01" nType="0">
        <Node pos="l" depth="1" NCoef="0" IVar="3" Cut="8.8355362415313721e-01" cType="1" res="-2.7573401108384132e-02" rms="4.6487799286842346e-01" purity="4.6959409117698669e-01" nType="0">
          <Node pos="l" depth="2" NCoef="0" IVar="-1" Cut="0.0000000000000000e+00" cType="1" res="-8.0057082232087851e-04" rms="4.5684945583343506e-01" purity="3.6233395338058472e-01" nType="-99"/>
          <Node pos="r" depth="2" NCoef="0" IVar="-1" Cut="0.0000000000000000e+00" cType="1" res="-1.6396887076552957e-05" rms="4.6950903534889221e-01" purity="5.5544376373291016e-01" nType="-99"/>
        </Node>
        <Node pos="r" depth="1" NCoef="0" IVar="2" Cut="7.4064526367187500e+02" cType="1" res="2.2440070286393166e-02" rms="4.6434494853019714e-01" purity="5.3994363546371460e-01" nType="0">
          <Node pos="l" depth="2" NCoef="0" IVar="-1" Cut="0.0000000000000000e+00" cType="1" res="4.0930020622909069e-03" rms="3.9735507965087891e-01" purity="7.5211089849472046e-01" nType="-99"/>
          <Node pos="r" depth="2" NCoef="0" IVar="-1" Cut="0.0000000000000000e+00" cType="1" res="-6.6870129558083136e-06" rms="4.6985948085784912e-01" purity="5.0675946474075317e-01" nType="-99"/>
        </Node>
      </Node>
    </BinaryTree>
    <BinaryTree type="DecisionTree" boostWeight="1.0000000000000000e+00" itree="767">
      <Node pos="s" depth="0" NCoef="0" IVar="2" Cut="5.8989062500000000e+02" cType="1" res="-2.0340394228696823e-02" rms="4.6894791722297668e-01" purity="4.8724058270454407e-01" nType="0">
        <Node pos="l" depth="1" NCoef="0" IVar="-1" Cut="0.0000000000000000e+00" cType="1" res="2.5662642437964678e-03" rms="4.6146970987319946e-01" purity="6.7262548208236694e-01" nType="-99"/>
        <Node pos="r" depth="1" NCoef="0" IVar="4" Cut="5.0806927490234375e+02" cType="1" res="-2.7722196653485298e-02" rms="4.6819102764129639e-01" purity="4.7738313674926758e-01" nType="0">
          <Node pos="l" depth="2" NCoef="0" IVar="-1" Cut="0.0000000000000000e+00" cType="1" res="-1.4597008703276515e-03" rms="4.5140036940574646e-01" purity="3.4302017092704773e-01" nType="-99"/>
          <Node pos="r" depth="2" NCoef="0" IVar="-1" Cut="0.0000000000000000e+00" cType="1" res="-3.0054978560656309e-04" rms="4.6892568469047546e-01" purity="4.8978757858276367e-01" nType="-99"/>
        </Node>
      </Node>
    </BinaryTree>
    <BinaryTree type="DecisionTree" boostWeight="1.0000000000000000e+00" itree="768">
      <Node pos="s" depth="0" NCoef="0" IVar="4" Cut="5.5900549316406250e+02" cType="1" res="-1.1108964681625366e-02" rms="4.7063860297203064e-01" purity="4.9912706017494202e-01" nType="0">
        <Node pos="l" depth="1" NCoef="0" IVar="2" Cut="6.1364404296875000e+02" cType="1" res="-6.1573397368192673e-02" rms="4.5226916670799255e-01" purity="4.2493230104446411e-01" nType="0">
          <Node pos="l" depth="2" NCoef="0" IVar="-1" Cut="0.0000000000000000e+00" cType="1" res="1.6519983764737844e-03" rms="4.5862132310867310e-01" purity="6.4316451549530029e-01" nType="-99"/>
          <Node pos="r" depth="2" NCoef="0" IVar="-1" Cut="0.0000000000000000e+00" cType="1" res="-1.4485815772786736e-03" rms="4.3693035840988159e-01" purity="3.4244620800018311e-01" nType="-99"/>
        </Node>
        <Node pos="r" depth="1" NCoef="0" IVar="2" Cut="1.0979783935546875e+03" cType="1" res="4.5835976488888264e-03" rms="4.7511509060859680e-01" purity="5.2219885587692261e-01" nType="0">
          <Node pos="l" depth="2" NCoef="0" IVar="-1" Cut="0.0000000000000000e+00" cType="1" res="7.3432840872555971e-04" rms="4.6786379814147949e-01" purity="5.8619350194931030e-01" nType="-99"/>
          <Node pos="r" depth="2" NCoef="0" IVar="-1" Cut="0.0000000000000000e+00" cType="1" res="-4.2794234468601644e-04" rms="4.7899103164672852e-01" purity="4.6567708253860474e-01" nType="-99"/>
        </Node>
      </Node>
    </BinaryTree>
    <BinaryTree type="DecisionTree" boostWeight="1.0000000000000000e+00" itree="769">
      <Node pos="s" depth="0" NCoef="0" IVar="1" Cut="1.2815995788574219e+02" cType="1" res="-1.1140291579067707e-02" rms="4.6784681081771851e-01" purity="4.9760288000106812e-01" nType="0">
        <Node pos="l" depth="1" NCoef="0" IVar="5" Cut="8.3142817020416260e-01" cType="1" res="7.0598907768726349e-03" rms="4.7021624445915222e-01" purity="5.3915476799011230e-01" nType="0">
          <Node pos="l" depth="2" NCoef="0" IVar="-1" Cut="0.0000000000000000e+00" cType="1" res="-5.0173788622487336e-05" rms="4.7045266628265381e-01" purity="5.2132874727249146e-01" nType="-99"/>
          <Node pos="r" depth="2" NCoef="0" IVar="-1" Cut="0.0000000000000000e+00" cType="1" res="2.5950889103114605e-03" rms="4.5531296730041504e-01" purity="7.1667152643203735e-01" nType="-99"/>
        </Node>
        <Node pos="r" depth="1" NCoef="0" IVar="3" Cut="8.7351536750793457e-01" cType="1" res="-4.2307671159505844e-02" rms="4.6209925413131714e-01" purity="4.2644628882408142e-01" nType="0">
          <Node pos="l" depth="2" NCoef="0" IVar="-1" Cut="0.0000000000000000e+00" cType="1" res="-1.1571182403713465e-03" rms="4.3657392263412476e-01" purity="2.9023140668869019e-01" nType="-99"/>
          <Node pos="r" depth="2" NCoef="0" IVar="-1" Cut="0.0000000000000000e+00" cType="1" res="-2.6942891418002546e-04" rms="4.7170788049697876e-01" purity="4.9138343334197998e-01" nType="-99"/>
        </Node>
      </Node>
    </BinaryTree>
    <BinaryTree type="DecisionTree" boostWeight="1.0000000000000000e+00" itree="770">
      <Node pos="s" depth="0" NCoef="0" IVar="2" Cut="1.1623690185546875e+03" cType="1" res="2.0470984745770693e-03" rms="4.6615719795227051e-01" purity="5.1105850934982300e-01" nType="0">
        <Node pos="l" depth="1" NCoef="0" IVar="4" Cut="5.9012054443359375e+02" cType="1" res="1.9292371347546577e-02" rms="4.6460723876953125e-01" purity="5.4382139444351196e-01" nType="0">
          <Node pos="l" depth="2" NCoef="0" IVar="-1" Cut="0.0000000000000000e+00" cType="1" res="-4.2656116420403123e-04" rms="4.6211045980453491e-01" purity="4.7503674030303955e-01" nType="-99"/>
          <Node pos="r" depth="2" NCoef="0" IVar="-1" Cut="0.0000000000000000e+00" cType="1" res="9.9409790709614754e-04" rms="4.6321490406990051e-01" purity="5.9663444757461548e-01" nType="-99"/>
        </Node>
        <Node pos="r" depth="1" NCoef="0" IVar="4" Cut="1.0820654296875000e+03" cType="1" res="-2.6622828096151352e-02" rms="4.6731629967689514e-01" purity="4.5659092068672180e-01" nType="0">
          <Node pos="l" depth="2" NCoef="0" IVar="-1" Cut="0.0000000000000000e+00" cType="1" res="-8.6774298688396811e-04" rms="4.6399027109146118e-01" purity="4.1110453009605408e-01" nType="-99"/>
          <Node pos="r" depth="2" NCoef="0" IVar="-1" Cut="0.0000000000000000e+00" cType="1" res="4.7432407154701650e-04" rms="4.6679392457008362e-01" purity="5.2576845884323120e-01" nType="-99"/>
        </Node>
      </Node>
    </BinaryTree>
    <BinaryTree type="DecisionTree" boostWeight="1.0000000000000000e+00" itree="771">
      <Node pos="s" depth="0" NCoef="0" IVar="2" Cut="1.4236568603515625e+03" cType="1" res="-1.3548403978347778e-02" rms="4.6774318814277649e-01" purity="4.9656757712364197e-01" nType="0">
        <Node pos="l" depth="1" NCoef="0" IVar="4" Cut="8.9659686279296875e+02" cType="1" res="6.8729044869542122e-03" rms="4.6616250276565552e-01" purity="5.3018802404403687e-01" nType="0">
          <Node pos="l" depth="2" NCoef="0" IVar="-1" Cut="0.0000000000000000e+00" cType="1" res="-1.9423500634729862e-04" rms="4.6499559283256531e-01" purity="5.0260102748870850e-01" nType="-99"/>
          <Node pos="r" depth="2" NCoef="0" IVar="-1" Cut="0.0000000000000000e+00" cType="1" res="3.2916180789470673e-03" rms="4.5081952214241028e-01" purity="7.2757929563522339e-01" nType="-99"/>
        </Node>
        <Node pos="r" depth="1" NCoef="0" IVar="4" Cut="1.2163547363281250e+03" cType="1" res="-7.8703135251998901e-02" rms="4.6681672334671021e-01" purity="3.8930064439773560e-01" nType="0">
          <Node pos="l" depth="2" NCoef="0" IVar="-1" Cut="0.0000000000000000e+00" cType="1" res="-1.6025090590119362e-03" rms="4.5154801011085510e-01" purity="3.2185298204421997e-01" nType="-99"/>
          <Node pos="r" depth="2" NCoef="0" IVar="-1" Cut="0.0000000000000000e+00" cType="1" res="1.3587446301244199e-04" rms="4.7742807865142822e-01" purity="4.9780043959617615e-01" nType="-99"/>
        </Node>
      </Node>
    </BinaryTree>
    <BinaryTree type="DecisionTree" boostWeight="1.0000000000000000e+00" itree="772">
      <Node pos="s" depth="0" NCoef="0" IVar="0" Cut="1.6297673034667969e+02" cType="1" res="-1.7673552036285400e-02" rms="4.6497753262519836e-01" purity="4.8895224928855896e-01" nType="0">
        <Node pos="l" depth="1" NCoef="0" IVar="4" Cut="4.7788293457031250e+02" cType="1" res="7.5979568064212799e-03" rms="4.6584534645080566e-01" purity="5.5414563417434692e-01" nType="0">
          <Node pos="l" depth="2" NCoef="0" IVar="-1" Cut="0.0000000000000000e+00" cType="1" res="-1.2459524441510439e-03" rms="4.7054901719093323e-01" purity="4.1746339201927185e-01" nType="-99"/>
          <Node pos="r" depth="2" NCoef="0" IVar="-1" Cut="0.0000000000000000e+00" cType="1" res="4.1006974061019719e-04" rms="4.6305295825004578e-01" purity="5.7666623592376709e-01" nType="-99"/>
        </Node>
        <Node pos="r" depth="1" NCoef="0" IVar="4" Cut="8.7326281738281250e+02" cType="1" res="-4.6171784400939941e-02" rms="4.6234279870986938e-01" purity="4.1543483734130859e-01" nType="0">
          <Node pos="l" depth="2" NCoef="0" IVar="-1" Cut="0.0000000000000000e+00" cType="1" res="-1.0444009676575661e-03" rms="4.5047095417976379e-01" purity="3.7569689750671387e-01" nType="-99"/>
          <Node pos="r" depth="2" NCoef="0" IVar="-1" Cut="0.0000000000000000e+00" cType="1" res="1.6039026377256960e-04" rms="4.7703805565834045e-01" purity="4.8456242680549622e-01" nType="-99"/>
        </Node>
      </Node>
    </BinaryTree>
    <BinaryTree type="DecisionTree" boostWeight="1.0000000000000000e+00" itree="773">
      <Node pos="s" depth="0" NCoef="0" IVar="1" Cut="1.2972665405273438e+02" cType="1" res="-1.1779343709349632e-02" rms="4.6857875585556030e-01" purity="4.9717813730239868e-01" nType="0">
        <Node pos="l" depth="1" NCoef="0" IVar="3" Cut="9.4750559329986572e-01" cType="1" res="3.2649249769747257e-03" rms="4.6959999203681946e-01" purity="5.3715485334396362e-01" nType="0">
          <Node pos="l" depth="2" NCoef="0" IVar="-1" Cut="0.0000000000000000e+00" cType="1" res="-1.5102210454642773e-04" rms="4.7644838690757751e-01" purity="4.9967598915100098e-01" nType="-99"/>
          <Node pos="r" depth="2" NCoef="0" IVar="-1" Cut="0.0000000000000000e+00" cType="1" res="2.3833138402551413e-03" rms="4.1921707987785339e-01" purity="7.5528550148010254e-01" nType="-99"/>
        </Node>
        <Node pos="r" depth="1" NCoef="0" IVar="4" Cut="8.1329742431640625e+02" cType="1" res="-4.3254435062408447e-02" rms="4.6486267447471619e-01" purity="4.1354024410247803e-01" nType="0">
          <Node pos="l" depth="2" NCoef="0" IVar="-1" Cut="0.0000000000000000e+00" cType="1" res="-1.0472422000020742e-03" rms="4.5582345128059387e-01" purity="3.7588471174240112e-01" nType="-99"/>
          <Node pos="r" depth="2" NCoef="0" IVar="-1" Cut="0.0000000000000000e+00" cType="1" res="2.1146026483620517e-05" rms="4.7265216708183289e-01" purity="4.6256285905838013e-01" nType="-99"/>
        </Node>
      </Node>
    </BinaryTree>
    <BinaryTree type="DecisionTree" boostWeight="1.0000000000000000e+00" itree="774">
      <Node pos="s" depth="0" NCoef="0" IVar="4" Cut="5.6229266357421875e+02" cType="1" res="-1.5712987631559372e-02" rms="4.6974715590476990e-01" purity="4.9627238512039185e-01" nType="0">
        <Node pos="l" depth="1" NCoef="0" IVar="2" Cut="7.2969256591796875e+02" cType="1" res="-7.5294844806194305e-02" rms="4.5650258660316467e-01" purity="4.1770684719085693e-01" nType="0">
          <Node pos="l" depth="2" NCoef="0" IVar="-1" Cut="0.0000000000000000e+00" cType="1" res="-3.6466465098783374e-04" rms="4.7986751794815063e-01" purity="5.3772753477096558e-01" nType="-99"/>
          <Node pos="r" depth="2" NCoef="0" IVar="-1" Cut="0.0000000000000000e+00" cType="1" res="-1.8273377791047096e-03" rms="4.0047538280487061e-01" purity="2.2223849594593048e-01" nType="-99"/>
        </Node>
        <Node pos="r" depth="1" NCoef="0" IVar="5" Cut="8.0814248323440552e-01" cType="1" res="1.6368876677006483e-03" rms="4.7212278842926025e-01" purity="5.1915019750595093e-01" nType="0">
          <Node pos="l" depth="2" NCoef="0" IVar="-1" Cut="0.0000000000000000e+00" cType="1" res="-1.7233513062819839e-04" rms="4.7261062264442444e-01" purity="4.9900645017623901e-01" nType="-99"/>
          <Node pos="r" depth="2" NCoef="0" IVar="-1" Cut="0.0000000000000000e+00" cType="1" res="1.8557079602032900e-03" rms="4.5897486805915833e-01" purity="6.5830403566360474e-01" nType="-99"/>
        </Node>
      </Node>
    </BinaryTree>
    <BinaryTree type="DecisionTree" boostWeight="1.0000000000000000e+00" itree="775">
      <Node pos="s" depth="0" NCoef="0" IVar="1" Cut="1.0791755676269531e+02" cType="1" res="-1.7122283577919006e-02" rms="4.6940046548843384e-01" purity="4.9325636029243469e-01" nType="0">
        <Node pos="l" depth="1" NCoef="0" IVar="1" Cut="9.9211814880371094e+01" cType="1" res="-7.8430503606796265e-02" rms="4.4753012061119080e-01" purity="3.4645095467567444e-01" nType="0">
          <Node pos="l" depth="2" NCoef="0" IVar="-1" Cut="0.0000000000000000e+00" cType="1" res="-1.2116597499698400e-03" rms="4.2882165312767029e-01" purity="2.7334293723106384e-01" nType="-99"/>
          <Node pos="r" depth="2" NCoef="0" IVar="-1" Cut="0.0000000000000000e+00" cType="1" res="-7.3801638791337609e-04" rms="4.6844822168350220e-01" purity="4.3741628527641296e-01" nType="-99"/>
        </Node>
        <Node pos="r" depth="1" NCoef="0" IVar="4" Cut="4.9735086059570312e+02" cType="1" res="-7.2223003953695297e-03" rms="4.7209116816520691e-01" purity="5.1696228981018066e-01" nType="0">
          <Node pos="l" depth="2" NCoef="0" IVar="-1" Cut="0.0000000000000000e+00" cType="1" res="-8.8538596173748374e-04" rms="4.6701255440711975e-01" purity="4.3395173549652100e-01" nType="-99"/>
          <Node pos="r" depth="2" NCoef="0" IVar="-1" Cut="0.0000000000000000e+00" cType="1" res="3.4923959901789203e-06" rms="4.7227036952972412e-01" purity="5.2807277441024780e-01" nType="-99"/>
        </Node>
      </Node>
    </BinaryTree>
    <BinaryTree type="DecisionTree" boostWeight="1.0000000000000000e+00" itree="776">
      <Node pos="s" depth="0" NCoef="0" IVar="5" Cut="8.0725443363189697e-01" cType="1" res="-2.0026866346597672e-02" rms="4.7076678276062012e-01" purity="4.9092400074005127e-01" nType="0">
        <Node pos="l" depth="1" NCoef="0" IVar="0" Cut="7.0148971557617188e+01" cType="1" res="-3.0790170654654503e-02" rms="4.7167363762855530e-01" purity="4.7258847951889038e-01" nType="0">
          <Node pos="l" depth="2" NCoef="0" IVar="-1" Cut="0.0000000000000000e+00" cType="1" res="-1.2608148390427232e-03" rms="4.5966044068336487e-01" purity="3.3418598771095276e-01" nType="-99"/>
          <Node pos="r" depth="2" NCoef="0" IVar="-1" Cut="0.0000000000000000e+00" cType="1" res="-3.3512161462567747e-04" rms="4.7246968746185303e-01" purity="4.9050217866897583e-01" nType="-99"/>
        </Node>
        <Node pos="r" depth="1" NCoef="0" IVar="2" Cut="1.2638558349609375e+03" cType="1" res="5.4302774369716644e-02" rms="4.5759633183479309e-01" purity="6.1754637956619263e-01" nType="0">
          <Node pos="l" depth="2" NCoef="0" IVar="-1" Cut="0.0000000000000000e+00" cType="1" res="2.5154384784400463e-03" rms="4.4007784128189087e-01" purity="7.0165479183197021e-01" nType="-99"/>
          <Node pos="r" depth="2" NCoef="0" IVar="-1" Cut="0.0000000000000000e+00" cType="1" res="-3.5938847577199340e-04" rms="4.6971222758293152e-01" purity="5.0203669071197510e-01" nType="-99"/>
        </Node>
      </Node>
    </BinaryTree>
    <BinaryTree type="DecisionTree" boostWeight="1.0000000000000000e+00" itree="777">
      <Node pos="s" depth="0" NCoef="0" IVar="5" Cut="8.3047974109649658e-01" cType="1" res="-1.6390988603234291e-02" rms="4.6335226297378540e-01" purity="4.8844853043556213e-01" nType="0">
        <Node pos="l" depth="1" NCoef="0" IVar="3" Cut="9.0593886375427246e-01" cType="1" res="-2.4973824620246887e-02" rms="4.6397668123245239e-01" purity="4.7301423549652100e-01" nType="0">
          <Node pos="l" depth="2" NCoef="0" IVar="-1" Cut="0.0000000000000000e+00" cType="1" res="-6.2874046852812171e-04" rms="4.6466436982154846e-01" purity="3.9857953786849976e-01" nType="-99"/>
          <Node pos="r" depth="2" NCoef="0" IVar="-1" Cut="0.0000000000000000e+00" cType="1" res="2.9544768040068448e-04" rms="4.6001064777374268e-01" purity="6.0412609577178955e-01" nType="-99"/>
        </Node>
        <Node pos="r" depth="1" NCoef="0" IVar="-1" Cut="0.0000000000000000e+00" cType="1" res="1.2784518767148256e-03" rms="4.4969758391380310e-01" purity="6.3218426704406738e-01" nType="-99"/>
      </Node>
    </BinaryTree>
    <BinaryTree type="DecisionTree" boostWeight="1.0000000000000000e+00" itree="778">
      <Node pos="s" depth="0" NCoef="0" IVar="3" Cut="8.7718319892883301e-01" cType="1" res="-7.9718763008713722e-03" rms="4.6743863821029663e-01" purity="4.9838760495185852e-01" nType="0">
        <Node pos="l" depth="1" NCoef="0" IVar="1" Cut="1.3123194885253906e+02" cType="1" res="-5.0046611577272415e-02" rms="4.6310871839523315e-01" purity="3.7671655416488647e-01" nType="0">
          <Node pos="l" depth="2" NCoef="0" IVar="-1" Cut="0.0000000000000000e+00" cType="1" res="-2.1962601749692112e-04" rms="4.7677376866340637e-01" purity="4.3428581953048706e-01" nType="-99"/>
          <Node pos="r" depth="2" NCoef="0" IVar="-1" Cut="0.0000000000000000e+00" cType="1" res="-1.3800279702991247e-03" rms="4.2566698789596558e-01" purity="2.5919455289840698e-01" nType="-99"/>
        </Node>
        <Node pos="r" depth="1" NCoef="0" IVar="5" Cut="1.5468542277812958e-01" cType="1" res="1.5715980902314186e-02" rms="4.6819818019866943e-01" purity="5.6688773632049561e-01" nType="0">
          <Node pos="l" depth="2" NCoef="0" IVar="-1" Cut="0.0000000000000000e+00" cType="1" res="-1.2220501666888595e-03" rms="4.7192999720573425e-01" purity="4.8411294817924500e-01" nType="-99"/>
          <Node pos="r" depth="2" NCoef="0" IVar="-1" Cut="0.0000000000000000e+00" cType="1" res="4.1983617120422423e-04" rms="4.6702682971954346e-01" purity="5.7454717159271240e-01" nType="-99"/>
        </Node>
      </Node>
    </BinaryTree>
    <BinaryTree type="DecisionTree" boostWeight="1.0000000000000000e+00" itree="779">
      <Node pos="s" depth="0" NCoef="0" IVar="2" Cut="1.7097161865234375e+03" cType="1" res="-6.3526658341288567e-03" rms="4.6723720431327820e-01" purity="5.0139731168746948e-01" nType="0">
        <Node pos="l" depth="1" NCoef="0" IVar="4" Cut="9.6683544921875000e+02" cType="1" res="2.5461199693381786e-03" rms="4.6688583493232727e-01" purity="5.1668351888656616e-01" nType="0">
          <Node pos="l" depth="2" NCoef="0" IVar="-1" Cut="0.0000000000000000e+00" cType="1" res="-2.2559896751772612e-04" rms="4.6672821044921875e-01" purity="4.9385938048362732e-01" nType="-99"/>
          <Node pos="r" depth="2" NCoef="0" IVar="-1" Cut="0.0000000000000000e+00" cType="1" res="2.6694242842495441e-03" rms="4.4834265112876892e-01" purity="6.8502628803253174e-01" nType="-99"/>
        </Node>
        <Node pos="r" depth="1" NCoef="0" IVar="4" Cut="1.3836845703125000e+03" cType="1" res="-6.9095000624656677e-02" rms="4.6489751338958740e-01" purity="3.9361909031867981e-01" nType="0">
          <Node pos="l" depth="2" NCoef="0" IVar="-1" Cut="0.0000000000000000e+00" cType="1" res="-1.5466044424101710e-03" rms="4.4509419798851013e-01" purity="3.2448467612266541e-01" nType="-99"/>
          <Node pos="r" depth="2" NCoef="0" IVar="-1" Cut="0.0000000000000000e+00" cType="1" res="2.2127044212538749e-04" rms="4.7712489962577820e-01" purity="4.8577743768692017e-01" nType="-99"/>
        </Node>
      </Node>
    </BinaryTree>
    <BinaryTree type="DecisionTree" boostWeight="1.0000000000000000e+00" itree="780">
      <Node pos="s" depth="0" NCoef="0" IVar="4" Cut="5.1533831787109375e+02" cType="1" res="-6.2475409358739853e-03" rms="4.6760442852973938e-01" purity="5.0087082386016846e-01" nType="0">
        <Node pos="l" depth="1" NCoef="0" IVar="2" Cut="6.3344317626953125e+02" cType="1" res="-6.3575662672519684e-02" rms="4.6417266130447388e-01" purity="4.1996034979820251e-01" nType="0">
          <Node pos="l" depth="2" NCoef="0" IVar="-1" Cut="0.0000000000000000e+00" cType="1" res="9.9772319663316011e-04" rms="4.8692578077316284e-01" purity="6.1649346351623535e-01" nType="-99"/>
          <Node pos="r" depth="2" NCoef="0" IVar="-1" Cut="0.0000000000000000e+00" cType="1" res="-1.9268927862867713e-03" rms="4.1811853647232056e-01" purity="2.4878421425819397e-01" nType="-99"/>
        </Node>
        <Node pos="r" depth="1" NCoef="0" IVar="2" Cut="7.2204522705078125e+02" cType="1" res="4.3548797257244587e-03" rms="4.6746662259101868e-01" purity="5.1583456993103027e-01" nType="0">
          <Node pos="l" depth="2" NCoef="0" IVar="-1" Cut="0.0000000000000000e+00" cType="1" res="3.1413100659847260e-03" rms="4.2218390107154846e-01" purity="7.4130713939666748e-01" nType="-99"/>
          <Node pos="r" depth="2" NCoef="0" IVar="-1" Cut="0.0000000000000000e+00" cType="1" res="-7.0631525886710733e-05" rms="4.6934542059898376e-01" purity="4.9937209486961365e-01" nType="-99"/>
        </Node>
      </Node>
    </BinaryTree>
    <BinaryTree type="DecisionTree" boostWeight="1.0000000000000000e+00" itree="781">
      <Node pos="s" depth="0" NCoef="0" IVar="4" Cut="1.3260520019531250e+03" cType="1" res="-9.3794725835323334e-03" rms="4.6643075346946716e-01" purity="4.9687665700912476e-01" nType="0">
        <Node pos="l" depth="1" NCoef="0" IVar="2" Cut="1.5068287353515625e+03" cType="1" res="-1.6775157302618027e-02" rms="4.6563234925270081e-01" purity="4.9063065648078918e-01" nType="0">
          <Node pos="l" depth="2" NCoef="0" IVar="-1" Cut="0.0000000000000000e+00" cType="1" res="-1.0419230966363102e-04" rms="4.6462702751159668e-01" purity="5.0670045614242554e-01" nType="-99"/>
          <Node pos="r" depth="2" NCoef="0" IVar="-1" Cut="0.0000000000000000e+00" cType="1" res="-1.2211819412186742e-03" rms="4.6607649326324463e-01" purity="3.6668786406517029e-01" nType="-99"/>
        </Node>
        <Node pos="r" depth="1" NCoef="0" IVar="-1" Cut="0.0000000000000000e+00" cType="1" res="2.2113278973847628e-03" rms="4.6059748530387878e-01" purity="6.0977357625961304e-01" nType="-99"/>
      </Node>
    </BinaryTree>
    <BinaryTree type="DecisionTree" boostWeight="1.0000000000000000e+00" itree="782">
      <Node pos="s" depth="0" NCoef="0" IVar="1" Cut="9.9138389587402344e+01" cType="1" res="1.0478720068931580e-03" rms="4.6945494413375854e-01" purity="5.1303118467330933e-01" nType="0">
        <Node pos="l" depth="1" NCoef="0" IVar="-1" Cut="0.0000000000000000e+00" cType="1" res="-9.1015471844002604e-04" rms="4.4352748990058899e-01" purity="3.1238767504692078e-01" nType="-99"/>
        <Node pos="r" depth="1" NCoef="0" IVar="2" Cut="1.7127963867187500e+03" cType="1" res="6.7796804942190647e-03" rms="4.7092318534851074e-01" purity="5.2860122919082642e-01" nType="0">
          <Node pos="l" depth="2" NCoef="0" IVar="-1" Cut="0.0000000000000000e+00" cType="1" res="2.3283995687961578e-04" rms="4.6951109170913696e-01" purity="5.4141664505004883e-01" nType="-99"/>
          <Node pos="r" depth="2" NCoef="0" IVar="-1" Cut="0.0000000000000000e+00" cType="1" res="-6.4345420105382800e-04" rms="4.7754693031311035e-01" purity="4.3544560670852661e-01" nType="-99"/>
        </Node>
      </Node>
    </BinaryTree>
    <BinaryTree type="DecisionTree" boostWeight="1.0000000000000000e+00" itree="783">
      <Node pos="s" depth="0" NCoef="0" IVar="1" Cut="1.3264999389648438e+02" cType="1" res="-7.4216783978044987e-03" rms="4.6397724747657776e-01" purity="4.9920189380645752e-01" nType="0">
        <Node pos="l" depth="1" NCoef="0" IVar="0" Cut="6.3230587005615234e+01" cType="1" res="1.1087493039667606e-02" rms="4.6617189049720764e-01" purity="5.4123079776763916e-01" nType="0">
          <Node pos="l" depth="2" NCoef="0" IVar="-1" Cut="0.0000000000000000e+00" cType="1" res="-1.1320908088237047e-03" rms="4.5604121685028076e-01" purity="3.4766024351119995e-01" nType="-99"/>
          <Node pos="r" depth="2" NCoef="0" IVar="-1" Cut="0.0000000000000000e+00" cType="1" res="3.4752945066429675e-04" rms="4.6599456667900085e-01" purity="5.6027466058731079e-01" nType="-99"/>
        </Node>
        <Node pos="r" depth="1" NCoef="0" IVar="4" Cut="9.4918914794921875e+02" cType="1" res="-6.2389075756072998e-02" rms="4.5296111702919006e-01" purity="3.7438702583312988e-01" nType="0">
          <Node pos="l" depth="2" NCoef="0" IVar="-1" Cut="0.0000000000000000e+00" cType="1" res="-1.1382387019693851e-03" rms="4.4376492500305176e-01" purity="3.5009461641311646e-01" nType="-99"/>
          <Node pos="r" depth="2" NCoef="0" IVar="-1" Cut="0.0000000000000000e+00" cType="1" res="4.5650336687685922e-05" rms="4.7093379497528076e-01" purity="4.4066321849822998e-01" nType="-99"/>
        </Node>
      </Node>
    </BinaryTree>
    <BinaryTree type="DecisionTree" boostWeight="1.0000000000000000e+00" itree="784">
      <Node pos="s" depth="0" NCoef="0" IVar="5" Cut="8.0725443363189697e-01" cType="1" res="-1.4825430698692799e-02" rms="4.6872445940971375e-01" purity="4.9337020516395569e-01" nType="0">
        <Node pos="l" depth="1" NCoef="0" IVar="1" Cut="1.0320597839355469e+02" cType="1" res="-2.3708397522568703e-02" rms="4.6960014104843140e-01" purity="4.7805401682853699e-01" nType="0">
          <Node pos="l" depth="2" NCoef="0" IVar="-1" Cut="0.0000000000000000e+00" cType="1" res="-1.1474239872768521e-03" rms="4.5153218507766724e-01" purity="3.0705577135086060e-01" nType="-99"/>
          <Node pos="r" depth="2" NCoef="0" IVar="-1" Cut="0.0000000000000000e+00" cType="1" res="-2.4162809131667018e-04" rms="4.7102883458137512e-01" purity="4.9808138608932495e-01" nType="-99"/>
        </Node>
        <Node pos="r" depth="1" NCoef="0" IVar="2" Cut="1.0707332763671875e+03" cType="1" res="4.9208682030439377e-02" rms="4.5728579163551331e-01" purity="6.0377913713455200e-01" nType="0">
          <Node pos="l" depth="2" NCoef="0" IVar="-1" Cut="0.0000000000000000e+00" cType="1" res="2.6378913316875696e-03" rms="4.2618390917778015e-01" purity="7.0919209718704224e-01" nType="-99"/>
          <Node pos="r" depth="2" NCoef="0" IVar="-1" Cut="0.0000000000000000e+00" cType="1" res="-1.8495866970624775e-04" rms="4.7330281138420105e-01" purity="5.1487952470779419e-01" nType="-99"/>
        </Node>
      </Node>
    </BinaryTree>
    <BinaryTree type="DecisionTree" boostWeight="1.0000000000000000e+00" itree="785">
      <Node pos="s" depth="0" NCoef="0" IVar="2" Cut="1.9300312500000000e+03" cType="1" res="-1.1591679416596889e-02" rms="4.6750035881996155e-01" purity="4.9278482794761658e-01" nType="0">
        <Node pos="l" depth="1" NCoef="0" IVar="4" Cut="8.7186706542968750e+02" cType="1" res="-2.6455384213477373e-03" rms="4.6735644340515137e-01" purity="5.0624138116836548e-01" nType="0">
          <Node pos="l" depth="2" NCoef="0" IVar="-1" Cut="0.0000000000000000e+00" cType="1" res="-2.6678983704186976e-04" rms="4.6784454584121704e-01" purity="4.8572665452957153e-01" nType="-99"/>
          <Node pos="r" depth="2" NCoef="0" IVar="-1" Cut="0.0000000000000000e+00" cType="1" res="7.8476860653609037e-04" rms="4.6245506405830383e-01" purity="5.7370454072952271e-01" nType="-99"/>
        </Node>
        <Node pos="r" depth="1" NCoef="0" IVar="-1" Cut="0.0000000000000000e+00" cType="1" res="-1.3454775325953960e-03" rms="4.5842516422271729e-01" purity="3.5024246573448181e-01" nType="-99"/>
      </Node>
    </BinaryTree>
    <BinaryTree type="DecisionTree" boostWeight="1.0000000000000000e+00" itree="786">
      <Node pos="s" depth="0" NCoef="0" IVar="2" Cut="1.0347558593750000e+03" cType="1" res="-2.2877793759107590e-02" rms="4.7029605507850647e-01" purity="4.8844873905181885e-01" nType="0">
        <Node pos="l" depth="1" NCoef="0" IVar="4" Cut="6.6509356689453125e+02" cType="1" res="9.4382790848612785e-03" rms="4.6859827637672424e-01" purity="5.3938394784927368e-01" nType="0">
          <Node pos="l" depth="2" NCoef="0" IVar="-1" Cut="0.0000000000000000e+00" cType="1" res="-3.3182767219841480e-04" rms="4.6957951784133911e-01" purity="4.8639181256294250e-01" nType="-99"/>
          <Node pos="r" depth="2" NCoef="0" IVar="-1" Cut="0.0000000000000000e+00" cType="1" res="1.7179124988615513e-03" rms="4.5746928453445435e-01" purity="6.6861808300018311e-01" nType="-99"/>
        </Node>
        <Node pos="r" depth="1" NCoef="0" IVar="3" Cut="9.3007069826126099e-01" cType="1" res="-5.5749438703060150e-02" rms="4.6974140405654907e-01" purity="4.3663784861564636e-01" nType="0">
          <Node pos="l" depth="2" NCoef="0" IVar="-1" Cut="0.0000000000000000e+00" cType="1" res="-9.3661056598648429e-04" rms="4.7001680731773376e-01" purity="3.9101833105087280e-01" nType="-99"/>
          <Node pos="r" depth="2" NCoef="0" IVar="-1" Cut="0.0000000000000000e+00" cType="1" res="3.3627871744101867e-05" rms="4.6421968936920166e-01" purity="5.9869295358657837e-01" nType="-99"/>
        </Node>
      </Node>
    </BinaryTree>
    <BinaryTree type="DecisionTree" boostWeight="1.0000000000000000e+00" itree="787">
      <Node pos="s" depth="0" NCoef="0" IVar="4" Cut="8.2202392578125000e+02" cType="1" res="-1.1838174425065517e-02" rms="4.6822640299797058e-01" purity="4.9551436305046082e-01" nType="0">
        <Node pos="l" depth="1" NCoef="0" IVar="4" Cut="5.0447830200195312e+02" cType="1" res="-3.7224534898996353e-02" rms="4.6535021066665649e-01" purity="4.6450990438461304e-01" nType="0">
          <Node pos="l" depth="2" NCoef="0" IVar="-1" Cut="0.0000000000000000e+00" cType="1" res="-1.4071608893573284e-03" rms="4.5658227801322937e-01" purity="3.8162726163864136e-01" nType="-99"/>
          <Node pos="r" depth="2" NCoef="0" IVar="-1" Cut="0.0000000000000000e+00" cType="1" res="-2.9752901173196733e-04" rms="4.6596226096153259e-01" purity="4.8577833175659180e-01" nType="-99"/>
        </Node>
        <Node pos="r" depth="1" NCoef="0" IVar="2" Cut="1.7479322509765625e+03" cType="1" res="3.6361373960971832e-02" rms="4.6988004446029663e-01" purity="5.5438065528869629e-01" nType="0">
          <Node pos="l" depth="2" NCoef="0" IVar="-1" Cut="0.0000000000000000e+00" cType="1" res="1.2674730969592929e-03" rms="4.7026637196540833e-01" purity="6.0916078090667725e-01" nType="-99"/>
          <Node pos="r" depth="2" NCoef="0" IVar="-1" Cut="0.0000000000000000e+00" cType="1" res="-5.5796228116378188e-04" rms="4.6008247137069702e-01" purity="4.2030689120292664e-01" nType="-99"/>
        </Node>
      </Node>
    </BinaryTree>
    <BinaryTree type="DecisionTree" boostWeight="1.0000000000000000e+00" itree="788">
      <Node pos="s" depth="0" NCoef="0" IVar="0" Cut="8.9931587219238281e+01" cType="1" res="5.2373735234141350e-03" rms="4.6299600601196289e-01" purity="5.1211941242218018e-01" nType="0">
        <Node pos="l" depth="1" NCoef="0" IVar="2" Cut="7.1161779785156250e+02" cType="1" res="-7.8056178987026215e-02" rms="4.6711164712905884e-01" purity="3.8926759362220764e-01" nType="0">
          <Node pos="l" depth="2" NCoef="0" IVar="-1" Cut="0.0000000000000000e+00" cType="1" res="-5.8277746575186029e-05" rms="4.7057145833969116e-01" purity="4.8944351077079773e-01" nType="-99"/>
          <Node pos="r" depth="2" NCoef="0" IVar="-1" Cut="0.0000000000000000e+00" cType="1" res="-1.3783866306766868e-03" rms="4.6205598115921021e-01" purity="3.4677669405937195e-01" nType="-99"/>
        </Node>
        <Node pos="r" depth="1" NCoef="0" IVar="4" Cut="8.9971557617187500e+02" cType="1" res="2.5944689288735390e-02" rms="4.5963034033775330e-01" purity="5.4266119003295898e-01" nType="0">
          <Node pos="l" depth="2" NCoef="0" IVar="-1" Cut="0.0000000000000000e+00" cType="1" res="-5.0490398280089721e-05" rms="4.6060457825660706e-01" purity="5.1220035552978516e-01" nType="-99"/>
          <Node pos="r" depth="2" NCoef="0" IVar="-1" Cut="0.0000000000000000e+00" cType="1" res="1.8170595867559314e-03" rms="4.4892895221710205e-01" purity="6.1911779642105103e-01" nType="-99"/>
        </Node>
      </Node>
    </BinaryTree>
    <BinaryTree type="DecisionTree" boostWeight="1.0000000000000000e+00" itree="789">
      <Node pos="s" depth="0" NCoef="0" IVar="1" Cut="1.3892347717285156e+02" cType="1" res="-7.8393891453742981e-03" rms="4.6448579430580139e-01" purity="4.9823641777038574e-01" nType="0">
        <Node pos="l" depth="1" NCoef="0" IVar="4" Cut="5.4539648437500000e+02" cType="1" res="4.5967237092554569e-03" rms="4.6855959296226501e-01" purity="5.3380417823791504e-01" nType="0">
          <Node pos="l" depth="2" NCoef="0" IVar="-1" Cut="0.0000000000000000e+00" cType="1" res="-7.6150696258991957e-04" rms="4.6053189039230347e-01" purity="4.4657003879547119e-01" nType="-99"/>
          <Node pos="r" depth="2" NCoef="0" IVar="-1" Cut="0.0000000000000000e+00" cType="1" res="3.3417055965401232e-04" rms="4.6951439976692200e-01" purity="5.5725300312042236e-01" nType="-99"/>
        </Node>
        <Node pos="r" depth="1" NCoef="0" IVar="0" Cut="2.0315455627441406e+02" cType="1" res="-7.3095001280307770e-02" rms="4.3672901391983032e-01" purity="3.1160271167755127e-01" nType="0">
          <Node pos="l" depth="2" NCoef="0" IVar="-1" Cut="0.0000000000000000e+00" cType="1" res="-4.7770890523679554e-04" rms="4.6085032820701599e-01" purity="3.8997793197631836e-01" nType="-99"/>
          <Node pos="r" depth="2" NCoef="0" IVar="-1" Cut="0.0000000000000000e+00" cType="1" res="-1.3391957618296146e-03" rms="4.0754929184913635e-01" purity="2.3249834775924683e-01" nType="-99"/>
        </Node>
      </Node>
    </BinaryTree>
    <BinaryTree type="DecisionTree" boostWeight="1.0000000000000000e+00" itree="790">
      <Node pos="s" depth="0" NCoef="0" IVar="2" Cut="6.2373706054687500e+02" cType="1" res="-9.5266143034677953e-05" rms="4.6571984887123108e-01" purity="5.1017528772354126e-01" nType="0">
        <Node pos="l" depth="1" NCoef="0" IVar="-1" Cut="0.0000000000000000e+00" cType="1" res="1.6054788138717413e-03" rms="4.6931359171867371e-01" purity="6.5352696180343628e-01" nType="-99"/>
        <Node pos="r" depth="1" NCoef="0" IVar="4" Cut="5.1254003906250000e+02" cType="1" res="-6.6840737126767635e-03" rms="4.6480634808540344e-01" purity="4.9849611520767212e-01" nType="0">
          <Node pos="l" depth="2" NCoef="0" IVar="-1" Cut="0.0000000000000000e+00" cType="1" res="-1.6981388907879591e-03" rms="4.3034619092941284e-01" purity="2.9695385694503784e-01" nType="-99"/>
          <Node pos="r" depth="2" NCoef="0" IVar="-1" Cut="0.0000000000000000e+00" cType="1" res="7.1350790676660836e-05" rms="4.6597203612327576e-01" purity="5.1587903499603271e-01" nType="-99"/>
        </Node>
      </Node>
    </BinaryTree>
    <BinaryTree type="DecisionTree" boostWeight="1.0000000000000000e+00" itree="791">
      <Node pos="s" depth="0" NCoef="0" IVar="2" Cut="1.0333837890625000e+03" cType="1" res="-9.1217244043946266e-03" rms="4.6799167990684509e-01" purity="5.0369411706924438e-01" nType="0">
        <Node pos="l" depth="1" NCoef="0" IVar="4" Cut="4.9493408203125000e+02" cType="1" res="1.9919756799936295e-02" rms="4.6346849203109741e-01" purity="5.5481189489364624e-01" nType="0">
          <Node pos="l" depth="2" NCoef="0" IVar="-1" Cut="0.0000000000000000e+00" cType="1" res="-8.9184922398999333e-04" rms="4.6676075458526611e-01" purity="4.3964579701423645e-01" nType="-99"/>
          <Node pos="r" depth="2" NCoef="0" IVar="-1" Cut="0.0000000000000000e+00" cType="1" res="7.4332731310278177e-04" rms="4.6010327339172363e-01" purity="5.8559370040893555e-01" nType="-99"/>
        </Node>
        <Node pos="r" depth="1" NCoef="0" IVar="4" Cut="1.0103616333007812e+03" cType="1" res="-3.8797736167907715e-02" rms="4.7072172164916992e-01" purity="4.5145952701568604e-01" nType="0">
          <Node pos="l" depth="2" NCoef="0" IVar="-1" Cut="0.0000000000000000e+00" cType="1" res="-1.0749710490927100e-03" rms="4.6545103192329407e-01" purity="4.0067252516746521e-01" nType="-99"/>
          <Node pos="r" depth="2" NCoef="0" IVar="-1" Cut="0.0000000000000000e+00" cType="1" res="4.0693648043088615e-04" rms="4.7209790349006653e-01" purity="5.3403681516647339e-01" nType="-99"/>
        </Node>
      </Node>
    </BinaryTree>
    <BinaryTree type="DecisionTree" boostWeight="1.0000000000000000e+00" itree="792">
      <Node pos="s" depth="0" NCoef="0" IVar="3" Cut="9.2833733558654785e-01" cType="1" res="-2.6043581310659647e-03" rms="4.6662920713424683e-01" purity="5.0357133150100708e-01" nType="0">
        <Node pos="l" depth="1" NCoef="0" IVar="2" Cut="6.3734960937500000e+02" cType="1" res="-2.0455917343497276e-02" rms="4.7375029325485229e-01" purity="4.5074763894081116e-01" nType="0">
          <Node pos="l" depth="2" NCoef="0" IVar="-1" Cut="0.0000000000000000e+00" cType="1" res="1.7995915841311216e-03" rms="4.6241644024848938e-01" purity="6.2879621982574463e-01" nType="-99"/>
          <Node pos="r" depth="2" NCoef="0" IVar="-1" Cut="0.0000000000000000e+00" cType="1" res="-4.2427261359989643e-04" rms="4.7331085801124573e-01" purity="4.3627047538757324e-01" nType="-99"/>
        </Node>
        <Node pos="r" depth="1" NCoef="0" IVar="3" Cut="9.4484108686447144e-01" cType="1" res="5.4795052856206894e-02" rms="4.3805429339408875e-01" purity="6.7341941595077515e-01" nType="0">
          <Node pos="l" depth="2" NCoef="0" IVar="-1" Cut="0.0000000000000000e+00" cType="1" res="2.6964086573570967e-03" rms="4.2559614777565002e-01" purity="7.0759952068328857e-01" nType="-99"/>
          <Node pos="r" depth="2" NCoef="0" IVar="-1" Cut="0.0000000000000000e+00" cType="1" res="5.1271438132971525e-04" rms="4.4064095616340637e-01" purity="6.5645134449005127e-01" nType="-99"/>
        </Node>
      </Node>
    </BinaryTree>
    <BinaryTree type="DecisionTree" boostWeight="1.0000000000000000e+00" itree="793">
      <Node pos="s" depth="0" NCoef="0" IVar="0" Cut="4.6533706665039062e+02" cType="1" res="-2.0084846764802933e-02" rms="4.6759685873985291e-01" purity="4.8855817317962646e-01" nType="0">
        <Node pos="l" depth="1" NCoef="0" IVar="4" Cut="9.5311706542968750e+02" cType="1" res="-1.3039541430771351e-02" rms="4.6869438886642456e-01" purity="5.0482547283172607e-01" nType="0">
          <Node pos="l" depth="2" NCoef="0" IVar="-1" Cut="0.0000000000000000e+00" cType="1" res="-4.2717799078673124e-04" rms="4.6776437759399414e-01" purity="4.8346894979476929e-01" nType="-99"/>
          <Node pos="r" depth="2" NCoef="0" IVar="-1" Cut="0.0000000000000000e+00" cType="1" res="9.4242632621899247e-04" rms="4.6699121594429016e-01" purity="5.9737235307693481e-01" nType="-99"/>
        </Node>
        <Node pos="r" depth="1" NCoef="0" IVar="-1" Cut="0.0000000000000000e+00" cType="1" res="-1.3103228993713856e-03" rms="4.4458389282226562e-01" purity="2.8682914376258850e-01" nType="-99"/>
      </Node>
    </BinaryTree>
    <BinaryTree type="DecisionTree" boostWeight="1.0000000000000000e+00" itree="794">
      <Node pos="s" depth="0" NCoef="0" IVar="4" Cut="1.1439484863281250e+03" cType="1" res="-6.4844381995499134e-03" rms="4.6925741434097290e-01" purity="5.0489616394042969e-01" nType="0">
        <Node pos="l" depth="1" NCoef="0" IVar="2" Cut="1.2347031250000000e+03" cType="1" res="-1.6442248597741127e-02" rms="4.6799132227897644e-01" purity="4.9557521939277649e-01" nType="0">
          <Node pos="l" depth="2" NCoef="0" IVar="-1" Cut="0.0000000000000000e+00" cType="1" res="4.9198995839105919e-05" rms="4.6779382228851318e-01" purity="5.2708274126052856e-01" nType="-99"/>
          <Node pos="r" depth="2" NCoef="0" IVar="-1" Cut="0.0000000000000000e+00" cType="1" res="-1.0356795974075794e-03" rms="4.6307212114334106e-01" purity="3.9368459582328796e-01" nType="-99"/>
        </Node>
        <Node pos="r" depth="1" NCoef="0" IVar="5" Cut="5.6339550018310547e-01" cType="1" res="7.7788256108760834e-02" rms="4.7149133682250977e-01" purity="5.8377915620803833e-01" nType="0">
          <Node pos="l" depth="2" NCoef="0" IVar="-1" Cut="0.0000000000000000e+00" cType="1" res="6.3117651734501123e-04" rms="4.8186165094375610e-01" purity="5.4105770587921143e-01" nType="-99"/>
          <Node pos="r" depth="2" NCoef="0" IVar="-1" Cut="0.0000000000000000e+00" cType="1" res="2.3359663318842649e-03" rms="4.5677641034126282e-01" purity="6.2823754549026489e-01" nType="-99"/>
        </Node>
      </Node>
    </BinaryTree>
    <BinaryTree type="DecisionTree" boostWeight="1.0000000000000000e+00" itree="795">
      <Node pos="s" depth="0" NCoef="0" IVar="3" Cut="8.7380605936050415e-01" cType="1" res="8.6331441998481750e-03" rms="4.6245527267456055e-01" purity="5.1478278636932373e-01" nType="0">
        <Node pos="l" depth="1" NCoef="0" IVar="5" Cut="4.7813469171524048e-01" cType="1" res="-3.5752501338720322e-02" rms="4.5836243033409119e-01" purity="3.8092210888862610e-01" nType="0">
          <Node pos="l" depth="2" NCoef="0" IVar="-1" Cut="0.0000000000000000e+00" cType="1" res="-8.8372471509501338e-04" rms="4.5148506760597229e-01" purity="3.4084212779998779e-01" nType="-99"/>
          <Node pos="r" depth="2" NCoef="0" IVar="-1" Cut="0.0000000000000000e+00" cType="1" res="1.5651050489395857e-04" rms="4.6355488896369934e-01" purity="4.3673187494277954e-01" nType="-99"/>
        </Node>
        <Node pos="r" depth="1" NCoef="0" IVar="4" Cut="6.8389404296875000e+02" cType="1" res="3.0245333909988403e-02" rms="4.6289694309234619e-01" purity="5.7996201515197754e-01" nType="0">
          <Node pos="l" depth="2" NCoef="0" IVar="-1" Cut="0.0000000000000000e+00" cType="1" res="-1.0986304914695211e-05" rms="4.6682605147361755e-01" purity="5.3878086805343628e-01" nType="-99"/>
          <Node pos="r" depth="2" NCoef="0" IVar="-1" Cut="0.0000000000000000e+00" cType="1" res="9.9201011471450329e-04" rms="4.5842772722244263e-01" purity="6.1170452833175659e-01" nType="-99"/>
        </Node>
      </Node>
    </BinaryTree>
    <BinaryTree type="DecisionTree" boostWeight="1.0000000000000000e+00" itree="796">
      <Node pos="s" depth="0" NCoef="0" IVar="0" Cut="1.5988099670410156e+02" cType="1" res="-9.9098747596144676e-03" rms="4.6929869055747986e-01" purity="4.9921163916587830e-01" nType="0">
        <Node pos="l" depth="1" NCoef="0" IVar="0" Cut="6.7590179443359375e+01" cType="1" res="9.6893552690744400e-03" rms="4.6756118535995483e-01" purity="5.5440753698348999e-01" nType="0">
          <Node pos="l" depth="2" NCoef="0" IVar="-1" Cut="0.0000000000000000e+00" cType="1" res="-1.0920972563326359e-03" rms="4.5230787992477417e-01" purity="3.3021152019500732e-01" nType="-99"/>
          <Node pos="r" depth="2" NCoef="0" IVar="-1" Cut="0.0000000000000000e+00" cType="1" res="5.4046814329922199e-04" rms="4.6822229027748108e-01" purity="6.0160297155380249e-01" nType="-99"/>
        </Node>
        <Node pos="r" depth="1" NCoef="0" IVar="4" Cut="9.0406048583984375e+02" cType="1" res="-3.2469552010297775e-02" rms="4.7028058767318726e-01" purity="4.3567848205566406e-01" nType="0">
          <Node pos="l" depth="2" NCoef="0" IVar="-1" Cut="0.0000000000000000e+00" cType="1" res="-7.8599137486889958e-04" rms="4.6113720536231995e-01" purity="4.0794360637664795e-01" nType="-99"/>
          <Node pos="r" depth="2" NCoef="0" IVar="-1" Cut="0.0000000000000000e+00" cType="1" res="2.4726754054427147e-04" rms="4.8458680510520935e-01" purity="4.9159038066864014e-01" nType="-99"/>
        </Node>
      </Node>
    </BinaryTree>
    <BinaryTree type="DecisionTree" boostWeight="1.0000000000000000e+00" itree="797">
      <Node pos="s" depth="0" NCoef="0" IVar="0" Cut="2.4593000793457031e+02" cType="1" res="-1.7992714419960976e-02" rms="4.6668431162834167e-01" purity="4.8916381597518921e-01" nType="0">
        <Node pos="l" depth="1" NCoef="0" IVar="0" Cut="8.9854782104492188e+01" cType="1" res="-2.7110846713185310e-04" rms="4.6926259994506836e-01" purity="5.3384751081466675e-01" nType="0">
          <Node pos="l" depth="2" NCoef="0" IVar="-1" Cut="0.0000000000000000e+00" cType="1" res="-8.8784436229616404e-04" rms="4.6606269478797913e-01" purity="3.9582398533821106e-01" nType="-99"/>
          <Node pos="r" depth="2" NCoef="0" IVar="-1" Cut="0.0000000000000000e+00" cType="1" res="3.9744292735122144e-04" rms="4.6825027465820312e-01" purity="5.8247095346450806e-01" nType="-99"/>
        </Node>
        <Node pos="r" depth="1" NCoef="0" IVar="2" Cut="1.2140933837890625e+03" cType="1" res="-6.9152534008026123e-02" rms="4.5530638098716736e-01" purity="3.6016830801963806e-01" nType="0">
          <Node pos="l" depth="2" NCoef="0" IVar="-1" Cut="0.0000000000000000e+00" cType="1" res="-4.8041739501059055e-04" rms="4.4932240247726440e-01" purity="4.0162333846092224e-01" nType="-99"/>
          <Node pos="r" depth="2" NCoef="0" IVar="-1" Cut="0.0000000000000000e+00" cType="1" res="-1.1644240003079176e-03" rms="4.5784592628479004e-01" purity="3.3084669709205627e-01" nType="-99"/>
        </Node>
      </Node>
    </BinaryTree>
    <BinaryTree type="DecisionTree" boostWeight="1.0000000000000000e+00" itree="798">
      <Node pos="s" depth="0" NCoef="0" IVar="0" Cut="2.8719509887695312e+02" cType="1" res="-1.1954131536185741e-02" rms="4.6455860137939453e-01" purity="4.9622642993927002e-01" nType="0">
        <Node pos="l" depth="1" NCoef="0" IVar="1" Cut="1.3195669555664062e+02" cType="1" res="2.7822912670671940e-05" rms="4.6479010581970215e-01" purity="5.2858442068099976e-01" nType="0">
          <Node pos="l" depth="2" NCoef="0" IVar="-1" Cut="0.0000000000000000e+00" cType="1" res="2.7638391475193202e-04" rms="4.6616372466087341e-01" purity="5.6949317455291748e-01" nType="-99"/>
          <Node pos="r" depth="2" NCoef="0" IVar="-1" Cut="0.0000000000000000e+00" cType="1" res="-6.7348370794206858e-04" rms="4.5721101760864258e-01" purity="4.0734350681304932e-01" nType="-99"/>
        </Node>
        <Node pos="r" depth="1" NCoef="0" IVar="2" Cut="1.4748176269531250e+03" cType="1" res="-6.1701416969299316e-02" rms="4.6027225255966187e-01" purity="3.6188083887100220e-01" nType="0">
          <Node pos="l" depth="2" NCoef="0" IVar="-1" Cut="0.0000000000000000e+00" cType="1" res="-4.5180832967162132e-04" rms="4.6216726303100586e-01" purity="3.9832416176795959e-01" nType="-99"/>
          <Node pos="r" depth="2" NCoef="0" IVar="-1" Cut="0.0000000000000000e+00" cType="1" res="-1.3267309404909611e-03" rms="4.5375898480415344e-01" purity="3.0856806039810181e-01" nType="-99"/>
        </Node>
      </Node>
    </BinaryTree>
    <BinaryTree type="DecisionTree" boostWeight="1.0000000000000000e+00" itree="799">
      <Node pos="s" depth="0" NCoef="0" IVar="2" Cut="1.2352324218750000e+03" cType="1" res="-4.7126971185207367e-03" rms="4.6591374278068542e-01" purity="5.0251269340515137e-01" nType="0">
        <Node pos="l" depth="1" NCoef="0" IVar="4" Cut="7.1249853515625000e+02" cType="1" res="1.5037200413644314e-02" rms="4.6433681249618530e-01" purity="5.3748595714569092e-01" nType="0">
          <Node pos="l" depth="2" NCoef="0" IVar="-1" Cut="0.0000000000000000e+00" cType="1" res="-2.2580023505724967e-04" rms="4.6545609831809998e-01" purity="4.8869031667709351e-01" nType="-99"/>
          <Node pos="r" depth="2" NCoef="0" IVar="-1" Cut="0.0000000000000000e+00" cType="1" res="1.5768127050250769e-03" rms="4.5524761080741882e-01" purity="6.4400881528854370e-01" nType="-99"/>
        </Node>
        <Node pos="r" depth="1" NCoef="0" IVar="4" Cut="1.0730488281250000e+03" cType="1" res="-4.2014565318822861e-02" rms="4.6660268306732178e-01" purity="4.3645828962326050e-01" nType="0">
          <Node pos="l" depth="2" NCoef="0" IVar="-1" Cut="0.0000000000000000e+00" cType="1" res="-1.3516196049749851e-03" rms="4.5494481921195984e-01" purity="3.5458725690841675e-01" nType="-99"/>
          <Node pos="r" depth="2" NCoef="0" IVar="-1" Cut="0.0000000000000000e+00" cType="1" res="6.2175694620236754e-04" rms="4.6865692734718323e-01" purity="5.4143548011779785e-01" nType="-99"/>
        </Node>
      </Node>
    </BinaryTree>
    <BinaryTree type="DecisionTree" boostWeight="1.0000000000000000e+00" itree="800">
      <Node pos="s" depth="0" NCoef="0" IVar="3" Cut="9.5709306001663208e-01" cType="1" res="7.4676275253295898e-03" rms="4.6457925438880920e-01" purity="5.1473408937454224e-01" nType="0">
        <Node pos="l" depth="1" NCoef="0" IVar="2" Cut="9.0231188964843750e+02" cType="1" res="-2.5856064166873693e-03" rms="4.6943143010139465e-01" purity="4.8708215355873108e-01" nType="0">
          <Node pos="l" depth="2" NCoef="0" IVar="-1" Cut="0.0000000000000000e+00" cType="1" res="6.0618779389187694e-04" rms="4.6858990192413330e-01" purity="5.5643016099929810e-01" nType="-99"/>
          <Node pos="r" depth="2" NCoef="0" IVar="-1" Cut="0.0000000000000000e+00" cType="1" res="-3.5584377474151552e-04" rms="4.6840733289718628e-01" purity="4.4823911786079407e-01" nType="-99"/>
        </Node>
        <Node pos="r" depth="1" NCoef="0" IVar="-1" Cut="0.0000000000000000e+00" cType="1" res="2.7725710533559322e-03" rms="4.0907356142997742e-01" purity="7.5761884450912476e-01" nType="-99"/>
      </Node>
    </BinaryTree>
    <BinaryTree type="DecisionTree" boostWeight="1.0000000000000000e+00" itree="801">
      <Node pos="s" depth="0" NCoef="0" IVar="4" Cut="6.4791906738281250e+02" cType="1" res="-1.1985136196017265e-02" rms="4.6445798873901367e-01" purity="4.9418881535530090e-01" nType="0">
        <Node pos="l" depth="1" NCoef="0" IVar="2" Cut="7.7077038574218750e+02" cType="1" res="-4.1274715214967728e-02" rms="4.6123316884040833e-01" purity="4.5149677991867065e-01" nType="0">
          <Node pos="l" depth="2" NCoef="0" IVar="-1" Cut="0.0000000000000000e+00" cType="1" res="1.2476964911911637e-04" rms="4.7070887684822083e-01" purity="5.6157165765762329e-01" nType="-99"/>
          <Node pos="r" depth="2" NCoef="0" IVar="-1" Cut="0.0000000000000000e+00" cType="1" res="-1.2954149860888720e-03" rms="4.4169506430625916e-01" purity="3.1427839398384094e-01" nType="-99"/>
        </Node>
        <Node pos="r" depth="1" NCoef="0" IVar="2" Cut="1.2517180175781250e+03" cType="1" res="6.7514628171920776e-03" rms="4.6554377675056458e-01" purity="5.2149891853332520e-01" nType="0">
          <Node pos="l" depth="2" NCoef="0" IVar="-1" Cut="0.0000000000000000e+00" cType="1" res="8.7675597751513124e-04" rms="4.6061044931411743e-01" purity="5.9988045692443848e-01" nType="-99"/>
          <Node pos="r" depth="2" NCoef="0" IVar="-1" Cut="0.0000000000000000e+00" cType="1" res="-4.9722753465175629e-04" rms="4.6671193838119507e-01" purity="4.4151037931442261e-01" nType="-99"/>
        </Node>
      </Node>
    </BinaryTree>
    <BinaryTree type="DecisionTree" boostWeight="1.0000000000000000e+00" itree="802">
      <Node pos="s" depth="0" NCoef="0" IVar="2" Cut="1.3159111328125000e+03" cType="1" res="-7.3821283876895905e-03" rms="4.6952441334724426e-01" purity="5.0351738929748535e-01" nType="0">
        <Node pos="l" depth="1" NCoef="0" IVar="4" Cut="8.0951873779296875e+02" cType="1" res="9.0729175135493279e-03" rms="4.6718060970306396e-01" purity="5.3238475322723389e-01" nType="0">
          <Node pos="l" depth="2" NCoef="0" IVar="-1" Cut="0.0000000000000000e+00" cType="1" res="-1.5178372268564999e-04" rms="4.6909534931182861e-01" purity="5.0287830829620361e-01" nType="-99"/>
          <Node pos="r" depth="2" NCoef="0" IVar="-1" Cut="0.0000000000000000e+00" cType="1" res="1.6823573969304562e-03" rms="4.5098742842674255e-01" purity="6.5455436706542969e-01" nType="-99"/>
        </Node>
        <Node pos="r" depth="1" NCoef="0" IVar="4" Cut="1.1360585937500000e+03" cType="1" res="-5.2400298416614532e-02" rms="4.7296103835105896e-01" purity="4.2454141378402710e-01" nType="0">
          <Node pos="l" depth="2" NCoef="0" IVar="-1" Cut="0.0000000000000000e+00" cType="1" res="-1.3020199257880449e-03" rms="4.6875739097595215e-01" purity="3.6805957555770874e-01" nType="-99"/>
          <Node pos="r" depth="2" NCoef="0" IVar="-1" Cut="0.0000000000000000e+00" cType="1" res="1.6752515512052923e-04" rms="4.7066131234169006e-01" purity="4.9619650840759277e-01" nType="-99"/>
        </Node>
      </Node>
    </BinaryTree>
    <BinaryTree type="DecisionTree" boostWeight="1.0000000000000000e+00" itree="803">
      <Node pos="s" depth="0" NCoef="0" IVar="4" Cut="8.4277496337890625e+02" cType="1" res="-6.9558003451675177e-04" rms="4.6326211094856262e-01" purity="5.0493800640106201e-01" nType="0">
        <Node pos="l" depth="1" NCoef="0" IVar="1" Cut="1.3786288452148438e+02" cType="1" res="-2.1509557962417603e-02" rms="4.6280455589294434e-01" purity="4.8183810710906982e-01" nType="0">
          <Node pos="l" depth="2" NCoef="0" IVar="-1" Cut="0.0000000000000000e+00" cType="1" res="-1.5322555555030704e-04" rms="4.6722677350044250e-01" purity="5.1356732845306396e-01" nType="-99"/>
          <Node pos="r" depth="2" NCoef="0" IVar="-1" Cut="0.0000000000000000e+00" cType="1" res="-1.1693387059494853e-03" rms="4.2803329229354858e-01" purity="2.8890314698219299e-01" nType="-99"/>
        </Node>
        <Node pos="r" depth="1" NCoef="0" IVar="2" Cut="1.5742188720703125e+03" cType="1" res="4.3779306113719940e-02" rms="4.6110031008720398e-01" purity="5.5429744720458984e-01" nType="0">
          <Node pos="l" depth="2" NCoef="0" IVar="-1" Cut="0.0000000000000000e+00" cType="1" res="1.8275858601555228e-03" rms="4.5466837286949158e-01" purity="6.4137107133865356e-01" nType="-99"/>
          <Node pos="r" depth="2" NCoef="0" IVar="-1" Cut="0.0000000000000000e+00" cType="1" res="-2.1853097132407129e-04" rms="4.6203851699829102e-01" purity="4.4762614369392395e-01" nType="-99"/>
        </Node>
      </Node>
    </BinaryTree>
    <BinaryTree type="DecisionTree" boostWeight="1.0000000000000000e+00" itree="804">
      <Node pos="s" depth="0" NCoef="0" IVar="4" Cut="1.2537720947265625e+03" cType="1" res="-2.6514267548918724e-02" rms="4.6791723370552063e-01" purity="4.8052248358726501e-01" nType="0">
        <Node pos="l" depth="1" NCoef="0" IVar="2" Cut="1.2094428710937500e+03" cType="1" res="-3.6335930228233337e-02" rms="4.6786814928054810e-01" purity="4.7223222255706787e-01" nType="0">
          <Node pos="l" depth="2" NCoef="0" IVar="-1" Cut="0.0000000000000000e+00" cType="1" res="-2.7242462965659797e-04" rms="4.6901962161064148e-01" purity="5.0350141525268555e-01" nType="-99"/>
          <Node pos="r" depth="2" NCoef="0" IVar="-1" Cut="0.0000000000000000e+00" cType="1" res="-1.0968715650960803e-03" rms="4.6190264821052551e-01" purity="3.9666366577148438e-01" nType="-99"/>
        </Node>
        <Node pos="r" depth="1" NCoef="0" IVar="-1" Cut="0.0000000000000000e+00" cType="1" res="1.6360317822545767e-03" rms="4.5159879326820374e-01" purity="5.8176976442337036e-01" nType="-99"/>
      </Node>
    </BinaryTree>
    <BinaryTree type="DecisionTree" boostWeight="1.0000000000000000e+00" itree="805">
      <Node pos="s" depth="0" NCoef="0" IVar="2" Cut="9.4056652832031250e+02" cType="1" res="-9.4930939376354218e-03" rms="4.6543702483177185e-01" purity="4.9389278888702393e-01" nType="0">
        <Node pos="l" depth="1" NCoef="0" IVar="4" Cut="5.8172924804687500e+02" cType="1" res="2.9649881646037102e-02" rms="4.6521356701850891e-01" purity="5.6191533803939819e-01" nType="0">
          <Node pos="l" depth="2" NCoef="0" IVar="-1" Cut="0.0000000000000000e+00" cType="1" res="-1.5126363723538816e-04" rms="4.6731552481651306e-01" purity="5.0360077619552612e-01" nType="-99"/>
          <Node pos="r" depth="2" NCoef="0" IVar="-1" Cut="0.0000000000000000e+00" cType="1" res="1.5516239218413830e-03" rms="4.5737871527671814e-01" purity="6.3846898078918457e-01" nType="-99"/>
        </Node>
        <Node pos="r" depth="1" NCoef="0" IVar="4" Cut="6.5748333740234375e+02" cType="1" res="-3.6680608987808228e-02" rms="4.6365147829055786e-01" purity="4.4664645195007324e-01" nType="0">
          <Node pos="l" depth="2" NCoef="0" IVar="-1" Cut="0.0000000000000000e+00" cType="1" res="-1.6402727924287319e-03" rms="4.0040197968482971e-01" purity="2.2040052711963654e-01" nType="-99"/>
          <Node pos="r" depth="2" NCoef="0" IVar="-1" Cut="0.0000000000000000e+00" cType="1" res="-2.6822288054972887e-04" rms="4.7199618816375732e-01" purity="4.8853757977485657e-01" nType="-99"/>
        </Node>
      </Node>
    </BinaryTree>
    <BinaryTree type="DecisionTree" boostWeight="1.0000000000000000e+00" itree="806">
      <Node pos="s" depth="0" NCoef="0" IVar="2" Cut="6.1725921630859375e+02" cType="1" res="-1.6107412055134773e-02" rms="4.6594431996345520e-01" purity="4.9004623293876648e-01" nType="0">
        <Node pos="l" depth="1" NCoef="0" IVar="-1" Cut="0.0000000000000000e+00" cType="1" res="2.3354634176939726e-03" rms="4.6595138311386108e-01" purity="6.8048739433288574e-01" nType="-99"/>
        <Node pos="r" depth="1" NCoef="0" IVar="0" Cut="8.7134078979492188e+01" cType="1" res="-2.3850662633776665e-02" rms="4.6485492587089539e-01" purity="4.7807273268699646e-01" nType="0">
          <Node pos="l" depth="2" NCoef="0" IVar="-1" Cut="0.0000000000000000e+00" cType="1" res="-1.1081178672611713e-03" rms="4.6195951104164124e-01" purity="3.7324166297912598e-01" nType="-99"/>
          <Node pos="r" depth="2" NCoef="0" IVar="-1" Cut="0.0000000000000000e+00" cType="1" res="-1.9731902284547687e-04" rms="4.6456444263458252e-01" purity="4.9768579006195068e-01" nType="-99"/>
        </Node>
      </Node>
    </BinaryTree>
    <BinaryTree type="DecisionTree" boostWeight="1.0000000000000000e+00" itree="807">
      <Node pos="s" depth="0" NCoef="0" IVar="2" Cut="1.4406241455078125e+03" cType="1" res="-1.1536254547536373e-02" rms="4.6695652604103088e-01" purity="4.9854472279548645e-01" nType="0">
        <Node pos="l" depth="1" NCoef="0" IVar="4" Cut="8.9735888671875000e+02" cType="1" res="3.0333627946674824e-03" rms="4.6708801388740540e-01" purity="5.2315825223922729e-01" nType="0">
          <Node pos="l" depth="2" NCoef="0" IVar="-1" Cut="0.0000000000000000e+00" cType="1" res="-2.3079055245034397e-04" rms="4.6746563911437988e-01" purity="4.9682772159576416e-01" nType="-99"/>
          <Node pos="r" depth="2" NCoef="0" IVar="-1" Cut="0.0000000000000000e+00" cType="1" res="3.1197536736726761e-03" rms="4.4209668040275574e-01" purity="7.1736121177673340e-01" nType="-99"/>
        </Node>
        <Node pos="r" depth="1" NCoef="0" IVar="4" Cut="1.2846694335937500e+03" cType="1" res="-6.6001050174236298e-02" rms="4.6241679787635803e-01" purity="4.0653330087661743e-01" nType="0">
          <Node pos="l" depth="2" NCoef="0" IVar="-1" Cut="0.0000000000000000e+00" cType="1" res="-1.2900913134217262e-03" rms="4.5401799678802490e-01" purity="3.6340740323066711e-01" nType="-99"/>
          <Node pos="r" depth="2" NCoef="0" IVar="-1" Cut="0.0000000000000000e+00" cType="1" res="-2.5985789761762135e-05" rms="4.7027796506881714e-01" purity="4.8373448848724365e-01" nType="-99"/>
        </Node>
      </Node>
    </BinaryTree>
    <BinaryTree type="DecisionTree" boostWeight="1.0000000000000000e+00" itree="808">
      <Node pos="s" depth="0" NCoef="0" IVar="4" Cut="1.0570241699218750e+03" cType="1" res="-7.9124132171273232e-03" rms="4.6580648422241211e-01" purity="5.0113552808761597e-01" nType="0">
        <Node pos="l" depth="1" NCoef="0" IVar="4" Cut="5.9532037353515625e+02" cType="1" res="-2.1652149036526680e-02" rms="4.6571174263954163e-01" purity="4.8931282758712769e-01" nType="0">
          <Node pos="l" depth="2" NCoef="0" IVar="-1" Cut="0.0000000000000000e+00" cType="1" res="-7.6034193625673652e-04" rms="4.5354276895523071e-01" purity="4.4017800688743591e-01" nType="-99"/>
          <Node pos="r" depth="2" NCoef="0" IVar="-1" Cut="0.0000000000000000e+00" cType="1" res="-7.0729700382798910e-05" rms="4.7103372216224670e-01" purity="5.1499891281127930e-01" nType="-99"/>
        </Node>
        <Node pos="r" depth="1" NCoef="0" IVar="0" Cut="3.3815731811523438e+02" cType="1" res="6.6045694053173065e-02" rms="4.5930892229080200e-01" purity="5.6477427482604980e-01" nType="0">
          <Node pos="l" depth="2" NCoef="0" IVar="-1" Cut="0.0000000000000000e+00" cType="1" res="2.2895769216120243e-03" rms="4.3919494748115540e-01" purity="6.5981930494308472e-01" nType="-99"/>
          <Node pos="r" depth="2" NCoef="0" IVar="-1" Cut="0.0000000000000000e+00" cType="1" res="-2.3143850557971746e-04" rms="4.7888880968093872e-01" purity="4.0873005986213684e-01" nType="-99"/>
        </Node>
      </Node>
    </BinaryTree>
    <BinaryTree type="DecisionTree" boostWeight="1.0000000000000000e+00" itree="809">
      <Node pos="s" depth="0" NCoef="0" IVar="4" Cut="1.2929101562500000e+03" cType="1" res="-6.0189882060512900e-04" rms="4.6396887302398682e-01" purity="5.0603920221328735e-01" nType="0">
        <Node pos="l" depth="1" NCoef="0" IVar="2" Cut="8.8042242431640625e+02" cType="1" res="-8.8023645803332329e-03" rms="4.6350014209747314e-01" purity="4.9944615364074707e-01" nType="0">
          <Node pos="l" depth="2" NCoef="0" IVar="-1" Cut="0.0000000000000000e+00" cType="1" res="5.9132144087925553e-04" rms="4.5819127559661865e-01" purity="5.6858271360397339e-01" nType="-99"/>
          <Node pos="r" depth="2" NCoef="0" IVar="-1" Cut="0.0000000000000000e+00" cType="1" res="-5.1566527690738440e-04" rms="4.6472942829132080e-01" purity="4.5758873224258423e-01" nType="-99"/>
        </Node>
        <Node pos="r" depth="1" NCoef="0" IVar="-1" Cut="0.0000000000000000e+00" cType="1" res="2.0012757740914822e-03" rms="4.5544183254241943e-01" purity="5.9748381376266479e-01" nType="-99"/>
      </Node>
    </BinaryTree>
    <BinaryTree type="DecisionTree" boostWeight="1.0000000000000000e+00" itree="810">
      <Node pos="s" depth="0" NCoef="0" IVar="3" Cut="9.7307205200195312e-01" cType="1" res="-6.4753335900604725e-03" rms="4.7113257646560669e-01" purity="5.0572079420089722e-01" nType="0">
        <Node pos="l" depth="1" NCoef="0" IVar="2" Cut="6.0120489501953125e+02" cType="1" res="-1.0128186549991369e-03" rms="4.7026053071022034e-01" purity="5.0161439180374146e-01" nType="0">
          <Node pos="l" depth="2" NCoef="0" IVar="-1" Cut="0.0000000000000000e+00" cType="1" res="1.6912929713726044e-03" rms="4.4368380308151245e-01" purity="6.3772910833358765e-01" nType="-99"/>
          <Node pos="r" depth="2" NCoef="0" IVar="-1" Cut="0.0000000000000000e+00" cType="1" res="-9.5888557552825660e-05" rms="4.7125396132469177e-01" purity="4.9359837174415588e-01" nType="-99"/>
        </Node>
        <Node pos="r" depth="1" NCoef="0" IVar="-1" Cut="0.0000000000000000e+00" cType="1" res="-1.7202881863340735e-03" rms="4.7659495472908020e-01" purity="5.6630569696426392e-01" nType="-99"/>
      </Node>
    </BinaryTree>
    <BinaryTree type="DecisionTree" boostWeight="1.0000000000000000e+00" itree="811">
      <Node pos="s" depth="0" NCoef="0" IVar="3" Cut="8.7081712484359741e-01" cType="1" res="1.0305688716471195e-02" rms="4.6680080890655518e-01" purity="5.2026093006134033e-01" nType="0">
        <Node pos="l" depth="1" NCoef="0" IVar="5" Cut="6.7955899238586426e-01" cType="1" res="-2.8078375384211540e-02" rms="4.6840366721153259e-01" purity="3.9226076006889343e-01" nType="0">
          <Node pos="l" depth="2" NCoef="0" IVar="-1" Cut="0.0000000000000000e+00" cType="1" res="-5.5631011491641402e-04" rms="4.6725091338157654e-01" purity="3.7133789062500000e-01" nType="-99"/>
          <Node pos="r" depth="2" NCoef="0" IVar="-1" Cut="0.0000000000000000e+00" cType="1" res="4.2377226054668427e-04" rms="4.6782153844833374e-01" purity="4.6593612432479858e-01" nType="-99"/>
        </Node>
        <Node pos="r" depth="1" NCoef="0" IVar="2" Cut="7.9484027099609375e+02" cType="1" res="2.5833733379840851e-02" rms="4.6525201201438904e-01" purity="5.7204264402389526e-01" nType="0">
          <Node pos="l" depth="2" NCoef="0" IVar="-1" Cut="0.0000000000000000e+00" cType="1" res="1.7230509547516704e-03" rms="4.5132777094841003e-01" purity="6.7730504274368286e-01" nType="-99"/>
          <Node pos="r" depth="2" NCoef="0" IVar="-1" Cut="0.0000000000000000e+00" cType="1" res="1.1958833056269214e-04" rms="4.6830350160598755e-01" purity="5.3706079721450806e-01" nType="-99"/>
        </Node>
      </Node>
    </BinaryTree>
    <BinaryTree type="DecisionTree" boostWeight="1.0000000000000000e+00" itree="812">
      <Node pos="s" depth="0" NCoef="0" IVar="1" Cut="1.0111934661865234e+02" cType="1" res="-4.8919371329247952e-03" rms="4.6867921948432922e-01" purity="5.0631248950958252e-01" nType="0">
        <Node pos="l" depth="1" NCoef="0" IVar="-1" Cut="0.0000000000000000e+00" cType="1" res="-1.1133014922961593e-03" rms="4.4445508718490601e-01" purity="2.9448971152305603e-01" nType="-99"/>
        <Node pos="r" depth="1" NCoef="0" IVar="2" Cut="6.0763671875000000e+02" cType="1" res="3.9255106821656227e-03" rms="4.7016257047653198e-01" purity="5.2774959802627563e-01" nType="0">
          <Node pos="l" depth="2" NCoef="0" IVar="-1" Cut="0.0000000000000000e+00" cType="1" res="2.5909820105880499e-03" rms="4.5847040414810181e-01" purity="7.0061379671096802e-01" nType="-99"/>
          <Node pos="r" depth="2" NCoef="0" IVar="-1" Cut="0.0000000000000000e+00" cType="1" res="-5.1128437917213887e-05" rms="4.7002464532852173e-01" purity="5.1651799678802490e-01" nType="-99"/>
        </Node>
      </Node>
    </BinaryTree>
    <BinaryTree type="DecisionTree" boostWeight="1.0000000000000000e+00" itree="813">
      <Node pos="s" depth="0" NCoef="0" IVar="4" Cut="5.4047155761718750e+02" cType="1" res="5.5866921320557594e-03" rms="4.6631076931953430e-01" purity="5.1427406072616577e-01" nType="0">
        <Node pos="l" depth="1" NCoef="0" IVar="0" Cut="1.1092666625976562e+02" cType="1" res="-6.9147281348705292e-02" rms="4.5565816760063171e-01" purity="4.0980553627014160e-01" nType="0">
          <Node pos="l" depth="2" NCoef="0" IVar="-1" Cut="0.0000000000000000e+00" cType="1" res="1.8672450096346438e-04" rms="4.5687726140022278e-01" purity="4.7438621520996094e-01" nType="-99"/>
          <Node pos="r" depth="2" NCoef="0" IVar="-1" Cut="0.0000000000000000e+00" cType="1" res="-1.7823862144723535e-03" rms="4.4328981637954712e-01" purity="3.5542085766792297e-01" nType="-99"/>
        </Node>
        <Node pos="r" depth="1" NCoef="0" IVar="2" Cut="7.8807257080078125e+02" cType="1" res="2.3736093193292618e-02" rms="4.6706005930900574e-01" purity="5.3964465856552124e-01" nType="0">
          <Node pos="l" depth="2" NCoef="0" IVar="-1" Cut="0.0000000000000000e+00" cType="1" res="2.4060839787125587e-03" rms="4.3398696184158325e-01" purity="6.8369364738464355e-01" nType="-99"/>
          <Node pos="r" depth="2" NCoef="0" IVar="-1" Cut="0.0000000000000000e+00" cType="1" res="1.4892571198288351e-04" rms="4.7037711739540100e-01" purity="5.1716655492782593e-01" nType="-99"/>
        </Node>
      </Node>
    </BinaryTree>
    <BinaryTree type="DecisionTree" boostWeight="1.0000000000000000e+00" itree="814">
      <Node pos="s" depth="0" NCoef="0" IVar="2" Cut="1.0994078369140625e+03" cType="1" res="-8.1440983340144157e-03" rms="4.6526554226875305e-01" purity="4.9977591633796692e-01" nType="0">
        <Node pos="l" depth="1" NCoef="0" IVar="0" Cut="8.9435119628906250e+01" cType="1" res="1.9155532121658325e-02" rms="4.6259096264839172e-01" purity="5.4394829273223877e-01" nType="0">
          <Node pos="l" depth="2" NCoef="0" IVar="-1" Cut="0.0000000000000000e+00" cType="1" res="-5.5157468887045979e-04" rms="4.7058066725730896e-01" purity="4.2896023392677307e-01" nType="-99"/>
          <Node pos="r" depth="2" NCoef="0" IVar="-1" Cut="0.0000000000000000e+00" cType="1" res="6.5572711173444986e-04" rms="4.5863813161849976e-01" purity="5.7944697141647339e-01" nType="-99"/>
        </Node>
        <Node pos="r" depth="1" NCoef="0" IVar="4" Cut="9.9938122558593750e+02" cType="1" res="-4.3423172086477280e-02" rms="4.6633818745613098e-01" purity="4.4269236922264099e-01" nType="0">
          <Node pos="l" depth="2" NCoef="0" IVar="-1" Cut="0.0000000000000000e+00" cType="1" res="-1.1642761528491974e-03" rms="4.5696794986724854e-01" purity="3.7677317857742310e-01" nType="-99"/>
          <Node pos="r" depth="2" NCoef="0" IVar="-1" Cut="0.0000000000000000e+00" cType="1" res="1.5430795610882342e-04" rms="4.7189626097679138e-01" purity="5.2211469411849976e-01" nType="-99"/>
        </Node>
      </Node>
    </BinaryTree>
    <BinaryTree type="DecisionTree" boostWeight="1.0000000000000000e+00" itree="815">
      <Node pos="s" depth="0" NCoef="0" IVar="1" Cut="9.9764961242675781e+01" cType="1" res="1.0260922135785222e-03" rms="4.6617576479911804e-01" purity="5.0943481922149658e-01" nType="0">
        <Node pos="l" depth="1" NCoef="0" IVar="-1" Cut="0.0000000000000000e+00" cType="1" res="-1.3921421486884356e-03" rms="4.2005062103271484e-01" purity="2.5649785995483398e-01" nType="-99"/>
        <Node pos="r" depth="1" NCoef="0" IVar="4" Cut="5.0485494995117188e+02" cType="1" res="1.2266153469681740e-02" rms="4.6870094537734985e-01" purity="5.3315895795822144e-01" nType="0">
          <Node pos="l" depth="2" NCoef="0" IVar="-1" Cut="0.0000000000000000e+00" cType="1" res="-7.4729736661538482e-04" rms="4.7018083930015564e-01" purity="4.4745135307312012e-01" nType="-99"/>
          <Node pos="r" depth="2" NCoef="0" IVar="-1" Cut="0.0000000000000000e+00" cType="1" res="3.7029548548161983e-04" rms="4.6767675876617432e-01" purity="5.4659640789031982e-01" nType="-99"/>
        </Node>
      </Node>
    </BinaryTree>
    <BinaryTree type="DecisionTree" boostWeight="1.0000000000000000e+00" itree="816">
      <Node pos="s" depth="0" NCoef="0" IVar="3" Cut="9.5879489183425903e-01" cType="1" res="-5.9141302481293678e-03" rms="4.6532627940177917e-01" purity="5.0219959020614624e-01" nType="0">
        <Node pos="l" depth="1" NCoef="0" IVar="4" Cut="6.0553302001953125e+02" cType="1" res="-1.4489852823317051e-02" rms="4.6922156214714050e-01" purity="4.7747832536697388e-01" nType="0">
          <Node pos="l" depth="2" NCoef="0" IVar="-1" Cut="0.0000000000000000e+00" cType="1" res="-7.2605314198881388e-04" rms="4.5711636543273926e-01" purity="4.2058020830154419e-01" nType="-99"/>
          <Node pos="r" depth="2" NCoef="0" IVar="-1" Cut="0.0000000000000000e+00" cType="1" res="2.8085689336876385e-05" rms="4.7358912229537964e-01" purity="5.0276625156402588e-01" nType="-99"/>
        </Node>
        <Node pos="r" depth="1" NCoef="0" IVar="-1" Cut="0.0000000000000000e+00" cType="1" res="1.9242767011746764e-03" rms="4.1995766758918762e-01" purity="7.2852098941802979e-01" nType="-99"/>
      </Node>
    </BinaryTree>
    <BinaryTree type="DecisionTree" boostWeight="1.0000000000000000e+00" itree="817">
      <Node pos="s" depth="0" NCoef="0" IVar="1" Cut="1.4708995056152344e+02" cType="1" res="-2.2595734335482121e-03" rms="4.6769312024116516e-01" purity="5.0722420215606689e-01" nType="0">
        <Node pos="l" depth="1" NCoef="0" IVar="4" Cut="5.1117098999023438e+02" cType="1" res="6.0834176838397980e-03" rms="4.7046273946762085e-01" purity="5.3076297044754028e-01" nType="0">
          <Node pos="l" depth="2" NCoef="0" IVar="-1" Cut="0.0000000000000000e+00" cType="1" res="-9.2817423865199089e-04" rms="4.6182781457901001e-01" purity="4.2375019192695618e-01" nType="-99"/>
          <Node pos="r" depth="2" NCoef="0" IVar="-1" Cut="0.0000000000000000e+00" cType="1" res="3.1161276274360716e-04" rms="4.7088789939880371e-01" purity="5.5013811588287354e-01" nType="-99"/>
        </Node>
        <Node pos="r" depth="1" NCoef="0" IVar="-1" Cut="0.0000000000000000e+00" cType="1" res="-1.1249020462855697e-03" rms="4.2763671278953552e-01" purity="2.5906443595886230e-01" nType="-99"/>
      </Node>
    </BinaryTree>
    <BinaryTree type="DecisionTree" boostWeight="1.0000000000000000e+00" itree="818">
      <Node pos="s" depth="0" NCoef="0" IVar="0" Cut="1.5358863830566406e+02" cType="1" res="-7.5217029079794884e-03" rms="4.6409073472023010e-01" purity="4.9796774983406067e-01" nType="0">
        <Node pos="l" depth="1" NCoef="0" IVar="3" Cut="8.5783505439758301e-01" cType="1" res="2.1811239421367645e-02" rms="4.6383586525917053e-01" purity="5.6578212976455688e-01" nType="0">
          <Node pos="l" depth="2" NCoef="0" IVar="-1" Cut="0.0000000000000000e+00" cType="1" res="-1.1528825853019953e-03" rms="4.5679530501365662e-01" purity="3.4908717870712280e-01" nType="-99"/>
          <Node pos="r" depth="2" NCoef="0" IVar="-1" Cut="0.0000000000000000e+00" cType="1" res="7.2233536047860980e-04" rms="4.6231955289840698e-01" purity="5.9834337234497070e-01" nType="-99"/>
        </Node>
        <Node pos="r" depth="1" NCoef="0" IVar="1" Cut="1.2815995788574219e+02" cType="1" res="-3.7647448480129242e-02" rms="4.6241956949234009e-01" purity="4.2832046747207642e-01" nType="0">
          <Node pos="l" depth="2" NCoef="0" IVar="-1" Cut="0.0000000000000000e+00" cType="1" res="-1.5049318608362228e-04" rms="4.6725037693977356e-01" purity="4.8504200577735901e-01" nType="-99"/>
          <Node pos="r" depth="2" NCoef="0" IVar="-1" Cut="0.0000000000000000e+00" cType="1" res="-9.8297325894236565e-04" rms="4.5275014638900757e-01" purity="3.4925639629364014e-01" nType="-99"/>
        </Node>
      </Node>
    </BinaryTree>
    <BinaryTree type="DecisionTree" boostWeight="1.0000000000000000e+00" itree="819">
      <Node pos="s" depth="0" NCoef="0" IVar="4" Cut="5.4132385253906250e+02" cType="1" res="-6.0935034416615963e-03" rms="4.6687957644462585e-01" purity="5.0126296281814575e-01" nType="0">
        <Node pos="l" depth="1" NCoef="0" IVar="2" Cut="6.8161669921875000e+02" cType="1" res="-5.6982707232236862e-02" rms="4.6194073557853699e-01" purity="4.3226805329322815e-01" nType="0">
          <Node pos="l" depth="2" NCoef="0" IVar="-1" Cut="0.0000000000000000e+00" cType="1" res="2.7420170954428613e-04" rms="4.8903110623359680e-01" purity="5.8290338516235352e-01" nType="-99"/>
          <Node pos="r" depth="2" NCoef="0" IVar="-1" Cut="0.0000000000000000e+00" cType="1" res="-1.6980773070827127e-03" rms="4.1119235754013062e-01" purity="2.5292772054672241e-01" nType="-99"/>
        </Node>
        <Node pos="r" depth="1" NCoef="0" IVar="2" Cut="7.9255267333984375e+02" cType="1" res="6.8956967443227768e-03" rms="4.6724477410316467e-01" purity="5.1887351274490356e-01" nType="0">
          <Node pos="l" depth="2" NCoef="0" IVar="-1" Cut="0.0000000000000000e+00" cType="1" res="2.0065947901457548e-03" rms="4.4802770018577576e-01" purity="6.7999440431594849e-01" nType="-99"/>
          <Node pos="r" depth="2" NCoef="0" IVar="-1" Cut="0.0000000000000000e+00" cType="1" res="-1.1752558202715591e-04" rms="4.6853652596473694e-01" purity="4.9362149834632874e-01" nType="-99"/>
        </Node>
      </Node>
    </BinaryTree>
    <BinaryTree type="DecisionTree" boostWeight="1.0000000000000000e+00" itree="820">
      <Node pos="s" depth="0" NCoef="0" IVar="0" Cut="6.8668731689453125e+01" cType="1" res="-1.6422631219029427e-02" rms="4.6864578127861023e-01" purity="4.9356243014335632e-01" nType="0">
        <Node pos="l" depth="1" NCoef="0" IVar="-1" Cut="0.0000000000000000e+00" cType="1" res="-1.1905319988727570e-03" rms="4.5233240723609924e-01" purity="3.3441042900085449e-01" nType="-99"/>
        <Node pos="r" depth="1" NCoef="0" IVar="0" Cut="2.4271510314941406e+02" cType="1" res="-7.1153133176267147e-03" rms="4.6962177753448486e-01" purity="5.1207101345062256e-01" nType="0">
          <Node pos="l" depth="2" NCoef="0" IVar="-1" Cut="0.0000000000000000e+00" cType="1" res="1.3300872524268925e-04" rms="4.7266885638237000e-01" purity="5.6631457805633545e-01" nType="-99"/>
          <Node pos="r" depth="2" NCoef="0" IVar="-1" Cut="0.0000000000000000e+00" cType="1" res="-5.8203114895150065e-04" rms="4.6054664254188538e-01" purity="3.8565769791603088e-01" nType="-99"/>
        </Node>
      </Node>
    </BinaryTree>
    <BinaryTree type="DecisionTree" boostWeight="1.0000000000000000e+00" itree="821">
      <Node pos="s" depth="0" NCoef="0" IVar="3" Cut="9.2192989587783813e-01" cType="1" res="-1.7548616975545883e-02" rms="4.6466660499572754e-01" purity="4.8793309926986694e-01" nType="0">
        <Node pos="l" depth="1" NCoef="0" IVar="4" Cut="1.1220272216796875e+03" cType="1" res="-3.7091009318828583e-02" rms="4.6909162402153015e-01" purity="4.2749619483947754e-01" nType="0">
          <Node pos="l" depth="2" NCoef="0" IVar="-1" Cut="0.0000000000000000e+00" cType="1" res="-6.3290807884186506e-04" rms="4.6768844127655029e-01" purity="4.1869032382965088e-01" nType="-99"/>
          <Node pos="r" depth="2" NCoef="0" IVar="-1" Cut="0.0000000000000000e+00" cType="1" res="5.9075542958453298e-04" rms="4.7294259071350098e-01" purity="4.9687331914901733e-01" nType="-99"/>
        </Node>
        <Node pos="r" depth="1" NCoef="0" IVar="5" Cut="5.5562162399291992e-01" cType="1" res="3.3632840961217880e-02" rms="4.4885838031768799e-01" purity="6.4621710777282715e-01" nType="0">
          <Node pos="l" depth="2" NCoef="0" IVar="-1" Cut="0.0000000000000000e+00" cType="1" res="1.4505698345601559e-03" rms="4.3819433450698853e-01" purity="6.7242968082427979e-01" nType="-99"/>
          <Node pos="r" depth="2" NCoef="0" IVar="-1" Cut="0.0000000000000000e+00" cType="1" res="-1.0694241063902155e-04" rms="4.5994892716407776e-01" purity="6.1085987091064453e-01" nType="-99"/>
        </Node>
      </Node>
    </BinaryTree>
    <BinaryTree type="DecisionTree" boostWeight="1.0000000000000000e+00" itree="822">
      <Node pos="s" depth="0" NCoef="0" IVar="4" Cut="4.7788293457031250e+02" cType="1" res="-2.8915872098878026e-04" rms="4.6937856078147888e-01" purity="5.1065474748611450e-01" nType="0">
        <Node pos="l" depth="1" NCoef="0" IVar="-1" Cut="0.0000000000000000e+00" cType="1" res="-1.2510617962107062e-03" rms="4.7059628367424011e-01" purity="4.0239083766937256e-01" nType="-99"/>
        <Node pos="r" depth="1" NCoef="0" IVar="1" Cut="1.3516355895996094e+02" cType="1" res="8.7058153003454208e-03" rms="4.6829918026924133e-01" purity="5.2136355638504028e-01" nType="0">
          <Node pos="l" depth="2" NCoef="0" IVar="-1" Cut="0.0000000000000000e+00" cType="1" res="3.4427322680130601e-04" rms="4.6901142597198486e-01" purity="5.5581814050674438e-01" nType="-99"/>
          <Node pos="r" depth="2" NCoef="0" IVar="-1" Cut="0.0000000000000000e+00" cType="1" res="-5.7239731540903449e-04" rms="4.6181407570838928e-01" purity="3.7502530217170715e-01" nType="-99"/>
        </Node>
      </Node>
    </BinaryTree>
    <BinaryTree type="DecisionTree" boostWeight="1.0000000000000000e+00" itree="823">
      <Node pos="s" depth="0" NCoef="0" IVar="1" Cut="1.0814468383789062e+02" cType="1" res="-3.7233538459986448e-03" rms="4.6177682280540466e-01" purity="5.0168615579605103e-01" nType="0">
        <Node pos="l" depth="1" NCoef="0" IVar="2" Cut="1.0389183349609375e+03" cType="1" res="-8.2204863429069519e-02" rms="4.4370117783546448e-01" purity="3.4226495027542114e-01" nType="0">
          <Node pos="l" depth="2" NCoef="0" IVar="-1" Cut="0.0000000000000000e+00" cType="1" res="-4.8387728747911751e-04" rms="4.5613563060760498e-01" purity="4.1246157884597778e-01" nType="-99"/>
          <Node pos="r" depth="2" NCoef="0" IVar="-1" Cut="0.0000000000000000e+00" cType="1" res="-1.4099411200731993e-03" rms="4.3039426207542419e-01" purity="2.8843969106674194e-01" nType="-99"/>
        </Node>
        <Node pos="r" depth="1" NCoef="0" IVar="1" Cut="1.3115121459960938e+02" cType="1" res="1.0804683901369572e-02" rms="4.6359074115753174e-01" purity="5.3119730949401855e-01" nType="0">
          <Node pos="l" depth="2" NCoef="0" IVar="-1" Cut="0.0000000000000000e+00" cType="1" res="6.1244948301464319e-04" rms="4.6208548545837402e-01" purity="5.9089362621307373e-01" nType="-99"/>
          <Node pos="r" depth="2" NCoef="0" IVar="-1" Cut="0.0000000000000000e+00" cType="1" res="-5.4813700262457132e-04" rms="4.6264436841011047e-01" purity="4.0932589769363403e-01" nType="-99"/>
        </Node>
      </Node>
    </BinaryTree>
    <BinaryTree type="DecisionTree" boostWeight="1.0000000000000000e+00" itree="824">
      <Node pos="s" depth="0" NCoef="0" IVar="3" Cut="8.9287114143371582e-01" cType="1" res="-6.1182738281786442e-03" rms="4.6602436900138855e-01" purity="4.9955180287361145e-01" nType="0">
        <Node pos="l" depth="1" NCoef="0" IVar="1" Cut="1.3287933349609375e+02" cType="1" res="-2.8397774323821068e-02" rms="4.6636110544204712e-01" purity="4.0466165542602539e-01" nType="0">
          <Node pos="l" depth="2" NCoef="0" IVar="-1" Cut="0.0000000000000000e+00" cType="1" res="-1.7539445252623409e-04" rms="4.7311329841613770e-01" purity="4.4212839007377625e-01" nType="-99"/>
          <Node pos="r" depth="2" NCoef="0" IVar="-1" Cut="0.0000000000000000e+00" cType="1" res="-8.7533367332071066e-04" rms="4.4441899657249451e-01" purity="3.0101531744003296e-01" nType="-99"/>
        </Node>
        <Node pos="r" depth="1" NCoef="0" IVar="2" Cut="8.4836389160156250e+02" cType="1" res="1.6762856394052505e-02" rms="4.6456748247146606e-01" purity="5.9700435400009155e-01" nType="0">
          <Node pos="l" depth="2" NCoef="0" IVar="-1" Cut="0.0000000000000000e+00" cType="1" res="1.0831045219674706e-03" rms="4.5084068179130554e-01" purity="6.7277252674102783e-01" nType="-99"/>
          <Node pos="r" depth="2" NCoef="0" IVar="-1" Cut="0.0000000000000000e+00" cType="1" res="2.1467682017828338e-05" rms="4.7007662057876587e-01" purity="5.6140679121017456e-01" nType="-99"/>
        </Node>
      </Node>
    </BinaryTree>
    <BinaryTree type="DecisionTree" boostWeight="1.0000000000000000e+00" itree="825">
      <Node pos="s" depth="0" NCoef="0" IVar="2" Cut="6.5658941650390625e+02" cType="1" res="-6.1317966319620609e-03" rms="4.6782281994819641e-01" purity="5.0350081920623779e-01" nType="0">
        <Node pos="l" depth="1" NCoef="0" IVar="-1" Cut="0.0000000000000000e+00" cType="1" res="1.1109822662547231e-03" rms="4.6240931749343872e-01" purity="6.3141578435897827e-01" nType="-99"/>
        <Node pos="r" depth="1" NCoef="0" IVar="4" Cut="5.5458148193359375e+02" cType="1" res="-1.3272013515233994e-02" rms="4.6788164973258972e-01" purity="4.8921328783035278e-01" nType="0">
          <Node pos="l" depth="2" NCoef="0" IVar="-1" Cut="0.0000000000000000e+00" cType="1" res="-1.2785150902345777e-03" rms="4.3637299537658691e-01" purity="3.2654774188995361e-01" nType="-99"/>
          <Node pos="r" depth="2" NCoef="0" IVar="-1" Cut="0.0000000000000000e+00" cType="1" res="-1.7114622096414678e-05" rms="4.7111269831657410e-01" purity="5.1314741373062134e-01" nType="-99"/>
        </Node>
      </Node>
    </BinaryTree>
    <BinaryTree type="DecisionTree" boostWeight="1.0000000000000000e+00" itree="826">
      <Node pos="s" depth="0" NCoef="0" IVar="4" Cut="4.7362088012695312e+02" cType="1" res="-1.0082244873046875e-02" rms="4.7043538093566895e-01" purity="4.9817660450935364e-01" nType="0">
        <Node pos="l" depth="1" NCoef="0" IVar="-1" Cut="0.0000000000000000e+00" cType="1" res="-1.3004617067053914e-03" rms="4.5852869749069214e-01" purity="3.7934684753417969e-01" nType="-99"/>
        <Node pos="r" depth="1" NCoef="0" IVar="1" Cut="1.1509207153320312e+02" cType="1" res="-2.0421303343027830e-03" rms="4.7066074609756470e-01" purity="5.0886845588684082e-01" nType="0">
          <Node pos="l" depth="2" NCoef="0" IVar="-1" Cut="0.0000000000000000e+00" cType="1" res="-5.1243160851299763e-04" rms="4.6662959456443787e-01" purity="4.4740292429924011e-01" nType="-99"/>
          <Node pos="r" depth="2" NCoef="0" IVar="-1" Cut="0.0000000000000000e+00" cType="1" res="1.5948893269523978e-04" rms="4.7154685854911804e-01" purity="5.3132963180541992e-01" nType="-99"/>
        </Node>
      </Node>
    </BinaryTree>
    <BinaryTree type="DecisionTree" boostWeight="1.0000000000000000e+00" itree="827">
      <Node pos="s" depth="0" NCoef="0" IVar="3" Cut="9.5986008644104004e-01" cType="1" res="-1.4881309121847153e-02" rms="4.6196424961090088e-01" purity="4.8899054527282715e-01" nType="0">
        <Node pos="l" depth="1" NCoef="0" IVar="1" Cut="9.9138389587402344e+01" cType="1" res="-2.2149255499243736e-02" rms="4.6523228287696838e-01" purity="4.6620452404022217e-01" nType="0">
          <Node pos="l" depth="2" NCoef="0" IVar="-1" Cut="0.0000000000000000e+00" cType="1" res="-1.1016684584319592e-03" rms="4.2934757471084595e-01" purity="2.7007892727851868e-01" nType="-99"/>
          <Node pos="r" depth="2" NCoef="0" IVar="-1" Cut="0.0000000000000000e+00" cType="1" res="-2.3236454580910504e-04" rms="4.6788686513900757e-01" purity="4.8431205749511719e-01" nType="-99"/>
        </Node>
        <Node pos="r" depth="1" NCoef="0" IVar="-1" Cut="0.0000000000000000e+00" cType="1" res="1.4809204731136560e-03" rms="4.2227753996849060e-01" purity="7.1122276782989502e-01" nType="-99"/>
      </Node>
    </BinaryTree>
    <BinaryTree type="DecisionTree" boostWeight="1.0000000000000000e+00" itree="828">
      <Node pos="s" depth="0" NCoef="0" IVar="3" Cut="9.3733787536621094e-01" cType="1" res="-2.4133096449077129e-03" rms="4.6535989642143250e-01" purity="5.0471431016921997e-01" nType="0">
        <Node pos="l" depth="1" NCoef="0" IVar="4" Cut="4.8256680297851562e+02" cType="1" res="-1.4867548830807209e-02" rms="4.7172719240188599e-01" purity="4.6140414476394653e-01" nType="0">
          <Node pos="l" depth="2" NCoef="0" IVar="-1" Cut="0.0000000000000000e+00" cType="1" res="-1.3200052781030536e-03" rms="4.4608238339424133e-01" purity="3.3593147993087769e-01" nType="-99"/>
          <Node pos="r" depth="2" NCoef="0" IVar="-1" Cut="0.0000000000000000e+00" cType="1" res="-7.2391761932522058e-05" rms="4.7339293360710144e-01" purity="4.7515943646430969e-01" nType="-99"/>
        </Node>
        <Node pos="r" depth="1" NCoef="0" IVar="4" Cut="7.9972070312500000e+02" cType="1" res="4.9045652151107788e-02" rms="4.3430110812187195e-01" purity="6.8366521596908569e-01" nType="0">
          <Node pos="l" depth="2" NCoef="0" IVar="-1" Cut="0.0000000000000000e+00" cType="1" res="1.8205693049822003e-04" rms="4.4587776064872742e-01" purity="6.3768559694290161e-01" nType="-99"/>
          <Node pos="r" depth="2" NCoef="0" IVar="-1" Cut="0.0000000000000000e+00" cType="1" res="3.3184420317411423e-03" rms="4.0353396534919739e-01" purity="7.6384890079498291e-01" nType="-99"/>
        </Node>
      </Node>
    </BinaryTree>
    <BinaryTree type="DecisionTree" boostWeight="1.0000000000000000e+00" itree="829">
      <Node pos="s" depth="0" NCoef="0" IVar="2" Cut="8.0716894531250000e+02" cType="1" res="-5.7266526855528355e-03" rms="4.6835029125213623e-01" purity="5.0526654720306396e-01" nType="0">
        <Node pos="l" depth="1" NCoef="0" IVar="5" Cut="1.9714142382144928e-01" cType="1" res="5.4022330790758133e-02" rms="4.6603280305862427e-01" purity="6.0513734817504883e-01" nType="0">
          <Node pos="l" depth="2" NCoef="0" IVar="-1" Cut="0.0000000000000000e+00" cType="1" res="-5.3711095824837685e-04" rms="4.9193313717842102e-01" purity="5.2172213792800903e-01" nType="-99"/>
          <Node pos="r" depth="2" NCoef="0" IVar="-1" Cut="0.0000000000000000e+00" cType="1" res="1.4546896563842893e-03" rms="4.5561555027961731e-01" purity="6.2861269712448120e-01" nType="-99"/>
        </Node>
        <Node pos="r" depth="1" NCoef="0" IVar="0" Cut="4.2423071289062500e+02" cType="1" res="-2.5830002501606941e-02" rms="4.6741342544555664e-01" purity="4.7166371345520020e-01" nType="0">
          <Node pos="l" depth="2" NCoef="0" IVar="-1" Cut="0.0000000000000000e+00" cType="1" res="-2.3454261827282608e-04" rms="4.7070097923278809e-01" purity="4.9599325656890869e-01" nType="-99"/>
          <Node pos="r" depth="2" NCoef="0" IVar="-1" Cut="0.0000000000000000e+00" cType="1" res="-1.3304164167493582e-03" rms="4.3140062689781189e-01" purity="2.7933076024055481e-01" nType="-99"/>
        </Node>
      </Node>
    </BinaryTree>
    <BinaryTree type="DecisionTree" boostWeight="1.0000000000000000e+00" itree="830">
      <Node pos="s" depth="0" NCoef="0" IVar="4" Cut="5.5900549316406250e+02" cType="1" res="-6.3438965007662773e-03" rms="4.6252921223640442e-01" purity="4.9807077646255493e-01" nType="0">
        <Node pos="l" depth="1" NCoef="0" IVar="2" Cut="6.3142755126953125e+02" cType="1" res="-4.9038194119930267e-02" rms="4.4915649294853210e-01" purity="4.3186143040657043e-01" nType="0">
          <Node pos="l" depth="2" NCoef="0" IVar="-1" Cut="0.0000000000000000e+00" cType="1" res="8.6285342695191503e-04" rms="4.7790366411209106e-01" purity="6.1914640665054321e-01" nType="-99"/>
          <Node pos="r" depth="2" NCoef="0" IVar="-1" Cut="0.0000000000000000e+00" cType="1" res="-1.3078487245365977e-03" rms="4.2356079816818237e-01" purity="3.2858613133430481e-01" nType="-99"/>
        </Node>
        <Node pos="r" depth="1" NCoef="0" IVar="2" Cut="1.4332215576171875e+03" cType="1" res="5.4032700136303902e-03" rms="4.6545487642288208e-01" purity="5.1628798246383667e-01" nType="0">
          <Node pos="l" depth="2" NCoef="0" IVar="-1" Cut="0.0000000000000000e+00" cType="1" res="4.4222525320947170e-04" rms="4.6815270185470581e-01" purity="5.5680727958679199e-01" nType="-99"/>
          <Node pos="r" depth="2" NCoef="0" IVar="-1" Cut="0.0000000000000000e+00" cType="1" res="-6.5291050123050809e-04" rms="4.5388263463973999e-01" purity="4.0991106629371643e-01" nType="-99"/>
        </Node>
      </Node>
    </BinaryTree>
    <BinaryTree type="DecisionTree" boostWeight="1.0000000000000000e+00" itree="831">
      <Node pos="s" depth="0" NCoef="0" IVar="4" Cut="1.0037093505859375e+03" cType="1" res="-1.2099363841116428e-02" rms="4.6740508079528809e-01" purity="4.9830749630928040e-01" nType="0">
        <Node pos="l" depth="1" NCoef="0" IVar="2" Cut="1.1455540771484375e+03" cType="1" res="-2.3661645129323006e-02" rms="4.6771278977394104e-01" purity="4.8798575997352600e-01" nType="0">
          <Node pos="l" depth="2" NCoef="0" IVar="-1" Cut="0.0000000000000000e+00" cType="1" res="-1.0974564793286845e-04" rms="4.6703609824180603e-01" purity="5.1708853244781494e-01" nType="-99"/>
          <Node pos="r" depth="2" NCoef="0" IVar="-1" Cut="0.0000000000000000e+00" cType="1" res="-1.0385435307398438e-03" rms="4.6571698784828186e-01" purity="3.9336812496185303e-01" nType="-99"/>
        </Node>
        <Node pos="r" depth="1" NCoef="0" IVar="0" Cut="2.4829414367675781e+02" cType="1" res="3.8901455700397491e-02" rms="4.6260952949523926e-01" purity="5.4383635520935059e-01" nType="0">
          <Node pos="l" depth="2" NCoef="0" IVar="-1" Cut="0.0000000000000000e+00" cType="1" res="2.0034078042954206e-03" rms="4.4501385092735291e-01" purity="6.6841357946395874e-01" nType="-99"/>
          <Node pos="r" depth="2" NCoef="0" IVar="-1" Cut="0.0000000000000000e+00" cType="1" res="-3.3416066435165703e-04" rms="4.7165757417678833e-01" purity="4.1449287533760071e-01" nType="-99"/>
        </Node>
      </Node>
    </BinaryTree>
    <BinaryTree type="DecisionTree" boostWeight="1.0000000000000000e+00" itree="832">
      <Node pos="s" depth="0" NCoef="0" IVar="4" Cut="8.3257269287109375e+02" cType="1" res="-9.3771237879991531e-03" rms="4.6926319599151611e-01" purity="5.0247716903686523e-01" nType="0">
        <Node pos="l" depth="1" NCoef="0" IVar="2" Cut="1.0140343017578125e+03" cType="1" res="-2.6903226971626282e-02" rms="4.6628651022911072e-01" purity="4.8044005036354065e-01" nType="0">
          <Node pos="l" depth="2" NCoef="0" IVar="-1" Cut="0.0000000000000000e+00" cType="1" res="-9.1228073870297521e-05" rms="4.7080659866333008e-01" purity="5.2587896585464478e-01" nType="-99"/>
          <Node pos="r" depth="2" NCoef="0" IVar="-1" Cut="0.0000000000000000e+00" cType="1" res="-1.1567198671400547e-03" rms="4.4814401865005493e-01" purity="3.5365650057792664e-01" nType="-99"/>
        </Node>
        <Node pos="r" depth="1" NCoef="0" IVar="2" Cut="1.2813862304687500e+03" cType="1" res="2.4551220238208771e-02" rms="4.7313138842582703e-01" purity="5.4513829946517944e-01" nType="0">
          <Node pos="l" depth="2" NCoef="0" IVar="-1" Cut="0.0000000000000000e+00" cType="1" res="2.1592946723103523e-03" rms="4.4644078612327576e-01" purity="6.8398576974868774e-01" nType="-99"/>
          <Node pos="r" depth="2" NCoef="0" IVar="-1" Cut="0.0000000000000000e+00" cType="1" res="-1.2599267938639969e-04" rms="4.8024562001228333e-01" purity="4.8628708720207214e-01" nType="-99"/>
        </Node>
      </Node>
    </BinaryTree>
    <BinaryTree type="DecisionTree" boostWeight="1.0000000000000000e+00" itree="833">
      <Node pos="s" depth="0" NCoef="0" IVar="0" Cut="2.2983039855957031e+02" cType="1" res="-1.0208667954429984e-03" rms="4.6041512489318848e-01" purity="5.0205749273300171e-01" nType="0">
        <Node pos="l" depth="1" NCoef="0" IVar="0" Cut="8.2475990295410156e+01" cType="1" res="2.0755646750330925e-02" rms="4.6018168330192566e-01" purity="5.5677926540374756e-01" nType="0">
          <Node pos="l" depth="2" NCoef="0" IVar="-1" Cut="0.0000000000000000e+00" cType="1" res="-6.9274037377908826e-04" rms="4.5402070879936218e-01" purity="3.8819399476051331e-01" nType="-99"/>
          <Node pos="r" depth="2" NCoef="0" IVar="-1" Cut="0.0000000000000000e+00" cType="1" res="7.5934658525511622e-04" rms="4.5978280901908875e-01" purity="6.0629236698150635e-01" nType="-99"/>
        </Node>
        <Node pos="r" depth="1" NCoef="0" IVar="5" Cut="5.7462507486343384e-01" cType="1" res="-5.0662599503993988e-02" rms="4.5708492398262024e-01" purity="3.7731379270553589e-01" nType="0">
          <Node pos="l" depth="2" NCoef="0" IVar="-1" Cut="0.0000000000000000e+00" cType="1" res="-1.0846613440662622e-03" rms="4.4240567088127136e-01" purity="3.3211529254913330e-01" nType="-99"/>
          <Node pos="r" depth="2" NCoef="0" IVar="-1" Cut="0.0000000000000000e+00" cType="1" res="6.4607025706209242e-05" rms="4.7580409049987793e-01" purity="4.5365780591964722e-01" nType="-99"/>
        </Node>
      </Node>
    </BinaryTree>
    <BinaryTree type="DecisionTree" boostWeight="1.0000000000000000e+00" itree="834">
      <Node pos="s" depth="0" NCoef="0" IVar="0" Cut="6.7829383850097656e+01" cType="1" res="-4.3244925327599049e-03" rms="4.6413698792457581e-01" purity="5.0333893299102783e-01" nType="0">
        <Node pos="l" depth="1" NCoef="0" IVar="-1" Cut="0.0000000000000000e+00" cType="1" res="-1.1137218680232763e-03" rms="4.4322401285171509e-01" purity="3.2012233138084412e-01" nType="-99"/>
        <Node pos="r" depth="1" NCoef="0" IVar="4" Cut="4.9637332153320312e+02" cType="1" res="5.8402619324624538e-03" rms="4.6558642387390137e-01" purity="5.2556991577148438e-01" nType="0">
          <Node pos="l" depth="2" NCoef="0" IVar="-1" Cut="0.0000000000000000e+00" cType="1" res="-9.7732536960393190e-04" rms="4.4962656497955322e-01" purity="4.2732146382331848e-01" nType="-99"/>
          <Node pos="r" depth="2" NCoef="0" IVar="-1" Cut="0.0000000000000000e+00" cType="1" res="2.3673144460190088e-04" rms="4.6665593981742859e-01" purity="5.3705602884292603e-01" nType="-99"/>
        </Node>
      </Node>
    </BinaryTree>
    <BinaryTree type="DecisionTree" boostWeight="1.0000000000000000e+00" itree="835">
      <Node pos="s" depth="0" NCoef="0" IVar="2" Cut="1.0255944824218750e+03" cType="1" res="-1.9019180908799171e-02" rms="4.6557500958442688e-01" purity="4.8714506626129150e-01" nType="0">
        <Node pos="l" depth="1" NCoef="0" IVar="4" Cut="5.8735229492187500e+02" cType="1" res="3.4615648910403252e-03" rms="4.6371656656265259e-01" purity="5.2726536989212036e-01" nType="0">
          <Node pos="l" depth="2" NCoef="0" IVar="-1" Cut="0.0000000000000000e+00" cType="1" res="-5.8928929502144456e-04" rms="4.5249933004379272e-01" purity="4.4935485720634460e-01" nType="-99"/>
          <Node pos="r" depth="2" NCoef="0" IVar="-1" Cut="0.0000000000000000e+00" cType="1" res="8.9939666213467717e-04" rms="4.7064355015754700e-01" purity="6.0684370994567871e-01" nType="-99"/>
        </Node>
        <Node pos="r" depth="1" NCoef="0" IVar="4" Cut="8.8215844726562500e+02" cType="1" res="-4.1991487145423889e-02" rms="4.6634829044342041e-01" purity="4.4614750146865845e-01" nType="0">
          <Node pos="l" depth="2" NCoef="0" IVar="-1" Cut="0.0000000000000000e+00" cType="1" res="-1.2710880255326629e-03" rms="4.4248303771018982e-01" purity="3.4391468763351440e-01" nType="-99"/>
          <Node pos="r" depth="2" NCoef="0" IVar="-1" Cut="0.0000000000000000e+00" cType="1" res="5.9800924645969644e-05" rms="4.7882121801376343e-01" purity="5.2450847625732422e-01" nType="-99"/>
        </Node>
      </Node>
    </BinaryTree>
    <BinaryTree type="DecisionTree" boostWeight="1.0000000000000000e+00" itree="836">
      <Node pos="s" depth="0" NCoef="0" IVar="2" Cut="7.3074060058593750e+02" cType="1" res="-2.3258337751030922e-03" rms="4.6475729346275330e-01" purity="5.0687944889068604e-01" nType="0">
        <Node pos="l" depth="1" NCoef="0" IVar="4" Cut="5.2779547119140625e+02" cType="1" res="6.1991881579160690e-02" rms="4.4437107443809509e-01" purity="6.2676489353179932e-01" nType="0">
          <Node pos="l" depth="2" NCoef="0" IVar="-1" Cut="0.0000000000000000e+00" cType="1" res="4.1832528950180858e-05" rms="4.6007618308067322e-01" purity="5.3670626878738403e-01" nType="-99"/>
          <Node pos="r" depth="2" NCoef="0" IVar="-1" Cut="0.0000000000000000e+00" cType="1" res="4.9326247535645962e-03" rms="3.8985893130302429e-01" purity="7.9482185840606689e-01" nType="-99"/>
        </Node>
        <Node pos="r" depth="1" NCoef="0" IVar="4" Cut="5.6099597167968750e+02" cType="1" res="-1.5625000000000000e-02" rms="4.6775993704795837e-01" purity="4.8209038376808167e-01" nType="0">
          <Node pos="l" depth="2" NCoef="0" IVar="-1" Cut="0.0000000000000000e+00" cType="1" res="-1.0782271856442094e-03" rms="4.1822573542594910e-01" purity="2.7873736619949341e-01" nType="-99"/>
          <Node pos="r" depth="2" NCoef="0" IVar="-1" Cut="0.0000000000000000e+00" cType="1" res="-1.1267461377428845e-04" rms="4.7232568264007568e-01" purity="5.0517028570175171e-01" nType="-99"/>
        </Node>
      </Node>
    </BinaryTree>
    <BinaryTree type="DecisionTree" boostWeight="1.0000000000000000e+00" itree="837">
      <Node pos="s" depth="0" NCoef="0" IVar="2" Cut="1.4590039062500000e+03" cType="1" res="-9.0188235044479370e-03" rms="4.6699169278144836e-01" purity="4.9775323271751404e-01" nType="0">
        <Node pos="l" depth="1" NCoef="0" IVar="4" Cut="6.5880450439453125e+02" cType="1" res="3.2772091217339039e-03" rms="4.6576756238937378e-01" purity="5.2076178789138794e-01" nType="0">
          <Node pos="l" depth="2" NCoef="0" IVar="-1" Cut="0.0000000000000000e+00" cType="1" res="-4.3829783680848777e-04" rms="4.6168029308319092e-01" purity="4.6133396029472351e-01" nType="-99"/>
          <Node pos="r" depth="2" NCoef="0" IVar="-1" Cut="0.0000000000000000e+00" cType="1" res="6.5769627690315247e-04" rms="4.6754652261734009e-01" purity="5.8235710859298706e-01" nType="-99"/>
        </Node>
        <Node pos="r" depth="1" NCoef="0" IVar="1" Cut="1.1785610198974609e+02" cType="1" res="-5.9575021266937256e-02" rms="4.6861320734024048e-01" purity="4.0315169095993042e-01" nType="0">
          <Node pos="l" depth="2" NCoef="0" IVar="-1" Cut="0.0000000000000000e+00" cType="1" res="-1.7569190822541714e-03" rms="4.4576182961463928e-01" purity="3.0619978904724121e-01" nType="-99"/>
          <Node pos="r" depth="2" NCoef="0" IVar="-1" Cut="0.0000000000000000e+00" cType="1" res="-1.5213611186482012e-04" rms="4.7420915961265564e-01" purity="4.5873844623565674e-01" nType="-99"/>
        </Node>
      </Node>
    </BinaryTree>
    <BinaryTree type="DecisionTree" boostWeight="1.0000000000000000e+00" itree="838">
      <Node pos="s" depth="0" NCoef="0" IVar="0" Cut="2.4568336486816406e+02" cType="1" res="-8.8860811665654182e-03" rms="4.6707603335380554e-01" purity="4.9817469716072083e-01" nType="0">
        <Node pos="l" depth="1" NCoef="0" IVar="4" Cut="5.1968383789062500e+02" cType="1" res="7.8123500570654869e-03" rms="4.7079348564147949e-01" purity="5.4710304737091064e-01" nType="0">
          <Node pos="l" depth="2" NCoef="0" IVar="-1" Cut="0.0000000000000000e+00" cType="1" res="-7.2793697472661734e-04" rms="4.7010654211044312e-01" purity="4.4888666272163391e-01" nType="-99"/>
          <Node pos="r" depth="2" NCoef="0" IVar="-1" Cut="0.0000000000000000e+00" cType="1" res="3.7349088233895600e-04" rms="4.6989661455154419e-01" purity="5.7080250978469849e-01" nType="-99"/>
        </Node>
        <Node pos="r" depth="1" NCoef="0" IVar="4" Cut="7.7883532714843750e+02" cType="1" res="-5.4235879331827164e-02" rms="4.5373731851577759e-01" purity="3.6529457569122314e-01" nType="0">
          <Node pos="l" depth="2" NCoef="0" IVar="-1" Cut="0.0000000000000000e+00" cType="1" res="-1.1781227076426148e-03" rms="4.2923650145530701e-01" purity="3.0410271883010864e-01" nType="-99"/>
          <Node pos="r" depth="2" NCoef="0" IVar="-1" Cut="0.0000000000000000e+00" cType="1" res="-4.0898952283896506e-04" rms="4.6848919987678528e-01" purity="4.0775451064109802e-01" nType="-99"/>
        </Node>
      </Node>
    </BinaryTree>
    <BinaryTree type="DecisionTree" boostWeight="1.0000000000000000e+00" itree="839">
      <Node pos="s" depth="0" NCoef="0" IVar="2" Cut="2.0527131347656250e+03" cType="1" res="-1.2058445252478123e-02" rms="4.6710982918739319e-01" purity="4.9227833747863770e-01" nType="0">
        <Node pos="l" depth="1" NCoef="0" IVar="4" Cut="6.5010791015625000e+02" cType="1" res="-3.6805819254368544e-03" rms="4.6713644266128540e-01" purity="5.0381511449813843e-01" nType="0">
          <Node pos="l" depth="2" NCoef="0" IVar="-1" Cut="0.0000000000000000e+00" cType="1" res="-5.5659917416051030e-04" rms="4.6245270967483521e-01" purity="4.4885393977165222e-01" nType="-99"/>
          <Node pos="r" depth="2" NCoef="0" IVar="-1" Cut="0.0000000000000000e+00" cType="1" res="3.5239729913882911e-04" rms="4.6900010108947754e-01" purity="5.4453438520431519e-01" nType="-99"/>
        </Node>
        <Node pos="r" depth="1" NCoef="0" IVar="-1" Cut="0.0000000000000000e+00" cType="1" res="-1.4463934348896146e-03" rms="4.5350289344787598e-01" purity="3.4576907753944397e-01" nType="-99"/>
      </Node>
    </BinaryTree>
    <BinaryTree type="DecisionTree" boostWeight="1.0000000000000000e+00" itree="840">
      <Node pos="s" depth="0" NCoef="0" IVar="4" Cut="4.8526031494140625e+02" cType="1" res="-3.6780899390578270e-03" rms="4.6385604143142700e-01" purity="5.0136375427246094e-01" nType="0">
        <Node pos="l" depth="1" NCoef="0" IVar="-1" Cut="0.0000000000000000e+00" cType="1" res="-1.1165859177708626e-03" rms="4.5570150017738342e-01" purity="3.9680263400077820e-01" nType="-99"/>
        <Node pos="r" depth="1" NCoef="0" IVar="2" Cut="7.3911724853515625e+02" cType="1" res="5.3312205709517002e-03" rms="4.6398437023162842e-01" purity="5.1372784376144409e-01" nType="0">
          <Node pos="l" depth="2" NCoef="0" IVar="-1" Cut="0.0000000000000000e+00" cType="1" res="1.7612788360565901e-03" rms="4.4288480281829834e-01" purity="6.7969262599945068e-01" nType="-99"/>
          <Node pos="r" depth="2" NCoef="0" IVar="-1" Cut="0.0000000000000000e+00" cType="1" res="-8.3355254901107401e-05" rms="4.6573507785797119e-01" purity="4.9118945002555847e-01" nType="-99"/>
        </Node>
      </Node>
    </BinaryTree>
    <BinaryTree type="DecisionTree" boostWeight="1.0000000000000000e+00" itree="841">
      <Node pos="s" depth="0" NCoef="0" IVar="2" Cut="7.2677758789062500e+02" cType="1" res="-1.5351741574704647e-02" rms="4.6629089117050171e-01" purity="4.9244585633277893e-01" nType="0">
        <Node pos="l" depth="1" NCoef="0" IVar="4" Cut="5.1444293212890625e+02" cType="1" res="3.2619819045066833e-02" rms="4.6084883809089661e-01" purity="6.0011780261993408e-01" nType="0">
          <Node pos="l" depth="2" NCoef="0" IVar="-1" Cut="0.0000000000000000e+00" cType="1" res="-9.1282236098777503e-05" rms="4.7464984655380249e-01" purity="5.3055477142333984e-01" nType="-99"/>
          <Node pos="r" depth="2" NCoef="0" IVar="-1" Cut="0.0000000000000000e+00" cType="1" res="1.7722701886668801e-03" rms="4.3777725100517273e-01" purity="6.8881523609161377e-01" nType="-99"/>
        </Node>
        <Node pos="r" depth="1" NCoef="0" IVar="4" Cut="5.5421643066406250e+02" cType="1" res="-2.5082526728510857e-02" rms="4.6678599715232849e-01" purity="4.7060513496398926e-01" nType="0">
          <Node pos="l" depth="2" NCoef="0" IVar="-1" Cut="0.0000000000000000e+00" cType="1" res="-1.3820321764796972e-03" rms="4.0157085657119751e-01" purity="2.5780808925628662e-01" nType="-99"/>
          <Node pos="r" depth="2" NCoef="0" IVar="-1" Cut="0.0000000000000000e+00" cType="1" res="-2.4388061137869954e-04" rms="4.7182497382164001e-01" purity="4.9185410141944885e-01" nType="-99"/>
        </Node>
      </Node>
    </BinaryTree>
    <BinaryTree type="DecisionTree" boostWeight="1.0000000000000000e+00" itree="842">
      <Node pos="s" depth="0" NCoef="0" IVar="2" Cut="1.4488206787109375e+03" cType="1" res="-1.0733095929026604e-02" rms="4.6499940752983093e-01" purity="4.9477192759513855e-01" nType="0">
        <Node pos="l" depth="1" NCoef="0" IVar="4" Cut="5.1447149658203125e+02" cType="1" res="7.4149160645902157e-03" rms="4.6372595429420471e-01" purity="5.2290010452270508e-01" nType="0">
          <Node pos="l" depth="2" NCoef="0" IVar="-1" Cut="0.0000000000000000e+00" cType="1" res="-8.4493611939251423e-04" rms="4.5694577693939209e-01" purity="4.1232430934906006e-01" nType="-99"/>
          <Node pos="r" depth="2" NCoef="0" IVar="-1" Cut="0.0000000000000000e+00" cType="1" res="3.7327653262764215e-04" rms="4.6393722295761108e-01" purity="5.4727464914321899e-01" nType="-99"/>
        </Node>
        <Node pos="r" depth="1" NCoef="0" IVar="3" Cut="9.2009979486465454e-01" cType="1" res="-7.4252121150493622e-02" rms="4.6387121081352234e-01" purity="3.9632186293601990e-01" nType="0">
          <Node pos="l" depth="2" NCoef="0" IVar="-1" Cut="0.0000000000000000e+00" cType="1" res="-1.2277970090508461e-03" rms="4.5603713393211365e-01" purity="3.3390489220619202e-01" nType="-99"/>
          <Node pos="r" depth="2" NCoef="0" IVar="-1" Cut="0.0000000000000000e+00" cType="1" res="-1.7555776867084205e-04" rms="4.7833856940269470e-01" purity="5.6361168622970581e-01" nType="-99"/>
        </Node>
      </Node>
    </BinaryTree>
    <BinaryTree type="DecisionTree" boostWeight="1.0000000000000000e+00" itree="843">
      <Node pos="s" depth="0" NCoef="0" IVar="4" Cut="4.9637332153320312e+02" cType="1" res="-3.1642140820622444e-03" rms="4.6550810337066650e-01" purity="5.0673681497573853e-01" nType="0">
        <Node pos="l" depth="1" NCoef="0" IVar="5" Cut="3.9618450403213501e-01" cType="1" res="-6.1759270727634430e-02" rms="4.6525469422340393e-01" purity="4.2503255605697632e-01" nType="0">
          <Node pos="l" depth="2" NCoef="0" IVar="-1" Cut="0.0000000000000000e+00" cType="1" res="-1.2210707645863295e-03" rms="4.6474725008010864e-01" purity="3.8968715071678162e-01" nType="-99"/>
          <Node pos="r" depth="2" NCoef="0" IVar="-1" Cut="0.0000000000000000e+00" cType="1" res="-5.0911784637719393e-04" rms="4.6420273184776306e-01" purity="4.6429616212844849e-01" nType="-99"/>
        </Node>
        <Node pos="r" depth="1" NCoef="0" IVar="2" Cut="1.0177903442382812e+03" cType="1" res="4.5578400604426861e-03" rms="4.6499115228652954e-01" purity="5.1750433444976807e-01" nType="0">
          <Node pos="l" depth="2" NCoef="0" IVar="-1" Cut="0.0000000000000000e+00" cType="1" res="6.2476343009620905e-04" rms="4.6259710192680359e-01" purity="5.7772696018218994e-01" nType="-99"/>
          <Node pos="r" depth="2" NCoef="0" IVar="-1" Cut="0.0000000000000000e+00" cType="1" res="-3.2416658359579742e-04" rms="4.6529668569564819e-01" purity="4.6751922369003296e-01" nType="-99"/>
        </Node>
      </Node>
    </BinaryTree>
    <BinaryTree type="DecisionTree" boostWeight="1.0000000000000000e+00" itree="844">
      <Node pos="s" depth="0" NCoef="0" IVar="1" Cut="1.1471576690673828e+02" cType="1" res="-1.0426761582493782e-02" rms="4.6649038791656494e-01" purity="4.9695110321044922e-01" nType="0">
        <Node pos="l" depth="1" NCoef="0" IVar="3" Cut="8.8000911474227905e-01" cType="1" res="-5.0415623933076859e-02" rms="4.6463629603385925e-01" purity="4.2617413401603699e-01" nType="0">
          <Node pos="l" depth="2" NCoef="0" IVar="-1" Cut="0.0000000000000000e+00" cType="1" res="-1.7949534230865538e-04" rms="4.6001967787742615e-01" purity="3.8600921630859375e-01" nType="-99"/>
          <Node pos="r" depth="2" NCoef="0" IVar="-1" Cut="0.0000000000000000e+00" cType="1" res="-1.1312990682199597e-03" rms="4.6603599190711975e-01" purity="4.5215272903442383e-01" nType="-99"/>
        </Node>
        <Node pos="r" depth="1" NCoef="0" IVar="1" Cut="1.3438748168945312e+02" cType="1" res="2.9752326663583517e-03" rms="4.6634355187416077e-01" purity="5.2067154645919800e-01" nType="0">
          <Node pos="l" depth="2" NCoef="0" IVar="-1" Cut="0.0000000000000000e+00" cType="1" res="3.4901167964562774e-04" rms="4.6869790554046631e-01" purity="5.7673931121826172e-01" nType="-99"/>
          <Node pos="r" depth="2" NCoef="0" IVar="-1" Cut="0.0000000000000000e+00" cType="1" res="-5.5680255172774196e-04" rms="4.5767021179199219e-01" purity="3.8209870457649231e-01" nType="-99"/>
        </Node>
      </Node>
    </BinaryTree>
    <BinaryTree type="DecisionTree" boostWeight="1.0000000000000000e+00" itree="845">
      <Node pos="s" depth="0" NCoef="0" IVar="4" Cut="7.2763812255859375e+02" cType="1" res="-4.6481988392770290e-03" rms="4.6557390689849854e-01" purity="5.0352901220321655e-01" nType="0">
        <Node pos="l" depth="1" NCoef="0" IVar="2" Cut="8.0918560791015625e+02" cType="1" res="-3.0735317617654800e-02" rms="4.6350088715553284e-01" purity="4.6676301956176758e-01" nType="0">
          <Node pos="l" depth="2" NCoef="0" IVar="-1" Cut="0.0000000000000000e+00" cType="1" res="3.7644139956682920e-04" rms="4.6056890487670898e-01" purity="5.6632763147354126e-01" nType="-99"/>
          <Node pos="r" depth="2" NCoef="0" IVar="-1" Cut="0.0000000000000000e+00" cType="1" res="-1.1820471845567226e-03" rms="4.5965075492858887e-01" purity="3.5454919934272766e-01" nType="-99"/>
        </Node>
        <Node pos="r" depth="1" NCoef="0" IVar="2" Cut="1.5365133056640625e+03" cType="1" res="2.4125482887029648e-02" rms="4.6615970134735107e-01" purity="5.4408133029937744e-01" nType="0">
          <Node pos="l" depth="2" NCoef="0" IVar="-1" Cut="0.0000000000000000e+00" cType="1" res="1.0265309829264879e-03" rms="4.5441469550132751e-01" purity="5.9683442115783691e-01" nType="-99"/>
          <Node pos="r" depth="2" NCoef="0" IVar="-1" Cut="0.0000000000000000e+00" cType="1" res="-5.8914825785905123e-04" rms="4.8128375411033630e-01" purity="4.4232505559921265e-01" nType="-99"/>
        </Node>
      </Node>
    </BinaryTree>
    <BinaryTree type="DecisionTree" boostWeight="1.0000000000000000e+00" itree="846">
      <Node pos="s" depth="0" NCoef="0" IVar="4" Cut="1.2066584472656250e+03" cType="1" res="-9.2405937612056732e-03" rms="4.6697854995727539e-01" purity="4.9853777885437012e-01" nType="0">
        <Node pos="l" depth="1" NCoef="0" IVar="2" Cut="1.3681182861328125e+03" cType="1" res="-1.6365628689527512e-02" rms="4.6567586064338684e-01" purity="4.9314928054809570e-01" nType="0">
          <Node pos="l" depth="2" NCoef="0" IVar="-1" Cut="0.0000000000000000e+00" cType="1" res="3.2430129067506641e-05" rms="4.6574309468269348e-01" purity="5.2066344022750854e-01" nType="-99"/>
          <Node pos="r" depth="2" NCoef="0" IVar="-1" Cut="0.0000000000000000e+00" cType="1" res="-1.3146824203431606e-03" rms="4.5570361614227295e-01" purity="3.6502844095230103e-01" nType="-99"/>
        </Node>
        <Node pos="r" depth="1" NCoef="0" IVar="-1" Cut="0.0000000000000000e+00" cType="1" res="1.0472257854416966e-03" rms="4.7398513555526733e-01" purity="5.5350512266159058e-01" nType="-99"/>
      </Node>
    </BinaryTree>
    <BinaryTree type="DecisionTree" boostWeight="1.0000000000000000e+00" itree="847">
      <Node pos="s" depth="0" NCoef="0" IVar="1" Cut="9.9764961242675781e+01" cType="1" res="9.6808783710002899e-03" rms="4.6203473210334778e-01" purity="5.1720160245895386e-01" nType="0">
        <Node pos="l" depth="1" NCoef="0" IVar="-1" Cut="0.0000000000000000e+00" cType="1" res="-9.9599885288625956e-04" rms="4.3882247805595398e-01" purity="2.9610151052474976e-01" nType="-99"/>
        <Node pos="r" depth="1" NCoef="0" IVar="1" Cut="1.2594900512695312e+02" cType="1" res="1.7401024699211121e-02" rms="4.6318510174751282e-01" purity="5.3635889291763306e-01" nType="0">
          <Node pos="l" depth="2" NCoef="0" IVar="-1" Cut="0.0000000000000000e+00" cType="1" res="8.5924391169101000e-04" rms="4.6258640289306641e-01" purity="5.9913581609725952e-01" nType="-99"/>
          <Node pos="r" depth="2" NCoef="0" IVar="-1" Cut="0.0000000000000000e+00" cType="1" res="-2.3753785353619605e-04" rms="4.6154838800430298e-01" purity="4.6760725975036621e-01" nType="-99"/>
        </Node>
      </Node>
    </BinaryTree>
    <BinaryTree type="DecisionTree" boostWeight="1.0000000000000000e+00" itree="848">
      <Node pos="s" depth="0" NCoef="0" IVar="4" Cut="1.2814755859375000e+03" cType="1" res="-5.1941967103630304e-04" rms="4.6470612287521362e-01" purity="5.0631743669509888e-01" nType="0">
        <Node pos="l" depth="1" NCoef="0" IVar="3" Cut="9.3439072370529175e-01" cType="1" res="-7.9899020493030548e-03" rms="4.6370559930801392e-01" purity="4.9971786141395569e-01" nType="0">
          <Node pos="l" depth="2" NCoef="0" IVar="-1" Cut="0.0000000000000000e+00" cType="1" res="-3.0416005756705999e-04" rms="4.6958914399147034e-01" purity="4.5316413044929504e-01" nType="-99"/>
          <Node pos="r" depth="2" NCoef="0" IVar="-1" Cut="0.0000000000000000e+00" cType="1" res="1.0957210324704647e-03" rms="4.3511247634887695e-01" purity="6.8751066923141479e-01" nType="-99"/>
        </Node>
        <Node pos="r" depth="1" NCoef="0" IVar="-1" Cut="0.0000000000000000e+00" cType="1" res="1.8618095200508833e-03" rms="4.6613556146621704e-01" purity="5.9826868772506714e-01" nType="-99"/>
      </Node>
    </BinaryTree>
    <BinaryTree type="DecisionTree" boostWeight="1.0000000000000000e+00" itree="849">
      <Node pos="s" depth="0" NCoef="0" IVar="0" Cut="6.6482437133789062e+01" cType="1" res="-8.5049774497747421e-03" rms="4.6379834413528442e-01" purity="4.9635633826255798e-01" nType="0">
        <Node pos="l" depth="1" NCoef="0" IVar="-1" Cut="0.0000000000000000e+00" cType="1" res="-1.0848864912986755e-03" rms="4.4564235210418701e-01" purity="3.3536866307258606e-01" nType="-99"/>
        <Node pos="r" depth="1" NCoef="0" IVar="2" Cut="1.9388505859375000e+03" cType="1" res="-1.0448382236063480e-03" rms="4.6487540006637573e-01" purity="5.1217377185821533e-01" nType="0">
          <Node pos="l" depth="2" NCoef="0" IVar="-1" Cut="0.0000000000000000e+00" cType="1" res="1.1627873027464375e-04" rms="4.6495243906974792e-01" purity="5.2548849582672119e-01" nType="-99"/>
          <Node pos="r" depth="2" NCoef="0" IVar="-1" Cut="0.0000000000000000e+00" cType="1" res="-1.2644032249227166e-03" rms="4.5326113700866699e-01" purity="3.5871890187263489e-01" nType="-99"/>
        </Node>
      </Node>
    </BinaryTree>
    <BinaryTree type="DecisionTree" boostWeight="1.0000000000000000e+00" itree="850">
      <Node pos="s" depth="0" NCoef="0" IVar="4" Cut="5.1533831787109375e+02" cType="1" res="7.4597080238163471e-03" rms="4.6726772189140320e-01" purity="5.1801127195358276e-01" nType="0">
        <Node pos="l" depth="1" NCoef="0" IVar="2" Cut="6.2217926025390625e+02" cType="1" res="-4.2918294668197632e-02" rms="4.5646685361862183e-01" purity="4.2976176738739014e-01" nType="0">
          <Node pos="l" depth="2" NCoef="0" IVar="-1" Cut="0.0000000000000000e+00" cType="1" res="1.0946890106424689e-03" rms="4.7969502210617065e-01" purity="6.1348193883895874e-01" nType="-99"/>
          <Node pos="r" depth="2" NCoef="0" IVar="-1" Cut="0.0000000000000000e+00" cType="1" res="-1.4749732799828053e-03" rms="4.2241811752319336e-01" purity="2.9134318232536316e-01" nType="-99"/>
        </Node>
        <Node pos="r" depth="1" NCoef="0" IVar="2" Cut="7.5681610107421875e+02" cType="1" res="1.5936799347400665e-02" rms="4.6852862834930420e-01" purity="5.3286093473434448e-01" nType="0">
          <Node pos="l" depth="2" NCoef="0" IVar="-1" Cut="0.0000000000000000e+00" cType="1" res="1.3567704008892179e-03" rms="4.5054334402084351e-01" purity="6.6241723299026489e-01" nType="-99"/>
          <Node pos="r" depth="2" NCoef="0" IVar="-1" Cut="0.0000000000000000e+00" cType="1" res="1.3995099288877100e-04" rms="4.7043964266777039e-01" purity="5.1546823978424072e-01" nType="-99"/>
        </Node>
      </Node>
    </BinaryTree>
    <BinaryTree type="DecisionTree" boostWeight="1.0000000000000000e+00" itree="851">
      <Node pos="s" depth="0" NCoef="0" IVar="1" Cut="1.4405865478515625e+02" cType="1" res="-1.0242831194773316e-03" rms="4.6221786737442017e-01" purity="5.0531351566314697e-01" nType="0">
        <Node pos="l" depth="1" NCoef="0" IVar="4" Cut="1.2464561767578125e+03" cType="1" res="7.7875414863228798e-03" rms="4.6526223421096802e-01" purity="5.3269743919372559e-01" nType="0">
          <Node pos="l" depth="2" NCoef="0" IVar="-1" Cut="0.0000000000000000e+00" cType="1" res="-6.1530913626484107e-06" rms="4.6515506505966187e-01" purity="5.2401208877563477e-01" nType="-99"/>
          <Node pos="r" depth="2" NCoef="0" IVar="-1" Cut="0.0000000000000000e+00" cType="1" res="2.2353529930114746e-03" rms="4.5213791728019714e-01" purity="6.5144419670104980e-01" nType="-99"/>
        </Node>
        <Node pos="r" depth="1" NCoef="0" IVar="-1" Cut="0.0000000000000000e+00" cType="1" res="-9.4961113063618541e-04" rms="4.2862451076507568e-01" purity="2.7478685975074768e-01" nType="-99"/>
      </Node>
    </BinaryTree>
    <BinaryTree type="DecisionTree" boostWeight="1.0000000000000000e+00" itree="852">
      <Node pos="s" depth="0" NCoef="0" IVar="4" Cut="8.2999517822265625e+02" cType="1" res="-1.1906241707038134e-04" rms="4.6504148840904236e-01" purity="5.0813680887222290e-01" nType="0">
        <Node pos="l" depth="1" NCoef="0" IVar="2" Cut="9.5115429687500000e+02" cType="1" res="-2.1035792306065559e-02" rms="4.6314516663551331e-01" purity="4.8285630345344543e-01" nType="0">
          <Node pos="l" depth="2" NCoef="0" IVar="-1" Cut="0.0000000000000000e+00" cType="1" res="4.6212415327318013e-05" rms="4.6473750472068787e-01" purity="5.3386187553405762e-01" nType="-99"/>
          <Node pos="r" depth="2" NCoef="0" IVar="-1" Cut="0.0000000000000000e+00" cType="1" res="-9.0097676729783416e-04" rms="4.5651271939277649e-01" purity="3.8392102718353271e-01" nType="-99"/>
        </Node>
        <Node pos="r" depth="1" NCoef="0" IVar="0" Cut="3.3461035156250000e+02" cType="1" res="4.2796216905117035e-02" rms="4.6597802639007568e-01" purity="5.6000536680221558e-01" nType="0">
          <Node pos="l" depth="2" NCoef="0" IVar="-1" Cut="0.0000000000000000e+00" cType="1" res="1.2242953525856137e-03" rms="4.6635851263999939e-01" purity="6.2395548820495605e-01" nType="-99"/>
          <Node pos="r" depth="2" NCoef="0" IVar="-1" Cut="0.0000000000000000e+00" cType="1" res="-1.6820768360048532e-04" rms="4.6046575903892517e-01" purity="4.0349209308624268e-01" nType="-99"/>
        </Node>
      </Node>
    </BinaryTree>
    <BinaryTree type="DecisionTree" boostWeight="1.0000000000000000e+00" itree="853">
      <Node pos="s" depth="0" NCoef="0" IVar="4" Cut="4.9736447143554688e+02" cType="1" res="-8.6178500205278397e-03" rms="4.6435660123825073e-01" purity="4.9763283133506775e-01" nType="0">
        <Node pos="l" depth="1" NCoef="0" IVar="5" Cut="3.5627216100692749e-01" cType="1" res="-9.4085521996021271e-02" rms="4.5731502771377563e-01" purity="3.8414883613586426e-01" nType="0">
          <Node pos="l" depth="2" NCoef="0" IVar="-1" Cut="0.0000000000000000e+00" cType="1" res="-1.6631475882604718e-03" rms="4.5716574788093567e-01" purity="3.5365596413612366e-01" nType="-99"/>
          <Node pos="r" depth="2" NCoef="0" IVar="-1" Cut="0.0000000000000000e+00" cType="1" res="-8.7706785416230559e-04" rms="4.5539593696594238e-01" purity="4.1843926906585693e-01" nType="-99"/>
        </Node>
        <Node pos="r" depth="1" NCoef="0" IVar="1" Cut="1.0709898376464844e+02" cType="1" res="3.4706278238445520e-03" rms="4.6407508850097656e-01" purity="5.1368391513824463e-01" nType="0">
          <Node pos="l" depth="2" NCoef="0" IVar="-1" Cut="0.0000000000000000e+00" cType="1" res="-1.0106533300131559e-03" rms="4.4342613220214844e-01" purity="3.3640784025192261e-01" nType="-99"/>
          <Node pos="r" depth="2" NCoef="0" IVar="-1" Cut="0.0000000000000000e+00" cType="1" res="2.8154812753200531e-04" rms="4.6612519025802612e-01" purity="5.4380697011947632e-01" nType="-99"/>
        </Node>
      </Node>
    </BinaryTree>
    <BinaryTree type="DecisionTree" boostWeight="1.0000000000000000e+00" itree="854">
      <Node pos="s" depth="0" NCoef="0" IVar="0" Cut="3.2719876098632812e+02" cType="1" res="-9.9557107314467430e-03" rms="4.6772411465644836e-01" purity="5.0063580274581909e-01" nType="0">
        <Node pos="l" depth="1" NCoef="0" IVar="4" Cut="1.0367075195312500e+03" cType="1" res="1.6432433621957898e-03" rms="4.6990841627120972e-01" purity="5.3133511543273926e-01" nType="0">
          <Node pos="l" depth="2" NCoef="0" IVar="-1" Cut="0.0000000000000000e+00" cType="1" res="-1.4432438183575869e-04" rms="4.7062981128692627e-01" purity="5.1682895421981812e-01" nType="-99"/>
          <Node pos="r" depth="2" NCoef="0" IVar="-1" Cut="0.0000000000000000e+00" cType="1" res="1.4558592811226845e-03" rms="4.5809081196784973e-01" purity="6.3208895921707153e-01" nType="-99"/>
        </Node>
        <Node pos="r" depth="1" NCoef="0" IVar="2" Cut="1.5018833007812500e+03" cType="1" res="-7.1013972163200378e-02" rms="4.5116305351257324e-01" purity="3.3903095126152039e-01" nType="0">
          <Node pos="l" depth="2" NCoef="0" IVar="-1" Cut="0.0000000000000000e+00" cType="1" res="-6.0666684294119477e-04" rms="4.5965492725372314e-01" purity="3.7556311488151550e-01" nType="-99"/>
          <Node pos="r" depth="2" NCoef="0" IVar="-1" Cut="0.0000000000000000e+00" cType="1" res="-1.3056001625955105e-03" rms="4.3740683794021606e-01" purity="2.9185444116592407e-01" nType="-99"/>
        </Node>
      </Node>
    </BinaryTree>
    <BinaryTree type="DecisionTree" boostWeight="1.0000000000000000e+00" itree="855">
      <Node pos="s" depth="0" NCoef="0" IVar="4" Cut="8.8779357910156250e+02" cType="1" res="-1.9136372953653336e-02" rms="4.6638956665992737e-01" purity="4.8909577727317810e-01" nType="0">
        <Node pos="l" depth="1" NCoef="0" IVar="2" Cut="1.0997131347656250e+03" cType="1" res="-3.3717714250087738e-02" rms="4.6419632434844971e-01" purity="4.7027179598808289e-01" nType="0">
          <Node pos="l" depth="2" NCoef="0" IVar="-1" Cut="0.0000000000000000e+00" cType="1" res="-2.1090799418743700e-04" rms="4.6794977784156799e-01" purity="5.0964790582656860e-01" nType="-99"/>
          <Node pos="r" depth="2" NCoef="0" IVar="-1" Cut="0.0000000000000000e+00" cType="1" res="-1.3192762853577733e-03" rms="4.4366180896759033e-01" purity="3.3340469002723694e-01" nType="-99"/>
        </Node>
        <Node pos="r" depth="1" NCoef="0" IVar="2" Cut="1.3986412353515625e+03" cType="1" res="1.8158979713916779e-02" rms="4.6989881992340088e-01" purity="5.3724288940429688e-01" nType="0">
          <Node pos="l" depth="2" NCoef="0" IVar="-1" Cut="0.0000000000000000e+00" cType="1" res="1.4968586619943380e-03" rms="4.5787116885185242e-01" purity="6.5761852264404297e-01" nType="-99"/>
          <Node pos="r" depth="2" NCoef="0" IVar="-1" Cut="0.0000000000000000e+00" cType="1" res="-1.6840778698679060e-04" rms="4.7351661324501038e-01" purity="4.7306266427040100e-01" nType="-99"/>
        </Node>
      </Node>
    </BinaryTree>
    <BinaryTree type="DecisionTree" boostWeight="1.0000000000000000e+00" itree="856">
      <Node pos="s" depth="0" NCoef="0" IVar="4" Cut="1.2572181396484375e+03" cType="1" res="-1.0233316570520401e-02" rms="4.6747267246246338e-01" purity="4.9680387973785400e-01" nType="0">
        <Node pos="l" depth="1" NCoef="0" IVar="2" Cut="1.4294664306640625e+03" cType="1" res="-1.6424773260951042e-02" rms="4.6598112583160400e-01" purity="4.9121946096420288e-01" nType="0">
          <Node pos="l" depth="2" NCoef="0" IVar="-1" Cut="0.0000000000000000e+00" cType="1" res="-5.7592631492298096e-05" rms="4.6568101644515991e-01" purity="5.1307916641235352e-01" nType="-99"/>
          <Node pos="r" depth="2" NCoef="0" IVar="-1" Cut="0.0000000000000000e+00" cType="1" res="-1.1280474718660116e-03" rms="4.6110561490058899e-01" purity="3.6851987242698669e-01" nType="-99"/>
        </Node>
        <Node pos="r" depth="1" NCoef="0" IVar="-1" Cut="0.0000000000000000e+00" cType="1" res="1.1841178638860583e-03" rms="4.7915574908256531e-01" purity="5.6842744350433350e-01" nType="-99"/>
      </Node>
    </BinaryTree>
    <BinaryTree type="DecisionTree" boostWeight="1.0000000000000000e+00" itree="857">
      <Node pos="s" depth="0" NCoef="0" IVar="1" Cut="1.3411058044433594e+02" cType="1" res="-4.1433321312069893e-03" rms="4.6803015470504761e-01" purity="5.0444501638412476e-01" nType="0">
        <Node pos="l" depth="1" NCoef="0" IVar="2" Cut="6.6015234375000000e+02" cType="1" res="6.4097386784851551e-03" rms="4.6861612796783447e-01" purity="5.3877651691436768e-01" nType="0">
          <Node pos="l" depth="2" NCoef="0" IVar="-1" Cut="0.0000000000000000e+00" cType="1" res="1.7234175466001034e-03" rms="4.5427182316780090e-01" purity="6.7502731084823608e-01" nType="-99"/>
          <Node pos="r" depth="2" NCoef="0" IVar="-1" Cut="0.0000000000000000e+00" cType="1" res="-4.7267771151382476e-05" rms="4.6951684355735779e-01" purity="5.2190786600112915e-01" nType="-99"/>
        </Node>
        <Node pos="r" depth="1" NCoef="0" IVar="4" Cut="8.5760272216796875e+02" cType="1" res="-4.1493024677038193e-02" rms="4.6402639150619507e-01" purity="3.8293811678886414e-01" nType="0">
          <Node pos="l" depth="2" NCoef="0" IVar="-1" Cut="0.0000000000000000e+00" cType="1" res="-9.8266324494034052e-04" rms="4.4780927896499634e-01" purity="3.3995905518531799e-01" nType="-99"/>
          <Node pos="r" depth="2" NCoef="0" IVar="-1" Cut="0.0000000000000000e+00" cType="1" res="2.5164344697259367e-04" rms="4.8646178841590881e-01" purity="4.6060222387313843e-01" nType="-99"/>
        </Node>
      </Node>
    </BinaryTree>
    <BinaryTree type="DecisionTree" boostWeight="1.0000000000000000e+00" itree="858">
      <Node pos="s" depth="0" NCoef="0" IVar="2" Cut="1.1330864257812500e+03" cType="1" res="-5.7451347820460796e-03" rms="4.6775066852569580e-01" purity="5.0352042913436890e-01" nType="0">
        <Node pos="l" depth="1" NCoef="0" IVar="4" Cut="7.7088464355468750e+02" cType="1" res="1.2248851358890533e-02" rms="4.6441429853439331e-01" purity="5.3688353300094604e-01" nType="0">
          <Node pos="l" depth="2" NCoef="0" IVar="-1" Cut="0.0000000000000000e+00" cType="1" res="-1.1817460472229868e-04" rms="4.6612477302551270e-01" purity="5.0730079412460327e-01" nType="-99"/>
          <Node pos="r" depth="2" NCoef="0" IVar="-1" Cut="0.0000000000000000e+00" cType="1" res="3.0776162166148424e-03" rms="4.3589842319488525e-01" purity="7.1379786729812622e-01" nType="-99"/>
        </Node>
        <Node pos="r" depth="1" NCoef="0" IVar="4" Cut="8.7346801757812500e+02" cType="1" res="-3.2470099627971649e-02" rms="4.7139650583267212e-01" purity="4.5396900177001953e-01" nType="0">
          <Node pos="l" depth="2" NCoef="0" IVar="-1" Cut="0.0000000000000000e+00" cType="1" res="-1.0623746784403920e-03" rms="4.4366863369941711e-01" purity="3.3653336763381958e-01" nType="-99"/>
          <Node pos="r" depth="2" NCoef="0" IVar="-1" Cut="0.0000000000000000e+00" cType="1" res="-1.2949893425684422e-04" rms="4.8183891177177429e-01" purity="5.0837540626525879e-01" nType="-99"/>
        </Node>
      </Node>
    </BinaryTree>
    <BinaryTree type="DecisionTree" boostWeight="1.0000000000000000e+00" itree="859">
      <Node pos="s" depth="0" NCoef="0" IVar="2" Cut="8.1798034667968750e+02" cType="1" res="-1.6842946410179138e-02" rms="4.6421623229980469e-01" purity="4.8696884512901306e-01" nType="0">
        <Node pos="l" depth="1" NCoef="0" IVar="4" Cut="5.7042559814453125e+02" cType="1" res="2.5607904419302940e-02" rms="4.6207594871520996e-01" purity="5.6900495290756226e-01" nType="0">
          <Node pos="l" depth="2" NCoef="0" IVar="-1" Cut="0.0000000000000000e+00" cType="1" res="-2.0493338524829596e-04" rms="4.6613982319831848e-01" purity="5.1364082098007202e-01" nType="-99"/>
          <Node pos="r" depth="2" NCoef="0" IVar="-1" Cut="0.0000000000000000e+00" cType="1" res="2.1217062603682280e-03" rms="4.4398564100265503e-01" purity="6.8006646633148193e-01" nType="-99"/>
        </Node>
        <Node pos="r" depth="1" NCoef="0" IVar="4" Cut="6.6625836181640625e+02" cType="1" res="-3.2725986093282700e-02" rms="4.6401721239089966e-01" purity="4.5627495646476746e-01" nType="0">
          <Node pos="l" depth="2" NCoef="0" IVar="-1" Cut="0.0000000000000000e+00" cType="1" res="-1.1481565888971090e-03" rms="4.3386992812156677e-01" purity="2.9722440242767334e-01" nType="-99"/>
          <Node pos="r" depth="2" NCoef="0" IVar="-1" Cut="0.0000000000000000e+00" cType="1" res="-2.3472291650250554e-04" rms="4.7116595506668091e-01" purity="5.0345057249069214e-01" nType="-99"/>
        </Node>
      </Node>
    </BinaryTree>
    <BinaryTree type="DecisionTree" boostWeight="1.0000000000000000e+00" itree="860">
      <Node pos="s" depth="0" NCoef="0" IVar="3" Cut="9.7287422418594360e-01" cType="1" res="-7.2047039866447449e-03" rms="4.6900996565818787e-01" purity="5.0317829847335815e-01" nType="0">
        <Node pos="l" depth="1" NCoef="0" IVar="5" Cut="7.8765881061553955e-01" cType="1" res="-5.5291453463723883e-05" rms="4.6711716055870056e-01" purity="5.0049626827239990e-01" nType="0">
          <Node pos="l" depth="2" NCoef="0" IVar="-1" Cut="0.0000000000000000e+00" cType="1" res="-1.5033269301056862e-04" rms="4.6730193495750427e-01" purity="4.8294994235038757e-01" nType="-99"/>
          <Node pos="r" depth="2" NCoef="0" IVar="-1" Cut="0.0000000000000000e+00" cType="1" res="1.0995382908731699e-03" rms="4.6125188469886780e-01" purity="6.0901421308517456e-01" nType="-99"/>
        </Node>
        <Node pos="r" depth="1" NCoef="0" IVar="-1" Cut="0.0000000000000000e+00" cType="1" res="-2.3340645711869001e-03" rms="4.8410576581954956e-01" purity="5.4467219114303589e-01" nType="-99"/>
      </Node>
    </BinaryTree>
    <BinaryTree type="DecisionTree" boostWeight="1.0000000000000000e+00" itree="861">
      <Node pos="s" depth="0" NCoef="0" IVar="4" Cut="8.3257269287109375e+02" cType="1" res="7.0044741732999682e-04" rms="4.6308800578117371e-01" purity="5.0786417722702026e-01" nType="0">
        <Node pos="l" depth="1" NCoef="0" IVar="3" Cut="8.7393409013748169e-01" cType="1" res="-1.5638042241334915e-02" rms="4.6169403195381165e-01" purity="4.8682129383087158e-01" nType="0">
          <Node pos="l" depth="2" NCoef="0" IVar="-1" Cut="0.0000000000000000e+00" cType="1" res="-7.3951866943389177e-04" rms="4.4947445392608643e-01" purity="3.4866669774055481e-01" nType="-99"/>
          <Node pos="r" depth="2" NCoef="0" IVar="-1" Cut="0.0000000000000000e+00" cType="1" res="9.2596979811787605e-05" rms="4.6609944105148315e-01" purity="5.5410951375961304e-01" nType="-99"/>
        </Node>
        <Node pos="r" depth="1" NCoef="0" IVar="5" Cut="2.8001788258552551e-01" cType="1" res="3.4711461514234543e-02" rms="4.6413525938987732e-01" purity="5.5166804790496826e-01" nType="0">
          <Node pos="l" depth="2" NCoef="0" IVar="-1" Cut="0.0000000000000000e+00" cType="1" res="2.1688011474907398e-03" rms="4.5200684666633606e-01" purity="6.3104212284088135e-01" nType="-99"/>
          <Node pos="r" depth="2" NCoef="0" IVar="-1" Cut="0.0000000000000000e+00" cType="1" res="2.8144961106590927e-04" rms="4.6529740095138550e-01" purity="5.3273725509643555e-01" nType="-99"/>
        </Node>
      </Node>
    </BinaryTree>
    <BinaryTree type="DecisionTree" boostWeight="1.0000000000000000e+00" itree="862">
      <Node pos="s" depth="0" NCoef="0" IVar="2" Cut="6.9852978515625000e+02" cType="1" res="9.9188077729195356e-04" rms="4.6519500017166138e-01" purity="5.0900983810424805e-01" nType="0">
        <Node pos="l" depth="1" NCoef="0" IVar="4" Cut="5.1060195922851562e+02" cType="1" res="7.7699318528175354e-02" rms="4.5391714572906494e-01" purity="6.5118193626403809e-01" nType="0">
          <Node pos="l" depth="2" NCoef="0" IVar="-1" Cut="0.0000000000000000e+00" cType="1" res="7.6416780939325690e-04" rms="4.7272622585296631e-01" purity="5.8788114786148071e-01" nType="-99"/>
          <Node pos="r" depth="2" NCoef="0" IVar="-1" Cut="0.0000000000000000e+00" cType="1" res="3.4522903151810169e-03" rms="4.1331207752227783e-01" purity="7.5858587026596069e-01" nType="-99"/>
        </Node>
        <Node pos="r" depth="1" NCoef="0" IVar="4" Cut="6.6581561279296875e+02" cType="1" res="-1.1255859397351742e-02" rms="4.6580249071121216e-01" purity="4.8630943894386292e-01" nType="0">
          <Node pos="l" depth="2" NCoef="0" IVar="-1" Cut="0.0000000000000000e+00" cType="1" res="-8.4101193351671100e-04" rms="4.4924575090408325e-01" purity="3.8144341111183167e-01" nType="-99"/>
          <Node pos="r" depth="2" NCoef="0" IVar="-1" Cut="0.0000000000000000e+00" cType="1" res="2.2477828315459192e-04" rms="4.7190967202186584e-01" purity="5.3895425796508789e-01" nType="-99"/>
        </Node>
      </Node>
    </BinaryTree>
    <BinaryTree type="DecisionTree" boostWeight="1.0000000000000000e+00" itree="863">
      <Node pos="s" depth="0" NCoef="0" IVar="4" Cut="1.0100593872070312e+03" cType="1" res="-3.8273297250270844e-03" rms="4.6456187963485718e-01" purity="5.0497090816497803e-01" nType="0">
        <Node pos="l" depth="1" NCoef="0" IVar="2" Cut="1.1966876220703125e+03" cType="1" res="-1.6126940026879311e-02" rms="4.6301999688148499e-01" purity="4.9220386147499084e-01" nType="0">
          <Node pos="l" depth="2" NCoef="0" IVar="-1" Cut="0.0000000000000000e+00" cType="1" res="3.8726552702428307e-06" rms="4.6502423286437988e-01" purity="5.2504789829254150e-01" nType="-99"/>
          <Node pos="r" depth="2" NCoef="0" IVar="-1" Cut="0.0000000000000000e+00" cType="1" res="-1.0222886921837926e-03" rms="4.5015540719032288e-01" purity="3.6902549862861633e-01" nType="-99"/>
        </Node>
        <Node pos="r" depth="1" NCoef="0" IVar="2" Cut="1.7745700683593750e+03" cType="1" res="5.5864546447992325e-02" rms="4.6739864349365234e-01" purity="5.6693124771118164e-01" nType="0">
          <Node pos="l" depth="2" NCoef="0" IVar="-1" Cut="0.0000000000000000e+00" cType="1" res="2.3817953187972307e-03" rms="4.5227453112602234e-01" purity="6.6723811626434326e-01" nType="-99"/>
          <Node pos="r" depth="2" NCoef="0" IVar="-1" Cut="0.0000000000000000e+00" cType="1" res="-1.6568553110118955e-04" rms="4.7386765480041504e-01" purity="4.5972061157226562e-01" nType="-99"/>
        </Node>
      </Node>
    </BinaryTree>
    <BinaryTree type="DecisionTree" boostWeight="1.0000000000000000e+00" itree="864">
      <Node pos="s" depth="0" NCoef="0" IVar="2" Cut="1.0994078369140625e+03" cType="1" res="-3.5113929770886898e-03" rms="4.6504747867584229e-01" purity="5.0380426645278931e-01" nType="0">
        <Node pos="l" depth="1" NCoef="0" IVar="4" Cut="6.6290380859375000e+02" cType="1" res="1.5948727726936340e-02" rms="4.5936945080757141e-01" purity="5.3887659311294556e-01" nType="0">
          <Node pos="l" depth="2" NCoef="0" IVar="-1" Cut="0.0000000000000000e+00" cType="1" res="-1.6100845823530108e-04" rms="4.5759159326553345e-01" purity="4.8663470149040222e-01" nType="-99"/>
          <Node pos="r" depth="2" NCoef="0" IVar="-1" Cut="0.0000000000000000e+00" cType="1" res="1.3252946082502604e-03" rms="4.5844420790672302e-01" purity="6.4033728837966919e-01" nType="-99"/>
        </Node>
        <Node pos="r" depth="1" NCoef="0" IVar="4" Cut="1.2957421875000000e+03" cType="1" res="-3.1142311170697212e-02" rms="4.7161498665809631e-01" purity="4.5400601625442505e-01" nType="0">
          <Node pos="l" depth="2" NCoef="0" IVar="-1" Cut="0.0000000000000000e+00" cType="1" res="-6.8550207652151585e-04" rms="4.6774306893348694e-01" purity="4.3543305993080139e-01" nType="-99"/>
          <Node pos="r" depth="2" NCoef="0" IVar="-1" Cut="0.0000000000000000e+00" cType="1" res="1.0747900232672691e-03" rms="4.8158133029937744e-01" purity="5.5716669559478760e-01" nType="-99"/>
        </Node>
      </Node>
    </BinaryTree>
    <BinaryTree type="DecisionTree" boostWeight="1.0000000000000000e+00" itree="865">
      <Node pos="s" depth="0" NCoef="0" IVar="0" Cut="1.4132679748535156e+02" cType="1" res="-1.1277164332568645e-02" rms="4.6347251534461975e-01" purity="4.9292209744453430e-01" nType="0">
        <Node pos="l" depth="1" NCoef="0" IVar="4" Cut="4.9776419067382812e+02" cType="1" res="2.0199691876769066e-02" rms="4.6201995015144348e-01" purity="5.6336271762847900e-01" nType="0">
          <Node pos="l" depth="2" NCoef="0" IVar="-1" Cut="0.0000000000000000e+00" cType="1" res="-6.9448049180209637e-04" rms="4.6983277797698975e-01" purity="4.5078873634338379e-01" nType="-99"/>
          <Node pos="r" depth="2" NCoef="0" IVar="-1" Cut="0.0000000000000000e+00" cType="1" res="6.5734720556065440e-04" rms="4.5855140686035156e-01" purity="5.9102463722229004e-01" nType="-99"/>
        </Node>
        <Node pos="r" depth="1" NCoef="0" IVar="1" Cut="1.2824563598632812e+02" cType="1" res="-3.7601754069328308e-02" rms="4.6304368972778320e-01" purity="4.3401151895523071e-01" nType="0">
          <Node pos="l" depth="2" NCoef="0" IVar="-1" Cut="0.0000000000000000e+00" cType="1" res="-2.2200524108484387e-04" rms="4.7196206450462341e-01" purity="4.8851695656776428e-01" nType="-99"/>
          <Node pos="r" depth="2" NCoef="0" IVar="-1" Cut="0.0000000000000000e+00" cType="1" res="-9.5729983877390623e-04" rms="4.4809368252754211e-01" purity="3.5690107941627502e-01" nType="-99"/>
        </Node>
      </Node>
    </BinaryTree>
    <BinaryTree type="DecisionTree" boostWeight="1.0000000000000000e+00" itree="866">
      <Node pos="s" depth="0" NCoef="0" IVar="1" Cut="1.3811256408691406e+02" cType="1" res="-1.0597106302157044e-03" rms="4.6186774969100952e-01" purity="5.0256526470184326e-01" nType="0">
        <Node pos="l" depth="1" NCoef="0" IVar="2" Cut="7.5599902343750000e+02" cType="1" res="1.2569096870720387e-02" rms="4.6516543626785278e-01" purity="5.4163664579391479e-01" nType="0">
          <Node pos="l" depth="2" NCoef="0" IVar="-1" Cut="0.0000000000000000e+00" cType="1" res="1.3898735633119941e-03" rms="4.4944769144058228e-01" purity="6.3435828685760498e-01" nType="-99"/>
          <Node pos="r" depth="2" NCoef="0" IVar="-1" Cut="0.0000000000000000e+00" cType="1" res="-6.1058279243297875e-05" rms="4.6809035539627075e-01" purity="5.1600068807601929e-01" nType="-99"/>
        </Node>
        <Node pos="r" depth="1" NCoef="0" IVar="5" Cut="4.9870964884757996e-01" cType="1" res="-6.8756163120269775e-02" rms="4.3889799714088440e-01" purity="3.0849152803421021e-01" nType="0">
          <Node pos="l" depth="2" NCoef="0" IVar="-1" Cut="0.0000000000000000e+00" cType="1" res="-6.3276238506659865e-04" rms="4.5004722476005554e-01" purity="3.3142998814582825e-01" nType="-99"/>
          <Node pos="r" depth="2" NCoef="0" IVar="-1" Cut="0.0000000000000000e+00" cType="1" res="-1.1313386494293809e-03" rms="4.2351093888282776e-01" purity="2.8080627322196960e-01" nType="-99"/>
        </Node>
      </Node>
    </BinaryTree>
    <BinaryTree type="DecisionTree" boostWeight="1.0000000000000000e+00" itree="867">
      <Node pos="s" depth="0" NCoef="0" IVar="2" Cut="1.4108916015625000e+03" cType="1" res="-1.5714373439550400e-02" rms="4.6446704864501953e-01" purity="4.9332588911056519e-01" nType="0">
        <Node pos="l" depth="1" NCoef="0" IVar="4" Cut="7.1808599853515625e+02" cType="1" res="-3.9380309171974659e-03" rms="4.6264159679412842e-01" purity="5.1581782102584839e-01" nType="0">
          <Node pos="l" depth="2" NCoef="0" IVar="-1" Cut="0.0000000000000000e+00" cType="1" res="-3.8525060517713428e-04" rms="4.6046337485313416e-01" purity="4.7307726740837097e-01" nType="-99"/>
          <Node pos="r" depth="2" NCoef="0" IVar="-1" Cut="0.0000000000000000e+00" cType="1" res="6.2351062661036849e-04" rms="4.6394655108451843e-01" purity="5.9147429466247559e-01" nType="-99"/>
        </Node>
        <Node pos="r" depth="1" NCoef="0" IVar="4" Cut="1.2300450439453125e+03" cType="1" res="-5.9280436486005783e-02" rms="4.6859306097030640e-01" purity="4.1011792421340942e-01" nType="0">
          <Node pos="l" depth="2" NCoef="0" IVar="-1" Cut="0.0000000000000000e+00" cType="1" res="-1.1861708480864763e-03" rms="4.6202388405799866e-01" purity="3.6512014269828796e-01" nType="-99"/>
          <Node pos="r" depth="2" NCoef="0" IVar="-1" Cut="0.0000000000000000e+00" cType="1" res="-1.2211907596793026e-04" rms="4.7461745142936707e-01" purity="4.8316755890846252e-01" nType="-99"/>
        </Node>
      </Node>
    </BinaryTree>
    <BinaryTree type="DecisionTree" boostWeight="1.0000000000000000e+00" itree="868">
      <Node pos="s" depth="0" NCoef="0" IVar="0" Cut="1.9297581481933594e+02" cType="1" res="-2.2320264950394630e-02" rms="4.6503609418869019e-01" purity="4.8485916852951050e-01" nType="0">
        <Node pos="l" depth="1" NCoef="0" IVar="0" Cut="8.9864395141601562e+01" cType="1" res="-3.2013598829507828e-03" rms="4.6739619970321655e-01" purity="5.3931260108947754e-01" nType="0">
          <Node pos="l" depth="2" NCoef="0" IVar="-1" Cut="0.0000000000000000e+00" cType="1" res="-6.5600563539192080e-04" rms="4.7274398803710938e-01" purity="4.2037248611450195e-01" nType="-99"/>
          <Node pos="r" depth="2" NCoef="0" IVar="-1" Cut="0.0000000000000000e+00" cType="1" res="2.3582459834869951e-04" rms="4.6417906880378723e-01" purity="5.8646458387374878e-01" nType="-99"/>
        </Node>
        <Node pos="r" depth="1" NCoef="0" IVar="4" Cut="6.2998107910156250e+02" cType="1" res="-5.4418358951807022e-02" rms="4.5926025509834290e-01" purity="3.9343917369842529e-01" nType="0">
          <Node pos="l" depth="2" NCoef="0" IVar="-1" Cut="0.0000000000000000e+00" cType="1" res="-1.6445990186184645e-03" rms="3.9171716570854187e-01" purity="2.4417120218276978e-01" nType="-99"/>
          <Node pos="r" depth="2" NCoef="0" IVar="-1" Cut="0.0000000000000000e+00" cType="1" res="-4.2682196362875402e-04" rms="4.7473266720771790e-01" purity="4.3793770670890808e-01" nType="-99"/>
        </Node>
      </Node>
    </BinaryTree>
    <BinaryTree type="DecisionTree" boostWeight="1.0000000000000000e+00" itree="869">
      <Node pos="s" depth="0" NCoef="0" IVar="5" Cut="1.7724275588989258e-01" cType="1" res="-1.8506977707147598e-02" rms="4.6855613589286804e-01" purity="4.9013230204582214e-01" nType="0">
        <Node pos="l" depth="1" NCoef="0" IVar="3" Cut="8.9265751838684082e-01" cType="1" res="-7.7304989099502563e-02" rms="4.7279503941535950e-01" purity="4.5013234019279480e-01" nType="0">
          <Node pos="l" depth="2" NCoef="0" IVar="-1" Cut="0.0000000000000000e+00" cType="1" res="-1.5745010459795594e-03" rms="4.5891505479812622e-01" purity="3.2770478725433350e-01" nType="-99"/>
          <Node pos="r" depth="2" NCoef="0" IVar="-1" Cut="0.0000000000000000e+00" cType="1" res="-6.4433558145537972e-04" rms="4.8232454061508179e-01" purity="5.7345885038375854e-01" nType="-99"/>
        </Node>
        <Node pos="r" depth="1" NCoef="0" IVar="5" Cut="4.3776127696037292e-01" cType="1" res="-9.8127787932753563e-03" rms="4.6729865670204163e-01" purity="4.9604693055152893e-01" nType="0">
          <Node pos="l" depth="2" NCoef="0" IVar="-1" Cut="0.0000000000000000e+00" cType="1" res="2.5043479399755597e-04" rms="4.6996480226516724e-01" purity="5.1199924945831299e-01" nType="-99"/>
          <Node pos="r" depth="2" NCoef="0" IVar="-1" Cut="0.0000000000000000e+00" cType="1" res="-3.8240148569457233e-04" rms="4.6485713124275208e-01" purity="4.8578438162803650e-01" nType="-99"/>
        </Node>
      </Node>
    </BinaryTree>
    <BinaryTree type="DecisionTree" boostWeight="1.0000000000000000e+00" itree="870">
      <Node pos="s" depth="0" NCoef="0" IVar="5" Cut="1.7740628123283386e-01" cType="1" res="7.6047063339501619e-04" rms="4.6666100621223450e-01" purity="5.1081585884094238e-01" nType="0">
        <Node pos="l" depth="1" NCoef="0" IVar="2" Cut="9.4597650146484375e+02" cType="1" res="-5.2595209330320358e-02" rms="4.7025048732757568e-01" purity="4.5431017875671387e-01" nType="0">
          <Node pos="l" depth="2" NCoef="0" IVar="-1" Cut="0.0000000000000000e+00" cType="1" res="-3.8280486478470266e-04" rms="4.7430253028869629e-01" purity="5.0355714559555054e-01" nType="-99"/>
          <Node pos="r" depth="2" NCoef="0" IVar="-1" Cut="0.0000000000000000e+00" cType="1" res="-1.3374258996918797e-03" rms="4.6321457624435425e-01" purity="3.9783436059951782e-01" nType="-99"/>
        </Node>
        <Node pos="r" depth="1" NCoef="0" IVar="2" Cut="7.0959259033203125e+02" cType="1" res="8.4174228832125664e-03" rms="4.6564224362373352e-01" purity="5.1892489194869995e-01" nType="0">
          <Node pos="l" depth="2" NCoef="0" IVar="-1" Cut="0.0000000000000000e+00" cType="1" res="1.1210468364879489e-03" rms="4.5657783746719360e-01" purity="6.2916976213455200e-01" nType="-99"/>
          <Node pos="r" depth="2" NCoef="0" IVar="-1" Cut="0.0000000000000000e+00" cType="1" res="2.0183722426736495e-06" rms="4.6655803918838501e-01" purity="5.0114685297012329e-01" nType="-99"/>
        </Node>
      </Node>
    </BinaryTree>
    <BinaryTree type="DecisionTree" boostWeight="1.0000000000000000e+00" itree="871">
      <Node pos="s" depth="0" NCoef="0" IVar="3" Cut="8.5484993457794189e-01" cType="1" res="4.1060722433030605e-03" rms="4.6209886670112610e-01" purity="5.1400339603424072e-01" nType="0">
        <Node pos="l" depth="1" NCoef="0" IVar="-1" Cut="0.0000000000000000e+00" cType="1" res="-1.0187150910496712e-03" rms="4.6477457880973816e-01" purity="3.3387187123298645e-01" nType="-99"/>
        <Node pos="r" depth="1" NCoef="0" IVar="0" Cut="1.0635926818847656e+02" cType="1" res="1.2438901700079441e-02" rms="4.6093913912773132e-01" purity="5.3003185987472534e-01" nType="0">
          <Node pos="l" depth="2" NCoef="0" IVar="-1" Cut="0.0000000000000000e+00" cType="1" res="-4.5591854723170400e-04" rms="4.7476097941398621e-01" purity="4.8221650719642639e-01" nType="-99"/>
          <Node pos="r" depth="2" NCoef="0" IVar="-1" Cut="0.0000000000000000e+00" cType="1" res="4.8680082545615733e-04" rms="4.5442250370979309e-01" purity="5.4859125614166260e-01" nType="-99"/>
        </Node>
      </Node>
    </BinaryTree>
    <BinaryTree type="DecisionTree" boostWeight="1.0000000000000000e+00" itree="872">
      <Node pos="s" depth="0" NCoef="0" IVar="3" Cut="9.7288006544113159e-01" cType="1" res="1.8414396326988935e-03" rms="4.6704146265983582e-01" purity="5.1211297512054443e-01" nType="0">
        <Node pos="l" depth="1" NCoef="0" IVar="0" Cut="6.3230587005615234e+01" cType="1" res="8.8856816291809082e-03" rms="4.6557417511940002e-01" purity="5.0905168056488037e-01" nType="0">
          <Node pos="l" depth="2" NCoef="0" IVar="-1" Cut="0.0000000000000000e+00" cType="1" res="-8.3070533582940698e-04" rms="4.5195332169532776e-01" purity="3.4313845634460449e-01" nType="-99"/>
          <Node pos="r" depth="2" NCoef="0" IVar="-1" Cut="0.0000000000000000e+00" cType="1" res="2.5749727501533926e-04" rms="4.6625494956970215e-01" purity="5.2463364601135254e-01" nType="-99"/>
        </Node>
        <Node pos="r" depth="1" NCoef="0" IVar="-1" Cut="0.0000000000000000e+00" cType="1" res="-1.9519145134836435e-03" rms="4.7622323036193848e-01" purity="5.5717307329177856e-01" nType="-99"/>
      </Node>
    </BinaryTree>
    <BinaryTree type="DecisionTree" boostWeight="1.0000000000000000e+00" itree="873">
      <Node pos="s" depth="0" NCoef="0" IVar="0" Cut="6.8802024841308594e+01" cType="1" res="-8.4673502715304494e-04" rms="4.6283832192420959e-01" purity="5.0411105155944824e-01" nType="0">
        <Node pos="l" depth="1" NCoef="0" IVar="-1" Cut="0.0000000000000000e+00" cType="1" res="-1.1746080126613379e-03" rms="4.4428068399429321e-01" purity="3.2877391576766968e-01" nType="-99"/>
        <Node pos="r" depth="1" NCoef="0" IVar="2" Cut="2.0102453613281250e+03" cType="1" res="9.5049664378166199e-03" rms="4.6387472748756409e-01" purity="5.2472460269927979e-01" nType="0">
          <Node pos="l" depth="2" NCoef="0" IVar="-1" Cut="0.0000000000000000e+00" cType="1" res="2.8890784597024322e-04" rms="4.6402913331985474e-01" purity="5.3721362352371216e-01" nType="-99"/>
          <Node pos="r" depth="2" NCoef="0" IVar="-1" Cut="0.0000000000000000e+00" cType="1" res="-9.9004618823528290e-04" rms="4.5140337944030762e-01" purity="3.7592193484306335e-01" nType="-99"/>
        </Node>
      </Node>
    </BinaryTree>
    <BinaryTree type="DecisionTree" boostWeight="1.0000000000000000e+00" itree="874">
      <Node pos="s" depth="0" NCoef="0" IVar="4" Cut="1.2464561767578125e+03" cType="1" res="-1.7029884038493037e-03" rms="4.6345522999763489e-01" purity="5.0771653652191162e-01" nType="0">
        <Node pos="l" depth="1" NCoef="0" IVar="2" Cut="1.3421374511718750e+03" cType="1" res="-8.3165830001235008e-03" rms="4.6274286508560181e-01" purity="5.0171691179275513e-01" nType="0">
          <Node pos="l" depth="2" NCoef="0" IVar="-1" Cut="0.0000000000000000e+00" cType="1" res="9.6790936368051916e-05" rms="4.6187275648117065e-01" purity="5.2631253004074097e-01" nType="-99"/>
          <Node pos="r" depth="2" NCoef="0" IVar="-1" Cut="0.0000000000000000e+00" cType="1" res="-9.6459896303713322e-04" rms="4.6124595403671265e-01" purity="3.9355090260505676e-01" nType="-99"/>
        </Node>
        <Node pos="r" depth="1" NCoef="0" IVar="-1" Cut="0.0000000000000000e+00" cType="1" res="1.4427050482481718e-03" rms="4.6450078487396240e-01" purity="5.8137708902359009e-01" nType="-99"/>
      </Node>
    </BinaryTree>
    <BinaryTree type="DecisionTree" boostWeight="1.0000000000000000e+00" itree="875">
      <Node pos="s" depth="0" NCoef="0" IVar="4" Cut="4.7967053222656250e+02" cType="1" res="-3.5692283418029547e-03" rms="4.6535706520080566e-01" purity="5.0257080793380737e-01" nType="0">
        <Node pos="l" depth="1" NCoef="0" IVar="-1" Cut="0.0000000000000000e+00" cType="1" res="-1.2181489728391171e-03" rms="4.6608099341392517e-01" purity="3.9473769068717957e-01" nType="-99"/>
        <Node pos="r" depth="1" NCoef="0" IVar="2" Cut="1.5207501220703125e+03" cType="1" res="4.8615857958793640e-03" rms="4.6444529294967651e-01" purity="5.1337987184524536e-01" nType="0">
          <Node pos="l" depth="2" NCoef="0" IVar="-1" Cut="0.0000000000000000e+00" cType="1" res="2.9867043485864997e-04" rms="4.6253713965415955e-01" purity="5.3745067119598389e-01" nType="-99"/>
          <Node pos="r" depth="2" NCoef="0" IVar="-1" Cut="0.0000000000000000e+00" cType="1" res="-6.4505089540034533e-04" rms="4.6840357780456543e-01" purity="4.1736322641372681e-01" nType="-99"/>
        </Node>
      </Node>
    </BinaryTree>
    <BinaryTree type="DecisionTree" boostWeight="1.0000000000000000e+00" itree="876">
      <Node pos="s" depth="0" NCoef="0" IVar="5" Cut="8.3500921726226807e-01" cType="1" res="-1.2670974247157574e-02" rms="4.6653044223785400e-01" purity="4.9531728029251099e-01" nType="0">
        <Node pos="l" depth="1" NCoef="0" IVar="4" Cut="6.0553302001953125e+02" cType="1" res="-2.1638903766870499e-02" rms="4.6778666973114014e-01" purity="4.7960099577903748e-01" nType="0">
          <Node pos="l" depth="2" NCoef="0" IVar="-1" Cut="0.0000000000000000e+00" cType="1" res="-8.3674030611291528e-04" rms="4.5649895071983337e-01" purity="4.2329818010330200e-01" nType="-99"/>
          <Node pos="r" depth="2" NCoef="0" IVar="-1" Cut="0.0000000000000000e+00" cType="1" res="-8.5280233179219067e-05" rms="4.7194123268127441e-01" purity="5.0519686937332153e-01" nType="-99"/>
        </Node>
        <Node pos="r" depth="1" NCoef="0" IVar="-1" Cut="0.0000000000000000e+00" cType="1" res="1.6601482639089227e-03" rms="4.4230452179908752e-01" purity="6.6024214029312134e-01" nType="-99"/>
      </Node>
    </BinaryTree>
    <BinaryTree type="DecisionTree" boostWeight="1.0000000000000000e+00" itree="877">
      <Node pos="s" depth="0" NCoef="0" IVar="4" Cut="7.0160577392578125e+02" cType="1" res="-1.3454342260956764e-02" rms="4.6666508913040161e-01" purity="4.9331432580947876e-01" nType="0">
        <Node pos="l" depth="1" NCoef="0" IVar="2" Cut="7.8476086425781250e+02" cType="1" res="-3.8521472364664078e-02" rms="4.6111178398132324e-01" purity="4.5212516188621521e-01" nType="0">
          <Node pos="l" depth="2" NCoef="0" IVar="-1" Cut="0.0000000000000000e+00" cType="1" res="1.2592402345035225e-04" rms="4.6602034568786621e-01" purity="5.6173121929168701e-01" nType="-99"/>
          <Node pos="r" depth="2" NCoef="0" IVar="-1" Cut="0.0000000000000000e+00" cType="1" res="-1.0756212286651134e-03" rms="4.5173835754394531e-01" purity="3.4496283531188965e-01" nType="-99"/>
        </Node>
        <Node pos="r" depth="1" NCoef="0" IVar="2" Cut="1.0058035278320312e+03" cType="1" res="1.0639904998242855e-02" rms="4.7068464756011963e-01" purity="5.3290492296218872e-01" nType="0">
          <Node pos="l" depth="2" NCoef="0" IVar="-1" Cut="0.0000000000000000e+00" cType="1" res="2.7544437907636166e-03" rms="4.4432833790779114e-01" purity="7.1804660558700562e-01" nType="-99"/>
          <Node pos="r" depth="2" NCoef="0" IVar="-1" Cut="0.0000000000000000e+00" cType="1" res="-1.6007787780836225e-04" rms="4.7286739945411682e-01" purity="4.9625179171562195e-01" nType="-99"/>
        </Node>
      </Node>
    </BinaryTree>
    <BinaryTree type="DecisionTree" boostWeight="1.0000000000000000e+00" itree="878">
      <Node pos="s" depth="0" NCoef="0" IVar="0" Cut="1.5358863830566406e+02" cType="1" res="1.7093424685299397e-03" rms="4.6533510088920593e-01" purity="5.1048868894577026e-01" nType="0">
        <Node pos="l" depth="1" NCoef="0" IVar="0" Cut="7.9645111083984375e+01" cType="1" res="3.1311035156250000e-02" rms="4.6312525868415833e-01" purity="5.8007740974426270e-01" nType="0">
          <Node pos="l" depth="2" NCoef="0" IVar="-1" Cut="0.0000000000000000e+00" cType="1" res="-3.6523313610814512e-04" rms="4.7555580735206604e-01" purity="4.2547181248664856e-01" nType="-99"/>
          <Node pos="r" depth="2" NCoef="0" IVar="-1" Cut="0.0000000000000000e+00" cType="1" res="9.7633578116074204e-04" rms="4.5694217085838318e-01" purity="6.3466179370880127e-01" nType="-99"/>
        </Node>
        <Node pos="r" depth="1" NCoef="0" IVar="1" Cut="1.2352150726318359e+02" cType="1" res="-2.8037503361701965e-02" rms="4.6565344929695129e-01" purity="4.4055864214897156e-01" nType="0">
          <Node pos="l" depth="2" NCoef="0" IVar="-1" Cut="0.0000000000000000e+00" cType="1" res="1.1379009083611891e-04" rms="4.7473821043968201e-01" purity="4.9961370229721069e-01" nType="-99"/>
          <Node pos="r" depth="2" NCoef="0" IVar="-1" Cut="0.0000000000000000e+00" cType="1" res="-7.9223886132240295e-04" rms="4.5630735158920288e-01" purity="3.9342400431632996e-01" nType="-99"/>
        </Node>
      </Node>
    </BinaryTree>
    <BinaryTree type="DecisionTree" boostWeight="1.0000000000000000e+00" itree="879">
      <Node pos="s" depth="0" NCoef="0" IVar="4" Cut="8.8412573242187500e+02" cType="1" res="-2.4435931816697121e-02" rms="4.6258765459060669e-01" purity="4.8043221235275269e-01" nType="0">
        <Node pos="l" depth="1" NCoef="0" IVar="2" Cut="7.6071771240234375e+02" cType="1" res="-3.8449089974164963e-02" rms="4.5898845791816711e-01" purity="4.6216061711311340e-01" nType="0">
          <Node pos="l" depth="2" NCoef="0" IVar="-1" Cut="0.0000000000000000e+00" cType="1" res="2.2822996834293008e-04" rms="4.6238592267036438e-01" purity="5.7030522823333740e-01" nType="-99"/>
          <Node pos="r" depth="2" NCoef="0" IVar="-1" Cut="0.0000000000000000e+00" cType="1" res="-8.2677195314317942e-04" rms="4.5605123043060303e-01" purity="4.1987377405166626e-01" nType="-99"/>
        </Node>
        <Node pos="r" depth="1" NCoef="0" IVar="2" Cut="1.4820151367187500e+03" cType="1" res="1.1591358110308647e-02" rms="4.6980023384094238e-01" purity="5.2740782499313354e-01" nType="0">
          <Node pos="l" depth="2" NCoef="0" IVar="-1" Cut="0.0000000000000000e+00" cType="1" res="2.1503805182874203e-03" rms="4.5701760053634644e-01" purity="6.7666125297546387e-01" nType="-99"/>
          <Node pos="r" depth="2" NCoef="0" IVar="-1" Cut="0.0000000000000000e+00" cType="1" res="-7.1615661727264524e-04" rms="4.6797513961791992e-01" purity="4.2049920558929443e-01" nType="-99"/>
        </Node>
      </Node>
    </BinaryTree>
    <BinaryTree type="DecisionTree" boostWeight="1.0000000000000000e+00" itree="880">
      <Node pos="s" depth="0" NCoef="0" IVar="2" Cut="7.2677758789062500e+02" cType="1" res="-9.4177480787038803e-03" rms="4.6728220582008362e-01" purity="4.9985650181770325e-01" nType="0">
        <Node pos="l" depth="1" NCoef="0" IVar="4" Cut="4.9909039306640625e+02" cType="1" res="7.3441289365291595e-02" rms="4.5092710852622986e-01" purity="6.4423435926437378e-01" nType="0">
          <Node pos="l" depth="2" NCoef="0" IVar="-1" Cut="0.0000000000000000e+00" cType="1" res="6.5996595367323607e-05" rms="4.8189643025398254e-01" purity="5.3789460659027100e-01" nType="-99"/>
          <Node pos="r" depth="2" NCoef="0" IVar="-1" Cut="0.0000000000000000e+00" cType="1" res="4.2342185042798519e-03" rms="3.9496642351150513e-01" purity="7.7169245481491089e-01" nType="-99"/>
        </Node>
        <Node pos="r" depth="1" NCoef="0" IVar="1" Cut="1.0814468383789062e+02" cType="1" res="-2.4793641641736031e-02" rms="4.6864587068557739e-01" purity="4.7306472063064575e-01" nType="0">
          <Node pos="l" depth="2" NCoef="0" IVar="-1" Cut="0.0000000000000000e+00" cType="1" res="-1.2588587123900652e-03" rms="4.4402015209197998e-01" purity="3.1919178366661072e-01" nType="-99"/>
          <Node pos="r" depth="2" NCoef="0" IVar="-1" Cut="0.0000000000000000e+00" cType="1" res="-1.9012331904377788e-04" rms="4.7161039710044861e-01" purity="4.9938961863517761e-01" nType="-99"/>
        </Node>
      </Node>
    </BinaryTree>
    <BinaryTree type="DecisionTree" boostWeight="1.0000000000000000e+00" itree="881">
      <Node pos="s" depth="0" NCoef="0" IVar="4" Cut="5.9140802001953125e+02" cType="1" res="-4.9906638450920582e-03" rms="4.6296676993370056e-01" purity="5.0235176086425781e-01" nType="0">
        <Node pos="l" depth="1" NCoef="0" IVar="2" Cut="6.4826019287109375e+02" cType="1" res="-5.2402541041374207e-02" rms="4.4968903064727783e-01" purity="4.3087357282638550e-01" nType="0">
          <Node pos="l" depth="2" NCoef="0" IVar="-1" Cut="0.0000000000000000e+00" cType="1" res="3.3684106892906129e-04" rms="4.7377148270606995e-01" purity="5.9685361385345459e-01" nType="-99"/>
          <Node pos="r" depth="2" NCoef="0" IVar="-1" Cut="0.0000000000000000e+00" cType="1" res="-1.1913634371012449e-03" rms="4.3233144283294678e-01" purity="3.4571552276611328e-01" nType="-99"/>
        </Node>
        <Node pos="r" depth="1" NCoef="0" IVar="2" Cut="1.7045981445312500e+03" cType="1" res="1.3762466609477997e-02" rms="4.6678748726844788e-01" purity="5.3062403202056885e-01" nType="0">
          <Node pos="l" depth="2" NCoef="0" IVar="-1" Cut="0.0000000000000000e+00" cType="1" res="5.1315815653651953e-04" rms="4.6673524379730225e-01" purity="5.6013160943984985e-01" nType="-99"/>
          <Node pos="r" depth="2" NCoef="0" IVar="-1" Cut="0.0000000000000000e+00" cType="1" res="-8.3283282583579421e-04" rms="4.5930752158164978e-01" purity="3.9573502540588379e-01" nType="-99"/>
        </Node>
      </Node>
    </BinaryTree>
    <BinaryTree type="DecisionTree" boostWeight="1.0000000000000000e+00" itree="882">
      <Node pos="s" depth="0" NCoef="0" IVar="0" Cut="8.5150497436523438e+01" cType="1" res="-2.6544355787336826e-03" rms="4.6329468488693237e-01" purity="5.0193840265274048e-01" nType="0">
        <Node pos="l" depth="1" NCoef="0" IVar="1" Cut="1.2392498016357422e+02" cType="1" res="-7.4081584811210632e-02" rms="4.5228406786918640e-01" purity="3.6883461475372314e-01" nType="0">
          <Node pos="l" depth="2" NCoef="0" IVar="-1" Cut="0.0000000000000000e+00" cType="1" res="-1.4876757049933076e-03" rms="4.4100254774093628e-01" purity="3.3510941267013550e-01" nType="-99"/>
          <Node pos="r" depth="2" NCoef="0" IVar="-1" Cut="0.0000000000000000e+00" cType="1" res="-1.9763346062973142e-04" rms="4.6061450242996216e-01" purity="4.1551300883293152e-01" nType="-99"/>
        </Node>
        <Node pos="r" depth="1" NCoef="0" IVar="0" Cut="4.5952392578125000e+02" cType="1" res="1.2095491401851177e-02" rms="4.6416875720024109e-01" purity="5.2942478656768799e-01" nType="0">
          <Node pos="l" depth="2" NCoef="0" IVar="-1" Cut="0.0000000000000000e+00" cType="1" res="3.3919402630999684e-04" rms="4.6553558111190796e-01" purity="5.5085945129394531e-01" nType="-99"/>
          <Node pos="r" depth="2" NCoef="0" IVar="-1" Cut="0.0000000000000000e+00" cType="1" res="-9.7750080749392509e-04" rms="4.3983578681945801e-01" purity="3.0124062299728394e-01" nType="-99"/>
        </Node>
      </Node>
    </BinaryTree>
    <BinaryTree type="DecisionTree" boostWeight="1.0000000000000000e+00" itree="883">
      <Node pos="s" depth="0" NCoef="0" IVar="4" Cut="9.0738983154296875e+02" cType="1" res="-5.1648467779159546e-03" rms="4.6579498052597046e-01" purity="5.0478386878967285e-01" nType="0">
        <Node pos="l" depth="1" NCoef="0" IVar="2" Cut="1.2568271484375000e+03" cType="1" res="-2.0285278558731079e-02" rms="4.6326863765716553e-01" purity="4.8705640435218811e-01" nType="0">
          <Node pos="l" depth="2" NCoef="0" IVar="-1" Cut="0.0000000000000000e+00" cType="1" res="-1.8118715161108412e-05" rms="4.6597540378570557e-01" purity="5.2030235528945923e-01" nType="-99"/>
          <Node pos="r" depth="2" NCoef="0" IVar="-1" Cut="0.0000000000000000e+00" cType="1" res="-1.6692611388862133e-03" rms="4.2599341273307800e-01" purity="2.7583867311477661e-01" nType="-99"/>
        </Node>
        <Node pos="r" depth="1" NCoef="0" IVar="2" Cut="1.5017119140625000e+03" cType="1" res="3.8151573389768600e-02" rms="4.7027412056922913e-01" purity="5.5556887388229370e-01" nType="0">
          <Node pos="l" depth="2" NCoef="0" IVar="-1" Cut="0.0000000000000000e+00" cType="1" res="2.0707047078758478e-03" rms="4.6194154024124146e-01" purity="6.7240154743194580e-01" nType="-99"/>
          <Node pos="r" depth="2" NCoef="0" IVar="-1" Cut="0.0000000000000000e+00" cType="1" res="-5.7262437621830031e-05" rms="4.7157752513885498e-01" purity="4.7330775856971741e-01" nType="-99"/>
        </Node>
      </Node>
    </BinaryTree>
    <BinaryTree type="DecisionTree" boostWeight="1.0000000000000000e+00" itree="884">
      <Node pos="s" depth="0" NCoef="0" IVar="1" Cut="1.3055567932128906e+02" cType="1" res="-2.0096991211175919e-02" rms="4.6404120326042175e-01" purity="4.8609611392021179e-01" nType="0">
        <Node pos="l" depth="1" NCoef="0" IVar="3" Cut="9.3790429830551147e-01" cType="1" res="-8.4931692108511925e-03" rms="4.6467214822769165e-01" purity="5.2161306142807007e-01" nType="0">
          <Node pos="l" depth="2" NCoef="0" IVar="-1" Cut="0.0000000000000000e+00" cType="1" res="-3.0792309553362429e-04" rms="4.7028860449790955e-01" purity="4.7755235433578491e-01" nType="-99"/>
          <Node pos="r" depth="2" NCoef="0" IVar="-1" Cut="0.0000000000000000e+00" cType="1" res="1.0783732868731022e-03" rms="4.3754267692565918e-01" purity="6.9888794422149658e-01" nType="-99"/>
        </Node>
        <Node pos="r" depth="1" NCoef="0" IVar="4" Cut="6.9960113525390625e+02" cType="1" res="-4.6873748302459717e-02" rms="4.6146976947784424e-01" purity="4.0413779020309448e-01" nType="0">
          <Node pos="l" depth="2" NCoef="0" IVar="-1" Cut="0.0000000000000000e+00" cType="1" res="-1.2091853423044086e-03" rms="4.4705197215080261e-01" purity="3.4054920077323914e-01" nType="-99"/>
          <Node pos="r" depth="2" NCoef="0" IVar="-1" Cut="0.0000000000000000e+00" cType="1" res="-1.0358343570260331e-04" rms="4.6974816918373108e-01" purity="4.5854547619819641e-01" nType="-99"/>
        </Node>
      </Node>
    </BinaryTree>
    <BinaryTree type="DecisionTree" boostWeight="1.0000000000000000e+00" itree="885">
      <Node pos="s" depth="0" NCoef="0" IVar="3" Cut="9.3139046430587769e-01" cType="1" res="-1.4187530614435673e-02" rms="4.6911504864692688e-01" purity="4.9517422914505005e-01" nType="0">
        <Node pos="l" depth="1" NCoef="0" IVar="2" Cut="6.8409606933593750e+02" cType="1" res="-3.1612771563231945e-03" rms="4.6970218420028687e-01" purity="4.6887475252151489e-01" nType="0">
          <Node pos="l" depth="2" NCoef="0" IVar="-1" Cut="0.0000000000000000e+00" cType="1" res="1.2461545411497355e-03" rms="4.7033765912055969e-01" purity="6.0669291019439697e-01" nType="-99"/>
          <Node pos="r" depth="2" NCoef="0" IVar="-1" Cut="0.0000000000000000e+00" cType="1" res="-1.8643982184585184e-04" rms="4.6873649954795837e-01" purity="4.5000669360160828e-01" nType="-99"/>
        </Node>
        <Node pos="r" depth="1" NCoef="0" IVar="4" Cut="6.4965618896484375e+02" cType="1" res="-4.8445649445056915e-02" rms="4.6562314033508301e-01" purity="5.7688564062118530e-01" nType="0">
          <Node pos="l" depth="2" NCoef="0" IVar="-1" Cut="0.0000000000000000e+00" cType="1" res="-1.8859583651646972e-03" rms="4.7504520416259766e-01" purity="5.0536209344863892e-01" nType="-99"/>
          <Node pos="r" depth="2" NCoef="0" IVar="-1" Cut="0.0000000000000000e+00" cType="1" res="-1.8924506730400026e-04" rms="4.5505559444427490e-01" purity="6.2430948019027710e-01" nType="-99"/>
        </Node>
      </Node>
    </BinaryTree>
    <BinaryTree type="DecisionTree" boostWeight="1.0000000000000000e+00" itree="886">
      <Node pos="s" depth="0" NCoef="0" IVar="1" Cut="9.9138389587402344e+01" cType="1" res="-5.0327368080615997e-03" rms="4.6508076786994934e-01" purity="5.0090146064758301e-01" nType="0">
        <Node pos="l" depth="1" NCoef="0" IVar="-1" Cut="0.0000000000000000e+00" cType="1" res="-1.0119193466380239e-03" rms="4.3939825892448425e-01" purity="2.8564575314521790e-01" nType="-99"/>
        <Node pos="r" depth="1" NCoef="0" IVar="4" Cut="7.1418572998046875e+02" cType="1" res="1.3810858363285661e-03" rms="4.6661350131034851e-01" purity="5.1903951168060303e-01" nType="0">
          <Node pos="l" depth="2" NCoef="0" IVar="-1" Cut="0.0000000000000000e+00" cType="1" res="-3.5527956788428128e-04" rms="4.6452894806861877e-01" purity="4.7593501210212708e-01" nType="-99"/>
          <Node pos="r" depth="2" NCoef="0" IVar="-1" Cut="0.0000000000000000e+00" cType="1" res="4.6084349742159247e-04" rms="4.6737313270568848e-01" purity="5.6394529342651367e-01" nType="-99"/>
        </Node>
      </Node>
    </BinaryTree>
    <BinaryTree type="DecisionTree" boostWeight="1.0000000000000000e+00" itree="887">
      <Node pos="s" depth="0" NCoef="0" IVar="4" Cut="1.1371517333984375e+03" cType="1" res="-1.5582390129566193e-02" rms="4.6672603487968445e-01" purity="4.9266028404235840e-01" nType="0">
        <Node pos="l" depth="1" NCoef="0" IVar="2" Cut="1.3055593261718750e+03" cType="1" res="-2.5675337761640549e-02" rms="4.6615865826606750e-01" purity="4.8386862874031067e-01" nType="0">
          <Node pos="l" depth="2" NCoef="0" IVar="-1" Cut="0.0000000000000000e+00" cType="1" res="-2.0923469855915755e-04" rms="4.6586459875106812e-01" purity="5.0799816846847534e-01" nType="-99"/>
          <Node pos="r" depth="2" NCoef="0" IVar="-1" Cut="0.0000000000000000e+00" cType="1" res="-1.0677519021555781e-03" rms="4.6324679255485535e-01" purity="3.7298899888992310e-01" nType="-99"/>
        </Node>
        <Node pos="r" depth="1" NCoef="0" IVar="2" Cut="1.9907415771484375e+03" cType="1" res="6.1623986810445786e-02" rms="4.6383392810821533e-01" purity="5.5991208553314209e-01" nType="0">
          <Node pos="l" depth="2" NCoef="0" IVar="-1" Cut="0.0000000000000000e+00" cType="1" res="1.9997726194560528e-03" rms="4.5379462838172913e-01" purity="6.2263530492782593e-01" nType="-99"/>
          <Node pos="r" depth="2" NCoef="0" IVar="-1" Cut="0.0000000000000000e+00" cType="1" res="6.2784114561509341e-05" rms="4.6988025307655334e-01" purity="4.8122280836105347e-01" nType="-99"/>
        </Node>
      </Node>
    </BinaryTree>
    <BinaryTree type="DecisionTree" boostWeight="1.0000000000000000e+00" itree="888">
      <Node pos="s" depth="0" NCoef="0" IVar="2" Cut="1.4403145751953125e+03" cType="1" res="-6.8499455228447914e-03" rms="4.6759223937988281e-01" purity="5.0353002548217773e-01" nType="0">
        <Node pos="l" depth="1" NCoef="0" IVar="4" Cut="4.8243090820312500e+02" cType="1" res="3.7809279747307301e-03" rms="4.6706813573837280e-01" purity="5.2479445934295654e-01" nType="0">
          <Node pos="l" depth="2" NCoef="0" IVar="-1" Cut="0.0000000000000000e+00" cType="1" res="-1.3177588116377592e-03" rms="4.7344347834587097e-01" purity="3.9618700742721558e-01" nType="-99"/>
          <Node pos="r" depth="2" NCoef="0" IVar="-1" Cut="0.0000000000000000e+00" cType="1" res="2.9121094848960638e-04" rms="4.6448034048080444e-01" purity="5.4234266281127930e-01" nType="-99"/>
        </Node>
        <Node pos="r" depth="1" NCoef="0" IVar="4" Cut="1.0596611328125000e+03" cType="1" res="-4.8460394144058228e-02" rms="4.6731799840927124e-01" purity="4.2029866576194763e-01" nType="0">
          <Node pos="l" depth="2" NCoef="0" IVar="-1" Cut="0.0000000000000000e+00" cType="1" res="-1.5612612478435040e-03" rms="4.5233523845672607e-01" purity="3.0699220299720764e-01" nType="-99"/>
          <Node pos="r" depth="2" NCoef="0" IVar="-1" Cut="0.0000000000000000e+00" cType="1" res="-1.8787004592013545e-06" rms="4.6954715251922607e-01" purity="4.8856955766677856e-01" nType="-99"/>
        </Node>
      </Node>
    </BinaryTree>
    <BinaryTree type="DecisionTree" boostWeight="1.0000000000000000e+00" itree="889">
      <Node pos="s" depth="0" NCoef="0" IVar="2" Cut="1.7144658203125000e+03" cType="1" res="-2.3009506985545158e-03" rms="4.6336644887924194e-01" purity="5.0450384616851807e-01" nType="0">
        <Node pos="l" depth="1" NCoef="0" IVar="4" Cut="8.2326794433593750e+02" cType="1" res="9.1212876141071320e-03" rms="4.6178007125854492e-01" purity="5.2142101526260376e-01" nType="0">
          <Node pos="l" depth="2" NCoef="0" IVar="-1" Cut="0.0000000000000000e+00" cType="1" res="-1.6421775217168033e-04" rms="4.6004050970077515e-01" purity="4.8885193467140198e-01" nType="-99"/>
          <Node pos="r" depth="2" NCoef="0" IVar="-1" Cut="0.0000000000000000e+00" cType="1" res="1.1840400984510779e-03" rms="4.6217775344848633e-01" purity="6.1158722639083862e-01" nType="-99"/>
        </Node>
        <Node pos="r" depth="1" NCoef="0" IVar="5" Cut="6.0238248109817505e-01" cType="1" res="-8.1584915518760681e-02" rms="4.6658775210380554e-01" purity="3.8707819581031799e-01" nType="0">
          <Node pos="l" depth="2" NCoef="0" IVar="-1" Cut="0.0000000000000000e+00" cType="1" res="-1.4735088916495442e-03" rms="4.5059323310852051e-01" purity="3.4415021538734436e-01" nType="-99"/>
          <Node pos="r" depth="2" NCoef="0" IVar="-1" Cut="0.0000000000000000e+00" cType="1" res="-6.6415005130693316e-04" rms="4.8168590664863586e-01" purity="4.3409541249275208e-01" nType="-99"/>
        </Node>
      </Node>
    </BinaryTree>
    <BinaryTree type="DecisionTree" boostWeight="1.0000000000000000e+00" itree="890">
      <Node pos="s" depth="0" NCoef="0" IVar="4" Cut="5.1708618164062500e+02" cType="1" res="-7.0520038716495037e-03" rms="4.6761587262153625e-01" purity="5.0020736455917358e-01" nType="0">
        <Node pos="l" depth="1" NCoef="0" IVar="2" Cut="5.9331536865234375e+02" cType="1" res="-6.0404662042856216e-02" rms="4.6572482585906982e-01" purity="4.2615240812301636e-01" nType="0">
          <Node pos="l" depth="2" NCoef="0" IVar="-1" Cut="0.0000000000000000e+00" cType="1" res="6.8674207432195544e-04" rms="4.8109245300292969e-01" purity="5.9511792659759521e-01" nType="-99"/>
          <Node pos="r" depth="2" NCoef="0" IVar="-1" Cut="0.0000000000000000e+00" cType="1" res="-1.4094621874392033e-03" rms="4.4894644618034363e-01" purity="3.3719354867935181e-01" nType="-99"/>
        </Node>
        <Node pos="r" depth="1" NCoef="0" IVar="2" Cut="8.3567077636718750e+02" cType="1" res="2.5445115752518177e-03" rms="4.6730929613113403e-01" purity="5.1352757215499878e-01" nType="0">
          <Node pos="l" depth="2" NCoef="0" IVar="-1" Cut="0.0000000000000000e+00" cType="1" res="1.1110194027423859e-03" rms="4.5191818475723267e-01" purity="6.2266004085540771e-01" nType="-99"/>
          <Node pos="r" depth="2" NCoef="0" IVar="-1" Cut="0.0000000000000000e+00" cType="1" res="-1.9079966295976192e-04" rms="4.7013849020004272e-01" purity="4.8468339443206787e-01" nType="-99"/>
        </Node>
      </Node>
    </BinaryTree>
    <BinaryTree type="DecisionTree" boostWeight="1.0000000000000000e+00" itree="891">
      <Node pos="s" depth="0" NCoef="0" IVar="5" Cut="2.7220693230628967e-01" cType="1" res="-1.3947542756795883e-02" rms="4.6520024538040161e-01" purity="4.9429714679718018e-01" nType="0">
        <Node pos="l" depth="1" NCoef="0" IVar="3" Cut="9.2412233352661133e-01" cType="1" res="-5.6951489299535751e-02" rms="4.6012070775032043e-01" purity="4.3879988789558411e-01" nType="0">
          <Node pos="l" depth="2" NCoef="0" IVar="-1" Cut="0.0000000000000000e+00" cType="1" res="-1.0320304427295923e-03" rms="4.6004056930541992e-01" purity="3.8228151202201843e-01" nType="-99"/>
          <Node pos="r" depth="2" NCoef="0" IVar="-1" Cut="0.0000000000000000e+00" cType="1" res="-2.2855879251437727e-06" rms="4.5569616556167603e-01" purity="6.1308914422988892e-01" nType="-99"/>
        </Node>
        <Node pos="r" depth="1" NCoef="0" IVar="2" Cut="6.2795019531250000e+02" cType="1" res="3.9101038128137589e-03" rms="4.6612894535064697e-01" purity="5.1734274625778198e-01" nType="0">
          <Node pos="l" depth="2" NCoef="0" IVar="-1" Cut="0.0000000000000000e+00" cType="1" res="2.1527525968849659e-03" rms="4.3176591396331787e-01" purity="6.7802405357360840e-01" nType="-99"/>
          <Node pos="r" depth="2" NCoef="0" IVar="-1" Cut="0.0000000000000000e+00" cType="1" res="-5.7017587096197531e-05" rms="4.6777263283729553e-01" purity="5.0505661964416504e-01" nType="-99"/>
        </Node>
      </Node>
    </BinaryTree>
    <BinaryTree type="DecisionTree" boostWeight="1.0000000000000000e+00" itree="892">
      <Node pos="s" depth="0" NCoef="0" IVar="4" Cut="6.9768273925781250e+02" cType="1" res="-1.5401327051222324e-02" rms="4.6905407309532166e-01" purity="4.9366170167922974e-01" nType="0">
        <Node pos="l" depth="1" NCoef="0" IVar="2" Cut="5.9598468017578125e+02" cType="1" res="-4.6557329595088959e-02" rms="4.6545511484146118e-01" purity="4.4360569119453430e-01" nType="0">
          <Node pos="l" depth="2" NCoef="0" IVar="-1" Cut="0.0000000000000000e+00" cType="1" res="1.5801996923983097e-03" rms="4.7795614600181580e-01" purity="6.4925533533096313e-01" nType="-99"/>
          <Node pos="r" depth="2" NCoef="0" IVar="-1" Cut="0.0000000000000000e+00" cType="1" res="-8.4275647532194853e-04" rms="4.6197372674942017e-01" purity="4.2000740766525269e-01" nType="-99"/>
        </Node>
        <Node pos="r" depth="1" NCoef="0" IVar="1" Cut="1.2366223907470703e+02" cType="1" res="1.4032733626663685e-02" rms="4.7053769230842590e-01" purity="5.4095113277435303e-01" nType="0">
          <Node pos="l" depth="2" NCoef="0" IVar="-1" Cut="0.0000000000000000e+00" cType="1" res="9.6289487555623055e-04" rms="4.6478700637817383e-01" purity="5.9552782773971558e-01" nType="-99"/>
          <Node pos="r" depth="2" NCoef="0" IVar="-1" Cut="0.0000000000000000e+00" cType="1" res="-2.4694117018952966e-04" rms="4.7278231382369995e-01" purity="4.9869403243064880e-01" nType="-99"/>
        </Node>
      </Node>
    </BinaryTree>
    <BinaryTree type="DecisionTree" boostWeight="1.0000000000000000e+00" itree="893">
      <Node pos="s" depth="0" NCoef="0" IVar="4" Cut="6.7141882324218750e+02" cType="1" res="1.2420907616615295e-02" rms="4.6428382396697998e-01" purity="5.1750379800796509e-01" nType="0">
        <Node pos="l" depth="1" NCoef="0" IVar="2" Cut="7.4976281738281250e+02" cType="1" res="-1.5282964333891869e-02" rms="4.5952287316322327e-01" purity="4.6774390339851379e-01" nType="0">
          <Node pos="l" depth="2" NCoef="0" IVar="-1" Cut="0.0000000000000000e+00" cType="1" res="6.3577957917004824e-04" rms="4.5432698726654053e-01" purity="5.8828639984130859e-01" nType="-99"/>
          <Node pos="r" depth="2" NCoef="0" IVar="-1" Cut="0.0000000000000000e+00" cType="1" res="-8.0581259680911899e-04" rms="4.5940724015235901e-01" purity="3.6680138111114502e-01" nType="-99"/>
        </Node>
        <Node pos="r" depth="1" NCoef="0" IVar="2" Cut="1.3584313964843750e+03" cType="1" res="3.3153265714645386e-02" rms="4.6674051880836487e-01" purity="5.5474185943603516e-01" nType="0">
          <Node pos="l" depth="2" NCoef="0" IVar="-1" Cut="0.0000000000000000e+00" cType="1" res="1.2123511405661702e-03" rms="4.6719506382942200e-01" purity="6.2508791685104370e-01" nType="-99"/>
          <Node pos="r" depth="2" NCoef="0" IVar="-1" Cut="0.0000000000000000e+00" cType="1" res="-9.0974106569774449e-05" rms="4.6322798728942871e-01" purity="4.6282464265823364e-01" nType="-99"/>
        </Node>
      </Node>
    </BinaryTree>
    <BinaryTree type="DecisionTree" boostWeight="1.0000000000000000e+00" itree="894">
      <Node pos="s" depth="0" NCoef="0" IVar="4" Cut="1.2585566406250000e+03" cType="1" res="-1.8165037035942078e-03" rms="4.7018170356750488e-01" purity="5.0847363471984863e-01" nType="0">
        <Node pos="l" depth="1" NCoef="0" IVar="2" Cut="1.5889838867187500e+03" cType="1" res="-7.6595135033130646e-03" rms="4.6840956807136536e-01" purity="5.0391352176666260e-01" nType="0">
          <Node pos="l" depth="2" NCoef="0" IVar="-1" Cut="0.0000000000000000e+00" cType="1" res="2.2501688363263384e-05" rms="4.6839454770088196e-01" purity="5.1922088861465454e-01" nType="-99"/>
          <Node pos="r" depth="2" NCoef="0" IVar="-1" Cut="0.0000000000000000e+00" cType="1" res="-1.3211196055635810e-03" rms="4.5815396308898926e-01" purity="3.4535768628120422e-01" nType="-99"/>
        </Node>
        <Node pos="r" depth="1" NCoef="0" IVar="-1" Cut="0.0000000000000000e+00" cType="1" res="1.1476178187876940e-03" rms="4.8539116978645325e-01" purity="5.6263417005538940e-01" nType="-99"/>
      </Node>
    </BinaryTree>
    <BinaryTree type="DecisionTree" boostWeight="1.0000000000000000e+00" itree="895">
      <Node pos="s" depth="0" NCoef="0" IVar="0" Cut="6.7829383850097656e+01" cType="1" res="1.2301906244829297e-03" rms="4.6175569295883179e-01" purity="5.0500959157943726e-01" nType="0">
        <Node pos="l" depth="1" NCoef="0" IVar="-1" Cut="0.0000000000000000e+00" cType="1" res="-9.3557103537023067e-04" rms="4.5295107364654541e-01" purity="3.4095647931098938e-01" nType="-99"/>
        <Node pos="r" depth="1" NCoef="0" IVar="2" Cut="7.2529016113281250e+02" cType="1" res="9.2619704082608223e-03" rms="4.6194255352020264e-01" purity="5.2230423688888550e-01" nType="0">
          <Node pos="l" depth="2" NCoef="0" IVar="-1" Cut="0.0000000000000000e+00" cType="1" res="1.5116709982976317e-03" rms="4.4488537311553955e-01" purity="6.6615337133407593e-01" nType="-99"/>
          <Node pos="r" depth="2" NCoef="0" IVar="-1" Cut="0.0000000000000000e+00" cType="1" res="-2.2502397769130766e-05" rms="4.6399539709091187e-01" purity="4.9740061163902283e-01" nType="-99"/>
        </Node>
      </Node>
    </BinaryTree>
    <BinaryTree type="DecisionTree" boostWeight="1.0000000000000000e+00" itree="896">
      <Node pos="s" depth="0" NCoef="0" IVar="2" Cut="1.3781831054687500e+03" cType="1" res="-1.4564223587512970e-02" rms="4.6753349900245667e-01" purity="4.9310424923896790e-01" nType="0">
        <Node pos="l" depth="1" NCoef="0" IVar="4" Cut="5.1720300292968750e+02" cType="1" res="-9.8392338259145617e-05" rms="4.6794393658638000e-01" purity="5.2103340625762939e-01" nType="0">
          <Node pos="l" depth="2" NCoef="0" IVar="-1" Cut="0.0000000000000000e+00" cType="1" res="-1.0007874807342887e-03" rms="4.5426881313323975e-01" purity="4.1079661250114441e-01" nType="-99"/>
          <Node pos="r" depth="2" NCoef="0" IVar="-1" Cut="0.0000000000000000e+00" cType="1" res="2.8761601424776018e-04" rms="4.6963849663734436e-01" purity="5.4839611053466797e-01" nType="-99"/>
        </Node>
        <Node pos="r" depth="1" NCoef="0" IVar="4" Cut="1.1951856689453125e+03" cType="1" res="-5.8849021792411804e-02" rms="4.6347641944885254e-01" purity="4.0760374069213867e-01" nType="0">
          <Node pos="l" depth="2" NCoef="0" IVar="-1" Cut="0.0000000000000000e+00" cType="1" res="-1.3580447994172573e-03" rms="4.5439264178276062e-01" purity="3.4613427519798279e-01" nType="-99"/>
          <Node pos="r" depth="2" NCoef="0" IVar="-1" Cut="0.0000000000000000e+00" cType="1" res="1.3462135393638164e-04" rms="4.6860656142234802e-01" purity="4.9911919236183167e-01" nType="-99"/>
        </Node>
      </Node>
    </BinaryTree>
    <BinaryTree type="DecisionTree" boostWeight="1.0000000000000000e+00" itree="897">
      <Node pos="s" depth="0" NCoef="0" IVar="4" Cut="1.1360971679687500e+03" cType="1" res="-1.8518993631005287e-02" rms="4.6663820743560791e-01" purity="4.9215862154960632e-01" nType="0">
        <Node pos="l" depth="1" NCoef="0" IVar="2" Cut="1.3292141113281250e+03" cType="1" res="-2.9158562421798706e-02" rms="4.6557301282882690e-01" purity="4.8213905096054077e-01" nType="0">
          <Node pos="l" depth="2" NCoef="0" IVar="-1" Cut="0.0000000000000000e+00" cType="1" res="-2.6181939756497741e-04" rms="4.6596115827560425e-01" purity="5.0599908828735352e-01" nType="-99"/>
          <Node pos="r" depth="2" NCoef="0" IVar="-1" Cut="0.0000000000000000e+00" cType="1" res="-1.1905359569936991e-03" rms="4.5849820971488953e-01" purity="3.6168688535690308e-01" nType="-99"/>
        </Node>
        <Node pos="r" depth="1" NCoef="0" IVar="4" Cut="1.3610798339843750e+03" cType="1" res="6.2926322221755981e-02" rms="4.6674671769142151e-01" purity="5.6885784864425659e-01" nType="0">
          <Node pos="l" depth="2" NCoef="0" IVar="-1" Cut="0.0000000000000000e+00" cType="1" res="1.7352593131363392e-03" rms="4.4921484589576721e-01" purity="6.2286907434463501e-01" nType="-99"/>
          <Node pos="r" depth="2" NCoef="0" IVar="-1" Cut="0.0000000000000000e+00" cType="1" res="4.9875199329108000e-04" rms="4.8228311538696289e-01" purity="5.1262915134429932e-01" nType="-99"/>
        </Node>
      </Node>
    </BinaryTree>
    <BinaryTree type="DecisionTree" boostWeight="1.0000000000000000e+00" itree="898">
      <Node pos="s" depth="0" NCoef="0" IVar="1" Cut="9.9859390258789062e+01" cType="1" res="-2.3323707282543182e-02" rms="4.6660378575325012e-01" purity="4.8682031035423279e-01" nType="0">
        <Node pos="l" depth="1" NCoef="0" IVar="-1" Cut="0.0000000000000000e+00" cType="1" res="-1.2296393979340792e-03" rms="4.2823779582977295e-01" purity="2.7994981408119202e-01" nType="-99"/>
        <Node pos="r" depth="1" NCoef="0" IVar="4" Cut="6.8389404296875000e+02" cType="1" res="-1.7341740429401398e-02" rms="4.6899139881134033e-01" purity="5.0321692228317261e-01" nType="0">
          <Node pos="l" depth="2" NCoef="0" IVar="-1" Cut="0.0000000000000000e+00" cType="1" res="-6.2874821014702320e-04" rms="4.6462920308113098e-01" purity="4.5795959234237671e-01" nType="-99"/>
          <Node pos="r" depth="2" NCoef="0" IVar="-1" Cut="0.0000000000000000e+00" cType="1" res="5.4764379456173629e-05" rms="4.7152033448219299e-01" purity="5.4019641876220703e-01" nType="-99"/>
        </Node>
      </Node>
    </BinaryTree>
    <BinaryTree type="DecisionTree" boostWeight="1.0000000000000000e+00" itree="899">
      <Node pos="s" depth="0" NCoef="0" IVar="1" Cut="1.1059207916259766e+02" cType="1" res="-1.5363823622465134e-02" rms="4.6461239457130432e-01" purity="4.8852401971817017e-01" nType="0">
        <Node pos="l" depth="1" NCoef="0" IVar="3" Cut="9.0116399526596069e-01" cType="1" res="-6.6638030111789703e-02" rms="4.5038330554962158e-01" purity="3.7379348278045654e-01" nType="0">
          <Node pos="l" depth="2" NCoef="0" IVar="-1" Cut="0.0000000000000000e+00" cType="1" res="-1.0957517661154270e-03" rms="4.4019004702568054e-01" purity="2.9915902018547058e-01" nType="-99"/>
          <Node pos="r" depth="2" NCoef="0" IVar="-1" Cut="0.0000000000000000e+00" cType="1" res="-4.5728799887001514e-04" rms="4.6365728974342346e-01" purity="4.9296310544013977e-01" nType="-99"/>
        </Node>
        <Node pos="r" depth="1" NCoef="0" IVar="4" Cut="6.5547320556640625e+02" cType="1" res="-4.4615296646952629e-03" rms="4.6685662865638733e-01" purity="5.1291882991790771e-01" nType="0">
          <Node pos="l" depth="2" NCoef="0" IVar="-1" Cut="0.0000000000000000e+00" cType="1" res="-5.7869759621098638e-04" rms="4.5793500542640686e-01" purity="4.5589345693588257e-01" nType="-99"/>
          <Node pos="r" depth="2" NCoef="0" IVar="-1" Cut="0.0000000000000000e+00" cType="1" res="3.3569536753930151e-04" rms="4.7145336866378784e-01" purity="5.5288481712341309e-01" nType="-99"/>
        </Node>
      </Node>
    </BinaryTree>
    <BinaryTree type="DecisionTree" boostWeight="1.0000000000000000e+00" itree="900">
      <Node pos="s" depth="0" NCoef="0" IVar="5" Cut="1.7942844331264496e-01" cType="1" res="-1.8719591200351715e-02" rms="4.6722745895385742e-01" purity="4.8816961050033569e-01" nType="0">
        <Node pos="l" depth="1" NCoef="0" IVar="3" Cut="9.1442078351974487e-01" cType="1" res="-8.7163187563419342e-02" rms="4.7427901625633240e-01" purity="4.2435100674629211e-01" nType="0">
          <Node pos="l" depth="2" NCoef="0" IVar="-1" Cut="0.0000000000000000e+00" cType="1" res="-7.5367890531197190e-04" rms="4.7177505493164062e-01" purity="4.0252760052680969e-01" nType="-99"/>
          <Node pos="r" depth="2" NCoef="0" IVar="-1" Cut="0.0000000000000000e+00" cType="1" res="-2.5089397095143795e-03" rms="4.7267070412635803e-01" purity="4.6229481697082520e-01" nType="-99"/>
        </Node>
        <Node pos="r" depth="1" NCoef="0" IVar="4" Cut="5.6229266357421875e+02" cType="1" res="-7.9213939607143402e-03" rms="4.6518641710281372e-01" purity="4.9823808670043945e-01" nType="0">
          <Node pos="l" depth="2" NCoef="0" IVar="-1" Cut="0.0000000000000000e+00" cType="1" res="-7.3607283411547542e-04" rms="4.5134806632995605e-01" purity="4.2823702096939087e-01" nType="-99"/>
          <Node pos="r" depth="2" NCoef="0" IVar="-1" Cut="0.0000000000000000e+00" cType="1" res="6.7632885475177318e-05" rms="4.6825346350669861e-01" purity="5.1782226562500000e-01" nType="-99"/>
        </Node>
      </Node>
    </BinaryTree>
    <BinaryTree type="DecisionTree" boostWeight="1.0000000000000000e+00" itree="901">
      <Node pos="s" depth="0" NCoef="0" IVar="4" Cut="4.9736447143554688e+02" cType="1" res="-1.1583413928747177e-02" rms="4.6813127398490906e-01" purity="4.9943301081657410e-01" nType="0">
        <Node pos="l" depth="1" NCoef="0" IVar="-1" Cut="0.0000000000000000e+00" cType="1" res="-9.9741644226014614e-04" rms="4.6445038914680481e-01" purity="4.0627500414848328e-01" nType="-99"/>
        <Node pos="r" depth="1" NCoef="0" IVar="2" Cut="7.3438220214843750e+02" cType="1" res="-4.0266062133014202e-03" rms="4.6807813644409180e-01" purity="5.1154845952987671e-01" nType="0">
          <Node pos="l" depth="2" NCoef="0" IVar="-1" Cut="0.0000000000000000e+00" cType="1" res="2.5439141318202019e-03" rms="4.2940270900726318e-01" purity="7.1100378036499023e-01" nType="-99"/>
          <Node pos="r" depth="2" NCoef="0" IVar="-1" Cut="0.0000000000000000e+00" cType="1" res="-2.6088458253070712e-04" rms="4.7069582343101501e-01" purity="4.8835653066635132e-01" nType="-99"/>
        </Node>
      </Node>
    </BinaryTree>
    <BinaryTree type="DecisionTree" boostWeight="1.0000000000000000e+00" itree="902">
      <Node pos="s" depth="0" NCoef="0" IVar="2" Cut="9.4129473876953125e+02" cType="1" res="-1.3062380254268646e-02" rms="4.6746635437011719e-01" purity="4.9644735455513000e-01" nType="0">
        <Node pos="l" depth="1" NCoef="0" IVar="4" Cut="5.6855987548828125e+02" cType="1" res="8.6475191637873650e-03" rms="4.7070318460464478e-01" purity="5.5199533700942993e-01" nType="0">
          <Node pos="l" depth="2" NCoef="0" IVar="-1" Cut="0.0000000000000000e+00" cType="1" res="-5.5662036174908280e-04" rms="4.7410202026367188e-01" purity="4.8261886835098267e-01" nType="-99"/>
          <Node pos="r" depth="2" NCoef="0" IVar="-1" Cut="0.0000000000000000e+00" cType="1" res="9.9283037707209587e-04" rms="4.6295145153999329e-01" purity="6.2281841039657593e-01" nType="-99"/>
        </Node>
        <Node pos="r" depth="1" NCoef="0" IVar="4" Cut="8.1232714843750000e+02" cType="1" res="-2.8267709538340569e-02" rms="4.6458223462104797e-01" purity="4.5754221081733704e-01" nType="0">
          <Node pos="l" depth="2" NCoef="0" IVar="-1" Cut="0.0000000000000000e+00" cType="1" res="-1.0197943774983287e-03" rms="4.4358125329017639e-01" purity="3.5649096965789795e-01" nType="-99"/>
          <Node pos="r" depth="2" NCoef="0" IVar="-1" Cut="0.0000000000000000e+00" cType="1" res="2.0231022062944248e-05" rms="4.7436678409576416e-01" purity="5.1851916313171387e-01" nType="-99"/>
        </Node>
      </Node>
    </BinaryTree>
    <BinaryTree type="DecisionTree" boostWeight="1.0000000000000000e+00" itree="903">
      <Node pos="s" depth="0" NCoef="0" IVar="5" Cut="8.3051735162734985e-01" cType="1" res="-9.3026841059327126e-03" rms="4.6860137581825256e-01" purity="4.9983718991279602e-01" nType="0">
        <Node pos="l" depth="1" NCoef="0" IVar="5" Cut="1.7715327441692352e-01" cType="1" res="-1.6677061095833778e-02" rms="4.6999534964561462e-01" purity="4.8634785413742065e-01" nType="0">
          <Node pos="l" depth="2" NCoef="0" IVar="-1" Cut="0.0000000000000000e+00" cType="1" res="-9.9783169571310282e-04" rms="4.6776852011680603e-01" purity="4.4591489434242249e-01" nType="-99"/>
          <Node pos="r" depth="2" NCoef="0" IVar="-1" Cut="0.0000000000000000e+00" cType="1" res="-1.3965599646326154e-04" rms="4.6991309523582458e-01" purity="4.9282562732696533e-01" nType="-99"/>
        </Node>
        <Node pos="r" depth="1" NCoef="0" IVar="-1" Cut="0.0000000000000000e+00" cType="1" res="1.1671745451167226e-03" rms="4.4831937551498413e-01" purity="6.3213962316513062e-01" nType="-99"/>
      </Node>
    </BinaryTree>
    <BinaryTree type="DecisionTree" boostWeight="1.0000000000000000e+00" itree="904">
      <Node pos="s" depth="0" NCoef="0" IVar="1" Cut="1.0814468383789062e+02" cType="1" res="-3.8367682136595249e-03" rms="4.6396338939666748e-01" purity="4.9905297160148621e-01" nType="0">
        <Node pos="l" depth="1" NCoef="0" IVar="2" Cut="1.1406967773437500e+03" cType="1" res="-6.5786734223365784e-02" rms="4.3942677974700928e-01" purity="3.4094130992889404e-01" nType="0">
          <Node pos="l" depth="2" NCoef="0" IVar="-1" Cut="0.0000000000000000e+00" cType="1" res="-1.8158616148866713e-04" rms="4.4030177593231201e-01" purity="4.1189607977867126e-01" nType="-99"/>
          <Node pos="r" depth="2" NCoef="0" IVar="-1" Cut="0.0000000000000000e+00" cType="1" res="-1.3292065123096108e-03" rms="4.3284806609153748e-01" purity="2.7593958377838135e-01" nType="-99"/>
        </Node>
        <Node pos="r" depth="1" NCoef="0" IVar="4" Cut="1.0855249023437500e+03" cType="1" res="7.7693117782473564e-03" rms="4.6750512719154358e-01" purity="5.2867454290390015e-01" nType="0">
          <Node pos="l" depth="2" NCoef="0" IVar="-1" Cut="0.0000000000000000e+00" cType="1" res="-4.3519510654732585e-05" rms="4.6745645999908447e-01" purity="5.1972222328186035e-01" nType="-99"/>
          <Node pos="r" depth="2" NCoef="0" IVar="-1" Cut="0.0000000000000000e+00" cType="1" res="1.2200182536616921e-03" rms="4.6270096302032471e-01" purity="5.8320176601409912e-01" nType="-99"/>
        </Node>
      </Node>
    </BinaryTree>
    <BinaryTree type="DecisionTree" boostWeight="1.0000000000000000e+00" itree="905">
      <Node pos="s" depth="0" NCoef="0" IVar="0" Cut="6.4517669677734375e+01" cType="1" res="-4.3616448529064655e-03" rms="4.6420240402221680e-01" purity="5.0136095285415649e-01" nType="0">
        <Node pos="l" depth="1" NCoef="0" IVar="-1" Cut="0.0000000000000000e+00" cType="1" res="-1.1325223604217172e-03" rms="4.3565699458122253e-01" purity="3.1797927618026733e-01" nType="-99"/>
        <Node pos="r" depth="1" NCoef="0" IVar="4" Cut="5.4047155761718750e+02" cType="1" res="3.6543081514537334e-03" rms="4.6602362394332886e-01" purity="5.1875156164169312e-01" nType="0">
          <Node pos="l" depth="2" NCoef="0" IVar="-1" Cut="0.0000000000000000e+00" cType="1" res="-6.9575116503983736e-04" rms="4.5217859745025635e-01" purity="4.5040553808212280e-01" nType="-99"/>
          <Node pos="r" depth="2" NCoef="0" IVar="-1" Cut="0.0000000000000000e+00" cType="1" res="2.2828018700238317e-04" rms="4.6821305155754089e-01" purity="5.3312444686889648e-01" nType="-99"/>
        </Node>
      </Node>
    </BinaryTree>
    <BinaryTree type="DecisionTree" boostWeight="1.0000000000000000e+00" itree="906">
      <Node pos="s" depth="0" NCoef="0" IVar="4" Cut="5.1117098999023438e+02" cType="1" res="-2.0342066418379545e-03" rms="4.6513450145721436e-01" purity="5.0133311748504639e-01" nType="0">
        <Node pos="l" depth="1" NCoef="0" IVar="2" Cut="6.0629333496093750e+02" cType="1" res="-8.0141715705394745e-02" rms="4.5572146773338318e-01" purity="3.9186540246009827e-01" nType="0">
          <Node pos="l" depth="2" NCoef="0" IVar="-1" Cut="0.0000000000000000e+00" cType="1" res="1.7159894923679531e-04" rms="4.8863652348518372e-01" purity="5.6535398960113525e-01" nType="-99"/>
          <Node pos="r" depth="2" NCoef="0" IVar="-1" Cut="0.0000000000000000e+00" cType="1" res="-1.6811942914500833e-03" rms="4.2285141348838806e-01" purity="2.7902126312255859e-01" nType="-99"/>
        </Node>
        <Node pos="r" depth="1" NCoef="0" IVar="1" Cut="1.4200451660156250e+02" cType="1" res="1.0914931073784828e-02" rms="4.6541169285774231e-01" purity="5.1948136091232300e-01" nType="0">
          <Node pos="l" depth="2" NCoef="0" IVar="-1" Cut="0.0000000000000000e+00" cType="1" res="3.4351673093624413e-04" rms="4.6802738308906555e-01" purity="5.5011844635009766e-01" nType="-99"/>
          <Node pos="r" depth="2" NCoef="0" IVar="-1" Cut="0.0000000000000000e+00" cType="1" res="-7.3044071905314922e-04" rms="4.4056737422943115e-01" purity="3.0391681194305420e-01" nType="-99"/>
        </Node>
      </Node>
    </BinaryTree>
    <BinaryTree type="DecisionTree" boostWeight="1.0000000000000000e+00" itree="907">
      <Node pos="s" depth="0" NCoef="0" IVar="3" Cut="9.4095802307128906e-01" cType="1" res="-9.6999928355216980e-03" rms="4.6459063887596130e-01" purity="4.9776855111122131e-01" nType="0">
        <Node pos="l" depth="1" NCoef="0" IVar="0" Cut="8.9931587219238281e+01" cType="1" res="-2.1454090252518654e-02" rms="4.7029101848602295e-01" purity="4.5985570549964905e-01" nType="0">
          <Node pos="l" depth="2" NCoef="0" IVar="-1" Cut="0.0000000000000000e+00" cType="1" res="-8.8486744789406657e-04" rms="4.7019287943840027e-01" purity="3.7030041217803955e-01" nType="-99"/>
          <Node pos="r" depth="2" NCoef="0" IVar="-1" Cut="0.0000000000000000e+00" cType="1" res="-1.4791058492846787e-04" rms="4.6956554055213928e-01" purity="4.8102933168411255e-01" nType="-99"/>
        </Node>
        <Node pos="r" depth="1" NCoef="0" IVar="4" Cut="6.5213348388671875e+02" cType="1" res="4.7135230153799057e-02" rms="4.3148314952850342e-01" purity="6.8109053373336792e-01" nType="0">
          <Node pos="l" depth="2" NCoef="0" IVar="-1" Cut="0.0000000000000000e+00" cType="1" res="-5.3398314776131883e-05" rms="4.5580437779426575e-01" purity="6.1297118663787842e-01" nType="-99"/>
          <Node pos="r" depth="2" NCoef="0" IVar="-1" Cut="0.0000000000000000e+00" cType="1" res="1.9322680309414864e-03" rms="4.1304737329483032e-01" purity="7.2258025407791138e-01" nType="-99"/>
        </Node>
      </Node>
    </BinaryTree>
    <BinaryTree type="DecisionTree" boostWeight="1.0000000000000000e+00" itree="908">
      <Node pos="s" depth="0" NCoef="0" IVar="4" Cut="4.6697601318359375e+02" cType="1" res="-1.4506268315017223e-02" rms="4.6150845289230347e-01" purity="4.9014300107955933e-01" nType="0">
        <Node pos="l" depth="1" NCoef="0" IVar="-1" Cut="0.0000000000000000e+00" cType="1" res="-1.3452033745124936e-03" rms="4.5357266068458557e-01" purity="3.8024818897247314e-01" nType="-99"/>
        <Node pos="r" depth="1" NCoef="0" IVar="2" Cut="6.7969122314453125e+02" cType="1" res="-7.1919397450983524e-03" rms="4.6139732003211975e-01" purity="4.9921149015426636e-01" nType="0">
          <Node pos="l" depth="2" NCoef="0" IVar="-1" Cut="0.0000000000000000e+00" cType="1" res="2.6007159613072872e-03" rms="4.1326835751533508e-01" purity="7.2258406877517700e-01" nType="-99"/>
          <Node pos="r" depth="2" NCoef="0" IVar="-1" Cut="0.0000000000000000e+00" cType="1" res="-2.5373100652359426e-04" rms="4.6381694078445435e-01" purity="4.8093780875205994e-01" nType="-99"/>
        </Node>
      </Node>
    </BinaryTree>
    <BinaryTree type="DecisionTree" boostWeight="1.0000000000000000e+00" itree="909">
      <Node pos="s" depth="0" NCoef="0" IVar="0" Cut="2.3919528198242188e+02" cType="1" res="-1.6172733157873154e-02" rms="4.6632674336433411e-01" purity="4.8817762732505798e-01" nType="0">
        <Node pos="l" depth="1" NCoef="0" IVar="0" Cut="9.2397056579589844e+01" cType="1" res="-2.3392913863062859e-03" rms="4.7085270285606384e-01" purity="5.3596454858779907e-01" nType="0">
          <Node pos="l" depth="2" NCoef="0" IVar="-1" Cut="0.0000000000000000e+00" cType="1" res="-5.9288676129654050e-04" rms="4.6842157840728760e-01" purity="4.2853173613548279e-01" nType="-99"/>
          <Node pos="r" depth="2" NCoef="0" IVar="-1" Cut="0.0000000000000000e+00" cType="1" res="2.2016308503225446e-04" rms="4.7089129686355591e-01" purity="5.7639807462692261e-01" nType="-99"/>
        </Node>
        <Node pos="r" depth="1" NCoef="0" IVar="0" Cut="2.7780685424804688e+02" cType="1" res="-5.0944134593009949e-02" rms="4.5288950204849243e-01" purity="3.6806154251098633e-01" nType="0">
          <Node pos="l" depth="2" NCoef="0" IVar="-1" Cut="0.0000000000000000e+00" cType="1" res="-1.4124029548838735e-03" rms="4.3913367390632629e-01" purity="3.2924208045005798e-01" nType="-99"/>
          <Node pos="r" depth="2" NCoef="0" IVar="-1" Cut="0.0000000000000000e+00" cType="1" res="-3.9718419429846108e-04" rms="4.5556345582008362e-01" purity="3.8166436553001404e-01" nType="-99"/>
        </Node>
      </Node>
    </BinaryTree>
    <BinaryTree type="DecisionTree" boostWeight="1.0000000000000000e+00" itree="910">
      <Node pos="s" depth="0" NCoef="0" IVar="4" Cut="8.8412573242187500e+02" cType="1" res="-8.3710858598351479e-03" rms="4.6759104728698730e-01" purity="4.9862781167030334e-01" nType="0">
        <Node pos="l" depth="1" NCoef="0" IVar="0" Cut="1.7088850402832031e+02" cType="1" res="-2.4676799774169922e-02" rms="4.6379536390304565e-01" purity="4.7475337982177734e-01" nType="0">
          <Node pos="l" depth="2" NCoef="0" IVar="-1" Cut="0.0000000000000000e+00" cType="1" res="-7.1799026045482606e-05" rms="4.6920999884605408e-01" purity="5.2918815612792969e-01" nType="-99"/>
          <Node pos="r" depth="2" NCoef="0" IVar="-1" Cut="0.0000000000000000e+00" cType="1" res="-7.9106236808001995e-04" rms="4.5301878452301025e-01" purity="3.8691380620002747e-01" nType="-99"/>
        </Node>
        <Node pos="r" depth="1" NCoef="0" IVar="2" Cut="1.3055058593750000e+03" cType="1" res="3.3969577401876450e-02" rms="4.7469797730445862e-01" purity="5.6062197685241699e-01" nType="0">
          <Node pos="l" depth="2" NCoef="0" IVar="-1" Cut="0.0000000000000000e+00" cType="1" res="2.1995087154209614e-03" rms="4.5113286375999451e-01" purity="7.0086824893951416e-01" nType="-99"/>
          <Node pos="r" depth="2" NCoef="0" IVar="-1" Cut="0.0000000000000000e+00" cType="1" res="2.2383943723980337e-04" rms="4.8084259033203125e-01" purity="5.1276296377182007e-01" nType="-99"/>
        </Node>
      </Node>
    </BinaryTree>
    <BinaryTree type="DecisionTree" boostWeight="1.0000000000000000e+00" itree="911">
      <Node pos="s" depth="0" NCoef="0" IVar="4" Cut="4.9315444946289062e+02" cType="1" res="-1.4601046219468117e-02" rms="4.6315419673919678e-01" purity="4.8686441779136658e-01" nType="0">
        <Node pos="l" depth="1" NCoef="0" IVar="-1" Cut="0.0000000000000000e+00" cType="1" res="-1.0864671785384417e-03" rms="4.5614978671073914e-01" purity="3.9856472611427307e-01" nType="-99"/>
        <Node pos="r" depth="1" NCoef="0" IVar="2" Cut="7.2137243652343750e+02" cType="1" res="-6.1038439162075520e-03" rms="4.6340945363044739e-01" purity="4.9856778979301453e-01" nType="0">
          <Node pos="l" depth="2" NCoef="0" IVar="-1" Cut="0.0000000000000000e+00" cType="1" res="2.2902491036802530e-03" rms="4.2863827943801880e-01" purity="7.1264600753784180e-01" nType="-99"/>
          <Node pos="r" depth="2" NCoef="0" IVar="-1" Cut="0.0000000000000000e+00" cType="1" res="-2.5063616340048611e-04" rms="4.6543064713478088e-01" purity="4.7723460197448730e-01" nType="-99"/>
        </Node>
      </Node>
    </BinaryTree>
    <BinaryTree type="DecisionTree" boostWeight="1.0000000000000000e+00" itree="912">
      <Node pos="s" depth="0" NCoef="0" IVar="2" Cut="2.0212657470703125e+03" cType="1" res="-1.5435996465384960e-02" rms="4.6363300085067749e-01" purity="4.8836448788642883e-01" nType="0">
        <Node pos="l" depth="1" NCoef="0" IVar="4" Cut="6.1844207763671875e+02" cType="1" res="-8.4711490198969841e-03" rms="4.6307468414306641e-01" purity="4.9824580550193787e-01" nType="0">
          <Node pos="l" depth="2" NCoef="0" IVar="-1" Cut="0.0000000000000000e+00" cType="1" res="-6.4450840000063181e-04" rms="4.5491114258766174e-01" purity="4.4173851609230042e-01" nType="-99"/>
          <Node pos="r" depth="2" NCoef="0" IVar="-1" Cut="0.0000000000000000e+00" cType="1" res="1.7977009702008218e-04" rms="4.6631419658660889e-01" purity="5.2903175354003906e-01" nType="-99"/>
        </Node>
        <Node pos="r" depth="1" NCoef="0" IVar="-1" Cut="0.0000000000000000e+00" cType="1" res="-1.3154968619346619e-03" rms="4.6074804663658142e-01" purity="3.5315549373626709e-01" nType="-99"/>
      </Node>
    </BinaryTree>
    <BinaryTree type="DecisionTree" boostWeight="1.0000000000000000e+00" itree="913">
      <Node pos="s" depth="0" NCoef="0" IVar="4" Cut="9.8220703125000000e+02" cType="1" res="-1.8089324235916138e-02" rms="4.6381407976150513e-01" purity="4.8446616530418396e-01" nType="0">
        <Node pos="l" depth="1" NCoef="0" IVar="2" Cut="1.1341376953125000e+03" cType="1" res="-3.3060528337955475e-02" rms="4.6276566386222839e-01" purity="4.6921899914741516e-01" nType="0">
          <Node pos="l" depth="2" NCoef="0" IVar="-1" Cut="0.0000000000000000e+00" cType="1" res="-3.0076896655373275e-04" rms="4.6155247092247009e-01" purity="4.9782502651214600e-01" nType="-99"/>
          <Node pos="r" depth="2" NCoef="0" IVar="-1" Cut="0.0000000000000000e+00" cType="1" res="-1.0762787424027920e-03" rms="4.6388202905654907e-01" purity="3.7647011876106262e-01" nType="-99"/>
        </Node>
        <Node pos="r" depth="1" NCoef="0" IVar="2" Cut="1.5159721679687500e+03" cType="1" res="3.8487486541271210e-02" rms="4.6340763568878174e-01" purity="5.4208600521087646e-01" nType="0">
          <Node pos="l" depth="2" NCoef="0" IVar="-1" Cut="0.0000000000000000e+00" cType="1" res="2.9206315521150827e-03" rms="4.3655815720558167e-01" purity="7.0021677017211914e-01" nType="-99"/>
          <Node pos="r" depth="2" NCoef="0" IVar="-1" Cut="0.0000000000000000e+00" cType="1" res="-1.1088119936175644e-04" rms="4.6810251474380493e-01" purity="4.6885898709297180e-01" nType="-99"/>
        </Node>
      </Node>
    </BinaryTree>
    <BinaryTree type="DecisionTree" boostWeight="1.0000000000000000e+00" itree="914">
      <Node pos="s" depth="0" NCoef="0" IVar="3" Cut="8.6745482683181763e-01" cType="1" res="-5.5024055764079094e-03" rms="4.6118584275245667e-01" purity="4.9637737870216370e-01" nType="0">
        <Node pos="l" depth="1" NCoef="0" IVar="2" Cut="1.1548381347656250e+03" cType="1" res="-6.5501227974891663e-02" rms="4.4872003793716431e-01" purity="3.3990141749382019e-01" nType="0">
          <Node pos="l" depth="2" NCoef="0" IVar="-1" Cut="0.0000000000000000e+00" cType="1" res="-1.2069768126821145e-04" rms="4.6446484327316284e-01" purity="4.0908235311508179e-01" nType="-99"/>
          <Node pos="r" depth="2" NCoef="0" IVar="-1" Cut="0.0000000000000000e+00" cType="1" res="-1.5354856150224805e-03" rms="4.1623124480247498e-01" purity="2.5064983963966370e-01" nType="-99"/>
        </Node>
        <Node pos="r" depth="1" NCoef="0" IVar="1" Cut="1.4416984558105469e+02" cType="1" res="1.4033123850822449e-02" rms="4.6349951624870300e-01" purity="5.4732578992843628e-01" nType="0">
          <Node pos="l" depth="2" NCoef="0" IVar="-1" Cut="0.0000000000000000e+00" cType="1" res="4.6708650188520551e-04" rms="4.6537578105926514e-01" purity="5.8106768131256104e-01" nType="-99"/>
          <Node pos="r" depth="2" NCoef="0" IVar="-1" Cut="0.0000000000000000e+00" cType="1" res="-9.9537323694676161e-04" rms="4.3798717856407166e-01" purity="2.9336512088775635e-01" nType="-99"/>
        </Node>
      </Node>
    </BinaryTree>
    <BinaryTree type="DecisionTree" boostWeight="1.0000000000000000e+00" itree="915">
      <Node pos="s" depth="0" NCoef="0" IVar="4" Cut="6.9706341552734375e+02" cType="1" res="-9.0393824502825737e-03" rms="4.6618700027465820e-01" purity="4.9918320775032043e-01" nType="0">
        <Node pos="l" depth="1" NCoef="0" IVar="2" Cut="6.3887628173828125e+02" cType="1" res="-2.8270687907934189e-02" rms="4.6354058384895325e-01" purity="4.6340566873550415e-01" nType="0">
          <Node pos="l" depth="2" NCoef="0" IVar="-1" Cut="0.0000000000000000e+00" cType="1" res="9.3989801825955510e-04" rms="4.7263401746749878e-01" purity="6.2517750263214111e-01" nType="-99"/>
          <Node pos="r" depth="2" NCoef="0" IVar="-1" Cut="0.0000000000000000e+00" cType="1" res="-6.2910007545724511e-04" rms="4.5996937155723572e-01" purity="4.2922320961952209e-01" nType="-99"/>
        </Node>
        <Node pos="r" depth="1" NCoef="0" IVar="2" Cut="9.9479388427734375e+02" cType="1" res="7.2948061861097813e-03" rms="4.6780249476432800e-01" purity="5.2957099676132202e-01" nType="0">
          <Node pos="l" depth="2" NCoef="0" IVar="-1" Cut="0.0000000000000000e+00" cType="1" res="1.9084912491962314e-03" rms="4.4017100334167480e-01" purity="6.8274313211441040e-01" nType="-99"/>
          <Node pos="r" depth="2" NCoef="0" IVar="-1" Cut="0.0000000000000000e+00" cType="1" res="-1.5039880236145109e-04" rms="4.7152552008628845e-01" purity="4.9771618843078613e-01" nType="-99"/>
        </Node>
      </Node>
    </BinaryTree>
    <BinaryTree type="DecisionTree" boostWeight="1.0000000000000000e+00" itree="916">
      <Node pos="s" depth="0" NCoef="0" IVar="1" Cut="1.2831219482421875e+02" cType="1" res="-1.5197281725704670e-02" rms="4.6718478202819824e-01" purity="4.9179974198341370e-01" nType="0">
        <Node pos="l" depth="1" NCoef="0" IVar="0" Cut="2.4593000793457031e+02" cType="1" res="1.0624929331243038e-02" rms="4.6753445267677307e-01" purity="5.4205793142318726e-01" nType="0">
          <Node pos="l" depth="2" NCoef="0" IVar="-1" Cut="0.0000000000000000e+00" cType="1" res="-5.9539117501117289e-05" rms="4.6640077233314514e-01" purity="5.5073839426040649e-01" nType="-99"/>
          <Node pos="r" depth="2" NCoef="0" IVar="-1" Cut="0.0000000000000000e+00" cType="1" res="1.0541781084612012e-03" rms="4.6790623664855957e-01" purity="5.0928050279617310e-01" nType="-99"/>
        </Node>
        <Node pos="r" depth="1" NCoef="0" IVar="5" Cut="5.4368567466735840e-01" cType="1" res="-5.7113658636808395e-02" rms="4.6356409788131714e-01" purity="4.1021704673767090e-01" nType="0">
          <Node pos="l" depth="2" NCoef="0" IVar="-1" Cut="0.0000000000000000e+00" cType="1" res="-4.0760493720881641e-04" rms="4.6157997846603394e-01" purity="4.2907506227493286e-01" nType="-99"/>
          <Node pos="r" depth="2" NCoef="0" IVar="-1" Cut="0.0000000000000000e+00" cType="1" res="-1.2056939303874969e-03" rms="4.6341508626937866e-01" purity="3.8523638248443604e-01" nType="-99"/>
        </Node>
      </Node>
    </BinaryTree>
    <BinaryTree type="DecisionTree" boostWeight="1.0000000000000000e+00" itree="917">
      <Node pos="s" depth="0" NCoef="0" IVar="2" Cut="6.9852978515625000e+02" cType="1" res="1.0424930602312088e-02" rms="4.6154230833053589e-01" purity="5.1504611968994141e-01" nType="0">
        <Node pos="l" depth="1" NCoef="0" IVar="4" Cut="4.8511752319335938e+02" cType="1" res="9.4152137637138367e-02" rms="4.4696220755577087e-01" purity="6.7950546741485596e-01" nType="0">
          <Node pos="l" depth="2" NCoef="0" IVar="-1" Cut="0.0000000000000000e+00" cType="1" res="6.4552476396784186e-04" rms="4.8185619711875916e-01" purity="5.7760757207870483e-01" nType="-99"/>
          <Node pos="r" depth="2" NCoef="0" IVar="-1" Cut="0.0000000000000000e+00" cType="1" res="3.6728011909872293e-03" rms="4.1071456670761108e-01" purity="7.6222580671310425e-01" nType="-99"/>
        </Node>
        <Node pos="r" depth="1" NCoef="0" IVar="0" Cut="9.0373802185058594e+01" cType="1" res="-2.1605696529150009e-03" rms="4.6238538622856140e-01" purity="4.9032530188560486e-01" nType="0">
          <Node pos="l" depth="2" NCoef="0" IVar="-1" Cut="0.0000000000000000e+00" cType="1" res="-1.1007230496034026e-03" rms="4.5387193560600281e-01" purity="3.5880216956138611e-01" nType="-99"/>
          <Node pos="r" depth="2" NCoef="0" IVar="-1" Cut="0.0000000000000000e+00" cType="1" res="2.2726962924934924e-04" rms="4.6231245994567871e-01" purity="5.1626068353652954e-01" nType="-99"/>
        </Node>
      </Node>
    </BinaryTree>
    <BinaryTree type="DecisionTree" boostWeight="1.0000000000000000e+00" itree="918">
      <Node pos="s" depth="0" NCoef="0" IVar="2" Cut="1.1587662353515625e+03" cType="1" res="-1.2076700106263161e-02" rms="4.6695998311042786e-01" purity="4.9542817473411560e-01" nType="0">
        <Node pos="l" depth="1" NCoef="0" IVar="4" Cut="6.9040893554687500e+02" cType="1" res="8.8230455294251442e-03" rms="4.6530243754386902e-01" purity="5.3154212236404419e-01" nType="0">
          <Node pos="l" depth="2" NCoef="0" IVar="-1" Cut="0.0000000000000000e+00" cType="1" res="-3.0195459839887917e-04" rms="4.6449786424636841e-01" purity="4.7472435235977173e-01" nType="-99"/>
          <Node pos="r" depth="2" NCoef="0" IVar="-1" Cut="0.0000000000000000e+00" cType="1" res="1.5633262228220701e-03" rms="4.6030345559120178e-01" purity="6.6346448659896851e-01" nType="-99"/>
        </Node>
        <Node pos="r" depth="1" NCoef="0" IVar="5" Cut="5.5246067047119141e-01" cType="1" res="-4.4572047889232635e-02" rms="4.6767419576644897e-01" purity="4.3927747011184692e-01" nType="0">
          <Node pos="l" depth="2" NCoef="0" IVar="-1" Cut="0.0000000000000000e+00" cType="1" res="-1.6462655912619084e-04" rms="4.5967778563499451e-01" purity="4.6095529198646545e-01" nType="-99"/>
          <Node pos="r" depth="2" NCoef="0" IVar="-1" Cut="0.0000000000000000e+00" cType="1" res="-1.0387914953753352e-03" rms="4.7354927659034729e-01" purity="4.1549962759017944e-01" nType="-99"/>
        </Node>
      </Node>
    </BinaryTree>
    <BinaryTree type="DecisionTree" boostWeight="1.0000000000000000e+00" itree="919">
      <Node pos="s" depth="0" NCoef="0" IVar="2" Cut="8.9744299316406250e+02" cType="1" res="-2.5155715644359589e-02" rms="4.6503800153732300e-01" purity="4.8105812072753906e-01" nType="0">
        <Node pos="l" depth="1" NCoef="0" IVar="4" Cut="6.6715917968750000e+02" cType="1" res="8.0183949321508408e-03" rms="4.6228659152984619e-01" purity="5.4317235946655273e-01" nType="0">
          <Node pos="l" depth="2" NCoef="0" IVar="-1" Cut="0.0000000000000000e+00" cType="1" res="-1.6028829850256443e-04" rms="4.6307304501533508e-01" purity="5.1033806800842285e-01" nType="-99"/>
          <Node pos="r" depth="2" NCoef="0" IVar="-1" Cut="0.0000000000000000e+00" cType="1" res="2.1120712626725435e-03" rms="4.4819366931915283e-01" purity="7.0110899209976196e-01" nType="-99"/>
        </Node>
        <Node pos="r" depth="1" NCoef="0" IVar="4" Cut="6.7572509765625000e+02" cType="1" res="-4.3928932398557663e-02" rms="4.6554160118103027e-01" purity="4.4590768218040466e-01" nType="0">
          <Node pos="l" depth="2" NCoef="0" IVar="-1" Cut="0.0000000000000000e+00" cType="1" res="-1.4464671257883310e-03" rms="4.2740425467491150e-01" purity="2.5354009866714478e-01" nType="-99"/>
          <Node pos="r" depth="2" NCoef="0" IVar="-1" Cut="0.0000000000000000e+00" cType="1" res="-4.1869960841722786e-04" rms="4.7176188230514526e-01" purity="4.8752090334892273e-01" nType="-99"/>
        </Node>
      </Node>
    </BinaryTree>
    <BinaryTree type="DecisionTree" boostWeight="1.0000000000000000e+00" itree="920">
      <Node pos="s" depth="0" NCoef="0" IVar="4" Cut="9.4580462646484375e+02" cType="1" res="-1.4787285588681698e-02" rms="4.6299755573272705e-01" purity="4.8751592636108398e-01" nType="0">
        <Node pos="l" depth="1" NCoef="0" IVar="2" Cut="1.2524246826171875e+03" cType="1" res="-2.8832731768488884e-02" rms="4.6018528938293457e-01" purity="4.7106179594993591e-01" nType="0">
          <Node pos="l" depth="2" NCoef="0" IVar="-1" Cut="0.0000000000000000e+00" cType="1" res="-2.5794599787332118e-04" rms="4.6102076768875122e-01" purity="4.9652031064033508e-01" nType="-99"/>
          <Node pos="r" depth="2" NCoef="0" IVar="-1" Cut="0.0000000000000000e+00" cType="1" res="-1.2755333445966244e-03" rms="4.4854366779327393e-01" purity="3.2356035709381104e-01" nType="-99"/>
        </Node>
        <Node pos="r" depth="1" NCoef="0" IVar="2" Cut="1.4650347900390625e+03" cType="1" res="3.3998910337686539e-02" rms="4.6938183903694153e-01" purity="5.4466867446899414e-01" nType="0">
          <Node pos="l" depth="2" NCoef="0" IVar="-1" Cut="0.0000000000000000e+00" cType="1" res="3.0029988847672939e-03" rms="4.2833694815635681e-01" purity="7.1657514572143555e-01" nType="-99"/>
          <Node pos="r" depth="2" NCoef="0" IVar="-1" Cut="0.0000000000000000e+00" cType="1" res="-1.3666691666003317e-04" rms="4.7923901677131653e-01" purity="4.7143828868865967e-01" nType="-99"/>
        </Node>
      </Node>
    </BinaryTree>
    <BinaryTree type="DecisionTree" boostWeight="1.0000000000000000e+00" itree="921">
      <Node pos="s" depth="0" NCoef="0" IVar="0" Cut="1.1229287719726562e+02" cType="1" res="-6.4056930132210255e-03" rms="4.6541920304298401e-01" purity="4.9992012977600098e-01" nType="0">
        <Node pos="l" depth="1" NCoef="0" IVar="2" Cut="6.6733319091796875e+02" cType="1" res="3.3646859228610992e-02" rms="4.6254017949104309e-01" purity="5.3786873817443848e-01" nType="0">
          <Node pos="l" depth="2" NCoef="0" IVar="-1" Cut="0.0000000000000000e+00" cType="1" res="2.4959968868643045e-03" rms="4.6057072281837463e-01" purity="6.7592841386795044e-01" nType="-99"/>
          <Node pos="r" depth="2" NCoef="0" IVar="-1" Cut="0.0000000000000000e+00" cType="1" res="2.0181483705528080e-04" rms="4.6066197752952576e-01" purity="5.0251305103302002e-01" nType="-99"/>
        </Node>
        <Node pos="r" depth="1" NCoef="0" IVar="5" Cut="2.6896438002586365e-01" cType="1" res="-2.2494427859783173e-02" rms="4.6560171246528625e-01" purity="4.8467648029327393e-01" nType="0">
          <Node pos="l" depth="2" NCoef="0" IVar="-1" Cut="0.0000000000000000e+00" cType="1" res="-1.0599531233310699e-03" rms="4.6734133362770081e-01" purity="4.3576452136039734e-01" nType="-99"/>
          <Node pos="r" depth="2" NCoef="0" IVar="-1" Cut="0.0000000000000000e+00" cType="1" res="-7.6010313932783902e-05" rms="4.6373429894447327e-01" purity="5.0304508209228516e-01" nType="-99"/>
        </Node>
      </Node>
    </BinaryTree>
    <BinaryTree type="DecisionTree" boostWeight="1.0000000000000000e+00" itree="922">
      <Node pos="s" depth="0" NCoef="0" IVar="2" Cut="6.8117474365234375e+02" cType="1" res="-1.4451478607952595e-02" rms="4.6489638090133667e-01" purity="4.8921024799346924e-01" nType="0">
        <Node pos="l" depth="1" NCoef="0" IVar="0" Cut="1.1268785858154297e+02" cType="1" res="6.3402563333511353e-02" rms="4.6347871422767639e-01" purity="6.4709311723709106e-01" nType="0">
          <Node pos="l" depth="2" NCoef="0" IVar="-1" Cut="0.0000000000000000e+00" cType="1" res="2.5091238785535097e-03" rms="4.6275290846824646e-01" purity="6.8371522426605225e-01" nType="-99"/>
          <Node pos="r" depth="2" NCoef="0" IVar="-1" Cut="0.0000000000000000e+00" cType="1" res="-1.8024452401732560e-06" rms="4.5611894130706787e-01" purity="6.0500454902648926e-01" nType="-99"/>
        </Node>
        <Node pos="r" depth="1" NCoef="0" IVar="4" Cut="5.9982775878906250e+02" cType="1" res="-2.4667715653777122e-02" rms="4.6411380171775818e-01" purity="4.6849238872528076e-01" nType="0">
          <Node pos="l" depth="2" NCoef="0" IVar="-1" Cut="0.0000000000000000e+00" cType="1" res="-1.0974929900839925e-03" rms="4.2913770675659180e-01" purity="3.2448193430900574e-01" nType="-99"/>
          <Node pos="r" depth="2" NCoef="0" IVar="-1" Cut="0.0000000000000000e+00" cType="1" res="-1.3348845823202282e-04" rms="4.7160333395004272e-01" purity="5.0662380456924438e-01" nType="-99"/>
        </Node>
      </Node>
    </BinaryTree>
    <BinaryTree type="DecisionTree" boostWeight="1.0000000000000000e+00" itree="923">
      <Node pos="s" depth="0" NCoef="0" IVar="4" Cut="4.7362088012695312e+02" cType="1" res="-1.2050571385771036e-03" rms="4.6244692802429199e-01" purity="5.0276672840118408e-01" nType="0">
        <Node pos="l" depth="1" NCoef="0" IVar="-1" Cut="0.0000000000000000e+00" cType="1" res="-1.2487989151850343e-03" rms="4.5632702112197876e-01" purity="3.8778021931648254e-01" nType="-99"/>
        <Node pos="r" depth="1" NCoef="0" IVar="1" Cut="1.2831219482421875e+02" cType="1" res="7.4207014404237270e-03" rms="4.6209672093391418e-01" purity="5.1368767023086548e-01" nType="0">
          <Node pos="l" depth="2" NCoef="0" IVar="-1" Cut="0.0000000000000000e+00" cType="1" res="4.5380822848528624e-04" rms="4.6209099888801575e-01" purity="5.5896234512329102e-01" nType="-99"/>
          <Node pos="r" depth="2" NCoef="0" IVar="-1" Cut="0.0000000000000000e+00" cType="1" res="-3.5555197973735631e-04" rms="4.6032801270484924e-01" purity="4.3796384334564209e-01" nType="-99"/>
        </Node>
      </Node>
    </BinaryTree>
    <BinaryTree type="DecisionTree" boostWeight="1.0000000000000000e+00" itree="924">
      <Node pos="s" depth="0" NCoef="0" IVar="4" Cut="1.0790378417968750e+03" cType="1" res="6.3216621056199074e-03" rms="4.6219420433044434e-01" purity="5.0829905271530151e-01" nType="0">
        <Node pos="l" depth="1" NCoef="0" IVar="2" Cut="6.0114599609375000e+02" cType="1" res="-5.5051157251000404e-03" rms="4.6234500408172607e-01" purity="4.9787601828575134e-01" nType="0">
          <Node pos="l" depth="2" NCoef="0" IVar="-1" Cut="0.0000000000000000e+00" cType="1" res="2.2393388208001852e-03" rms="4.7127252817153931e-01" purity="6.7313683032989502e-01" nType="-99"/>
          <Node pos="r" depth="2" NCoef="0" IVar="-1" Cut="0.0000000000000000e+00" cType="1" res="-2.0021140517201275e-04" rms="4.6081295609474182e-01" purity="4.8664650321006775e-01" nType="-99"/>
        </Node>
        <Node pos="r" depth="1" NCoef="0" IVar="0" Cut="2.8900009155273438e+02" cType="1" res="7.7098272740840912e-02" rms="4.5490959286689758e-01" purity="5.7067513465881348e-01" nType="0">
          <Node pos="l" depth="2" NCoef="0" IVar="-1" Cut="0.0000000000000000e+00" cType="1" res="3.2495677005499601e-03" rms="4.1883975267410278e-01" purity="7.0982611179351807e-01" nType="-99"/>
          <Node pos="r" depth="2" NCoef="0" IVar="-1" Cut="0.0000000000000000e+00" cType="1" res="-2.5861780159175396e-04" rms="4.7764182090759277e-01" purity="4.0249764919281006e-01" nType="-99"/>
        </Node>
      </Node>
    </BinaryTree>
    <BinaryTree type="DecisionTree" boostWeight="1.0000000000000000e+00" itree="925">
      <Node pos="s" depth="0" NCoef="0" IVar="5" Cut="1.7783865332603455e-01" cType="1" res="-3.8319686427712440e-03" rms="4.6298807859420776e-01" purity="5.0333154201507568e-01" nType="0">
        <Node pos="l" depth="1" NCoef="0" IVar="3" Cut="8.9267480373382568e-01" cType="1" res="-6.9798380136489868e-02" rms="4.5371323823928833e-01" purity="4.3759903311729431e-01" nType="0">
          <Node pos="l" depth="2" NCoef="0" IVar="-1" Cut="0.0000000000000000e+00" cType="1" res="-1.5332568436861038e-03" rms="4.4019129872322083e-01" purity="3.1985229253768921e-01" nType="-99"/>
          <Node pos="r" depth="2" NCoef="0" IVar="-1" Cut="0.0000000000000000e+00" cType="1" res="-3.8879134808667004e-04" rms="4.6265617012977600e-01" purity="5.6469261646270752e-01" nType="-99"/>
        </Node>
        <Node pos="r" depth="1" NCoef="0" IVar="2" Cut="1.5381737060546875e+03" cType="1" res="5.7634604163467884e-03" rms="4.6354034543037415e-01" purity="5.1289296150207520e-01" nType="0">
          <Node pos="l" depth="2" NCoef="0" IVar="-1" Cut="0.0000000000000000e+00" cType="1" res="2.9099558014422655e-04" rms="4.6043714880943298e-01" purity="5.3299719095230103e-01" nType="-99"/>
          <Node pos="r" depth="2" NCoef="0" IVar="-1" Cut="0.0000000000000000e+00" cType="1" res="-6.7109102383255959e-04" rms="4.7370889782905579e-01" purity="4.2025297880172729e-01" nType="-99"/>
        </Node>
      </Node>
    </BinaryTree>
    <BinaryTree type="DecisionTree" boostWeight="1.0000000000000000e+00" itree="926">
      <Node pos="s" depth="0" NCoef="0" IVar="4" Cut="5.3330407714843750e+02" cType="1" res="-1.2535762973129749e-02" rms="4.6273016929626465e-01" purity="4.8983609676361084e-01" nType="0">
        <Node pos="l" depth="1" NCoef="0" IVar="2" Cut="6.6642602539062500e+02" cType="1" res="-6.7146979272365570e-02" rms="4.5458480715751648e-01" purity="4.1514822840690613e-01" nType="0">
          <Node pos="l" depth="2" NCoef="0" IVar="-1" Cut="0.0000000000000000e+00" cType="1" res="-4.2075957753695548e-04" rms="4.7633224725723267e-01" purity="5.2699130773544312e-01" nType="-99"/>
          <Node pos="r" depth="2" NCoef="0" IVar="-1" Cut="0.0000000000000000e+00" cType="1" res="-1.4702839544042945e-03" rms="4.1983017325401306e-01" purity="2.7337613701820374e-01" nType="-99"/>
        </Node>
        <Node pos="r" depth="1" NCoef="0" IVar="2" Cut="9.1195196533203125e+02" cType="1" res="-9.7405607812106609e-04" rms="4.6361190080642700e-01" purity="5.0564825534820557e-01" nType="0">
          <Node pos="l" depth="2" NCoef="0" IVar="-1" Cut="0.0000000000000000e+00" cType="1" res="1.0709927882999182e-03" rms="4.5707643032073975e-01" purity="6.1263364553451538e-01" nType="-99"/>
          <Node pos="r" depth="2" NCoef="0" IVar="-1" Cut="0.0000000000000000e+00" cType="1" res="-3.6179981543682516e-04" rms="4.6416226029396057e-01" purity="4.6257510781288147e-01" nType="-99"/>
        </Node>
      </Node>
    </BinaryTree>
    <BinaryTree type="DecisionTree" boostWeight="1.0000000000000000e+00" itree="927">
      <Node pos="s" depth="0" NCoef="0" IVar="2" Cut="1.3304388427734375e+03" cType="1" res="2.1652108989655972e-03" rms="4.6689614653587341e-01" purity="5.1552027463912964e-01" nType="0">
        <Node pos="l" depth="1" NCoef="0" IVar="4" Cut="4.9053952026367188e+02" cType="1" res="1.4130044728517532e-02" rms="4.6432793140411377e-01" purity="5.4125750064849854e-01" nType="0">
          <Node pos="l" depth="2" NCoef="0" IVar="-1" Cut="0.0000000000000000e+00" cType="1" res="-7.3604541830718517e-04" rms="4.7525376081466675e-01" purity="4.4081482291221619e-01" nType="-99"/>
          <Node pos="r" depth="2" NCoef="0" IVar="-1" Cut="0.0000000000000000e+00" cType="1" res="4.1801121551543474e-04" rms="4.6161341667175293e-01" purity="5.5822205543518066e-01" nType="-99"/>
        </Node>
        <Node pos="r" depth="1" NCoef="0" IVar="4" Cut="1.0827999267578125e+03" cType="1" res="-3.1739700585603714e-02" rms="4.7245517373085022e-01" purity="4.4258844852447510e-01" nType="0">
          <Node pos="l" depth="2" NCoef="0" IVar="-1" Cut="0.0000000000000000e+00" cType="1" res="-9.3980284873396158e-04" rms="4.7042056918144226e-01" purity="3.8576287031173706e-01" nType="-99"/>
          <Node pos="r" depth="2" NCoef="0" IVar="-1" Cut="0.0000000000000000e+00" cType="1" res="7.5710544479079545e-05" rms="4.7145476937294006e-01" purity="4.9671047925949097e-01" nType="-99"/>
        </Node>
      </Node>
    </BinaryTree>
    <BinaryTree type="DecisionTree" boostWeight="1.0000000000000000e+00" itree="928">
      <Node pos="s" depth="0" NCoef="0" IVar="2" Cut="1.1491914062500000e+03" cType="1" res="1.6338696004822850e-03" rms="4.6302613615989685e-01" purity="5.0596666336059570e-01" nType="0">
        <Node pos="l" depth="1" NCoef="0" IVar="3" Cut="8.9590173959732056e-01" cType="1" res="2.1570779383182526e-02" rms="4.6021518111228943e-01" purity="5.4043257236480713e-01" nType="0">
          <Node pos="l" depth="2" NCoef="0" IVar="-1" Cut="0.0000000000000000e+00" cType="1" res="-2.0358021720312536e-04" rms="4.6702185273170471e-01" purity="4.2999145388603210e-01" nType="-99"/>
          <Node pos="r" depth="2" NCoef="0" IVar="-1" Cut="0.0000000000000000e+00" cType="1" res="1.3452460989356041e-03" rms="4.4897085428237915e-01" purity="6.6405522823333740e-01" nType="-99"/>
        </Node>
        <Node pos="r" depth="1" NCoef="0" IVar="4" Cut="9.4188598632812500e+02" cType="1" res="-3.0828116461634636e-02" rms="4.6574434638023376e-01" purity="4.4984802603721619e-01" nType="0">
          <Node pos="l" depth="2" NCoef="0" IVar="-1" Cut="0.0000000000000000e+00" cType="1" res="-8.5618649609386921e-04" rms="4.5780476927757263e-01" purity="3.7602093815803528e-01" nType="-99"/>
          <Node pos="r" depth="2" NCoef="0" IVar="-1" Cut="0.0000000000000000e+00" cType="1" res="-1.1240349704166874e-04" rms="4.6957442164421082e-01" purity="4.9975070357322693e-01" nType="-99"/>
        </Node>
      </Node>
    </BinaryTree>
    <BinaryTree type="DecisionTree" boostWeight="1.0000000000000000e+00" itree="929">
      <Node pos="s" depth="0" NCoef="0" IVar="2" Cut="5.8989062500000000e+02" cType="1" res="-8.2633774727582932e-03" rms="4.6854799985885620e-01" purity="5.0149089097976685e-01" nType="0">
        <Node pos="l" depth="1" NCoef="0" IVar="-1" Cut="0.0000000000000000e+00" cType="1" res="1.7654743278399110e-03" rms="4.7870221734046936e-01" purity="6.5407925844192505e-01" nType="-99"/>
        <Node pos="r" depth="1" NCoef="0" IVar="4" Cut="5.2343994140625000e+02" cType="1" res="-1.3009591028094292e-02" rms="4.6752485632896423e-01" purity="4.9336820840835571e-01" nType="0">
          <Node pos="l" depth="2" NCoef="0" IVar="-1" Cut="0.0000000000000000e+00" cType="1" res="-1.1547725880518556e-03" rms="4.3894141912460327e-01" purity="3.5800907015800476e-01" nType="-99"/>
          <Node pos="r" depth="2" NCoef="0" IVar="-1" Cut="0.0000000000000000e+00" cType="1" res="-5.0633814680622891e-05" rms="4.7034260630607605e-01" purity="5.1145732402801514e-01" nType="-99"/>
        </Node>
      </Node>
    </BinaryTree>
    <BinaryTree type="DecisionTree" boostWeight="1.0000000000000000e+00" itree="930">
      <Node pos="s" depth="0" NCoef="0" IVar="4" Cut="7.0919982910156250e+02" cType="1" res="-5.5955243296921253e-03" rms="4.6407103538513184e-01" purity="5.0106149911880493e-01" nType="0">
        <Node pos="l" depth="1" NCoef="0" IVar="2" Cut="7.3090234375000000e+02" cType="1" res="-2.7943547815084457e-02" rms="4.5863667130470276e-01" purity="4.6013090014457703e-01" nType="0">
          <Node pos="l" depth="2" NCoef="0" IVar="-1" Cut="0.0000000000000000e+00" cType="1" res="7.9592148540541530e-04" rms="4.5802474021911621e-01" purity="6.0847675800323486e-01" nType="-99"/>
          <Node pos="r" depth="2" NCoef="0" IVar="-1" Cut="0.0000000000000000e+00" cType="1" res="-8.7365135550498962e-04" rms="4.5427891612052917e-01" purity="3.7857857346534729e-01" nType="-99"/>
        </Node>
        <Node pos="r" depth="1" NCoef="0" IVar="1" Cut="1.3516355895996094e+02" cType="1" res="1.6926016658544540e-02" rms="4.6840652823448181e-01" purity="5.4230993986129761e-01" nType="0">
          <Node pos="l" depth="2" NCoef="0" IVar="-1" Cut="0.0000000000000000e+00" cType="1" res="6.3640245934948325e-04" rms="4.6434953808784485e-01" purity="5.8478617668151855e-01" nType="-99"/>
          <Node pos="r" depth="2" NCoef="0" IVar="-1" Cut="0.0000000000000000e+00" cType="1" res="-6.7637703614309430e-04" rms="4.7680550813674927e-01" purity="3.8990977406501770e-01" nType="-99"/>
        </Node>
      </Node>
    </BinaryTree>
    <BinaryTree type="DecisionTree" boostWeight="1.0000000000000000e+00" itree="931">
      <Node pos="s" depth="0" NCoef="0" IVar="4" Cut="6.8293841552734375e+02" cType="1" res="-2.2645574063062668e-03" rms="4.6344682574272156e-01" purity="5.0532263517379761e-01" nType="0">
        <Node pos="l" depth="1" NCoef="0" IVar="2" Cut="9.0575427246093750e+02" cType="1" res="-2.8027014806866646e-02" rms="4.6026864647865295e-01" purity="4.6114555001258850e-01" nType="0">
          <Node pos="l" depth="2" NCoef="0" IVar="-1" Cut="0.0000000000000000e+00" cType="1" res="-4.2635572754079476e-05" rms="4.6783947944641113e-01" purity="5.2195268869400024e-01" nType="-99"/>
          <Node pos="r" depth="2" NCoef="0" IVar="-1" Cut="0.0000000000000000e+00" cType="1" res="-1.3244608417153358e-03" rms="4.2656618356704712e-01" purity="2.7296221256256104e-01" nType="-99"/>
        </Node>
        <Node pos="r" depth="1" NCoef="0" IVar="2" Cut="1.2333054199218750e+03" cType="1" res="1.8776908516883850e-02" rms="4.6496868133544922e-01" purity="5.4140424728393555e-01" nType="0">
          <Node pos="l" depth="2" NCoef="0" IVar="-1" Cut="0.0000000000000000e+00" cType="1" res="1.3966251863166690e-03" rms="4.5247551798820496e-01" purity="6.4290148019790649e-01" nType="-99"/>
          <Node pos="r" depth="2" NCoef="0" IVar="-1" Cut="0.0000000000000000e+00" cType="1" res="-3.4783582668751478e-04" rms="4.7055673599243164e-01" purity="4.5933598279953003e-01" nType="-99"/>
        </Node>
      </Node>
    </BinaryTree>
  </Weights>
</MethodSetup>
