<?xml version="1.0"?>
<MethodSetup Method="BDT::BDTG">
  <GeneralInfo>
    <Info name="TMVA Release" value="4.2.1 [262657]"/>
    <Info name="ROOT Release" value="6.06/01 [394753]"/>
    <Info name="Creator" value="kelmorab"/>
    <Info name="Date" value="Tue Feb 28 15:13:40 2017"/>
    <Info name="Host" value="Linux vocms0315.cern.ch 2.6.32-573.26.1.el6.x86_64 #1 SMP Wed May 4 09:23:05 CEST 2016 x86_64 x86_64 x86_64 GNU/Linux"/>
    <Info name="Dir" value="/nfs/dust/cms/user/kelmorab/Spring17Training/3makeHistosAndCards"/>
    <Info name="Training events" value="49554"/>
    <Info name="TrainingTime" value="5.93562109e+01"/>
    <Info name="AnalysisType" value="Classification"/>
  </GeneralInfo>
  <Options>
    <Option name="V" modified="Yes">False</Option>
    <Option name="VerbosityLevel" modified="No">Default</Option>
    <Option name="VarTransform" modified="No">None</Option>
    <Option name="H" modified="Yes">False</Option>
    <Option name="CreateMVAPdfs" modified="No">False</Option>
    <Option name="IgnoreNegWeightsInTraining" modified="No">False</Option>
    <Option name="NTrees" modified="Yes">1333</Option>
    <Option name="MaxDepth" modified="Yes">2</Option>
    <Option name="MinNodeSize" modified="No">5%</Option>
    <Option name="nCuts" modified="Yes">38</Option>
    <Option name="BoostType" modified="Yes">Grad</Option>
    <Option name="AdaBoostR2Loss" modified="No">quadratic</Option>
    <Option name="UseBaggedBoost" modified="Yes">True</Option>
    <Option name="Shrinkage" modified="Yes">3.797571e-02</Option>
    <Option name="AdaBoostBeta" modified="No">5.000000e-01</Option>
    <Option name="UseRandomisedTrees" modified="No">False</Option>
    <Option name="UseNvars" modified="No">3</Option>
    <Option name="UsePoissonNvars" modified="No">True</Option>
    <Option name="BaggedSampleFraction" modified="No">4.866447e-01</Option>
    <Option name="UseYesNoLeaf" modified="No">True</Option>
    <Option name="NegWeightTreatment" modified="Yes">ignorenegweightsintraining</Option>
    <Option name="Css" modified="No">1.000000e+00</Option>
    <Option name="Cts_sb" modified="No">1.000000e+00</Option>
    <Option name="Ctb_ss" modified="No">1.000000e+00</Option>
    <Option name="Cbb" modified="No">1.000000e+00</Option>
    <Option name="NodePurityLimit" modified="No">5.000000e-01</Option>
    <Option name="SeparationType" modified="No">giniindex</Option>
    <Option name="DoBoostMonitor" modified="No">False</Option>
    <Option name="UseFisherCuts" modified="No">False</Option>
    <Option name="MinLinCorrForFisher" modified="No">8.000000e-01</Option>
    <Option name="UseExclusiveVars" modified="No">False</Option>
    <Option name="DoPreselection" modified="No">False</Option>
    <Option name="SigToBkgFraction" modified="No">1.000000e+00</Option>
    <Option name="PruneMethod" modified="No">nopruning</Option>
    <Option name="PruneStrength" modified="No">0.000000e+00</Option>
    <Option name="PruningValFraction" modified="No">5.000000e-01</Option>
    <Option name="nEventsMin" modified="No">0</Option>
    <Option name="UseBaggedGrad" modified="No">False</Option>
    <Option name="GradBaggingFraction" modified="Yes">4.866447e-01</Option>
    <Option name="UseNTrainEvents" modified="No">0</Option>
    <Option name="NNodesMax" modified="No">0</Option>
  </Options>
  <Variables NVar="8">
    <Variable VarIndex="0" Expression="blr_transformed" Label="blr_transformed" Title="blr_transformed" Unit="" Internal="blr_transformed" Type="F" Min="-3.38130164e+00" Max="7.85776329e+00"/>
    <Variable VarIndex="1" Expression="third_highest_btag" Label="third_highest_btag" Title="third_highest_btag" Unit="" Internal="third_highest_btag" Type="F" Min="8.48401368e-01" Max="9.98818934e-01"/>
    <Variable VarIndex="2" Expression="HT" Label="HT" Title="HT" Unit="" Internal="HT" Type="F" Min="1.27772354e+02" Max="2.94628857e+03"/>
    <Variable VarIndex="3" Expression="h1" Label="h1" Title="h1" Unit="" Internal="h1" Type="F" Min="-2.18704492e-01" Max="3.46696079e-01"/>
    <Variable VarIndex="4" Expression="sphericity" Label="sphericity" Title="sphericity" Unit="" Internal="sphericity" Type="F" Min="1.05198398e-02" Max="9.39307809e-01"/>
    <Variable VarIndex="5" Expression="dev_from_avg_disc_btags" Label="dev_from_avg_disc_btags" Title="dev_from_avg_disc_btags" Unit="" Internal="dev_from_avg_disc_btags" Type="F" Min="2.60190403e-09" Max="5.03270281e-03"/>
    <Variable VarIndex="6" Expression="dr_between_lep_and_closest_jet" Label="dr_between_lep_and_closest_jet" Title="dr_between_lep_and_closest_jet" Unit="" Internal="dr_between_lep_and_closest_jet" Type="F" Min="4.00968403e-01" Max="3.87346506e+00"/>
    <Variable VarIndex="7" Expression="pt_all_jets_over_E_all_jets" Label="pt_all_jets_over_E_all_jets" Title="pt_all_jets_over_E_all_jets" Unit="" Internal="pt_all_jets_over_E_all_jets" Type="F" Min="1.94177121e-01" Max="9.90223706e-01"/>
  </Variables>
  <Spectators NSpec="0"/>
  <Classes NClass="2">
    <Class Name="Signal" Index="0"/>
    <Class Name="Background" Index="1"/>
  </Classes>
  <Transformations NTransformations="0"/>
  <MVAPdfs/>
  <Weights NTrees="1333" AnalysisType="1">
    <BinaryTree type="DecisionTree" boostWeight="1.0000000000000000e+00" itree="0">
      <Node pos="s" depth="0" NCoef="0" IVar="0" Cut="1.8059591054916382e+00" cType="1" res="3.1544812954962254e-03" rms="4.9999004602432251e-01" purity="5.0315451622009277e-01" nType="0">
        <Node pos="l" depth="1" NCoef="0" IVar="2" Cut="2.8760424804687500e+02" cType="1" res="-1.0770814120769501e-01" rms="4.8826116323471069e-01" purity="3.9229184389114380e-01" nType="0">
          <Node pos="l" depth="2" NCoef="0" IVar="-1" Cut="0.0000000000000000e+00" cType="1" res="-1.5948321670293808e-02" rms="4.4826355576515198e-01" purity="2.7850556373596191e-01" nType="-99"/>
          <Node pos="r" depth="2" NCoef="0" IVar="-1" Cut="0.0000000000000000e+00" cType="1" res="-5.1699124742299318e-04" rms="4.9992793798446655e-01" purity="4.9151110649108887e-01" nType="-99"/>
        </Node>
        <Node pos="r" depth="1" NCoef="0" IVar="1" Cut="9.6012902259826660e-01" cType="1" res="1.3466106355190277e-01" rms="4.8152506351470947e-01" purity="6.3466107845306396e-01" nType="0">
          <Node pos="l" depth="2" NCoef="0" IVar="-1" Cut="0.0000000000000000e+00" cType="1" res="4.2477068491280079e-03" rms="4.9383765459060669e-01" purity="5.7825833559036255e-01" nType="-99"/>
          <Node pos="r" depth="2" NCoef="0" IVar="-1" Cut="0.0000000000000000e+00" cType="1" res="1.3435285538434982e-02" rms="4.1740405559539795e-01" purity="7.7527052164077759e-01" nType="-99"/>
        </Node>
      </Node>
    </BinaryTree>
    <BinaryTree type="DecisionTree" boostWeight="1.0000000000000000e+00" itree="1">
      <Node pos="s" depth="0" NCoef="0" IVar="1" Cut="9.3315231800079346e-01" cType="1" res="-3.7650328595191240e-03" rms="4.9854069948196411e-01" purity="4.9570539593696594e-01" nType="0">
        <Node pos="l" depth="1" NCoef="0" IVar="2" Cut="2.9565670776367188e+02" cType="1" res="-8.2334712147712708e-02" rms="4.9189987778663635e-01" purity="4.1577634215354919e-01" nType="0">
          <Node pos="l" depth="2" NCoef="0" IVar="-1" Cut="0.0000000000000000e+00" cType="1" res="-1.3037601485848427e-02" rms="4.5992881059646606e-01" purity="3.0554467439651489e-01" nType="-99"/>
          <Node pos="r" depth="2" NCoef="0" IVar="-1" Cut="0.0000000000000000e+00" cType="1" res="8.2459120312705636e-04" rms="4.9961397051811218e-01" purity="5.1461440324783325e-01" nType="-99"/>
        </Node>
        <Node pos="r" depth="1" NCoef="0" IVar="1" Cut="9.6505874395370483e-01" cType="1" res="1.8971836566925049e-01" rms="4.6054562926292419e-01" purity="6.9253623485565186e-01" nType="0">
          <Node pos="l" depth="2" NCoef="0" IVar="-1" Cut="0.0000000000000000e+00" cType="1" res="6.3684051856398582e-03" rms="4.8572275042533875e-01" purity="6.1599910259246826e-01" nType="-99"/>
          <Node pos="r" depth="2" NCoef="0" IVar="-1" Cut="0.0000000000000000e+00" cType="1" res="1.3578067533671856e-02" rms="4.1067233681678772e-01" purity="7.8496474027633667e-01" nType="-99"/>
        </Node>
      </Node>
    </BinaryTree>
    <BinaryTree type="DecisionTree" boostWeight="1.0000000000000000e+00" itree="2">
      <Node pos="s" depth="0" NCoef="0" IVar="0" Cut="1.9352843761444092e+00" cType="1" res="4.2770584113895893e-03" rms="4.9723917245864868e-01" purity="5.0303757190704346e-01" nType="0">
        <Node pos="l" depth="1" NCoef="0" IVar="2" Cut="2.7830194091796875e+02" cType="1" res="-9.8619259893894196e-02" rms="4.8730200529098511e-01" purity="3.9574545621871948e-01" nType="0">
          <Node pos="l" depth="2" NCoef="0" IVar="-1" Cut="0.0000000000000000e+00" cType="1" res="-1.4719582162797451e-02" rms="4.4940245151519775e-01" purity="2.8194555640220642e-01" nType="-99"/>
          <Node pos="r" depth="2" NCoef="0" IVar="-1" Cut="0.0000000000000000e+00" cType="1" res="-1.0857533197849989e-03" rms="4.9916183948516846e-01" purity="4.8200595378875732e-01" nType="-99"/>
        </Node>
        <Node pos="r" depth="1" NCoef="0" IVar="1" Cut="9.6009522676467896e-01" cType="1" res="1.4221504330635071e-01" rms="4.7659412026405334e-01" purity="6.4686822891235352e-01" nType="0">
          <Node pos="l" depth="2" NCoef="0" IVar="-1" Cut="0.0000000000000000e+00" cType="1" res="4.8548057675361633e-03" rms="4.9098470807075500e-01" purity="5.9156847000122070e-01" nType="-99"/>
          <Node pos="r" depth="2" NCoef="0" IVar="-1" Cut="0.0000000000000000e+00" cType="1" res="1.2988539412617683e-02" rms="4.1394793987274170e-01" purity="7.8040808439254761e-01" nType="-99"/>
        </Node>
      </Node>
    </BinaryTree>
    <BinaryTree type="DecisionTree" boostWeight="1.0000000000000000e+00" itree="3">
      <Node pos="s" depth="0" NCoef="0" IVar="0" Cut="2.0654242038726807e+00" cType="1" res="-1.3846785295754671e-03" rms="4.9589228630065918e-01" purity="4.9684125185012817e-01" nType="0">
        <Node pos="l" depth="1" NCoef="0" IVar="2" Cut="3.1567047119140625e+02" cType="1" res="-9.5432989299297333e-02" rms="4.8664945363998413e-01" purity="3.9609402418136597e-01" nType="0">
          <Node pos="l" depth="2" NCoef="0" IVar="-1" Cut="0.0000000000000000e+00" cType="1" res="-1.1877914890646935e-02" rms="4.6257445216178894e-01" purity="3.1364700198173523e-01" nType="-99"/>
          <Node pos="r" depth="2" NCoef="0" IVar="-1" Cut="0.0000000000000000e+00" cType="1" res="5.0401419866830111e-04" rms="4.9952709674835205e-01" purity="5.0913214683532715e-01" nType="-99"/>
        </Node>
        <Node pos="r" depth="1" NCoef="0" IVar="1" Cut="9.5639979839324951e-01" cType="1" res="1.4242810010910034e-01" rms="4.7496160864830017e-01" purity="6.5089756250381470e-01" nType="0">
          <Node pos="l" depth="2" NCoef="0" IVar="-1" Cut="0.0000000000000000e+00" cType="1" res="4.5373458415269852e-03" rms="4.9164921045303345e-01" purity="5.8769267797470093e-01" nType="-99"/>
          <Node pos="r" depth="2" NCoef="0" IVar="-1" Cut="0.0000000000000000e+00" cType="1" res="1.2656227685511112e-02" rms="4.1548654437065125e-01" purity="7.7792108058929443e-01" nType="-99"/>
        </Node>
      </Node>
    </BinaryTree>
    <BinaryTree type="DecisionTree" boostWeight="1.0000000000000000e+00" itree="4">
      <Node pos="s" depth="0" NCoef="0" IVar="0" Cut="2.4192004203796387e+00" cType="1" res="-4.7776728752069175e-04" rms="4.9472752213478088e-01" purity="4.9731445312500000e-01" nType="0">
        <Node pos="l" depth="1" NCoef="0" IVar="2" Cut="2.7231164550781250e+02" cType="1" res="-7.7831335365772247e-02" rms="4.8890399932861328e-01" purity="4.1290703415870667e-01" nType="0">
          <Node pos="l" depth="2" NCoef="0" IVar="-1" Cut="0.0000000000000000e+00" cType="1" res="-1.3842299580574036e-02" rms="4.5019990205764771e-01" purity="2.8492417931556702e-01" nType="-99"/>
          <Node pos="r" depth="2" NCoef="0" IVar="-1" Cut="0.0000000000000000e+00" cType="1" res="-2.7115250122733414e-04" rms="4.9832138419151306e-01" purity="4.9436247348785400e-01" nType="-99"/>
        </Node>
        <Node pos="r" depth="1" NCoef="0" IVar="2" Cut="2.7773141479492188e+02" cType="1" res="1.6048432886600494e-01" rms="4.6724197268486023e-01" purity="6.7295467853546143e-01" nType="0">
          <Node pos="l" depth="2" NCoef="0" IVar="-1" Cut="0.0000000000000000e+00" cType="1" res="2.9522832483053207e-03" rms="4.9354308843612671e-01" purity="5.6365829706192017e-01" nType="-99"/>
          <Node pos="r" depth="2" NCoef="0" IVar="-1" Cut="0.0000000000000000e+00" cType="1" res="1.0430992580950260e-02" rms="4.4524472951889038e-01" purity="7.2505056858062744e-01" nType="-99"/>
        </Node>
      </Node>
    </BinaryTree>
    <BinaryTree type="DecisionTree" boostWeight="1.0000000000000000e+00" itree="5">
      <Node pos="s" depth="0" NCoef="0" IVar="1" Cut="9.3325227499008179e-01" cType="1" res="7.5039890361949801e-04" rms="4.9363085627555847e-01" purity="4.9782997369766235e-01" nType="0">
        <Node pos="l" depth="1" NCoef="0" IVar="2" Cut="2.5581137084960938e+02" cType="1" res="-6.3890740275382996e-02" rms="4.9018421769142151e-01" purity="4.2671489715576172e-01" nType="0">
          <Node pos="l" depth="2" NCoef="0" IVar="-1" Cut="0.0000000000000000e+00" cType="1" res="-1.4599869027733803e-02" rms="4.4107082486152649e-01" purity="2.6852452754974365e-01" nType="-99"/>
          <Node pos="r" depth="2" NCoef="0" IVar="-1" Cut="0.0000000000000000e+00" cType="1" res="-1.8737478239927441e-04" rms="4.9764412641525269e-01" purity="4.9466443061828613e-01" nType="-99"/>
        </Node>
        <Node pos="r" depth="1" NCoef="0" IVar="2" Cut="2.8230767822265625e+02" cType="1" res="1.6472373902797699e-01" rms="4.6345037221908569e-01" purity="6.7822557687759399e-01" nType="0">
          <Node pos="l" depth="2" NCoef="0" IVar="-1" Cut="0.0000000000000000e+00" cType="1" res="3.5743289627134800e-03" rms="4.9129471182823181e-01" purity="5.6656831502914429e-01" nType="-99"/>
          <Node pos="r" depth="2" NCoef="0" IVar="-1" Cut="0.0000000000000000e+00" cType="1" res="1.1196543462574482e-02" rms="4.3699425458908081e-01" purity="7.3987680673599243e-01" nType="-99"/>
        </Node>
      </Node>
    </BinaryTree>
    <BinaryTree type="DecisionTree" boostWeight="1.0000000000000000e+00" itree="6">
      <Node pos="s" depth="0" NCoef="0" IVar="1" Cut="9.4096618890762329e-01" cType="1" res="-2.9980726540088654e-03" rms="4.9261346459388733e-01" purity="4.9338915944099426e-01" nType="0">
        <Node pos="l" depth="1" NCoef="0" IVar="2" Cut="2.5979180908203125e+02" cType="1" res="-6.1047110706567764e-02" rms="4.8993754386901855e-01" purity="4.2794314026832581e-01" nType="0">
          <Node pos="l" depth="2" NCoef="0" IVar="-1" Cut="0.0000000000000000e+00" cType="1" res="-1.3488078489899635e-02" rms="4.4529187679290771e-01" purity="2.7803805470466614e-01" nType="-99"/>
          <Node pos="r" depth="2" NCoef="0" IVar="-1" Cut="0.0000000000000000e+00" cType="1" res="4.1032766603166237e-05" rms="4.9813368916511536e-01" purity="4.9941092729568481e-01" nType="-99"/>
        </Node>
        <Node pos="r" depth="1" NCoef="0" IVar="1" Cut="9.6767139434814453e-01" cType="1" res="1.8379417061805725e-01" rms="4.5320403575897217e-01" purity="7.0398366451263428e-01" nType="0">
          <Node pos="l" depth="2" NCoef="0" IVar="-1" Cut="0.0000000000000000e+00" cType="1" res="6.2083839438855648e-03" rms="4.8142951726913452e-01" purity="6.2469190359115601e-01" nType="-99"/>
          <Node pos="r" depth="2" NCoef="0" IVar="-1" Cut="0.0000000000000000e+00" cType="1" res="1.2554340064525604e-02" rms="4.0873602032661438e-01" purity="7.8670448064804077e-01" nType="-99"/>
        </Node>
      </Node>
    </BinaryTree>
    <BinaryTree type="DecisionTree" boostWeight="1.0000000000000000e+00" itree="7">
      <Node pos="s" depth="0" NCoef="0" IVar="1" Cut="9.3325698375701904e-01" cType="1" res="8.7070707231760025e-03" rms="4.9111476540565491e-01" purity="5.0496661663055420e-01" nType="0">
        <Node pos="l" depth="1" NCoef="0" IVar="2" Cut="3.0146862792968750e+02" cType="1" res="-5.9063408523797989e-02" rms="4.8913353681564331e-01" purity="4.2692777514457703e-01" nType="0">
          <Node pos="l" depth="2" NCoef="0" IVar="-1" Cut="0.0000000000000000e+00" cType="1" res="-1.0423138737678528e-02" rms="4.6179568767547607e-01" purity="3.1607553362846375e-01" nType="-99"/>
          <Node pos="r" depth="2" NCoef="0" IVar="-1" Cut="0.0000000000000000e+00" cType="1" res="1.9095026655122638e-03" rms="4.9773222208023071e-01" purity="5.3605687618255615e-01" nType="-99"/>
        </Node>
        <Node pos="r" depth="1" NCoef="0" IVar="2" Cut="2.7611059570312500e+02" cType="1" res="1.7646308243274689e-01" rms="4.5441183447837830e-01" purity="6.9814056158065796e-01" nType="0">
          <Node pos="l" depth="2" NCoef="0" IVar="-1" Cut="0.0000000000000000e+00" cType="1" res="3.7321522831916809e-03" rms="4.8937487602233887e-01" purity="5.7484138011932373e-01" nType="-99"/>
          <Node pos="r" depth="2" NCoef="0" IVar="-1" Cut="0.0000000000000000e+00" cType="1" res="1.1494777165353298e-02" rms="4.2622837424278259e-01" purity="7.5769394636154175e-01" nType="-99"/>
        </Node>
      </Node>
    </BinaryTree>
    <BinaryTree type="DecisionTree" boostWeight="1.0000000000000000e+00" itree="8">
      <Node pos="s" depth="0" NCoef="0" IVar="1" Cut="9.4082713127136230e-01" cType="1" res="3.3276004251092672e-03" rms="4.9017730355262756e-01" purity="4.9917885661125183e-01" nType="0">
        <Node pos="l" depth="1" NCoef="0" IVar="2" Cut="2.7231164550781250e+02" cType="1" res="-5.2775889635086060e-02" rms="4.8901602625846863e-01" purity="4.3255895376205444e-01" nType="0">
          <Node pos="l" depth="2" NCoef="0" IVar="-1" Cut="0.0000000000000000e+00" cType="1" res="-1.2165395542979240e-02" rms="4.4911810755729675e-01" purity="2.8599902987480164e-01" nType="-99"/>
          <Node pos="r" depth="2" NCoef="0" IVar="-1" Cut="0.0000000000000000e+00" cType="1" res="1.1414219625294209e-03" rms="4.9773588776588440e-01" purity="5.2078253030776978e-01" nType="-99"/>
        </Node>
        <Node pos="r" depth="1" NCoef="0" IVar="2" Cut="3.2699139404296875e+02" cType="1" res="1.8094259500503540e-01" rms="4.4984641671180725e-01" purity="7.1008723974227905e-01" nType="0">
          <Node pos="l" depth="2" NCoef="0" IVar="-1" Cut="0.0000000000000000e+00" cType="1" res="5.9600272215902805e-03" rms="4.7950935363769531e-01" purity="6.2944167852401733e-01" nType="-99"/>
          <Node pos="r" depth="2" NCoef="0" IVar="-1" Cut="0.0000000000000000e+00" cType="1" res="1.2529210187494755e-02" rms="4.0262347459793091e-01" purity="7.9435521364212036e-01" nType="-99"/>
        </Node>
      </Node>
    </BinaryTree>
    <BinaryTree type="DecisionTree" boostWeight="1.0000000000000000e+00" itree="9">
      <Node pos="s" depth="0" NCoef="0" IVar="1" Cut="9.1003960371017456e-01" cType="1" res="5.9863491915166378e-03" rms="4.8940384387969971e-01" purity="5.0205278396606445e-01" nType="0">
        <Node pos="l" depth="1" NCoef="0" IVar="2" Cut="4.0394747924804688e+02" cType="1" res="-8.5497297346591949e-02" rms="4.8254275321960449e-01" purity="3.9512458443641663e-01" nType="0">
          <Node pos="l" depth="2" NCoef="0" IVar="-1" Cut="0.0000000000000000e+00" cType="1" res="-8.3969710394740105e-03" rms="4.7102504968643188e-01" purity="3.4720525145530701e-01" nType="-99"/>
          <Node pos="r" depth="2" NCoef="0" IVar="-1" Cut="0.0000000000000000e+00" cType="1" res="3.9577898569405079e-03" rms="4.9342697858810425e-01" purity="5.7465398311614990e-01" nType="-99"/>
        </Node>
        <Node pos="r" depth="1" NCoef="0" IVar="1" Cut="9.6229404211044312e-01" cType="1" res="1.1847244948148727e-01" rms="4.7410115599632263e-01" purity="6.3352912664413452e-01" nType="0">
          <Node pos="l" depth="2" NCoef="0" IVar="-1" Cut="0.0000000000000000e+00" cType="1" res="3.8903579115867615e-03" rms="4.8936334252357483e-01" purity="5.7004296779632568e-01" nType="-99"/>
          <Node pos="r" depth="2" NCoef="0" IVar="-1" Cut="0.0000000000000000e+00" cType="1" res="1.1393073946237564e-02" rms="4.1897299885749817e-01" purity="7.7041304111480713e-01" nType="-99"/>
        </Node>
      </Node>
    </BinaryTree>
    <BinaryTree type="DecisionTree" boostWeight="1.0000000000000000e+00" itree="10">
      <Node pos="s" depth="0" NCoef="0" IVar="0" Cut="1.6939034461975098e+00" cType="1" res="1.3064390048384666e-02" rms="4.8822233080863953e-01" purity="5.0847917795181274e-01" nType="0">
        <Node pos="l" depth="1" NCoef="0" IVar="2" Cut="2.4764628601074219e+02" cType="1" res="-8.3391509950160980e-02" rms="4.8161575198173523e-01" purity="3.9245370030403137e-01" nType="0">
          <Node pos="l" depth="2" NCoef="0" IVar="-1" Cut="0.0000000000000000e+00" cType="1" res="-1.5512737445533276e-02" rms="4.2446577548980713e-01" purity="2.3727221786975861e-01" nType="-99"/>
          <Node pos="r" depth="2" NCoef="0" IVar="-1" Cut="0.0000000000000000e+00" cType="1" res="-2.2232208866626024e-03" rms="4.9442586302757263e-01" purity="4.5422998070716858e-01" nType="-99"/>
        </Node>
        <Node pos="r" depth="1" NCoef="0" IVar="2" Cut="2.7545938110351562e+02" cType="1" res="1.1689314991235733e-01" rms="4.7377505898475647e-01" purity="6.3337337970733643e-01" nType="0">
          <Node pos="l" depth="2" NCoef="0" IVar="-1" Cut="0.0000000000000000e+00" cType="1" res="4.5424813288263977e-04" rms="4.9167943000793457e-01" purity="5.0270849466323853e-01" nType="-99"/>
          <Node pos="r" depth="2" NCoef="0" IVar="-1" Cut="0.0000000000000000e+00" cType="1" res="8.5282977670431137e-03" rms="4.5604485273361206e-01" purity="6.9524616003036499e-01" nType="-99"/>
        </Node>
      </Node>
    </BinaryTree>
    <BinaryTree type="DecisionTree" boostWeight="1.0000000000000000e+00" itree="11">
      <Node pos="s" depth="0" NCoef="0" IVar="0" Cut="1.7825545072555542e+00" cType="1" res="6.2069650739431381e-03" rms="4.8758226633071899e-01" purity="5.0101900100708008e-01" nType="0">
        <Node pos="l" depth="1" NCoef="0" IVar="2" Cut="2.5295388793945312e+02" cType="1" res="-8.2447461783885956e-02" rms="4.8053088784217834e-01" purity="3.9067065715789795e-01" nType="0">
          <Node pos="l" depth="2" NCoef="0" IVar="-1" Cut="0.0000000000000000e+00" cType="1" res="-1.4087719842791557e-02" rms="4.2990711331367493e-01" purity="2.4792042374610901e-01" nType="-99"/>
          <Node pos="r" depth="2" NCoef="0" IVar="-1" Cut="0.0000000000000000e+00" cType="1" res="-2.1209910046309233e-03" rms="4.9486961960792542e-01" purity="4.5704653859138489e-01" nType="-99"/>
        </Node>
        <Node pos="r" depth="1" NCoef="0" IVar="2" Cut="2.7417053222656250e+02" cType="1" res="1.0990555584430695e-01" rms="4.7515755891799927e-01" purity="6.3009291887283325e-01" nType="0">
          <Node pos="l" depth="2" NCoef="0" IVar="-1" Cut="0.0000000000000000e+00" cType="1" res="-2.0988770120311528e-04" rms="4.9277207255363464e-01" purity="4.9358409643173218e-01" nType="-99"/>
          <Node pos="r" depth="2" NCoef="0" IVar="-1" Cut="0.0000000000000000e+00" cType="1" res="8.2769729197025299e-03" rms="4.5713618397712708e-01" purity="6.9389951229095459e-01" nType="-99"/>
        </Node>
      </Node>
    </BinaryTree>
    <BinaryTree type="DecisionTree" boostWeight="1.0000000000000000e+00" itree="12">
      <Node pos="s" depth="0" NCoef="0" IVar="1" Cut="9.2168194055557251e-01" cType="1" res="7.3032565414905548e-03" rms="4.8604217171669006e-01" purity="5.0284093618392944e-01" nType="0">
        <Node pos="l" depth="1" NCoef="0" IVar="2" Cut="2.6373715209960938e+02" cType="1" res="-7.2201251983642578e-02" rms="4.8232176899909973e-01" purity="4.0470078587532043e-01" nType="0">
          <Node pos="l" depth="2" NCoef="0" IVar="-1" Cut="0.0000000000000000e+00" cType="1" res="-1.2892711907625198e-02" rms="4.3537202477455139e-01" purity="2.5893196463584900e-01" nType="-99"/>
          <Node pos="r" depth="2" NCoef="0" IVar="-1" Cut="0.0000000000000000e+00" cType="1" res="-1.0215912479907274e-03" rms="4.9627473950386047e-01" purity="4.8086911439895630e-01" nType="-99"/>
        </Node>
        <Node pos="r" depth="1" NCoef="0" IVar="1" Cut="9.6519672870635986e-01" cType="1" res="1.4379815757274628e-01" rms="4.6145352721214294e-01" purity="6.7132979631423950e-01" nType="0">
          <Node pos="l" depth="2" NCoef="0" IVar="-1" Cut="0.0000000000000000e+00" cType="1" res="5.0310222432017326e-03" rms="4.8341360688209534e-01" purity="6.0261493921279907e-01" nType="-99"/>
          <Node pos="r" depth="2" NCoef="0" IVar="-1" Cut="0.0000000000000000e+00" cType="1" res="1.2002241797745228e-02" rms="3.9857918024063110e-01" purity="7.9887771606445312e-01" nType="-99"/>
        </Node>
      </Node>
    </BinaryTree>
    <BinaryTree type="DecisionTree" boostWeight="1.0000000000000000e+00" itree="13">
      <Node pos="s" depth="0" NCoef="0" IVar="0" Cut="2.0941402912139893e+00" cType="1" res="5.1627182401716709e-03" rms="4.8507842421531677e-01" purity="4.9999046325683594e-01" nType="0">
        <Node pos="l" depth="1" NCoef="0" IVar="2" Cut="2.9468106079101562e+02" cType="1" res="-7.2316810488700867e-02" rms="4.8038074374198914e-01" purity="4.0047618746757507e-01" nType="0">
          <Node pos="l" depth="2" NCoef="0" IVar="-1" Cut="0.0000000000000000e+00" cType="1" res="-1.1048233136534691e-02" rms="4.4874233007431030e-01" purity="2.8914058208465576e-01" nType="-99"/>
          <Node pos="r" depth="2" NCoef="0" IVar="-1" Cut="0.0000000000000000e+00" cType="1" res="3.7641517701558769e-04" rms="4.9712562561035156e-01" purity="5.0969868898391724e-01" nType="-99"/>
        </Node>
        <Node pos="r" depth="1" NCoef="0" IVar="0" Cut="3.8677248954772949e+00" cType="1" res="1.2575457990169525e-01" rms="4.6741241216659546e-01" purity="6.5487802028656006e-01" nType="0">
          <Node pos="l" depth="2" NCoef="0" IVar="-1" Cut="0.0000000000000000e+00" cType="1" res="4.1310605593025684e-03" rms="4.8173502087593079e-01" purity="6.0201424360275269e-01" nType="-99"/>
          <Node pos="r" depth="2" NCoef="0" IVar="-1" Cut="0.0000000000000000e+00" cType="1" res="1.0937888175249100e-02" rms="4.2036941647529602e-01" purity="7.6032692193984985e-01" nType="-99"/>
        </Node>
      </Node>
    </BinaryTree>
    <BinaryTree type="DecisionTree" boostWeight="1.0000000000000000e+00" itree="14">
      <Node pos="s" depth="0" NCoef="0" IVar="0" Cut="1.9018808603286743e+00" cType="1" res="6.6642723977565765e-03" rms="4.8454308509826660e-01" purity="5.0116902589797974e-01" nType="0">
        <Node pos="l" depth="1" NCoef="0" IVar="2" Cut="3.7813543701171875e+02" cType="1" res="-7.7471859753131866e-02" rms="4.7848102450370789e-01" purity="3.9041990041732788e-01" nType="0">
          <Node pos="l" depth="2" NCoef="0" IVar="-1" Cut="0.0000000000000000e+00" cType="1" res="-8.2539375871419907e-03" rms="4.6533167362213135e-01" purity="3.3651968836784363e-01" nType="-99"/>
          <Node pos="r" depth="2" NCoef="0" IVar="-1" Cut="0.0000000000000000e+00" cType="1" res="2.8276094235479832e-03" rms="4.9542832374572754e-01" purity="5.5298906564712524e-01" nType="-99"/>
        </Node>
        <Node pos="r" depth="1" NCoef="0" IVar="2" Cut="2.7417053222656250e+02" cType="1" res="1.1479992419481277e-01" rms="4.7063118219375610e-01" purity="6.4350891113281250e-01" nType="0">
          <Node pos="l" depth="2" NCoef="0" IVar="-1" Cut="0.0000000000000000e+00" cType="1" res="1.3299419078975916e-03" rms="4.9136897921562195e-01" purity="5.2508324384689331e-01" nType="-99"/>
          <Node pos="r" depth="2" NCoef="0" IVar="-1" Cut="0.0000000000000000e+00" cType="1" res="8.0077387392520905e-03" rms="4.5432433485984802e-01" purity="6.9888776540756226e-01" nType="-99"/>
        </Node>
      </Node>
    </BinaryTree>
    <BinaryTree type="DecisionTree" boostWeight="1.0000000000000000e+00" itree="15">
      <Node pos="s" depth="0" NCoef="0" IVar="1" Cut="9.0988653898239136e-01" cType="1" res="1.0668948292732239e-02" rms="4.8469814658164978e-01" purity="5.0490641593933105e-01" nType="0">
        <Node pos="l" depth="1" NCoef="0" IVar="2" Cut="3.0450552368164062e+02" cType="1" res="-6.5897107124328613e-02" rms="4.8157823085784912e-01" purity="4.0470853447914124e-01" nType="0">
          <Node pos="l" depth="2" NCoef="0" IVar="-1" Cut="0.0000000000000000e+00" cType="1" res="-8.8066468015313148e-03" rms="4.5758631825447083e-01" purity="3.1038576364517212e-01" nType="-99"/>
          <Node pos="r" depth="2" NCoef="0" IVar="-1" Cut="0.0000000000000000e+00" cType="1" res="-4.1081989365920890e-06" rms="4.9744692444801331e-01" purity="5.0495058298110962e-01" nType="-99"/>
        </Node>
        <Node pos="r" depth="1" NCoef="0" IVar="1" Cut="9.6654719114303589e-01" cType="1" res="1.0931508988142014e-01" rms="4.7067221999168396e-01" purity="6.3399934768676758e-01" nType="0">
          <Node pos="l" depth="2" NCoef="0" IVar="-1" Cut="0.0000000000000000e+00" cType="1" res="3.9334190078079700e-03" rms="4.8516902327537537e-01" purity="5.7857841253280640e-01" nType="-99"/>
          <Node pos="r" depth="2" NCoef="0" IVar="-1" Cut="0.0000000000000000e+00" cType="1" res="1.0974626988172531e-02" rms="4.0827643871307373e-01" purity="7.8576326370239258e-01" nType="-99"/>
        </Node>
      </Node>
    </BinaryTree>
    <BinaryTree type="DecisionTree" boostWeight="1.0000000000000000e+00" itree="16">
      <Node pos="s" depth="0" NCoef="0" IVar="0" Cut="2.2389721870422363e+00" cType="1" res="5.4764538072049618e-03" rms="4.8310327529907227e-01" purity="4.9987778067588806e-01" nType="0">
        <Node pos="l" depth="1" NCoef="0" IVar="2" Cut="3.3966986083984375e+02" cType="1" res="-6.1204452067613602e-02" rms="4.8036235570907593e-01" purity="4.0908351540565491e-01" nType="0">
          <Node pos="l" depth="2" NCoef="0" IVar="-1" Cut="0.0000000000000000e+00" cType="1" res="-7.9389996826648712e-03" rms="4.6383178234100342e-01" purity="3.3461225032806396e-01" nType="-99"/>
          <Node pos="r" depth="2" NCoef="0" IVar="-1" Cut="0.0000000000000000e+00" cType="1" res="1.9707675091922283e-03" rms="4.9464657902717590e-01" purity="5.4239529371261597e-01" nType="-99"/>
        </Node>
        <Node pos="r" depth="1" NCoef="0" IVar="2" Cut="2.7911920166015625e+02" cType="1" res="1.2429411709308624e-01" rms="4.6481591463088989e-01" purity="6.6166275739669800e-01" nType="0">
          <Node pos="l" depth="2" NCoef="0" IVar="-1" Cut="0.0000000000000000e+00" cType="1" res="1.7259510932490230e-03" rms="4.9041089415550232e-01" purity="5.4024755954742432e-01" nType="-99"/>
          <Node pos="r" depth="2" NCoef="0" IVar="-1" Cut="0.0000000000000000e+00" cType="1" res="8.5735600441694260e-03" rms="4.4450268149375916e-01" purity="7.2130304574966431e-01" nType="-99"/>
        </Node>
      </Node>
    </BinaryTree>
    <BinaryTree type="DecisionTree" boostWeight="1.0000000000000000e+00" itree="17">
      <Node pos="s" depth="0" NCoef="0" IVar="0" Cut="2.3257584571838379e+00" cType="1" res="-2.3593045771121979e-03" rms="4.8161470890045166e-01" purity="4.9180728197097778e-01" nType="0">
        <Node pos="l" depth="1" NCoef="0" IVar="2" Cut="2.9428424072265625e+02" cType="1" res="-7.0175759494304657e-02" rms="4.7740203142166138e-01" purity="3.9933061599731445e-01" nType="0">
          <Node pos="l" depth="2" NCoef="0" IVar="-1" Cut="0.0000000000000000e+00" cType="1" res="-1.0665975511074066e-02" rms="4.4443577527999878e-01" purity="2.8550377488136292e-01" nType="-99"/>
          <Node pos="r" depth="2" NCoef="0" IVar="-1" Cut="0.0000000000000000e+00" cType="1" res="7.9521028965245932e-05" rms="4.9604803323745728e-01" purity="5.0675648450851440e-01" nType="-99"/>
        </Node>
        <Node pos="r" depth="1" NCoef="0" IVar="1" Cut="9.6028137207031250e-01" cType="1" res="1.2746849656105042e-01" rms="4.6263071894645691e-01" purity="6.6884464025497437e-01" nType="0">
          <Node pos="l" depth="2" NCoef="0" IVar="-1" Cut="0.0000000000000000e+00" cType="1" res="4.7764014452695847e-03" rms="4.8206233978271484e-01" purity="6.1302006244659424e-01" nType="-99"/>
          <Node pos="r" depth="2" NCoef="0" IVar="-1" Cut="0.0000000000000000e+00" cType="1" res="1.0450546629726887e-02" rms="4.0326315164566040e-01" purity="7.9323655366897583e-01" nType="-99"/>
        </Node>
      </Node>
    </BinaryTree>
    <BinaryTree type="DecisionTree" boostWeight="1.0000000000000000e+00" itree="18">
      <Node pos="s" depth="0" NCoef="0" IVar="1" Cut="9.5253753662109375e-01" cType="1" res="6.0766017995774746e-03" rms="4.8251387476921082e-01" purity="4.9918997287750244e-01" nType="0">
        <Node pos="l" depth="1" NCoef="0" IVar="2" Cut="3.9567953491210938e+02" cType="1" res="-3.2997731119394302e-02" rms="4.8476809263229370e-01" purity="4.4348549842834473e-01" nType="0">
          <Node pos="l" depth="2" NCoef="0" IVar="-1" Cut="0.0000000000000000e+00" cType="1" res="-4.5402380637824535e-03" rms="4.7844681143760681e-01" purity="3.9281335473060608e-01" nType="-99"/>
          <Node pos="r" depth="2" NCoef="0" IVar="-1" Cut="0.0000000000000000e+00" cType="1" res="4.7263950109481812e-03" rms="4.8578295111656189e-01" purity="6.0528558492660522e-01" nType="-99"/>
        </Node>
        <Node pos="r" depth="1" NCoef="0" IVar="7" Cut="6.3915258646011353e-01" cType="1" res="1.7241026461124420e-01" rms="4.3516826629638672e-01" purity="7.3631554841995239e-01" nType="0">
          <Node pos="l" depth="2" NCoef="0" IVar="-1" Cut="0.0000000000000000e+00" cType="1" res="6.2164887785911560e-03" rms="4.6138319373130798e-01" purity="6.7855823040008545e-01" nType="-99"/>
          <Node pos="r" depth="2" NCoef="0" IVar="-1" Cut="0.0000000000000000e+00" cType="1" res="1.0755238123238087e-02" rms="4.0959048271179199e-01" purity="7.7887541055679321e-01" nType="-99"/>
        </Node>
      </Node>
    </BinaryTree>
    <BinaryTree type="DecisionTree" boostWeight="1.0000000000000000e+00" itree="19">
      <Node pos="s" depth="0" NCoef="0" IVar="1" Cut="9.2159336805343628e-01" cType="1" res="4.2605479247868061e-03" rms="4.8124501109123230e-01" purity="4.9762386083602905e-01" nType="0">
        <Node pos="l" depth="1" NCoef="0" IVar="2" Cut="2.1789181518554688e+02" cType="1" res="-6.2155954539775848e-02" rms="4.7981193661689758e-01" purity="4.0419828891754150e-01" nType="0">
          <Node pos="l" depth="2" NCoef="0" IVar="-1" Cut="0.0000000000000000e+00" cType="1" res="-1.6554897651076317e-02" rms="3.9598476886749268e-01" purity="1.9590243697166443e-01" nType="-99"/>
          <Node pos="r" depth="2" NCoef="0" IVar="-1" Cut="0.0000000000000000e+00" cType="1" res="-2.3615004029124975e-03" rms="4.8790886998176575e-01" purity="4.3821108341217041e-01" nType="-99"/>
        </Node>
        <Node pos="r" depth="1" NCoef="0" IVar="2" Cut="2.5665014648437500e+02" cType="1" res="1.2026676535606384e-01" rms="4.6134603023529053e-01" purity="6.6080546379089355e-01" nType="0">
          <Node pos="l" depth="2" NCoef="0" IVar="-1" Cut="0.0000000000000000e+00" cType="1" res="1.9147900457028300e-04" rms="4.8731160163879395e-01" purity="5.0482594966888428e-01" nType="-99"/>
          <Node pos="r" depth="2" NCoef="0" IVar="-1" Cut="0.0000000000000000e+00" cType="1" res="8.2842623814940453e-03" rms="4.4601389765739441e-01" purity="7.1148246526718140e-01" nType="-99"/>
        </Node>
      </Node>
    </BinaryTree>
    <BinaryTree type="DecisionTree" boostWeight="1.0000000000000000e+00" itree="20">
      <Node pos="s" depth="0" NCoef="0" IVar="1" Cut="9.2167550325393677e-01" cType="1" res="8.5065914317965508e-03" rms="4.8005133867263794e-01" purity="5.0207889080047607e-01" nType="0">
        <Node pos="l" depth="1" NCoef="0" IVar="0" Cut="2.4241619110107422e+00" cType="1" res="-5.8739848434925079e-02" rms="4.7868195176124573e-01" purity="4.0663033723831177e-01" nType="0">
          <Node pos="l" depth="2" NCoef="0" IVar="-1" Cut="0.0000000000000000e+00" cType="1" res="-6.5205288119614124e-03" rms="4.6983253955841064e-01" purity="3.5640695691108704e-01" nType="-99"/>
          <Node pos="r" depth="2" NCoef="0" IVar="-1" Cut="0.0000000000000000e+00" cType="1" res="4.5030447654426098e-03" rms="4.8484823107719421e-01" purity="5.9604883193969727e-01" nType="-99"/>
        </Node>
        <Node pos="r" depth="1" NCoef="0" IVar="1" Cut="9.6123516559600830e-01" cType="1" res="1.2648507952690125e-01" rms="4.5923855900764465e-01" purity="6.6953575611114502e-01" nType="0">
          <Node pos="l" depth="2" NCoef="0" IVar="-1" Cut="0.0000000000000000e+00" cType="1" res="4.3183229863643646e-03" rms="4.8248651623725891e-01" purity="5.9566289186477661e-01" nType="-99"/>
          <Node pos="r" depth="2" NCoef="0" IVar="-1" Cut="0.0000000000000000e+00" cType="1" res="1.0174018330872059e-02" rms="4.1136184334754944e-01" purity="7.7907460927963257e-01" nType="-99"/>
        </Node>
      </Node>
    </BinaryTree>
    <BinaryTree type="DecisionTree" boostWeight="1.0000000000000000e+00" itree="21">
      <Node pos="s" depth="0" NCoef="0" IVar="1" Cut="9.2939782142639160e-01" cType="1" res="8.8948477059602737e-03" rms="4.7924438118934631e-01" purity="5.0216561555862427e-01" nType="0">
        <Node pos="l" depth="1" NCoef="0" IVar="2" Cut="2.6032223510742188e+02" cType="1" res="-4.5832891017198563e-02" rms="4.8037886619567871e-01" purity="4.1944602131843567e-01" nType="0">
          <Node pos="l" depth="2" NCoef="0" IVar="-1" Cut="0.0000000000000000e+00" cType="1" res="-1.1090631596744061e-02" rms="4.3328931927680969e-01" purity="2.5731042027473450e-01" nType="-99"/>
          <Node pos="r" depth="2" NCoef="0" IVar="-1" Cut="0.0000000000000000e+00" cType="1" res="1.9775863620452583e-04" rms="4.9372872710227966e-01" purity="4.9668911099433899e-01" nType="-99"/>
        </Node>
        <Node pos="r" depth="1" NCoef="0" IVar="2" Cut="2.7784152221679688e+02" cType="1" res="1.2993590533733368e-01" rms="4.5386359095573425e-01" purity="6.8511611223220825e-01" nType="0">
          <Node pos="l" depth="2" NCoef="0" IVar="-1" Cut="0.0000000000000000e+00" cType="1" res="1.8432638607919216e-03" rms="4.8908168077468872e-01" purity="5.5143624544143677e-01" nType="-99"/>
          <Node pos="r" depth="2" NCoef="0" IVar="-1" Cut="0.0000000000000000e+00" cType="1" res="9.0959984809160233e-03" rms="4.2721778154373169e-01" purity="7.5082802772521973e-01" nType="-99"/>
        </Node>
      </Node>
    </BinaryTree>
    <BinaryTree type="DecisionTree" boostWeight="1.0000000000000000e+00" itree="22">
      <Node pos="s" depth="0" NCoef="0" IVar="0" Cut="2.5973589420318604e+00" cType="1" res="1.3158520450815558e-03" rms="4.7986343502998352e-01" purity="4.9325758218765259e-01" nType="0">
        <Node pos="l" depth="1" NCoef="0" IVar="1" Cut="9.0603917837142944e-01" cType="1" res="-4.6056352555751801e-02" rms="4.7920042276382446e-01" purity="4.2189568281173706e-01" nType="0">
          <Node pos="l" depth="2" NCoef="0" IVar="-1" Cut="0.0000000000000000e+00" cType="1" res="-6.3594817183911800e-03" rms="4.6868360042572021e-01" purity="3.5268485546112061e-01" nType="-99"/>
          <Node pos="r" depth="2" NCoef="0" IVar="-1" Cut="0.0000000000000000e+00" cType="1" res="2.1101636812090874e-03" rms="4.8577624559402466e-01" purity="5.3823202848434448e-01" nType="-99"/>
        </Node>
        <Node pos="r" depth="1" NCoef="0" IVar="0" Cut="3.9466760158538818e+00" cType="1" res="1.2026155740022659e-01" rms="4.6052443981170654e-01" purity="6.7243844270706177e-01" nType="0">
          <Node pos="l" depth="2" NCoef="0" IVar="-1" Cut="0.0000000000000000e+00" cType="1" res="3.9215912111103535e-03" rms="4.7702574729919434e-01" purity="6.1974370479583740e-01" nType="-99"/>
          <Node pos="r" depth="2" NCoef="0" IVar="-1" Cut="0.0000000000000000e+00" cType="1" res="9.5560923218727112e-03" rms="4.2465224862098694e-01" purity="7.5171613693237305e-01" nType="-99"/>
        </Node>
      </Node>
    </BinaryTree>
    <BinaryTree type="DecisionTree" boostWeight="1.0000000000000000e+00" itree="23">
      <Node pos="s" depth="0" NCoef="0" IVar="0" Cut="2.6705026626586914e+00" cType="1" res="8.7733203545212746e-03" rms="4.7904080152511597e-01" purity="5.0026112794876099e-01" nType="0">
        <Node pos="l" depth="1" NCoef="0" IVar="1" Cut="9.5238232612609863e-01" cType="1" res="-3.7843726575374603e-02" rms="4.8011445999145508e-01" purity="4.2910537123680115e-01" nType="0">
          <Node pos="l" depth="2" NCoef="0" IVar="-1" Cut="0.0000000000000000e+00" cType="1" res="-3.7904598284512758e-03" rms="4.7876960039138794e-01" purity="3.9834660291671753e-01" nType="-99"/>
          <Node pos="r" depth="2" NCoef="0" IVar="-1" Cut="0.0000000000000000e+00" cType="1" res="7.1364254690706730e-03" rms="4.5952278375625610e-01" purity="6.8111085891723633e-01" nType="-99"/>
        </Node>
        <Node pos="r" depth="1" NCoef="0" IVar="0" Cut="4.5326342582702637e+00" cType="1" res="1.3109827041625977e-01" rms="4.5399555563926697e-01" purity="6.8697661161422729e-01" nType="0">
          <Node pos="l" depth="2" NCoef="0" IVar="-1" Cut="0.0000000000000000e+00" cType="1" res="5.1563130691647530e-03" rms="4.6892163157463074e-01" purity="6.4762580394744873e-01" nType="-99"/>
          <Node pos="r" depth="2" NCoef="0" IVar="-1" Cut="0.0000000000000000e+00" cType="1" res="1.1430351994931698e-02" rms="3.8745099306106567e-01" purity="8.0749547481536865e-01" nType="-99"/>
        </Node>
      </Node>
    </BinaryTree>
    <BinaryTree type="DecisionTree" boostWeight="1.0000000000000000e+00" itree="24">
      <Node pos="s" depth="0" NCoef="0" IVar="1" Cut="9.3325358629226685e-01" cType="1" res="5.9708971530199051e-03" rms="4.7739496827125549e-01" purity="4.9905163049697876e-01" nType="0">
        <Node pos="l" depth="1" NCoef="0" IVar="2" Cut="3.5813964843750000e+02" cType="1" res="-4.3872151523828506e-02" rms="4.7888940572738647e-01" purity="4.1943532228469849e-01" nType="0">
          <Node pos="l" depth="2" NCoef="0" IVar="-1" Cut="0.0000000000000000e+00" cType="1" res="-6.3138213008642197e-03" rms="4.6511366963386536e-01" purity="3.4722504019737244e-01" nType="-99"/>
          <Node pos="r" depth="2" NCoef="0" IVar="-1" Cut="0.0000000000000000e+00" cType="1" res="3.4551296848803759e-03" rms="4.9074935913085938e-01" purity="5.7317256927490234e-01" nType="-99"/>
        </Node>
        <Node pos="r" depth="1" NCoef="0" IVar="2" Cut="2.6415368652343750e+02" cType="1" res="1.2773312628269196e-01" rms="4.5113164186477661e-01" purity="6.9354730844497681e-01" nType="0">
          <Node pos="l" depth="2" NCoef="0" IVar="-1" Cut="0.0000000000000000e+00" cType="1" res="1.7866085981950164e-03" rms="4.8726841807365417e-01" purity="5.5798190832138062e-01" nType="-99"/>
          <Node pos="r" depth="2" NCoef="0" IVar="-1" Cut="0.0000000000000000e+00" cType="1" res="8.5195228457450867e-03" rms="4.3135592341423035e-01" purity="7.4389404058456421e-01" nType="-99"/>
        </Node>
      </Node>
    </BinaryTree>
    <BinaryTree type="DecisionTree" boostWeight="1.0000000000000000e+00" itree="25">
      <Node pos="s" depth="0" NCoef="0" IVar="0" Cut="1.2505041360855103e+00" cType="1" res="7.0613916032016277e-03" rms="4.7754776477813721e-01" purity="4.9832773208618164e-01" nType="0">
        <Node pos="l" depth="1" NCoef="0" IVar="2" Cut="4.0747817993164062e+02" cType="1" res="-8.6063653230667114e-02" rms="4.6689307689666748e-01" purity="3.5609367489814758e-01" nType="0">
          <Node pos="l" depth="2" NCoef="0" IVar="-1" Cut="0.0000000000000000e+00" cType="1" res="-8.3853993564844131e-03" rms="4.5474210381507874e-01" purity="3.1251630187034607e-01" nType="-99"/>
          <Node pos="r" depth="2" NCoef="0" IVar="-1" Cut="0.0000000000000000e+00" cType="1" res="2.3775910958647728e-03" rms="4.9681094288825989e-01" purity="5.4380428791046143e-01" nType="-99"/>
        </Node>
        <Node pos="r" depth="1" NCoef="0" IVar="0" Cut="3.6223964691162109e+00" cType="1" res="6.9817028939723969e-02" rms="4.7439500689506531e-01" purity="5.9417730569839478e-01" nType="0">
          <Node pos="l" depth="2" NCoef="0" IVar="-1" Cut="0.0000000000000000e+00" cType="1" res="2.1104940678924322e-03" rms="4.8287683725357056e-01" purity="5.4776889085769653e-01" nType="-99"/>
          <Node pos="r" depth="2" NCoef="0" IVar="-1" Cut="0.0000000000000000e+00" cType="1" res="8.5884053260087967e-03" rms="4.3168276548385620e-01" purity="7.3738443851470947e-01" nType="-99"/>
        </Node>
      </Node>
    </BinaryTree>
    <BinaryTree type="DecisionTree" boostWeight="1.0000000000000000e+00" itree="26">
      <Node pos="s" depth="0" NCoef="0" IVar="0" Cut="2.2151045799255371e+00" cType="1" res="8.7958406656980515e-03" rms="4.7646600008010864e-01" purity="5.0114250183105469e-01" nType="0">
        <Node pos="l" depth="1" NCoef="0" IVar="2" Cut="3.1674002075195312e+02" cType="1" res="-4.8123791813850403e-02" rms="4.7596886754035950e-01" purity="4.0731430053710938e-01" nType="0">
          <Node pos="l" depth="2" NCoef="0" IVar="-1" Cut="0.0000000000000000e+00" cType="1" res="-7.4584125541150570e-03" rms="4.5484402775764465e-01" purity="3.1543356180191040e-01" nType="-99"/>
          <Node pos="r" depth="2" NCoef="0" IVar="-1" Cut="0.0000000000000000e+00" cType="1" res="1.5112583059817553e-03" rms="4.9332576990127563e-01" purity="5.3010880947113037e-01" nType="-99"/>
        </Node>
        <Node pos="r" depth="1" NCoef="0" IVar="0" Cut="4.1236438751220703e+00" cType="1" res="1.0845763981342316e-01" rms="4.6069911122322083e-01" purity="6.6542845964431763e-01" nType="0">
          <Node pos="l" depth="2" NCoef="0" IVar="-1" Cut="0.0000000000000000e+00" cType="1" res="3.7702766712754965e-03" rms="4.7551167011260986e-01" purity="6.1840403079986572e-01" nType="-99"/>
          <Node pos="r" depth="2" NCoef="0" IVar="-1" Cut="0.0000000000000000e+00" cType="1" res="1.0305993258953094e-02" rms="4.0197852253913879e-01" purity="7.8865277767181396e-01" nType="-99"/>
        </Node>
      </Node>
    </BinaryTree>
    <BinaryTree type="DecisionTree" boostWeight="1.0000000000000000e+00" itree="27">
      <Node pos="s" depth="0" NCoef="0" IVar="0" Cut="2.4468638896942139e+00" cType="1" res="6.6373329609632492e-03" rms="4.7677066922187805e-01" purity="4.9784672260284424e-01" nType="0">
        <Node pos="l" depth="1" NCoef="0" IVar="2" Cut="3.0786306762695312e+02" cType="1" res="-3.9649087935686111e-02" rms="4.7764968872070312e-01" purity="4.1894021630287170e-01" nType="0">
          <Node pos="l" depth="2" NCoef="0" IVar="-1" Cut="0.0000000000000000e+00" cType="1" res="-6.8064448423683643e-03" rms="4.5722630620002747e-01" purity="3.2233598828315735e-01" nType="-99"/>
          <Node pos="r" depth="2" NCoef="0" IVar="-1" Cut="0.0000000000000000e+00" cType="1" res="1.4581274008378386e-03" rms="4.9269551038742065e-01" purity="5.3166526556015015e-01" nType="-99"/>
        </Node>
        <Node pos="r" depth="1" NCoef="0" IVar="7" Cut="5.7897299528121948e-01" cType="1" res="1.0841426998376846e-01" rms="4.5868957042694092e-01" purity="6.7135035991668701e-01" nType="0">
          <Node pos="l" depth="2" NCoef="0" IVar="-1" Cut="0.0000000000000000e+00" cType="1" res="1.4521566918119788e-03" rms="4.8416772484779358e-01" purity="5.8098119497299194e-01" nType="-99"/>
          <Node pos="r" depth="2" NCoef="0" IVar="-1" Cut="0.0000000000000000e+00" cType="1" res="7.8949239104986191e-03" rms="4.3666315078735352e-01" purity="7.2273415327072144e-01" nType="-99"/>
        </Node>
      </Node>
    </BinaryTree>
    <BinaryTree type="DecisionTree" boostWeight="1.0000000000000000e+00" itree="28">
      <Node pos="s" depth="0" NCoef="0" IVar="1" Cut="9.2168170213699341e-01" cType="1" res="1.3632956892251968e-02" rms="4.7599351406097412e-01" purity="5.0494849681854248e-01" nType="0">
        <Node pos="l" depth="1" NCoef="0" IVar="2" Cut="2.6719064331054688e+02" cType="1" res="-3.8071654736995697e-02" rms="4.7777420282363892e-01" purity="4.1630518436431885e-01" nType="0">
          <Node pos="l" depth="2" NCoef="0" IVar="-1" Cut="0.0000000000000000e+00" cType="1" res="-9.0402867645025253e-03" rms="4.3779921531677246e-01" purity="2.6859498023986816e-01" nType="-99"/>
          <Node pos="r" depth="2" NCoef="0" IVar="-1" Cut="0.0000000000000000e+00" cType="1" res="4.0926539804786444e-04" rms="4.9250245094299316e-01" purity="4.9706885218620300e-01" nType="-99"/>
        </Node>
        <Node pos="r" depth="1" NCoef="0" IVar="1" Cut="9.7311097383499146e-01" cType="1" res="1.0660288482904434e-01" rms="4.5832920074462891e-01" purity="6.6433787345886230e-01" nType="0">
          <Node pos="l" depth="2" NCoef="0" IVar="-1" Cut="0.0000000000000000e+00" cType="1" res="4.2716450989246368e-03" rms="4.7514829039573669e-01" purity="6.1602067947387695e-01" nType="-99"/>
          <Node pos="r" depth="2" NCoef="0" IVar="-1" Cut="0.0000000000000000e+00" cType="1" res="9.9530266597867012e-03" rms="3.9006561040878296e-01" purity="8.0765533447265625e-01" nType="-99"/>
        </Node>
      </Node>
    </BinaryTree>
    <BinaryTree type="DecisionTree" boostWeight="1.0000000000000000e+00" itree="29">
      <Node pos="s" depth="0" NCoef="0" IVar="0" Cut="1.3959311246871948e+00" cType="1" res="8.3501264452934265e-03" rms="4.7549781203269958e-01" purity="5.0071299076080322e-01" nType="0">
        <Node pos="l" depth="1" NCoef="0" IVar="2" Cut="3.1038046264648438e+02" cType="1" res="-7.1170337498188019e-02" rms="4.6986502408981323e-01" purity="3.6567664146423340e-01" nType="0">
          <Node pos="l" depth="2" NCoef="0" IVar="-1" Cut="0.0000000000000000e+00" cType="1" res="-8.6047826334834099e-03" rms="4.4406265020370483e-01" purity="2.7954483032226562e-01" nType="-99"/>
          <Node pos="r" depth="2" NCoef="0" IVar="-1" Cut="0.0000000000000000e+00" cType="1" res="-1.0833156993612647e-03" rms="4.9610891938209534e-01" purity="4.7705793380737305e-01" nType="-99"/>
        </Node>
        <Node pos="r" depth="1" NCoef="0" IVar="0" Cut="3.9323878288269043e+00" cType="1" res="6.9702275097370148e-02" rms="4.7070559859275818e-01" purity="6.0489714145660400e-01" nType="0">
          <Node pos="l" depth="2" NCoef="0" IVar="-1" Cut="0.0000000000000000e+00" cType="1" res="2.1894248202443123e-03" rms="4.8036897182464600e-01" purity="5.6070727109909058e-01" nType="-99"/>
          <Node pos="r" depth="2" NCoef="0" IVar="-1" Cut="0.0000000000000000e+00" cType="1" res="9.3307681381702423e-03" rms="4.1239893436431885e-01" purity="7.6961445808410645e-01" nType="-99"/>
        </Node>
      </Node>
    </BinaryTree>
    <BinaryTree type="DecisionTree" boostWeight="1.0000000000000000e+00" itree="30">
      <Node pos="s" depth="0" NCoef="0" IVar="2" Cut="2.7231164550781250e+02" cType="1" res="7.7901706099510193e-03" rms="4.7582137584686279e-01" purity="4.9896040558815002e-01" nType="0">
        <Node pos="l" depth="1" NCoef="0" IVar="0" Cut="2.7524240016937256e+00" cType="1" res="-7.5590774416923523e-02" rms="4.5866218209266663e-01" purity="3.5091078281402588e-01" nType="0">
          <Node pos="l" depth="2" NCoef="0" IVar="-1" Cut="0.0000000000000000e+00" cType="1" res="-7.6991072855889797e-03" rms="4.4731059670448303e-01" purity="2.9622909426689148e-01" nType="-99"/>
          <Node pos="r" depth="2" NCoef="0" IVar="-1" Cut="0.0000000000000000e+00" cType="1" res="1.7033148324117064e-03" rms="4.8552319407463074e-01" purity="5.6115561723709106e-01" nType="-99"/>
        </Node>
        <Node pos="r" depth="1" NCoef="0" IVar="1" Cut="9.2150598764419556e-01" cType="1" res="5.4199814796447754e-02" rms="4.7886061668395996e-01" purity="5.8136451244354248e-01" nType="0">
          <Node pos="l" depth="2" NCoef="0" IVar="-1" Cut="0.0000000000000000e+00" cType="1" res="4.3535197619348764e-04" rms="4.9323999881744385e-01" purity="4.9993211030960083e-01" nType="-99"/>
          <Node pos="r" depth="2" NCoef="0" IVar="-1" Cut="0.0000000000000000e+00" cType="1" res="6.9719436578452587e-03" rms="4.4382661581039429e-01" purity="7.1454882621765137e-01" nType="-99"/>
        </Node>
      </Node>
    </BinaryTree>
    <BinaryTree type="DecisionTree" boostWeight="1.0000000000000000e+00" itree="31">
      <Node pos="s" depth="0" NCoef="0" IVar="1" Cut="9.2168170213699341e-01" cType="1" res="1.1576205492019653e-02" rms="4.7439512610435486e-01" purity="5.0320756435394287e-01" nType="0">
        <Node pos="l" depth="1" NCoef="0" IVar="2" Cut="3.8385040283203125e+02" cType="1" res="-3.9293378591537476e-02" rms="4.7660979628562927e-01" purity="4.1139709949493408e-01" nType="0">
          <Node pos="l" depth="2" NCoef="0" IVar="-1" Cut="0.0000000000000000e+00" cType="1" res="-4.9055288545787334e-03" rms="4.6703761816024780e-01" purity="3.5652258992195129e-01" nType="-99"/>
          <Node pos="r" depth="2" NCoef="0" IVar="-1" Cut="0.0000000000000000e+00" cType="1" res="3.4471028484404087e-03" rms="4.9105149507522583e-01" purity="5.7720947265625000e-01" nType="-99"/>
        </Node>
        <Node pos="r" depth="1" NCoef="0" IVar="1" Cut="9.6519726514816284e-01" cType="1" res="1.0116369277238846e-01" rms="4.5690077543258667e-01" purity="6.6489702463150024e-01" nType="0">
          <Node pos="l" depth="2" NCoef="0" IVar="-1" Cut="0.0000000000000000e+00" cType="1" res="3.3143993932753801e-03" rms="4.7920078039169312e-01" purity="5.9474134445190430e-01" nType="-99"/>
          <Node pos="r" depth="2" NCoef="0" IVar="-1" Cut="0.0000000000000000e+00" cType="1" res="9.2329541221261024e-03" rms="4.0199452638626099e-01" purity="7.9158133268356323e-01" nType="-99"/>
        </Node>
      </Node>
    </BinaryTree>
    <BinaryTree type="DecisionTree" boostWeight="1.0000000000000000e+00" itree="32">
      <Node pos="s" depth="0" NCoef="0" IVar="0" Cut="1.0870714187622070e+00" cType="1" res="1.3761058449745178e-02" rms="4.7417682409286499e-01" purity="5.0736069679260254e-01" nType="0">
        <Node pos="l" depth="1" NCoef="0" IVar="2" Cut="3.8178414916992188e+02" cType="1" res="-7.5672514736652374e-02" rms="4.6647396683692932e-01" purity="3.5366925597190857e-01" nType="0">
          <Node pos="l" depth="2" NCoef="0" IVar="-1" Cut="0.0000000000000000e+00" cType="1" res="-7.6545663177967072e-03" rms="4.5248571038246155e-01" purity="3.0262449383735657e-01" nType="-99"/>
          <Node pos="r" depth="2" NCoef="0" IVar="-1" Cut="0.0000000000000000e+00" cType="1" res="5.1459035603329539e-04" rms="4.9860084056854248e-01" purity="5.1373022794723511e-01" nType="-99"/>
        </Node>
        <Node pos="r" depth="1" NCoef="0" IVar="2" Cut="2.7784152221679688e+02" cType="1" res="6.2666140496730804e-02" rms="4.7121161222457886e-01" purity="5.9140408039093018e-01" nType="0">
          <Node pos="l" depth="2" NCoef="0" IVar="-1" Cut="0.0000000000000000e+00" cType="1" res="-9.8494335543364286e-04" rms="4.7940352559089661e-01" purity="4.5435750484466553e-01" nType="-99"/>
          <Node pos="r" depth="2" NCoef="0" IVar="-1" Cut="0.0000000000000000e+00" cType="1" res="5.5098594166338444e-03" rms="4.6174469590187073e-01" purity="6.6209059953689575e-01" nType="-99"/>
        </Node>
      </Node>
    </BinaryTree>
    <BinaryTree type="DecisionTree" boostWeight="1.0000000000000000e+00" itree="33">
      <Node pos="s" depth="0" NCoef="0" IVar="1" Cut="9.5220547914505005e-01" cType="1" res="1.3017863966524601e-02" rms="4.7349321842193604e-01" purity="5.0568169355392456e-01" nType="0">
        <Node pos="l" depth="1" NCoef="0" IVar="2" Cut="2.6338488769531250e+02" cType="1" res="-1.7794003710150719e-02" rms="4.7877621650695801e-01" purity="4.4849386811256409e-01" nType="0">
          <Node pos="l" depth="2" NCoef="0" IVar="-1" Cut="0.0000000000000000e+00" cType="1" res="-8.3256466314196587e-03" rms="4.4053626060485840e-01" purity="2.8001275658607483e-01" nType="-99"/>
          <Node pos="r" depth="2" NCoef="0" IVar="-1" Cut="0.0000000000000000e+00" cType="1" res="1.5658206539228559e-03" rms="4.8974898457527161e-01" purity="5.2895146608352661e-01" nType="-99"/>
        </Node>
        <Node pos="r" depth="1" NCoef="0" IVar="1" Cut="9.7587025165557861e-01" cType="1" res="1.4155146479606628e-01" rms="4.2746707797050476e-01" purity="7.4424427747726440e-01" nType="0">
          <Node pos="l" depth="2" NCoef="0" IVar="-1" Cut="0.0000000000000000e+00" cType="1" res="5.2942335605621338e-03" rms="4.5697119832038879e-01" purity="6.8174523115158081e-01" nType="-99"/>
          <Node pos="r" depth="2" NCoef="0" IVar="-1" Cut="0.0000000000000000e+00" cType="1" res="1.0365978814661503e-02" rms="3.7427896261215210e-01" purity="8.2936877012252808e-01" nType="-99"/>
        </Node>
      </Node>
    </BinaryTree>
    <BinaryTree type="DecisionTree" boostWeight="1.0000000000000000e+00" itree="34">
      <Node pos="s" depth="0" NCoef="0" IVar="1" Cut="9.1002029180526733e-01" cType="1" res="6.6838697530329227e-03" rms="4.7348514199256897e-01" purity="4.9918588995933533e-01" nType="0">
        <Node pos="l" depth="1" NCoef="0" IVar="2" Cut="4.2246185302734375e+02" cType="1" res="-5.3986296057701111e-02" rms="4.7262272238731384e-01" purity="3.8989228010177612e-01" nType="0">
          <Node pos="l" depth="2" NCoef="0" IVar="-1" Cut="0.0000000000000000e+00" cType="1" res="-5.1417602226138115e-03" rms="4.6574723720550537e-01" purity="3.5213112831115723e-01" nType="-99"/>
          <Node pos="r" depth="2" NCoef="0" IVar="-1" Cut="0.0000000000000000e+00" cType="1" res="2.8079990297555923e-03" rms="4.9138560891151428e-01" purity="5.7139754295349121e-01" nType="-99"/>
        </Node>
        <Node pos="r" depth="1" NCoef="0" IVar="2" Cut="2.2375465393066406e+02" cType="1" res="8.1851802766323090e-02" rms="4.6366843581199646e-01" purity="6.3459634780883789e-01" nType="0">
          <Node pos="l" depth="2" NCoef="0" IVar="-1" Cut="0.0000000000000000e+00" cType="1" res="-3.3799363300204277e-03" rms="4.7505930066108704e-01" purity="4.3410453200340271e-01" nType="-99"/>
          <Node pos="r" depth="2" NCoef="0" IVar="-1" Cut="0.0000000000000000e+00" cType="1" res="5.6018489412963390e-03" rms="4.5887404680252075e-01" purity="6.6339671611785889e-01" nType="-99"/>
        </Node>
      </Node>
    </BinaryTree>
    <BinaryTree type="DecisionTree" boostWeight="1.0000000000000000e+00" itree="35">
      <Node pos="s" depth="0" NCoef="0" IVar="0" Cut="3.2468647956848145e+00" cType="1" res="1.1958985589444637e-02" rms="4.7254070639610291e-01" purity="5.0396507978439331e-01" nType="0">
        <Node pos="l" depth="1" NCoef="0" IVar="2" Cut="3.1511663818359375e+02" cType="1" res="-1.7917431890964508e-02" rms="4.7555550932884216e-01" purity="4.5293262600898743e-01" nType="0">
          <Node pos="l" depth="2" NCoef="0" IVar="-1" Cut="0.0000000000000000e+00" cType="1" res="-4.9252458848059177e-03" rms="4.6194016933441162e-01" purity="3.5374745726585388e-01" nType="-99"/>
          <Node pos="r" depth="2" NCoef="0" IVar="-1" Cut="0.0000000000000000e+00" cType="1" res="2.6556020602583885e-03" rms="4.8404479026794434e-01" purity="5.7433646917343140e-01" nType="-99"/>
        </Node>
        <Node pos="r" depth="1" NCoef="0" IVar="0" Cut="4.5478219985961914e+00" cType="1" res="1.4211228489875793e-01" rms="4.3590641021728516e-01" purity="7.2628253698348999e-01" nType="0">
          <Node pos="l" depth="2" NCoef="0" IVar="-1" Cut="0.0000000000000000e+00" cType="1" res="5.6403987109661102e-03" rms="4.5882266759872437e-01" purity="6.7771989107131958e-01" nType="-99"/>
          <Node pos="r" depth="2" NCoef="0" IVar="-1" Cut="0.0000000000000000e+00" cType="1" res="1.0245442390441895e-02" rms="3.8315722346305847e-01" purity="8.1433880329132080e-01" nType="-99"/>
        </Node>
      </Node>
    </BinaryTree>
    <BinaryTree type="DecisionTree" boostWeight="1.0000000000000000e+00" itree="36">
      <Node pos="s" depth="0" NCoef="0" IVar="1" Cut="9.2159312963485718e-01" cType="1" res="6.2048383988440037e-03" rms="4.7291600704193115e-01" purity="4.9874597787857056e-01" nType="0">
        <Node pos="l" depth="1" NCoef="0" IVar="0" Cut="5.0532442331314087e-01" cType="1" res="-4.1856825351715088e-02" rms="4.7529476881027222e-01" purity="4.0589660406112671e-01" nType="0">
          <Node pos="l" depth="2" NCoef="0" IVar="-1" Cut="0.0000000000000000e+00" cType="1" res="-8.3024632185697556e-03" rms="4.4902631640434265e-01" purity="3.0662682652473450e-01" nType="-99"/>
          <Node pos="r" depth="2" NCoef="0" IVar="-1" Cut="0.0000000000000000e+00" cType="1" res="-6.9837912451475859e-04" rms="4.8350512981414795e-01" purity="4.5039421319961548e-01" nType="-99"/>
        </Node>
        <Node pos="r" depth="1" NCoef="0" IVar="2" Cut="3.5500103759765625e+02" cType="1" res="9.1627091169357300e-02" rms="4.5633113384246826e-01" purity="6.6377156972885132e-01" nType="0">
          <Node pos="l" depth="2" NCoef="0" IVar="-1" Cut="0.0000000000000000e+00" cType="1" res="3.0476015526801348e-03" rms="4.7206279635429382e-01" purity="6.0458308458328247e-01" nType="-99"/>
          <Node pos="r" depth="2" NCoef="0" IVar="-1" Cut="0.0000000000000000e+00" cType="1" res="8.2261888310313225e-03" rms="4.2130547761917114e-01" purity="7.6148140430450439e-01" nType="-99"/>
        </Node>
      </Node>
    </BinaryTree>
    <BinaryTree type="DecisionTree" boostWeight="1.0000000000000000e+00" itree="37">
      <Node pos="s" depth="0" NCoef="0" IVar="1" Cut="9.0618431568145752e-01" cType="1" res="4.0466357022523880e-03" rms="4.7168338298797607e-01" purity="4.9536943435668945e-01" nType="0">
        <Node pos="l" depth="1" NCoef="0" IVar="2" Cut="2.9616635131835938e+02" cType="1" res="-5.3399682044982910e-02" rms="4.7021958231925964e-01" purity="3.8658007979393005e-01" nType="0">
          <Node pos="l" depth="2" NCoef="0" IVar="-1" Cut="0.0000000000000000e+00" cType="1" res="-7.9642031341791153e-03" rms="4.3789705634117126e-01" purity="2.7116215229034424e-01" nType="-99"/>
          <Node pos="r" depth="2" NCoef="0" IVar="-1" Cut="0.0000000000000000e+00" cType="1" res="-2.3953089839778841e-04" rms="4.9373227357864380e-01" purity="4.9544024467468262e-01" nType="-99"/>
        </Node>
        <Node pos="r" depth="1" NCoef="0" IVar="2" Cut="2.3547845458984375e+02" cType="1" res="7.0175692439079285e-02" rms="4.6465083956718445e-01" purity="6.2060183286666870e-01" nType="0">
          <Node pos="l" depth="2" NCoef="0" IVar="-1" Cut="0.0000000000000000e+00" cType="1" res="-3.0939655844122171e-03" rms="4.7161722183227539e-01" purity="4.3166589736938477e-01" nType="-99"/>
          <Node pos="r" depth="2" NCoef="0" IVar="-1" Cut="0.0000000000000000e+00" cType="1" res="5.2621592767536640e-03" rms="4.5943161845207214e-01" purity="6.6030550003051758e-01" nType="-99"/>
        </Node>
      </Node>
    </BinaryTree>
    <BinaryTree type="DecisionTree" boostWeight="1.0000000000000000e+00" itree="38">
      <Node pos="s" depth="0" NCoef="0" IVar="1" Cut="9.1396266222000122e-01" cType="1" res="7.6717194169759750e-03" rms="4.7154742479324341e-01" purity="4.9859112501144409e-01" nType="0">
        <Node pos="l" depth="1" NCoef="0" IVar="2" Cut="3.8701608276367188e+02" cType="1" res="-4.4371791183948517e-02" rms="4.7288054227828979e-01" purity="3.9704588055610657e-01" nType="0">
          <Node pos="l" depth="2" NCoef="0" IVar="-1" Cut="0.0000000000000000e+00" cType="1" res="-5.2101677283644676e-03" rms="4.6294596791267395e-01" purity="3.3938789367675781e-01" nType="-99"/>
          <Node pos="r" depth="2" NCoef="0" IVar="-1" Cut="0.0000000000000000e+00" cType="1" res="2.7211874257773161e-03" rms="4.9001592397689819e-01" purity="5.7027739286422729e-01" nType="-99"/>
        </Node>
        <Node pos="r" depth="1" NCoef="0" IVar="2" Cut="2.3025007629394531e+02" cType="1" res="8.3096727728843689e-02" rms="4.5925807952880859e-01" purity="6.4575731754302979e-01" nType="0">
          <Node pos="l" depth="2" NCoef="0" IVar="-1" Cut="0.0000000000000000e+00" cType="1" res="-2.7885844465345144e-03" rms="4.7996217012405396e-01" purity="4.4394144415855408e-01" nType="-99"/>
          <Node pos="r" depth="2" NCoef="0" IVar="-1" Cut="0.0000000000000000e+00" cType="1" res="5.7818642817437649e-03" rms="4.5202809572219849e-01" purity="6.8088221549987793e-01" nType="-99"/>
        </Node>
      </Node>
    </BinaryTree>
    <BinaryTree type="DecisionTree" boostWeight="1.0000000000000000e+00" itree="39">
      <Node pos="s" depth="0" NCoef="0" IVar="0" Cut="1.0510405302047729e+00" cType="1" res="7.6558184809982777e-03" rms="4.7118970751762390e-01" purity="4.9899142980575562e-01" nType="0">
        <Node pos="l" depth="1" NCoef="0" IVar="2" Cut="3.4120223999023438e+02" cType="1" res="-7.6653569936752319e-02" rms="4.6006539463996887e-01" purity="3.4143504500389099e-01" nType="0">
          <Node pos="l" depth="2" NCoef="0" IVar="-1" Cut="0.0000000000000000e+00" cType="1" res="-8.3858389407396317e-03" rms="4.3753081560134888e-01" purity="2.7071785926818848e-01" nType="-99"/>
          <Node pos="r" depth="2" NCoef="0" IVar="-1" Cut="0.0000000000000000e+00" cType="1" res="-1.1367675615474582e-03" rms="4.9622845649719238e-01" purity="4.8045077919960022e-01" nType="-99"/>
        </Node>
        <Node pos="r" depth="1" NCoef="0" IVar="0" Cut="3.8437700271606445e+00" cType="1" res="5.2636343985795975e-02" rms="4.7088342905044556e-01" purity="5.8305048942565918e-01" nType="0">
          <Node pos="l" depth="2" NCoef="0" IVar="-1" Cut="0.0000000000000000e+00" cType="1" res="1.6677557723596692e-03" rms="4.7956332564353943e-01" purity="5.4188698530197144e-01" nType="-99"/>
          <Node pos="r" depth="2" NCoef="0" IVar="-1" Cut="0.0000000000000000e+00" cType="1" res="7.9717580229043961e-03" rms="4.1722929477691650e-01" purity="7.5666058063507080e-01" nType="-99"/>
        </Node>
      </Node>
    </BinaryTree>
    <BinaryTree type="DecisionTree" boostWeight="1.0000000000000000e+00" itree="40">
      <Node pos="s" depth="0" NCoef="0" IVar="0" Cut="1.9018808603286743e+00" cType="1" res="9.1602774336934090e-03" rms="4.7097846865653992e-01" purity="5.0141221284866333e-01" nType="0">
        <Node pos="l" depth="1" NCoef="0" IVar="2" Cut="2.5640737915039062e+02" cType="1" res="-4.4001664966344833e-02" rms="4.7051137685775757e-01" purity="3.8927420973777771e-01" nType="0">
          <Node pos="l" depth="2" NCoef="0" IVar="-1" Cut="0.0000000000000000e+00" cType="1" res="-8.8865291327238083e-03" rms="4.2239356040954590e-01" purity="2.4092116951942444e-01" nType="-99"/>
          <Node pos="r" depth="2" NCoef="0" IVar="-1" Cut="0.0000000000000000e+00" cType="1" res="-7.7725073788315058e-04" rms="4.8948121070861816e-01" purity="4.6267855167388916e-01" nType="-99"/>
        </Node>
        <Node pos="r" depth="1" NCoef="0" IVar="7" Cut="6.0131448507308960e-01" cType="1" res="7.6762273907661438e-02" rms="4.6283480525016785e-01" purity="6.4400947093963623e-01" nType="0">
          <Node pos="l" depth="2" NCoef="0" IVar="-1" Cut="0.0000000000000000e+00" cType="1" res="9.5638848142698407e-04" rms="4.8077955842018127e-01" purity="5.7217919826507568e-01" nType="-99"/>
          <Node pos="r" depth="2" NCoef="0" IVar="-1" Cut="0.0000000000000000e+00" cType="1" res="6.2652323395013809e-03" rms="4.4501546025276184e-01" purity="6.9439363479614258e-01" nType="-99"/>
        </Node>
      </Node>
    </BinaryTree>
    <BinaryTree type="DecisionTree" boostWeight="1.0000000000000000e+00" itree="41">
      <Node pos="s" depth="0" NCoef="0" IVar="1" Cut="9.0239775180816650e-01" cType="1" res="7.1360906586050987e-03" rms="4.6972870826721191e-01" purity="4.9945604801177979e-01" nType="0">
        <Node pos="l" depth="1" NCoef="0" IVar="0" Cut="2.5374481678009033e+00" cType="1" res="-5.4678652435541153e-02" rms="4.6767717599868774e-01" purity="3.7935429811477661e-01" nType="0">
          <Node pos="l" depth="2" NCoef="0" IVar="-1" Cut="0.0000000000000000e+00" cType="1" res="-5.3964368999004364e-03" rms="4.6092334389686584e-01" purity="3.3854007720947266e-01" nType="-99"/>
          <Node pos="r" depth="2" NCoef="0" IVar="-1" Cut="0.0000000000000000e+00" cType="1" res="2.7066781185567379e-03" rms="4.8495119810104370e-01" purity="5.7333385944366455e-01" nType="-99"/>
        </Node>
        <Node pos="r" depth="1" NCoef="0" IVar="1" Cut="9.5679074525833130e-01" cType="1" res="6.6488943994045258e-02" rms="4.6400424838066101e-01" purity="6.1477458477020264e-01" nType="0">
          <Node pos="l" depth="2" NCoef="0" IVar="-1" Cut="0.0000000000000000e+00" cType="1" res="1.8706367118284106e-03" rms="4.8140600323677063e-01" purity="5.4049962759017944e-01" nType="-99"/>
          <Node pos="r" depth="2" NCoef="0" IVar="-1" Cut="0.0000000000000000e+00" cType="1" res="7.3680328205227852e-03" rms="4.1857150197029114e-01" purity="7.6232886314392090e-01" nType="-99"/>
        </Node>
      </Node>
    </BinaryTree>
    <BinaryTree type="DecisionTree" boostWeight="1.0000000000000000e+00" itree="42">
      <Node pos="s" depth="0" NCoef="0" IVar="1" Cut="9.4096010923385620e-01" cType="1" res="8.6909811943769455e-03" rms="4.6990689635276794e-01" purity="5.0037884712219238e-01" nType="0">
        <Node pos="l" depth="1" NCoef="0" IVar="2" Cut="2.6032223510742188e+02" cType="1" res="-2.5666480883955956e-02" rms="4.7541874647140503e-01" purity="4.2760428786277771e-01" nType="0">
          <Node pos="l" depth="2" NCoef="0" IVar="-1" Cut="0.0000000000000000e+00" cType="1" res="-7.0649096742272377e-03" rms="4.3782055377960205e-01" purity="2.7507629990577698e-01" nType="-99"/>
          <Node pos="r" depth="2" NCoef="0" IVar="-1" Cut="0.0000000000000000e+00" cType="1" res="3.4964471706189215e-04" rms="4.8917183279991150e-01" purity="5.0018560886383057e-01" nType="-99"/>
        </Node>
        <Node pos="r" depth="1" NCoef="0" IVar="7" Cut="5.7901424169540405e-01" cType="1" res="1.1444888263940811e-01" rms="4.3583884835243225e-01" purity="7.2439098358154297e-01" nType="0">
          <Node pos="l" depth="2" NCoef="0" IVar="-1" Cut="0.0000000000000000e+00" cType="1" res="2.7152800466865301e-03" rms="4.6422344446182251e-01" purity="6.5089106559753418e-01" nType="-99"/>
          <Node pos="r" depth="2" NCoef="0" IVar="-1" Cut="0.0000000000000000e+00" cType="1" res="7.8134415671229362e-03" rms="4.1785147786140442e-01" purity="7.5936293601989746e-01" nType="-99"/>
        </Node>
      </Node>
    </BinaryTree>
    <BinaryTree type="DecisionTree" boostWeight="1.0000000000000000e+00" itree="43">
      <Node pos="s" depth="0" NCoef="0" IVar="0" Cut="3.8232271671295166e+00" cType="1" res="6.9898627698421478e-03" rms="4.7106790542602539e-01" purity="4.9857735633850098e-01" nType="0">
        <Node pos="l" depth="1" NCoef="0" IVar="1" Cut="9.6008646488189697e-01" cType="1" res="-1.3497942127287388e-02" rms="4.7503927350044250e-01" purity="4.6015286445617676e-01" nType="0">
          <Node pos="l" depth="2" NCoef="0" IVar="-1" Cut="0.0000000000000000e+00" cType="1" res="-1.8993432167917490e-03" rms="4.7739511728286743e-01" purity="4.2476570606231689e-01" nType="-99"/>
          <Node pos="r" depth="2" NCoef="0" IVar="-1" Cut="0.0000000000000000e+00" cType="1" res="5.8104987256228924e-03" rms="4.3950709700584412e-01" purity="7.2619867324829102e-01" nType="-99"/>
        </Node>
        <Node pos="r" depth="1" NCoef="0" IVar="7" Cut="6.6177773475646973e-01" cType="1" res="1.4519345760345459e-01" rms="4.1788452863693237e-01" purity="7.5777548551559448e-01" nType="0">
          <Node pos="l" depth="2" NCoef="0" IVar="-1" Cut="0.0000000000000000e+00" cType="1" res="5.6803706102073193e-03" rms="4.4415709376335144e-01" purity="7.1024447679519653e-01" nType="-99"/>
          <Node pos="r" depth="2" NCoef="0" IVar="-1" Cut="0.0000000000000000e+00" cType="1" res="9.1370632871985435e-03" rms="3.8884156942367554e-01" purity="8.0141210556030273e-01" nType="-99"/>
        </Node>
      </Node>
    </BinaryTree>
    <BinaryTree type="DecisionTree" boostWeight="1.0000000000000000e+00" itree="44">
      <Node pos="s" depth="0" NCoef="0" IVar="0" Cut="2.6705026626586914e+00" cType="1" res="1.0974462144076824e-02" rms="4.6964928507804871e-01" purity="5.0265866518020630e-01" nType="0">
        <Node pos="l" depth="1" NCoef="0" IVar="2" Cut="3.8701608276367188e+02" cType="1" res="-2.3337136954069138e-02" rms="4.7305464744567871e-01" purity="4.2969411611557007e-01" nType="0">
          <Node pos="l" depth="2" NCoef="0" IVar="-1" Cut="0.0000000000000000e+00" cType="1" res="-3.4013106487691402e-03" rms="4.6630692481994629e-01" purity="3.7783265113830566e-01" nType="-99"/>
          <Node pos="r" depth="2" NCoef="0" IVar="-1" Cut="0.0000000000000000e+00" cType="1" res="3.2408169936388731e-03" rms="4.8479628562927246e-01" purity="5.9034729003906250e-01" nType="-99"/>
        </Node>
        <Node pos="r" depth="1" NCoef="0" IVar="7" Cut="5.8278805017471313e-01" cType="1" res="1.0020421445369720e-01" rms="4.4855141639709473e-01" purity="6.9240802526473999e-01" nType="0">
          <Node pos="l" depth="2" NCoef="0" IVar="-1" Cut="0.0000000000000000e+00" cType="1" res="2.4643838405609131e-03" rms="4.6952727437019348e-01" purity="6.2427294254302979e-01" nType="-99"/>
          <Node pos="r" depth="2" NCoef="0" IVar="-1" Cut="0.0000000000000000e+00" cType="1" res="6.9155977107584476e-03" rms="4.3231242895126343e-01" purity="7.3260730504989624e-01" nType="-99"/>
        </Node>
      </Node>
    </BinaryTree>
    <BinaryTree type="DecisionTree" boostWeight="1.0000000000000000e+00" itree="45">
      <Node pos="s" depth="0" NCoef="0" IVar="1" Cut="9.3711036443710327e-01" cType="1" res="9.8630208522081375e-03" rms="4.6950736641883850e-01" purity="5.0170648097991943e-01" nType="0">
        <Node pos="l" depth="1" NCoef="0" IVar="2" Cut="3.4458129882812500e+02" cType="1" res="-2.3246780037879944e-02" rms="4.7510135173797607e-01" purity="4.2569503188133240e-01" nType="0">
          <Node pos="l" depth="2" NCoef="0" IVar="-1" Cut="0.0000000000000000e+00" cType="1" res="-3.8650974165648222e-03" rms="4.6431198716163635e-01" purity="3.5292780399322510e-01" nType="-99"/>
          <Node pos="r" depth="2" NCoef="0" IVar="-1" Cut="0.0000000000000000e+00" cType="1" res="2.0777622703462839e-03" rms="4.8883107304573059e-01" purity="5.5980545282363892e-01" nType="-99"/>
        </Node>
        <Node pos="r" depth="1" NCoef="0" IVar="2" Cut="3.2699139404296875e+02" cType="1" res="1.0007435083389282e-01" rms="4.4149181246757507e-01" purity="7.0880824327468872e-01" nType="0">
          <Node pos="l" depth="2" NCoef="0" IVar="-1" Cut="0.0000000000000000e+00" cType="1" res="3.1454591080546379e-03" rms="4.7077119350433350e-01" purity="6.3343137502670288e-01" nType="-99"/>
          <Node pos="r" depth="2" NCoef="0" IVar="-1" Cut="0.0000000000000000e+00" cType="1" res="7.9628294333815575e-03" rms="4.0126439929008484e-01" purity="7.9118150472640991e-01" nType="-99"/>
        </Node>
      </Node>
    </BinaryTree>
    <BinaryTree type="DecisionTree" boostWeight="1.0000000000000000e+00" itree="46">
      <Node pos="s" depth="0" NCoef="0" IVar="0" Cut="2.2389721870422363e+00" cType="1" res="2.3789487313479185e-03" rms="4.6865493059158325e-01" purity="4.9412479996681213e-01" nType="0">
        <Node pos="l" depth="1" NCoef="0" IVar="2" Cut="2.5543286132812500e+02" cType="1" res="-3.7217237055301666e-02" rms="4.7041657567024231e-01" purity="4.0062540769577026e-01" nType="0">
          <Node pos="l" depth="2" NCoef="0" IVar="-1" Cut="0.0000000000000000e+00" cType="1" res="-8.2667944952845573e-03" rms="4.2437577247619629e-01" purity="2.4823212623596191e-01" nType="-99"/>
          <Node pos="r" depth="2" NCoef="0" IVar="-1" Cut="0.0000000000000000e+00" cType="1" res="-4.6645029215142131e-04" rms="4.8773056268692017e-01" purity="4.7223460674285889e-01" nType="-99"/>
        </Node>
        <Node pos="r" depth="1" NCoef="0" IVar="0" Cut="3.7451720237731934e+00" cType="1" res="7.3425225913524628e-02" rms="4.5695564150810242e-01" purity="6.6188806295394897e-01" nType="0">
          <Node pos="l" depth="2" NCoef="0" IVar="-1" Cut="0.0000000000000000e+00" cType="1" res="2.0909123122692108e-03" rms="4.7314718365669250e-01" purity="6.0857141017913818e-01" nType="-99"/>
          <Node pos="r" depth="2" NCoef="0" IVar="-1" Cut="0.0000000000000000e+00" cType="1" res="7.0057185366749763e-03" rms="4.2260593175888062e-01" purity="7.4891680479049683e-01" nType="-99"/>
        </Node>
      </Node>
    </BinaryTree>
    <BinaryTree type="DecisionTree" boostWeight="1.0000000000000000e+00" itree="47">
      <Node pos="s" depth="0" NCoef="0" IVar="0" Cut="1.3200241327285767e+00" cType="1" res="4.2599239386618137e-03" rms="4.6998974680900574e-01" purity="4.9498414993286133e-01" nType="0">
        <Node pos="l" depth="1" NCoef="0" IVar="7" Cut="6.5678560733795166e-01" cType="1" res="-5.4885417222976685e-02" rms="4.6470600366592407e-01" purity="3.5840559005737305e-01" nType="0">
          <Node pos="l" depth="2" NCoef="0" IVar="-1" Cut="0.0000000000000000e+00" cType="1" res="-6.7572910338640213e-03" rms="4.5319873094558716e-01" purity="3.1539562344551086e-01" nType="-99"/>
          <Node pos="r" depth="2" NCoef="0" IVar="-1" Cut="0.0000000000000000e+00" cType="1" res="-1.2665340909734368e-03" rms="4.7357448935508728e-01" purity="4.0297389030456543e-01" nType="-99"/>
        </Node>
        <Node pos="r" depth="1" NCoef="0" IVar="4" Cut="3.4889414906501770e-01" cType="1" res="4.7353547066450119e-02" rms="4.6912992000579834e-01" purity="5.9449601173400879e-01" nType="0">
          <Node pos="l" depth="2" NCoef="0" IVar="-1" Cut="0.0000000000000000e+00" cType="1" res="-4.1650139610283077e-04" rms="4.7724771499633789e-01" purity="5.4256832599639893e-01" nType="-99"/>
          <Node pos="r" depth="2" NCoef="0" IVar="-1" Cut="0.0000000000000000e+00" cType="1" res="5.0128065049648285e-03" rms="4.5818489789962769e-01" purity="6.3515931367874146e-01" nType="-99"/>
        </Node>
      </Node>
    </BinaryTree>
    <BinaryTree type="DecisionTree" boostWeight="1.0000000000000000e+00" itree="48">
      <Node pos="s" depth="0" NCoef="0" IVar="0" Cut="3.2898304462432861e+00" cType="1" res="6.9070626050233841e-03" rms="4.6899566054344177e-01" purity="4.9837425351142883e-01" nType="0">
        <Node pos="l" depth="1" NCoef="0" IVar="1" Cut="9.6008414030075073e-01" cType="1" res="-1.7571551725268364e-02" rms="4.7330844402313232e-01" purity="4.4646704196929932e-01" nType="0">
          <Node pos="l" depth="2" NCoef="0" IVar="-1" Cut="0.0000000000000000e+00" cType="1" res="-2.0857264753431082e-03" rms="4.7505635023117065e-01" purity="4.1389548778533936e-01" nType="-99"/>
          <Node pos="r" depth="2" NCoef="0" IVar="-1" Cut="0.0000000000000000e+00" cType="1" res="5.7343235239386559e-03" rms="4.4074538350105286e-01" purity="7.2341400384902954e-01" nType="-99"/>
        </Node>
        <Node pos="r" depth="1" NCoef="0" IVar="7" Cut="6.2167137861251831e-01" cType="1" res="1.1343149840831757e-01" rms="4.3395456671714783e-01" purity="7.2426086664199829e-01" nType="0">
          <Node pos="l" depth="2" NCoef="0" IVar="-1" Cut="0.0000000000000000e+00" cType="1" res="3.6132642999291420e-03" rms="4.5836892724037170e-01" purity="6.6640001535415649e-01" nType="-99"/>
          <Node pos="r" depth="2" NCoef="0" IVar="-1" Cut="0.0000000000000000e+00" cType="1" res="7.9344166442751884e-03" rms="4.0837913751602173e-01" purity="7.7231204509735107e-01" nType="-99"/>
        </Node>
      </Node>
    </BinaryTree>
    <BinaryTree type="DecisionTree" boostWeight="1.0000000000000000e+00" itree="49">
      <Node pos="s" depth="0" NCoef="0" IVar="2" Cut="2.7545938110351562e+02" cType="1" res="3.0374221969395876e-03" rms="4.6894964575767517e-01" purity="4.9264910817146301e-01" nType="0">
        <Node pos="l" depth="1" NCoef="0" IVar="2" Cut="2.1621531677246094e+02" cType="1" res="-6.1913460493087769e-02" rms="4.5264568924903870e-01" purity="3.4328228235244751e-01" nType="0">
          <Node pos="l" depth="2" NCoef="0" IVar="-1" Cut="0.0000000000000000e+00" cType="1" res="-1.0311454534530640e-02" rms="4.1673091053962708e-01" purity="2.5585582852363586e-01" nType="-99"/>
          <Node pos="r" depth="2" NCoef="0" IVar="-1" Cut="0.0000000000000000e+00" cType="1" res="-2.1253153681755066e-03" rms="4.6532350778579712e-01" purity="3.8447934389114380e-01" nType="-99"/>
        </Node>
        <Node pos="r" depth="1" NCoef="0" IVar="1" Cut="8.9453256130218506e-01" cType="1" res="4.1987702250480652e-02" rms="4.7421249747276306e-01" purity="5.8222264051437378e-01" nType="0">
          <Node pos="l" depth="2" NCoef="0" IVar="-1" Cut="0.0000000000000000e+00" cType="1" res="-1.0908738477155566e-03" rms="4.9030128121376038e-01" purity="4.6468865871429443e-01" nType="-99"/>
          <Node pos="r" depth="2" NCoef="0" IVar="-1" Cut="0.0000000000000000e+00" cType="1" res="4.7724111936986446e-03" rms="4.5745074748992920e-01" purity="6.6683381795883179e-01" nType="-99"/>
        </Node>
      </Node>
    </BinaryTree>
    <BinaryTree type="DecisionTree" boostWeight="1.0000000000000000e+00" itree="50">
      <Node pos="s" depth="0" NCoef="0" IVar="0" Cut="2.9358546733856201e+00" cType="1" res="1.2238324619829655e-02" rms="4.6985369920730591e-01" purity="5.0269049406051636e-01" nType="0">
        <Node pos="l" depth="1" NCoef="0" IVar="2" Cut="2.1102830505371094e+02" cType="1" res="-1.2037819251418114e-02" rms="4.7371178865432739e-01" purity="4.4344228506088257e-01" nType="0">
          <Node pos="l" depth="2" NCoef="0" IVar="-1" Cut="0.0000000000000000e+00" cType="1" res="-1.2045239098370075e-02" rms="3.9817482233047485e-01" purity="2.1057908236980438e-01" nType="-99"/>
          <Node pos="r" depth="2" NCoef="0" IVar="-1" Cut="0.0000000000000000e+00" cType="1" res="2.4241450591944158e-04" rms="4.7985398769378662e-01" purity="4.7222331166267395e-01" nType="-99"/>
        </Node>
        <Node pos="r" depth="1" NCoef="0" IVar="7" Cut="5.7665258646011353e-01" cType="1" res="9.2586137354373932e-02" rms="4.4755730032920837e-01" purity="6.9878691434860229e-01" nType="0">
          <Node pos="l" depth="2" NCoef="0" IVar="-1" Cut="0.0000000000000000e+00" cType="1" res="1.9803850445896387e-03" rms="4.7328287363052368e-01" purity="6.2723493576049805e-01" nType="-99"/>
          <Node pos="r" depth="2" NCoef="0" IVar="-1" Cut="0.0000000000000000e+00" cType="1" res="6.6122971475124359e-03" rms="4.2910912632942200e-01" purity="7.3896551132202148e-01" nType="-99"/>
        </Node>
      </Node>
    </BinaryTree>
    <BinaryTree type="DecisionTree" boostWeight="1.0000000000000000e+00" itree="51">
      <Node pos="s" depth="0" NCoef="0" IVar="0" Cut="1.4370759725570679e+00" cType="1" res="9.3479817733168602e-03" rms="4.6814799308776855e-01" purity="5.0098919868469238e-01" nType="0">
        <Node pos="l" depth="1" NCoef="0" IVar="7" Cut="6.1895442008972168e-01" cType="1" res="-4.5906718820333481e-02" rms="4.6515101194381714e-01" purity="3.6564683914184570e-01" nType="0">
          <Node pos="l" depth="2" NCoef="0" IVar="-1" Cut="0.0000000000000000e+00" cType="1" res="-7.4300169944763184e-03" rms="4.4633474946022034e-01" purity="3.0282291769981384e-01" nType="-99"/>
          <Node pos="r" depth="2" NCoef="0" IVar="-1" Cut="0.0000000000000000e+00" cType="1" res="-5.5786548182368279e-04" rms="4.7496363520622253e-01" purity="4.1178163886070251e-01" nType="-99"/>
        </Node>
        <Node pos="r" depth="1" NCoef="0" IVar="1" Cut="9.6796417236328125e-01" cType="1" res="5.3836632519960403e-02" rms="4.6580809354782104e-01" purity="6.0996091365814209e-01" nType="0">
          <Node pos="l" depth="2" NCoef="0" IVar="-1" Cut="0.0000000000000000e+00" cType="1" res="1.7788050463423133e-03" rms="4.8040542006492615e-01" purity="5.5940377712249756e-01" nType="-99"/>
          <Node pos="r" depth="2" NCoef="0" IVar="-1" Cut="0.0000000000000000e+00" cType="1" res="7.5181033462285995e-03" rms="3.9390835165977478e-01" purity="8.0164712667465210e-01" nType="-99"/>
        </Node>
      </Node>
    </BinaryTree>
    <BinaryTree type="DecisionTree" boostWeight="1.0000000000000000e+00" itree="52">
      <Node pos="s" depth="0" NCoef="0" IVar="1" Cut="9.1010588407516479e-01" cType="1" res="6.4805117435753345e-03" rms="4.6902921795845032e-01" purity="4.9688893556594849e-01" nType="0">
        <Node pos="l" depth="1" NCoef="0" IVar="0" Cut="2.5387749671936035e+00" cType="1" res="-3.3119585365056992e-02" rms="4.7059318423271179e-01" purity="3.9448690414428711e-01" nType="0">
          <Node pos="l" depth="2" NCoef="0" IVar="-1" Cut="0.0000000000000000e+00" cType="1" res="-3.5792505368590355e-03" rms="4.6642795205116272e-01" purity="3.5387837886810303e-01" nType="-99"/>
          <Node pos="r" depth="2" NCoef="0" IVar="-1" Cut="0.0000000000000000e+00" cType="1" res="2.7417456731200218e-03" rms="4.8091891407966614e-01" purity="5.8574056625366211e-01" nType="-99"/>
        </Node>
        <Node pos="r" depth="1" NCoef="0" IVar="2" Cut="3.2363143920898438e+02" cType="1" res="5.7177376002073288e-02" rms="4.6209233999252319e-01" purity="6.2798613309860229e-01" nType="0">
          <Node pos="l" depth="2" NCoef="0" IVar="-1" Cut="0.0000000000000000e+00" cType="1" res="9.0602546697482467e-04" rms="4.7772899270057678e-01" purity="5.4369103908538818e-01" nType="-99"/>
          <Node pos="r" depth="2" NCoef="0" IVar="-1" Cut="0.0000000000000000e+00" cType="1" res="5.7828142307698727e-03" rms="4.3932107090950012e-01" purity="7.2157168388366699e-01" nType="-99"/>
        </Node>
      </Node>
    </BinaryTree>
    <BinaryTree type="DecisionTree" boostWeight="1.0000000000000000e+00" itree="53">
      <Node pos="s" depth="0" NCoef="0" IVar="1" Cut="9.6796524524688721e-01" cType="1" res="9.1013414785265923e-03" rms="4.6883010864257812e-01" purity="5.0029039382934570e-01" nType="0">
        <Node pos="l" depth="1" NCoef="0" IVar="0" Cut="3.9768905639648438e+00" cType="1" res="-6.9062691181898117e-03" rms="4.7482362389564514e-01" purity="4.6125605702400208e-01" nType="0">
          <Node pos="l" depth="2" NCoef="0" IVar="-1" Cut="0.0000000000000000e+00" cType="1" res="-1.2860347051173449e-03" rms="4.7653469443321228e-01" purity="4.3476295471191406e-01" nType="-99"/>
          <Node pos="r" depth="2" NCoef="0" IVar="-1" Cut="0.0000000000000000e+00" cType="1" res="6.5268459729850292e-03" rms="4.3603020906448364e-01" purity="7.3082399368286133e-01" nType="-99"/>
        </Node>
        <Node pos="r" depth="1" NCoef="0" IVar="-1" Cut="0.0000000000000000e+00" cType="1" res="7.0500178262591362e-03" rms="4.0217134356498718e-01" purity="7.9026585817337036e-01" nType="-99"/>
      </Node>
    </BinaryTree>
    <BinaryTree type="DecisionTree" boostWeight="1.0000000000000000e+00" itree="54">
      <Node pos="s" depth="0" NCoef="0" IVar="2" Cut="3.1888638305664062e+02" cType="1" res="9.2965178191661835e-03" rms="4.6889036893844604e-01" purity="5.0044345855712891e-01" nType="0">
        <Node pos="l" depth="1" NCoef="0" IVar="0" Cut="8.6582744121551514e-01" cType="1" res="-3.0523328110575676e-02" rms="4.6422070264816284e-01" purity="4.0354058146476746e-01" nType="0">
          <Node pos="l" depth="2" NCoef="0" IVar="-1" Cut="0.0000000000000000e+00" cType="1" res="-7.4697341769933701e-03" rms="4.2768782377243042e-01" purity="2.5158581137657166e-01" nType="-99"/>
          <Node pos="r" depth="2" NCoef="0" IVar="-1" Cut="0.0000000000000000e+00" cType="1" res="-1.1411267769290134e-04" rms="4.7864043712615967e-01" purity="4.7856736183166504e-01" nType="-99"/>
        </Node>
        <Node pos="r" depth="1" NCoef="0" IVar="4" Cut="3.5115948319435120e-01" cType="1" res="5.7003304362297058e-02" rms="4.7000309824943542e-01" purity="6.1653947830200195e-01" nType="0">
          <Node pos="l" depth="2" NCoef="0" IVar="-1" Cut="0.0000000000000000e+00" cType="1" res="5.1033985801041126e-04" rms="4.7886884212493896e-01" purity="5.6531620025634766e-01" nType="-99"/>
          <Node pos="r" depth="2" NCoef="0" IVar="-1" Cut="0.0000000000000000e+00" cType="1" res="6.0502081178128719e-03" rms="4.5418918132781982e-01" purity="6.7272210121154785e-01" nType="-99"/>
        </Node>
      </Node>
    </BinaryTree>
    <BinaryTree type="DecisionTree" boostWeight="1.0000000000000000e+00" itree="55">
      <Node pos="s" depth="0" NCoef="0" IVar="1" Cut="9.6025031805038452e-01" cType="1" res="6.9254697300493717e-03" rms="4.6787732839584351e-01" purity="4.9905598163604736e-01" nType="0">
        <Node pos="l" depth="1" NCoef="0" IVar="2" Cut="4.3977774047851562e+02" cType="1" res="-1.2724341824650764e-02" rms="4.7476533055305481e-01" purity="4.5080304145812988e-01" nType="0">
          <Node pos="l" depth="2" NCoef="0" IVar="-1" Cut="0.0000000000000000e+00" cType="1" res="-2.1133478730916977e-03" rms="4.7286581993103027e-01" purity="4.1415983438491821e-01" nType="-99"/>
          <Node pos="r" depth="2" NCoef="0" IVar="-1" Cut="0.0000000000000000e+00" cType="1" res="4.7350837849080563e-03" rms="4.7247403860092163e-01" purity="6.3755238056182861e-01" nType="-99"/>
        </Node>
        <Node pos="r" depth="1" NCoef="0" IVar="7" Cut="6.8020778894424438e-01" cType="1" res="1.2141329050064087e-01" rms="4.0708926320075989e-01" purity="7.8019732236862183e-01" nType="0">
          <Node pos="l" depth="2" NCoef="0" IVar="-1" Cut="0.0000000000000000e+00" cType="1" res="4.8577040433883667e-03" rms="4.3522909283638000e-01" purity="7.3713606595993042e-01" nType="-99"/>
          <Node pos="r" depth="2" NCoef="0" IVar="-1" Cut="0.0000000000000000e+00" cType="1" res="8.3092646673321724e-03" rms="3.7846708297729492e-01" purity="8.1735312938690186e-01" nType="-99"/>
        </Node>
      </Node>
    </BinaryTree>
    <BinaryTree type="DecisionTree" boostWeight="1.0000000000000000e+00" itree="56">
      <Node pos="s" depth="0" NCoef="0" IVar="1" Cut="8.9847356081008911e-01" cType="1" res="5.6079258210957050e-03" rms="4.6706581115722656e-01" purity="4.9793779850006104e-01" nType="0">
        <Node pos="l" depth="1" NCoef="0" IVar="0" Cut="2.7598154544830322e+00" cType="1" res="-4.7590531408786774e-02" rms="4.6701690554618835e-01" purity="3.7428867816925049e-01" nType="0">
          <Node pos="l" depth="2" NCoef="0" IVar="-1" Cut="0.0000000000000000e+00" cType="1" res="-4.5468029566109180e-03" rms="4.6234789490699768e-01" purity="3.3936876058578491e-01" nType="-99"/>
          <Node pos="r" depth="2" NCoef="0" IVar="-1" Cut="0.0000000000000000e+00" cType="1" res="2.9894579201936722e-03" rms="4.8266854882240295e-01" purity="5.9288883209228516e-01" nType="-99"/>
        </Node>
        <Node pos="r" depth="1" NCoef="0" IVar="2" Cut="2.7611059570312500e+02" cType="1" res="5.1390711218118668e-02" rms="4.6223172545433044e-01" purity="6.0435068607330322e-01" nType="0">
          <Node pos="l" depth="2" NCoef="0" IVar="-1" Cut="0.0000000000000000e+00" cType="1" res="-8.3833624375984073e-04" rms="4.7309267520904541e-01" purity="4.5784389972686768e-01" nType="-99"/>
          <Node pos="r" depth="2" NCoef="0" IVar="-1" Cut="0.0000000000000000e+00" cType="1" res="4.8192176036536694e-03" rms="4.5270782709121704e-01" purity="6.8195468187332153e-01" nType="-99"/>
        </Node>
      </Node>
    </BinaryTree>
    <BinaryTree type="DecisionTree" boostWeight="1.0000000000000000e+00" itree="57">
      <Node pos="s" depth="0" NCoef="0" IVar="0" Cut="4.3995895385742188e+00" cType="1" res="4.8281145282089710e-03" rms="4.6741577982902527e-01" purity="4.9500676989555359e-01" nType="0">
        <Node pos="l" depth="1" NCoef="0" IVar="2" Cut="4.5041409301757812e+02" cType="1" res="-8.2175564020872116e-03" rms="4.7157433629035950e-01" purity="4.6797209978103638e-01" nType="0">
          <Node pos="l" depth="2" NCoef="0" IVar="-1" Cut="0.0000000000000000e+00" cType="1" res="-1.6883484786376357e-03" rms="4.7062680125236511e-01" purity="4.3496090173721313e-01" nType="-99"/>
          <Node pos="r" depth="2" NCoef="0" IVar="-1" Cut="0.0000000000000000e+00" cType="1" res="5.0031905993819237e-03" rms="4.6498870849609375e-01" purity="6.5394616127014160e-01" nType="-99"/>
        </Node>
        <Node pos="r" depth="1" NCoef="0" IVar="-1" Cut="0.0000000000000000e+00" cType="1" res="8.3002774044871330e-03" rms="3.8482040166854858e-01" purity="8.0934852361679077e-01" nType="-99"/>
      </Node>
    </BinaryTree>
    <BinaryTree type="DecisionTree" boostWeight="1.0000000000000000e+00" itree="58">
      <Node pos="s" depth="0" NCoef="0" IVar="0" Cut="3.6142063140869141e+00" cType="1" res="9.7247306257486343e-03" rms="4.6657592058181763e-01" purity="5.0118899345397949e-01" nType="0">
        <Node pos="l" depth="1" NCoef="0" IVar="7" Cut="6.4161455631256104e-01" cType="1" res="-8.5255531594157219e-03" rms="4.7160029411315918e-01" purity="4.5820286870002747e-01" nType="0">
          <Node pos="l" depth="2" NCoef="0" IVar="-1" Cut="0.0000000000000000e+00" cType="1" res="-3.5189625341445208e-03" rms="4.6845808625221252e-01" purity="4.0362235903739929e-01" nType="-99"/>
          <Node pos="r" depth="2" NCoef="0" IVar="-1" Cut="0.0000000000000000e+00" cType="1" res="1.9953818991780281e-03" rms="4.7091490030288696e-01" purity="5.0942313671112061e-01" nType="-99"/>
        </Node>
        <Node pos="r" depth="1" NCoef="0" IVar="0" Cut="4.5182747840881348e+00" cType="1" res="1.1427070200443268e-01" rms="4.2172583937644958e-01" purity="7.4743282794952393e-01" nType="0">
          <Node pos="l" depth="2" NCoef="0" IVar="-1" Cut="0.0000000000000000e+00" cType="1" res="4.4623007997870445e-03" rms="4.5153251290321350e-01" purity="6.9022375345230103e-01" nType="-99"/>
          <Node pos="r" depth="2" NCoef="0" IVar="-1" Cut="0.0000000000000000e+00" cType="1" res="7.9488856717944145e-03" rms="3.8468071818351746e-01" purity="8.0820149183273315e-01" nType="-99"/>
        </Node>
      </Node>
    </BinaryTree>
    <BinaryTree type="DecisionTree" boostWeight="1.0000000000000000e+00" itree="59">
      <Node pos="s" depth="0" NCoef="0" IVar="1" Cut="9.5638424158096313e-01" cType="1" res="9.9026840180158615e-03" rms="4.6701204776763916e-01" purity="5.0225174427032471e-01" nType="0">
        <Node pos="l" depth="1" NCoef="0" IVar="2" Cut="4.1685095214843750e+02" cType="1" res="-1.0048556141555309e-02" rms="4.7462707757949829e-01" purity="4.4816642999649048e-01" nType="0">
          <Node pos="l" depth="2" NCoef="0" IVar="-1" Cut="0.0000000000000000e+00" cType="1" res="-2.0356876775622368e-03" rms="4.7188967466354370e-01" purity="4.0422233939170837e-01" nType="-99"/>
          <Node pos="r" depth="2" NCoef="0" IVar="-1" Cut="0.0000000000000000e+00" cType="1" res="3.9831507019698620e-03" rms="4.7693777084350586e-01" purity="6.2380468845367432e-01" nType="-99"/>
        </Node>
        <Node pos="r" depth="1" NCoef="0" IVar="4" Cut="4.2048779129981995e-01" cType="1" res="1.0589597374200821e-01" rms="4.1529470682144165e-01" purity="7.6247733831405640e-01" nType="0">
          <Node pos="l" depth="2" NCoef="0" IVar="-1" Cut="0.0000000000000000e+00" cType="1" res="3.9569754153490067e-03" rms="4.3356847763061523e-01" purity="7.2722387313842773e-01" nType="-99"/>
          <Node pos="r" depth="2" NCoef="0" IVar="-1" Cut="0.0000000000000000e+00" cType="1" res="8.1500047817826271e-03" rms="3.9037632942199707e-01" purity="8.0079245567321777e-01" nType="-99"/>
        </Node>
      </Node>
    </BinaryTree>
    <BinaryTree type="DecisionTree" boostWeight="1.0000000000000000e+00" itree="60">
      <Node pos="s" depth="0" NCoef="0" IVar="0" Cut="3.5003679990768433e-01" cType="1" res="5.1489481702446938e-03" rms="4.6555256843566895e-01" purity="4.9782422184944153e-01" nType="0">
        <Node pos="l" depth="1" NCoef="0" IVar="2" Cut="2.9304986572265625e+02" cType="1" res="-8.9334949851036072e-02" rms="4.4091290235519409e-01" purity="2.9864031076431274e-01" nType="0">
          <Node pos="l" depth="2" NCoef="0" IVar="-1" Cut="0.0000000000000000e+00" cType="1" res="-1.2428487651050091e-02" rms="3.8146358728408813e-01" purity="1.7951035499572754e-01" nType="-99"/>
          <Node pos="r" depth="2" NCoef="0" IVar="-1" Cut="0.0000000000000000e+00" cType="1" res="-3.2618995755910873e-03" rms="4.8846527934074402e-01" purity="4.1446876525878906e-01" nType="-99"/>
        </Node>
        <Node pos="r" depth="1" NCoef="0" IVar="2" Cut="2.2541445922851562e+02" cType="1" res="2.4027923122048378e-02" rms="4.6804037690162659e-01" purity="5.3762352466583252e-01" nType="0">
          <Node pos="l" depth="2" NCoef="0" IVar="-1" Cut="0.0000000000000000e+00" cType="1" res="-5.4657091386616230e-03" rms="4.4362169504165649e-01" purity="3.2744315266609192e-01" nType="-99"/>
          <Node pos="r" depth="2" NCoef="0" IVar="-1" Cut="0.0000000000000000e+00" cType="1" res="2.4060823488980532e-03" rms="4.7005888819694519e-01" purity="5.7334780693054199e-01" nType="-99"/>
        </Node>
      </Node>
    </BinaryTree>
    <BinaryTree type="DecisionTree" boostWeight="1.0000000000000000e+00" itree="61">
      <Node pos="s" depth="0" NCoef="0" IVar="0" Cut="3.6440405845642090e+00" cType="1" res="3.2236292026937008e-03" rms="4.6654441952705383e-01" purity="4.9484682083129883e-01" nType="0">
        <Node pos="l" depth="1" NCoef="0" IVar="2" Cut="4.2072079467773438e+02" cType="1" res="-1.4278645627200603e-02" rms="4.7128072381019592e-01" purity="4.5250862836837769e-01" nType="0">
          <Node pos="l" depth="2" NCoef="0" IVar="-1" Cut="0.0000000000000000e+00" cType="1" res="-2.2453700657933950e-03" rms="4.6829405426979065e-01" purity="4.1143545508384705e-01" nType="-99"/>
          <Node pos="r" depth="2" NCoef="0" IVar="-1" Cut="0.0000000000000000e+00" cType="1" res="3.7161963991820812e-03" rms="4.7551271319389343e-01" purity="6.2572598457336426e-01" nType="-99"/>
        </Node>
        <Node pos="r" depth="1" NCoef="0" IVar="0" Cut="4.5520009994506836e+00" cType="1" res="1.0804617404937744e-01" rms="4.2218333482742310e-01" purity="7.4841386079788208e-01" nType="0">
          <Node pos="l" depth="2" NCoef="0" IVar="-1" Cut="0.0000000000000000e+00" cType="1" res="3.7251561880111694e-03" rms="4.5546254515647888e-01" purity="6.8196612596511841e-01" nType="-99"/>
          <Node pos="r" depth="2" NCoef="0" IVar="-1" Cut="0.0000000000000000e+00" cType="1" res="8.1197395920753479e-03" rms="3.7914571166038513e-01" purity="8.1894040107727051e-01" nType="-99"/>
        </Node>
      </Node>
    </BinaryTree>
    <BinaryTree type="DecisionTree" boostWeight="1.0000000000000000e+00" itree="62">
      <Node pos="s" depth="0" NCoef="0" IVar="1" Cut="9.5623546838760376e-01" cType="1" res="9.3096978962421417e-03" rms="4.6767991781234741e-01" purity="5.0235569477081299e-01" nType="0">
        <Node pos="l" depth="1" NCoef="0" IVar="2" Cut="4.2518420410156250e+02" cType="1" res="-8.2277832552790642e-03" rms="4.7488507628440857e-01" purity="4.5132955908775330e-01" nType="0">
          <Node pos="l" depth="2" NCoef="0" IVar="-1" Cut="0.0000000000000000e+00" cType="1" res="-1.7879949882626534e-03" rms="4.7288665175437927e-01" purity="4.0989446640014648e-01" nType="-99"/>
          <Node pos="r" depth="2" NCoef="0" IVar="-1" Cut="0.0000000000000000e+00" cType="1" res="4.0535419248044491e-03" rms="4.7513997554779053e-01" purity="6.2962692975997925e-01" nType="-99"/>
        </Node>
        <Node pos="r" depth="1" NCoef="0" IVar="7" Cut="6.3737320899963379e-01" cType="1" res="9.5925018191337585e-02" rms="4.1971626877784729e-01" purity="7.5436723232269287e-01" nType="0">
          <Node pos="l" depth="2" NCoef="0" IVar="-1" Cut="0.0000000000000000e+00" cType="1" res="2.7884738519787788e-03" rms="4.5118850469589233e-01" purity="6.9532394409179688e-01" nType="-99"/>
          <Node pos="r" depth="2" NCoef="0" IVar="-1" Cut="0.0000000000000000e+00" cType="1" res="7.3726880364120007e-03" rms="3.9123523235321045e-01" purity="7.9765802621841431e-01" nType="-99"/>
        </Node>
      </Node>
    </BinaryTree>
    <BinaryTree type="DecisionTree" boostWeight="1.0000000000000000e+00" itree="63">
      <Node pos="s" depth="0" NCoef="0" IVar="0" Cut="9.4352859258651733e-01" cType="1" res="1.2647391296923161e-02" rms="4.6574613451957703e-01" purity="5.0479769706726074e-01" nType="0">
        <Node pos="l" depth="1" NCoef="0" IVar="2" Cut="4.1054794311523438e+02" cType="1" res="-4.7543287277221680e-02" rms="4.5651245117187500e-01" purity="3.4454551339149475e-01" nType="0">
          <Node pos="l" depth="2" NCoef="0" IVar="-1" Cut="0.0000000000000000e+00" cType="1" res="-5.3414693102240562e-03" rms="4.4541355967521667e-01" purity="2.9685682058334351e-01" nType="-99"/>
          <Node pos="r" depth="2" NCoef="0" IVar="-1" Cut="0.0000000000000000e+00" cType="1" res="2.5192399043589830e-03" rms="4.9307599663734436e-01" purity="5.5611646175384521e-01" nType="-99"/>
        </Node>
        <Node pos="r" depth="1" NCoef="0" IVar="3" Cut="5.4866775870323181e-02" cType="1" res="4.0009647607803345e-02" rms="4.6732756495475769e-01" purity="5.7764720916748047e-01" nType="0">
          <Node pos="l" depth="2" NCoef="0" IVar="-1" Cut="0.0000000000000000e+00" cType="1" res="6.0200900770723820e-04" rms="4.6720698475837708e-01" purity="5.5443078279495239e-01" nType="-99"/>
          <Node pos="r" depth="2" NCoef="0" IVar="-1" Cut="0.0000000000000000e+00" cType="1" res="4.8631336539983749e-03" rms="4.6389266848564148e-01" purity="6.1236810684204102e-01" nType="-99"/>
        </Node>
      </Node>
    </BinaryTree>
    <BinaryTree type="DecisionTree" boostWeight="1.0000000000000000e+00" itree="64">
      <Node pos="s" depth="0" NCoef="0" IVar="0" Cut="9.2562794685363770e-01" cType="1" res="6.0527599416673183e-03" rms="4.6579158306121826e-01" purity="4.9795761704444885e-01" nType="0">
        <Node pos="l" depth="1" NCoef="0" IVar="3" Cut="-5.7105392217636108e-02" cType="1" res="-5.3349286317825317e-02" rms="4.5692300796508789e-01" purity="3.3776879310607910e-01" nType="0">
          <Node pos="l" depth="2" NCoef="0" IVar="-1" Cut="0.0000000000000000e+00" cType="1" res="-8.6873332038521767e-03" rms="4.3554046750068665e-01" purity="2.9046466946601868e-01" nType="-99"/>
          <Node pos="r" depth="2" NCoef="0" IVar="-1" Cut="0.0000000000000000e+00" cType="1" res="-2.0446139387786388e-03" rms="4.6391189098358154e-01" purity="3.5903936624526978e-01" nType="-99"/>
        </Node>
        <Node pos="r" depth="1" NCoef="0" IVar="2" Cut="2.6373715209960938e+02" cType="1" res="3.3299375325441360e-02" rms="4.6728405356407166e-01" purity="5.7143318653106689e-01" nType="0">
          <Node pos="l" depth="2" NCoef="0" IVar="-1" Cut="0.0000000000000000e+00" cType="1" res="-2.1075960248708725e-03" rms="4.6853521466255188e-01" purity="4.1206651926040649e-01" nType="-99"/>
          <Node pos="r" depth="2" NCoef="0" IVar="-1" Cut="0.0000000000000000e+00" cType="1" res="3.3738387282937765e-03" rms="4.6416091918945312e-01" purity="6.3686388731002808e-01" nType="-99"/>
        </Node>
      </Node>
    </BinaryTree>
    <BinaryTree type="DecisionTree" boostWeight="1.0000000000000000e+00" itree="65">
      <Node pos="s" depth="0" NCoef="0" IVar="2" Cut="2.2808947753906250e+02" cType="1" res="8.0910194665193558e-03" rms="4.6609464287757874e-01" purity="5.0020694732666016e-01" nType="0">
        <Node pos="l" depth="1" NCoef="0" IVar="6" Cut="1.2092078924179077e+00" cType="1" res="-8.2062393426895142e-02" rms="4.3121552467346191e-01" purity="2.8527998924255371e-01" nType="0">
          <Node pos="l" depth="2" NCoef="0" IVar="-1" Cut="0.0000000000000000e+00" cType="1" res="-2.2506194654852152e-03" rms="4.5296075940132141e-01" purity="3.3995810151100159e-01" nType="-99"/>
          <Node pos="r" depth="2" NCoef="0" IVar="-1" Cut="0.0000000000000000e+00" cType="1" res="-9.9480347707867622e-03" rms="4.1122537851333618e-01" purity="2.4670632183551788e-01" nType="-99"/>
        </Node>
        <Node pos="r" depth="1" NCoef="0" IVar="4" Cut="3.9577001333236694e-01" cType="1" res="2.5924963876605034e-02" rms="4.7064799070358276e-01" purity="5.4272329807281494e-01" nType="0">
          <Node pos="l" depth="2" NCoef="0" IVar="-1" Cut="0.0000000000000000e+00" cType="1" res="-6.9563451688736677e-04" rms="4.7398266196250916e-01" purity="5.0905251502990723e-01" nType="-99"/>
          <Node pos="r" depth="2" NCoef="0" IVar="-1" Cut="0.0000000000000000e+00" cType="1" res="4.1922098025679588e-03" rms="4.6268743276596069e-01" purity="5.8322042226791382e-01" nType="-99"/>
        </Node>
      </Node>
    </BinaryTree>
    <BinaryTree type="DecisionTree" boostWeight="1.0000000000000000e+00" itree="66">
      <Node pos="s" depth="0" NCoef="0" IVar="1" Cut="9.6011507511138916e-01" cType="1" res="7.4197663925588131e-03" rms="4.6658122539520264e-01" purity="5.0034558773040771e-01" nType="0">
        <Node pos="l" depth="1" NCoef="0" IVar="3" Cut="1.8999683856964111e-01" cType="1" res="-8.3078518509864807e-03" rms="4.7339770197868347e-01" purity="4.5355784893035889e-01" nType="0">
          <Node pos="l" depth="2" NCoef="0" IVar="-1" Cut="0.0000000000000000e+00" cType="1" res="-1.5193175058811903e-03" rms="4.7084993124008179e-01" purity="4.3965506553649902e-01" nType="-99"/>
          <Node pos="r" depth="2" NCoef="0" IVar="-1" Cut="0.0000000000000000e+00" cType="1" res="5.3650089539587498e-03" rms="4.7840738296508789e-01" purity="5.4466056823730469e-01" nType="-99"/>
        </Node>
        <Node pos="r" depth="1" NCoef="0" IVar="5" Cut="7.5877920608036220e-05" cType="1" res="9.7092941403388977e-02" rms="4.1438403725624084e-01" purity="7.6711231470108032e-01" nType="0">
          <Node pos="l" depth="2" NCoef="0" IVar="-1" Cut="0.0000000000000000e+00" cType="1" res="6.8469531834125519e-03" rms="3.9315146207809448e-01" purity="8.0177068710327148e-01" nType="-99"/>
          <Node pos="r" depth="2" NCoef="0" IVar="-1" Cut="0.0000000000000000e+00" cType="1" res="3.8406276144087315e-03" rms="4.3826374411582947e-01" purity="7.2249412536621094e-01" nType="-99"/>
        </Node>
      </Node>
    </BinaryTree>
    <BinaryTree type="DecisionTree" boostWeight="1.0000000000000000e+00" itree="67">
      <Node pos="s" depth="0" NCoef="0" IVar="1" Cut="8.8692367076873779e-01" cType="1" res="6.9123292341828346e-03" rms="4.6557781100273132e-01" purity="4.9966973066329956e-01" nType="0">
        <Node pos="l" depth="1" NCoef="0" IVar="4" Cut="3.9128407835960388e-01" cType="1" res="-4.5696269720792770e-02" rms="4.6281233429908752e-01" purity="3.6845326423645020e-01" nType="0">
          <Node pos="l" depth="2" NCoef="0" IVar="-1" Cut="0.0000000000000000e+00" cType="1" res="-5.8527076616883278e-03" rms="4.5795354247093201e-01" purity="3.4268680214881897e-01" nType="-99"/>
          <Node pos="r" depth="2" NCoef="0" IVar="-1" Cut="0.0000000000000000e+00" cType="1" res="-3.9389936137013137e-04" rms="4.6452072262763977e-01" purity="3.9543521404266357e-01" nType="-99"/>
        </Node>
        <Node pos="r" depth="1" NCoef="0" IVar="2" Cut="3.4827755737304688e+02" cType="1" res="3.8286950439214706e-02" rms="4.6439090371131897e-01" purity="5.7792437076568604e-01" nType="0">
          <Node pos="l" depth="2" NCoef="0" IVar="-1" Cut="0.0000000000000000e+00" cType="1" res="6.0429528821259737e-04" rms="4.7274523973464966e-01" purity="5.0804799795150757e-01" nType="-99"/>
          <Node pos="r" depth="2" NCoef="0" IVar="-1" Cut="0.0000000000000000e+00" cType="1" res="4.8970519565045834e-03" rms="4.4605550169944763e-01" purity="6.9412565231323242e-01" nType="-99"/>
        </Node>
      </Node>
    </BinaryTree>
    <BinaryTree type="DecisionTree" boostWeight="1.0000000000000000e+00" itree="68">
      <Node pos="s" depth="0" NCoef="0" IVar="1" Cut="9.5626437664031982e-01" cType="1" res="6.6513628698885441e-03" rms="4.6624419093132019e-01" purity="4.9888101220130920e-01" nType="0">
        <Node pos="l" depth="1" NCoef="0" IVar="3" Cut="6.3782408833503723e-02" cType="1" res="-1.0460883378982544e-02" rms="4.7351747751235962e-01" purity="4.4482979178428650e-01" nType="0">
          <Node pos="l" depth="2" NCoef="0" IVar="-1" Cut="0.0000000000000000e+00" cType="1" res="-2.7347356081008911e-03" rms="4.6893146634101868e-01" purity="4.1598460078239441e-01" nType="-99"/>
          <Node pos="r" depth="2" NCoef="0" IVar="-1" Cut="0.0000000000000000e+00" cType="1" res="2.4567155633121729e-03" rms="4.7675031423568726e-01" purity="4.9194216728210449e-01" nType="-99"/>
        </Node>
        <Node pos="r" depth="1" NCoef="0" IVar="4" Cut="4.7078123688697815e-01" cType="1" res="8.7905980646610260e-02" rms="4.2063668370246887e-01" purity="7.5553405284881592e-01" nType="0">
          <Node pos="l" depth="2" NCoef="0" IVar="-1" Cut="0.0000000000000000e+00" cType="1" res="3.6100575234740973e-03" rms="4.3312609195709229e-01" purity="7.2959709167480469e-01" nType="-99"/>
          <Node pos="r" depth="2" NCoef="0" IVar="-1" Cut="0.0000000000000000e+00" cType="1" res="7.3721297085285187e-03" rms="3.9694342017173767e-01" purity="7.9577922821044922e-01" nType="-99"/>
        </Node>
      </Node>
    </BinaryTree>
    <BinaryTree type="DecisionTree" boostWeight="1.0000000000000000e+00" itree="69">
      <Node pos="s" depth="0" NCoef="0" IVar="0" Cut="3.9315703511238098e-01" cType="1" res="4.5954869128763676e-03" rms="4.6506422758102417e-01" purity="4.9612936377525330e-01" nType="0">
        <Node pos="l" depth="1" NCoef="0" IVar="7" Cut="7.1196329593658447e-01" cType="1" res="-8.4797613322734833e-02" rms="4.4102683663368225e-01" purity="2.9390597343444824e-01" nType="0">
          <Node pos="l" depth="2" NCoef="0" IVar="-1" Cut="0.0000000000000000e+00" cType="1" res="-9.9679119884967804e-03" rms="4.2076116800308228e-01" purity="2.4959458410739899e-01" nType="-99"/>
          <Node pos="r" depth="2" NCoef="0" IVar="-1" Cut="0.0000000000000000e+00" cType="1" res="-2.6457451749593019e-03" rms="4.6502992510795593e-01" purity="3.5939368605613708e-01" nType="-99"/>
        </Node>
        <Node pos="r" depth="1" NCoef="0" IVar="2" Cut="2.1576829528808594e+02" cType="1" res="2.3607093840837479e-02" rms="4.6782031655311584e-01" purity="5.3913700580596924e-01" nType="0">
          <Node pos="l" depth="2" NCoef="0" IVar="-1" Cut="0.0000000000000000e+00" cType="1" res="-6.0342065989971161e-03" rms="4.4413030147552490e-01" purity="3.1069061160087585e-01" nType="-99"/>
          <Node pos="r" depth="2" NCoef="0" IVar="-1" Cut="0.0000000000000000e+00" cType="1" res="2.2071045823395252e-03" rms="4.6918201446533203e-01" purity="5.6914365291595459e-01" nType="-99"/>
        </Node>
      </Node>
    </BinaryTree>
    <BinaryTree type="DecisionTree" boostWeight="1.0000000000000000e+00" itree="70">
      <Node pos="s" depth="0" NCoef="0" IVar="0" Cut="3.8792002201080322e+00" cType="1" res="6.4092520624399185e-03" rms="4.6477273106575012e-01" purity="4.9943822622299194e-01" nType="0">
        <Node pos="l" depth="1" NCoef="0" IVar="2" Cut="4.9201309204101562e+02" cType="1" res="-7.8218448907136917e-03" rms="4.7008955478668213e-01" purity="4.6120795607566833e-01" nType="0">
          <Node pos="l" depth="2" NCoef="0" IVar="-1" Cut="0.0000000000000000e+00" cType="1" res="-1.3094642199575901e-03" rms="4.6955388784408569e-01" purity="4.3686759471893311e-01" nType="-99"/>
          <Node pos="r" depth="2" NCoef="0" IVar="-1" Cut="0.0000000000000000e+00" cType="1" res="5.0883637741208076e-03" rms="4.6295255422592163e-01" purity="6.6364556550979614e-01" nType="-99"/>
        </Node>
        <Node pos="r" depth="1" NCoef="0" IVar="-1" Cut="0.0000000000000000e+00" cType="1" res="5.7629491202533245e-03" rms="4.1351431608200073e-01" purity="7.6170843839645386e-01" nType="-99"/>
      </Node>
    </BinaryTree>
    <BinaryTree type="DecisionTree" boostWeight="1.0000000000000000e+00" itree="71">
      <Node pos="s" depth="0" NCoef="0" IVar="1" Cut="9.6008259057998657e-01" cType="1" res="8.7812691926956177e-03" rms="4.6576076745986938e-01" purity="5.0126940011978149e-01" nType="0">
        <Node pos="l" depth="1" NCoef="0" IVar="3" Cut="-7.6851457357406616e-02" cType="1" res="-6.5392754040658474e-03" rms="4.7343608736991882e-01" purity="4.5389387011528015e-01" nType="0">
          <Node pos="l" depth="2" NCoef="0" IVar="-1" Cut="0.0000000000000000e+00" cType="1" res="-4.9333674833178520e-03" rms="4.6145811676979065e-01" purity="3.9629578590393066e-01" nType="-99"/>
          <Node pos="r" depth="2" NCoef="0" IVar="-1" Cut="0.0000000000000000e+00" cType="1" res="9.0165832079946995e-04" rms="4.7523266077041626e-01" purity="4.7191444039344788e-01" nType="-99"/>
        </Node>
        <Node pos="r" depth="1" NCoef="0" IVar="1" Cut="9.7786390781402588e-01" cType="1" res="9.7317010164260864e-02" rms="4.0752944350242615e-01" purity="7.7504760026931763e-01" nType="0">
          <Node pos="l" depth="2" NCoef="0" IVar="-1" Cut="0.0000000000000000e+00" cType="1" res="3.9239106699824333e-03" rms="4.3579858541488647e-01" purity="7.2589558362960815e-01" nType="-99"/>
          <Node pos="r" depth="2" NCoef="0" IVar="-1" Cut="0.0000000000000000e+00" cType="1" res="7.3182755149900913e-03" rms="3.7461897730827332e-01" purity="8.2404792308807373e-01" nType="-99"/>
        </Node>
      </Node>
    </BinaryTree>
    <BinaryTree type="DecisionTree" boostWeight="1.0000000000000000e+00" itree="72">
      <Node pos="s" depth="0" NCoef="0" IVar="1" Cut="8.9468371868133545e-01" cType="1" res="9.8635004833340645e-03" rms="4.6538543701171875e-01" purity="5.0075447559356689e-01" nType="0">
        <Node pos="l" depth="1" NCoef="0" IVar="2" Cut="2.2387429809570312e+02" cType="1" res="-3.0977409332990646e-02" rms="4.6421438455581665e-01" purity="3.8355404138565063e-01" nType="0">
          <Node pos="l" depth="2" NCoef="0" IVar="-1" Cut="0.0000000000000000e+00" cType="1" res="-1.0519142262637615e-02" rms="3.7558677792549133e-01" purity="1.8227298557758331e-01" nType="-99"/>
          <Node pos="r" depth="2" NCoef="0" IVar="-1" Cut="0.0000000000000000e+00" cType="1" res="-9.0806355001404881e-04" rms="4.7836640477180481e-01" purity="4.2427593469619751e-01" nType="-99"/>
        </Node>
        <Node pos="r" depth="1" NCoef="0" IVar="7" Cut="6.9237369298934937e-01" cType="1" res="4.2788106948137283e-02" rms="4.6371597051620483e-01" purity="5.9523761272430420e-01" nType="0">
          <Node pos="l" depth="2" NCoef="0" IVar="-1" Cut="0.0000000000000000e+00" cType="1" res="4.9466639757156372e-04" rms="4.7106516361236572e-01" purity="5.4974108934402466e-01" nType="-99"/>
          <Node pos="r" depth="2" NCoef="0" IVar="-1" Cut="0.0000000000000000e+00" cType="1" res="5.0644446164369583e-03" rms="4.5053321123123169e-01" purity="6.5229374170303345e-01" nType="-99"/>
        </Node>
      </Node>
    </BinaryTree>
    <BinaryTree type="DecisionTree" boostWeight="1.0000000000000000e+00" itree="73">
      <Node pos="s" depth="0" NCoef="0" IVar="2" Cut="2.1613893127441406e+02" cType="1" res="6.0792132280766964e-03" rms="4.6269300580024719e-01" purity="5.0010573863983154e-01" nType="0">
        <Node pos="l" depth="1" NCoef="0" IVar="3" Cut="3.6247141659259796e-02" cType="1" res="-9.9792711436748505e-02" rms="4.1268742084503174e-01" purity="2.6161924004554749e-01" nType="0">
          <Node pos="l" depth="2" NCoef="0" IVar="-1" Cut="0.0000000000000000e+00" cType="1" res="-1.2210736051201820e-02" rms="3.8927179574966431e-01" purity="2.2095611691474915e-01" nType="-99"/>
          <Node pos="r" depth="2" NCoef="0" IVar="-1" Cut="0.0000000000000000e+00" cType="1" res="-3.8818360771983862e-03" rms="4.3545237183570862e-01" purity="3.1301644444465637e-01" nType="-99"/>
        </Node>
        <Node pos="r" depth="1" NCoef="0" IVar="1" Cut="8.9463186264038086e-01" cType="1" res="2.0324895158410072e-02" rms="4.6718701720237732e-01" purity="5.3219544887542725e-01" nType="0">
          <Node pos="l" depth="2" NCoef="0" IVar="-1" Cut="0.0000000000000000e+00" cType="1" res="-1.5687440754845738e-03" rms="4.7391387820243835e-01" purity="4.0919339656829834e-01" nType="-99"/>
          <Node pos="r" depth="2" NCoef="0" IVar="-1" Cut="0.0000000000000000e+00" cType="1" res="3.1903565395623446e-03" rms="4.5922833681106567e-01" purity="6.2510704994201660e-01" nType="-99"/>
        </Node>
      </Node>
    </BinaryTree>
    <BinaryTree type="DecisionTree" boostWeight="1.0000000000000000e+00" itree="74">
      <Node pos="s" depth="0" NCoef="0" IVar="0" Cut="3.5692012310028076e+00" cType="1" res="7.4762646108865738e-03" rms="4.6301656961441040e-01" purity="5.0229239463806152e-01" nType="0">
        <Node pos="l" depth="1" NCoef="0" IVar="4" Cut="3.9156106114387512e-01" cType="1" res="-8.1050405278801918e-03" rms="4.6804451942443848e-01" purity="4.5845118165016174e-01" nType="0">
          <Node pos="l" depth="2" NCoef="0" IVar="-1" Cut="0.0000000000000000e+00" cType="1" res="-2.8670672327280045e-03" rms="4.6848338842391968e-01" purity="4.3233844637870789e-01" nType="-99"/>
          <Node pos="r" depth="2" NCoef="0" IVar="-1" Cut="0.0000000000000000e+00" cType="1" res="1.7603712622076273e-03" rms="4.6493658423423767e-01" purity="4.8494508862495422e-01" nType="-99"/>
        </Node>
        <Node pos="r" depth="1" NCoef="0" IVar="7" Cut="6.2167137861251831e-01" cType="1" res="9.2453427612781525e-02" rms="4.2462712526321411e-01" purity="7.4139314889907837e-01" nType="0">
          <Node pos="l" depth="2" NCoef="0" IVar="-1" Cut="0.0000000000000000e+00" cType="1" res="3.1191443558782339e-03" rms="4.4995969533920288e-01" purity="6.8963652849197388e-01" nType="-99"/>
          <Node pos="r" depth="2" NCoef="0" IVar="-1" Cut="0.0000000000000000e+00" cType="1" res="6.5506603568792343e-03" rms="4.0345069766044617e-01" purity="7.7846544981002808e-01" nType="-99"/>
        </Node>
      </Node>
    </BinaryTree>
    <BinaryTree type="DecisionTree" boostWeight="1.0000000000000000e+00" itree="75">
      <Node pos="s" depth="0" NCoef="0" IVar="2" Cut="2.1995570373535156e+02" cType="1" res="4.0155872702598572e-03" rms="4.6346566081047058e-01" purity="4.9736529588699341e-01" nType="0">
        <Node pos="l" depth="1" NCoef="0" IVar="3" Cut="3.9386153221130371e-03" cType="1" res="-9.0598434209823608e-02" rms="4.1690108180046082e-01" purity="2.6394692063331604e-01" nType="0">
          <Node pos="l" depth="2" NCoef="0" IVar="-1" Cut="0.0000000000000000e+00" cType="1" res="-1.1950817890465260e-02" rms="3.9066594839096069e-01" purity="2.1118178963661194e-01" nType="-99"/>
          <Node pos="r" depth="2" NCoef="0" IVar="-1" Cut="0.0000000000000000e+00" cType="1" res="-4.2641158215701580e-03" rms="4.3452244997024536e-01" purity="3.0829274654388428e-01" nType="-99"/>
        </Node>
        <Node pos="r" depth="1" NCoef="0" IVar="4" Cut="3.9156106114387512e-01" cType="1" res="1.8054708838462830e-02" rms="4.6835651993751526e-01" purity="5.3200060129165649e-01" nType="0">
          <Node pos="l" depth="2" NCoef="0" IVar="-1" Cut="0.0000000000000000e+00" cType="1" res="-1.5546540962532163e-03" rms="4.7093114256858826e-01" purity="4.9123504757881165e-01" nType="-99"/>
          <Node pos="r" depth="2" NCoef="0" IVar="-1" Cut="0.0000000000000000e+00" cType="1" res="3.9503909647464752e-03" rms="4.6084132790565491e-01" purity="5.7760721445083618e-01" nType="-99"/>
        </Node>
      </Node>
    </BinaryTree>
    <BinaryTree type="DecisionTree" boostWeight="1.0000000000000000e+00" itree="76">
      <Node pos="s" depth="0" NCoef="0" IVar="3" Cut="1.4373177289962769e-01" cType="1" res="6.9501004181802273e-03" rms="4.6459364891052246e-01" purity="5.0088351964950562e-01" nType="0">
        <Node pos="l" depth="1" NCoef="0" IVar="7" Cut="6.1421167850494385e-01" cType="1" res="-1.3319185934960842e-02" rms="4.6285101771354675e-01" purity="4.8276463150978088e-01" nType="0">
          <Node pos="l" depth="2" NCoef="0" IVar="-1" Cut="0.0000000000000000e+00" cType="1" res="-6.3895462080836296e-03" rms="4.5650136470794678e-01" purity="3.7956658005714417e-01" nType="-99"/>
          <Node pos="r" depth="2" NCoef="0" IVar="-1" Cut="0.0000000000000000e+00" cType="1" res="1.3540802756324410e-03" rms="4.6143326163291931e-01" purity="5.2891194820404053e-01" nType="-99"/>
        </Node>
        <Node pos="r" depth="1" NCoef="0" IVar="0" Cut="9.5078504085540771e-01" cType="1" res="8.4378585219383240e-02" rms="4.6309456229209900e-01" purity="5.7009744644165039e-01" nType="0">
          <Node pos="l" depth="2" NCoef="0" IVar="-1" Cut="0.0000000000000000e+00" cType="1" res="9.2854758258908987e-04" rms="4.7085681557655334e-01" purity="3.9114579558372498e-01" nType="-99"/>
          <Node pos="r" depth="2" NCoef="0" IVar="-1" Cut="0.0000000000000000e+00" cType="1" res="6.4118634909391403e-03" rms="4.5647245645523071e-01" purity="6.4508074522018433e-01" nType="-99"/>
        </Node>
      </Node>
    </BinaryTree>
    <BinaryTree type="DecisionTree" boostWeight="1.0000000000000000e+00" itree="77">
      <Node pos="s" depth="0" NCoef="0" IVar="2" Cut="2.2647708129882812e+02" cType="1" res="6.8132225424051285e-03" rms="4.6425011754035950e-01" purity="5.0081169605255127e-01" nType="0">
        <Node pos="l" depth="1" NCoef="0" IVar="3" Cut="3.3679302781820297e-02" cType="1" res="-7.5666546821594238e-02" rms="4.2498385906219482e-01" purity="2.8363090753555298e-01" nType="0">
          <Node pos="l" depth="2" NCoef="0" IVar="-1" Cut="0.0000000000000000e+00" cType="1" res="-9.5272995531558990e-03" rms="4.0673586726188660e-01" purity="2.4005685746669769e-01" nType="-99"/>
          <Node pos="r" depth="2" NCoef="0" IVar="-1" Cut="0.0000000000000000e+00" cType="1" res="-2.8272040653973818e-03" rms="4.4126138091087341e-01" purity="3.3231559395790100e-01" nType="-99"/>
        </Node>
        <Node pos="r" depth="1" NCoef="0" IVar="0" Cut="6.5323448181152344e-01" cType="1" res="2.2001106292009354e-02" rms="4.6954706311225891e-01" purity="5.4080349206924438e-01" nType="0">
          <Node pos="l" depth="2" NCoef="0" IVar="-1" Cut="0.0000000000000000e+00" cType="1" res="-3.3346903510391712e-03" rms="4.6851527690887451e-01" purity="3.6101683974266052e-01" nType="-99"/>
          <Node pos="r" depth="2" NCoef="0" IVar="-1" Cut="0.0000000000000000e+00" cType="1" res="2.4761429522186518e-03" rms="4.6797284483909607e-01" purity="5.9440600872039795e-01" nType="-99"/>
        </Node>
      </Node>
    </BinaryTree>
    <BinaryTree type="DecisionTree" boostWeight="1.0000000000000000e+00" itree="78">
      <Node pos="s" depth="0" NCoef="0" IVar="6" Cut="9.1745477914810181e-01" cType="1" res="9.4656571745872498e-03" rms="4.6283945441246033e-01" purity="5.0315386056900024e-01" nType="0">
        <Node pos="l" depth="1" NCoef="0" IVar="0" Cut="5.8284854888916016e-01" cType="1" res="6.4543448388576508e-02" rms="4.6228381991386414e-01" purity="5.8595257997512817e-01" nType="0">
          <Node pos="l" depth="2" NCoef="0" IVar="-1" Cut="0.0000000000000000e+00" cType="1" res="-8.2773309259209782e-05" rms="4.7635364532470703e-01" purity="4.0003767609596252e-01" nType="-99"/>
          <Node pos="r" depth="2" NCoef="0" IVar="-1" Cut="0.0000000000000000e+00" cType="1" res="4.7299368306994438e-03" rms="4.5701009035110474e-01" purity="6.3429456949234009e-01" nType="-99"/>
        </Node>
        <Node pos="r" depth="1" NCoef="0" IVar="4" Cut="3.6027136445045471e-01" cType="1" res="-1.4096565544605255e-02" rms="4.6107193827629089e-01" purity="4.6773263812065125e-01" nType="0">
          <Node pos="l" depth="2" NCoef="0" IVar="-1" Cut="0.0000000000000000e+00" cType="1" res="-3.9011528715491295e-03" rms="4.6311157941818237e-01" purity="4.2528286576271057e-01" nType="-99"/>
          <Node pos="r" depth="2" NCoef="0" IVar="-1" Cut="0.0000000000000000e+00" cType="1" res="1.1833186727017164e-03" rms="4.5686644315719604e-01" purity="4.9918454885482788e-01" nType="-99"/>
        </Node>
      </Node>
    </BinaryTree>
    <BinaryTree type="DecisionTree" boostWeight="1.0000000000000000e+00" itree="79">
      <Node pos="s" depth="0" NCoef="0" IVar="2" Cut="3.9567953491210938e+02" cType="1" res="1.1057194322347641e-02" rms="4.6250286698341370e-01" purity="5.0531357526779175e-01" nType="0">
        <Node pos="l" depth="1" NCoef="0" IVar="4" Cut="2.2832843661308289e-01" cType="1" res="-1.0999292135238647e-02" rms="4.6312123537063599e-01" purity="4.5123824477195740e-01" nType="0">
          <Node pos="l" depth="2" NCoef="0" IVar="-1" Cut="0.0000000000000000e+00" cType="1" res="-6.9335433654487133e-03" rms="4.5729860663414001e-01" purity="3.6232715845108032e-01" nType="-99"/>
          <Node pos="r" depth="2" NCoef="0" IVar="-1" Cut="0.0000000000000000e+00" cType="1" res="4.8662524204701185e-04" rms="4.6228632330894470e-01" purity="4.7028058767318726e-01" nType="-99"/>
        </Node>
        <Node pos="r" depth="1" NCoef="0" IVar="4" Cut="3.4597766399383545e-01" cType="1" res="7.6957732439041138e-02" rms="4.5431521534919739e-01" purity="6.6688042879104614e-01" nType="0">
          <Node pos="l" depth="2" NCoef="0" IVar="-1" Cut="0.0000000000000000e+00" cType="1" res="1.9947993569076061e-03" rms="4.6955966949462891e-01" purity="6.1252480745315552e-01" nType="-99"/>
          <Node pos="r" depth="2" NCoef="0" IVar="-1" Cut="0.0000000000000000e+00" cType="1" res="7.2431210428476334e-03" rms="4.2741230130195618e-01" purity="7.3730242252349854e-01" nType="-99"/>
        </Node>
      </Node>
    </BinaryTree>
    <BinaryTree type="DecisionTree" boostWeight="1.0000000000000000e+00" itree="80">
      <Node pos="s" depth="0" NCoef="0" IVar="0" Cut="4.0574622154235840e+00" cType="1" res="1.5346457075793296e-04" rms="4.6161901950836182e-01" purity="4.9401876330375671e-01" nType="0">
        <Node pos="l" depth="1" NCoef="0" IVar="3" Cut="2.3086149245500565e-02" cType="1" res="-1.3732592575252056e-02" rms="4.6661099791526794e-01" purity="4.5924940705299377e-01" nType="0">
          <Node pos="l" depth="2" NCoef="0" IVar="-1" Cut="0.0000000000000000e+00" cType="1" res="-2.7942766901105642e-03" rms="4.6202352643013000e-01" purity="4.3361324071884155e-01" nType="-99"/>
          <Node pos="r" depth="2" NCoef="0" IVar="-1" Cut="0.0000000000000000e+00" cType="1" res="1.1650990927591920e-03" rms="4.6978482604026794e-01" purity="4.8861807584762573e-01" nType="-99"/>
        </Node>
        <Node pos="r" depth="1" NCoef="0" IVar="-1" Cut="0.0000000000000000e+00" cType="1" res="6.4387964084744453e-03" rms="3.9969238638877869e-01" purity="7.8257983922958374e-01" nType="-99"/>
      </Node>
    </BinaryTree>
    <BinaryTree type="DecisionTree" boostWeight="1.0000000000000000e+00" itree="81">
      <Node pos="s" depth="0" NCoef="0" IVar="0" Cut="9.2342090606689453e-01" cType="1" res="1.0805584490299225e-02" rms="4.6447154879570007e-01" purity="5.0396215915679932e-01" nType="0">
        <Node pos="l" depth="1" NCoef="0" IVar="4" Cut="2.6651796698570251e-01" cType="1" res="-4.0416471660137177e-02" rms="4.5631951093673706e-01" purity="3.4241935610771179e-01" nType="0">
          <Node pos="l" depth="2" NCoef="0" IVar="-1" Cut="0.0000000000000000e+00" cType="1" res="-7.9865781590342522e-03" rms="4.4104358553886414e-01" purity="2.9617923498153687e-01" nType="-99"/>
          <Node pos="r" depth="2" NCoef="0" IVar="-1" Cut="0.0000000000000000e+00" cType="1" res="-1.3581459643319249e-03" rms="4.5973715186119080e-01" purity="3.5925877094268799e-01" nType="-99"/>
        </Node>
        <Node pos="r" depth="1" NCoef="0" IVar="4" Cut="2.5532570481300354e-01" cType="1" res="3.3923815935850143e-02" rms="4.6626502275466919e-01" purity="5.7687181234359741e-01" nType="0">
          <Node pos="l" depth="2" NCoef="0" IVar="-1" Cut="0.0000000000000000e+00" cType="1" res="-1.4912455808371305e-03" rms="4.7329252958297729e-01" purity="5.1610714197158813e-01" nType="-99"/>
          <Node pos="r" depth="2" NCoef="0" IVar="-1" Cut="0.0000000000000000e+00" cType="1" res="3.2341668847948313e-03" rms="4.6189233660697937e-01" purity="5.9889602661132812e-01" nType="-99"/>
        </Node>
      </Node>
    </BinaryTree>
    <BinaryTree type="DecisionTree" boostWeight="1.0000000000000000e+00" itree="82">
      <Node pos="s" depth="0" NCoef="0" IVar="1" Cut="9.6383005380630493e-01" cType="1" res="2.0234044641256332e-03" rms="4.6266600489616394e-01" purity="4.9376997351646423e-01" nType="0">
        <Node pos="l" depth="1" NCoef="0" IVar="2" Cut="4.9201309204101562e+02" cType="1" res="-1.1061025783419609e-02" rms="4.6917843818664551e-01" purity="4.5005992054939270e-01" nType="0">
          <Node pos="l" depth="2" NCoef="0" IVar="-1" Cut="0.0000000000000000e+00" cType="1" res="-1.5628179535269737e-03" rms="4.6852087974548340e-01" purity="4.2287859320640564e-01" nType="-99"/>
          <Node pos="r" depth="2" NCoef="0" IVar="-1" Cut="0.0000000000000000e+00" cType="1" res="4.8552337102591991e-03" rms="4.6297729015350342e-01" purity="6.6361254453659058e-01" nType="-99"/>
        </Node>
        <Node pos="r" depth="1" NCoef="0" IVar="7" Cut="6.7334288358688354e-01" cType="1" res="8.5891798138618469e-02" rms="4.0869334340095520e-01" purity="7.7394199371337891e-01" nType="0">
          <Node pos="l" depth="2" NCoef="0" IVar="-1" Cut="0.0000000000000000e+00" cType="1" res="2.9912437312304974e-03" rms="4.3840649724006653e-01" purity="7.2439438104629517e-01" nType="-99"/>
          <Node pos="r" depth="2" NCoef="0" IVar="-1" Cut="0.0000000000000000e+00" cType="1" res="7.0353527553379536e-03" rms="3.7432321906089783e-01" purity="8.2204884290695190e-01" nType="-99"/>
        </Node>
      </Node>
    </BinaryTree>
    <BinaryTree type="DecisionTree" boostWeight="1.0000000000000000e+00" itree="83">
      <Node pos="s" depth="0" NCoef="0" IVar="7" Cut="6.5327823162078857e-01" cType="1" res="8.7786186486482620e-03" rms="4.6519386768341064e-01" purity="5.0163567066192627e-01" nType="0">
        <Node pos="l" depth="1" NCoef="0" IVar="3" Cut="6.9651119410991669e-02" cType="1" res="-2.3859385401010513e-02" rms="4.6738278865814209e-01" purity="4.5230180025100708e-01" nType="0">
          <Node pos="l" depth="2" NCoef="0" IVar="-1" Cut="0.0000000000000000e+00" cType="1" res="-7.0641757920384407e-03" rms="4.5191156864166260e-01" purity="3.6617559194564819e-01" nType="-99"/>
          <Node pos="r" depth="2" NCoef="0" IVar="-1" Cut="0.0000000000000000e+00" cType="1" res="2.0494100172072649e-03" rms="4.7088906168937683e-01" purity="5.1713854074478149e-01" nType="-99"/>
        </Node>
        <Node pos="r" depth="1" NCoef="0" IVar="0" Cut="2.6020295619964600e+00" cType="1" res="4.1950847953557968e-02" rms="4.6059477329254150e-01" purity="5.5177700519561768e-01" nType="0">
          <Node pos="l" depth="2" NCoef="0" IVar="-1" Cut="0.0000000000000000e+00" cType="1" res="1.2529301457107067e-03" rms="4.7251090407371521e-01" purity="4.7531196475028992e-01" nType="-99"/>
          <Node pos="r" depth="2" NCoef="0" IVar="-1" Cut="0.0000000000000000e+00" cType="1" res="5.5016479454934597e-03" rms="4.2379370331764221e-01" purity="7.4410462379455566e-01" nType="-99"/>
        </Node>
      </Node>
    </BinaryTree>
    <BinaryTree type="DecisionTree" boostWeight="1.0000000000000000e+00" itree="84">
      <Node pos="s" depth="0" NCoef="0" IVar="2" Cut="2.1995570373535156e+02" cType="1" res="7.8704264014959335e-03" rms="4.6296352148056030e-01" purity="5.0054383277893066e-01" nType="0">
        <Node pos="l" depth="1" NCoef="0" IVar="2" Cut="2.0102577209472656e+02" cType="1" res="-8.7459050118923187e-02" rms="4.1315105557441711e-01" purity="2.6196730136871338e-01" nType="0">
          <Node pos="l" depth="2" NCoef="0" IVar="-1" Cut="0.0000000000000000e+00" cType="1" res="-9.9382232874631882e-03" rms="3.9371559023857117e-01" purity="2.3031437397003174e-01" nType="-99"/>
          <Node pos="r" depth="2" NCoef="0" IVar="-1" Cut="0.0000000000000000e+00" cType="1" res="-4.7557135112583637e-03" rms="4.3149238824844360e-01" purity="2.9637235403060913e-01" nType="-99"/>
        </Node>
        <Node pos="r" depth="1" NCoef="0" IVar="4" Cut="3.6867603659629822e-01" cType="1" res="2.2178785875439644e-02" rms="4.6831271052360535e-01" purity="5.3635269403457642e-01" nType="0">
          <Node pos="l" depth="2" NCoef="0" IVar="-1" Cut="0.0000000000000000e+00" cType="1" res="-9.6891145221889019e-04" rms="4.7278866171836853e-01" purity="4.9734413623809814e-01" nType="-99"/>
          <Node pos="r" depth="2" NCoef="0" IVar="-1" Cut="0.0000000000000000e+00" cType="1" res="3.4410902298986912e-03" rms="4.6149611473083496e-01" purity="5.7219493389129639e-01" nType="-99"/>
        </Node>
      </Node>
    </BinaryTree>
    <BinaryTree type="DecisionTree" boostWeight="1.0000000000000000e+00" itree="85">
      <Node pos="s" depth="0" NCoef="0" IVar="2" Cut="4.2044451904296875e+02" cType="1" res="7.2813350707292557e-03" rms="4.6151506900787354e-01" purity="5.0097572803497314e-01" nType="0">
        <Node pos="l" depth="1" NCoef="0" IVar="4" Cut="3.6056807637214661e-01" cType="1" res="-1.1624936945736408e-02" rms="4.6241086721420288e-01" purity="4.5513820648193359e-01" nType="0">
          <Node pos="l" depth="2" NCoef="0" IVar="-1" Cut="0.0000000000000000e+00" cType="1" res="-3.7116275634616613e-03" rms="4.6144598722457886e-01" purity="4.0808838605880737e-01" nType="-99"/>
          <Node pos="r" depth="2" NCoef="0" IVar="-1" Cut="0.0000000000000000e+00" cType="1" res="1.1746669188141823e-03" rms="4.6076926589012146e-01" purity="4.8808923363685608e-01" nType="-99"/>
        </Node>
        <Node pos="r" depth="1" NCoef="0" IVar="4" Cut="2.1555067598819733e-01" cType="1" res="8.1461258232593536e-02" rms="4.5038163661956787e-01" purity="6.8082213401794434e-01" nType="0">
          <Node pos="l" depth="2" NCoef="0" IVar="-1" Cut="0.0000000000000000e+00" cType="1" res="1.0476456955075264e-03" rms="4.7038012742996216e-01" purity="5.9862416982650757e-01" nType="-99"/>
          <Node pos="r" depth="2" NCoef="0" IVar="-1" Cut="0.0000000000000000e+00" cType="1" res="6.0988259501755238e-03" rms="4.3854400515556335e-01" purity="7.1649569272994995e-01" nType="-99"/>
        </Node>
      </Node>
    </BinaryTree>
    <BinaryTree type="DecisionTree" boostWeight="1.0000000000000000e+00" itree="86">
      <Node pos="s" depth="0" NCoef="0" IVar="1" Cut="9.0239775180816650e-01" cType="1" res="8.3484463393688202e-03" rms="4.6267521381378174e-01" purity="5.0288957357406616e-01" nType="0">
        <Node pos="l" depth="1" NCoef="0" IVar="5" Cut="1.4196586562320590e-03" cType="1" res="-2.6009716093540192e-02" rms="4.6526467800140381e-01" purity="3.8629391789436340e-01" nType="0">
          <Node pos="l" depth="2" NCoef="0" IVar="-1" Cut="0.0000000000000000e+00" cType="1" res="-7.1177226491272449e-03" rms="4.4334471225738525e-01" purity="3.0772203207015991e-01" nType="-99"/>
          <Node pos="r" depth="2" NCoef="0" IVar="-1" Cut="0.0000000000000000e+00" cType="1" res="-8.0596923362463713e-04" rms="4.6827149391174316e-01" purity="4.0204405784606934e-01" nType="-99"/>
        </Node>
        <Node pos="r" depth="1" NCoef="0" IVar="3" Cut="-4.7263834625482559e-02" cType="1" res="4.2953420430421829e-02" rms="4.5745137333869934e-01" purity="6.2032276391983032e-01" nType="0">
          <Node pos="l" depth="2" NCoef="0" IVar="-1" Cut="0.0000000000000000e+00" cType="1" res="-4.1132996557280421e-04" rms="4.6245768666267395e-01" purity="5.7299441099166870e-01" nType="-99"/>
          <Node pos="r" depth="2" NCoef="0" IVar="-1" Cut="0.0000000000000000e+00" cType="1" res="4.0437346324324608e-03" rms="4.5281860232353210e-01" purity="6.4436966180801392e-01" nType="-99"/>
        </Node>
      </Node>
    </BinaryTree>
    <BinaryTree type="DecisionTree" boostWeight="1.0000000000000000e+00" itree="87">
      <Node pos="s" depth="0" NCoef="0" IVar="7" Cut="6.7456048727035522e-01" cType="1" res="3.4079614561051130e-03" rms="4.6298137307167053e-01" purity="4.9606433510780334e-01" nType="0">
        <Node pos="l" depth="1" NCoef="0" IVar="3" Cut="2.6397777721285820e-02" cType="1" res="-2.5846669450402260e-02" rms="4.6568128466606140e-01" purity="4.4995784759521484e-01" nType="0">
          <Node pos="l" depth="2" NCoef="0" IVar="-1" Cut="0.0000000000000000e+00" cType="1" res="-7.9849390313029289e-03" rms="4.4993454217910767e-01" purity="3.4768828749656677e-01" nType="-99"/>
          <Node pos="r" depth="2" NCoef="0" IVar="-1" Cut="0.0000000000000000e+00" cType="1" res="1.2485337210819125e-03" rms="4.6784234046936035e-01" purity="5.0575834512710571e-01" nType="-99"/>
        </Node>
        <Node pos="r" depth="1" NCoef="0" IVar="0" Cut="2.5281536579132080e+00" cType="1" res="3.8149733096361160e-02" rms="4.5733010768890381e-01" purity="5.5081874132156372e-01" nType="0">
          <Node pos="l" depth="2" NCoef="0" IVar="-1" Cut="0.0000000000000000e+00" cType="1" res="8.6905574426054955e-04" rms="4.7013494372367859e-01" purity="4.6804028749465942e-01" nType="-99"/>
          <Node pos="r" depth="2" NCoef="0" IVar="-1" Cut="0.0000000000000000e+00" cType="1" res="5.3702937439084053e-03" rms="4.2020183801651001e-01" purity="7.4412548542022705e-01" nType="-99"/>
        </Node>
      </Node>
    </BinaryTree>
    <BinaryTree type="DecisionTree" boostWeight="1.0000000000000000e+00" itree="88">
      <Node pos="s" depth="0" NCoef="0" IVar="0" Cut="2.8009996414184570e+00" cType="1" res="8.6564486846327782e-03" rms="4.6047022938728333e-01" purity="5.0309479236602783e-01" nType="0">
        <Node pos="l" depth="1" NCoef="0" IVar="4" Cut="3.8639265298843384e-01" cType="1" res="-1.1800932697951794e-02" rms="4.6631097793579102e-01" purity="4.3290114402770996e-01" nType="0">
          <Node pos="l" depth="2" NCoef="0" IVar="-1" Cut="0.0000000000000000e+00" cType="1" res="-3.1382993329316378e-03" rms="4.6354186534881592e-01" purity="4.0494233369827271e-01" nType="-99"/>
          <Node pos="r" depth="2" NCoef="0" IVar="-1" Cut="0.0000000000000000e+00" cType="1" res="1.4327453682199121e-03" rms="4.6663337945938110e-01" purity="4.6050128340721130e-01" nType="-99"/>
        </Node>
        <Node pos="r" depth="1" NCoef="0" IVar="2" Cut="3.7015579223632812e+02" cType="1" res="6.6855594515800476e-02" rms="4.3824127316474915e-01" purity="7.0278853178024292e-01" nType="0">
          <Node pos="l" depth="2" NCoef="0" IVar="-1" Cut="0.0000000000000000e+00" cType="1" res="2.4118581786751747e-03" rms="4.5794069766998291e-01" purity="6.5090614557266235e-01" nType="-99"/>
          <Node pos="r" depth="2" NCoef="0" IVar="-1" Cut="0.0000000000000000e+00" cType="1" res="5.9056715108454227e-03" rms="4.0204653143882751e-01" purity="7.8499543666839600e-01" nType="-99"/>
        </Node>
      </Node>
    </BinaryTree>
    <BinaryTree type="DecisionTree" boostWeight="1.0000000000000000e+00" itree="89">
      <Node pos="s" depth="0" NCoef="0" IVar="2" Cut="5.6065679931640625e+02" cType="1" res="8.2813873887062073e-03" rms="4.6405825018882751e-01" purity="5.0017839670181274e-01" nType="0">
        <Node pos="l" depth="1" NCoef="0" IVar="3" Cut="1.4976412057876587e-01" cType="1" res="2.4044940073508769e-04" rms="4.6497267484664917e-01" purity="4.8390814661979675e-01" nType="0">
          <Node pos="l" depth="2" NCoef="0" IVar="-1" Cut="0.0000000000000000e+00" cType="1" res="-1.0384893976151943e-03" rms="4.6321654319763184e-01" purity="4.6832028031349182e-01" nType="-99"/>
          <Node pos="r" depth="2" NCoef="0" IVar="-1" Cut="0.0000000000000000e+00" cType="1" res="4.0004253387451172e-03" rms="4.6651574969291687e-01" purity="5.4706168174743652e-01" nType="-99"/>
        </Node>
        <Node pos="r" depth="1" NCoef="0" IVar="-1" Cut="0.0000000000000000e+00" cType="1" res="6.5135122276842594e-03" rms="4.3707680702209473e-01" purity="7.2097742557525635e-01" nType="-99"/>
      </Node>
    </BinaryTree>
    <BinaryTree type="DecisionTree" boostWeight="1.0000000000000000e+00" itree="90">
      <Node pos="s" depth="0" NCoef="0" IVar="4" Cut="3.4864878654479980e-01" cType="1" res="4.7798366285860538e-03" rms="4.6128240227699280e-01" purity="4.9978110194206238e-01" nType="0">
        <Node pos="l" depth="1" NCoef="0" IVar="3" Cut="1.6656363010406494e-01" cType="1" res="-3.5315897315740585e-02" rms="4.6263256669044495e-01" purity="4.6113446354866028e-01" nType="0">
          <Node pos="l" depth="2" NCoef="0" IVar="-1" Cut="0.0000000000000000e+00" cType="1" res="-4.4752983376383781e-03" rms="4.5905831456184387e-01" purity="4.3306708335876465e-01" nType="-99"/>
          <Node pos="r" depth="2" NCoef="0" IVar="-1" Cut="0.0000000000000000e+00" cType="1" res="3.2533379271626472e-03" rms="4.6155264973640442e-01" purity="5.4126667976379395e-01" nType="-99"/>
        </Node>
        <Node pos="r" depth="1" NCoef="0" IVar="2" Cut="2.2635502624511719e+02" cType="1" res="3.4761521965265274e-02" rms="4.5798215270042419e-01" purity="5.2867925167083740e-01" nType="0">
          <Node pos="l" depth="2" NCoef="0" IVar="-1" Cut="0.0000000000000000e+00" cType="1" res="-4.4641518034040928e-03" rms="4.3024730682373047e-01" purity="2.9965057969093323e-01" nType="-99"/>
          <Node pos="r" depth="2" NCoef="0" IVar="-1" Cut="0.0000000000000000e+00" cType="1" res="3.3368472941219807e-03" rms="4.6163603663444519e-01" purity="5.8109295368194580e-01" nType="-99"/>
        </Node>
      </Node>
    </BinaryTree>
    <BinaryTree type="DecisionTree" boostWeight="1.0000000000000000e+00" itree="91">
      <Node pos="s" depth="0" NCoef="0" IVar="0" Cut="1.0510405302047729e+00" cType="1" res="1.8995578866451979e-03" rms="4.6050980687141418e-01" purity="4.9661624431610107e-01" nType="0">
        <Node pos="l" depth="1" NCoef="0" IVar="3" Cut="1.0726101696491241e-01" cType="1" res="-4.9777306616306305e-02" rms="4.5230296254158020e-01" purity="3.3286207914352417e-01" nType="0">
          <Node pos="l" depth="2" NCoef="0" IVar="-1" Cut="0.0000000000000000e+00" cType="1" res="-5.3322357125580311e-03" rms="4.4433963298797607e-01" purity="3.1551492214202881e-01" nType="-99"/>
          <Node pos="r" depth="2" NCoef="0" IVar="-1" Cut="0.0000000000000000e+00" cType="1" res="3.7288543535396457e-04" rms="4.7054666280746460e-01" purity="3.8357850909233093e-01" nType="-99"/>
        </Node>
        <Node pos="r" depth="1" NCoef="0" IVar="2" Cut="2.2332936096191406e+02" cType="1" res="2.9192689806222916e-02" rms="4.6246132254600525e-01" purity="5.8310306072235107e-01" nType="0">
          <Node pos="l" depth="2" NCoef="0" IVar="-1" Cut="0.0000000000000000e+00" cType="1" res="-5.2631725557148457e-03" rms="4.4925433397293091e-01" purity="3.4234932065010071e-01" nType="-99"/>
          <Node pos="r" depth="2" NCoef="0" IVar="-1" Cut="0.0000000000000000e+00" cType="1" res="2.6158611290156841e-03" rms="4.6247348189353943e-01" purity="6.2014812231063843e-01" nType="-99"/>
        </Node>
      </Node>
    </BinaryTree>
    <BinaryTree type="DecisionTree" boostWeight="1.0000000000000000e+00" itree="92">
      <Node pos="s" depth="0" NCoef="0" IVar="0" Cut="3.9063659310340881e-01" cType="1" res="1.1086232960224152e-02" rms="4.6146169304847717e-01" purity="5.0512915849685669e-01" nType="0">
        <Node pos="l" depth="1" NCoef="0" IVar="2" Cut="2.9304986572265625e+02" cType="1" res="-5.7784069329500198e-02" rms="4.4179484248161316e-01" purity="3.0814817547798157e-01" nType="0">
          <Node pos="l" depth="2" NCoef="0" IVar="-1" Cut="0.0000000000000000e+00" cType="1" res="-8.7913963943719864e-03" rms="3.9009663462638855e-01" purity="1.9396777451038361e-01" nType="-99"/>
          <Node pos="r" depth="2" NCoef="0" IVar="-1" Cut="0.0000000000000000e+00" cType="1" res="-1.7638963181525469e-03" rms="4.8542365431785583e-01" purity="4.2087122797966003e-01" nType="-99"/>
        </Node>
        <Node pos="r" depth="1" NCoef="0" IVar="2" Cut="2.1841555786132812e+02" cType="1" res="2.5831917300820351e-02" rms="4.6423849463462830e-01" purity="5.4730439186096191e-01" nType="0">
          <Node pos="l" depth="2" NCoef="0" IVar="-1" Cut="0.0000000000000000e+00" cType="1" res="-4.4568628072738647e-03" rms="4.4306224584579468e-01" purity="3.1850728392601013e-01" nType="-99"/>
          <Node pos="r" depth="2" NCoef="0" IVar="-1" Cut="0.0000000000000000e+00" cType="1" res="2.2301250137388706e-03" rms="4.6589580178260803e-01" purity="5.7844299077987671e-01" nType="-99"/>
        </Node>
      </Node>
    </BinaryTree>
    <BinaryTree type="DecisionTree" boostWeight="1.0000000000000000e+00" itree="93">
      <Node pos="s" depth="0" NCoef="0" IVar="0" Cut="4.0531573295593262e+00" cType="1" res="8.1866886466741562e-03" rms="4.6138417720794678e-01" purity="5.0313466787338257e-01" nType="0">
        <Node pos="l" depth="1" NCoef="0" IVar="2" Cut="4.9201309204101562e+02" cType="1" res="-3.1313691288232803e-03" rms="4.6695286035537720e-01" purity="4.6994569897651672e-01" nType="0">
          <Node pos="l" depth="2" NCoef="0" IVar="-1" Cut="0.0000000000000000e+00" cType="1" res="-8.7231223005801439e-04" rms="4.6660012006759644e-01" purity="4.4599744677543640e-01" nType="-99"/>
          <Node pos="r" depth="2" NCoef="0" IVar="-1" Cut="0.0000000000000000e+00" cType="1" res="4.4359113089740276e-03" rms="4.6192136406898499e-01" purity="6.6468495130538940e-01" nType="-99"/>
        </Node>
        <Node pos="r" depth="1" NCoef="0" IVar="-1" Cut="0.0000000000000000e+00" cType="1" res="5.8346837759017944e-03" rms="4.0002706646919250e-01" purity="7.7886271476745605e-01" nType="-99"/>
      </Node>
    </BinaryTree>
    <BinaryTree type="DecisionTree" boostWeight="1.0000000000000000e+00" itree="94">
      <Node pos="s" depth="0" NCoef="0" IVar="2" Cut="4.2397946166992188e+02" cType="1" res="3.9229062385857105e-03" rms="4.6147963404655457e-01" purity="4.9882110953330994e-01" nType="0">
        <Node pos="l" depth="1" NCoef="0" IVar="3" Cut="1.7970907688140869e-01" cType="1" res="-1.2478289194405079e-02" rms="4.6244820952415466e-01" purity="4.5576006174087524e-01" nType="0">
          <Node pos="l" depth="2" NCoef="0" IVar="-1" Cut="0.0000000000000000e+00" cType="1" res="-1.7779065528884530e-03" rms="4.5963439345359802e-01" purity="4.4131028652191162e-01" nType="-99"/>
          <Node pos="r" depth="2" NCoef="0" IVar="-1" Cut="0.0000000000000000e+00" cType="1" res="3.9717014878988266e-03" rms="4.7051230072975159e-01" purity="5.3601378202438354e-01" nType="-99"/>
        </Node>
        <Node pos="r" depth="1" NCoef="0" IVar="7" Cut="7.5534474849700928e-01" cType="1" res="7.1255646646022797e-02" rms="4.5127773284912109e-01" purity="6.7560219764709473e-01" nType="0">
          <Node pos="l" depth="2" NCoef="0" IVar="-1" Cut="0.0000000000000000e+00" cType="1" res="2.4432570207864046e-03" rms="4.6305486559867859e-01" purity="6.3878202438354492e-01" nType="-99"/>
          <Node pos="r" depth="2" NCoef="0" IVar="-1" Cut="0.0000000000000000e+00" cType="1" res="6.7972536198794842e-03" rms="4.2550727725028992e-01" purity="7.3887962102890015e-01" nType="-99"/>
        </Node>
      </Node>
    </BinaryTree>
    <BinaryTree type="DecisionTree" boostWeight="1.0000000000000000e+00" itree="95">
      <Node pos="s" depth="0" NCoef="0" IVar="4" Cut="3.2116383314132690e-01" cType="1" res="4.3015135452151299e-03" rms="4.6161681413650513e-01" purity="4.9918067455291748e-01" nType="0">
        <Node pos="l" depth="1" NCoef="0" IVar="3" Cut="1.7550128698348999e-01" cType="1" res="-3.3879522234201431e-02" rms="4.6386444568634033e-01" purity="4.6045446395874023e-01" nType="0">
          <Node pos="l" depth="2" NCoef="0" IVar="-1" Cut="0.0000000000000000e+00" cType="1" res="-4.4293752871453762e-03" rms="4.6014583110809326e-01" purity="4.3108853697776794e-01" nType="-99"/>
          <Node pos="r" depth="2" NCoef="0" IVar="-1" Cut="0.0000000000000000e+00" cType="1" res="3.4753866493701935e-03" rms="4.6265879273414612e-01" purity="5.4389041662216187e-01" nType="-99"/>
        </Node>
        <Node pos="r" depth="1" NCoef="0" IVar="2" Cut="3.1888638305664062e+02" cType="1" res="2.7895938605070114e-02" rms="4.5863607525825500e-01" purity="5.2311199903488159e-01" nType="0">
          <Node pos="l" depth="2" NCoef="0" IVar="-1" Cut="0.0000000000000000e+00" cType="1" res="-2.7970110750175081e-05" rms="4.5998638868331909e-01" purity="4.3270784616470337e-01" nType="-99"/>
          <Node pos="r" depth="2" NCoef="0" IVar="-1" Cut="0.0000000000000000e+00" cType="1" res="4.1265292093157768e-03" rms="4.5315036177635193e-01" purity="6.6149055957794189e-01" nType="-99"/>
        </Node>
      </Node>
    </BinaryTree>
    <BinaryTree type="DecisionTree" boostWeight="1.0000000000000000e+00" itree="96">
      <Node pos="s" depth="0" NCoef="0" IVar="1" Cut="9.6025109291076660e-01" cType="1" res="3.6346875131130219e-03" rms="4.6010524034500122e-01" purity="4.9704474210739136e-01" nType="0">
        <Node pos="l" depth="1" NCoef="0" IVar="2" Cut="4.1982852172851562e+02" cType="1" res="-1.0837577283382416e-02" rms="4.6812835335731506e-01" purity="4.4734346866607666e-01" nType="0">
          <Node pos="l" depth="2" NCoef="0" IVar="-1" Cut="0.0000000000000000e+00" cType="1" res="-1.7389174317941070e-03" rms="4.6654808521270752e-01" purity="4.0425103902816772e-01" nType="-99"/>
          <Node pos="r" depth="2" NCoef="0" IVar="-1" Cut="0.0000000000000000e+00" cType="1" res="2.9094559140503407e-03" rms="4.6974667906761169e-01" purity="6.2813365459442139e-01" nType="-99"/>
        </Node>
        <Node pos="r" depth="1" NCoef="0" IVar="1" Cut="9.7508955001831055e-01" cType="1" res="8.6251288652420044e-02" rms="4.0144959092140198e-01" purity="7.8077000379562378e-01" nType="0">
          <Node pos="l" depth="2" NCoef="0" IVar="-1" Cut="0.0000000000000000e+00" cType="1" res="3.2578699756413698e-03" rms="4.3027859926223755e-01" purity="7.2694587707519531e-01" nType="-99"/>
          <Node pos="r" depth="2" NCoef="0" IVar="-1" Cut="0.0000000000000000e+00" cType="1" res="6.6175810061395168e-03" rms="3.7549772858619690e-01" purity="8.2267773151397705e-01" nType="-99"/>
        </Node>
      </Node>
    </BinaryTree>
    <BinaryTree type="DecisionTree" boostWeight="1.0000000000000000e+00" itree="97">
      <Node pos="s" depth="0" NCoef="0" IVar="1" Cut="9.5638573169708252e-01" cType="1" res="3.6767337005585432e-03" rms="4.6059170365333557e-01" purity="4.9686175584793091e-01" nType="0">
        <Node pos="l" depth="1" NCoef="0" IVar="3" Cut="2.6557926088571548e-02" cType="1" res="-1.0796301998198032e-02" rms="4.6837022900581360e-01" purity="4.4302073121070862e-01" nType="0">
          <Node pos="l" depth="2" NCoef="0" IVar="-1" Cut="0.0000000000000000e+00" cType="1" res="-2.8076036833226681e-03" rms="4.6168440580368042e-01" purity="4.1115981340408325e-01" nType="-99"/>
          <Node pos="r" depth="2" NCoef="0" IVar="-1" Cut="0.0000000000000000e+00" cType="1" res="1.6028818208724260e-03" rms="4.7362789511680603e-01" purity="4.8060837388038635e-01" nType="-99"/>
        </Node>
        <Node pos="r" depth="1" NCoef="0" IVar="1" Cut="9.7596669197082520e-01" cType="1" res="7.4510075151920319e-02" rms="4.1320365667343140e-01" purity="7.6036840677261353e-01" nType="0">
          <Node pos="l" depth="2" NCoef="0" IVar="-1" Cut="0.0000000000000000e+00" cType="1" res="2.5360900908708572e-03" rms="4.4266006350517273e-01" purity="7.0353466272354126e-01" nType="-99"/>
          <Node pos="r" depth="2" NCoef="0" IVar="-1" Cut="0.0000000000000000e+00" cType="1" res="6.6516553051769733e-03" rms="3.7389543652534485e-01" purity="8.2422316074371338e-01" nType="-99"/>
        </Node>
      </Node>
    </BinaryTree>
    <BinaryTree type="DecisionTree" boostWeight="1.0000000000000000e+00" itree="98">
      <Node pos="s" depth="0" NCoef="0" IVar="7" Cut="7.2487485408782959e-01" cType="1" res="5.6308461353182793e-03" rms="4.6084102988243103e-01" purity="5.0100219249725342e-01" nType="0">
        <Node pos="l" depth="1" NCoef="0" IVar="3" Cut="4.0254358202219009e-02" cType="1" res="-1.5866534784436226e-02" rms="4.6342045068740845e-01" purity="4.6480217576026917e-01" nType="0">
          <Node pos="l" depth="2" NCoef="0" IVar="-1" Cut="0.0000000000000000e+00" cType="1" res="-5.3590373136103153e-03" rms="4.5262524485588074e-01" purity="3.8838484883308411e-01" nType="-99"/>
          <Node pos="r" depth="2" NCoef="0" IVar="-1" Cut="0.0000000000000000e+00" cType="1" res="1.7794286832213402e-03" rms="4.6633955836296082e-01" purity="5.2102184295654297e-01" nType="-99"/>
        </Node>
        <Node pos="r" depth="1" NCoef="0" IVar="1" Cut="8.9461785554885864e-01" cType="1" res="4.4096607714891434e-02" rms="4.5365411043167114e-01" purity="5.6577575206756592e-01" nType="0">
          <Node pos="l" depth="2" NCoef="0" IVar="-1" Cut="0.0000000000000000e+00" cType="1" res="3.1568095437251031e-05" rms="4.6974658966064453e-01" purity="4.2240762710571289e-01" nType="-99"/>
          <Node pos="r" depth="2" NCoef="0" IVar="-1" Cut="0.0000000000000000e+00" cType="1" res="4.4570988975465298e-03" rms="4.3973332643508911e-01" purity="6.6443645954132080e-01" nType="-99"/>
        </Node>
      </Node>
    </BinaryTree>
    <BinaryTree type="DecisionTree" boostWeight="1.0000000000000000e+00" itree="99">
      <Node pos="s" depth="0" NCoef="0" IVar="0" Cut="2.9586837291717529e+00" cType="1" res="1.0158913210034370e-02" rms="4.5792523026466370e-01" purity="5.0538653135299683e-01" nType="0">
        <Node pos="l" depth="1" NCoef="0" IVar="2" Cut="4.9287988281250000e+02" cType="1" res="-6.8475347943603992e-03" rms="4.6341764926910400e-01" purity="4.4337725639343262e-01" nType="0">
          <Node pos="l" depth="2" NCoef="0" IVar="-1" Cut="0.0000000000000000e+00" cType="1" res="-1.1838718783110380e-03" rms="4.6185111999511719e-01" purity="4.1834408044815063e-01" nType="-99"/>
          <Node pos="r" depth="2" NCoef="0" IVar="-1" Cut="0.0000000000000000e+00" cType="1" res="4.6592121943831444e-03" rms="4.6730124950408936e-01" purity="6.5738719701766968e-01" nType="-99"/>
        </Node>
        <Node pos="r" depth="1" NCoef="0" IVar="7" Cut="5.9209835529327393e-01" cType="1" res="6.6074505448341370e-02" rms="4.3471822142601013e-01" purity="7.0926707983016968e-01" nType="0">
          <Node pos="l" depth="2" NCoef="0" IVar="-1" Cut="0.0000000000000000e+00" cType="1" res="7.6170836109668016e-04" rms="4.6409660577774048e-01" purity="6.2784290313720703e-01" nType="-99"/>
          <Node pos="r" depth="2" NCoef="0" IVar="-1" Cut="0.0000000000000000e+00" cType="1" res="5.6479382328689098e-03" rms="4.1068542003631592e-01" purity="7.6252675056457520e-01" nType="-99"/>
        </Node>
      </Node>
    </BinaryTree>
    <BinaryTree type="DecisionTree" boostWeight="1.0000000000000000e+00" itree="100">
      <Node pos="s" depth="0" NCoef="0" IVar="1" Cut="8.9838546514511108e-01" cType="1" res="1.0092017240822315e-02" rms="4.6081402897834778e-01" purity="5.0383806228637695e-01" nType="0">
        <Node pos="l" depth="1" NCoef="0" IVar="0" Cut="2.7730562686920166e+00" cType="1" res="-2.3905843496322632e-02" rms="4.6364805102348328e-01" purity="3.8462048768997192e-01" nType="0">
          <Node pos="l" depth="2" NCoef="0" IVar="-1" Cut="0.0000000000000000e+00" cType="1" res="-2.8704483993351460e-03" rms="4.6018046140670776e-01" purity="3.4458452463150024e-01" nType="-99"/>
          <Node pos="r" depth="2" NCoef="0" IVar="-1" Cut="0.0000000000000000e+00" cType="1" res="3.5471834708005190e-03" rms="4.7313609719276428e-01" purity="6.1516994237899780e-01" nType="-99"/>
        </Node>
        <Node pos="r" depth="1" NCoef="0" IVar="4" Cut="3.4489971399307251e-01" cType="1" res="4.0243767201900482e-02" rms="4.5617079734802246e-01" purity="6.0956877470016479e-01" nType="0">
          <Node pos="l" depth="2" NCoef="0" IVar="-1" Cut="0.0000000000000000e+00" cType="1" res="1.9542596419341862e-04" rms="4.6415781974792480e-01" purity="5.7036054134368896e-01" nType="-99"/>
          <Node pos="r" depth="2" NCoef="0" IVar="-1" Cut="0.0000000000000000e+00" cType="1" res="3.9799120277166367e-03" rms="4.4883948564529419e-01" purity="6.3645970821380615e-01" nType="-99"/>
        </Node>
      </Node>
    </BinaryTree>
    <BinaryTree type="DecisionTree" boostWeight="1.0000000000000000e+00" itree="101">
      <Node pos="s" depth="0" NCoef="0" IVar="4" Cut="1.3163954019546509e-01" cType="1" res="7.9195797443389893e-03" rms="4.6156382560729980e-01" purity="5.0277554988861084e-01" nType="0">
        <Node pos="l" depth="1" NCoef="0" IVar="-1" Cut="0.0000000000000000e+00" cType="1" res="-7.2301053442060947e-03" rms="4.5657667517662048e-01" purity="3.8797160983085632e-01" nType="-99"/>
        <Node pos="r" depth="1" NCoef="0" IVar="2" Cut="3.1203634643554688e+02" cType="1" res="1.5758579596877098e-02" rms="4.6089485287666321e-01" purity="5.1082307100296021e-01" nType="0">
          <Node pos="l" depth="2" NCoef="0" IVar="-1" Cut="0.0000000000000000e+00" cType="1" res="-8.1687315832823515e-04" rms="4.5922884345054626e-01" purity="4.0964204072952271e-01" nType="-99"/>
          <Node pos="r" depth="2" NCoef="0" IVar="-1" Cut="0.0000000000000000e+00" cType="1" res="2.7423365972936153e-03" rms="4.6081882715225220e-01" purity="6.2523984909057617e-01" nType="-99"/>
        </Node>
      </Node>
    </BinaryTree>
    <BinaryTree type="DecisionTree" boostWeight="1.0000000000000000e+00" itree="102">
      <Node pos="s" depth="0" NCoef="0" IVar="0" Cut="3.4916958808898926e+00" cType="1" res="5.5096987634897232e-03" rms="4.6143937110900879e-01" purity="4.9946498870849609e-01" nType="0">
        <Node pos="l" depth="1" NCoef="0" IVar="7" Cut="6.5271300077438354e-01" cType="1" res="-7.1482351049780846e-03" rms="4.6715512871742249e-01" purity="4.5444858074188232e-01" nType="0">
          <Node pos="l" depth="2" NCoef="0" IVar="-1" Cut="0.0000000000000000e+00" cType="1" res="-2.3585997987538576e-03" rms="4.6403995156288147e-01" purity="4.0781703591346741e-01" nType="-99"/>
          <Node pos="r" depth="2" NCoef="0" IVar="-1" Cut="0.0000000000000000e+00" cType="1" res="1.2786653824150562e-03" rms="4.6872690320014954e-01" purity="5.0153023004531860e-01" nType="-99"/>
        </Node>
        <Node pos="r" depth="1" NCoef="0" IVar="2" Cut="3.4466702270507812e+02" cType="1" res="7.2986841201782227e-02" rms="4.2334988713264465e-01" purity="7.3943918943405151e-01" nType="0">
          <Node pos="l" depth="2" NCoef="0" IVar="-1" Cut="0.0000000000000000e+00" cType="1" res="2.2651783656328917e-03" rms="4.5302960276603699e-01" purity="6.7270416021347046e-01" nType="-99"/>
          <Node pos="r" depth="2" NCoef="0" IVar="-1" Cut="0.0000000000000000e+00" cType="1" res="6.2828348018229008e-03" rms="3.8431268930435181e-01" purity="8.1351321935653687e-01" nType="-99"/>
        </Node>
      </Node>
    </BinaryTree>
    <BinaryTree type="DecisionTree" boostWeight="1.0000000000000000e+00" itree="103">
      <Node pos="s" depth="0" NCoef="0" IVar="0" Cut="3.8333318233489990e+00" cType="1" res="4.1818888857960701e-03" rms="4.5911687612533569e-01" purity="4.9992123246192932e-01" nType="0">
        <Node pos="l" depth="1" NCoef="0" IVar="4" Cut="2.2485552728176117e-01" cType="1" res="-8.0610299482941628e-03" rms="4.6461647748947144e-01" purity="4.6115484833717346e-01" nType="0">
          <Node pos="l" depth="2" NCoef="0" IVar="-1" Cut="0.0000000000000000e+00" cType="1" res="-4.6498966403305531e-03" rms="4.6296030282974243e-01" purity="4.0239113569259644e-01" nType="-99"/>
          <Node pos="r" depth="2" NCoef="0" IVar="-1" Cut="0.0000000000000000e+00" cType="1" res="5.1000935491174459e-04" rms="4.6377024054527283e-01" purity="4.7677347064018250e-01" nType="-99"/>
        </Node>
        <Node pos="r" depth="1" NCoef="0" IVar="-1" Cut="0.0000000000000000e+00" cType="1" res="5.0444011576473713e-03" rms="4.1014692187309265e-01" purity="7.6391971111297607e-01" nType="-99"/>
      </Node>
    </BinaryTree>
    <BinaryTree type="DecisionTree" boostWeight="1.0000000000000000e+00" itree="104">
      <Node pos="s" depth="0" NCoef="0" IVar="2" Cut="2.5640737915039062e+02" cType="1" res="4.6748197637498379e-03" rms="4.5760196447372437e-01" purity="5.0194531679153442e-01" nType="0">
        <Node pos="l" depth="1" NCoef="0" IVar="3" Cut="-8.3106487989425659e-02" cType="1" res="-5.0951391458511353e-02" rms="4.3549841642379761e-01" purity="3.2152351737022400e-01" nType="0">
          <Node pos="l" depth="2" NCoef="0" IVar="-1" Cut="0.0000000000000000e+00" cType="1" res="-1.1934067122638226e-02" rms="3.8689845800399780e-01" purity="2.2057238221168518e-01" nType="-99"/>
          <Node pos="r" depth="2" NCoef="0" IVar="-1" Cut="0.0000000000000000e+00" cType="1" res="-2.4673976004123688e-03" rms="4.4325855374336243e-01" purity="3.4368774294853210e-01" nType="-99"/>
        </Node>
        <Node pos="r" depth="1" NCoef="0" IVar="4" Cut="4.0690487623214722e-01" cType="1" res="2.6798866689205170e-02" rms="4.6425294876098633e-01" purity="5.7370394468307495e-01" nType="0">
          <Node pos="l" depth="2" NCoef="0" IVar="-1" Cut="0.0000000000000000e+00" cType="1" res="3.5119785025017336e-05" rms="4.6866685152053833e-01" purity="5.3746998310089111e-01" nType="-99"/>
          <Node pos="r" depth="2" NCoef="0" IVar="-1" Cut="0.0000000000000000e+00" cType="1" res="3.7705532740801573e-03" rms="4.5550000667572021e-01" purity="6.2428605556488037e-01" nType="-99"/>
        </Node>
      </Node>
    </BinaryTree>
    <BinaryTree type="DecisionTree" boostWeight="1.0000000000000000e+00" itree="105">
      <Node pos="s" depth="0" NCoef="0" IVar="1" Cut="9.6025031805038452e-01" cType="1" res="6.0756546445190907e-03" rms="4.6007385849952698e-01" purity="5.0065213441848755e-01" nType="0">
        <Node pos="l" depth="1" NCoef="0" IVar="6" Cut="9.3318867683410645e-01" cType="1" res="-6.0891360044479370e-03" rms="4.6834960579872131e-01" purity="4.5334672927856445e-01" nType="0">
          <Node pos="l" depth="2" NCoef="0" IVar="-1" Cut="0.0000000000000000e+00" cType="1" res="2.2356898989528418e-03" rms="4.7518706321716309e-01" purity="5.2820259332656860e-01" nType="-99"/>
          <Node pos="r" depth="2" NCoef="0" IVar="-1" Cut="0.0000000000000000e+00" cType="1" res="-1.6913643339648843e-03" rms="4.6400710940361023e-01" purity="4.1978546977043152e-01" nType="-99"/>
        </Node>
        <Node pos="r" depth="1" NCoef="0" IVar="7" Cut="6.5351867675781250e-01" cType="1" res="7.7358506619930267e-02" rms="4.0086978673934937e-01" purity="7.7785044908523560e-01" nType="0">
          <Node pos="l" depth="2" NCoef="0" IVar="-1" Cut="0.0000000000000000e+00" cType="1" res="2.4391147308051586e-03" rms="4.3548408150672913e-01" purity="7.1786773204803467e-01" nType="-99"/>
          <Node pos="r" depth="2" NCoef="0" IVar="-1" Cut="0.0000000000000000e+00" cType="1" res="6.5881912596523762e-03" rms="3.6772134900093079e-01" purity="8.2627952098846436e-01" nType="-99"/>
        </Node>
      </Node>
    </BinaryTree>
    <BinaryTree type="DecisionTree" boostWeight="1.0000000000000000e+00" itree="106">
      <Node pos="s" depth="0" NCoef="0" IVar="0" Cut="1.9018808603286743e+00" cType="1" res="2.8641507960855961e-03" rms="4.5784616470336914e-01" purity="5.0043511390686035e-01" nType="0">
        <Node pos="l" depth="1" NCoef="0" IVar="7" Cut="6.9463366270065308e-01" cType="1" res="-2.5374794378876686e-02" rms="4.5971509814262390e-01" purity="3.8402742147445679e-01" nType="0">
          <Node pos="l" depth="2" NCoef="0" IVar="-1" Cut="0.0000000000000000e+00" cType="1" res="-4.4554169289767742e-03" rms="4.4878962635993958e-01" purity="3.3146500587463379e-01" nType="-99"/>
          <Node pos="r" depth="2" NCoef="0" IVar="-1" Cut="0.0000000000000000e+00" cType="1" res="1.2796587543562055e-03" rms="4.7034555673599243e-01" purity="4.5466056466102600e-01" nType="-99"/>
        </Node>
        <Node pos="r" depth="1" NCoef="0" IVar="3" Cut="-9.1307042166590691e-03" cType="1" res="3.8270737975835800e-02" rms="4.5301160216331482e-01" purity="6.4638960361480713e-01" nType="0">
          <Node pos="l" depth="2" NCoef="0" IVar="-1" Cut="0.0000000000000000e+00" cType="1" res="-1.9679994147736579e-04" rms="4.5793411135673523e-01" purity="6.0916346311569214e-01" nType="-99"/>
          <Node pos="r" depth="2" NCoef="0" IVar="-1" Cut="0.0000000000000000e+00" cType="1" res="3.9307381957769394e-03" rms="4.4679635763168335e-01" purity="6.7416381835937500e-01" nType="-99"/>
        </Node>
      </Node>
    </BinaryTree>
    <BinaryTree type="DecisionTree" boostWeight="1.0000000000000000e+00" itree="107">
      <Node pos="s" depth="0" NCoef="0" IVar="7" Cut="6.6364049911499023e-01" cType="1" res="8.7096838979050517e-04" rms="4.6105006337165833e-01" purity="4.9587312340736389e-01" nType="0">
        <Node pos="l" depth="1" NCoef="0" IVar="3" Cut="9.3497850000858307e-02" cType="1" res="-2.4754490703344345e-02" rms="4.6109583973884583e-01" purity="4.4872105121612549e-01" nType="0">
          <Node pos="l" depth="2" NCoef="0" IVar="-1" Cut="0.0000000000000000e+00" cType="1" res="-5.8606876991689205e-03" rms="4.4762054085731506e-01" purity="3.7327516078948975e-01" nType="-99"/>
          <Node pos="r" depth="2" NCoef="0" IVar="-1" Cut="0.0000000000000000e+00" cType="1" res="1.9372300012037158e-03" rms="4.6735003590583801e-01" purity="5.2245068550109863e-01" nType="-99"/>
        </Node>
        <Node pos="r" depth="1" NCoef="0" IVar="2" Cut="2.2764984130859375e+02" cType="1" res="2.9913725331425667e-02" rms="4.5927289128303528e-01" purity="5.4931318759918213e-01" nType="0">
          <Node pos="l" depth="2" NCoef="0" IVar="-1" Cut="0.0000000000000000e+00" cType="1" res="-4.0200538933277130e-03" rms="4.3692359328269958e-01" purity="3.1037890911102295e-01" nType="-99"/>
          <Node pos="r" depth="2" NCoef="0" IVar="-1" Cut="0.0000000000000000e+00" cType="1" res="2.5674025528132915e-03" rms="4.6137633919715881e-01" purity="5.8544766902923584e-01" nType="-99"/>
        </Node>
      </Node>
    </BinaryTree>
    <BinaryTree type="DecisionTree" boostWeight="1.0000000000000000e+00" itree="108">
      <Node pos="s" depth="0" NCoef="0" IVar="2" Cut="2.2350512695312500e+02" cType="1" res="5.9862090274691582e-03" rms="4.5842719078063965e-01" purity="5.0143021345138550e-01" nType="0">
        <Node pos="l" depth="1" NCoef="0" IVar="6" Cut="1.2655581235885620e+00" cType="1" res="-6.6485397517681122e-02" rms="4.1859248280525208e-01" purity="2.7298283576965332e-01" nType="0">
          <Node pos="l" depth="2" NCoef="0" IVar="-1" Cut="0.0000000000000000e+00" cType="1" res="-8.7997480295598507e-04" rms="4.4276446104049683e-01" purity="3.4237292408943176e-01" nType="-99"/>
          <Node pos="r" depth="2" NCoef="0" IVar="-1" Cut="0.0000000000000000e+00" cType="1" res="-1.0120133869349957e-02" rms="3.9263236522674561e-01" purity="2.1752709150314331e-01" nType="-99"/>
        </Node>
        <Node pos="r" depth="1" NCoef="0" IVar="4" Cut="4.1077148914337158e-01" cType="1" res="1.8412800505757332e-02" rms="4.6377894282341003e-01" purity="5.4060173034667969e-01" nType="0">
          <Node pos="l" depth="2" NCoef="0" IVar="-1" Cut="0.0000000000000000e+00" cType="1" res="-7.2218111017718911e-04" rms="4.6634888648986816e-01" purity="5.0492984056472778e-01" nType="-99"/>
          <Node pos="r" depth="2" NCoef="0" IVar="-1" Cut="0.0000000000000000e+00" cType="1" res="3.4143801312893629e-03" rms="4.5776337385177612e-01" purity="5.8571350574493408e-01" nType="-99"/>
        </Node>
      </Node>
    </BinaryTree>
    <BinaryTree type="DecisionTree" boostWeight="1.0000000000000000e+00" itree="109">
      <Node pos="s" depth="0" NCoef="0" IVar="1" Cut="9.3697804212570190e-01" cType="1" res="6.1833341605961323e-03" rms="4.5906534790992737e-01" purity="5.0098925828933716e-01" nType="0">
        <Node pos="l" depth="1" NCoef="0" IVar="2" Cut="4.0678311157226562e+02" cType="1" res="-1.2043303810060024e-02" rms="4.6662405133247375e-01" purity="4.2518383264541626e-01" nType="0">
          <Node pos="l" depth="2" NCoef="0" IVar="-1" Cut="0.0000000000000000e+00" cType="1" res="-1.9382117316126823e-03" rms="4.6325990557670593e-01" purity="3.7467661499977112e-01" nType="-99"/>
          <Node pos="r" depth="2" NCoef="0" IVar="-1" Cut="0.0000000000000000e+00" cType="1" res="2.5206468999385834e-03" rms="4.7442331910133362e-01" purity="6.0769563913345337e-01" nType="-99"/>
        </Node>
        <Node pos="r" depth="1" NCoef="0" IVar="4" Cut="4.6274313330650330e-01" cType="1" res="5.6595765054225922e-02" rms="4.3350660800933838e-01" purity="7.1065682172775269e-01" nType="0">
          <Node pos="l" depth="2" NCoef="0" IVar="-1" Cut="0.0000000000000000e+00" cType="1" res="1.9746925681829453e-03" rms="4.4771289825439453e-01" purity="6.8046545982360840e-01" nType="-99"/>
          <Node pos="r" depth="2" NCoef="0" IVar="-1" Cut="0.0000000000000000e+00" cType="1" res="5.5195991881191730e-03" rms="4.0869393944740295e-01" purity="7.5582933425903320e-01" nType="-99"/>
        </Node>
      </Node>
    </BinaryTree>
    <BinaryTree type="DecisionTree" boostWeight="1.0000000000000000e+00" itree="110">
      <Node pos="s" depth="0" NCoef="0" IVar="0" Cut="2.7339029312133789e+00" cType="1" res="-8.6068076780065894e-04" rms="4.6066659688949585e-01" purity="4.9307054281234741e-01" nType="0">
        <Node pos="l" depth="1" NCoef="0" IVar="3" Cut="7.9366140067577362e-02" cType="1" res="-1.6478789970278740e-02" rms="4.6510389447212219e-01" purity="4.2276731133460999e-01" nType="0">
          <Node pos="l" depth="2" NCoef="0" IVar="-1" Cut="0.0000000000000000e+00" cType="1" res="-2.3517953231930733e-03" rms="4.6016308665275574e-01" purity="4.0350574254989624e-01" nType="-99"/>
          <Node pos="r" depth="2" NCoef="0" IVar="-1" Cut="0.0000000000000000e+00" cType="1" res="1.2201759964227676e-03" rms="4.7320640087127686e-01" purity="4.6239826083183289e-01" nType="-99"/>
        </Node>
        <Node pos="r" depth="1" NCoef="0" IVar="4" Cut="3.8635739684104919e-01" cType="1" res="4.1679255664348602e-02" rms="4.4559022784233093e-01" purity="6.8455940485000610e-01" nType="0">
          <Node pos="l" depth="2" NCoef="0" IVar="-1" Cut="0.0000000000000000e+00" cType="1" res="6.4939260482788086e-04" rms="4.6024841070175171e-01" purity="6.3951474428176880e-01" nType="-99"/>
          <Node pos="r" depth="2" NCoef="0" IVar="-1" Cut="0.0000000000000000e+00" cType="1" res="4.2018997482955456e-03" rms="4.2797702550888062e-01" purity="7.3026353120803833e-01" nType="-99"/>
        </Node>
      </Node>
    </BinaryTree>
    <BinaryTree type="DecisionTree" boostWeight="1.0000000000000000e+00" itree="111">
      <Node pos="s" depth="0" NCoef="0" IVar="4" Cut="4.1669893264770508e-01" cType="1" res="7.2499469388276339e-04" rms="4.6000605821609497e-01" purity="4.9386256933212280e-01" nType="0">
        <Node pos="l" depth="1" NCoef="0" IVar="3" Cut="1.1117422580718994e-01" cType="1" res="-2.6135548949241638e-02" rms="4.6111360192298889e-01" purity="4.6543717384338379e-01" nType="0">
          <Node pos="l" depth="2" NCoef="0" IVar="-1" Cut="0.0000000000000000e+00" cType="1" res="-3.7420361768454313e-03" rms="4.5848003029823303e-01" purity="4.3815159797668457e-01" nType="-99"/>
          <Node pos="r" depth="2" NCoef="0" IVar="-1" Cut="0.0000000000000000e+00" cType="1" res="1.7329864203929901e-03" rms="4.6125972270965576e-01" purity="5.1614433526992798e-01" nType="-99"/>
        </Node>
        <Node pos="r" depth="1" NCoef="0" IVar="2" Cut="2.7859243774414062e+02" cType="1" res="3.3797655254602432e-02" rms="4.5647263526916504e-01" purity="5.2886193990707397e-01" nType="0">
          <Node pos="l" depth="2" NCoef="0" IVar="-1" Cut="0.0000000000000000e+00" cType="1" res="-6.0488015878945589e-04" rms="4.5258933305740356e-01" purity="3.8985908031463623e-01" nType="-99"/>
          <Node pos="r" depth="2" NCoef="0" IVar="-1" Cut="0.0000000000000000e+00" cType="1" res="4.0947017259895802e-03" rms="4.5671507716178894e-01" purity="6.4778226613998413e-01" nType="-99"/>
        </Node>
      </Node>
    </BinaryTree>
    <BinaryTree type="DecisionTree" boostWeight="1.0000000000000000e+00" itree="112">
      <Node pos="s" depth="0" NCoef="0" IVar="7" Cut="6.9534349441528320e-01" cType="1" res="1.0057717561721802e-02" rms="4.5984876155853271e-01" purity="5.0428307056427002e-01" nType="0">
        <Node pos="l" depth="1" NCoef="0" IVar="3" Cut="3.7683874368667603e-02" cType="1" res="-1.3828794471919537e-02" rms="4.6160414814949036e-01" purity="4.6120062470436096e-01" nType="0">
          <Node pos="l" depth="2" NCoef="0" IVar="-1" Cut="0.0000000000000000e+00" cType="1" res="-6.8166186101734638e-03" rms="4.4889575242996216e-01" purity="3.5399284958839417e-01" nType="-99"/>
          <Node pos="r" depth="2" NCoef="0" IVar="-1" Cut="0.0000000000000000e+00" cType="1" res="2.2393292747437954e-03" rms="4.6267819404602051e-01" purity="5.2830034494400024e-01" nType="-99"/>
        </Node>
        <Node pos="r" depth="1" NCoef="0" IVar="2" Cut="2.6080328369140625e+02" cType="1" res="4.3783124536275864e-02" rms="4.5522975921630859e-01" purity="5.6511116027832031e-01" nType="0">
          <Node pos="l" depth="2" NCoef="0" IVar="-1" Cut="0.0000000000000000e+00" cType="1" res="-6.2328932108357549e-04" rms="4.5013490319252014e-01" purity="3.7362557649612427e-01" nType="-99"/>
          <Node pos="r" depth="2" NCoef="0" IVar="-1" Cut="0.0000000000000000e+00" cType="1" res="3.6984109319746494e-03" rms="4.5559465885162354e-01" purity="6.3380116224288940e-01" nType="-99"/>
        </Node>
      </Node>
    </BinaryTree>
    <BinaryTree type="DecisionTree" boostWeight="1.0000000000000000e+00" itree="113">
      <Node pos="s" depth="0" NCoef="0" IVar="2" Cut="3.9287210083007812e+02" cType="1" res="9.1701308265328407e-03" rms="4.5983162522315979e-01" purity="5.0376033782958984e-01" nType="0">
        <Node pos="l" depth="1" NCoef="0" IVar="4" Cut="3.8886630535125732e-01" cType="1" res="-7.7984482049942017e-03" rms="4.6202653646469116e-01" purity="4.4968780875205994e-01" nType="0">
          <Node pos="l" depth="2" NCoef="0" IVar="-1" Cut="0.0000000000000000e+00" cType="1" res="-2.7453962247818708e-03" rms="4.6019858121871948e-01" purity="4.0575459599494934e-01" nType="-99"/>
          <Node pos="r" depth="2" NCoef="0" IVar="-1" Cut="0.0000000000000000e+00" cType="1" res="1.3108120765537024e-03" rms="4.6183940768241882e-01" purity="4.8781594634056091e-01" nType="-99"/>
        </Node>
        <Node pos="r" depth="1" NCoef="0" IVar="1" Cut="8.9048457145690918e-01" cType="1" res="5.9477385133504868e-02" rms="4.4951289892196655e-01" purity="6.6407078504562378e-01" nType="0">
          <Node pos="l" depth="2" NCoef="0" IVar="-1" Cut="0.0000000000000000e+00" cType="1" res="5.5856938706710935e-04" rms="4.8469826579093933e-01" purity="5.4106587171554565e-01" nType="-99"/>
          <Node pos="r" depth="2" NCoef="0" IVar="-1" Cut="0.0000000000000000e+00" cType="1" res="5.1976470276713371e-03" rms="4.2477077245712280e-01" purity="7.3630660772323608e-01" nType="-99"/>
        </Node>
      </Node>
    </BinaryTree>
    <BinaryTree type="DecisionTree" boostWeight="1.0000000000000000e+00" itree="114">
      <Node pos="s" depth="0" NCoef="0" IVar="0" Cut="6.2517261505126953e-01" cType="1" res="-6.1012025980744511e-05" rms="4.5911878347396851e-01" purity="4.9472904205322266e-01" nType="0">
        <Node pos="l" depth="1" NCoef="0" IVar="7" Cut="6.7792183160781860e-01" cType="1" res="-5.1291391253471375e-02" rms="4.4581222534179688e-01" purity="3.1113138794898987e-01" nType="0">
          <Node pos="l" depth="2" NCoef="0" IVar="-1" Cut="0.0000000000000000e+00" cType="1" res="-6.5650949254631996e-03" rms="4.2601129412651062e-01" purity="2.6676186919212341e-01" nType="-99"/>
          <Node pos="r" depth="2" NCoef="0" IVar="-1" Cut="0.0000000000000000e+00" cType="1" res="-1.6748686321079731e-03" rms="4.6631017327308655e-01" purity="3.6322236061096191e-01" nType="-99"/>
        </Node>
        <Node pos="r" depth="1" NCoef="0" IVar="0" Cut="4.4815874099731445e+00" cType="1" res="1.5415133908390999e-02" rms="4.6194729208946228e-01" purity="5.5019187927246094e-01" nType="0">
          <Node pos="l" depth="2" NCoef="0" IVar="-1" Cut="0.0000000000000000e+00" cType="1" res="4.4648139737546444e-04" rms="4.6896466612815857e-01" purity="5.2336549758911133e-01" nType="-99"/>
          <Node pos="r" depth="2" NCoef="0" IVar="-1" Cut="0.0000000000000000e+00" cType="1" res="5.6543895043432713e-03" rms="3.8028708100318909e-01" purity="8.0458307266235352e-01" nType="-99"/>
        </Node>
      </Node>
    </BinaryTree>
    <BinaryTree type="DecisionTree" boostWeight="1.0000000000000000e+00" itree="115">
      <Node pos="s" depth="0" NCoef="0" IVar="1" Cut="8.7925362586975098e-01" cType="1" res="3.9680055342614651e-03" rms="4.5799517631530762e-01" purity="4.9961540102958679e-01" nType="0">
        <Node pos="l" depth="1" NCoef="0" IVar="3" Cut="1.6061821579933167e-01" cType="1" res="-3.9753999561071396e-02" rms="4.5546159148216248e-01" purity="3.5632041096687317e-01" nType="0">
          <Node pos="l" depth="2" NCoef="0" IVar="-1" Cut="0.0000000000000000e+00" cType="1" res="-4.1432501748204231e-03" rms="4.4673547148704529e-01" purity="3.3803135156631470e-01" nType="-99"/>
          <Node pos="r" depth="2" NCoef="0" IVar="-1" Cut="0.0000000000000000e+00" cType="1" res="2.6382720097899437e-03" rms="4.8642525076866150e-01" purity="4.4199410080909729e-01" nType="-99"/>
        </Node>
        <Node pos="r" depth="1" NCoef="0" IVar="4" Cut="4.5594647526741028e-01" cType="1" res="2.4069853127002716e-02" rms="4.5775607228279114e-01" purity="5.6549739837646484e-01" nType="0">
          <Node pos="l" depth="2" NCoef="0" IVar="-1" Cut="0.0000000000000000e+00" cType="1" res="1.0789269435917959e-04" rms="4.6184861660003662e-01" purity="5.4116576910018921e-01" nType="-99"/>
          <Node pos="r" depth="2" NCoef="0" IVar="-1" Cut="0.0000000000000000e+00" cType="1" res="3.7052931729704142e-03" rms="4.4897925853729248e-01" purity="6.0381823778152466e-01" nType="-99"/>
        </Node>
      </Node>
    </BinaryTree>
    <BinaryTree type="DecisionTree" boostWeight="1.0000000000000000e+00" itree="116">
      <Node pos="s" depth="0" NCoef="0" IVar="3" Cut="-6.0005281120538712e-02" cType="1" res="1.0216974653303623e-02" rms="4.5888358354568481e-01" purity="5.0569170713424683e-01" nType="0">
        <Node pos="l" depth="1" NCoef="0" IVar="7" Cut="7.3458147048950195e-01" cType="1" res="-3.1991615891456604e-02" rms="4.5293006300926208e-01" purity="4.6304994821548462e-01" nType="0">
          <Node pos="l" depth="2" NCoef="0" IVar="-1" Cut="0.0000000000000000e+00" cType="1" res="-6.6719092428684235e-03" rms="4.4568207859992981e-01" purity="3.6113175749778748e-01" nType="-99"/>
          <Node pos="r" depth="2" NCoef="0" IVar="-1" Cut="0.0000000000000000e+00" cType="1" res="1.6919423360377550e-03" rms="4.5228821039199829e-01" purity="5.6294208765029907e-01" nType="-99"/>
        </Node>
        <Node pos="r" depth="1" NCoef="0" IVar="1" Cut="9.4096833467483521e-01" cType="1" res="2.7684098109602928e-02" rms="4.6019369363784790e-01" purity="5.2333807945251465e-01" nType="0">
          <Node pos="l" depth="2" NCoef="0" IVar="-1" Cut="0.0000000000000000e+00" cType="1" res="8.0565293319523335e-04" rms="4.7048228979110718e-01" purity="4.5321118831634521e-01" nType="-99"/>
          <Node pos="r" depth="2" NCoef="0" IVar="-1" Cut="0.0000000000000000e+00" cType="1" res="4.5352303422987461e-03" rms="4.2303499579429626e-01" purity="7.4142301082611084e-01" nType="-99"/>
        </Node>
      </Node>
    </BinaryTree>
    <BinaryTree type="DecisionTree" boostWeight="1.0000000000000000e+00" itree="117">
      <Node pos="s" depth="0" NCoef="0" IVar="0" Cut="2.2151045799255371e+00" cType="1" res="4.9924445338547230e-03" rms="4.5943316817283630e-01" purity="5.0077706575393677e-01" nType="0">
        <Node pos="l" depth="1" NCoef="0" IVar="4" Cut="5.1063644886016846e-01" cType="1" res="-1.3841681182384491e-02" rms="4.6478274464607239e-01" purity="4.0790560841560364e-01" nType="0">
          <Node pos="l" depth="2" NCoef="0" IVar="-1" Cut="0.0000000000000000e+00" cType="1" res="-2.3431249428540468e-03" rms="4.6256297826766968e-01" purity="3.8917362689971924e-01" nType="-99"/>
          <Node pos="r" depth="2" NCoef="0" IVar="-1" Cut="0.0000000000000000e+00" cType="1" res="2.0919151138514280e-03" rms="4.6690103411674500e-01" purity="4.5159530639648438e-01" nType="-99"/>
        </Node>
        <Node pos="r" depth="1" NCoef="0" IVar="6" Cut="8.9973056316375732e-01" cType="1" res="3.8640946149826050e-02" rms="4.4774967432022095e-01" purity="6.6669845581054688e-01" nType="0">
          <Node pos="l" depth="2" NCoef="0" IVar="-1" Cut="0.0000000000000000e+00" cType="1" res="4.5692319981753826e-03" rms="4.3021160364151001e-01" purity="7.3239159584045410e-01" nType="-99"/>
          <Node pos="r" depth="2" NCoef="0" IVar="-1" Cut="0.0000000000000000e+00" cType="1" res="1.1961715063080192e-03" rms="4.5417460799217224e-01" purity="6.3728517293930054e-01" nType="-99"/>
        </Node>
      </Node>
    </BinaryTree>
    <BinaryTree type="DecisionTree" boostWeight="1.0000000000000000e+00" itree="118">
      <Node pos="s" depth="0" NCoef="0" IVar="2" Cut="2.7110787963867188e+02" cType="1" res="5.8543472550809383e-03" rms="4.5857918262481689e-01" purity="5.0070214271545410e-01" nType="0">
        <Node pos="l" depth="1" NCoef="0" IVar="6" Cut="1.3854060173034668e+00" cType="1" res="-3.1732842326164246e-02" rms="4.4300630688667297e-01" purity="3.4963086247444153e-01" nType="0">
          <Node pos="l" depth="2" NCoef="0" IVar="-1" Cut="0.0000000000000000e+00" cType="1" res="2.2754288511350751e-04" rms="4.5273417234420776e-01" purity="3.9647305011749268e-01" nType="-99"/>
          <Node pos="r" depth="2" NCoef="0" IVar="-1" Cut="0.0000000000000000e+00" cType="1" res="-6.3871061429381371e-03" rms="4.2543449997901917e-01" purity="2.8767549991607666e-01" nType="-99"/>
        </Node>
        <Node pos="r" depth="1" NCoef="0" IVar="4" Cut="4.0078687667846680e-01" cType="1" res="2.6250565424561501e-02" rms="4.6554377675056458e-01" purity="5.8267909288406372e-01" nType="0">
          <Node pos="l" depth="2" NCoef="0" IVar="-1" Cut="0.0000000000000000e+00" cType="1" res="-1.1940144759137183e-04" rms="4.7093099355697632e-01" purity="5.4007303714752197e-01" nType="-99"/>
          <Node pos="r" depth="2" NCoef="0" IVar="-1" Cut="0.0000000000000000e+00" cType="1" res="3.8246631156653166e-03" rms="4.5524218678474426e-01" purity="6.4103877544403076e-01" nType="-99"/>
        </Node>
      </Node>
    </BinaryTree>
    <BinaryTree type="DecisionTree" boostWeight="1.0000000000000000e+00" itree="119">
      <Node pos="s" depth="0" NCoef="0" IVar="0" Cut="9.9779233336448669e-02" cType="1" res="6.0326000675559044e-03" rms="4.5783358812332153e-01" purity="5.0126624107360840e-01" nType="0">
        <Node pos="l" depth="1" NCoef="0" IVar="6" Cut="1.1903289556503296e+00" cType="1" res="-6.8454310297966003e-02" rms="4.3620923161506653e-01" purity="2.8985792398452759e-01" nType="0">
          <Node pos="l" depth="2" NCoef="0" IVar="-1" Cut="0.0000000000000000e+00" cType="1" res="-2.7790227904915810e-03" rms="4.6140140295028687e-01" purity="3.4700787067413330e-01" nType="-99"/>
          <Node pos="r" depth="2" NCoef="0" IVar="-1" Cut="0.0000000000000000e+00" cType="1" res="-9.3602873384952545e-03" rms="4.0504890680313110e-01" purity="2.2927643358707428e-01" nType="-99"/>
        </Node>
        <Node pos="r" depth="1" NCoef="0" IVar="2" Cut="2.0493075561523438e+02" cType="1" res="1.5564807690680027e-02" rms="4.5965728163719177e-01" purity="5.2832049131393433e-01" nType="0">
          <Node pos="l" depth="2" NCoef="0" IVar="-1" Cut="0.0000000000000000e+00" cType="1" res="-6.8350350484251976e-03" rms="4.2189359664916992e-01" purity="2.5557196140289307e-01" nType="-99"/>
          <Node pos="r" depth="2" NCoef="0" IVar="-1" Cut="0.0000000000000000e+00" cType="1" res="1.4793269801884890e-03" rms="4.6181944012641907e-01" purity="5.5137503147125244e-01" nType="-99"/>
        </Node>
      </Node>
    </BinaryTree>
    <BinaryTree type="DecisionTree" boostWeight="1.0000000000000000e+00" itree="120">
      <Node pos="s" depth="0" NCoef="0" IVar="4" Cut="3.3695459365844727e-01" cType="1" res="-1.5024466847535223e-04" rms="4.5696374773979187e-01" purity="4.9534469842910767e-01" nType="0">
        <Node pos="l" depth="1" NCoef="0" IVar="3" Cut="1.2626896798610687e-01" cType="1" res="-3.6472175270318985e-02" rms="4.5854943990707397e-01" purity="4.5269802212715149e-01" nType="0">
          <Node pos="l" depth="2" NCoef="0" IVar="-1" Cut="0.0000000000000000e+00" cType="1" res="-5.2234837785363197e-03" rms="4.5223128795623779e-01" purity="4.1147392988204956e-01" nType="-99"/>
          <Node pos="r" depth="2" NCoef="0" IVar="-1" Cut="0.0000000000000000e+00" cType="1" res="2.4310282897204161e-03" rms="4.6166506409645081e-01" purity="5.3394645452499390e-01" nType="-99"/>
        </Node>
        <Node pos="r" depth="1" NCoef="0" IVar="2" Cut="3.7754019165039062e+02" cType="1" res="2.4457443505525589e-02" rms="4.5423892140388489e-01" purity="5.2423727512359619e-01" nType="0">
          <Node pos="l" depth="2" NCoef="0" IVar="-1" Cut="0.0000000000000000e+00" cType="1" res="4.8597424756735563e-04" rms="4.5824706554412842e-01" purity="4.6938613057136536e-01" nType="-99"/>
          <Node pos="r" depth="2" NCoef="0" IVar="-1" Cut="0.0000000000000000e+00" cType="1" res="4.8878006637096405e-03" rms="4.3503060936927795e-01" purity="7.1253758668899536e-01" nType="-99"/>
        </Node>
      </Node>
    </BinaryTree>
    <BinaryTree type="DecisionTree" boostWeight="1.0000000000000000e+00" itree="121">
      <Node pos="s" depth="0" NCoef="0" IVar="2" Cut="3.4458129882812500e+02" cType="1" res="3.7430857773870230e-03" rms="4.5882678031921387e-01" purity="5.0052613019943237e-01" nType="0">
        <Node pos="l" depth="1" NCoef="0" IVar="6" Cut="8.4248411655426025e-01" cType="1" res="-1.7683124169707298e-02" rms="4.5774656534194946e-01" purity="4.2132282257080078e-01" nType="0">
          <Node pos="l" depth="2" NCoef="0" IVar="-1" Cut="0.0000000000000000e+00" cType="1" res="2.6924638077616692e-03" rms="4.6480828523635864e-01" purity="5.0503903627395630e-01" nType="-99"/>
          <Node pos="r" depth="2" NCoef="0" IVar="-1" Cut="0.0000000000000000e+00" cType="1" res="-2.2046647500246763e-03" rms="4.5511385798454285e-01" purity="4.0266185998916626e-01" nType="-99"/>
        </Node>
        <Node pos="r" depth="1" NCoef="0" IVar="7" Cut="8.2693207263946533e-01" cType="1" res="3.9170604199171066e-02" rms="4.5841568708419800e-01" purity="6.3148623704910278e-01" nType="0">
          <Node pos="l" depth="2" NCoef="0" IVar="-1" Cut="0.0000000000000000e+00" cType="1" res="1.2167539680376649e-03" rms="4.6633806824684143e-01" purity="6.0649502277374268e-01" nType="-99"/>
          <Node pos="r" depth="2" NCoef="0" IVar="-1" Cut="0.0000000000000000e+00" cType="1" res="6.3290381804108620e-03" rms="4.1991880536079407e-01" purity="7.2490471601486206e-01" nType="-99"/>
        </Node>
      </Node>
    </BinaryTree>
    <BinaryTree type="DecisionTree" boostWeight="1.0000000000000000e+00" itree="122">
      <Node pos="s" depth="0" NCoef="0" IVar="0" Cut="3.6440405845642090e+00" cType="1" res="5.6191743351519108e-03" rms="4.5884352922439575e-01" purity="4.9899041652679443e-01" nType="0">
        <Node pos="l" depth="1" NCoef="0" IVar="3" Cut="-6.0644287616014481e-02" cType="1" res="-5.2751502953469753e-03" rms="4.6483880281448364e-01" purity="4.5703214406967163e-01" nType="0">
          <Node pos="l" depth="2" NCoef="0" IVar="-1" Cut="0.0000000000000000e+00" cType="1" res="-3.1664324924349785e-03" rms="4.5401689410209656e-01" purity="4.1729155182838440e-01" nType="-99"/>
          <Node pos="r" depth="2" NCoef="0" IVar="-1" Cut="0.0000000000000000e+00" cType="1" res="7.5520883547142148e-04" rms="4.6823537349700928e-01" purity="4.7347480058670044e-01" nType="-99"/>
        </Node>
        <Node pos="r" depth="1" NCoef="0" IVar="3" Cut="2.0326822996139526e-02" cType="1" res="7.1600325405597687e-02" rms="4.1463953256607056e-01" purity="7.5310987234115601e-01" nType="0">
          <Node pos="l" depth="2" NCoef="0" IVar="-1" Cut="0.0000000000000000e+00" cType="1" res="2.4336397182196379e-03" rms="4.2963394522666931e-01" purity="7.2215110063552856e-01" nType="-99"/>
          <Node pos="r" depth="2" NCoef="0" IVar="-1" Cut="0.0000000000000000e+00" cType="1" res="6.0396986082196236e-03" rms="3.9517298340797424e-01" purity="7.8632336854934692e-01" nType="-99"/>
        </Node>
      </Node>
    </BinaryTree>
    <BinaryTree type="DecisionTree" boostWeight="1.0000000000000000e+00" itree="123">
      <Node pos="s" depth="0" NCoef="0" IVar="0" Cut="2.9889214038848877e+00" cType="1" res="1.9938866607844830e-03" rms="4.5581793785095215e-01" purity="4.9902257323265076e-01" nType="0">
        <Node pos="l" depth="1" NCoef="0" IVar="3" Cut="1.7785611748695374e-01" cType="1" res="-1.3772776350378990e-02" rms="4.6209591627120972e-01" purity="4.3456479907035828e-01" nType="0">
          <Node pos="l" depth="2" NCoef="0" IVar="-1" Cut="0.0000000000000000e+00" cType="1" res="-1.7966363811865449e-03" rms="4.5936384797096252e-01" purity="4.2149192094802856e-01" nType="-99"/>
          <Node pos="r" depth="2" NCoef="0" IVar="-1" Cut="0.0000000000000000e+00" cType="1" res="3.6397378426045179e-03" rms="4.7169750928878784e-01" purity="5.1194196939468384e-01" nType="-99"/>
        </Node>
        <Node pos="r" depth="1" NCoef="0" IVar="2" Cut="3.6172164916992188e+02" cType="1" res="5.4651625454425812e-02" rms="4.3002420663833618e-01" purity="7.1429944038391113e-01" nType="0">
          <Node pos="l" depth="2" NCoef="0" IVar="-1" Cut="0.0000000000000000e+00" cType="1" res="1.7050276510417461e-03" rms="4.5614105463027954e-01" purity="6.5002602338790894e-01" nType="-99"/>
          <Node pos="r" depth="2" NCoef="0" IVar="-1" Cut="0.0000000000000000e+00" cType="1" res="5.3718728013336658e-03" rms="3.8706624507904053e-01" purity="8.0559533834457397e-01" nType="-99"/>
        </Node>
      </Node>
    </BinaryTree>
    <BinaryTree type="DecisionTree" boostWeight="1.0000000000000000e+00" itree="124">
      <Node pos="s" depth="0" NCoef="0" IVar="1" Cut="8.9457464218139648e-01" cType="1" res="1.3912564143538475e-02" rms="4.5814958214759827e-01" purity="5.0865459442138672e-01" nType="0">
        <Node pos="l" depth="1" NCoef="0" IVar="3" Cut="-7.6412975788116455e-02" cType="1" res="-1.5096241608262062e-02" rms="4.6247535943984985e-01" purity="3.8457769155502319e-01" nType="0">
          <Node pos="l" depth="2" NCoef="0" IVar="-1" Cut="0.0000000000000000e+00" cType="1" res="-4.4239754788577557e-03" rms="4.4713592529296875e-01" purity="3.3113881945610046e-01" nType="-99"/>
          <Node pos="r" depth="2" NCoef="0" IVar="-1" Cut="0.0000000000000000e+00" cType="1" res="-9.5883566245902330e-05" rms="4.6620467305183411e-01" purity="4.0091484785079956e-01" nType="-99"/>
        </Node>
        <Node pos="r" depth="1" NCoef="0" IVar="3" Cut="1.3254716992378235e-02" cType="1" res="3.6713581532239914e-02" rms="4.5341980457305908e-01" purity="6.0617953538894653e-01" nType="0">
          <Node pos="l" depth="2" NCoef="0" IVar="-1" Cut="0.0000000000000000e+00" cType="1" res="6.9542811252176762e-04" rms="4.5255273580551147e-01" purity="5.7474994659423828e-01" nType="-99"/>
          <Node pos="r" depth="2" NCoef="0" IVar="-1" Cut="0.0000000000000000e+00" cType="1" res="3.8239965215325356e-03" rms="4.5279964804649353e-01" purity="6.3784623146057129e-01" nType="-99"/>
        </Node>
      </Node>
    </BinaryTree>
    <BinaryTree type="DecisionTree" boostWeight="1.0000000000000000e+00" itree="125">
      <Node pos="s" depth="0" NCoef="0" IVar="2" Cut="5.6419769287109375e+02" cType="1" res="6.4858770929276943e-04" rms="4.5755201578140259e-01" purity="4.9678635597229004e-01" nType="0">
        <Node pos="l" depth="1" NCoef="0" IVar="1" Cut="9.6795511245727539e-01" cType="1" res="-6.6247549839317799e-03" rms="4.5844602584838867e-01" purity="4.8019656538963318e-01" nType="0">
          <Node pos="l" depth="2" NCoef="0" IVar="-1" Cut="0.0000000000000000e+00" cType="1" res="-1.1076568625867367e-03" rms="4.6466544270515442e-01" purity="4.3937712907791138e-01" nType="-99"/>
          <Node pos="r" depth="2" NCoef="0" IVar="-1" Cut="0.0000000000000000e+00" cType="1" res="4.1515948250889778e-03" rms="4.0189060568809509e-01" purity="7.8358024358749390e-01" nType="-99"/>
        </Node>
        <Node pos="r" depth="1" NCoef="0" IVar="-1" Cut="0.0000000000000000e+00" cType="1" res="5.6710666976869106e-03" rms="4.3361252546310425e-01" purity="7.2019433975219727e-01" nType="-99"/>
      </Node>
    </BinaryTree>
    <BinaryTree type="DecisionTree" boostWeight="1.0000000000000000e+00" itree="126">
      <Node pos="s" depth="0" NCoef="0" IVar="1" Cut="9.6795386075973511e-01" cType="1" res="1.1747184908017516e-03" rms="4.5704972743988037e-01" purity="4.9648499488830566e-01" nType="0">
        <Node pos="l" depth="1" NCoef="0" IVar="2" Cut="3.0900833129882812e+02" cType="1" res="-8.2962745800614357e-03" rms="4.6373471617698669e-01" purity="4.5659053325653076e-01" nType="0">
          <Node pos="l" depth="2" NCoef="0" IVar="-1" Cut="0.0000000000000000e+00" cType="1" res="-2.4407801683992147e-03" rms="4.5094278454780579e-01" purity="3.5437235236167908e-01" nType="-99"/>
          <Node pos="r" depth="2" NCoef="0" IVar="-1" Cut="0.0000000000000000e+00" cType="1" res="1.1205779155716300e-03" rms="4.7592964768409729e-01" purity="5.6886500120162964e-01" nType="-99"/>
        </Node>
        <Node pos="r" depth="1" NCoef="0" IVar="-1" Cut="0.0000000000000000e+00" cType="1" res="4.5297192409634590e-03" rms="3.9612621068954468e-01" purity="7.9618972539901733e-01" nType="-99"/>
      </Node>
    </BinaryTree>
    <BinaryTree type="DecisionTree" boostWeight="1.0000000000000000e+00" itree="127">
      <Node pos="s" depth="0" NCoef="0" IVar="3" Cut="5.3602285683155060e-02" cType="1" res="7.4964785017073154e-03" rms="4.5938590168952942e-01" purity="5.0294607877731323e-01" nType="0">
        <Node pos="l" depth="1" NCoef="0" IVar="7" Cut="6.1876589059829712e-01" cType="1" res="-1.3547688722610474e-02" rms="4.5393157005310059e-01" purity="4.7789961099624634e-01" nType="0">
          <Node pos="l" depth="2" NCoef="0" IVar="-1" Cut="0.0000000000000000e+00" cType="1" res="-7.1882870979607105e-03" rms="4.3668910861015320e-01" purity="3.3448392152786255e-01" nType="-99"/>
          <Node pos="r" depth="2" NCoef="0" IVar="-1" Cut="0.0000000000000000e+00" cType="1" res="1.0327104246243834e-03" rms="4.5645079016685486e-01" purity="5.2971744537353516e-01" nType="-99"/>
        </Node>
        <Node pos="r" depth="1" NCoef="0" IVar="3" Cut="2.0995721220970154e-01" cType="1" res="3.9324861019849777e-02" rms="4.6571117639541626e-01" purity="5.4082792997360229e-01" nType="0">
          <Node pos="l" depth="2" NCoef="0" IVar="-1" Cut="0.0000000000000000e+00" cType="1" res="1.5734890475869179e-03" rms="4.6465739607810974e-01" purity="5.2734488248825073e-01" nType="-99"/>
          <Node pos="r" depth="2" NCoef="0" IVar="-1" Cut="0.0000000000000000e+00" cType="1" res="5.2179037593305111e-03" rms="4.6592667698860168e-01" purity="5.8295160531997681e-01" nType="-99"/>
        </Node>
      </Node>
    </BinaryTree>
    <BinaryTree type="DecisionTree" boostWeight="1.0000000000000000e+00" itree="128">
      <Node pos="s" depth="0" NCoef="0" IVar="3" Cut="-3.1678492669016123e-03" cType="1" res="2.4540221784263849e-03" rms="4.5740893483161926e-01" purity="4.9800994992256165e-01" nType="0">
        <Node pos="l" depth="1" NCoef="0" IVar="7" Cut="5.8533930778503418e-01" cType="1" res="-2.5997862219810486e-02" rms="4.5272794365882874e-01" purity="4.6335422992706299e-01" nType="0">
          <Node pos="l" depth="2" NCoef="0" IVar="-1" Cut="0.0000000000000000e+00" cType="1" res="-9.7123114392161369e-03" rms="4.2542475461959839e-01" purity="2.8561854362487793e-01" nType="-99"/>
          <Node pos="r" depth="2" NCoef="0" IVar="-1" Cut="0.0000000000000000e+00" cType="1" res="-1.6595067791058682e-05" rms="4.5633962750434875e-01" purity="5.1095360517501831e-01" nType="-99"/>
        </Node>
        <Node pos="r" depth="1" NCoef="0" IVar="0" Cut="9.3407595157623291e-01" cType="1" res="2.6658350601792336e-02" rms="4.5997038483619690e-01" purity="5.2749192714691162e-01" nType="0">
          <Node pos="l" depth="2" NCoef="0" IVar="-1" Cut="0.0000000000000000e+00" cType="1" res="-1.0189909953624010e-03" rms="4.5938009023666382e-01" purity="3.5843089222908020e-01" nType="-99"/>
          <Node pos="r" depth="2" NCoef="0" IVar="-1" Cut="0.0000000000000000e+00" cType="1" res="2.6360719930380583e-03" rms="4.5916032791137695e-01" purity="5.9982305765151978e-01" nType="-99"/>
        </Node>
      </Node>
    </BinaryTree>
    <BinaryTree type="DecisionTree" boostWeight="1.0000000000000000e+00" itree="129">
      <Node pos="s" depth="0" NCoef="0" IVar="2" Cut="2.5265628051757812e+02" cType="1" res="7.0683151716366410e-04" rms="4.5682847499847412e-01" purity="4.9628806114196777e-01" nType="0">
        <Node pos="l" depth="1" NCoef="0" IVar="6" Cut="1.2868984937667847e+00" cType="1" res="-4.1809093207120895e-02" rms="4.3693134188652039e-01" purity="3.1766358017921448e-01" nType="0">
          <Node pos="l" depth="2" NCoef="0" IVar="-1" Cut="0.0000000000000000e+00" cType="1" res="-6.3866918208077550e-04" rms="4.5200216770172119e-01" purity="3.6014652252197266e-01" nType="-99"/>
          <Node pos="r" depth="2" NCoef="0" IVar="-1" Cut="0.0000000000000000e+00" cType="1" res="-6.2563396058976650e-03" rms="4.1953212022781372e-01" purity="2.7704876661300659e-01" nType="-99"/>
        </Node>
        <Node pos="r" depth="1" NCoef="0" IVar="4" Cut="3.3325433731079102e-01" cType="1" res="1.6332682222127914e-02" rms="4.6294665336608887e-01" purity="5.6193780899047852e-01" nType="0">
          <Node pos="l" depth="2" NCoef="0" IVar="-1" Cut="0.0000000000000000e+00" cType="1" res="-9.5798255642876029e-04" rms="4.6729946136474609e-01" purity="5.0988948345184326e-01" nType="-99"/>
          <Node pos="r" depth="2" NCoef="0" IVar="-1" Cut="0.0000000000000000e+00" cType="1" res="2.4897588882595301e-03" rms="4.5802477002143860e-01" purity="6.0261511802673340e-01" nType="-99"/>
        </Node>
      </Node>
    </BinaryTree>
    <BinaryTree type="DecisionTree" boostWeight="1.0000000000000000e+00" itree="130">
      <Node pos="s" depth="0" NCoef="0" IVar="3" Cut="1.7970907688140869e-01" cType="1" res="3.3975711558014154e-03" rms="4.5911619067192078e-01" purity="4.9997860193252563e-01" nType="0">
        <Node pos="l" depth="1" NCoef="0" IVar="4" Cut="3.2011583447456360e-01" cType="1" res="-6.6411895677447319e-03" rms="4.5791128277778625e-01" purity="4.8848605155944824e-01" nType="0">
          <Node pos="l" depth="2" NCoef="0" IVar="-1" Cut="0.0000000000000000e+00" cType="1" res="-4.0107588283717632e-03" rms="4.5844858884811401e-01" purity="4.2804893851280212e-01" nType="-99"/>
          <Node pos="r" depth="2" NCoef="0" IVar="-1" Cut="0.0000000000000000e+00" cType="1" res="1.2312912149354815e-03" rms="4.5551812648773193e-01" purity="5.1838719844818115e-01" nType="-99"/>
        </Node>
        <Node pos="r" depth="1" NCoef="0" IVar="7" Cut="4.2651268839836121e-01" cType="1" res="6.2898702919483185e-02" rms="4.6173480153083801e-01" purity="5.6809675693511963e-01" nType="0">
          <Node pos="l" depth="2" NCoef="0" IVar="-1" Cut="0.0000000000000000e+00" cType="1" res="5.5956905707716942e-03" rms="4.6160691976547241e-01" purity="5.7740581035614014e-01" nType="-99"/>
          <Node pos="r" depth="2" NCoef="0" IVar="-1" Cut="0.0000000000000000e+00" cType="1" res="2.2775188554078341e-03" rms="4.6026009321212769e-01" purity="5.5932593345642090e-01" nType="-99"/>
        </Node>
      </Node>
    </BinaryTree>
    <BinaryTree type="DecisionTree" boostWeight="1.0000000000000000e+00" itree="131">
      <Node pos="s" depth="0" NCoef="0" IVar="3" Cut="9.1763064265251160e-02" cType="1" res="3.1273229978978634e-03" rms="4.5710861682891846e-01" purity="4.9885323643684387e-01" nType="0">
        <Node pos="l" depth="1" NCoef="0" IVar="7" Cut="5.6025451421737671e-01" cType="1" res="-1.3818094506859779e-02" rms="4.5325303077697754e-01" purity="4.7818201780319214e-01" nType="0">
          <Node pos="l" depth="2" NCoef="0" IVar="-1" Cut="0.0000000000000000e+00" cType="1" res="-8.6728129535913467e-03" rms="4.3288820981979370e-01" purity="3.0732801556587219e-01" nType="-99"/>
          <Node pos="r" depth="2" NCoef="0" IVar="-1" Cut="0.0000000000000000e+00" cType="1" res="5.3420144831761718e-04" rms="4.5492380857467651e-01" purity="5.1713651418685913e-01" nType="-99"/>
        </Node>
        <Node pos="r" depth="1" NCoef="0" IVar="1" Cut="8.7531393766403198e-01" cType="1" res="4.0531039237976074e-02" rms="4.6331739425659180e-01" purity="5.4448086023330688e-01" nType="0">
          <Node pos="l" depth="2" NCoef="0" IVar="-1" Cut="0.0000000000000000e+00" cType="1" res="-6.1226787511259317e-04" rms="4.6810421347618103e-01" purity="4.0031665563583374e-01" nType="-99"/>
          <Node pos="r" depth="2" NCoef="0" IVar="-1" Cut="0.0000000000000000e+00" cType="1" res="3.7199927028268576e-03" rms="4.5995891094207764e-01" purity="6.0125315189361572e-01" nType="-99"/>
        </Node>
      </Node>
    </BinaryTree>
    <BinaryTree type="DecisionTree" boostWeight="1.0000000000000000e+00" itree="132">
      <Node pos="s" depth="0" NCoef="0" IVar="2" Cut="4.6222189331054688e+02" cType="1" res="5.4702614434063435e-03" rms="4.5760199427604675e-01" purity="5.0089174509048462e-01" nType="0">
        <Node pos="l" depth="1" NCoef="0" IVar="4" Cut="3.4871172904968262e-01" cType="1" res="-5.9169689193367958e-03" rms="4.5931014418601990e-01" purity="4.6772855520248413e-01" nType="0">
          <Node pos="l" depth="2" NCoef="0" IVar="-1" Cut="0.0000000000000000e+00" cType="1" res="-2.6733949780464172e-03" rms="4.6154940128326416e-01" purity="4.2109096050262451e-01" nType="-99"/>
          <Node pos="r" depth="2" NCoef="0" IVar="-1" Cut="0.0000000000000000e+00" cType="1" res="1.0752743110060692e-03" rms="4.5646050572395325e-01" purity="4.9950003623962402e-01" nType="-99"/>
        </Node>
        <Node pos="r" depth="1" NCoef="0" IVar="2" Cut="5.7984436035156250e+02" cType="1" res="7.1471266448497772e-02" rms="4.4183030724525452e-01" purity="6.9310766458511353e-01" nType="0">
          <Node pos="l" depth="2" NCoef="0" IVar="-1" Cut="0.0000000000000000e+00" cType="1" res="2.3050317540764809e-03" rms="4.5286795496940613e-01" purity="6.5770018100738525e-01" nType="-99"/>
          <Node pos="r" depth="2" NCoef="0" IVar="-1" Cut="0.0000000000000000e+00" cType="1" res="6.6360072232782841e-03" rms="4.2261695861816406e-01" purity="7.4027580022811890e-01" nType="-99"/>
        </Node>
      </Node>
    </BinaryTree>
    <BinaryTree type="DecisionTree" boostWeight="1.0000000000000000e+00" itree="133">
      <Node pos="s" depth="0" NCoef="0" IVar="2" Cut="5.6139025878906250e+02" cType="1" res="2.9790350235998631e-03" rms="4.5718529820442200e-01" purity="4.9775773286819458e-01" nType="0">
        <Node pos="l" depth="1" NCoef="0" IVar="3" Cut="1.4800788462162018e-01" cType="1" res="-4.0391297079622746e-03" rms="4.5810461044311523e-01" purity="4.8051583766937256e-01" nType="0">
          <Node pos="l" depth="2" NCoef="0" IVar="-1" Cut="0.0000000000000000e+00" cType="1" res="-1.2168225366622210e-03" rms="4.5570731163024902e-01" purity="4.6296432614326477e-01" nType="-99"/>
          <Node pos="r" depth="2" NCoef="0" IVar="-1" Cut="0.0000000000000000e+00" cType="1" res="2.9986812733113766e-03" rms="4.6339607238769531e-01" purity="5.4690998792648315e-01" nType="-99"/>
        </Node>
        <Node pos="r" depth="1" NCoef="0" IVar="-1" Cut="0.0000000000000000e+00" cType="1" res="5.5352537892758846e-03" rms="4.3444392085075378e-01" purity="7.2486102581024170e-01" nType="-99"/>
      </Node>
    </BinaryTree>
    <BinaryTree type="DecisionTree" boostWeight="1.0000000000000000e+00" itree="134">
      <Node pos="s" depth="0" NCoef="0" IVar="0" Cut="7.6998502016067505e-01" cType="1" res="9.8310420289635658e-03" rms="4.5598196983337402e-01" purity="5.0835061073303223e-01" nType="0">
        <Node pos="l" depth="1" NCoef="0" IVar="2" Cut="2.5728771972656250e+02" cType="1" res="-3.2326921820640564e-02" rms="4.4630596041679382e-01" purity="3.3197432756423950e-01" nType="0">
          <Node pos="l" depth="2" NCoef="0" IVar="-1" Cut="0.0000000000000000e+00" cType="1" res="-7.5464500114321709e-03" rms="3.7697434425354004e-01" purity="1.7637866735458374e-01" nType="-99"/>
          <Node pos="r" depth="2" NCoef="0" IVar="-1" Cut="0.0000000000000000e+00" cType="1" res="-9.8576245363801718e-04" rms="4.7620967030525208e-01" purity="4.0986999869346619e-01" nType="-99"/>
        </Node>
        <Node pos="r" depth="1" NCoef="0" IVar="6" Cut="7.6952803134918213e-01" cType="1" res="2.5476047769188881e-02" rms="4.5853590965270996e-01" purity="5.7380461692810059e-01" nType="0">
          <Node pos="l" depth="2" NCoef="0" IVar="-1" Cut="0.0000000000000000e+00" cType="1" res="4.2999121360480785e-03" rms="4.4651925563812256e-01" purity="6.6245865821838379e-01" nType="-99"/>
          <Node pos="r" depth="2" NCoef="0" IVar="-1" Cut="0.0000000000000000e+00" cType="1" res="8.9806329924613237e-04" rms="4.6058723330497742e-01" purity="5.5305880308151245e-01" nType="-99"/>
        </Node>
      </Node>
    </BinaryTree>
    <BinaryTree type="DecisionTree" boostWeight="1.0000000000000000e+00" itree="135">
      <Node pos="s" depth="0" NCoef="0" IVar="1" Cut="8.7926101684570312e-01" cType="1" res="9.7754746675491333e-03" rms="4.5928937196731567e-01" purity="5.0534141063690186e-01" nType="0">
        <Node pos="l" depth="1" NCoef="0" IVar="5" Cut="2.5809942744672298e-03" cType="1" res="-2.2180635482072830e-02" rms="4.5863771438598633e-01" purity="3.7235221266746521e-01" nType="0">
          <Node pos="l" depth="2" NCoef="0" IVar="-1" Cut="0.0000000000000000e+00" cType="1" res="-4.9587036482989788e-03" rms="4.4298872351646423e-01" purity="3.2212457060813904e-01" nType="-99"/>
          <Node pos="r" depth="2" NCoef="0" IVar="-1" Cut="0.0000000000000000e+00" cType="1" res="1.3781618326902390e-04" rms="4.6530160307884216e-01" purity="4.0011972188949585e-01" nType="-99"/>
        </Node>
        <Node pos="r" depth="1" NCoef="0" IVar="4" Cut="6.5424841642379761e-01" cType="1" res="2.4362254887819290e-02" rms="4.5884731411933899e-01" purity="5.6604605913162231e-01" nType="0">
          <Node pos="l" depth="2" NCoef="0" IVar="-1" Cut="0.0000000000000000e+00" cType="1" res="9.8150188568979502e-04" rms="4.6011027693748474e-01" purity="5.5718392133712769e-01" nType="-99"/>
          <Node pos="r" depth="2" NCoef="0" IVar="-1" Cut="0.0000000000000000e+00" cType="1" res="6.0477303341031075e-03" rms="4.4153627753257751e-01" purity="6.3835150003433228e-01" nType="-99"/>
        </Node>
      </Node>
    </BinaryTree>
    <BinaryTree type="DecisionTree" boostWeight="1.0000000000000000e+00" itree="136">
      <Node pos="s" depth="0" NCoef="0" IVar="0" Cut="6.2517261505126953e-01" cType="1" res="4.4374139979481697e-03" rms="4.5699587464332581e-01" purity="5.0195509195327759e-01" nType="0">
        <Node pos="l" depth="1" NCoef="0" IVar="3" Cut="1.1766595393419266e-01" cType="1" res="-4.2050238698720932e-02" rms="4.4234114885330200e-01" purity="3.1685724854469299e-01" nType="0">
          <Node pos="l" depth="2" NCoef="0" IVar="-1" Cut="0.0000000000000000e+00" cType="1" res="-4.5570409856736660e-03" rms="4.3553221225738525e-01" purity="3.0002000927925110e-01" nType="-99"/>
          <Node pos="r" depth="2" NCoef="0" IVar="-1" Cut="0.0000000000000000e+00" cType="1" res="1.7381535144522786e-05" rms="4.6092528104782104e-01" purity="3.7074986100196838e-01" nType="-99"/>
        </Node>
        <Node pos="r" depth="1" NCoef="0" IVar="7" Cut="7.4467295408248901e-01" cType="1" res="1.8370000645518303e-02" rms="4.6038398146629333e-01" purity="5.5742979049682617e-01" nType="0">
          <Node pos="l" depth="2" NCoef="0" IVar="-1" Cut="0.0000000000000000e+00" cType="1" res="2.8962685973965563e-06" rms="4.6599391102790833e-01" purity="5.1987326145172119e-01" nType="-99"/>
          <Node pos="r" depth="2" NCoef="0" IVar="-1" Cut="0.0000000000000000e+00" cType="1" res="3.5256100818514824e-03" rms="4.4523012638092041e-01" purity="6.3965952396392822e-01" nType="-99"/>
        </Node>
      </Node>
    </BinaryTree>
    <BinaryTree type="DecisionTree" boostWeight="1.0000000000000000e+00" itree="137">
      <Node pos="s" depth="0" NCoef="0" IVar="1" Cut="9.7182184457778931e-01" cType="1" res="-9.7418890800327063e-04" rms="4.5677345991134644e-01" purity="4.9419882893562317e-01" nType="0">
        <Node pos="l" depth="1" NCoef="0" IVar="2" Cut="2.0564828491210938e+02" cType="1" res="-8.7453713640570641e-03" rms="4.6264767646789551e-01" purity="4.6075677871704102e-01" nType="0">
          <Node pos="l" depth="2" NCoef="0" IVar="-1" Cut="0.0000000000000000e+00" cType="1" res="-8.5992394015192986e-03" rms="3.9166748523712158e-01" purity="2.1119648218154907e-01" nType="-99"/>
          <Node pos="r" depth="2" NCoef="0" IVar="-1" Cut="0.0000000000000000e+00" cType="1" res="-6.7532382672652602e-05" rms="4.6798452734947205e-01" purity="4.8406115174293518e-01" nType="-99"/>
        </Node>
        <Node pos="r" depth="1" NCoef="0" IVar="-1" Cut="0.0000000000000000e+00" cType="1" res="4.5388233847916126e-03" rms="3.9129918813705444e-01" purity="8.0273866653442383e-01" nType="-99"/>
      </Node>
    </BinaryTree>
    <BinaryTree type="DecisionTree" boostWeight="1.0000000000000000e+00" itree="138">
      <Node pos="s" depth="0" NCoef="0" IVar="2" Cut="4.1685095214843750e+02" cType="1" res="4.1851396672427654e-03" rms="4.5667901635169983e-01" purity="5.0182068347930908e-01" nType="0">
        <Node pos="l" depth="1" NCoef="0" IVar="4" Cut="4.0955376625061035e-01" cType="1" res="-7.4295341037213802e-03" rms="4.5818120241165161e-01" purity="4.5803272724151611e-01" nType="0">
          <Node pos="l" depth="2" NCoef="0" IVar="-1" Cut="0.0000000000000000e+00" cType="1" res="-2.4236778263002634e-03" rms="4.5495826005935669e-01" purity="4.1885092854499817e-01" nType="-99"/>
          <Node pos="r" depth="2" NCoef="0" IVar="-1" Cut="0.0000000000000000e+00" cType="1" res="1.3213864294812083e-03" rms="4.5978802442550659e-01" purity="4.9733263254165649e-01" nType="-99"/>
        </Node>
        <Node pos="r" depth="1" NCoef="0" IVar="7" Cut="7.1933281421661377e-01" cType="1" res="4.8217158764600754e-02" rms="4.4821354746818542e-01" purity="6.6782402992248535e-01" nType="0">
          <Node pos="l" depth="2" NCoef="0" IVar="-1" Cut="0.0000000000000000e+00" cType="1" res="1.2846356257796288e-03" rms="4.6274599432945251e-01" purity="6.2303310632705688e-01" nType="-99"/>
          <Node pos="r" depth="2" NCoef="0" IVar="-1" Cut="0.0000000000000000e+00" cType="1" res="4.8766806721687317e-03" rms="4.2673164606094360e-01" purity="7.2436821460723877e-01" nType="-99"/>
        </Node>
      </Node>
    </BinaryTree>
    <BinaryTree type="DecisionTree" boostWeight="1.0000000000000000e+00" itree="139">
      <Node pos="s" depth="0" NCoef="0" IVar="0" Cut="4.4870815277099609e+00" cType="1" res="2.9804741498082876e-03" rms="4.5631477236747742e-01" purity="5.0164711475372314e-01" nType="0">
        <Node pos="l" depth="1" NCoef="0" IVar="6" Cut="1.0852515697479248e+00" cType="1" res="-4.7542257234454155e-03" rms="4.6182471513748169e-01" purity="4.7506868839263916e-01" nType="0">
          <Node pos="l" depth="2" NCoef="0" IVar="-1" Cut="0.0000000000000000e+00" cType="1" res="1.3715645764023066e-03" rms="4.6742141246795654e-01" purity="5.3145259618759155e-01" nType="-99"/>
          <Node pos="r" depth="2" NCoef="0" IVar="-1" Cut="0.0000000000000000e+00" cType="1" res="-1.7691628308966756e-03" rms="4.5631608366966248e-01" purity="4.3068179488182068e-01" nType="-99"/>
        </Node>
        <Node pos="r" depth="1" NCoef="0" IVar="-1" Cut="0.0000000000000000e+00" cType="1" res="5.8586727827787399e-03" rms="3.7288838624954224e-01" purity="8.1708848476409912e-01" nType="-99"/>
      </Node>
    </BinaryTree>
    <BinaryTree type="DecisionTree" boostWeight="1.0000000000000000e+00" itree="140">
      <Node pos="s" depth="0" NCoef="0" IVar="0" Cut="2.9950499534606934e+00" cType="1" res="8.3026854554191232e-04" rms="4.5461115241050720e-01" purity="4.9647042155265808e-01" nType="0">
        <Node pos="l" depth="1" NCoef="0" IVar="2" Cut="2.7231164550781250e+02" cType="1" res="-1.4730431139469147e-02" rms="4.6051508188247681e-01" purity="4.3091920018196106e-01" nType="0">
          <Node pos="l" depth="2" NCoef="0" IVar="-1" Cut="0.0000000000000000e+00" cType="1" res="-3.9425403811037540e-03" rms="4.3128767609596252e-01" purity="2.8450384736061096e-01" nType="-99"/>
          <Node pos="r" depth="2" NCoef="0" IVar="-1" Cut="0.0000000000000000e+00" cType="1" res="2.9620647546835244e-04" rms="4.7645905613899231e-01" purity="5.2043920755386353e-01" nType="-99"/>
        </Node>
        <Node pos="r" depth="1" NCoef="0" IVar="7" Cut="5.7529455423355103e-01" cType="1" res="5.3366977721452713e-02" rms="4.2994460463523865e-01" purity="7.1778744459152222e-01" nType="0">
          <Node pos="l" depth="2" NCoef="0" IVar="-1" Cut="0.0000000000000000e+00" cType="1" res="6.6813739249482751e-04" rms="4.5783826708793640e-01" purity="6.3845080137252808e-01" nType="-99"/>
          <Node pos="r" depth="2" NCoef="0" IVar="-1" Cut="0.0000000000000000e+00" cType="1" res="4.4840299524366856e-03" rms="4.1245478391647339e-01" purity="7.6031070947647095e-01" nType="-99"/>
        </Node>
      </Node>
    </BinaryTree>
    <BinaryTree type="DecisionTree" boostWeight="1.0000000000000000e+00" itree="141">
      <Node pos="s" depth="0" NCoef="0" IVar="3" Cut="7.8211016952991486e-03" cType="1" res="2.4048767518252134e-03" rms="4.5569711923599243e-01" purity="5.0083816051483154e-01" nType="0">
        <Node pos="l" depth="1" NCoef="0" IVar="7" Cut="6.9601619243621826e-01" cType="1" res="-2.0720973610877991e-02" rms="4.5017102360725403e-01" purity="4.7105321288108826e-01" nType="0">
          <Node pos="l" depth="2" NCoef="0" IVar="-1" Cut="0.0000000000000000e+00" cType="1" res="-6.0614836402237415e-03" rms="4.4308409094810486e-01" purity="3.4848907589912415e-01" nType="-99"/>
          <Node pos="r" depth="2" NCoef="0" IVar="-1" Cut="0.0000000000000000e+00" cType="1" res="1.1624643811956048e-03" rms="4.5055010914802551e-01" purity="5.5072528123855591e-01" nType="-99"/>
        </Node>
        <Node pos="r" depth="1" NCoef="0" IVar="1" Cut="8.7540245056152344e-01" cType="1" res="2.4413669481873512e-02" rms="4.5981582999229431e-01" purity="5.2918428182601929e-01" nType="0">
          <Node pos="l" depth="2" NCoef="0" IVar="-1" Cut="0.0000000000000000e+00" cType="1" res="-1.4159260317683220e-03" rms="4.6262571215629578e-01" purity="3.7962907552719116e-01" nType="-99"/>
          <Node pos="r" depth="2" NCoef="0" IVar="-1" Cut="0.0000000000000000e+00" cType="1" res="2.6015837211161852e-03" rms="4.5761770009994507e-01" purity="5.8572196960449219e-01" nType="-99"/>
        </Node>
      </Node>
    </BinaryTree>
    <BinaryTree type="DecisionTree" boostWeight="1.0000000000000000e+00" itree="142">
      <Node pos="s" depth="0" NCoef="0" IVar="3" Cut="1.4650759100914001e-01" cType="1" res="-2.1288585849106312e-03" rms="4.5766472816467285e-01" purity="4.9448147416114807e-01" nType="0">
        <Node pos="l" depth="1" NCoef="0" IVar="7" Cut="5.3927099704742432e-01" cType="1" res="-1.3774637132883072e-02" rms="4.5623841881752014e-01" purity="4.8030105233192444e-01" nType="0">
          <Node pos="l" depth="2" NCoef="0" IVar="-1" Cut="0.0000000000000000e+00" cType="1" res="-5.8810166083276272e-03" rms="4.4211190938949585e-01" purity="3.4745812416076660e-01" nType="-99"/>
          <Node pos="r" depth="2" NCoef="0" IVar="-1" Cut="0.0000000000000000e+00" cType="1" res="3.1324783776653931e-05" rms="4.5812651515007019e-01" purity="5.1000177860260010e-01" nType="-99"/>
        </Node>
        <Node pos="r" depth="1" NCoef="0" IVar="2" Cut="2.8189553833007812e+02" cType="1" res="4.3131209909915924e-02" rms="4.6037739515304565e-01" purity="5.4959207773208618e-01" nType="0">
          <Node pos="l" depth="2" NCoef="0" IVar="-1" Cut="0.0000000000000000e+00" cType="1" res="1.4735777222085744e-04" rms="4.6384501457214355e-01" purity="4.0496903657913208e-01" nType="-99"/>
          <Node pos="r" depth="2" NCoef="0" IVar="-1" Cut="0.0000000000000000e+00" cType="1" res="4.1857860051095486e-03" rms="4.5582410693168640e-01" purity="6.4924365282058716e-01" nType="-99"/>
        </Node>
      </Node>
    </BinaryTree>
    <BinaryTree type="DecisionTree" boostWeight="1.0000000000000000e+00" itree="143">
      <Node pos="s" depth="0" NCoef="0" IVar="3" Cut="1.7954604327678680e-01" cType="1" res="8.8102770969271660e-03" rms="4.5704329013824463e-01" purity="5.0614970922470093e-01" nType="0">
        <Node pos="l" depth="1" NCoef="0" IVar="7" Cut="4.9860137701034546e-01" cType="1" res="-1.0820679599419236e-03" rms="4.5501089096069336e-01" purity="4.9403807520866394e-01" nType="0">
          <Node pos="l" depth="2" NCoef="0" IVar="-1" Cut="0.0000000000000000e+00" cType="1" res="-5.6964908726513386e-03" rms="4.4134035706520081e-01" purity="3.4840428829193115e-01" nType="-99"/>
          <Node pos="r" depth="2" NCoef="0" IVar="-1" Cut="0.0000000000000000e+00" cType="1" res="7.6480541611090302e-04" rms="4.5608478784561157e-01" purity="5.1880228519439697e-01" nType="-99"/>
        </Node>
        <Node pos="r" depth="1" NCoef="0" IVar="7" Cut="4.3170025944709778e-01" cType="1" res="6.6036172211170197e-02" rms="4.6451136469841003e-01" purity="5.7621425390243530e-01" nType="0">
          <Node pos="l" depth="2" NCoef="0" IVar="-1" Cut="0.0000000000000000e+00" cType="1" res="5.3089451976120472e-03" rms="4.6884736418724060e-01" purity="5.8060091733932495e-01" nType="-99"/>
          <Node pos="r" depth="2" NCoef="0" IVar="-1" Cut="0.0000000000000000e+00" cType="1" res="2.7831597253680229e-03" rms="4.5886451005935669e-01" purity="5.7153081893920898e-01" nType="-99"/>
        </Node>
      </Node>
    </BinaryTree>
    <BinaryTree type="DecisionTree" boostWeight="1.0000000000000000e+00" itree="144">
      <Node pos="s" depth="0" NCoef="0" IVar="3" Cut="1.5640273690223694e-01" cType="1" res="1.6412431141361594e-03" rms="4.5625871419906616e-01" purity="4.9486339092254639e-01" nType="0">
        <Node pos="l" depth="1" NCoef="0" IVar="7" Cut="5.6131553649902344e-01" cType="1" res="-1.1086435057222843e-02" rms="4.5364257693290710e-01" purity="4.8013070225715637e-01" nType="0">
          <Node pos="l" depth="2" NCoef="0" IVar="-1" Cut="0.0000000000000000e+00" cType="1" res="-5.1858471706509590e-03" rms="4.4659978151321411e-01" purity="3.5575428605079651e-01" nType="-99"/>
          <Node pos="r" depth="2" NCoef="0" IVar="-1" Cut="0.0000000000000000e+00" cType="1" res="3.6521043512038887e-04" rms="4.5428830385208130e-01" purity="5.1587378978729248e-01" nType="-99"/>
        </Node>
        <Node pos="r" depth="1" NCoef="0" IVar="0" Cut="8.9399868249893188e-01" cType="1" res="5.7639703154563904e-02" rms="4.6346169710159302e-01" purity="5.5968338251113892e-01" nType="0">
          <Node pos="l" depth="2" NCoef="0" IVar="-1" Cut="0.0000000000000000e+00" cType="1" res="7.7034445712342858e-04" rms="4.6451210975646973e-01" purity="3.8457748293876648e-01" nType="-99"/>
          <Node pos="r" depth="2" NCoef="0" IVar="-1" Cut="0.0000000000000000e+00" cType="1" res="4.4910782016813755e-03" rms="4.6172380447387695e-01" purity="6.2857425212860107e-01" nType="-99"/>
        </Node>
      </Node>
    </BinaryTree>
    <BinaryTree type="DecisionTree" boostWeight="1.0000000000000000e+00" itree="145">
      <Node pos="s" depth="0" NCoef="0" IVar="6" Cut="7.8204083442687988e-01" cType="1" res="8.9539233595132828e-03" rms="4.5711797475814819e-01" purity="5.0549536943435669e-01" nType="0">
        <Node pos="l" depth="1" NCoef="0" IVar="1" Cut="8.9453834295272827e-01" cType="1" res="5.2082698792219162e-02" rms="4.5435121655464172e-01" purity="5.9512335062026978e-01" nType="0">
          <Node pos="l" depth="2" NCoef="0" IVar="-1" Cut="0.0000000000000000e+00" cType="1" res="9.1663806233555079e-04" rms="4.7472369670867920e-01" purity="4.5848175883293152e-01" nType="-99"/>
          <Node pos="r" depth="2" NCoef="0" IVar="-1" Cut="0.0000000000000000e+00" cType="1" res="4.8280009068548679e-03" rms="4.3691831827163696e-01" purity="6.9424641132354736e-01" nType="-99"/>
        </Node>
        <Node pos="r" depth="1" NCoef="0" IVar="3" Cut="6.2089208513498306e-02" cType="1" res="-1.4793341979384422e-03" rms="4.5717400312423706e-01" purity="4.8381352424621582e-01" nType="0">
          <Node pos="l" depth="2" NCoef="0" IVar="-1" Cut="0.0000000000000000e+00" cType="1" res="-1.4194605173543096e-03" rms="4.5486539602279663e-01" purity="4.5606657862663269e-01" nType="-99"/>
          <Node pos="r" depth="2" NCoef="0" IVar="-1" Cut="0.0000000000000000e+00" cType="1" res="1.8972184043377638e-03" rms="4.5924574136734009e-01" purity="5.2921813726425171e-01" nType="-99"/>
        </Node>
      </Node>
    </BinaryTree>
    <BinaryTree type="DecisionTree" boostWeight="1.0000000000000000e+00" itree="146">
      <Node pos="s" depth="0" NCoef="0" IVar="1" Cut="9.6382945775985718e-01" cType="1" res="3.2704183831810951e-03" rms="4.5566156506538391e-01" purity="5.0099515914916992e-01" nType="0">
        <Node pos="l" depth="1" NCoef="0" IVar="4" Cut="5.9782111644744873e-01" cType="1" res="-6.3031963072717190e-03" rms="4.6366742253303528e-01" purity="4.5549330115318298e-01" nType="0">
          <Node pos="l" depth="2" NCoef="0" IVar="-1" Cut="0.0000000000000000e+00" cType="1" res="-1.1951264459639788e-03" rms="4.6249434351921082e-01" purity="4.4519126415252686e-01" nType="-99"/>
          <Node pos="r" depth="2" NCoef="0" IVar="-1" Cut="0.0000000000000000e+00" cType="1" res="3.1205411069095135e-03" rms="4.6543377637863159e-01" purity="5.0495272874832153e-01" nType="-99"/>
        </Node>
        <Node pos="r" depth="1" NCoef="0" IVar="2" Cut="3.1581179809570312e+02" cType="1" res="6.3210457563400269e-02" rms="3.9671152830123901e-01" purity="7.8588044643402100e-01" nType="0">
          <Node pos="l" depth="2" NCoef="0" IVar="-1" Cut="0.0000000000000000e+00" cType="1" res="2.5237086229026318e-03" rms="4.3651965260505676e-01" purity="7.1681517362594604e-01" nType="-99"/>
          <Node pos="r" depth="2" NCoef="0" IVar="-1" Cut="0.0000000000000000e+00" cType="1" res="5.3915749303996563e-03" rms="3.5959678888320923e-01" purity="8.4271287918090820e-01" nType="-99"/>
        </Node>
      </Node>
    </BinaryTree>
    <BinaryTree type="DecisionTree" boostWeight="1.0000000000000000e+00" itree="147">
      <Node pos="s" depth="0" NCoef="0" IVar="2" Cut="4.6456362915039062e+02" cType="1" res="-5.5891294032335281e-03" rms="4.5602631568908691e-01" purity="4.9124392867088318e-01" nType="0">
        <Node pos="l" depth="1" NCoef="0" IVar="2" Cut="2.4252183532714844e+02" cType="1" res="-1.5561695210635662e-02" rms="4.5744737982749939e-01" purity="4.5882993936538696e-01" nType="0">
          <Node pos="l" depth="2" NCoef="0" IVar="-1" Cut="0.0000000000000000e+00" cType="1" res="-4.6777110546827316e-03" rms="4.2464131116867065e-01" purity="2.9131734371185303e-01" nType="-99"/>
          <Node pos="r" depth="2" NCoef="0" IVar="-1" Cut="0.0000000000000000e+00" cType="1" res="-7.8403623774647713e-05" rms="4.6774840354919434e-01" purity="5.1853317022323608e-01" nType="-99"/>
        </Node>
        <Node pos="r" depth="1" NCoef="0" IVar="2" Cut="5.6385253906250000e+02" cType="1" res="5.3468376398086548e-02" rms="4.4294011592864990e-01" purity="6.8319934606552124e-01" nType="0">
          <Node pos="l" depth="2" NCoef="0" IVar="-1" Cut="0.0000000000000000e+00" cType="1" res="1.1837922502309084e-03" rms="4.4991004467010498e-01" purity="6.4862990379333496e-01" nType="-99"/>
          <Node pos="r" depth="2" NCoef="0" IVar="-1" Cut="0.0000000000000000e+00" cType="1" res="5.3362026810646057e-03" rms="4.3214246630668640e-01" purity="7.2092235088348389e-01" nType="-99"/>
        </Node>
      </Node>
    </BinaryTree>
    <BinaryTree type="DecisionTree" boostWeight="1.0000000000000000e+00" itree="148">
      <Node pos="s" depth="0" NCoef="0" IVar="2" Cut="5.6033111572265625e+02" cType="1" res="5.4508699104189873e-03" rms="4.5698544383049011e-01" purity="5.0325822830200195e-01" nType="0">
        <Node pos="l" depth="1" NCoef="0" IVar="1" Cut="9.7567784786224365e-01" cType="1" res="-4.1143014095723629e-04" rms="4.5816990733146667e-01" purity="4.8709765076637268e-01" nType="0">
          <Node pos="l" depth="2" NCoef="0" IVar="-1" Cut="0.0000000000000000e+00" cType="1" res="-4.5438951929099858e-04" rms="4.6387532353401184e-01" purity="4.5818829536437988e-01" nType="-99"/>
          <Node pos="r" depth="2" NCoef="0" IVar="-1" Cut="0.0000000000000000e+00" cType="1" res="4.5203091576695442e-03" rms="3.8167268037796021e-01" purity="8.1021595001220703e-01" nType="-99"/>
        </Node>
        <Node pos="r" depth="1" NCoef="0" IVar="-1" Cut="0.0000000000000000e+00" cType="1" res="4.9367798492312431e-03" rms="4.3318790197372437e-01" purity="7.2002786397933960e-01" nType="-99"/>
      </Node>
    </BinaryTree>
    <BinaryTree type="DecisionTree" boostWeight="1.0000000000000000e+00" itree="149">
      <Node pos="s" depth="0" NCoef="0" IVar="0" Cut="4.5237541198730469e-02" cType="1" res="6.0324062360450625e-04" rms="4.5457196235656738e-01" purity="4.9723625183105469e-01" nType="0">
        <Node pos="l" depth="1" NCoef="0" IVar="-1" Cut="0.0000000000000000e+00" cType="1" res="-6.8491073325276375e-03" rms="4.1904014348983765e-01" purity="2.6412159204483032e-01" nType="-99"/>
        <Node pos="r" depth="1" NCoef="0" IVar="2" Cut="3.1888638305664062e+02" cType="1" res="9.3921013176441193e-03" rms="4.5748794078826904e-01" purity="5.2303171157836914e-01" nType="0">
          <Node pos="l" depth="2" NCoef="0" IVar="-1" Cut="0.0000000000000000e+00" cType="1" res="-8.0384156899526715e-04" rms="4.5850470662117004e-01" purity="4.2553120851516724e-01" nType="-99"/>
          <Node pos="r" depth="2" NCoef="0" IVar="-1" Cut="0.0000000000000000e+00" cType="1" res="2.0374699961394072e-03" rms="4.5509591698646545e-01" purity="6.3660442829132080e-01" nType="-99"/>
        </Node>
      </Node>
    </BinaryTree>
    <BinaryTree type="DecisionTree" boostWeight="1.0000000000000000e+00" itree="150">
      <Node pos="s" depth="0" NCoef="0" IVar="7" Cut="7.1217131614685059e-01" cType="1" res="4.2077417106156645e-07" rms="4.5691287517547607e-01" purity="4.9487468600273132e-01" nType="0">
        <Node pos="l" depth="1" NCoef="0" IVar="3" Cut="9.3436136841773987e-02" cType="1" res="-2.0392196252942085e-02" rms="4.5719897747039795e-01" purity="4.5265108346939087e-01" nType="0">
          <Node pos="l" depth="2" NCoef="0" IVar="-1" Cut="0.0000000000000000e+00" cType="1" res="-4.0416261181235313e-03" rms="4.5006734132766724e-01" purity="3.9079892635345459e-01" nType="-99"/>
          <Node pos="r" depth="2" NCoef="0" IVar="-1" Cut="0.0000000000000000e+00" cType="1" res="1.3354930561035872e-03" rms="4.6200761198997498e-01" purity="5.2469921112060547e-01" nType="-99"/>
        </Node>
        <Node pos="r" depth="1" NCoef="0" IVar="0" Cut="9.4457125663757324e-01" cType="1" res="3.2031737267971039e-02" rms="4.5462000370025635e-01" purity="5.6119656562805176e-01" nType="0">
          <Node pos="l" depth="2" NCoef="0" IVar="-1" Cut="0.0000000000000000e+00" cType="1" res="-4.0955535951070487e-04" rms="4.7097122669219971e-01" purity="3.8599973917007446e-01" nType="-99"/>
          <Node pos="r" depth="2" NCoef="0" IVar="-1" Cut="0.0000000000000000e+00" cType="1" res="3.0453235376626253e-03" rms="4.4516950845718384e-01" purity="6.4758449792861938e-01" nType="-99"/>
        </Node>
      </Node>
    </BinaryTree>
    <BinaryTree type="DecisionTree" boostWeight="1.0000000000000000e+00" itree="151">
      <Node pos="s" depth="0" NCoef="0" IVar="4" Cut="6.0589677095413208e-01" cType="1" res="8.1148669123649597e-03" rms="4.5607021450996399e-01" purity="5.0051403045654297e-01" nType="0">
        <Node pos="l" depth="1" NCoef="0" IVar="2" Cut="5.7207238769531250e+02" cType="1" res="-2.3162858560681343e-03" rms="4.5695912837982178e-01" purity="4.8879784345626831e-01" nType="0">
          <Node pos="l" depth="2" NCoef="0" IVar="-1" Cut="0.0000000000000000e+00" cType="1" res="-6.6220323788002133e-04" rms="4.5798662304878235e-01" purity="4.7036269307136536e-01" nType="-99"/>
          <Node pos="r" depth="2" NCoef="0" IVar="-1" Cut="0.0000000000000000e+00" cType="1" res="5.3524090908467770e-03" rms="4.3274366855621338e-01" purity="7.2322463989257812e-01" nType="-99"/>
        </Node>
        <Node pos="r" depth="1" NCoef="0" IVar="2" Cut="2.7446282958984375e+02" cType="1" res="6.0617879033088684e-02" rms="4.4789609313011169e-01" purity="5.5948495864868164e-01" nType="0">
          <Node pos="l" depth="2" NCoef="0" IVar="-1" Cut="0.0000000000000000e+00" cType="1" res="1.6838519368320704e-03" rms="4.5520895719528198e-01" purity="4.1620984673500061e-01" nType="-99"/>
          <Node pos="r" depth="2" NCoef="0" IVar="-1" Cut="0.0000000000000000e+00" cType="1" res="5.6332256644964218e-03" rms="4.3791115283966064e-01" purity="6.9500631093978882e-01" nType="-99"/>
        </Node>
      </Node>
    </BinaryTree>
    <BinaryTree type="DecisionTree" boostWeight="1.0000000000000000e+00" itree="152">
      <Node pos="s" depth="0" NCoef="0" IVar="0" Cut="3.8006675243377686e+00" cType="1" res="1.3216217048466206e-03" rms="4.5653936266899109e-01" purity="4.9595227837562561e-01" nType="0">
        <Node pos="l" depth="1" NCoef="0" IVar="1" Cut="8.9842045307159424e-01" cType="1" res="-7.0932130329310894e-03" rms="4.6203783154487610e-01" purity="4.5725390315055847e-01" nType="0">
          <Node pos="l" depth="2" NCoef="0" IVar="-1" Cut="0.0000000000000000e+00" cType="1" res="-1.9138235365971923e-03" rms="4.5736211538314819e-01" purity="3.5946741700172424e-01" nType="-99"/>
          <Node pos="r" depth="2" NCoef="0" IVar="-1" Cut="0.0000000000000000e+00" cType="1" res="8.2423310959711671e-04" rms="4.6598348021507263e-01" purity="5.5839818716049194e-01" nType="-99"/>
        </Node>
        <Node pos="r" depth="1" NCoef="0" IVar="0" Cut="4.5514869689941406e+00" cType="1" res="5.7646602392196655e-02" rms="4.1349023580551147e-01" purity="7.5498104095458984e-01" nType="0">
          <Node pos="l" depth="2" NCoef="0" IVar="-1" Cut="0.0000000000000000e+00" cType="1" res="2.1175544243305922e-03" rms="4.4459107518196106e-01" purity="7.0068556070327759e-01" nType="-99"/>
          <Node pos="r" depth="2" NCoef="0" IVar="-1" Cut="0.0000000000000000e+00" cType="1" res="4.8893950879573822e-03" rms="3.8197267055511475e-01" purity="8.0428808927536011e-01" nType="-99"/>
        </Node>
      </Node>
    </BinaryTree>
    <BinaryTree type="DecisionTree" boostWeight="1.0000000000000000e+00" itree="153">
      <Node pos="s" depth="0" NCoef="0" IVar="4" Cut="1.2560155987739563e-01" cType="1" res="6.2743141315877438e-03" rms="4.5650288462638855e-01" purity="5.0108069181442261e-01" nType="0">
        <Node pos="l" depth="1" NCoef="0" IVar="-1" Cut="0.0000000000000000e+00" cType="1" res="-6.3175670802593231e-03" rms="4.5941683650016785e-01" purity="3.9375397562980652e-01" nType="-99"/>
        <Node pos="r" depth="1" NCoef="0" IVar="2" Cut="3.4764395141601562e+02" cType="1" res="1.2160662561655045e-02" rms="4.5566776394844055e-01" purity="5.0768834352493286e-01" nType="0">
          <Node pos="l" depth="2" NCoef="0" IVar="-1" Cut="0.0000000000000000e+00" cType="1" res="-3.4761909046210349e-04" rms="4.5606288313865662e-01" purity="4.3007305264472961e-01" nType="-99"/>
          <Node pos="r" depth="2" NCoef="0" IVar="-1" Cut="0.0000000000000000e+00" cType="1" res="2.6050712913274765e-03" rms="4.5329657196998596e-01" purity="6.4915889501571655e-01" nType="-99"/>
        </Node>
      </Node>
    </BinaryTree>
    <BinaryTree type="DecisionTree" boostWeight="1.0000000000000000e+00" itree="154">
      <Node pos="s" depth="0" NCoef="0" IVar="3" Cut="-2.9024686664342880e-02" cType="1" res="3.2830603886395693e-03" rms="4.5556497573852539e-01" purity="5.0024408102035522e-01" nType="0">
        <Node pos="l" depth="1" NCoef="0" IVar="7" Cut="7.3727899789810181e-01" cType="1" res="-2.6135355234146118e-02" rms="4.5035424828529358e-01" purity="4.6067926287651062e-01" nType="0">
          <Node pos="l" depth="2" NCoef="0" IVar="-1" Cut="0.0000000000000000e+00" cType="1" res="-4.9839019775390625e-03" rms="4.4488182663917542e-01" purity="3.6749151349067688e-01" nType="-99"/>
          <Node pos="r" depth="2" NCoef="0" IVar="-1" Cut="0.0000000000000000e+00" cType="1" res="7.8471598681062460e-04" rms="4.5212605595588684e-01" purity="5.4829746484756470e-01" nType="-99"/>
        </Node>
        <Node pos="r" depth="1" NCoef="0" IVar="2" Cut="2.1102830505371094e+02" cType="1" res="2.1459147334098816e-02" rms="4.5781102776527405e-01" purity="5.2468907833099365e-01" nType="0">
          <Node pos="l" depth="2" NCoef="0" IVar="-1" Cut="0.0000000000000000e+00" cType="1" res="-4.5941779389977455e-03" rms="4.2221468687057495e-01" purity="2.8133562207221985e-01" nType="-99"/>
          <Node pos="r" depth="2" NCoef="0" IVar="-1" Cut="0.0000000000000000e+00" cType="1" res="1.9090437563136220e-03" rms="4.6096473932266235e-01" purity="5.5265092849731445e-01" nType="-99"/>
        </Node>
      </Node>
    </BinaryTree>
    <BinaryTree type="DecisionTree" boostWeight="1.0000000000000000e+00" itree="155">
      <Node pos="s" depth="0" NCoef="0" IVar="1" Cut="8.7926441431045532e-01" cType="1" res="5.7766553945839405e-03" rms="4.5648920536041260e-01" purity="5.0194859504699707e-01" nType="0">
        <Node pos="l" depth="1" NCoef="0" IVar="3" Cut="1.3142827153205872e-01" cType="1" res="-2.3244632408022881e-02" rms="4.5790740847587585e-01" purity="3.6387729644775391e-01" nType="0">
          <Node pos="l" depth="2" NCoef="0" IVar="-1" Cut="0.0000000000000000e+00" cType="1" res="-2.9643368907272816e-03" rms="4.4960948824882507e-01" purity="3.4113565087318420e-01" nType="-99"/>
          <Node pos="r" depth="2" NCoef="0" IVar="-1" Cut="0.0000000000000000e+00" cType="1" res="1.8703467212617397e-03" rms="4.7907161712646484e-01" purity="4.3427813053131104e-01" nType="-99"/>
        </Node>
        <Node pos="r" depth="1" NCoef="0" IVar="7" Cut="6.3480359315872192e-01" cType="1" res="1.9102033227682114e-02" rms="4.5521718263626099e-01" purity="5.6534522771835327e-01" nType="0">
          <Node pos="l" depth="2" NCoef="0" IVar="-1" Cut="0.0000000000000000e+00" cType="1" res="-3.3871296909637749e-04" rms="4.6141806244850159e-01" purity="5.0582319498062134e-01" nType="-99"/>
          <Node pos="r" depth="2" NCoef="0" IVar="-1" Cut="0.0000000000000000e+00" cType="1" res="2.4886790197342634e-03" rms="4.4898802042007446e-01" purity="6.1496055126190186e-01" nType="-99"/>
        </Node>
      </Node>
    </BinaryTree>
    <BinaryTree type="DecisionTree" boostWeight="1.0000000000000000e+00" itree="156">
      <Node pos="s" depth="0" NCoef="0" IVar="2" Cut="5.8098834228515625e+02" cType="1" res="2.9240262228995562e-03" rms="4.5554381608963013e-01" purity="4.9825268983840942e-01" nType="0">
        <Node pos="l" depth="1" NCoef="0" IVar="4" Cut="3.7213793396949768e-01" cType="1" res="-2.8399724978953600e-03" rms="4.5631986856460571e-01" purity="4.8334017395973206e-01" nType="0">
          <Node pos="l" depth="2" NCoef="0" IVar="-1" Cut="0.0000000000000000e+00" cType="1" res="-1.8735718913376331e-03" rms="4.5705947279930115e-01" purity="4.4493737816810608e-01" nType="-99"/>
          <Node pos="r" depth="2" NCoef="0" IVar="-1" Cut="0.0000000000000000e+00" cType="1" res="1.1714340653270483e-03" rms="4.5468801259994507e-01" purity="5.1585060358047485e-01" nType="-99"/>
        </Node>
        <Node pos="r" depth="1" NCoef="0" IVar="-1" Cut="0.0000000000000000e+00" cType="1" res="5.4669473320245743e-03" rms="4.3356144428253174e-01" purity="7.3006147146224976e-01" nType="-99"/>
      </Node>
    </BinaryTree>
    <BinaryTree type="DecisionTree" boostWeight="1.0000000000000000e+00" itree="157">
      <Node pos="s" depth="0" NCoef="0" IVar="1" Cut="9.6024078130722046e-01" cType="1" res="-2.2394463885575533e-03" rms="4.5653128623962402e-01" purity="4.9352028965950012e-01" nType="0">
        <Node pos="l" depth="1" NCoef="0" IVar="3" Cut="-5.7008784264326096e-02" cType="1" res="-1.0942257940769196e-02" rms="4.6405756473541260e-01" purity="4.4501948356628418e-01" nType="0">
          <Node pos="l" depth="2" NCoef="0" IVar="-1" Cut="0.0000000000000000e+00" cType="1" res="-3.1694625504314899e-03" rms="4.5227479934692383e-01" purity="3.9975121617317200e-01" nType="-99"/>
          <Node pos="r" depth="2" NCoef="0" IVar="-1" Cut="0.0000000000000000e+00" cType="1" res="2.4123842013068497e-04" rms="4.6830409765243530e-01" purity="4.6457386016845703e-01" nType="-99"/>
        </Node>
        <Node pos="r" depth="1" NCoef="0" IVar="3" Cut="-5.6787561334203929e-05" cType="1" res="4.7031626105308533e-02" rms="4.0784546732902527e-01" purity="7.6810842752456665e-01" nType="0">
          <Node pos="l" depth="2" NCoef="0" IVar="-1" Cut="0.0000000000000000e+00" cType="1" res="1.4649953227490187e-03" rms="4.2332991957664490e-01" purity="7.3247462511062622e-01" nType="-99"/>
          <Node pos="r" depth="2" NCoef="0" IVar="-1" Cut="0.0000000000000000e+00" cType="1" res="4.3837847188115120e-03" rms="3.9305657148361206e-01" purity="7.9823881387710571e-01" nType="-99"/>
        </Node>
      </Node>
    </BinaryTree>
    <BinaryTree type="DecisionTree" boostWeight="1.0000000000000000e+00" itree="158">
      <Node pos="s" depth="0" NCoef="0" IVar="1" Cut="9.6796405315399170e-01" cType="1" res="7.3236022144556046e-03" rms="4.5608437061309814e-01" purity="5.0478792190551758e-01" nType="0">
        <Node pos="l" depth="1" NCoef="0" IVar="2" Cut="5.6139025878906250e+02" cType="1" res="9.3500180810224265e-05" rms="4.6332922577857971e-01" purity="4.6623039245605469e-01" nType="0">
          <Node pos="l" depth="2" NCoef="0" IVar="-1" Cut="0.0000000000000000e+00" cType="1" res="-3.4846158814616501e-04" rms="4.6376112103462219e-01" purity="4.4980195164680481e-01" nType="-99"/>
          <Node pos="r" depth="2" NCoef="0" IVar="-1" Cut="0.0000000000000000e+00" cType="1" res="4.2379829101264477e-03" rms="4.5121473073959351e-01" purity="6.9218498468399048e-01" nType="-99"/>
        </Node>
        <Node pos="r" depth="1" NCoef="0" IVar="-1" Cut="0.0000000000000000e+00" cType="1" res="4.0303538553416729e-03" rms="3.9309924840927124e-01" purity="7.9497593641281128e-01" nType="-99"/>
      </Node>
    </BinaryTree>
    <BinaryTree type="DecisionTree" boostWeight="1.0000000000000000e+00" itree="159">
      <Node pos="s" depth="0" NCoef="0" IVar="4" Cut="2.2315752506256104e-01" cType="1" res="-1.8100714078173041e-03" rms="4.5535442233085632e-01" purity="4.9279329180717468e-01" nType="0">
        <Node pos="l" depth="1" NCoef="0" IVar="3" Cut="-3.1273346394300461e-02" cType="1" res="-4.4314268976449966e-02" rms="4.5561173558235168e-01" purity="4.3526858091354370e-01" nType="0">
          <Node pos="l" depth="2" NCoef="0" IVar="-1" Cut="0.0000000000000000e+00" cType="1" res="-7.2708106599748135e-03" rms="4.3399646878242493e-01" purity="3.7378293275833130e-01" nType="-99"/>
          <Node pos="r" depth="2" NCoef="0" IVar="-1" Cut="0.0000000000000000e+00" cType="1" res="-9.7759393975138664e-04" rms="4.6449685096740723e-01" purity="4.6936008334159851e-01" nType="-99"/>
        </Node>
        <Node pos="r" depth="1" NCoef="0" IVar="2" Cut="2.0004200744628906e+02" cType="1" res="9.2345476150512695e-03" rms="4.5463755726814270e-01" purity="5.0774091482162476e-01" nType="0">
          <Node pos="l" depth="2" NCoef="0" IVar="-1" Cut="0.0000000000000000e+00" cType="1" res="-6.2606511637568474e-03" rms="3.9828112721443176e-01" purity="2.4771854281425476e-01" nType="-99"/>
          <Node pos="r" depth="2" NCoef="0" IVar="-1" Cut="0.0000000000000000e+00" cType="1" res="1.0010597761720419e-03" rms="4.5815744996070862e-01" purity="5.2784222364425659e-01" nType="-99"/>
        </Node>
      </Node>
    </BinaryTree>
    <BinaryTree type="DecisionTree" boostWeight="1.0000000000000000e+00" itree="160">
      <Node pos="s" depth="0" NCoef="0" IVar="3" Cut="-6.0591660439968109e-02" cType="1" res="2.0320401526987553e-03" rms="4.5789915323257446e-01" purity="4.9696990847587585e-01" nType="0">
        <Node pos="l" depth="1" NCoef="0" IVar="7" Cut="8.1275171041488647e-01" cType="1" res="-3.6954957991838455e-02" rms="4.4693961739540100e-01" purity="4.4651737809181213e-01" nType="0">
          <Node pos="l" depth="2" NCoef="0" IVar="-1" Cut="0.0000000000000000e+00" cType="1" res="-5.3239217959344387e-03" rms="4.4195330142974854e-01" purity="3.7934249639511108e-01" nType="-99"/>
          <Node pos="r" depth="2" NCoef="0" IVar="-1" Cut="0.0000000000000000e+00" cType="1" res="1.8072468228638172e-03" rms="4.4911947846412659e-01" purity="5.7408589124679565e-01" nType="-99"/>
        </Node>
        <Node pos="r" depth="1" NCoef="0" IVar="2" Cut="2.2332936096191406e+02" cType="1" res="1.7687909305095673e-02" rms="4.6130070090293884e-01" purity="5.1722997426986694e-01" nType="0">
          <Node pos="l" depth="2" NCoef="0" IVar="-1" Cut="0.0000000000000000e+00" cType="1" res="-2.8461327310651541e-03" rms="4.2928487062454224e-01" purity="3.0148530006408691e-01" nType="-99"/>
          <Node pos="r" depth="2" NCoef="0" IVar="-1" Cut="0.0000000000000000e+00" cType="1" res="1.7149805789813399e-03" rms="4.6624332666397095e-01" purity="5.5621331930160522e-01" nType="-99"/>
        </Node>
      </Node>
    </BinaryTree>
    <BinaryTree type="DecisionTree" boostWeight="1.0000000000000000e+00" itree="161">
      <Node pos="s" depth="0" NCoef="0" IVar="0" Cut="3.7485234737396240e+00" cType="1" res="-4.2839916422963142e-03" rms="4.5304402709007263e-01" purity="4.9437910318374634e-01" nType="0">
        <Node pos="l" depth="1" NCoef="0" IVar="1" Cut="8.7925863265991211e-01" cType="1" res="-1.4463575556874275e-02" rms="4.5909774303436279e-01" purity="4.5178267359733582e-01" nType="0">
          <Node pos="l" depth="2" NCoef="0" IVar="-1" Cut="0.0000000000000000e+00" cType="1" res="-3.2624425366520882e-03" rms="4.4859597086906433e-01" purity="3.3346816897392273e-01" nType="-99"/>
          <Node pos="r" depth="2" NCoef="0" IVar="-1" Cut="0.0000000000000000e+00" cType="1" res="3.8224068703129888e-05" rms="4.6368768811225891e-01" purity="5.1262253522872925e-01" nType="-99"/>
        </Node>
        <Node pos="r" depth="1" NCoef="0" IVar="6" Cut="1.1254822015762329e+00" cType="1" res="5.8929238468408585e-02" rms="4.0782332420349121e-01" purity="7.5889468193054199e-01" nType="0">
          <Node pos="l" depth="2" NCoef="0" IVar="-1" Cut="0.0000000000000000e+00" cType="1" res="5.1488494500517845e-03" rms="3.8457265496253967e-01" purity="8.0072206258773804e-01" nType="-99"/>
          <Node pos="r" depth="2" NCoef="0" IVar="-1" Cut="0.0000000000000000e+00" cType="1" res="1.8864021403715014e-03" rms="4.3098145723342896e-01" purity="7.1132034063339233e-01" nType="-99"/>
        </Node>
      </Node>
    </BinaryTree>
    <BinaryTree type="DecisionTree" boostWeight="1.0000000000000000e+00" itree="162">
      <Node pos="s" depth="0" NCoef="0" IVar="3" Cut="1.8156394362449646e-01" cType="1" res="4.3687131255865097e-03" rms="4.5311054587364197e-01" purity="5.0197952985763550e-01" nType="0">
        <Node pos="l" depth="1" NCoef="0" IVar="7" Cut="5.4649847745895386e-01" cType="1" res="-6.0186102055013180e-03" rms="4.5248433947563171e-01" purity="4.8869913816452026e-01" nType="0">
          <Node pos="l" depth="2" NCoef="0" IVar="-1" Cut="0.0000000000000000e+00" cType="1" res="-4.3056565336883068e-03" rms="4.4387325644493103e-01" purity="3.6772048473358154e-01" nType="-99"/>
          <Node pos="r" depth="2" NCoef="0" IVar="-1" Cut="0.0000000000000000e+00" cType="1" res="5.6190002942457795e-04" rms="4.5382323861122131e-01" purity="5.2273571491241455e-01" nType="-99"/>
        </Node>
        <Node pos="r" depth="1" NCoef="0" IVar="0" Cut="1.2307928800582886e+00" cType="1" res="6.6187724471092224e-02" rms="4.5190754532814026e-01" purity="5.8101636171340942e-01" nType="0">
          <Node pos="l" depth="2" NCoef="0" IVar="-1" Cut="0.0000000000000000e+00" cType="1" res="1.4679455198347569e-03" rms="4.7642540931701660e-01" purity="4.0792298316955566e-01" nType="-99"/>
          <Node pos="r" depth="2" NCoef="0" IVar="-1" Cut="0.0000000000000000e+00" cType="1" res="5.3332429379224777e-03" rms="4.3565571308135986e-01" purity="6.7699736356735229e-01" nType="-99"/>
        </Node>
      </Node>
    </BinaryTree>
    <BinaryTree type="DecisionTree" boostWeight="1.0000000000000000e+00" itree="163">
      <Node pos="s" depth="0" NCoef="0" IVar="3" Cut="-1.0272488743066788e-01" cType="1" res="6.3961502164602280e-03" rms="4.5808669924736023e-01" purity="5.0120949745178223e-01" nType="0">
        <Node pos="l" depth="1" NCoef="0" IVar="7" Cut="6.9592761993408203e-01" cType="1" res="-4.9635946750640869e-02" rms="4.4776254892349243e-01" purity="4.2396503686904907e-01" nType="0">
          <Node pos="l" depth="2" NCoef="0" IVar="-1" Cut="0.0000000000000000e+00" cType="1" res="-8.1452466547489166e-03" rms="4.3159368634223938e-01" purity="2.9838666319847107e-01" nType="-99"/>
          <Node pos="r" depth="2" NCoef="0" IVar="-1" Cut="0.0000000000000000e+00" cType="1" res="-3.6102221929468215e-04" rms="4.5651167631149292e-01" purity="5.3124690055847168e-01" nType="-99"/>
        </Node>
        <Node pos="r" depth="1" NCoef="0" IVar="0" Cut="3.0759280920028687e-01" cType="1" res="1.5572815202176571e-02" rms="4.5910418033599854e-01" purity="5.1386022567749023e-01" nType="0">
          <Node pos="l" depth="2" NCoef="0" IVar="-1" Cut="0.0000000000000000e+00" cType="1" res="-2.3185978643596172e-03" rms="4.4521385431289673e-01" purity="3.1558561325073242e-01" nType="-99"/>
          <Node pos="r" depth="2" NCoef="0" IVar="-1" Cut="0.0000000000000000e+00" cType="1" res="1.5126756625249982e-03" rms="4.6116042137145996e-01" purity="5.5025386810302734e-01" nType="-99"/>
        </Node>
      </Node>
    </BinaryTree>
    <BinaryTree type="DecisionTree" boostWeight="1.0000000000000000e+00" itree="164">
      <Node pos="s" depth="0" NCoef="0" IVar="3" Cut="4.0985129773616791e-02" cType="1" res="3.8173526991158724e-03" rms="4.5421767234802246e-01" purity="5.0087815523147583e-01" nType="0">
        <Node pos="l" depth="1" NCoef="0" IVar="7" Cut="5.4686188697814941e-01" cType="1" res="-1.2529964558780193e-02" rms="4.4975534081459045e-01" purity="4.7544726729393005e-01" nType="0">
          <Node pos="l" depth="2" NCoef="0" IVar="-1" Cut="0.0000000000000000e+00" cType="1" res="-8.6802635341882706e-03" rms="4.2026239633560181e-01" purity="2.7835947275161743e-01" nType="-99"/>
          <Node pos="r" depth="2" NCoef="0" IVar="-1" Cut="0.0000000000000000e+00" cType="1" res="3.2033593743108213e-04" rms="4.5299777388572693e-01" purity="5.1249706745147705e-01" nType="-99"/>
        </Node>
        <Node pos="r" depth="1" NCoef="0" IVar="1" Cut="8.7543201446533203e-01" cType="1" res="2.5769129395484924e-02" rms="4.5922738313674927e-01" purity="5.3502768278121948e-01" nType="0">
          <Node pos="l" depth="2" NCoef="0" IVar="-1" Cut="0.0000000000000000e+00" cType="1" res="-1.0316895786672831e-03" rms="4.6482124924659729e-01" purity="3.8849663734436035e-01" nType="-99"/>
          <Node pos="r" depth="2" NCoef="0" IVar="-1" Cut="0.0000000000000000e+00" cType="1" res="2.6308081578463316e-03" rms="4.5603772997856140e-01" purity="5.9245383739471436e-01" nType="-99"/>
        </Node>
      </Node>
    </BinaryTree>
    <BinaryTree type="DecisionTree" boostWeight="1.0000000000000000e+00" itree="165">
      <Node pos="s" depth="0" NCoef="0" IVar="2" Cut="4.1039401245117188e+02" cType="1" res="1.3070303248241544e-03" rms="4.5525676012039185e-01" purity="4.9855661392211914e-01" nType="0">
        <Node pos="l" depth="1" NCoef="0" IVar="4" Cut="5.8388769626617432e-01" cType="1" res="-1.0308911092579365e-02" rms="4.5622387528419495e-01" purity="4.5152238011360168e-01" nType="0">
          <Node pos="l" depth="2" NCoef="0" IVar="-1" Cut="0.0000000000000000e+00" cType="1" res="-1.5387234743684530e-03" rms="4.5625314116477966e-01" purity="4.3545344471931458e-01" nType="-99"/>
          <Node pos="r" depth="2" NCoef="0" IVar="-1" Cut="0.0000000000000000e+00" cType="1" res="2.2539414931088686e-03" rms="4.5344573259353638e-01" purity="5.1181924343109131e-01" nType="-99"/>
        </Node>
        <Node pos="r" depth="1" NCoef="0" IVar="4" Cut="1.8788953125476837e-01" cType="1" res="4.2859710752964020e-02" rms="4.4932842254638672e-01" purity="6.6680824756622314e-01" nType="0">
          <Node pos="l" depth="2" NCoef="0" IVar="-1" Cut="0.0000000000000000e+00" cType="1" res="-1.9979148637503386e-03" rms="4.6725189685821533e-01" purity="5.4794055223464966e-01" nType="-99"/>
          <Node pos="r" depth="2" NCoef="0" IVar="-1" Cut="0.0000000000000000e+00" cType="1" res="4.0270979516208172e-03" rms="4.4073238968849182e-01" purity="7.0523267984390259e-01" nType="-99"/>
        </Node>
      </Node>
    </BinaryTree>
    <BinaryTree type="DecisionTree" boostWeight="1.0000000000000000e+00" itree="166">
      <Node pos="s" depth="0" NCoef="0" IVar="0" Cut="4.5885353088378906e+00" cType="1" res="5.8609962252376135e-06" rms="4.5386844873428345e-01" purity="4.9647185206413269e-01" nType="0">
        <Node pos="l" depth="1" NCoef="0" IVar="2" Cut="2.2332936096191406e+02" cType="1" res="-5.5940882302820683e-03" rms="4.5866376161575317e-01" purity="4.7274941205978394e-01" nType="0">
          <Node pos="l" depth="2" NCoef="0" IVar="-1" Cut="0.0000000000000000e+00" cType="1" res="-4.7753322869539261e-03" rms="4.1336742043495178e-01" purity="2.5432726740837097e-01" nType="-99"/>
          <Node pos="r" depth="2" NCoef="0" IVar="-1" Cut="0.0000000000000000e+00" cType="1" res="1.7670146189630032e-04" rms="4.6574276685714722e-01" purity="5.1147043704986572e-01" nType="-99"/>
        </Node>
        <Node pos="r" depth="1" NCoef="0" IVar="-1" Cut="0.0000000000000000e+00" cType="1" res="4.8377793282270432e-03" rms="3.7573993206024170e-01" purity="8.1493335962295532e-01" nType="-99"/>
      </Node>
    </BinaryTree>
    <BinaryTree type="DecisionTree" boostWeight="1.0000000000000000e+00" itree="167">
      <Node pos="s" depth="0" NCoef="0" IVar="4" Cut="1.5042044222354889e-01" cType="1" res="4.0470096282660961e-03" rms="4.5450928807258606e-01" purity="5.0119507312774658e-01" nType="0">
        <Node pos="l" depth="1" NCoef="0" IVar="-1" Cut="0.0000000000000000e+00" cType="1" res="-4.6165795065462589e-03" rms="4.5226311683654785e-01" purity="4.1922929883003235e-01" nType="-99"/>
        <Node pos="r" depth="1" NCoef="0" IVar="6" Cut="1.2373145818710327e+00" cType="1" res="1.0869963094592094e-02" rms="4.5416161417961121e-01" purity="5.0930023193359375e-01" nType="0">
          <Node pos="l" depth="2" NCoef="0" IVar="-1" Cut="0.0000000000000000e+00" cType="1" res="1.8692840822041035e-03" rms="4.5904555916786194e-01" purity="5.5475676059722900e-01" nType="-99"/>
          <Node pos="r" depth="2" NCoef="0" IVar="-1" Cut="0.0000000000000000e+00" cType="1" res="-8.9939945610240102e-04" rms="4.4660738110542297e-01" purity="4.4998630881309509e-01" nType="-99"/>
        </Node>
      </Node>
    </BinaryTree>
    <BinaryTree type="DecisionTree" boostWeight="1.0000000000000000e+00" itree="168">
      <Node pos="s" depth="0" NCoef="0" IVar="2" Cut="4.0771066284179688e+02" cType="1" res="1.2075337144779041e-04" rms="4.5506629347801208e-01" purity="4.9568787217140198e-01" nType="0">
        <Node pos="l" depth="1" NCoef="0" IVar="4" Cut="4.1158366203308105e-01" cType="1" res="-1.0592739097774029e-02" rms="4.5607942342758179e-01" purity="4.4739884138107300e-01" nType="0">
          <Node pos="l" depth="2" NCoef="0" IVar="-1" Cut="0.0000000000000000e+00" cType="1" res="-2.5091473944485188e-03" rms="4.5407938957214355e-01" purity="4.0495628118515015e-01" nType="-99"/>
          <Node pos="r" depth="2" NCoef="0" IVar="-1" Cut="0.0000000000000000e+00" cType="1" res="9.4494095537811518e-04" rms="4.5678201317787170e-01" purity="4.9024850130081177e-01" nType="-99"/>
        </Node>
        <Node pos="r" depth="1" NCoef="0" IVar="7" Cut="7.9495871067047119e-01" cType="1" res="3.6978177726268768e-02" rms="4.4961789250373840e-01" purity="6.6181552410125732e-01" nType="0">
          <Node pos="l" depth="2" NCoef="0" IVar="-1" Cut="0.0000000000000000e+00" cType="1" res="1.2521059252321720e-03" rms="4.5605817437171936e-01" purity="6.3589036464691162e-01" nType="-99"/>
          <Node pos="r" depth="2" NCoef="0" IVar="-1" Cut="0.0000000000000000e+00" cType="1" res="4.8679434694349766e-03" rms="4.2896026372909546e-01" purity="7.3072862625122070e-01" nType="-99"/>
        </Node>
      </Node>
    </BinaryTree>
    <BinaryTree type="DecisionTree" boostWeight="1.0000000000000000e+00" itree="169">
      <Node pos="s" depth="0" NCoef="0" IVar="1" Cut="9.6024155616760254e-01" cType="1" res="4.7432496212422848e-03" rms="4.5287570357322693e-01" purity="5.0189316272735596e-01" nType="0">
        <Node pos="l" depth="1" NCoef="0" IVar="2" Cut="3.9711758422851562e+02" cType="1" res="-5.1236255094408989e-03" rms="4.6127524971961975e-01" purity="4.5208942890167236e-01" nType="0">
          <Node pos="l" depth="2" NCoef="0" IVar="-1" Cut="0.0000000000000000e+00" cType="1" res="-1.3182689435780048e-03" rms="4.5893555879592896e-01" purity="3.9685478806495667e-01" nType="-99"/>
          <Node pos="r" depth="2" NCoef="0" IVar="-1" Cut="0.0000000000000000e+00" cType="1" res="2.2121183574199677e-03" rms="4.6601396799087524e-01" purity="6.2580806016921997e-01" nType="-99"/>
        </Node>
        <Node pos="r" depth="1" NCoef="0" IVar="3" Cut="2.6590593159198761e-02" cType="1" res="6.0109060257673264e-02" rms="3.9799347519874573e-01" purity="7.8135585784912109e-01" nType="0">
          <Node pos="l" depth="2" NCoef="0" IVar="-1" Cut="0.0000000000000000e+00" cType="1" res="2.5699750985950232e-03" rms="4.1381025314331055e-01" purity="7.5075536966323853e-01" nType="-99"/>
          <Node pos="r" depth="2" NCoef="0" IVar="-1" Cut="0.0000000000000000e+00" cType="1" res="5.4531618952751160e-03" rms="3.7733370065689087e-01" purity="8.1687140464782715e-01" nType="-99"/>
        </Node>
      </Node>
    </BinaryTree>
    <BinaryTree type="DecisionTree" boostWeight="1.0000000000000000e+00" itree="170">
      <Node pos="s" depth="0" NCoef="0" IVar="7" Cut="7.2307711839675903e-01" cType="1" res="-1.8812688067555428e-03" rms="4.5632016658782959e-01" purity="4.9370068311691284e-01" nType="0">
        <Node pos="l" depth="1" NCoef="0" IVar="3" Cut="6.7868798971176147e-02" cType="1" res="-1.6474252566695213e-02" rms="4.5847427845001221e-01" purity="4.5623490214347839e-01" nType="0">
          <Node pos="l" depth="2" NCoef="0" IVar="-1" Cut="0.0000000000000000e+00" cType="1" res="-3.3796466886997223e-03" rms="4.5097899436950684e-01" purity="3.9140075445175171e-01" nType="-99"/>
          <Node pos="r" depth="2" NCoef="0" IVar="-1" Cut="0.0000000000000000e+00" cType="1" res="7.6719728531315923e-04" rms="4.6379426121711731e-01" purity="5.1834326982498169e-01" nType="-99"/>
        </Node>
        <Node pos="r" depth="1" NCoef="0" IVar="2" Cut="3.2013684082031250e+02" cType="1" res="2.4573614820837975e-02" rms="4.5118713378906250e-01" purity="5.6162059307098389e-01" nType="0">
          <Node pos="l" depth="2" NCoef="0" IVar="-1" Cut="0.0000000000000000e+00" cType="1" res="-4.9484462942928076e-04" rms="4.5569446682929993e-01" purity="4.4251453876495361e-01" nType="-99"/>
          <Node pos="r" depth="2" NCoef="0" IVar="-1" Cut="0.0000000000000000e+00" cType="1" res="3.2718165311962366e-03" rms="4.4492590427398682e-01" purity="6.7259985208511353e-01" nType="-99"/>
        </Node>
      </Node>
    </BinaryTree>
    <BinaryTree type="DecisionTree" boostWeight="1.0000000000000000e+00" itree="171">
      <Node pos="s" depth="0" NCoef="0" IVar="4" Cut="3.6774599552154541e-01" cType="1" res="1.6138224164023995e-03" rms="4.5559164881706238e-01" purity="4.9728471040725708e-01" nType="0">
        <Node pos="l" depth="1" NCoef="0" IVar="3" Cut="1.5038697421550751e-01" cType="1" res="-1.9903987646102905e-02" rms="4.5746678113937378e-01" purity="4.6017155051231384e-01" nType="0">
          <Node pos="l" depth="2" NCoef="0" IVar="-1" Cut="0.0000000000000000e+00" cType="1" res="-2.4264715611934662e-03" rms="4.5459258556365967e-01" purity="4.3650749325752258e-01" nType="-99"/>
          <Node pos="r" depth="2" NCoef="0" IVar="-1" Cut="0.0000000000000000e+00" cType="1" res="1.2292878236621618e-03" rms="4.6272540092468262e-01" purity="5.2259755134582520e-01" nType="-99"/>
        </Node>
        <Node pos="r" depth="1" NCoef="0" IVar="2" Cut="2.8045870971679688e+02" cType="1" res="2.0266538485884666e-02" rms="4.5313391089439392e-01" purity="5.2945619821548462e-01" nType="0">
          <Node pos="l" depth="2" NCoef="0" IVar="-1" Cut="0.0000000000000000e+00" cType="1" res="-4.6687966096214950e-04" rms="4.5183670520782471e-01" purity="3.9095324277877808e-01" nType="-99"/>
          <Node pos="r" depth="2" NCoef="0" IVar="-1" Cut="0.0000000000000000e+00" cType="1" res="2.5881561450660229e-03" rms="4.5302981138229370e-01" purity="6.4498847723007202e-01" nType="-99"/>
        </Node>
      </Node>
    </BinaryTree>
    <BinaryTree type="DecisionTree" boostWeight="1.0000000000000000e+00" itree="172">
      <Node pos="s" depth="0" NCoef="0" IVar="0" Cut="3.6505332589149475e-01" cType="1" res="1.4665490016341209e-03" rms="4.5439305901527405e-01" purity="4.9620020389556885e-01" nType="0">
        <Node pos="l" depth="1" NCoef="0" IVar="2" Cut="2.7100698852539062e+02" cType="1" res="-5.4261147975921631e-02" rms="4.2893645167350769e-01" purity="2.8685334324836731e-01" nType="0">
          <Node pos="l" depth="2" NCoef="0" IVar="-1" Cut="0.0000000000000000e+00" cType="1" res="-9.4170588999986649e-03" rms="3.5159590840339661e-01" purity="1.4976823329925537e-01" nType="-99"/>
          <Node pos="r" depth="2" NCoef="0" IVar="-1" Cut="0.0000000000000000e+00" cType="1" res="-2.7595532592386007e-03" rms="4.7223663330078125e-01" purity="3.7700164318084717e-01" nType="-99"/>
        </Node>
        <Node pos="r" depth="1" NCoef="0" IVar="2" Cut="3.4827755737304688e+02" cType="1" res="1.2981993146240711e-02" rms="4.5863416790962219e-01" purity="5.3945916891098022e-01" nType="0">
          <Node pos="l" depth="2" NCoef="0" IVar="-1" Cut="0.0000000000000000e+00" cType="1" res="-2.5017949519678950e-04" rms="4.6376296877861023e-01" purity="4.6448972821235657e-01" nType="-99"/>
          <Node pos="r" depth="2" NCoef="0" IVar="-1" Cut="0.0000000000000000e+00" cType="1" res="2.5044779758900404e-03" rms="4.4828271865844727e-01" purity="6.6779428720474243e-01" nType="-99"/>
        </Node>
      </Node>
    </BinaryTree>
    <BinaryTree type="DecisionTree" boostWeight="1.0000000000000000e+00" itree="173">
      <Node pos="s" depth="0" NCoef="0" IVar="3" Cut="-3.3101260662078857e-02" cType="1" res="4.3544163927435875e-03" rms="4.5610445737838745e-01" purity="4.9805673956871033e-01" nType="0">
        <Node pos="l" depth="1" NCoef="0" IVar="7" Cut="6.6498017311096191e-01" cType="1" res="-1.6794560477137566e-02" rms="4.5049569010734558e-01" purity="4.6771341562271118e-01" nType="0">
          <Node pos="l" depth="2" NCoef="0" IVar="-1" Cut="0.0000000000000000e+00" cType="1" res="-5.3897472098469734e-03" rms="4.4017073512077332e-01" purity="3.2635805010795593e-01" nType="-99"/>
          <Node pos="r" depth="2" NCoef="0" IVar="-1" Cut="0.0000000000000000e+00" cType="1" res="6.4282951643690467e-04" rms="4.5347926020622253e-01" purity="5.4095137119293213e-01" nType="-99"/>
        </Node>
        <Node pos="r" depth="1" NCoef="0" IVar="2" Cut="4.6158978271484375e+02" cType="1" res="1.7453132197260857e-02" rms="4.5905560255050659e-01" purity="5.1685005426406860e-01" nType="0">
          <Node pos="l" depth="2" NCoef="0" IVar="-1" Cut="0.0000000000000000e+00" cType="1" res="7.5042602838948369e-04" rms="4.6133288741111755e-01" purity="4.8909023404121399e-01" nType="-99"/>
          <Node pos="r" depth="2" NCoef="0" IVar="-1" Cut="0.0000000000000000e+00" cType="1" res="3.7020302843302488e-03" rms="4.4031578302383423e-01" purity="7.1052092313766479e-01" nType="-99"/>
        </Node>
      </Node>
    </BinaryTree>
    <BinaryTree type="DecisionTree" boostWeight="1.0000000000000000e+00" itree="174">
      <Node pos="s" depth="0" NCoef="0" IVar="2" Cut="3.9970196533203125e+02" cType="1" res="2.6228791102766991e-03" rms="4.5514661073684692e-01" purity="4.9995723366737366e-01" nType="0">
        <Node pos="l" depth="1" NCoef="0" IVar="4" Cut="3.6509472131729126e-01" cType="1" res="-8.7199946865439415e-03" rms="4.5712766051292419e-01" purity="4.4641137123107910e-01" nType="0">
          <Node pos="l" depth="2" NCoef="0" IVar="-1" Cut="0.0000000000000000e+00" cType="1" res="-2.5590125005692244e-03" rms="4.5184147357940674e-01" purity="3.9366021752357483e-01" nType="-99"/>
          <Node pos="r" depth="2" NCoef="0" IVar="-1" Cut="0.0000000000000000e+00" cType="1" res="6.4943748293444514e-04" rms="4.5985099673271179e-01" purity="4.8276948928833008e-01" nType="-99"/>
        </Node>
        <Node pos="r" depth="1" NCoef="0" IVar="1" Cut="8.9048302173614502e-01" cType="1" res="3.8086578249931335e-02" rms="4.4704377651214600e-01" purity="6.6736912727355957e-01" nType="0">
          <Node pos="l" depth="2" NCoef="0" IVar="-1" Cut="0.0000000000000000e+00" cType="1" res="-2.2767143673263490e-04" rms="4.8260557651519775e-01" purity="5.3513854742050171e-01" nType="-99"/>
          <Node pos="r" depth="2" NCoef="0" IVar="-1" Cut="0.0000000000000000e+00" cType="1" res="3.7506183143705130e-03" rms="4.2491617798805237e-01" purity="7.3871862888336182e-01" nType="-99"/>
        </Node>
      </Node>
    </BinaryTree>
    <BinaryTree type="DecisionTree" boostWeight="1.0000000000000000e+00" itree="175">
      <Node pos="s" depth="0" NCoef="0" IVar="0" Cut="4.4870815277099609e+00" cType="1" res="5.2878996357321739e-03" rms="4.5428818464279175e-01" purity="5.0121068954467773e-01" nType="0">
        <Node pos="l" depth="1" NCoef="0" IVar="3" Cut="2.0599611103534698e-01" cType="1" res="-2.5855511194095016e-04" rms="4.5983800292015076e-01" purity="4.7661459445953369e-01" nType="0">
          <Node pos="l" depth="2" NCoef="0" IVar="-1" Cut="0.0000000000000000e+00" cType="1" res="-4.2942489380948246e-04" rms="4.5846715569496155e-01" purity="4.6861308813095093e-01" nType="-99"/>
          <Node pos="r" depth="2" NCoef="0" IVar="-1" Cut="0.0000000000000000e+00" cType="1" res="3.3315422479063272e-03" rms="4.6841594576835632e-01" purity="5.4723566770553589e-01" nType="-99"/>
        </Node>
        <Node pos="r" depth="1" NCoef="0" IVar="-1" Cut="0.0000000000000000e+00" cType="1" res="4.9614501185715199e-03" rms="3.6891132593154907e-01" purity="8.1566774845123291e-01" nType="-99"/>
      </Node>
    </BinaryTree>
    <BinaryTree type="DecisionTree" boostWeight="1.0000000000000000e+00" itree="176">
      <Node pos="s" depth="0" NCoef="0" IVar="6" Cut="7.0519644021987915e-01" cType="1" res="5.2210250869393349e-03" rms="4.5394328236579895e-01" purity="5.0102907419204712e-01" nType="0">
        <Node pos="l" depth="1" NCoef="0" IVar="2" Cut="3.8658087158203125e+02" cType="1" res="5.7354733347892761e-02" rms="4.5190110802650452e-01" purity="6.0290706157684326e-01" nType="0">
          <Node pos="l" depth="2" NCoef="0" IVar="-1" Cut="0.0000000000000000e+00" cType="1" res="5.1445337012410164e-03" rms="4.5294398069381714e-01" purity="5.5205971002578735e-01" nType="-99"/>
          <Node pos="r" depth="2" NCoef="0" IVar="-1" Cut="0.0000000000000000e+00" cType="1" res="1.7887277062982321e-03" rms="4.4891908764839172e-01" purity="6.6821199655532837e-01" nType="-99"/>
        </Node>
        <Node pos="r" depth="1" NCoef="0" IVar="1" Cut="9.7567778825759888e-01" cType="1" res="-2.6891620364040136e-03" rms="4.5372924208641052e-01" purity="4.8557123541831970e-01" nType="0">
          <Node pos="l" depth="2" NCoef="0" IVar="-1" Cut="0.0000000000000000e+00" cType="1" res="-5.8777857339009643e-04" rms="4.5895355939865112e-01" purity="4.5758754014968872e-01" nType="-99"/>
          <Node pos="r" depth="2" NCoef="0" IVar="-1" Cut="0.0000000000000000e+00" cType="1" res="4.4187945313751698e-03" rms="3.8072547316551208e-01" purity="8.1271189451217651e-01" nType="-99"/>
        </Node>
      </Node>
    </BinaryTree>
    <BinaryTree type="DecisionTree" boostWeight="1.0000000000000000e+00" itree="177">
      <Node pos="s" depth="0" NCoef="0" IVar="3" Cut="-9.9902227520942688e-02" cType="1" res="5.8326395228505135e-03" rms="4.5623767375946045e-01" purity="5.0113624334335327e-01" nType="0">
        <Node pos="l" depth="1" NCoef="0" IVar="7" Cut="7.9337579011917114e-01" cType="1" res="-3.9132829755544662e-02" rms="4.4633692502975464e-01" purity="4.3180596828460693e-01" nType="0">
          <Node pos="l" depth="2" NCoef="0" IVar="-1" Cut="0.0000000000000000e+00" cType="1" res="-5.7508493773639202e-03" rms="4.4419011473655701e-01" purity="3.4553539752960205e-01" nType="-99"/>
          <Node pos="r" depth="2" NCoef="0" IVar="-1" Cut="0.0000000000000000e+00" cType="1" res="1.2187671381980181e-03" rms="4.4380840659141541e-01" purity="5.7582658529281616e-01" nType="-99"/>
        </Node>
        <Node pos="r" depth="1" NCoef="0" IVar="6" Cut="1.0598934888839722e+00" cType="1" res="1.3727979734539986e-02" rms="4.5749810338020325e-01" purity="5.1330971717834473e-01" nType="0">
          <Node pos="l" depth="2" NCoef="0" IVar="-1" Cut="0.0000000000000000e+00" cType="1" res="2.2707846947014332e-03" rms="4.6092274785041809e-01" purity="5.7040107250213623e-01" nType="-99"/>
          <Node pos="r" depth="2" NCoef="0" IVar="-1" Cut="0.0000000000000000e+00" cType="1" res="-6.7119413870386779e-05" rms="4.5457121729850769e-01" purity="4.7455540299415588e-01" nType="-99"/>
        </Node>
      </Node>
    </BinaryTree>
    <BinaryTree type="DecisionTree" boostWeight="1.0000000000000000e+00" itree="178">
      <Node pos="s" depth="0" NCoef="0" IVar="6" Cut="1.5439678430557251e+00" cType="1" res="8.6241196841001511e-03" rms="4.5465621352195740e-01" purity="5.0699979066848755e-01" nType="0">
        <Node pos="l" depth="1" NCoef="0" IVar="0" Cut="8.3390372991561890e-01" cType="1" res="1.7990775406360626e-02" rms="4.5828112959861755e-01" purity="5.3289580345153809e-01" nType="0">
          <Node pos="l" depth="2" NCoef="0" IVar="-1" Cut="0.0000000000000000e+00" cType="1" res="-9.0501282829791307e-04" rms="4.6094459295272827e-01" purity="3.6308786273002625e-01" nType="-99"/>
          <Node pos="r" depth="2" NCoef="0" IVar="-1" Cut="0.0000000000000000e+00" cType="1" res="1.8432756187394261e-03" rms="4.5672103762626648e-01" purity="5.9881150722503662e-01" nType="-99"/>
        </Node>
        <Node pos="r" depth="1" NCoef="0" IVar="2" Cut="3.2561663818359375e+02" cType="1" res="-2.4597531184554100e-02" rms="4.3995437026023865e-01" purity="4.1515192389488220e-01" nType="0">
          <Node pos="l" depth="2" NCoef="0" IVar="-1" Cut="0.0000000000000000e+00" cType="1" res="-4.0428512729704380e-03" rms="4.3299034237861633e-01" purity="3.3894088864326477e-01" nType="-99"/>
          <Node pos="r" depth="2" NCoef="0" IVar="-1" Cut="0.0000000000000000e+00" cType="1" res="2.9765598010271788e-03" rms="4.5050400495529175e-01" purity="6.2610471248626709e-01" nType="-99"/>
        </Node>
      </Node>
    </BinaryTree>
    <BinaryTree type="DecisionTree" boostWeight="1.0000000000000000e+00" itree="179">
      <Node pos="s" depth="0" NCoef="0" IVar="4" Cut="1.2959522008895874e-01" cType="1" res="2.7341730892658234e-03" rms="4.5397397875785828e-01" purity="4.9882891774177551e-01" nType="0">
        <Node pos="l" depth="1" NCoef="0" IVar="-1" Cut="0.0000000000000000e+00" cType="1" res="-5.2965204231441021e-03" rms="4.5046168565750122e-01" purity="3.8826963305473328e-01" nType="-99"/>
        <Node pos="r" depth="1" NCoef="0" IVar="6" Cut="1.3134248256683350e+00" cType="1" res="7.9253409057855606e-03" rms="4.5375028252601624e-01" purity="5.0639843940734863e-01" nType="0">
          <Node pos="l" depth="2" NCoef="0" IVar="-1" Cut="0.0000000000000000e+00" cType="1" res="1.5054253162816167e-03" rms="4.5778420567512512e-01" purity="5.4787182807922363e-01" nType="-99"/>
          <Node pos="r" depth="2" NCoef="0" IVar="-1" Cut="0.0000000000000000e+00" cType="1" res="-1.2336764484643936e-03" rms="4.4582304358482361e-01" purity="4.3740168213844299e-01" nType="-99"/>
        </Node>
      </Node>
    </BinaryTree>
    <BinaryTree type="DecisionTree" boostWeight="1.0000000000000000e+00" itree="180">
      <Node pos="s" depth="0" NCoef="0" IVar="4" Cut="2.9295241832733154e-01" cType="1" res="3.6098554264754057e-03" rms="4.5864972472190857e-01" purity="4.9733838438987732e-01" nType="0">
        <Node pos="l" depth="1" NCoef="0" IVar="3" Cut="2.1621902287006378e-01" cType="1" res="-2.1627429872751236e-02" rms="4.6215370297431946e-01" purity="4.5199438929557800e-01" nType="0">
          <Node pos="l" depth="2" NCoef="0" IVar="-1" Cut="0.0000000000000000e+00" cType="1" res="-2.6614163070917130e-03" rms="4.5942577719688416e-01" purity="4.2897954583168030e-01" nType="-99"/>
          <Node pos="r" depth="2" NCoef="0" IVar="-1" Cut="0.0000000000000000e+00" cType="1" res="3.2627431210130453e-03" rms="4.6757525205612183e-01" purity="5.5744528770446777e-01" nType="-99"/>
        </Node>
        <Node pos="r" depth="1" NCoef="0" IVar="0" Cut="3.9283125400543213e+00" cType="1" res="1.5861239284276962e-02" rms="4.5643621683120728e-01" purity="5.1935058832168579e-01" nType="0">
          <Node pos="l" depth="2" NCoef="0" IVar="-1" Cut="0.0000000000000000e+00" cType="1" res="6.2051852000877261e-04" rms="4.6371126174926758e-01" purity="4.8246935009956360e-01" nType="-99"/>
          <Node pos="r" depth="2" NCoef="0" IVar="-1" Cut="0.0000000000000000e+00" cType="1" res="4.0696565993130207e-03" rms="3.9621290564537048e-01" purity="7.8748929500579834e-01" nType="-99"/>
        </Node>
      </Node>
    </BinaryTree>
    <BinaryTree type="DecisionTree" boostWeight="1.0000000000000000e+00" itree="181">
      <Node pos="s" depth="0" NCoef="0" IVar="3" Cut="1.7970907688140869e-01" cType="1" res="1.5420386334881186e-03" rms="4.5693090558052063e-01" purity="4.9776062369346619e-01" nType="0">
        <Node pos="l" depth="1" NCoef="0" IVar="7" Cut="5.3873813152313232e-01" cType="1" res="-5.8043967001140118e-03" rms="4.5520192384719849e-01" purity="4.8693856596946716e-01" nType="0">
          <Node pos="l" depth="2" NCoef="0" IVar="-1" Cut="0.0000000000000000e+00" cType="1" res="-4.4610989280045033e-03" rms="4.4549754261970520e-01" purity="3.5673245787620544e-01" nType="-99"/>
          <Node pos="r" depth="2" NCoef="0" IVar="-1" Cut="0.0000000000000000e+00" cType="1" res="5.0018035108223557e-04" rms="4.5667895674705505e-01" purity="5.2001500129699707e-01" nType="-99"/>
        </Node>
        <Node pos="r" depth="1" NCoef="0" IVar="7" Cut="4.2195045948028564e-01" cType="1" res="4.3955922126770020e-02" rms="4.6452146768569946e-01" purity="5.6024068593978882e-01" nType="0">
          <Node pos="l" depth="2" NCoef="0" IVar="-1" Cut="0.0000000000000000e+00" cType="1" res="4.4618295505642891e-03" rms="4.6224382519721985e-01" purity="5.7068151235580444e-01" nType="-99"/>
          <Node pos="r" depth="2" NCoef="0" IVar="-1" Cut="0.0000000000000000e+00" cType="1" res="1.1896878713741899e-03" rms="4.6516060829162598e-01" purity="5.5069971084594727e-01" nType="-99"/>
        </Node>
      </Node>
    </BinaryTree>
    <BinaryTree type="DecisionTree" boostWeight="1.0000000000000000e+00" itree="182">
      <Node pos="s" depth="0" NCoef="0" IVar="2" Cut="2.0327479553222656e+02" cType="1" res="1.1466172290965915e-03" rms="4.5634618401527405e-01" purity="4.9514910578727722e-01" nType="0">
        <Node pos="l" depth="1" NCoef="0" IVar="-1" Cut="0.0000000000000000e+00" cType="1" res="-6.2657585367560387e-03" rms="4.0564462542533875e-01" purity="2.3297464847564697e-01" nType="-99"/>
        <Node pos="r" depth="1" NCoef="0" IVar="4" Cut="6.8276464939117432e-01" cType="1" res="6.6499570384621620e-03" rms="4.5986247062683105e-01" purity="5.1685172319412231e-01" nType="0">
          <Node pos="l" depth="2" NCoef="0" IVar="-1" Cut="0.0000000000000000e+00" cType="1" res="6.1978986195754260e-05" rms="4.6058374643325806e-01" purity="5.0991803407669067e-01" nType="-99"/>
          <Node pos="r" depth="2" NCoef="0" IVar="-1" Cut="0.0000000000000000e+00" cType="1" res="4.6599423512816429e-03" rms="4.4592818617820740e-01" purity="5.9791964292526245e-01" nType="-99"/>
        </Node>
      </Node>
    </BinaryTree>
    <BinaryTree type="DecisionTree" boostWeight="1.0000000000000000e+00" itree="183">
      <Node pos="s" depth="0" NCoef="0" IVar="2" Cut="2.7456134033203125e+02" cType="1" res="5.1848369184881449e-04" rms="4.5465630292892456e-01" purity="4.9731573462486267e-01" nType="0">
        <Node pos="l" depth="1" NCoef="0" IVar="6" Cut="9.8622661828994751e-01" cType="1" res="-2.5772271677851677e-02" rms="4.4168427586555481e-01" purity="3.4513533115386963e-01" nType="0">
          <Node pos="l" depth="2" NCoef="0" IVar="-1" Cut="0.0000000000000000e+00" cType="1" res="1.0066144168376923e-03" rms="4.5308661460876465e-01" purity="4.0623620152473450e-01" nType="-99"/>
          <Node pos="r" depth="2" NCoef="0" IVar="-1" Cut="0.0000000000000000e+00" cType="1" res="-3.2107422593981028e-03" rms="4.3676859140396118e-01" purity="3.2367977499961853e-01" nType="-99"/>
        </Node>
        <Node pos="r" depth="1" NCoef="0" IVar="4" Cut="5.4745042324066162e-01" cType="1" res="1.5609396621584892e-02" rms="4.6126127243041992e-01" purity="5.8466744422912598e-01" nType="0">
          <Node pos="l" depth="2" NCoef="0" IVar="-1" Cut="0.0000000000000000e+00" cType="1" res="1.3195916835684329e-04" rms="4.6472251415252686e-01" purity="5.6051695346832275e-01" nType="-99"/>
          <Node pos="r" depth="2" NCoef="0" IVar="-1" Cut="0.0000000000000000e+00" cType="1" res="4.1221105493605137e-03" rms="4.4350540637969971e-01" purity="6.7917555570602417e-01" nType="-99"/>
        </Node>
      </Node>
    </BinaryTree>
    <BinaryTree type="DecisionTree" boostWeight="1.0000000000000000e+00" itree="184">
      <Node pos="s" depth="0" NCoef="0" IVar="1" Cut="9.5638442039489746e-01" cType="1" res="5.8297258801758289e-03" rms="4.5507466793060303e-01" purity="5.0178748369216919e-01" nType="0">
        <Node pos="l" depth="1" NCoef="0" IVar="5" Cut="1.0257110698148608e-03" cType="1" res="-3.3205987419933081e-03" rms="4.6429738402366638e-01" purity="4.4533875584602356e-01" nType="0">
          <Node pos="l" depth="2" NCoef="0" IVar="-1" Cut="0.0000000000000000e+00" cType="1" res="-1.9300858257338405e-03" rms="4.6142458915710449e-01" purity="4.8455971479415894e-01" nType="-99"/>
          <Node pos="r" depth="2" NCoef="0" IVar="-1" Cut="0.0000000000000000e+00" cType="1" res="6.1102007748559117e-04" rms="4.6518161892890930e-01" purity="4.2646399140357971e-01" nType="-99"/>
        </Node>
        <Node pos="r" depth="1" NCoef="0" IVar="3" Cut="-3.4151871223002672e-03" cType="1" res="4.9207359552383423e-02" rms="4.0573245286941528e-01" purity="7.6938581466674805e-01" nType="0">
          <Node pos="l" depth="2" NCoef="0" IVar="-1" Cut="0.0000000000000000e+00" cType="1" res="1.5969893429428339e-03" rms="4.2027598619461060e-01" purity="7.3687148094177246e-01" nType="-99"/>
          <Node pos="r" depth="2" NCoef="0" IVar="-1" Cut="0.0000000000000000e+00" cType="1" res="4.5347819104790688e-03" rms="3.9231276512145996e-01" purity="7.9579102993011475e-01" nType="-99"/>
        </Node>
      </Node>
    </BinaryTree>
    <BinaryTree type="DecisionTree" boostWeight="1.0000000000000000e+00" itree="185">
      <Node pos="s" depth="0" NCoef="0" IVar="1" Cut="9.7952347993850708e-01" cType="1" res="1.8748108996078372e-03" rms="4.5608708262443542e-01" purity="4.9883270263671875e-01" nType="0">
        <Node pos="l" depth="1" NCoef="0" IVar="4" Cut="2.2095595300197601e-01" cType="1" res="-2.5340027641505003e-03" rms="4.6074610948562622e-01" purity="4.7610083222389221e-01" nType="0">
          <Node pos="l" depth="2" NCoef="0" IVar="-1" Cut="0.0000000000000000e+00" cType="1" res="-2.3363882210105658e-03" rms="4.6105143427848816e-01" purity="4.2805674672126770e-01" nType="-99"/>
          <Node pos="r" depth="2" NCoef="0" IVar="-1" Cut="0.0000000000000000e+00" cType="1" res="3.7870596861466765e-04" rms="4.6031862497329712e-01" purity="4.8876109719276428e-01" nType="-99"/>
        </Node>
        <Node pos="r" depth="1" NCoef="0" IVar="-1" Cut="0.0000000000000000e+00" cType="1" res="4.2365058325231075e-03" rms="3.8008326292037964e-01" purity="8.1551820039749146e-01" nType="-99"/>
      </Node>
    </BinaryTree>
    <BinaryTree type="DecisionTree" boostWeight="1.0000000000000000e+00" itree="186">
      <Node pos="s" depth="0" NCoef="0" IVar="2" Cut="5.8868914794921875e+02" cType="1" res="6.4802239648997784e-03" rms="4.5221012830734253e-01" purity="5.0289136171340942e-01" nType="0">
        <Node pos="l" depth="1" NCoef="0" IVar="3" Cut="1.4655560255050659e-01" cType="1" res="9.3121128156781197e-04" rms="4.5360121130943298e-01" purity="4.8760548233985901e-01" nType="0">
          <Node pos="l" depth="2" NCoef="0" IVar="-1" Cut="0.0000000000000000e+00" cType="1" res="-6.1675737379118800e-04" rms="4.5161896944046021e-01" purity="4.7065472602844238e-01" nType="-99"/>
          <Node pos="r" depth="2" NCoef="0" IVar="-1" Cut="0.0000000000000000e+00" cType="1" res="2.4429496843367815e-03" rms="4.5916992425918579e-01" purity="5.5238866806030273e-01" nType="-99"/>
        </Node>
        <Node pos="r" depth="1" NCoef="0" IVar="-1" Cut="0.0000000000000000e+00" cType="1" res="5.5968873202800751e-03" rms="4.2061001062393188e-01" purity="7.4101501703262329e-01" nType="-99"/>
      </Node>
    </BinaryTree>
    <BinaryTree type="DecisionTree" boostWeight="1.0000000000000000e+00" itree="187">
      <Node pos="s" depth="0" NCoef="0" IVar="1" Cut="9.7552394866943359e-01" cType="1" res="4.3940073810517788e-03" rms="4.5464518666267395e-01" purity="4.9956673383712769e-01" nType="0">
        <Node pos="l" depth="1" NCoef="0" IVar="3" Cut="-1.6855563968420029e-02" cType="1" res="-2.0001502707600594e-03" rms="4.6116027235984802e-01" purity="4.7018468379974365e-01" nType="0">
          <Node pos="l" depth="2" NCoef="0" IVar="-1" Cut="0.0000000000000000e+00" cType="1" res="-1.5226826071739197e-03" rms="4.5630410313606262e-01" purity="4.3679502606391907e-01" nType="-99"/>
          <Node pos="r" depth="2" NCoef="0" IVar="-1" Cut="0.0000000000000000e+00" cType="1" res="8.2948460476472974e-04" rms="4.6418347954750061e-01" purity="4.9488547444343567e-01" nType="-99"/>
        </Node>
        <Node pos="r" depth="1" NCoef="0" IVar="-1" Cut="0.0000000000000000e+00" cType="1" res="5.1745814271271229e-03" rms="3.6543920636177063e-01" purity="8.3180278539657593e-01" nType="-99"/>
      </Node>
    </BinaryTree>
    <BinaryTree type="DecisionTree" boostWeight="1.0000000000000000e+00" itree="188">
      <Node pos="s" depth="0" NCoef="0" IVar="3" Cut="-4.9681253731250763e-03" cType="1" res="3.6836126819252968e-03" rms="4.5448800921440125e-01" purity="5.0070464611053467e-01" nType="0">
        <Node pos="l" depth="1" NCoef="0" IVar="7" Cut="6.0713511705398560e-01" cType="1" res="-1.7048690468072891e-02" rms="4.4924619793891907e-01" purity="4.6369561553001404e-01" nType="0">
          <Node pos="l" depth="2" NCoef="0" IVar="-1" Cut="0.0000000000000000e+00" cType="1" res="-5.7816896587610245e-03" rms="4.3617144227027893e-01" purity="2.9878500103950500e-01" nType="-99"/>
          <Node pos="r" depth="2" NCoef="0" IVar="-1" Cut="0.0000000000000000e+00" cType="1" res="-1.2418950973369647e-05" rms="4.5200946927070618e-01" purity="5.1599729061126709e-01" nType="-99"/>
        </Node>
        <Node pos="r" depth="1" NCoef="0" IVar="3" Cut="2.2948257625102997e-01" cType="1" res="2.0687824115157127e-02" rms="4.5804259181022644e-01" purity="5.3105866909027100e-01" nType="0">
          <Node pos="l" depth="2" NCoef="0" IVar="-1" Cut="0.0000000000000000e+00" cType="1" res="8.9385209139436483e-04" rms="4.5727583765983582e-01" purity="5.2318477630615234e-01" nType="-99"/>
          <Node pos="r" depth="2" NCoef="0" IVar="-1" Cut="0.0000000000000000e+00" cType="1" res="4.1674892418086529e-03" rms="4.6024191379547119e-01" purity="5.8069658279418945e-01" nType="-99"/>
        </Node>
      </Node>
    </BinaryTree>
    <BinaryTree type="DecisionTree" boostWeight="1.0000000000000000e+00" itree="189">
      <Node pos="s" depth="0" NCoef="0" IVar="3" Cut="2.0599611103534698e-01" cType="1" res="1.6021282644942403e-03" rms="4.5529371500015259e-01" purity="4.9351671338081360e-01" nType="0">
        <Node pos="l" depth="1" NCoef="0" IVar="2" Cut="5.6033111572265625e+02" cType="1" res="-4.7552101314067841e-03" rms="4.5406833291053772e-01" purity="4.8482722043991089e-01" nType="0">
          <Node pos="l" depth="2" NCoef="0" IVar="-1" Cut="0.0000000000000000e+00" cType="1" res="-6.7692168522626162e-04" rms="4.5526862144470215e-01" purity="4.6738201379776001e-01" nType="-99"/>
          <Node pos="r" depth="2" NCoef="0" IVar="-1" Cut="0.0000000000000000e+00" cType="1" res="3.6380675155669451e-03" rms="4.3308618664741516e-01" purity="7.1078133583068848e-01" nType="-99"/>
        </Node>
        <Node pos="r" depth="1" NCoef="0" IVar="5" Cut="1.3704063603654504e-03" cType="1" res="5.4669525474309921e-02" rms="4.6199625730514526e-01" purity="5.6605166196823120e-01" nType="0">
          <Node pos="l" depth="2" NCoef="0" IVar="-1" Cut="0.0000000000000000e+00" cType="1" res="2.3949930910021067e-03" rms="4.4617313146591187e-01" purity="6.2368792295455933e-01" nType="-99"/>
          <Node pos="r" depth="2" NCoef="0" IVar="-1" Cut="0.0000000000000000e+00" cType="1" res="4.6819150447845459e-03" rms="4.7818744182586670e-01" purity="5.0219655036926270e-01" nType="-99"/>
        </Node>
      </Node>
    </BinaryTree>
    <BinaryTree type="DecisionTree" boostWeight="1.0000000000000000e+00" itree="190">
      <Node pos="s" depth="0" NCoef="0" IVar="0" Cut="4.3138914108276367e+00" cType="1" res="3.5421587526798248e-03" rms="4.5654946565628052e-01" purity="5.0041145086288452e-01" nType="0">
        <Node pos="l" depth="1" NCoef="0" IVar="3" Cut="2.1798948943614960e-01" cType="1" res="-1.1961580021306872e-03" rms="4.6166834235191345e-01" purity="4.7451537847518921e-01" nType="0">
          <Node pos="l" depth="2" NCoef="0" IVar="-1" Cut="0.0000000000000000e+00" cType="1" res="-3.9325514808297157e-04" rms="4.6131724119186401e-01" purity="4.6753233671188354e-01" nType="-99"/>
          <Node pos="r" depth="2" NCoef="0" IVar="-1" Cut="0.0000000000000000e+00" cType="1" res="2.8855137061327696e-03" rms="4.6267282962799072e-01" purity="5.4704046249389648e-01" nType="-99"/>
        </Node>
        <Node pos="r" depth="1" NCoef="0" IVar="-1" Cut="0.0000000000000000e+00" cType="1" res="3.6624232307076454e-03" rms="3.9135599136352539e-01" purity="7.8830152750015259e-01" nType="-99"/>
      </Node>
    </BinaryTree>
    <BinaryTree type="DecisionTree" boostWeight="1.0000000000000000e+00" itree="191">
      <Node pos="s" depth="0" NCoef="0" IVar="0" Cut="3.7485234737396240e+00" cType="1" res="-2.5777572300285101e-03" rms="4.5367461442947388e-01" purity="4.9564850330352783e-01" nType="0">
        <Node pos="l" depth="1" NCoef="0" IVar="2" Cut="5.4504412841796875e+02" cType="1" res="-1.0811890475451946e-02" rms="4.5966154336929321e-01" purity="4.5460408926010132e-01" nType="0">
          <Node pos="l" depth="2" NCoef="0" IVar="-1" Cut="0.0000000000000000e+00" cType="1" res="-1.1283823987469077e-03" rms="4.5973542332649231e-01" purity="4.3682065606117249e-01" nType="-99"/>
          <Node pos="r" depth="2" NCoef="0" IVar="-1" Cut="0.0000000000000000e+00" cType="1" res="3.3976808190345764e-03" rms="4.5337405800819397e-01" purity="6.8094593286514282e-01" nType="-99"/>
        </Node>
        <Node pos="r" depth="1" NCoef="0" IVar="7" Cut="6.4197683334350586e-01" cType="1" res="5.0586596131324768e-02" rms="4.0896362066268921e-01" purity="7.6065492630004883e-01" nType="0">
          <Node pos="l" depth="2" NCoef="0" IVar="-1" Cut="0.0000000000000000e+00" cType="1" res="1.6231409972533584e-03" rms="4.3280583620071411e-01" purity="7.0516353845596313e-01" nType="-99"/>
          <Node pos="r" depth="2" NCoef="0" IVar="-1" Cut="0.0000000000000000e+00" cType="1" res="4.6250317245721817e-03" rms="3.8554984331130981e-01" purity="8.0931282043457031e-01" nType="-99"/>
        </Node>
      </Node>
    </BinaryTree>
    <BinaryTree type="DecisionTree" boostWeight="1.0000000000000000e+00" itree="192">
      <Node pos="s" depth="0" NCoef="0" IVar="7" Cut="8.3086460828781128e-01" cType="1" res="3.1037445296533406e-04" rms="4.5341676473617554e-01" purity="4.9757099151611328e-01" nType="0">
        <Node pos="l" depth="1" NCoef="0" IVar="3" Cut="-3.0960829462856054e-03" cType="1" res="-8.4677785634994507e-03" rms="4.5468494296073914e-01" purity="4.7982865571975708e-01" nType="0">
          <Node pos="l" depth="2" NCoef="0" IVar="-1" Cut="0.0000000000000000e+00" cType="1" res="-2.8184358961880207e-03" rms="4.4757574796676636e-01" purity="4.1630229353904724e-01" nType="-99"/>
          <Node pos="r" depth="2" NCoef="0" IVar="-1" Cut="0.0000000000000000e+00" cType="1" res="7.4832391692325473e-04" rms="4.5819413661956787e-01" purity="5.2128636837005615e-01" nType="-99"/>
        </Node>
        <Node pos="r" depth="1" NCoef="0" IVar="2" Cut="3.2275012207031250e+02" cType="1" res="4.5852441340684891e-02" rms="4.4400244951248169e-01" purity="5.8962023258209229e-01" nType="0">
          <Node pos="l" depth="2" NCoef="0" IVar="-1" Cut="0.0000000000000000e+00" cType="1" res="7.2165048914030194e-04" rms="4.5494794845581055e-01" purity="4.6106353402137756e-01" nType="-99"/>
          <Node pos="r" depth="2" NCoef="0" IVar="-1" Cut="0.0000000000000000e+00" cType="1" res="4.5269071124494076e-03" rms="4.3227130174636841e-01" purity="6.9833505153656006e-01" nType="-99"/>
        </Node>
      </Node>
    </BinaryTree>
    <BinaryTree type="DecisionTree" boostWeight="1.0000000000000000e+00" itree="193">
      <Node pos="s" depth="0" NCoef="0" IVar="1" Cut="8.7925660610198975e-01" cType="1" res="9.5603265799582005e-04" rms="4.5418357849121094e-01" purity="4.9824509024620056e-01" nType="0">
        <Node pos="l" depth="1" NCoef="0" IVar="5" Cut="1.9358078716322780e-03" cType="1" res="-2.5734130293130875e-02" rms="4.5559939742088318e-01" purity="3.5675209760665894e-01" nType="0">
          <Node pos="l" depth="2" NCoef="0" IVar="-1" Cut="0.0000000000000000e+00" cType="1" res="-6.2757153064012527e-03" rms="4.3294730782508850e-01" purity="2.8610903024673462e-01" nType="-99"/>
          <Node pos="r" depth="2" NCoef="0" IVar="-1" Cut="0.0000000000000000e+00" cType="1" res="-8.8475667871534824e-04" rms="4.6024340391159058e-01" purity="3.7482252717018127e-01" nType="-99"/>
        </Node>
        <Node pos="r" depth="1" NCoef="0" IVar="6" Cut="9.0527594089508057e-01" cType="1" res="1.3214180245995522e-02" rms="4.5300519466400146e-01" purity="5.6322944164276123e-01" nType="0">
          <Node pos="l" depth="2" NCoef="0" IVar="-1" Cut="0.0000000000000000e+00" cType="1" res="2.6222080923616886e-03" rms="4.4949111342430115e-01" purity="6.3536053895950317e-01" nType="-99"/>
          <Node pos="r" depth="2" NCoef="0" IVar="-1" Cut="0.0000000000000000e+00" cType="1" res="1.0918355110334232e-04" rms="4.5395097136497498e-01" purity="5.3330892324447632e-01" nType="-99"/>
        </Node>
      </Node>
    </BinaryTree>
    <BinaryTree type="DecisionTree" boostWeight="1.0000000000000000e+00" itree="194">
      <Node pos="s" depth="0" NCoef="0" IVar="3" Cut="1.7854861915111542e-01" cType="1" res="4.9158367328345776e-03" rms="4.5450213551521301e-01" purity="4.9983808398246765e-01" nType="0">
        <Node pos="l" depth="1" NCoef="0" IVar="7" Cut="4.8143482208251953e-01" cType="1" res="-3.9401846006512642e-03" rms="4.5313316583633423e-01" purity="4.8602512478828430e-01" nType="0">
          <Node pos="l" depth="2" NCoef="0" IVar="-1" Cut="0.0000000000000000e+00" cType="1" res="-7.0360922254621983e-03" rms="4.2759564518928528e-01" purity="3.0776455998420715e-01" nType="-99"/>
          <Node pos="r" depth="2" NCoef="0" IVar="-1" Cut="0.0000000000000000e+00" cType="1" res="4.9091345863416791e-04" rms="4.5531862974166870e-01" purity="5.1010805368423462e-01" nType="-99"/>
        </Node>
        <Node pos="r" depth="1" NCoef="0" IVar="5" Cut="1.0323735186830163e-03" cType="1" res="5.5541988462209702e-02" rms="4.5898130536079407e-01" purity="5.7880079746246338e-01" nType="0">
          <Node pos="l" depth="2" NCoef="0" IVar="-1" Cut="0.0000000000000000e+00" cType="1" res="1.5804212307557464e-03" rms="4.3545377254486084e-01" purity="6.3580846786499023e-01" nType="-99"/>
          <Node pos="r" depth="2" NCoef="0" IVar="-1" Cut="0.0000000000000000e+00" cType="1" res="4.8162448219954967e-03" rms="4.7463187575340271e-01" purity="5.3569877147674561e-01" nType="-99"/>
        </Node>
      </Node>
    </BinaryTree>
    <BinaryTree type="DecisionTree" boostWeight="1.0000000000000000e+00" itree="195">
      <Node pos="s" depth="0" NCoef="0" IVar="2" Cut="4.1725082397460938e+02" cType="1" res="3.2958218362182379e-03" rms="4.5439600944519043e-01" purity="4.9887987971305847e-01" nType="0">
        <Node pos="l" depth="1" NCoef="0" IVar="4" Cut="4.6541434526443481e-01" cType="1" res="-5.9907222166657448e-03" rms="4.5623075962066650e-01" purity="4.5328715443611145e-01" nType="0">
          <Node pos="l" depth="2" NCoef="0" IVar="-1" Cut="0.0000000000000000e+00" cType="1" res="-1.4973962679505348e-03" rms="4.5598527789115906e-01" purity="4.2439943552017212e-01" nType="-99"/>
          <Node pos="r" depth="2" NCoef="0" IVar="-1" Cut="0.0000000000000000e+00" cType="1" res="1.1128565529361367e-03" rms="4.5568320155143738e-01" purity="4.9622866511344910e-01" nType="-99"/>
        </Node>
        <Node pos="r" depth="1" NCoef="0" IVar="7" Cut="7.3854148387908936e-01" cType="1" res="3.8176804780960083e-02" rms="4.4571241736412048e-01" purity="6.7012959718704224e-01" nType="0">
          <Node pos="l" depth="2" NCoef="0" IVar="-1" Cut="0.0000000000000000e+00" cType="1" res="8.3352747606113553e-04" rms="4.5712870359420776e-01" purity="6.2664788961410522e-01" nType="-99"/>
          <Node pos="r" depth="2" NCoef="0" IVar="-1" Cut="0.0000000000000000e+00" cType="1" res="4.5029781758785248e-03" rms="4.2568895220756531e-01" purity="7.3425179719924927e-01" nType="-99"/>
        </Node>
      </Node>
    </BinaryTree>
    <BinaryTree type="DecisionTree" boostWeight="1.0000000000000000e+00" itree="196">
      <Node pos="s" depth="0" NCoef="0" IVar="2" Cut="5.5777886962890625e+02" cType="1" res="6.6500217653810978e-03" rms="4.5541459321975708e-01" purity="5.0373917818069458e-01" nType="0">
        <Node pos="l" depth="1" NCoef="0" IVar="0" Cut="3.6026483774185181e-01" cType="1" res="1.4909574529156089e-03" rms="4.5746323466300964e-01" purity="4.8595517873764038e-01" nType="0">
          <Node pos="l" depth="2" NCoef="0" IVar="-1" Cut="0.0000000000000000e+00" cType="1" res="-3.3463130239397287e-03" rms="4.2990240454673767e-01" purity="2.8777521848678589e-01" nType="-99"/>
          <Node pos="r" depth="2" NCoef="0" IVar="-1" Cut="0.0000000000000000e+00" cType="1" res="6.3611561199650168e-04" rms="4.6249005198478699e-01" purity="5.2663528919219971e-01" nType="-99"/>
        </Node>
        <Node pos="r" depth="1" NCoef="0" IVar="-1" Cut="0.0000000000000000e+00" cType="1" res="4.4767176732420921e-03" rms="4.2269116640090942e-01" purity="7.3202872276306152e-01" nType="-99"/>
      </Node>
    </BinaryTree>
    <BinaryTree type="DecisionTree" boostWeight="1.0000000000000000e+00" itree="197">
      <Node pos="s" depth="0" NCoef="0" IVar="3" Cut="1.5822921693325043e-01" cType="1" res="2.7406830340623856e-03" rms="4.5391017198562622e-01" purity="4.9914881587028503e-01" nType="0">
        <Node pos="l" depth="1" NCoef="0" IVar="7" Cut="5.6292104721069336e-01" cType="1" res="-6.6497037187218666e-03" rms="4.5248919725418091e-01" purity="4.8424559831619263e-01" nType="0">
          <Node pos="l" depth="2" NCoef="0" IVar="-1" Cut="0.0000000000000000e+00" cType="1" res="-3.8802158087491989e-03" rms="4.4232863187789917e-01" purity="3.5609802603721619e-01" nType="-99"/>
          <Node pos="r" depth="2" NCoef="0" IVar="-1" Cut="0.0000000000000000e+00" cType="1" res="4.0179811185225844e-04" rms="4.5463451743125916e-01" purity="5.2161395549774170e-01" nType="-99"/>
        </Node>
        <Node pos="r" depth="1" NCoef="0" IVar="0" Cut="1.3206683397293091e+00" cType="1" res="4.4542498886585236e-02" rms="4.5785152912139893e-01" purity="5.6549125909805298e-01" nType="0">
          <Node pos="l" depth="2" NCoef="0" IVar="-1" Cut="0.0000000000000000e+00" cType="1" res="-1.2681585212703794e-04" rms="4.6808546781539917e-01" purity="3.9510342478752136e-01" nType="-99"/>
          <Node pos="r" depth="2" NCoef="0" IVar="-1" Cut="0.0000000000000000e+00" cType="1" res="4.3254829943180084e-03" rms="4.4899907708168030e-01" purity="6.7116451263427734e-01" nType="-99"/>
        </Node>
      </Node>
    </BinaryTree>
    <BinaryTree type="DecisionTree" boostWeight="1.0000000000000000e+00" itree="198">
      <Node pos="s" depth="0" NCoef="0" IVar="2" Cut="4.0748809814453125e+02" cType="1" res="-8.5906503954902291e-04" rms="4.5278176665306091e-01" purity="4.9532324075698853e-01" nType="0">
        <Node pos="l" depth="1" NCoef="0" IVar="3" Cut="-2.9980726540088654e-02" cType="1" res="-1.2157570570707321e-02" rms="4.5421388745307922e-01" purity="4.4404247403144836e-01" nType="0">
          <Node pos="l" depth="2" NCoef="0" IVar="-1" Cut="0.0000000000000000e+00" cType="1" res="-2.8967112302780151e-03" rms="4.4598802924156189e-01" purity="3.9394459128379822e-01" nType="-99"/>
          <Node pos="r" depth="2" NCoef="0" IVar="-1" Cut="0.0000000000000000e+00" cType="1" res="1.8607226957101375e-04" rms="4.5808529853820801e-01" purity="4.7210365533828735e-01" nType="-99"/>
        </Node>
        <Node pos="r" depth="1" NCoef="0" IVar="7" Cut="7.3447114229202271e-01" cType="1" res="3.7711426615715027e-02" rms="4.4570574164390564e-01" purity="6.7038393020629883e-01" nType="0">
          <Node pos="l" depth="2" NCoef="0" IVar="-1" Cut="0.0000000000000000e+00" cType="1" res="9.4775925390422344e-04" rms="4.5731794834136963e-01" purity="6.2877053022384644e-01" nType="-99"/>
          <Node pos="r" depth="2" NCoef="0" IVar="-1" Cut="0.0000000000000000e+00" cType="1" res="4.3273540213704109e-03" rms="4.2585226893424988e-01" purity="7.3177295923233032e-01" nType="-99"/>
        </Node>
      </Node>
    </BinaryTree>
    <BinaryTree type="DecisionTree" boostWeight="1.0000000000000000e+00" itree="199">
      <Node pos="s" depth="0" NCoef="0" IVar="1" Cut="9.1781920194625854e-01" cType="1" res="-3.0280894134193659e-04" rms="4.5293682813644409e-01" purity="4.9673819541931152e-01" nType="0">
        <Node pos="l" depth="1" NCoef="0" IVar="4" Cut="2.4544034898281097e-01" cType="1" res="-1.7475781962275505e-02" rms="4.5793002843856812e-01" purity="3.9416429400444031e-01" nType="0">
          <Node pos="l" depth="2" NCoef="0" IVar="-1" Cut="0.0000000000000000e+00" cType="1" res="-3.6573843099176884e-03" rms="4.4879010319709778e-01" purity="3.5364320874214172e-01" nType="-99"/>
          <Node pos="r" depth="2" NCoef="0" IVar="-1" Cut="0.0000000000000000e+00" cType="1" res="-4.9022003076970577e-04" rms="4.6047532558441162e-01" purity="4.0774959325790405e-01" nType="-99"/>
        </Node>
        <Node pos="r" depth="1" NCoef="0" IVar="2" Cut="3.5578109741210938e+02" cType="1" res="2.6659060269594193e-02" rms="4.4364526867866516e-01" purity="6.5778106451034546e-01" nType="0">
          <Node pos="l" depth="2" NCoef="0" IVar="-1" Cut="0.0000000000000000e+00" cType="1" res="7.4475829023867846e-04" rms="4.6213474869728088e-01" purity="5.9409791231155396e-01" nType="-99"/>
          <Node pos="r" depth="2" NCoef="0" IVar="-1" Cut="0.0000000000000000e+00" cType="1" res="3.3843587152659893e-03" rms="4.0911507606506348e-01" purity="7.6578867435455322e-01" nType="-99"/>
        </Node>
      </Node>
    </BinaryTree>
    <BinaryTree type="DecisionTree" boostWeight="1.0000000000000000e+00" itree="200">
      <Node pos="s" depth="0" NCoef="0" IVar="3" Cut="2.1767599880695343e-01" cType="1" res="1.2441446306183934e-03" rms="4.5329362154006958e-01" purity="4.9898388981819153e-01" nType="0">
        <Node pos="l" depth="1" NCoef="0" IVar="7" Cut="6.5558475255966187e-01" cType="1" res="-4.3663214892148972e-03" rms="4.5233106613159180e-01" purity="4.9061757326126099e-01" nType="0">
          <Node pos="l" depth="2" NCoef="0" IVar="-1" Cut="0.0000000000000000e+00" cType="1" res="-1.9177740905433893e-03" rms="4.5073068141937256e-01" purity="4.2523360252380371e-01" nType="-99"/>
          <Node pos="r" depth="2" NCoef="0" IVar="-1" Cut="0.0000000000000000e+00" cType="1" res="1.0026864474639297e-03" rms="4.5284214615821838e-01" purity="5.4817098379135132e-01" nType="-99"/>
        </Node>
        <Node pos="r" depth="1" NCoef="0" IVar="-1" Cut="0.0000000000000000e+00" cType="1" res="3.7120284978300333e-03" rms="4.5911687612533569e-01" purity="5.8507668972015381e-01" nType="-99"/>
      </Node>
    </BinaryTree>
    <BinaryTree type="DecisionTree" boostWeight="1.0000000000000000e+00" itree="201">
      <Node pos="s" depth="0" NCoef="0" IVar="4" Cut="6.1626917123794556e-01" cType="1" res="4.0832171216607094e-03" rms="4.5474100112915039e-01" purity="5.0107747316360474e-01" nType="0">
        <Node pos="l" depth="1" NCoef="0" IVar="0" Cut="8.1567585468292236e-01" cType="1" res="-4.1302945464849472e-03" rms="4.5531854033470154e-01" purity="4.9101459980010986e-01" nType="0">
          <Node pos="l" depth="2" NCoef="0" IVar="-1" Cut="0.0000000000000000e+00" cType="1" res="-2.8379515279084444e-03" rms="4.4272738695144653e-01" purity="3.1946727633476257e-01" nType="-99"/>
          <Node pos="r" depth="2" NCoef="0" IVar="-1" Cut="0.0000000000000000e+00" cType="1" res="4.7891333815641701e-04" rms="4.5950937271118164e-01" purity="5.5653232336044312e-01" nType="-99"/>
        </Node>
        <Node pos="r" depth="1" NCoef="0" IVar="2" Cut="2.6224722290039062e+02" cType="1" res="5.2416294813156128e-02" rms="4.4828951358795166e-01" purity="5.6029295921325684e-01" nType="0">
          <Node pos="l" depth="2" NCoef="0" IVar="-1" Cut="0.0000000000000000e+00" cType="1" res="1.1772434227168560e-03" rms="4.5856004953384399e-01" purity="3.8903304934501648e-01" nType="-99"/>
          <Node pos="r" depth="2" NCoef="0" IVar="-1" Cut="0.0000000000000000e+00" cType="1" res="4.7840024344623089e-03" rms="4.3878659605979919e-01" purity="6.8383735418319702e-01" nType="-99"/>
        </Node>
      </Node>
    </BinaryTree>
    <BinaryTree type="DecisionTree" boostWeight="1.0000000000000000e+00" itree="202">
      <Node pos="s" depth="0" NCoef="0" IVar="0" Cut="4.4544019699096680e+00" cType="1" res="6.4154220744967461e-03" rms="4.5296511054039001e-01" purity="5.0267970561981201e-01" nType="0">
        <Node pos="l" depth="1" NCoef="0" IVar="3" Cut="9.5971032977104187e-02" cType="1" res="1.4830058207735419e-03" rms="4.5856267213821411e-01" purity="4.7700938582420349e-01" nType="0">
          <Node pos="l" depth="2" NCoef="0" IVar="-1" Cut="0.0000000000000000e+00" cType="1" res="-6.5808516228571534e-04" rms="4.5456951856613159e-01" purity="4.5737403631210327e-01" nType="-99"/>
          <Node pos="r" depth="2" NCoef="0" IVar="-1" Cut="0.0000000000000000e+00" cType="1" res="1.7232920508831739e-03" rms="4.6658021211624146e-01" purity="5.2176082134246826e-01" nType="-99"/>
        </Node>
        <Node pos="r" depth="1" NCoef="0" IVar="-1" Cut="0.0000000000000000e+00" cType="1" res="4.3169260025024414e-03" rms="3.7570503354072571e-01" purity="8.0622404813766479e-01" nType="-99"/>
      </Node>
    </BinaryTree>
    <BinaryTree type="DecisionTree" boostWeight="1.0000000000000000e+00" itree="203">
      <Node pos="s" depth="0" NCoef="0" IVar="0" Cut="4.4870815277099609e+00" cType="1" res="-1.3638307573273778e-03" rms="4.5355796813964844e-01" purity="4.9677911400794983e-01" nType="0">
        <Node pos="l" depth="1" NCoef="0" IVar="6" Cut="7.7450031042098999e-01" cType="1" res="-6.4136581495404243e-03" rms="4.5873025059700012e-01" purity="4.7102364897727966e-01" nType="0">
          <Node pos="l" depth="2" NCoef="0" IVar="-1" Cut="0.0000000000000000e+00" cType="1" res="1.9898072350770235e-03" rms="4.5925945043563843e-01" purity="5.6601679325103760e-01" nType="-99"/>
          <Node pos="r" depth="2" NCoef="0" IVar="-1" Cut="0.0000000000000000e+00" cType="1" res="-1.0225600562989712e-03" rms="4.5820555090904236e-01" purity="4.5017051696777344e-01" nType="-99"/>
        </Node>
        <Node pos="r" depth="1" NCoef="0" IVar="-1" Cut="0.0000000000000000e+00" cType="1" res="3.9513278752565384e-03" rms="3.8129517436027527e-01" purity="8.0453348159790039e-01" nType="-99"/>
      </Node>
    </BinaryTree>
    <BinaryTree type="DecisionTree" boostWeight="1.0000000000000000e+00" itree="204">
      <Node pos="s" depth="0" NCoef="0" IVar="3" Cut="-8.8227435946464539e-02" cType="1" res="9.1073270887136459e-03" rms="4.5486542582511902e-01" purity="5.0662088394165039e-01" nType="0">
        <Node pos="l" depth="1" NCoef="0" IVar="7" Cut="8.3000862598419189e-01" cType="1" res="-2.5057643651962280e-02" rms="4.5113191008567810e-01" purity="4.4986855983734131e-01" nType="0">
          <Node pos="l" depth="2" NCoef="0" IVar="-1" Cut="0.0000000000000000e+00" cType="1" res="-3.9172875694930553e-03" rms="4.4590261578559875e-01" purity="3.8244140148162842e-01" nType="-99"/>
          <Node pos="r" depth="2" NCoef="0" IVar="-1" Cut="0.0000000000000000e+00" cType="1" res="1.9644182175397873e-03" rms="4.5704880356788635e-01" purity="5.9338921308517456e-01" nType="-99"/>
        </Node>
        <Node pos="r" depth="1" NCoef="0" IVar="4" Cut="2.8964763879776001e-01" cType="1" res="1.7476148903369904e-02" rms="4.5538461208343506e-01" purity="5.2052253484725952e-01" nType="0">
          <Node pos="l" depth="2" NCoef="0" IVar="-1" Cut="0.0000000000000000e+00" cType="1" res="-5.3233327344059944e-04" rms="4.6225440502166748e-01" purity="4.7444790601730347e-01" nType="-99"/>
          <Node pos="r" depth="2" NCoef="0" IVar="-1" Cut="0.0000000000000000e+00" cType="1" res="1.9015512662008405e-03" rms="4.5193433761596680e-01" purity="5.4048889875411987e-01" nType="-99"/>
        </Node>
      </Node>
    </BinaryTree>
    <BinaryTree type="DecisionTree" boostWeight="1.0000000000000000e+00" itree="205">
      <Node pos="s" depth="0" NCoef="0" IVar="0" Cut="3.3343858718872070e+00" cType="1" res="3.8332324038492516e-05" rms="4.5516514778137207e-01" purity="4.9499344825744629e-01" nType="0">
        <Node pos="l" depth="1" NCoef="0" IVar="4" Cut="4.5231950283050537e-01" cType="1" res="-8.2327472046017647e-03" rms="4.6075537800788879e-01" purity="4.4571220874786377e-01" nType="0">
          <Node pos="l" depth="2" NCoef="0" IVar="-1" Cut="0.0000000000000000e+00" cType="1" res="-1.7585630994290113e-03" rms="4.5876517891883850e-01" purity="4.2178323864936829e-01" nType="-99"/>
          <Node pos="r" depth="2" NCoef="0" IVar="-1" Cut="0.0000000000000000e+00" cType="1" res="1.2047719210386276e-03" rms="4.6266067028045654e-01" purity="4.8306146264076233e-01" nType="-99"/>
        </Node>
        <Node pos="r" depth="1" NCoef="0" IVar="1" Cut="9.3673396110534668e-01" cType="1" res="3.8806725293397903e-02" rms="4.2585441470146179e-01" purity="7.2598570585250854e-01" nType="0">
          <Node pos="l" depth="2" NCoef="0" IVar="-1" Cut="0.0000000000000000e+00" cType="1" res="3.3693218138068914e-03" rms="4.4938674569129944e-01" purity="6.7125231027603149e-01" nType="-99"/>
          <Node pos="r" depth="2" NCoef="0" IVar="-1" Cut="0.0000000000000000e+00" cType="1" res="1.2592345010489225e-03" rms="3.9891105890274048e-01" purity="7.8276020288467407e-01" nType="-99"/>
        </Node>
      </Node>
    </BinaryTree>
    <BinaryTree type="DecisionTree" boostWeight="1.0000000000000000e+00" itree="206">
      <Node pos="s" depth="0" NCoef="0" IVar="0" Cut="4.5882225036621094e+00" cType="1" res="1.5368422027677298e-03" rms="4.5458325743675232e-01" purity="4.9919313192367554e-01" nType="0">
        <Node pos="l" depth="1" NCoef="0" IVar="3" Cut="-1.2724691629409790e-01" cType="1" res="-2.8453250415623188e-03" rms="4.5922991633415222e-01" purity="4.7655639052391052e-01" nType="0">
          <Node pos="l" depth="2" NCoef="0" IVar="-1" Cut="0.0000000000000000e+00" cType="1" res="-5.0019482150673866e-03" rms="4.3769070506095886e-01" purity="3.7825027108192444e-01" nType="-99"/>
          <Node pos="r" depth="2" NCoef="0" IVar="-1" Cut="0.0000000000000000e+00" cType="1" res="9.4878305390011519e-05" rms="4.6031180024147034e-01" purity="4.8308688402175903e-01" nType="-99"/>
        </Node>
        <Node pos="r" depth="1" NCoef="0" IVar="-1" Cut="0.0000000000000000e+00" cType="1" res="4.2085289023816586e-03" rms="3.7903368473052979e-01" purity="8.1375110149383545e-01" nType="-99"/>
      </Node>
    </BinaryTree>
    <BinaryTree type="DecisionTree" boostWeight="1.0000000000000000e+00" itree="207">
      <Node pos="s" depth="0" NCoef="0" IVar="0" Cut="3.8871750831604004e+00" cType="1" res="2.0930687896907330e-03" rms="4.5178210735321045e-01" purity="4.9965909123420715e-01" nType="0">
        <Node pos="l" depth="1" NCoef="0" IVar="7" Cut="7.6376175880432129e-01" cType="1" res="-4.9820845015347004e-03" rms="4.5863708853721619e-01" purity="4.6137395501136780e-01" nType="0">
          <Node pos="l" depth="2" NCoef="0" IVar="-1" Cut="0.0000000000000000e+00" cType="1" res="-1.0570364538580179e-03" rms="4.5911183953285217e-01" purity="4.3339648842811584e-01" nType="-99"/>
          <Node pos="r" depth="2" NCoef="0" IVar="-1" Cut="0.0000000000000000e+00" cType="1" res="1.3136733323335648e-03" rms="4.5647004246711731e-01" purity="5.3229182958602905e-01" nType="-99"/>
        </Node>
        <Node pos="r" depth="1" NCoef="0" IVar="-1" Cut="0.0000000000000000e+00" cType="1" res="3.3906090538948774e-03" rms="3.9563736319541931e-01" purity="7.7360838651657104e-01" nType="-99"/>
      </Node>
    </BinaryTree>
    <BinaryTree type="DecisionTree" boostWeight="1.0000000000000000e+00" itree="208">
      <Node pos="s" depth="0" NCoef="0" IVar="1" Cut="8.6383146047592163e-01" cType="1" res="4.5102919102646410e-04" rms="4.5363134145736694e-01" purity="4.9850904941558838e-01" nType="0">
        <Node pos="l" depth="1" NCoef="0" IVar="5" Cut="3.5559847019612789e-03" cType="1" res="-3.8946174085140228e-02" rms="4.4638064503669739e-01" purity="3.4086057543754578e-01" nType="0">
          <Node pos="l" depth="2" NCoef="0" IVar="-1" Cut="0.0000000000000000e+00" cType="1" res="-4.9216588959097862e-03" rms="4.3893972039222717e-01" purity="3.1706774234771729e-01" nType="-99"/>
          <Node pos="r" depth="2" NCoef="0" IVar="-1" Cut="0.0000000000000000e+00" cType="1" res="2.4787228903733194e-04" rms="4.5571538805961609e-01" purity="3.8155764341354370e-01" nType="-99"/>
        </Node>
        <Node pos="r" depth="1" NCoef="0" IVar="4" Cut="5.8298355340957642e-01" cType="1" res="7.7938567847013474e-03" rms="4.5459261536598206e-01" purity="5.2789151668548584e-01" nType="0">
          <Node pos="l" depth="2" NCoef="0" IVar="-1" Cut="0.0000000000000000e+00" cType="1" res="-2.8139767891843803e-05" rms="4.5553192496299744e-01" purity="5.1573491096496582e-01" nType="-99"/>
          <Node pos="r" depth="2" NCoef="0" IVar="-1" Cut="0.0000000000000000e+00" cType="1" res="2.7955542318522930e-03" rms="4.4894471764564514e-01" purity="5.7928067445755005e-01" nType="-99"/>
        </Node>
      </Node>
    </BinaryTree>
    <BinaryTree type="DecisionTree" boostWeight="1.0000000000000000e+00" itree="209">
      <Node pos="s" depth="0" NCoef="0" IVar="1" Cut="9.7953528165817261e-01" cType="1" res="-3.5671803634613752e-03" rms="4.5298075675964355e-01" purity="4.9316775798797607e-01" nType="0">
        <Node pos="l" depth="1" NCoef="0" IVar="4" Cut="4.5353841781616211e-01" cType="1" res="-8.5681136697530746e-03" rms="4.5834758877754211e-01" purity="4.6789443492889404e-01" nType="0">
          <Node pos="l" depth="2" NCoef="0" IVar="-1" Cut="0.0000000000000000e+00" cType="1" res="-1.5882775187492371e-03" rms="4.5769172906875610e-01" purity="4.4532018899917603e-01" nType="-99"/>
          <Node pos="r" depth="2" NCoef="0" IVar="-1" Cut="0.0000000000000000e+00" cType="1" res="9.7746902611106634e-04" rms="4.5847660303115845e-01" purity="5.0435024499893188e-01" nType="-99"/>
        </Node>
        <Node pos="r" depth="1" NCoef="0" IVar="-1" Cut="0.0000000000000000e+00" cType="1" res="4.3868557550013065e-03" rms="3.6779138445854187e-01" purity="8.2982319593429565e-01" nType="-99"/>
      </Node>
    </BinaryTree>
    <BinaryTree type="DecisionTree" boostWeight="1.0000000000000000e+00" itree="210">
      <Node pos="s" depth="0" NCoef="0" IVar="3" Cut="2.0241296291351318e-01" cType="1" res="5.1614828407764435e-04" rms="4.5247521996498108e-01" purity="4.9879276752471924e-01" nType="0">
        <Node pos="l" depth="1" NCoef="0" IVar="7" Cut="4.7893646359443665e-01" cType="1" res="-5.0694332458078861e-03" rms="4.5155632495880127e-01" purity="4.8949488997459412e-01" nType="0">
          <Node pos="l" depth="2" NCoef="0" IVar="-1" Cut="0.0000000000000000e+00" cType="1" res="-6.4316052012145519e-03" rms="4.3197247385978699e-01" purity="3.2039824128150940e-01" nType="-99"/>
          <Node pos="r" depth="2" NCoef="0" IVar="-1" Cut="0.0000000000000000e+00" cType="1" res="4.0029030060395598e-04" rms="4.5333275198936462e-01" purity="5.1437896490097046e-01" nType="-99"/>
        </Node>
        <Node pos="r" depth="1" NCoef="0" IVar="2" Cut="2.8734881591796875e+02" cType="1" res="4.5316603034734726e-02" rms="4.5731785893440247e-01" purity="5.7336848974227905e-01" nType="0">
          <Node pos="l" depth="2" NCoef="0" IVar="-1" Cut="0.0000000000000000e+00" cType="1" res="1.8562141340225935e-03" rms="4.6482685208320618e-01" purity="4.5741492509841919e-01" nType="-99"/>
          <Node pos="r" depth="2" NCoef="0" IVar="-1" Cut="0.0000000000000000e+00" cType="1" res="3.6877039819955826e-03" rms="4.5006498694419861e-01" purity="6.7491978406906128e-01" nType="-99"/>
        </Node>
      </Node>
    </BinaryTree>
    <BinaryTree type="DecisionTree" boostWeight="1.0000000000000000e+00" itree="211">
      <Node pos="s" depth="0" NCoef="0" IVar="2" Cut="5.6139025878906250e+02" cType="1" res="4.4086030684411526e-03" rms="4.5440044999122620e-01" purity="4.9957099556922913e-01" nType="0">
        <Node pos="l" depth="1" NCoef="0" IVar="3" Cut="5.6747067719697952e-02" cType="1" res="4.7603763960069045e-05" rms="4.5588344335556030e-01" purity="4.8317271471023560e-01" nType="0">
          <Node pos="l" depth="2" NCoef="0" IVar="-1" Cut="0.0000000000000000e+00" cType="1" res="-1.0646810987964272e-03" rms="4.5066586136817932e-01" purity="4.5638212561607361e-01" nType="-99"/>
          <Node pos="r" depth="2" NCoef="0" IVar="-1" Cut="0.0000000000000000e+00" cType="1" res="1.5141898766160011e-03" rms="4.6280217170715332e-01" purity="5.2411550283432007e-01" nType="-99"/>
        </Node>
        <Node pos="r" depth="1" NCoef="0" IVar="-1" Cut="0.0000000000000000e+00" cType="1" res="3.8685102481395006e-03" rms="4.3012285232543945e-01" purity="7.1681660413742065e-01" nType="-99"/>
      </Node>
    </BinaryTree>
    <BinaryTree type="DecisionTree" boostWeight="1.0000000000000000e+00" itree="212">
      <Node pos="s" depth="0" NCoef="0" IVar="1" Cut="9.6795397996902466e-01" cType="1" res="-1.1841738596558571e-03" rms="4.5441895723342896e-01" purity="4.9521419405937195e-01" nType="0">
        <Node pos="l" depth="1" NCoef="0" IVar="5" Cut="5.1639764569699764e-04" cType="1" res="-8.1614255905151367e-03" rms="4.6220156550407410e-01" purity="4.5437380671501160e-01" nType="0">
          <Node pos="l" depth="2" NCoef="0" IVar="-1" Cut="0.0000000000000000e+00" cType="1" res="-2.9088123701512814e-03" rms="4.5534458756446838e-01" purity="5.2581459283828735e-01" nType="-99"/>
          <Node pos="r" depth="2" NCoef="0" IVar="-1" Cut="0.0000000000000000e+00" cType="1" res="2.2907013772055507e-05" rms="4.6349823474884033e-01" purity="4.3662601709365845e-01" nType="-99"/>
        </Node>
        <Node pos="r" depth="1" NCoef="0" IVar="-1" Cut="0.0000000000000000e+00" cType="1" res="3.4836223348975182e-03" rms="3.8753527402877808e-01" purity="8.0000376701354980e-01" nType="-99"/>
      </Node>
    </BinaryTree>
    <BinaryTree type="DecisionTree" boostWeight="1.0000000000000000e+00" itree="213">
      <Node pos="s" depth="0" NCoef="0" IVar="0" Cut="2.0020015537738800e-01" cType="1" res="-2.2736549726687372e-04" rms="4.5442929863929749e-01" purity="4.9730163812637329e-01" nType="0">
        <Node pos="l" depth="1" NCoef="0" IVar="4" Cut="4.3848946690559387e-01" cType="1" res="-5.3993403911590576e-02" rms="4.2490723729133606e-01" purity="2.7805709838867188e-01" nType="0">
          <Node pos="l" depth="2" NCoef="0" IVar="-1" Cut="0.0000000000000000e+00" cType="1" res="-7.4361311271786690e-03" rms="4.0774151682853699e-01" purity="2.4641725420951843e-01" nType="-99"/>
          <Node pos="r" depth="2" NCoef="0" IVar="-1" Cut="0.0000000000000000e+00" cType="1" res="-1.2947019422426820e-03" rms="4.4537293910980225e-01" purity="3.2308086752891541e-01" nType="-99"/>
        </Node>
        <Node pos="r" depth="1" NCoef="0" IVar="7" Cut="7.2420680522918701e-01" cType="1" res="7.7661178074777126e-03" rms="4.5811766386032104e-01" purity="5.2989703416824341e-01" nType="0">
          <Node pos="l" depth="2" NCoef="0" IVar="-1" Cut="0.0000000000000000e+00" cType="1" res="-2.6667074416764081e-04" rms="4.6305283904075623e-01" purity="4.9120119214057922e-01" nType="-99"/>
          <Node pos="r" depth="2" NCoef="0" IVar="-1" Cut="0.0000000000000000e+00" cType="1" res="1.8582212505862117e-03" rms="4.4818207621574402e-01" purity="6.0052907466888428e-01" nType="-99"/>
        </Node>
      </Node>
    </BinaryTree>
    <BinaryTree type="DecisionTree" boostWeight="1.0000000000000000e+00" itree="214">
      <Node pos="s" depth="0" NCoef="0" IVar="2" Cut="3.5727285766601562e+02" cType="1" res="5.1451767794787884e-03" rms="4.5184683799743652e-01" purity="5.0359642505645752e-01" nType="0">
        <Node pos="l" depth="1" NCoef="0" IVar="3" Cut="-4.4352021068334579e-02" cType="1" res="-7.6374919153749943e-03" rms="4.5210286974906921e-01" purity="4.3223285675048828e-01" nType="0">
          <Node pos="l" depth="2" NCoef="0" IVar="-1" Cut="0.0000000000000000e+00" cType="1" res="-3.0673195142298937e-03" rms="4.3921110033988953e-01" purity="3.7331601977348328e-01" nType="-99"/>
          <Node pos="r" depth="2" NCoef="0" IVar="-1" Cut="0.0000000000000000e+00" cType="1" res="4.8896612133830786e-04" rms="4.5716276764869690e-01" purity="4.5931911468505859e-01" nType="-99"/>
        </Node>
        <Node pos="r" depth="1" NCoef="0" IVar="7" Cut="8.3283138275146484e-01" cType="1" res="3.0349010601639748e-02" rms="4.5027974247932434e-01" purity="6.4430528879165649e-01" nType="0">
          <Node pos="l" depth="2" NCoef="0" IVar="-1" Cut="0.0000000000000000e+00" cType="1" res="9.4832695322111249e-04" rms="4.5920047163963318e-01" purity="6.1983156204223633e-01" nType="-99"/>
          <Node pos="r" depth="2" NCoef="0" IVar="-1" Cut="0.0000000000000000e+00" cType="1" res="5.4711159318685532e-03" rms="4.0802514553070068e-01" purity="7.4015617370605469e-01" nType="-99"/>
        </Node>
      </Node>
    </BinaryTree>
    <BinaryTree type="DecisionTree" boostWeight="1.0000000000000000e+00" itree="215">
      <Node pos="s" depth="0" NCoef="0" IVar="4" Cut="7.0424336194992065e-01" cType="1" res="7.8612212091684341e-03" rms="4.5374137163162231e-01" purity="5.0454241037368774e-01" nType="0">
        <Node pos="l" depth="1" NCoef="0" IVar="3" Cut="1.4971612393856049e-01" cType="1" res="3.7740005645900965e-03" rms="4.5396381616592407e-01" purity="5.0019568204879761e-01" nType="0">
          <Node pos="l" depth="2" NCoef="0" IVar="-1" Cut="0.0000000000000000e+00" cType="1" res="-3.5445721005089581e-04" rms="4.5184740424156189e-01" purity="4.8532876372337341e-01" nType="-99"/>
          <Node pos="r" depth="2" NCoef="0" IVar="-1" Cut="0.0000000000000000e+00" cType="1" res="2.3671765811741352e-03" rms="4.6022233366966248e-01" purity="5.5517870187759399e-01" nType="-99"/>
        </Node>
        <Node pos="r" depth="1" NCoef="0" IVar="-1" Cut="0.0000000000000000e+00" cType="1" res="4.4502429664134979e-03" rms="4.4600754976272583e-01" purity="5.6926172971725464e-01" nType="-99"/>
      </Node>
    </BinaryTree>
    <BinaryTree type="DecisionTree" boostWeight="1.0000000000000000e+00" itree="216">
      <Node pos="s" depth="0" NCoef="0" IVar="2" Cut="2.2647708129882812e+02" cType="1" res="4.7635124064981937e-03" rms="4.5235550403594971e-01" purity="5.0412344932556152e-01" nType="0">
        <Node pos="l" depth="1" NCoef="0" IVar="2" Cut="2.0445222473144531e+02" cType="1" res="-3.4906540066003799e-02" rms="4.1761228442192078e-01" purity="2.8718951344490051e-01" nType="0">
          <Node pos="l" depth="2" NCoef="0" IVar="-1" Cut="0.0000000000000000e+00" cType="1" res="-7.1987630799412727e-03" rms="3.9384946227073669e-01" purity="2.2166396677494049e-01" nType="-99"/>
          <Node pos="r" depth="2" NCoef="0" IVar="-1" Cut="0.0000000000000000e+00" cType="1" res="1.6602216419414617e-05" rms="4.3526309728622437e-01" purity="3.4711551666259766e-01" nType="-99"/>
        </Node>
        <Node pos="r" depth="1" NCoef="0" IVar="3" Cut="-6.7836376838386059e-03" cType="1" res="1.2350912205874920e-02" rms="4.5830988883972168e-01" purity="5.4561483860015869e-01" nType="0">
          <Node pos="l" depth="2" NCoef="0" IVar="-1" Cut="0.0000000000000000e+00" cType="1" res="-4.8008569865487516e-04" rms="4.5707625150680542e-01" purity="5.0929009914398193e-01" nType="-99"/>
          <Node pos="r" depth="2" NCoef="0" IVar="-1" Cut="0.0000000000000000e+00" cType="1" res="1.7991923959925771e-03" rms="4.5870086550712585e-01" purity="5.7504999637603760e-01" nType="-99"/>
        </Node>
      </Node>
    </BinaryTree>
    <BinaryTree type="DecisionTree" boostWeight="1.0000000000000000e+00" itree="217">
      <Node pos="s" depth="0" NCoef="0" IVar="1" Cut="8.7540131807327271e-01" cType="1" res="-3.2195964013226330e-04" rms="4.5470187067985535e-01" purity="4.9666577577590942e-01" nType="0">
        <Node pos="l" depth="1" NCoef="0" IVar="5" Cut="3.4851424861699343e-03" cType="1" res="-2.3929391056299210e-02" rms="4.5458027720451355e-01" purity="3.5745450854301453e-01" nType="0">
          <Node pos="l" depth="2" NCoef="0" IVar="-1" Cut="0.0000000000000000e+00" cType="1" res="-3.2090577296912670e-03" rms="4.4889897108078003e-01" purity="3.4108862280845642e-01" nType="-99"/>
          <Node pos="r" depth="2" NCoef="0" IVar="-1" Cut="0.0000000000000000e+00" cType="1" res="1.8459924031049013e-03" rms="4.6596401929855347e-01" purity="4.0177035331726074e-01" nType="-99"/>
        </Node>
        <Node pos="r" depth="1" NCoef="0" IVar="4" Cut="4.6420881152153015e-01" cType="1" res="8.9745763689279556e-03" rms="4.5441329479217529e-01" purity="5.5148679018020630e-01" nType="0">
          <Node pos="l" depth="2" NCoef="0" IVar="-1" Cut="0.0000000000000000e+00" cType="1" res="-2.6538551901467144e-04" rms="4.5770466327667236e-01" purity="5.2943688631057739e-01" nType="-99"/>
          <Node pos="r" depth="2" NCoef="0" IVar="-1" Cut="0.0000000000000000e+00" cType="1" res="1.9659423269331455e-03" rms="4.4828349351882935e-01" purity="5.8698880672454834e-01" nType="-99"/>
        </Node>
      </Node>
    </BinaryTree>
    <BinaryTree type="DecisionTree" boostWeight="1.0000000000000000e+00" itree="218">
      <Node pos="s" depth="0" NCoef="0" IVar="3" Cut="-9.7507238388061523e-02" cType="1" res="3.1293339561671019e-03" rms="4.5284706354141235e-01" purity="5.0212615728378296e-01" nType="0">
        <Node pos="l" depth="1" NCoef="0" IVar="7" Cut="6.5978449583053589e-01" cType="1" res="-3.9338715374469757e-02" rms="4.4627907872200012e-01" purity="4.3010288476943970e-01" nType="0">
          <Node pos="l" depth="2" NCoef="0" IVar="-1" Cut="0.0000000000000000e+00" cType="1" res="-7.6435571536421776e-03" rms="4.2506974935531616e-01" purity="2.7057084441184998e-01" nType="-99"/>
          <Node pos="r" depth="2" NCoef="0" IVar="-1" Cut="0.0000000000000000e+00" cType="1" res="-6.3399126520380378e-04" rms="4.5645236968994141e-01" purity="5.2942824363708496e-01" nType="-99"/>
        </Node>
        <Node pos="r" depth="1" NCoef="0" IVar="1" Cut="9.7567784786224365e-01" cType="1" res="1.1258091777563095e-02" rms="4.5364031195640564e-01" purity="5.1591205596923828e-01" nType="0">
          <Node pos="l" depth="2" NCoef="0" IVar="-1" Cut="0.0000000000000000e+00" cType="1" res="3.9248669054359198e-04" rms="4.6123006939888000e-01" purity="4.8530831933021545e-01" nType="-99"/>
          <Node pos="r" depth="2" NCoef="0" IVar="-1" Cut="0.0000000000000000e+00" cType="1" res="4.8032784834504128e-03" rms="3.5895174741744995e-01" purity="8.3896744251251221e-01" nType="-99"/>
        </Node>
      </Node>
    </BinaryTree>
    <BinaryTree type="DecisionTree" boostWeight="1.0000000000000000e+00" itree="219">
      <Node pos="s" depth="0" NCoef="0" IVar="6" Cut="1.2921327352523804e+00" cType="1" res="2.2148150019347668e-03" rms="4.5279213786125183e-01" purity="4.9678894877433777e-01" nType="0">
        <Node pos="l" depth="1" NCoef="0" IVar="5" Cut="3.4173384774476290e-03" cType="1" res="1.6450639814138412e-02" rms="4.5631471276283264e-01" purity="5.3898012638092041e-01" nType="0">
          <Node pos="l" depth="2" NCoef="0" IVar="-1" Cut="0.0000000000000000e+00" cType="1" res="7.4164144461974502e-04" rms="4.5363044738769531e-01" purity="5.4421299695968628e-01" nType="-99"/>
          <Node pos="r" depth="2" NCoef="0" IVar="-1" Cut="0.0000000000000000e+00" cType="1" res="4.6200477518141270e-03" rms="4.7994267940521240e-01" purity="4.8443704843521118e-01" nType="-99"/>
        </Node>
        <Node pos="r" depth="1" NCoef="0" IVar="2" Cut="3.1292861938476562e+02" cType="1" res="-2.0121056586503983e-02" rms="4.4629514217376709e-01" purity="4.3059134483337402e-01" nType="0">
          <Node pos="l" depth="2" NCoef="0" IVar="-1" Cut="0.0000000000000000e+00" cType="1" res="-3.1632701866328716e-03" rms="4.4121012091636658e-01" purity="3.4512221813201904e-01" nType="-99"/>
          <Node pos="r" depth="2" NCoef="0" IVar="-1" Cut="0.0000000000000000e+00" cType="1" res="9.9600211251527071e-04" rms="4.5336052775382996e-01" purity="5.8859729766845703e-01" nType="-99"/>
        </Node>
      </Node>
    </BinaryTree>
    <BinaryTree type="DecisionTree" boostWeight="1.0000000000000000e+00" itree="220">
      <Node pos="s" depth="0" NCoef="0" IVar="3" Cut="1.9968433678150177e-01" cType="1" res="1.4008606085553765e-03" rms="4.5462486147880554e-01" purity="4.9872055649757385e-01" nType="0">
        <Node pos="l" depth="1" NCoef="0" IVar="7" Cut="4.8253467679023743e-01" cType="1" res="-5.0178701058030128e-03" rms="4.5390582084655762e-01" purity="4.8822635412216187e-01" nType="0">
          <Node pos="l" depth="2" NCoef="0" IVar="-1" Cut="0.0000000000000000e+00" cType="1" res="-5.4719597101211548e-03" rms="4.3874436616897583e-01" purity="3.3130156993865967e-01" nType="-99"/>
          <Node pos="r" depth="2" NCoef="0" IVar="-1" Cut="0.0000000000000000e+00" cType="1" res="3.1016636057756841e-04" rms="4.5536863803863525e-01" purity="5.1177000999450684e-01" nType="-99"/>
        </Node>
        <Node pos="r" depth="1" NCoef="0" IVar="0" Cut="1.7233593463897705e+00" cType="1" res="5.1180310547351837e-02" rms="4.5711341500282288e-01" purity="5.8010655641555786e-01" nType="0">
          <Node pos="l" depth="2" NCoef="0" IVar="-1" Cut="0.0000000000000000e+00" cType="1" res="2.2751123178750277e-03" rms="4.7514656186103821e-01" purity="4.5404785871505737e-01" nType="-99"/>
          <Node pos="r" depth="2" NCoef="0" IVar="-1" Cut="0.0000000000000000e+00" cType="1" res="4.0490259416401386e-03" rms="4.3886744976043701e-01" purity="6.9831180572509766e-01" nType="-99"/>
        </Node>
      </Node>
    </BinaryTree>
    <BinaryTree type="DecisionTree" boostWeight="1.0000000000000000e+00" itree="221">
      <Node pos="s" depth="0" NCoef="0" IVar="1" Cut="9.7911852598190308e-01" cType="1" res="1.0699665872380137e-03" rms="4.5242321491241455e-01" purity="4.9785101413726807e-01" nType="0">
        <Node pos="l" depth="1" NCoef="0" IVar="2" Cut="4.9914306640625000e+02" cType="1" res="-3.2582331914454699e-03" rms="4.5766320824623108e-01" purity="4.7368261218070984e-01" nType="0">
          <Node pos="l" depth="2" NCoef="0" IVar="-1" Cut="0.0000000000000000e+00" cType="1" res="-6.1973161064088345e-04" rms="4.5859518647193909e-01" purity="4.4859349727630615e-01" nType="-99"/>
          <Node pos="r" depth="2" NCoef="0" IVar="-1" Cut="0.0000000000000000e+00" cType="1" res="2.7269213460385799e-03" rms="4.4701379537582397e-01" purity="6.8338531255722046e-01" nType="-99"/>
        </Node>
        <Node pos="r" depth="1" NCoef="0" IVar="-1" Cut="0.0000000000000000e+00" cType="1" res="4.2067347094416618e-03" rms="3.6894488334655762e-01" purity="8.2649815082550049e-01" nType="-99"/>
      </Node>
    </BinaryTree>
    <BinaryTree type="DecisionTree" boostWeight="1.0000000000000000e+00" itree="222">
      <Node pos="s" depth="0" NCoef="0" IVar="1" Cut="9.7566783428192139e-01" cType="1" res="1.9609534647315741e-03" rms="4.5315974950790405e-01" purity="4.9885833263397217e-01" nType="0">
        <Node pos="l" depth="1" NCoef="0" IVar="0" Cut="4.0076627731323242e+00" cType="1" res="-3.1353705562651157e-03" rms="4.5962938666343689e-01" purity="4.6819263696670532e-01" nType="0">
          <Node pos="l" depth="2" NCoef="0" IVar="-1" Cut="0.0000000000000000e+00" cType="1" res="-5.6682981085032225e-04" rms="4.6304553747177124e-01" purity="4.4001036882400513e-01" nType="-99"/>
          <Node pos="r" depth="2" NCoef="0" IVar="-1" Cut="0.0000000000000000e+00" cType="1" res="2.8832284733653069e-03" rms="4.2160600423812866e-01" purity="7.4405783414840698e-01" nType="-99"/>
        </Node>
        <Node pos="r" depth="1" NCoef="0" IVar="-1" Cut="0.0000000000000000e+00" cType="1" res="3.8893441669642925e-03" rms="3.7426492571830750e-01" purity="8.2149463891983032e-01" nType="-99"/>
      </Node>
    </BinaryTree>
    <BinaryTree type="DecisionTree" boostWeight="1.0000000000000000e+00" itree="223">
      <Node pos="s" depth="0" NCoef="0" IVar="6" Cut="9.3318867683410645e-01" cType="1" res="1.8914759857580066e-03" rms="4.5403721928596497e-01" purity="4.9779877066612244e-01" nType="0">
        <Node pos="l" depth="1" NCoef="0" IVar="3" Cut="1.4861871302127838e-01" cType="1" res="2.2593257948756218e-02" rms="4.5669221878051758e-01" purity="5.7093793153762817e-01" nType="0">
          <Node pos="l" depth="2" NCoef="0" IVar="-1" Cut="0.0000000000000000e+00" cType="1" res="8.6864572949707508e-04" rms="4.5546621084213257e-01" purity="5.5646222829818726e-01" nType="-99"/>
          <Node pos="r" depth="2" NCoef="0" IVar="-1" Cut="0.0000000000000000e+00" cType="1" res="3.9279633201658726e-03" rms="4.5963558554649353e-01" purity="6.3167083263397217e-01" nType="-99"/>
        </Node>
        <Node pos="r" depth="1" NCoef="0" IVar="2" Cut="3.2430603027343750e+02" cType="1" res="-7.2701848112046719e-03" rms="4.5255506038665771e-01" purity="4.6543076634407043e-01" nType="0">
          <Node pos="l" depth="2" NCoef="0" IVar="-1" Cut="0.0000000000000000e+00" cType="1" res="-1.5282769454643130e-03" rms="4.4761297106742859e-01" purity="3.8693127036094666e-01" nType="-99"/>
          <Node pos="r" depth="2" NCoef="0" IVar="-1" Cut="0.0000000000000000e+00" cType="1" res="9.1467448510229588e-04" rms="4.5990592241287231e-01" purity="5.9712082147598267e-01" nType="-99"/>
        </Node>
      </Node>
    </BinaryTree>
    <BinaryTree type="DecisionTree" boostWeight="1.0000000000000000e+00" itree="224">
      <Node pos="s" depth="0" NCoef="0" IVar="4" Cut="5.1136195659637451e-01" cType="1" res="-1.6677392413839698e-03" rms="4.5507600903511047e-01" purity="4.9414390325546265e-01" nType="0">
        <Node pos="l" depth="1" NCoef="0" IVar="2" Cut="5.5754663085937500e+02" cType="1" res="-1.1921606957912445e-02" rms="4.5503264665603638e-01" purity="4.7729650139808655e-01" nType="0">
          <Node pos="l" depth="2" NCoef="0" IVar="-1" Cut="0.0000000000000000e+00" cType="1" res="-1.2299275258556008e-03" rms="4.5598459243774414e-01" purity="4.5693325996398926e-01" nType="-99"/>
          <Node pos="r" depth="2" NCoef="0" IVar="-1" Cut="0.0000000000000000e+00" cType="1" res="3.0338952783495188e-03" rms="4.3998378515243530e-01" purity="6.9909191131591797e-01" nType="-99"/>
        </Node>
        <Node pos="r" depth="1" NCoef="0" IVar="2" Cut="2.7508828735351562e+02" cType="1" res="2.2152217105031013e-02" rms="4.5428425073623657e-01" purity="5.3328073024749756e-01" nType="0">
          <Node pos="l" depth="2" NCoef="0" IVar="-1" Cut="0.0000000000000000e+00" cType="1" res="-4.3743877904489636e-04" rms="4.5708748698234558e-01" purity="3.9006781578063965e-01" nType="-99"/>
          <Node pos="r" depth="2" NCoef="0" IVar="-1" Cut="0.0000000000000000e+00" cType="1" res="2.8968642000108957e-03" rms="4.5032632350921631e-01" purity="6.6054433584213257e-01" nType="-99"/>
        </Node>
      </Node>
    </BinaryTree>
    <BinaryTree type="DecisionTree" boostWeight="1.0000000000000000e+00" itree="225">
      <Node pos="s" depth="0" NCoef="0" IVar="1" Cut="9.7548687458038330e-01" cType="1" res="-3.2281558378599584e-04" rms="4.5059144496917725e-01" purity="4.9790963530540466e-01" nType="0">
        <Node pos="l" depth="1" NCoef="0" IVar="6" Cut="7.5722402334213257e-01" cType="1" res="-5.6515638716518879e-03" rms="4.5695847272872925e-01" purity="4.6775767207145691e-01" nType="0">
          <Node pos="l" depth="2" NCoef="0" IVar="-1" Cut="0.0000000000000000e+00" cType="1" res="2.1538634318858385e-03" rms="4.6097305417060852e-01" purity="5.7067960500717163e-01" nType="-99"/>
          <Node pos="r" depth="2" NCoef="0" IVar="-1" Cut="0.0000000000000000e+00" cType="1" res="-9.7369804279878736e-04" rms="4.5567044615745544e-01" purity="4.4595810770988464e-01" nType="-99"/>
        </Node>
        <Node pos="r" depth="1" NCoef="0" IVar="-1" Cut="0.0000000000000000e+00" cType="1" res="4.0958425961434841e-03" rms="3.6870706081390381e-01" purity="8.2853639125823975e-01" nType="-99"/>
      </Node>
    </BinaryTree>
    <BinaryTree type="DecisionTree" boostWeight="1.0000000000000000e+00" itree="226">
      <Node pos="s" depth="0" NCoef="0" IVar="4" Cut="1.2710367143154144e-01" cType="1" res="4.1691614314913750e-03" rms="4.5410987734794617e-01" purity="4.9993714690208435e-01" nType="0">
        <Node pos="l" depth="1" NCoef="0" IVar="-1" Cut="0.0000000000000000e+00" cType="1" res="-3.8228032644838095e-03" rms="4.4630903005599976e-01" purity="4.0584403276443481e-01" nType="-99"/>
        <Node pos="r" depth="1" NCoef="0" IVar="2" Cut="4.5313644409179688e+02" cType="1" res="7.9729175195097923e-03" rms="4.5437192916870117e-01" purity="5.0622189044952393e-01" nType="0">
          <Node pos="l" depth="2" NCoef="0" IVar="-1" Cut="0.0000000000000000e+00" cType="1" res="1.6294515808112919e-04" rms="4.5710694789886475e-01" purity="4.7309970855712891e-01" nType="-99"/>
          <Node pos="r" depth="2" NCoef="0" IVar="-1" Cut="0.0000000000000000e+00" cType="1" res="2.5915661826729774e-03" rms="4.3628096580505371e-01" purity="7.0292639732360840e-01" nType="-99"/>
        </Node>
      </Node>
    </BinaryTree>
    <BinaryTree type="DecisionTree" boostWeight="1.0000000000000000e+00" itree="227">
      <Node pos="s" depth="0" NCoef="0" IVar="4" Cut="2.2606475651264191e-01" cType="1" res="2.4349405430257320e-03" rms="4.5256420969963074e-01" purity="4.9866628646850586e-01" nType="0">
        <Node pos="l" depth="1" NCoef="0" IVar="3" Cut="4.0815558284521103e-02" cType="1" res="-3.5284724086523056e-02" rms="4.5504245162010193e-01" purity="4.3456560373306274e-01" nType="0">
          <Node pos="l" depth="2" NCoef="0" IVar="-1" Cut="0.0000000000000000e+00" cType="1" res="-4.9320450052618980e-03" rms="4.4450443983078003e-01" purity="3.7611585855484009e-01" nType="-99"/>
          <Node pos="r" depth="2" NCoef="0" IVar="-1" Cut="0.0000000000000000e+00" cType="1" res="-5.5982160847634077e-04" rms="4.6289616823196411e-01" purity="4.8842942714691162e-01" nType="-99"/>
        </Node>
        <Node pos="r" depth="1" NCoef="0" IVar="2" Cut="2.0004200744628906e+02" cType="1" res="1.2432313524186611e-02" rms="4.5137697458267212e-01" purity="5.1565575599670410e-01" nType="0">
          <Node pos="l" depth="2" NCoef="0" IVar="-1" Cut="0.0000000000000000e+00" cType="1" res="-5.3270822390913963e-03" rms="3.8976389169692993e-01" purity="2.4086235463619232e-01" nType="-99"/>
          <Node pos="r" depth="2" NCoef="0" IVar="-1" Cut="0.0000000000000000e+00" cType="1" res="1.1824622051790357e-03" rms="4.5542830228805542e-01" purity="5.3720897436141968e-01" nType="-99"/>
        </Node>
      </Node>
    </BinaryTree>
    <BinaryTree type="DecisionTree" boostWeight="1.0000000000000000e+00" itree="228">
      <Node pos="s" depth="0" NCoef="0" IVar="6" Cut="1.4303251504898071e+00" cType="1" res="4.4721667654812336e-03" rms="4.5489510893821716e-01" purity="5.0293356180191040e-01" nType="0">
        <Node pos="l" depth="1" NCoef="0" IVar="7" Cut="4.0146532654762268e-01" cType="1" res="1.4275495894253254e-02" rms="4.6123242378234863e-01" purity="5.3278446197509766e-01" nType="0">
          <Node pos="l" depth="2" NCoef="0" IVar="-1" Cut="0.0000000000000000e+00" cType="1" res="-3.6561973392963409e-03" rms="4.5391020178794861e-01" purity="4.3715578317642212e-01" nType="-99"/>
          <Node pos="r" depth="2" NCoef="0" IVar="-1" Cut="0.0000000000000000e+00" cType="1" res="1.3490555575117469e-03" rms="4.6143889427185059e-01" purity="5.4162108898162842e-01" nType="-99"/>
        </Node>
        <Node pos="r" depth="1" NCoef="0" IVar="2" Cut="2.5966854858398438e+02" cType="1" res="-1.9729057326912880e-02" rms="4.3792006373405457e-01" purity="4.2924159765243530e-01" nType="0">
          <Node pos="l" depth="2" NCoef="0" IVar="-1" Cut="0.0000000000000000e+00" cType="1" res="-4.9419663846492767e-03" rms="4.1243872046470642e-01" purity="2.7525395154953003e-01" nType="-99"/>
          <Node pos="r" depth="2" NCoef="0" IVar="-1" Cut="0.0000000000000000e+00" cType="1" res="3.7368244375102222e-04" rms="4.5347172021865845e-01" purity="5.3881412744522095e-01" nType="-99"/>
        </Node>
      </Node>
    </BinaryTree>
    <BinaryTree type="DecisionTree" boostWeight="1.0000000000000000e+00" itree="229">
      <Node pos="s" depth="0" NCoef="0" IVar="2" Cut="5.6455590820312500e+02" cType="1" res="-2.3713163100183010e-03" rms="4.5142462849617004e-01" purity="4.9362871050834656e-01" nType="0">
        <Node pos="l" depth="1" NCoef="0" IVar="0" Cut="3.6204090118408203e+00" cType="1" res="-6.8414011038839817e-03" rms="4.5240256190299988e-01" purity="4.7738125920295715e-01" nType="0">
          <Node pos="l" depth="2" NCoef="0" IVar="-1" Cut="0.0000000000000000e+00" cType="1" res="-1.0094211902469397e-03" rms="4.5790985226631165e-01" purity="4.3149688839912415e-01" nType="-99"/>
          <Node pos="r" depth="2" NCoef="0" IVar="-1" Cut="0.0000000000000000e+00" cType="1" res="2.2584225516766310e-03" rms="4.1709467768669128e-01" purity="7.3938047885894775e-01" nType="-99"/>
        </Node>
        <Node pos="r" depth="1" NCoef="0" IVar="-1" Cut="0.0000000000000000e+00" cType="1" res="3.8346741348505020e-03" rms="4.3239179253578186e-01" purity="7.2387492656707764e-01" nType="-99"/>
      </Node>
    </BinaryTree>
    <BinaryTree type="DecisionTree" boostWeight="1.0000000000000000e+00" itree="230">
      <Node pos="s" depth="0" NCoef="0" IVar="4" Cut="6.3023579120635986e-01" cType="1" res="4.2623742483556271e-03" rms="4.5353376865386963e-01" purity="5.0014376640319824e-01" nType="0">
        <Node pos="l" depth="1" NCoef="0" IVar="3" Cut="1.7298913002014160e-01" cType="1" res="-1.6473991563543677e-03" rms="4.5412880182266235e-01" purity="4.9170622229576111e-01" nType="0">
          <Node pos="l" depth="2" NCoef="0" IVar="-1" Cut="0.0000000000000000e+00" cType="1" res="-6.7385600414127111e-04" rms="4.5205137133598328e-01" purity="4.7670418024063110e-01" nType="-99"/>
          <Node pos="r" depth="2" NCoef="0" IVar="-1" Cut="0.0000000000000000e+00" cType="1" res="2.1931021474301815e-03" rms="4.6171045303344727e-01" purity="5.5951964855194092e-01" nType="-99"/>
        </Node>
        <Node pos="r" depth="1" NCoef="0" IVar="2" Cut="2.7446282958984375e+02" cType="1" res="4.2301129549741745e-02" rms="4.4782239198684692e-01" purity="5.5445265769958496e-01" nType="0">
          <Node pos="l" depth="2" NCoef="0" IVar="-1" Cut="0.0000000000000000e+00" cType="1" res="7.5931276660412550e-04" rms="4.5791333913803101e-01" purity="4.1025036573410034e-01" nType="-99"/>
          <Node pos="r" depth="2" NCoef="0" IVar="-1" Cut="0.0000000000000000e+00" cType="1" res="4.5354943722486496e-03" rms="4.3495580554008484e-01" purity="7.0033192634582520e-01" nType="-99"/>
        </Node>
      </Node>
    </BinaryTree>
    <BinaryTree type="DecisionTree" boostWeight="1.0000000000000000e+00" itree="231">
      <Node pos="s" depth="0" NCoef="0" IVar="4" Cut="2.2095595300197601e-01" cType="1" res="-4.7495763283222914e-04" rms="4.5354229211807251e-01" purity="4.9559006094932556e-01" nType="0">
        <Node pos="l" depth="1" NCoef="0" IVar="3" Cut="1.4174002408981323e-01" cType="1" res="-2.8929077088832855e-02" rms="4.5773586630821228e-01" purity="4.3898680806159973e-01" nType="0">
          <Node pos="l" depth="2" NCoef="0" IVar="-1" Cut="0.0000000000000000e+00" cType="1" res="-4.3620546348392963e-03" rms="4.4689539074897766e-01" purity="3.9010670781135559e-01" nType="-99"/>
          <Node pos="r" depth="2" NCoef="0" IVar="-1" Cut="0.0000000000000000e+00" cType="1" res="1.9287648610770702e-03" rms="4.7279196977615356e-01" purity="5.3462874889373779e-01" nType="-99"/>
        </Node>
        <Node pos="r" depth="1" NCoef="0" IVar="2" Cut="4.9201309204101562e+02" cType="1" res="6.7953905090689659e-03" rms="4.5217746496200562e-01" purity="5.1005280017852783e-01" nType="0">
          <Node pos="l" depth="2" NCoef="0" IVar="-1" Cut="0.0000000000000000e+00" cType="1" res="1.2321727990638465e-04" rms="4.5476362109184265e-01" purity="4.8465934395790100e-01" nType="-99"/>
          <Node pos="r" depth="2" NCoef="0" IVar="-1" Cut="0.0000000000000000e+00" cType="1" res="3.3697886392474174e-03" rms="4.2508932948112488e-01" purity="7.4207723140716553e-01" nType="-99"/>
        </Node>
      </Node>
    </BinaryTree>
    <BinaryTree type="DecisionTree" boostWeight="1.0000000000000000e+00" itree="232">
      <Node pos="s" depth="0" NCoef="0" IVar="2" Cut="2.0004200744628906e+02" cType="1" res="1.6993886092677712e-03" rms="4.5231810212135315e-01" purity="4.9972650408744812e-01" nType="0">
        <Node pos="l" depth="1" NCoef="0" IVar="-1" Cut="0.0000000000000000e+00" cType="1" res="-6.5147690474987030e-03" rms="3.8814440369606018e-01" purity="2.2269660234451294e-01" nType="-99"/>
        <Node pos="r" depth="1" NCoef="0" IVar="0" Cut="9.9779233336448669e-02" cType="1" res="6.3360901549458504e-03" rms="4.5603081583976746e-01" purity="5.1876562833786011e-01" nType="0">
          <Node pos="l" depth="2" NCoef="0" IVar="-1" Cut="0.0000000000000000e+00" cType="1" res="-3.4223648253828287e-03" rms="4.3783009052276611e-01" purity="3.0078339576721191e-01" nType="-99"/>
          <Node pos="r" depth="2" NCoef="0" IVar="-1" Cut="0.0000000000000000e+00" cType="1" res="8.0050970427691936e-04" rms="4.5791628956794739e-01" purity="5.4592925310134888e-01" nType="-99"/>
        </Node>
      </Node>
    </BinaryTree>
    <BinaryTree type="DecisionTree" boostWeight="1.0000000000000000e+00" itree="233">
      <Node pos="s" depth="0" NCoef="0" IVar="2" Cut="5.6139025878906250e+02" cType="1" res="7.0206164382398129e-03" rms="4.5435878634452820e-01" purity="5.0462722778320312e-01" nType="0">
        <Node pos="l" depth="1" NCoef="0" IVar="5" Cut="3.3551368396729231e-03" cType="1" res="2.5172664318233728e-03" rms="4.5591318607330322e-01" purity="4.8776859045028687e-01" nType="0">
          <Node pos="l" depth="2" NCoef="0" IVar="-1" Cut="0.0000000000000000e+00" cType="1" res="-1.3943845988251269e-04" rms="4.5506617426872253e-01" purity="4.9543234705924988e-01" nType="-99"/>
          <Node pos="r" depth="2" NCoef="0" IVar="-1" Cut="0.0000000000000000e+00" cType="1" res="2.9949836898595095e-03" rms="4.6148496866226196e-01" purity="4.1845044493675232e-01" nType="-99"/>
        </Node>
        <Node pos="r" depth="1" NCoef="0" IVar="-1" Cut="0.0000000000000000e+00" cType="1" res="4.2052553035318851e-03" rms="4.2811694741249084e-01" purity="7.3295205831527710e-01" nType="-99"/>
      </Node>
    </BinaryTree>
    <BinaryTree type="DecisionTree" boostWeight="1.0000000000000000e+00" itree="234">
      <Node pos="s" depth="0" NCoef="0" IVar="0" Cut="7.7690891921520233e-02" cType="1" res="2.4220019113272429e-03" rms="4.5313882827758789e-01" purity="5.0087058544158936e-01" nType="0">
        <Node pos="l" depth="1" NCoef="0" IVar="6" Cut="1.1728703975677490e+00" cType="1" res="-3.9400212466716766e-02" rms="4.2820858955383301e-01" purity="2.8415811061859131e-01" nType="0">
          <Node pos="l" depth="2" NCoef="0" IVar="-1" Cut="0.0000000000000000e+00" cType="1" res="-7.7674194471910596e-04" rms="4.6022060513496399e-01" purity="3.4510672092437744e-01" nType="-99"/>
          <Node pos="r" depth="2" NCoef="0" IVar="-1" Cut="0.0000000000000000e+00" cType="1" res="-7.0917513221502304e-03" rms="3.8908722996711731e-01" purity="2.1978805959224701e-01" nType="-99"/>
        </Node>
        <Node pos="r" depth="1" NCoef="0" IVar="4" Cut="5.9297114610671997e-01" cType="1" res="7.2387810796499252e-03" rms="4.5567613840103149e-01" purity="5.2582997083663940e-01" nType="0">
          <Node pos="l" depth="2" NCoef="0" IVar="-1" Cut="0.0000000000000000e+00" cType="1" res="6.9872061430942267e-05" rms="4.5655894279479980e-01" purity="5.1476722955703735e-01" nType="-99"/>
          <Node pos="r" depth="2" NCoef="0" IVar="-1" Cut="0.0000000000000000e+00" cType="1" res="2.4305377155542374e-03" rms="4.5029655098915100e-01" purity="5.7836830615997314e-01" nType="-99"/>
        </Node>
      </Node>
    </BinaryTree>
    <BinaryTree type="DecisionTree" boostWeight="1.0000000000000000e+00" itree="235">
      <Node pos="s" depth="0" NCoef="0" IVar="1" Cut="9.6025031805038452e-01" cType="1" res="3.6735490430146456e-03" rms="4.5270553231239319e-01" purity="5.0029486417770386e-01" nType="0">
        <Node pos="l" depth="1" NCoef="0" IVar="4" Cut="6.6829729080200195e-01" cType="1" res="-3.2832697033882141e-03" rms="4.6162706613540649e-01" purity="4.5006373524665833e-01" nType="0">
          <Node pos="l" depth="2" NCoef="0" IVar="-1" Cut="0.0000000000000000e+00" cType="1" res="-5.1690923282876611e-04" rms="4.6181052923202515e-01" purity="4.4570288062095642e-01" nType="-99"/>
          <Node pos="r" depth="2" NCoef="0" IVar="-1" Cut="0.0000000000000000e+00" cType="1" res="2.5071182753890753e-03" rms="4.5774677395820618e-01" purity="4.9343058466911316e-01" nType="-99"/>
        </Node>
        <Node pos="r" depth="1" NCoef="0" IVar="0" Cut="2.8338522911071777e+00" cType="1" res="4.2979650199413300e-02" rms="3.9627680182456970e-01" purity="7.8410130739212036e-01" nType="0">
          <Node pos="l" depth="2" NCoef="0" IVar="-1" Cut="0.0000000000000000e+00" cType="1" res="4.0541370399296284e-03" rms="4.1239649057388306e-01" purity="7.5039911270141602e-01" nType="-99"/>
          <Node pos="r" depth="2" NCoef="0" IVar="-1" Cut="0.0000000000000000e+00" cType="1" res="1.9996473565697670e-03" rms="3.8195383548736572e-01" purity="8.1152504682540894e-01" nType="-99"/>
        </Node>
      </Node>
    </BinaryTree>
    <BinaryTree type="DecisionTree" boostWeight="1.0000000000000000e+00" itree="236">
      <Node pos="s" depth="0" NCoef="0" IVar="6" Cut="1.5188889503479004e+00" cType="1" res="8.6109153926372528e-03" rms="4.5348998904228210e-01" purity="5.0794225931167603e-01" nType="0">
        <Node pos="l" depth="1" NCoef="0" IVar="4" Cut="6.2131315469741821e-01" cType="1" res="1.6620134934782982e-02" rms="4.5711362361907959e-01" purity="5.3479981422424316e-01" nType="0">
          <Node pos="l" depth="2" NCoef="0" IVar="-1" Cut="0.0000000000000000e+00" cType="1" res="7.3086970951408148e-04" rms="4.5777747035026550e-01" purity="5.2633947134017944e-01" nType="-99"/>
          <Node pos="r" depth="2" NCoef="0" IVar="-1" Cut="0.0000000000000000e+00" cType="1" res="3.3924186136573553e-03" rms="4.5158517360687256e-01" purity="5.8532071113586426e-01" nType="-99"/>
        </Node>
        <Node pos="r" depth="1" NCoef="0" IVar="2" Cut="2.9342584228515625e+02" cType="1" res="-1.7564008012413979e-02" rms="4.4042554497718811e-01" purity="4.2016911506652832e-01" nType="0">
          <Node pos="l" depth="2" NCoef="0" IVar="-1" Cut="0.0000000000000000e+00" cType="1" res="-3.9617046713829041e-03" rms="4.2763710021972656e-01" purity="3.1419748067855835e-01" nType="-99"/>
          <Node pos="r" depth="2" NCoef="0" IVar="-1" Cut="0.0000000000000000e+00" cType="1" res="1.8008560873568058e-03" rms="4.5590147376060486e-01" purity="5.8614230155944824e-01" nType="-99"/>
        </Node>
      </Node>
    </BinaryTree>
    <BinaryTree type="DecisionTree" boostWeight="1.0000000000000000e+00" itree="237">
      <Node pos="s" depth="0" NCoef="0" IVar="6" Cut="1.0853391885757446e+00" cType="1" res="-3.4644783008843660e-03" rms="4.5257374644279480e-01" purity="4.9201345443725586e-01" nType="0">
        <Node pos="l" depth="1" NCoef="0" IVar="0" Cut="3.2615754008293152e-01" cType="1" res="1.5280373394489288e-02" rms="4.5831945538520813e-01" purity="5.5346018075942993e-01" nType="0">
          <Node pos="l" depth="2" NCoef="0" IVar="-1" Cut="0.0000000000000000e+00" cType="1" res="-1.1103309225291014e-03" rms="4.5910578966140747e-01" purity="3.5322612524032593e-01" nType="-99"/>
          <Node pos="r" depth="2" NCoef="0" IVar="-1" Cut="0.0000000000000000e+00" cType="1" res="1.3450282858684659e-03" rms="4.5795333385467529e-01" purity="5.9200870990753174e-01" nType="-99"/>
        </Node>
        <Node pos="r" depth="1" NCoef="0" IVar="2" Cut="3.5968725585937500e+02" cType="1" res="-1.8184298649430275e-02" rms="4.4746005535125732e-01" purity="4.4376114010810852e-01" nType="0">
          <Node pos="l" depth="2" NCoef="0" IVar="-1" Cut="0.0000000000000000e+00" cType="1" res="-2.3819478228688240e-03" rms="4.4440227746963501e-01" purity="3.8675573468208313e-01" nType="-99"/>
          <Node pos="r" depth="2" NCoef="0" IVar="-1" Cut="0.0000000000000000e+00" cType="1" res="1.4798098709434271e-03" rms="4.5451149344444275e-01" purity="6.2439084053039551e-01" nType="-99"/>
        </Node>
      </Node>
    </BinaryTree>
    <BinaryTree type="DecisionTree" boostWeight="1.0000000000000000e+00" itree="238">
      <Node pos="s" depth="0" NCoef="0" IVar="0" Cut="3.8871750831604004e+00" cType="1" res="3.1062900088727474e-03" rms="4.5210570096969604e-01" purity="5.0163143873214722e-01" nType="0">
        <Node pos="l" depth="1" NCoef="0" IVar="4" Cut="4.0988472104072571e-01" cType="1" res="-2.4031226057559252e-03" rms="4.5812454819679260e-01" purity="4.6509119868278503e-01" nType="0">
          <Node pos="l" depth="2" NCoef="0" IVar="-1" Cut="0.0000000000000000e+00" cType="1" res="-1.2469370849430561e-03" rms="4.5663338899612427e-01" purity="4.3590393662452698e-01" nType="-99"/>
          <Node pos="r" depth="2" NCoef="0" IVar="-1" Cut="0.0000000000000000e+00" cType="1" res="1.0646602604538202e-03" rms="4.5923641324043274e-01" purity="4.9973353743553162e-01" nType="-99"/>
        </Node>
        <Node pos="r" depth="1" NCoef="0" IVar="-1" Cut="0.0000000000000000e+00" cType="1" res="2.9009082354605198e-03" rms="4.0289339423179626e-01" purity="7.6987212896347046e-01" nType="-99"/>
      </Node>
    </BinaryTree>
    <BinaryTree type="DecisionTree" boostWeight="1.0000000000000000e+00" itree="239">
      <Node pos="s" depth="0" NCoef="0" IVar="7" Cut="8.2693207263946533e-01" cType="1" res="5.8705992996692657e-03" rms="4.5475921034812927e-01" purity="5.0311714410781860e-01" nType="0">
        <Node pos="l" depth="1" NCoef="0" IVar="3" Cut="-6.2517806887626648e-02" cType="1" res="2.4629916879348457e-04" rms="4.5613095164299011e-01" purity="4.8687267303466797e-01" nType="0">
          <Node pos="l" depth="2" NCoef="0" IVar="-1" Cut="0.0000000000000000e+00" cType="1" res="-2.0200959406793118e-03" rms="4.4862693548202515e-01" purity="4.0926074981689453e-01" nType="-99"/>
          <Node pos="r" depth="2" NCoef="0" IVar="-1" Cut="0.0000000000000000e+00" cType="1" res="5.8915116824209690e-04" rms="4.5810201764106750e-01" purity="5.1088881492614746e-01" nType="-99"/>
        </Node>
        <Node pos="r" depth="1" NCoef="0" IVar="6" Cut="1.2628437280654907e+00" cType="1" res="3.4533098340034485e-02" rms="4.4660443067550659e-01" purity="5.8590227365493774e-01" nType="0">
          <Node pos="l" depth="2" NCoef="0" IVar="-1" Cut="0.0000000000000000e+00" cType="1" res="9.1252318816259503e-04" rms="4.4899967312812805e-01" purity="5.8310878276824951e-01" nType="-99"/>
          <Node pos="r" depth="2" NCoef="0" IVar="-1" Cut="0.0000000000000000e+00" cType="1" res="4.5213266275823116e-03" rms="4.4023990631103516e-01" purity="5.9067356586456299e-01" nType="-99"/>
        </Node>
      </Node>
    </BinaryTree>
    <BinaryTree type="DecisionTree" boostWeight="1.0000000000000000e+00" itree="240">
      <Node pos="s" depth="0" NCoef="0" IVar="2" Cut="2.1928665161132812e+02" cType="1" res="4.1766213253140450e-03" rms="4.5238924026489258e-01" purity="5.0449728965759277e-01" nType="0">
        <Node pos="l" depth="1" NCoef="0" IVar="6" Cut="1.4275786876678467e+00" cType="1" res="-3.6783970892429352e-02" rms="4.1526502370834351e-01" purity="2.7128097414970398e-01" nType="0">
          <Node pos="l" depth="2" NCoef="0" IVar="-1" Cut="0.0000000000000000e+00" cType="1" res="-7.8003306407481432e-04" rms="4.3545362353324890e-01" purity="3.1799417734146118e-01" nType="-99"/>
          <Node pos="r" depth="2" NCoef="0" IVar="-1" Cut="0.0000000000000000e+00" cType="1" res="-7.5489808805286884e-03" rms="3.8363099098205566e-01" purity="2.0901961624622345e-01" nType="-99"/>
        </Node>
        <Node pos="r" depth="1" NCoef="0" IVar="4" Cut="2.2601810097694397e-01" cType="1" res="1.0205493308603764e-02" rms="4.5728957653045654e-01" purity="5.3882378339767456e-01" nType="0">
          <Node pos="l" depth="2" NCoef="0" IVar="-1" Cut="0.0000000000000000e+00" cType="1" res="-1.6962505178526044e-03" rms="4.6280166506767273e-01" purity="4.5617580413818359e-01" nType="-99"/>
          <Node pos="r" depth="2" NCoef="0" IVar="-1" Cut="0.0000000000000000e+00" cType="1" res="1.3173696352168918e-03" rms="4.5523670315742493e-01" purity="5.6224972009658813e-01" nType="-99"/>
        </Node>
      </Node>
    </BinaryTree>
    <BinaryTree type="DecisionTree" boostWeight="1.0000000000000000e+00" itree="241">
      <Node pos="s" depth="0" NCoef="0" IVar="4" Cut="2.2311086952686310e-01" cType="1" res="5.7668397203087807e-03" rms="4.5195746421813965e-01" purity="5.0551885366439819e-01" nType="0">
        <Node pos="l" depth="1" NCoef="0" IVar="2" Cut="4.0611950683593750e+02" cType="1" res="-2.4924654513597488e-02" rms="4.5198681950569153e-01" purity="4.4596853852272034e-01" nType="0">
          <Node pos="l" depth="2" NCoef="0" IVar="-1" Cut="0.0000000000000000e+00" cType="1" res="-3.2437827903777361e-03" rms="4.4536161422729492e-01" purity="3.6678329110145569e-01" nType="-99"/>
          <Node pos="r" depth="2" NCoef="0" IVar="-1" Cut="0.0000000000000000e+00" cType="1" res="4.4827826786786318e-04" rms="4.6200728416442871e-01" purity="5.8918821811676025e-01" nType="-99"/>
        </Node>
        <Node pos="r" depth="1" NCoef="0" IVar="2" Cut="2.7545938110351562e+02" cType="1" res="1.3687951490283012e-02" rms="4.5161136984825134e-01" purity="5.2088803052902222e-01" nType="0">
          <Node pos="l" depth="2" NCoef="0" IVar="-1" Cut="0.0000000000000000e+00" cType="1" res="-5.8926170459017158e-04" rms="4.4209420680999756e-01" purity="3.6912974715232849e-01" nType="-99"/>
          <Node pos="r" depth="2" NCoef="0" IVar="-1" Cut="0.0000000000000000e+00" cType="1" res="1.7280896427109838e-03" rms="4.5714455842971802e-01" purity="6.1913537979125977e-01" nType="-99"/>
        </Node>
      </Node>
    </BinaryTree>
    <BinaryTree type="DecisionTree" boostWeight="1.0000000000000000e+00" itree="242">
      <Node pos="s" depth="0" NCoef="0" IVar="3" Cut="2.0241296291351318e-01" cType="1" res="3.7979816552251577e-03" rms="4.5225840806961060e-01" purity="5.0104856491088867e-01" nType="0">
        <Node pos="l" depth="1" NCoef="0" IVar="1" Cut="9.0625303983688354e-01" cType="1" res="-1.5229537384584546e-03" rms="4.5190367102622986e-01" purity="4.9149754643440247e-01" nType="0">
          <Node pos="l" depth="2" NCoef="0" IVar="-1" Cut="0.0000000000000000e+00" cType="1" res="-1.0601704707369208e-03" rms="4.5710486173629761e-01" purity="3.7870135903358459e-01" nType="-99"/>
          <Node pos="r" depth="2" NCoef="0" IVar="-1" Cut="0.0000000000000000e+00" cType="1" res="8.7157846428453922e-04" rms="4.4550007581710815e-01" purity="6.1897414922714233e-01" nType="-99"/>
        </Node>
        <Node pos="r" depth="1" NCoef="0" IVar="5" Cut="1.2458609417080879e-03" cType="1" res="4.6169735491275787e-02" rms="4.5284768939018250e-01" purity="5.7710498571395874e-01" nType="0">
          <Node pos="l" depth="2" NCoef="0" IVar="-1" Cut="0.0000000000000000e+00" cType="1" res="1.7648863140493631e-03" rms="4.3206897377967834e-01" purity="6.3701021671295166e-01" nType="-99"/>
          <Node pos="r" depth="2" NCoef="0" IVar="-1" Cut="0.0000000000000000e+00" cType="1" res="4.1204718872904778e-03" rms="4.7265958786010742e-01" purity="5.1481932401657104e-01" nType="-99"/>
        </Node>
      </Node>
    </BinaryTree>
    <BinaryTree type="DecisionTree" boostWeight="1.0000000000000000e+00" itree="243">
      <Node pos="s" depth="0" NCoef="0" IVar="0" Cut="3.9063659310340881e-01" cType="1" res="3.8689698558300734e-03" rms="4.5425647497177124e-01" purity="4.9899423122406006e-01" nType="0">
        <Node pos="l" depth="1" NCoef="0" IVar="7" Cut="7.3647844791412354e-01" cType="1" res="-3.5496376454830170e-02" rms="4.3072757124900818e-01" purity="2.8985369205474854e-01" nType="0">
          <Node pos="l" depth="2" NCoef="0" IVar="-1" Cut="0.0000000000000000e+00" cType="1" res="-4.3678744696080685e-03" rms="4.1838002204895020e-01" purity="2.5691160559654236e-01" nType="-99"/>
          <Node pos="r" depth="2" NCoef="0" IVar="-1" Cut="0.0000000000000000e+00" cType="1" res="-1.1927991872653365e-03" rms="4.5210605859756470e-01" purity="3.5115239024162292e-01" nType="-99"/>
        </Node>
        <Node pos="r" depth="1" NCoef="0" IVar="3" Cut="9.5788590610027313e-02" cType="1" res="1.2372219935059547e-02" rms="4.5873716473579407e-01" purity="5.4417037963867188e-01" nType="0">
          <Node pos="l" depth="2" NCoef="0" IVar="-1" Cut="0.0000000000000000e+00" cType="1" res="1.0534952889429405e-04" rms="4.5600092411041260e-01" purity="5.2565705776214600e-01" nType="-99"/>
          <Node pos="r" depth="2" NCoef="0" IVar="-1" Cut="0.0000000000000000e+00" cType="1" res="2.3355686571449041e-03" rms="4.6392610669136047e-01" purity="5.8593046665191650e-01" nType="-99"/>
        </Node>
      </Node>
    </BinaryTree>
    <BinaryTree type="DecisionTree" boostWeight="1.0000000000000000e+00" itree="244">
      <Node pos="s" depth="0" NCoef="0" IVar="6" Cut="7.0519644021987915e-01" cType="1" res="7.4962712824344635e-03" rms="4.5367953181266785e-01" purity="5.0484830141067505e-01" nType="0">
        <Node pos="l" depth="1" NCoef="0" IVar="7" Cut="6.7332810163497925e-01" cType="1" res="4.4629849493503571e-02" rms="4.4554689526557922e-01" purity="6.1684209108352661e-01" nType="0">
          <Node pos="l" depth="2" NCoef="0" IVar="-1" Cut="0.0000000000000000e+00" cType="1" res="1.2452577939257026e-03" rms="4.6592494845390320e-01" purity="5.5413866043090820e-01" nType="-99"/>
          <Node pos="r" depth="2" NCoef="0" IVar="-1" Cut="0.0000000000000000e+00" cType="1" res="4.3387757614254951e-03" rms="4.2438343167304993e-01" purity="6.7502516508102417e-01" nType="-99"/>
        </Node>
        <Node pos="r" depth="1" NCoef="0" IVar="3" Cut="4.2249616235494614e-02" cType="1" res="1.7771596321836114e-03" rms="4.5464971661567688e-01" purity="4.8759961128234863e-01" nType="0">
          <Node pos="l" depth="2" NCoef="0" IVar="-1" Cut="0.0000000000000000e+00" cType="1" res="-8.1836764002218843e-04" rms="4.4988885521888733e-01" purity="4.5987105369567871e-01" nType="-99"/>
          <Node pos="r" depth="2" NCoef="0" IVar="-1" Cut="0.0000000000000000e+00" cType="1" res="1.3151168823242188e-03" rms="4.6039834618568420e-01" purity="5.2500218152999878e-01" nType="-99"/>
        </Node>
      </Node>
    </BinaryTree>
    <BinaryTree type="DecisionTree" boostWeight="1.0000000000000000e+00" itree="245">
      <Node pos="s" depth="0" NCoef="0" IVar="3" Cut="1.8722411990165710e-01" cType="1" res="9.1150095686316490e-03" rms="4.5383819937705994e-01" purity="5.0745481252670288e-01" nType="0">
        <Node pos="l" depth="1" NCoef="0" IVar="7" Cut="8.3290457725524902e-01" cType="1" res="4.1729016229510307e-03" rms="4.5213004946708679e-01" purity="4.9795943498611450e-01" nType="0">
          <Node pos="l" depth="2" NCoef="0" IVar="-1" Cut="0.0000000000000000e+00" cType="1" res="-2.0418030908331275e-04" rms="4.5447602868080139e-01" purity="4.7642549872398376e-01" nType="-99"/>
          <Node pos="r" depth="2" NCoef="0" IVar="-1" Cut="0.0000000000000000e+00" cType="1" res="2.3573006037622690e-03" rms="4.4002932310104370e-01" purity="5.9477186203002930e-01" nType="-99"/>
        </Node>
        <Node pos="r" depth="1" NCoef="0" IVar="5" Cut="1.2456878321245313e-03" cType="1" res="4.0915697813034058e-02" rms="4.6342042088508606e-01" purity="5.6855368614196777e-01" nType="0">
          <Node pos="l" depth="2" NCoef="0" IVar="-1" Cut="0.0000000000000000e+00" cType="1" res="3.7461848114617169e-04" rms="4.4238111376762390e-01" purity="6.1688953638076782e-01" nType="-99"/>
          <Node pos="r" depth="2" NCoef="0" IVar="-1" Cut="0.0000000000000000e+00" cType="1" res="4.6122176572680473e-03" rms="4.8003140091896057e-01" purity="5.2301925420761108e-01" nType="-99"/>
        </Node>
      </Node>
    </BinaryTree>
    <BinaryTree type="DecisionTree" boostWeight="1.0000000000000000e+00" itree="246">
      <Node pos="s" depth="0" NCoef="0" IVar="0" Cut="1.7230297625064850e-01" cType="1" res="-4.1943155229091644e-03" rms="4.5407536625862122e-01" purity="4.9417161941528320e-01" nType="0">
        <Node pos="l" depth="1" NCoef="0" IVar="1" Cut="8.7133169174194336e-01" cType="1" res="-4.2745165526866913e-02" rms="4.2797768115997314e-01" purity="2.8233996033668518e-01" nType="0">
          <Node pos="l" depth="2" NCoef="0" IVar="-1" Cut="0.0000000000000000e+00" cType="1" res="-5.4710893891751766e-03" rms="4.1802394390106201e-01" purity="2.4869036674499512e-01" nType="-99"/>
          <Node pos="r" depth="2" NCoef="0" IVar="-1" Cut="0.0000000000000000e+00" cType="1" res="-1.6526943072676659e-03" rms="4.4083440303802490e-01" purity="3.3054289221763611e-01" nType="-99"/>
        </Node>
        <Node pos="r" depth="1" NCoef="0" IVar="1" Cut="9.7953498363494873e-01" cType="1" res="1.3993767788633704e-03" rms="4.5746871829032898e-01" purity="5.2490818500518799e-01" nType="0">
          <Node pos="l" depth="2" NCoef="0" IVar="-1" Cut="0.0000000000000000e+00" cType="1" res="-1.3899938494432718e-04" rms="4.6352213621139526e-01" purity="4.9977779388427734e-01" nType="-99"/>
          <Node pos="r" depth="2" NCoef="0" IVar="-1" Cut="0.0000000000000000e+00" cType="1" res="3.0238325707614422e-03" rms="3.7733039259910583e-01" purity="8.1840002536773682e-01" nType="-99"/>
        </Node>
      </Node>
    </BinaryTree>
    <BinaryTree type="DecisionTree" boostWeight="1.0000000000000000e+00" itree="247">
      <Node pos="s" depth="0" NCoef="0" IVar="0" Cut="1.6949561238288879e-01" cType="1" res="5.9768441133201122e-03" rms="4.5356234908103943e-01" purity="5.0269675254821777e-01" nType="0">
        <Node pos="l" depth="1" NCoef="0" IVar="1" Cut="8.6847418546676636e-01" cType="1" res="-3.0180452391505241e-02" rms="4.2935094237327576e-01" purity="2.8987982869148254e-01" nType="0">
          <Node pos="l" depth="2" NCoef="0" IVar="-1" Cut="0.0000000000000000e+00" cType="1" res="-5.0840307958424091e-03" rms="4.1423043608665466e-01" purity="2.4535021185874939e-01" nType="-99"/>
          <Node pos="r" depth="2" NCoef="0" IVar="-1" Cut="0.0000000000000000e+00" cType="1" res="-2.8195593040436506e-04" rms="4.4445455074310303e-01" purity="3.4064614772796631e-01" nType="-99"/>
        </Node>
        <Node pos="r" depth="1" NCoef="0" IVar="2" Cut="2.2159768676757812e+02" cType="1" res="1.1262988671660423e-02" rms="4.5675480365753174e-01" purity="5.3381031751632690e-01" nType="0">
          <Node pos="l" depth="2" NCoef="0" IVar="-1" Cut="0.0000000000000000e+00" cType="1" res="-1.8688654527068138e-03" rms="4.3319359421730042e-01" purity="3.0092501640319824e-01" nType="-99"/>
          <Node pos="r" depth="2" NCoef="0" IVar="-1" Cut="0.0000000000000000e+00" cType="1" res="1.0558415669947863e-03" rms="4.6008825302124023e-01" purity="5.6989574432373047e-01" nType="-99"/>
        </Node>
      </Node>
    </BinaryTree>
    <BinaryTree type="DecisionTree" boostWeight="1.0000000000000000e+00" itree="248">
      <Node pos="s" depth="0" NCoef="0" IVar="3" Cut="9.0802691876888275e-02" cType="1" res="1.6815676644910127e-04" rms="4.5460379123687744e-01" purity="4.9625182151794434e-01" nType="0">
        <Node pos="l" depth="1" NCoef="0" IVar="7" Cut="4.6910050511360168e-01" cType="1" res="-1.0617514140903950e-02" rms="4.5015856623649597e-01" purity="4.7480604052543640e-01" nType="0">
          <Node pos="l" depth="2" NCoef="0" IVar="-1" Cut="0.0000000000000000e+00" cType="1" res="-8.9742839336395264e-03" rms="4.0322345495223999e-01" purity="2.4002292752265930e-01" nType="-99"/>
          <Node pos="r" depth="2" NCoef="0" IVar="-1" Cut="0.0000000000000000e+00" cType="1" res="-1.7047399887815118e-04" rms="4.5333141088485718e-01" purity="4.9627873301506042e-01" nType="-99"/>
        </Node>
        <Node pos="r" depth="1" NCoef="0" IVar="5" Cut="1.2622743379324675e-03" cType="1" res="2.3361537605524063e-02" rms="4.6316862106323242e-01" purity="5.4236859083175659e-01" nType="0">
          <Node pos="l" depth="2" NCoef="0" IVar="-1" Cut="0.0000000000000000e+00" cType="1" res="4.7740893205627799e-04" rms="4.4798201322555542e-01" purity="6.0994333028793335e-01" nType="-99"/>
          <Node pos="r" depth="2" NCoef="0" IVar="-1" Cut="0.0000000000000000e+00" cType="1" res="2.5741392746567726e-03" rms="4.7720038890838623e-01" purity="4.7539618611335754e-01" nType="-99"/>
        </Node>
      </Node>
    </BinaryTree>
    <BinaryTree type="DecisionTree" boostWeight="1.0000000000000000e+00" itree="249">
      <Node pos="s" depth="0" NCoef="0" IVar="2" Cut="5.6503894042968750e+02" cType="1" res="-1.2560192262753844e-03" rms="4.5422428846359253e-01" purity="4.9701258540153503e-01" nType="0">
        <Node pos="l" depth="1" NCoef="0" IVar="3" Cut="-9.7996190190315247e-02" cType="1" res="-5.0792386755347252e-03" rms="4.5609515905380249e-01" purity="4.8037311434745789e-01" nType="0">
          <Node pos="l" depth="2" NCoef="0" IVar="-1" Cut="0.0000000000000000e+00" cType="1" res="-2.7820421382784843e-03" rms="4.4574204087257385e-01" purity="4.0480011701583862e-01" nType="-99"/>
          <Node pos="r" depth="2" NCoef="0" IVar="-1" Cut="0.0000000000000000e+00" cType="1" res="3.6029308830620721e-05" rms="4.5768636465072632e-01" purity="4.9382299184799194e-01" nType="-99"/>
        </Node>
        <Node pos="r" depth="1" NCoef="0" IVar="-1" Cut="0.0000000000000000e+00" cType="1" res="3.3007846213877201e-03" rms="4.2377302050590515e-01" purity="7.2858107089996338e-01" nType="-99"/>
      </Node>
    </BinaryTree>
    <BinaryTree type="DecisionTree" boostWeight="1.0000000000000000e+00" itree="250">
      <Node pos="s" depth="0" NCoef="0" IVar="4" Cut="1.2959522008895874e-01" cType="1" res="4.6809529885649681e-03" rms="4.5140677690505981e-01" purity="5.0389027595520020e-01" nType="0">
        <Node pos="l" depth="1" NCoef="0" IVar="-1" Cut="0.0000000000000000e+00" cType="1" res="-4.3170941062271595e-03" rms="4.4560244679450989e-01" purity="3.9278846979141235e-01" nType="-99"/>
        <Node pos="r" depth="1" NCoef="0" IVar="0" Cut="2.6390745639801025e+00" cType="1" res="8.7979277595877647e-03" rms="4.5147752761840820e-01" purity="5.1115006208419800e-01" nType="0">
          <Node pos="l" depth="2" NCoef="0" IVar="-1" Cut="0.0000000000000000e+00" cType="1" res="-9.0716421254910529e-05" rms="4.5886215567588806e-01" purity="4.3183019757270813e-01" nType="-99"/>
          <Node pos="r" depth="2" NCoef="0" IVar="-1" Cut="0.0000000000000000e+00" cType="1" res="2.1286457777023315e-03" rms="4.3167418241500854e-01" purity="7.0724374055862427e-01" nType="-99"/>
        </Node>
      </Node>
    </BinaryTree>
    <BinaryTree type="DecisionTree" boostWeight="1.0000000000000000e+00" itree="251">
      <Node pos="s" depth="0" NCoef="0" IVar="3" Cut="-2.4377841036766768e-03" cType="1" res="1.0013098828494549e-02" rms="4.5553556084632874e-01" purity="5.0610655546188354e-01" nType="0">
        <Node pos="l" depth="1" NCoef="0" IVar="2" Cut="3.8267462158203125e+02" cType="1" res="-4.0286332368850708e-03" rms="4.5150968432426453e-01" purity="4.7171875834465027e-01" nType="0">
          <Node pos="l" depth="2" NCoef="0" IVar="-1" Cut="0.0000000000000000e+00" cType="1" res="-1.5320490347221494e-03" rms="4.4694077968597412e-01" purity="4.0094703435897827e-01" nType="-99"/>
          <Node pos="r" depth="2" NCoef="0" IVar="-1" Cut="0.0000000000000000e+00" cType="1" res="2.0600904244929552e-03" rms="4.5974856615066528e-01" purity="6.3503384590148926e-01" nType="-99"/>
        </Node>
        <Node pos="r" depth="1" NCoef="0" IVar="1" Cut="8.6382794380187988e-01" cType="1" res="2.2163208574056625e-02" rms="4.5864379405975342e-01" purity="5.3586184978485107e-01" nType="0">
          <Node pos="l" depth="2" NCoef="0" IVar="-1" Cut="0.0000000000000000e+00" cType="1" res="-7.6608377275988460e-04" rms="4.6315941214561462e-01" purity="3.7369748950004578e-01" nType="-99"/>
          <Node pos="r" depth="2" NCoef="0" IVar="-1" Cut="0.0000000000000000e+00" cType="1" res="1.8673974554985762e-03" rms="4.5752814412117004e-01" purity="5.6632810831069946e-01" nType="-99"/>
        </Node>
      </Node>
    </BinaryTree>
    <BinaryTree type="DecisionTree" boostWeight="1.0000000000000000e+00" itree="252">
      <Node pos="s" depth="0" NCoef="0" IVar="0" Cut="4.5823121070861816e+00" cType="1" res="-1.2319388042669743e-04" rms="4.5360252261161804e-01" purity="4.9792903661727905e-01" nType="0">
        <Node pos="l" depth="1" NCoef="0" IVar="3" Cut="1.6561688482761383e-01" cType="1" res="-4.0297857485711575e-03" rms="4.5873847603797913e-01" purity="4.7425630688667297e-01" nType="0">
          <Node pos="l" depth="2" NCoef="0" IVar="-1" Cut="0.0000000000000000e+00" cType="1" res="-7.1596016641706228e-04" rms="4.5619472861289978e-01" purity="4.6091347932815552e-01" nType="-99"/>
          <Node pos="r" depth="2" NCoef="0" IVar="-1" Cut="0.0000000000000000e+00" cType="1" res="1.6159332590177655e-03" rms="4.6959072351455688e-01" purity="5.3790891170501709e-01" nType="-99"/>
        </Node>
        <Node pos="r" depth="1" NCoef="0" IVar="-1" Cut="0.0000000000000000e+00" cType="1" res="3.6514506209641695e-03" rms="3.7422636151313782e-01" purity="8.1503266096115112e-01" nType="-99"/>
      </Node>
    </BinaryTree>
    <BinaryTree type="DecisionTree" boostWeight="1.0000000000000000e+00" itree="253">
      <Node pos="s" depth="0" NCoef="0" IVar="1" Cut="9.4085609912872314e-01" cType="1" res="1.2099760351702571e-03" rms="4.5123651623725891e-01" purity="4.9997419118881226e-01" nType="0">
        <Node pos="l" depth="1" NCoef="0" IVar="0" Cut="3.8238010406494141e+00" cType="1" res="-8.4699057042598724e-03" rms="4.5920550823211670e-01" purity="4.2723548412322998e-01" nType="0">
          <Node pos="l" depth="2" NCoef="0" IVar="-1" Cut="0.0000000000000000e+00" cType="1" res="-8.8958156993612647e-04" rms="4.6056544780731201e-01" purity="4.0292260050773621e-01" nType="-99"/>
          <Node pos="r" depth="2" NCoef="0" IVar="-1" Cut="0.0000000000000000e+00" cType="1" res="2.1806652657687664e-03" rms="4.4141823053359985e-01" purity="6.9663441181182861e-01" nType="-99"/>
        </Node>
        <Node pos="r" depth="1" NCoef="0" IVar="0" Cut="1.9098209142684937e+00" cType="1" res="3.0741291120648384e-02" rms="4.2464339733123779e-01" purity="7.2188478708267212e-01" nType="0">
          <Node pos="l" depth="2" NCoef="0" IVar="-1" Cut="0.0000000000000000e+00" cType="1" res="4.2630196548998356e-03" rms="4.5741659402847290e-01" purity="6.4346009492874146e-01" nType="-99"/>
          <Node pos="r" depth="2" NCoef="0" IVar="-1" Cut="0.0000000000000000e+00" cType="1" res="1.2282460229471326e-03" rms="4.1196385025978088e-01" purity="7.4894267320632935e-01" nType="-99"/>
        </Node>
      </Node>
    </BinaryTree>
    <BinaryTree type="DecisionTree" boostWeight="1.0000000000000000e+00" itree="254">
      <Node pos="s" depth="0" NCoef="0" IVar="1" Cut="9.7167354822158813e-01" cType="1" res="-5.9844332281500101e-04" rms="4.5460364222526550e-01" purity="4.9831330776214600e-01" nType="0">
        <Node pos="l" depth="1" NCoef="0" IVar="5" Cut="5.1626557251438498e-04" cType="1" res="-5.0530307926237583e-03" rms="4.6147820353507996e-01" purity="4.6408253908157349e-01" nType="0">
          <Node pos="l" depth="2" NCoef="0" IVar="-1" Cut="0.0000000000000000e+00" cType="1" res="-2.4918520357459784e-03" rms="4.5613563060760498e-01" purity="5.5024939775466919e-01" nType="-99"/>
          <Node pos="r" depth="2" NCoef="0" IVar="-1" Cut="0.0000000000000000e+00" cType="1" res="2.3275175772141665e-04" rms="4.6255818009376526e-01" purity="4.4072577357292175e-01" nType="-99"/>
        </Node>
        <Node pos="r" depth="1" NCoef="0" IVar="-1" Cut="0.0000000000000000e+00" cType="1" res="2.8317410033196211e-03" rms="3.8515117764472961e-01" purity="8.0566257238388062e-01" nType="-99"/>
      </Node>
    </BinaryTree>
    <BinaryTree type="DecisionTree" boostWeight="1.0000000000000000e+00" itree="255">
      <Node pos="s" depth="0" NCoef="0" IVar="0" Cut="-4.5060213655233383e-02" cType="1" res="4.3826121836900711e-03" rms="4.5366671681404114e-01" purity="5.0181019306182861e-01" nType="0">
        <Node pos="l" depth="1" NCoef="0" IVar="-1" Cut="0.0000000000000000e+00" cType="1" res="-4.2293155565857887e-03" rms="4.2532068490982056e-01" purity="2.7657130360603333e-01" nType="-99"/>
        <Node pos="r" depth="1" NCoef="0" IVar="4" Cut="6.7872762680053711e-01" cType="1" res="9.1538978740572929e-03" rms="4.5590347051620483e-01" purity="5.2263367176055908e-01" nType="0">
          <Node pos="l" depth="2" NCoef="0" IVar="-1" Cut="0.0000000000000000e+00" cType="1" res="3.6712209112010896e-04" rms="4.5744624733924866e-01" purity="5.1740485429763794e-01" nType="-99"/>
          <Node pos="r" depth="2" NCoef="0" IVar="-1" Cut="0.0000000000000000e+00" cType="1" res="3.4621590748429298e-03" rms="4.3529033660888672e-01" purity="5.8315664529800415e-01" nType="-99"/>
        </Node>
      </Node>
    </BinaryTree>
    <BinaryTree type="DecisionTree" boostWeight="1.0000000000000000e+00" itree="256">
      <Node pos="s" depth="0" NCoef="0" IVar="6" Cut="1.4701555967330933e+00" cType="1" res="-2.7197811286896467e-03" rms="4.5308205485343933e-01" purity="4.9608555436134338e-01" nType="0">
        <Node pos="l" depth="1" NCoef="0" IVar="1" Cut="8.6373686790466309e-01" cType="1" res="4.9951970577239990e-03" rms="4.5788460969924927e-01" purity="5.2645683288574219e-01" nType="0">
          <Node pos="l" depth="2" NCoef="0" IVar="-1" Cut="0.0000000000000000e+00" cType="1" res="-1.9559341017156839e-03" rms="4.6068167686462402e-01" purity="3.7228244543075562e-01" nType="-99"/>
          <Node pos="r" depth="2" NCoef="0" IVar="-1" Cut="0.0000000000000000e+00" cType="1" res="7.2438141796737909e-04" rms="4.5713117718696594e-01" purity="5.5469399690628052e-01" nType="-99"/>
        </Node>
        <Node pos="r" depth="1" NCoef="0" IVar="4" Cut="4.8062723875045776e-01" cType="1" res="-2.4014296010136604e-02" rms="4.3885076045989990e-01" purity="4.1225612163543701e-01" nType="0">
          <Node pos="l" depth="2" NCoef="0" IVar="-1" Cut="0.0000000000000000e+00" cType="1" res="-3.3631986007094383e-03" rms="4.3264946341514587e-01" purity="3.7526658177375793e-01" nType="-99"/>
          <Node pos="r" depth="2" NCoef="0" IVar="-1" Cut="0.0000000000000000e+00" cType="1" res="8.1698084250092506e-04" rms="4.4781517982482910e-01" purity="4.8003390431404114e-01" nType="-99"/>
        </Node>
      </Node>
    </BinaryTree>
    <BinaryTree type="DecisionTree" boostWeight="1.0000000000000000e+00" itree="257">
      <Node pos="s" depth="0" NCoef="0" IVar="3" Cut="1.2404673546552658e-01" cType="1" res="3.8783997297286987e-03" rms="4.5263415575027466e-01" purity="5.0095552206039429e-01" nType="0">
        <Node pos="l" depth="1" NCoef="0" IVar="4" Cut="1.5175059437751770e-01" cType="1" res="-3.8715859409421682e-03" rms="4.4991195201873779e-01" purity="4.8497909307479858e-01" nType="0">
          <Node pos="l" depth="2" NCoef="0" IVar="-1" Cut="0.0000000000000000e+00" cType="1" res="-5.7482221163809299e-03" rms="4.3677076697349548e-01" purity="3.5623368620872498e-01" nType="-99"/>
          <Node pos="r" depth="2" NCoef="0" IVar="-1" Cut="0.0000000000000000e+00" cType="1" res="1.4786787505727261e-04" rms="4.5048394799232483e-01" purity="4.9577188491821289e-01" nType="-99"/>
        </Node>
        <Node pos="r" depth="1" NCoef="0" IVar="6" Cut="1.1168692111968994e+00" cType="1" res="2.7891758829355240e-02" rms="4.6013879776000977e-01" purity="5.5045855045318604e-01" nType="0">
          <Node pos="l" depth="2" NCoef="0" IVar="-1" Cut="0.0000000000000000e+00" cType="1" res="3.1717936508357525e-03" rms="4.5439496636390686e-01" purity="6.1233389377593994e-01" nType="-99"/>
          <Node pos="r" depth="2" NCoef="0" IVar="-1" Cut="0.0000000000000000e+00" cType="1" res="6.4546690555289388e-04" rms="4.6403351426124573e-01" purity="4.9930003285408020e-01" nType="-99"/>
        </Node>
      </Node>
    </BinaryTree>
    <BinaryTree type="DecisionTree" boostWeight="1.0000000000000000e+00" itree="258">
      <Node pos="s" depth="0" NCoef="0" IVar="3" Cut="9.1763064265251160e-02" cType="1" res="4.0993504226207733e-03" rms="4.5269197225570679e-01" purity="5.0207024812698364e-01" nType="0">
        <Node pos="l" depth="1" NCoef="0" IVar="7" Cut="8.3473455905914307e-01" cType="1" res="-4.9394862726330757e-03" rms="4.4888550043106079e-01" purity="4.8274996876716614e-01" nType="0">
          <Node pos="l" depth="2" NCoef="0" IVar="-1" Cut="0.0000000000000000e+00" cType="1" res="-1.0665059089660645e-03" rms="4.4921869039535522e-01" purity="4.5450529456138611e-01" nType="-99"/>
          <Node pos="r" depth="2" NCoef="0" IVar="-1" Cut="0.0000000000000000e+00" cType="1" res="1.9397354917600751e-03" rms="4.4599217176437378e-01" purity="5.8286815881729126e-01" nType="-99"/>
        </Node>
        <Node pos="r" depth="1" NCoef="0" IVar="1" Cut="8.8684958219528198e-01" cType="1" res="2.3693194612860680e-02" rms="4.6022632718086243e-01" purity="5.4395180940628052e-01" nType="0">
          <Node pos="l" depth="2" NCoef="0" IVar="-1" Cut="0.0000000000000000e+00" cType="1" res="-4.2130731162615120e-04" rms="4.6752080321311951e-01" purity="4.0925908088684082e-01" nType="-99"/>
          <Node pos="r" depth="2" NCoef="0" IVar="-1" Cut="0.0000000000000000e+00" cType="1" res="2.7177578303962946e-03" rms="4.5464697480201721e-01" purity="6.2769681215286255e-01" nType="-99"/>
        </Node>
      </Node>
    </BinaryTree>
    <BinaryTree type="DecisionTree" boostWeight="1.0000000000000000e+00" itree="259">
      <Node pos="s" depth="0" NCoef="0" IVar="0" Cut="4.3496432304382324e+00" cType="1" res="-9.5461029559373856e-04" rms="4.5188778638839722e-01" purity="4.9682086706161499e-01" nType="0">
        <Node pos="l" depth="1" NCoef="0" IVar="4" Cut="5.8976876735687256e-01" cType="1" res="-4.7869235277175903e-03" rms="4.5760929584503174e-01" purity="4.6995845437049866e-01" nType="0">
          <Node pos="l" depth="2" NCoef="0" IVar="-1" Cut="0.0000000000000000e+00" cType="1" res="-7.5452809687703848e-04" rms="4.5843088626861572e-01" purity="4.6023902297019958e-01" nType="-99"/>
          <Node pos="r" depth="2" NCoef="0" IVar="-1" Cut="0.0000000000000000e+00" cType="1" res="1.5264463145285845e-03" rms="4.5285525918006897e-01" purity="5.1424580812454224e-01" nType="-99"/>
        </Node>
        <Node pos="r" depth="1" NCoef="0" IVar="-1" Cut="0.0000000000000000e+00" cType="1" res="2.9209402855485678e-03" rms="3.7926498055458069e-01" purity="7.9803097248077393e-01" nType="-99"/>
      </Node>
    </BinaryTree>
    <BinaryTree type="DecisionTree" boostWeight="1.0000000000000000e+00" itree="260">
      <Node pos="s" depth="0" NCoef="0" IVar="6" Cut="1.2207254171371460e+00" cType="1" res="7.5860315700992942e-04" rms="4.5241805911064148e-01" purity="4.9877774715423584e-01" nType="0">
        <Node pos="l" depth="1" NCoef="0" IVar="2" Cut="2.8186553955078125e+02" cType="1" res="1.6407046467065811e-02" rms="4.5876389741897583e-01" purity="5.4974156618118286e-01" nType="0">
          <Node pos="l" depth="2" NCoef="0" IVar="-1" Cut="0.0000000000000000e+00" cType="1" res="2.6440985966473818e-03" rms="4.6017977595329285e-01" purity="4.4509622454643250e-01" nType="-99"/>
          <Node pos="r" depth="2" NCoef="0" IVar="-1" Cut="0.0000000000000000e+00" cType="1" res="4.2818367364816368e-04" rms="4.5775851607322693e-01" purity="6.0030668973922729e-01" nType="-99"/>
        </Node>
        <Node pos="r" depth="1" NCoef="0" IVar="0" Cut="1.4764845371246338e-01" cType="1" res="-1.8699621781706810e-02" rms="4.4363161921501160e-01" purity="4.3540620803833008e-01" nType="0">
          <Node pos="l" depth="2" NCoef="0" IVar="-1" Cut="0.0000000000000000e+00" cType="1" res="-8.6585124954581261e-03" rms="3.8179636001586914e-01" purity="1.9638578593730927e-01" nType="-99"/>
          <Node pos="r" depth="2" NCoef="0" IVar="-1" Cut="0.0000000000000000e+00" cType="1" res="-6.9527362938970327e-04" rms="4.5086142420768738e-01" purity="4.6866598725318909e-01" nType="-99"/>
        </Node>
      </Node>
    </BinaryTree>
    <BinaryTree type="DecisionTree" boostWeight="1.0000000000000000e+00" itree="261">
      <Node pos="s" depth="0" NCoef="0" IVar="3" Cut="9.0161515399813652e-03" cType="1" res="4.8601427115499973e-03" rms="4.5392176508903503e-01" purity="5.0397014617919922e-01" nType="0">
        <Node pos="l" depth="1" NCoef="0" IVar="7" Cut="6.5582466125488281e-01" cType="1" res="-1.0919323191046715e-02" rms="4.4835698604583740e-01" purity="4.6835708618164062e-01" nType="0">
          <Node pos="l" depth="2" NCoef="0" IVar="-1" Cut="0.0000000000000000e+00" cType="1" res="-3.6677047610282898e-03" rms="4.3247592449188232e-01" purity="3.2889860868453979e-01" nType="-99"/>
          <Node pos="r" depth="2" NCoef="0" IVar="-1" Cut="0.0000000000000000e+00" cType="1" res="3.3519623684696853e-04" rms="4.5475122332572937e-01" purity="5.3378844261169434e-01" nType="-99"/>
        </Node>
        <Node pos="r" depth="1" NCoef="0" IVar="1" Cut="8.9842045307159424e-01" cType="1" res="1.9928971305489540e-02" rms="4.5866650342941284e-01" purity="5.3797936439514160e-01" nType="0">
          <Node pos="l" depth="2" NCoef="0" IVar="-1" Cut="0.0000000000000000e+00" cType="1" res="4.6016147825866938e-04" rms="4.6744215488433838e-01" purity="4.2248767614364624e-01" nType="-99"/>
          <Node pos="r" depth="2" NCoef="0" IVar="-1" Cut="0.0000000000000000e+00" cType="1" res="2.0769350230693817e-03" rms="4.5041468739509583e-01" purity="6.4041316509246826e-01" nType="-99"/>
        </Node>
      </Node>
    </BinaryTree>
    <BinaryTree type="DecisionTree" boostWeight="1.0000000000000000e+00" itree="262">
      <Node pos="s" depth="0" NCoef="0" IVar="4" Cut="1.2959522008895874e-01" cType="1" res="-1.6794825205579400e-03" rms="4.5204585790634155e-01" purity="4.9465519189834595e-01" nType="0">
        <Node pos="l" depth="1" NCoef="0" IVar="-1" Cut="0.0000000000000000e+00" cType="1" res="-4.3859346769750118e-03" rms="4.3971851468086243e-01" purity="3.8978803157806396e-01" nType="-99"/>
        <Node pos="r" depth="1" NCoef="0" IVar="6" Cut="1.1150269508361816e+00" cType="1" res="2.1912609227001667e-03" rms="4.5261102914810181e-01" purity="5.0177925825119019e-01" nType="0">
          <Node pos="l" depth="2" NCoef="0" IVar="-1" Cut="0.0000000000000000e+00" cType="1" res="1.1212128447368741e-03" rms="4.5616587996482849e-01" purity="5.6219959259033203e-01" nType="-99"/>
          <Node pos="r" depth="2" NCoef="0" IVar="-1" Cut="0.0000000000000000e+00" cType="1" res="-7.5684790499508381e-04" rms="4.4914177060127258e-01" purity="4.4965615868568420e-01" nType="-99"/>
        </Node>
      </Node>
    </BinaryTree>
    <BinaryTree type="DecisionTree" boostWeight="1.0000000000000000e+00" itree="263">
      <Node pos="s" depth="0" NCoef="0" IVar="2" Cut="4.1760906982421875e+02" cType="1" res="8.2984222099184990e-03" rms="4.5428082346916199e-01" purity="5.0669556856155396e-01" nType="0">
        <Node pos="l" depth="1" NCoef="0" IVar="3" Cut="-9.9160298705101013e-02" cType="1" res="1.1116031091660261e-03" rms="4.5607826113700867e-01" purity="4.6209272742271423e-01" nType="0">
          <Node pos="l" depth="2" NCoef="0" IVar="-1" Cut="0.0000000000000000e+00" cType="1" res="-2.6791393756866455e-03" rms="4.4445037841796875e-01" purity="3.7238377332687378e-01" nType="-99"/>
          <Node pos="r" depth="2" NCoef="0" IVar="-1" Cut="0.0000000000000000e+00" cType="1" res="4.7203854774124920e-04" rms="4.5764324069023132e-01" purity="4.7633853554725647e-01" nType="-99"/>
        </Node>
        <Node pos="r" depth="1" NCoef="0" IVar="6" Cut="1.0489450693130493e+00" cType="1" res="3.5708475857973099e-02" rms="4.4629818201065063e-01" purity="6.7680764198303223e-01" nType="0">
          <Node pos="l" depth="2" NCoef="0" IVar="-1" Cut="0.0000000000000000e+00" cType="1" res="1.1210645316168666e-03" rms="4.4835704565048218e-01" purity="6.6909897327423096e-01" nType="-99"/>
          <Node pos="r" depth="2" NCoef="0" IVar="-1" Cut="0.0000000000000000e+00" cType="1" res="3.8796991575509310e-03" rms="4.4165843725204468e-01" purity="6.8861860036849976e-01" nType="-99"/>
        </Node>
      </Node>
    </BinaryTree>
    <BinaryTree type="DecisionTree" boostWeight="1.0000000000000000e+00" itree="264">
      <Node pos="s" depth="0" NCoef="0" IVar="7" Cut="5.5324876308441162e-01" cType="1" res="1.5274197794497013e-03" rms="4.5270496606826782e-01" purity="4.9963158369064331e-01" nType="0">
        <Node pos="l" depth="1" NCoef="0" IVar="3" Cut="7.6799318194389343e-02" cType="1" res="-1.9982954487204552e-02" rms="4.5193108916282654e-01" purity="4.2867234349250793e-01" nType="0">
          <Node pos="l" depth="2" NCoef="0" IVar="-1" Cut="0.0000000000000000e+00" cType="1" res="-4.4483253732323647e-03" rms="4.2754730582237244e-01" purity="3.0433067679405212e-01" nType="-99"/>
          <Node pos="r" depth="2" NCoef="0" IVar="-1" Cut="0.0000000000000000e+00" cType="1" res="-6.3554878579452634e-05" rms="4.6449345350265503e-01" purity="5.0113558769226074e-01" nType="-99"/>
        </Node>
        <Node pos="r" depth="1" NCoef="0" IVar="2" Cut="5.1132650756835938e+02" cType="1" res="1.1571093462407589e-02" rms="4.5271596312522888e-01" purity="5.3276407718658447e-01" nType="0">
          <Node pos="l" depth="2" NCoef="0" IVar="-1" Cut="0.0000000000000000e+00" cType="1" res="4.2686334927566350e-04" rms="4.5447826385498047e-01" purity="5.0900679826736450e-01" nType="-99"/>
          <Node pos="r" depth="2" NCoef="0" IVar="-1" Cut="0.0000000000000000e+00" cType="1" res="3.5529518499970436e-03" rms="4.3518468737602234e-01" purity="7.3108309507369995e-01" nType="-99"/>
        </Node>
      </Node>
    </BinaryTree>
    <BinaryTree type="DecisionTree" boostWeight="1.0000000000000000e+00" itree="265">
      <Node pos="s" depth="0" NCoef="0" IVar="2" Cut="2.2310343933105469e+02" cType="1" res="-1.9954540766775608e-03" rms="4.5296338200569153e-01" purity="4.9480959773063660e-01" nType="0">
        <Node pos="l" depth="1" NCoef="0" IVar="6" Cut="1.4913759231567383e+00" cType="1" res="-3.5533089190721512e-02" rms="4.1191241145133972e-01" purity="2.6881074905395508e-01" nType="0">
          <Node pos="l" depth="2" NCoef="0" IVar="-1" Cut="0.0000000000000000e+00" cType="1" res="-7.5146264862269163e-04" rms="4.3075308203697205e-01" purity="3.1493291258811951e-01" nType="-99"/>
          <Node pos="r" depth="2" NCoef="0" IVar="-1" Cut="0.0000000000000000e+00" cType="1" res="-8.2577597349882126e-03" rms="3.7644648551940918e-01" purity="1.9607642292976379e-01" nType="-99"/>
        </Node>
        <Node pos="r" depth="1" NCoef="0" IVar="4" Cut="6.2971180677413940e-01" cType="1" res="3.7769316695630550e-03" rms="4.5941236615180969e-01" purity="5.3370773792266846e-01" nType="0">
          <Node pos="l" depth="2" NCoef="0" IVar="-1" Cut="0.0000000000000000e+00" cType="1" res="-2.4667519028298557e-04" rms="4.6044084429740906e-01" purity="5.2159041166305542e-01" nType="-99"/>
          <Node pos="r" depth="2" NCoef="0" IVar="-1" Cut="0.0000000000000000e+00" cType="1" res="3.5018722992390394e-03" rms="4.4887009263038635e-01" purity="6.1757898330688477e-01" nType="-99"/>
        </Node>
      </Node>
    </BinaryTree>
    <BinaryTree type="DecisionTree" boostWeight="1.0000000000000000e+00" itree="266">
      <Node pos="s" depth="0" NCoef="0" IVar="3" Cut="1.8376453220844269e-01" cType="1" res="2.3525503929704428e-03" rms="4.5162075757980347e-01" purity="5.0072896480560303e-01" nType="0">
        <Node pos="l" depth="1" NCoef="0" IVar="4" Cut="5.9004122018814087e-01" cType="1" res="-3.4842868335545063e-03" rms="4.5042383670806885e-01" purity="4.8940208554267883e-01" nType="0">
          <Node pos="l" depth="2" NCoef="0" IVar="-1" Cut="0.0000000000000000e+00" cType="1" res="-8.5106090409681201e-04" rms="4.5040851831436157e-01" purity="4.7455045580863953e-01" nType="-99"/>
          <Node pos="r" depth="2" NCoef="0" IVar="-1" Cut="0.0000000000000000e+00" cType="1" res="2.0490966271609068e-03" rms="4.4893261790275574e-01" purity="5.4781234264373779e-01" nType="-99"/>
        </Node>
        <Node pos="r" depth="1" NCoef="0" IVar="2" Cut="2.7168048095703125e+02" cType="1" res="3.8536470383405685e-02" rms="4.5731168985366821e-01" purity="5.7094663381576538e-01" nType="0">
          <Node pos="l" depth="2" NCoef="0" IVar="-1" Cut="0.0000000000000000e+00" cType="1" res="9.9806173238903284e-04" rms="4.7121685743331909e-01" purity="4.1687792539596558e-01" nType="-99"/>
          <Node pos="r" depth="2" NCoef="0" IVar="-1" Cut="0.0000000000000000e+00" cType="1" res="3.2960283569991589e-03" rms="4.4785287976264954e-01" purity="6.6594153642654419e-01" nType="-99"/>
        </Node>
      </Node>
    </BinaryTree>
    <BinaryTree type="DecisionTree" boostWeight="1.0000000000000000e+00" itree="267">
      <Node pos="s" depth="0" NCoef="0" IVar="5" Cut="1.4194821706041694e-03" cType="1" res="4.0799905546009541e-03" rms="4.5269477367401123e-01" purity="5.0126230716705322e-01" nType="0">
        <Node pos="l" depth="1" NCoef="0" IVar="6" Cut="9.1346567869186401e-01" cType="1" res="-9.5633752644062042e-03" rms="4.4437468051910400e-01" purity="5.6679958105087280e-01" nType="0">
          <Node pos="l" depth="2" NCoef="0" IVar="-1" Cut="0.0000000000000000e+00" cType="1" res="1.3408565428107977e-03" rms="4.3696516752243042e-01" purity="6.4776897430419922e-01" nType="-99"/>
          <Node pos="r" depth="2" NCoef="0" IVar="-1" Cut="0.0000000000000000e+00" cType="1" res="-1.6043357318267226e-03" rms="4.4702520966529846e-01" purity="5.3053420782089233e-01" nType="-99"/>
        </Node>
        <Node pos="r" depth="1" NCoef="0" IVar="3" Cut="1.4765825867652893e-01" cType="1" res="2.0171787589788437e-02" rms="4.6179783344268799e-01" purity="4.2396378517150879e-01" nType="0">
          <Node pos="l" depth="2" NCoef="0" IVar="-1" Cut="0.0000000000000000e+00" cType="1" res="8.4451434668153524e-04" rms="4.5658156275749207e-01" purity="4.0518185496330261e-01" nType="-99"/>
          <Node pos="r" depth="2" NCoef="0" IVar="-1" Cut="0.0000000000000000e+00" cType="1" res="3.4232721664011478e-03" rms="4.8039942979812622e-01" purity="4.9815389513969421e-01" nType="-99"/>
        </Node>
      </Node>
    </BinaryTree>
    <BinaryTree type="DecisionTree" boostWeight="1.0000000000000000e+00" itree="268">
      <Node pos="s" depth="0" NCoef="0" IVar="0" Cut="3.8268107455223799e-03" cType="1" res="-2.6047730352729559e-03" rms="4.5270320773124695e-01" purity="4.9475485086441040e-01" nType="0">
        <Node pos="l" depth="1" NCoef="0" IVar="-1" Cut="0.0000000000000000e+00" cType="1" res="-4.4236774556338787e-03" rms="4.1773867607116699e-01" purity="2.6895931363105774e-01" nType="-99"/>
        <Node pos="r" depth="1" NCoef="0" IVar="2" Cut="4.1685095214843750e+02" cType="1" res="2.1453846711665392e-03" rms="4.5587396621704102e-01" purity="5.1792687177658081e-01" nType="0">
          <Node pos="l" depth="2" NCoef="0" IVar="-1" Cut="0.0000000000000000e+00" cType="1" res="-3.2323828781954944e-04" rms="4.5966055989265442e-01" purity="4.7284528613090515e-01" nType="-99"/>
          <Node pos="r" depth="2" NCoef="0" IVar="-1" Cut="0.0000000000000000e+00" cType="1" res="1.7499912064522505e-03" rms="4.4059672951698303e-01" purity="6.8546932935714722e-01" nType="-99"/>
        </Node>
      </Node>
    </BinaryTree>
    <BinaryTree type="DecisionTree" boostWeight="1.0000000000000000e+00" itree="269">
      <Node pos="s" depth="0" NCoef="0" IVar="4" Cut="6.6383272409439087e-01" cType="1" res="-1.3102161465212703e-03" rms="4.5120817422866821e-01" purity="4.9678492546081543e-01" nType="0">
        <Node pos="l" depth="1" NCoef="0" IVar="2" Cut="4.9914306640625000e+02" cType="1" res="-6.4587299712002277e-03" rms="4.5210421085357666e-01" purity="4.8934647440910339e-01" nType="0">
          <Node pos="l" depth="2" NCoef="0" IVar="-1" Cut="0.0000000000000000e+00" cType="1" res="-8.8878191309049726e-04" rms="4.5407879352569580e-01" purity="4.6129253506660461e-01" nType="-99"/>
          <Node pos="r" depth="2" NCoef="0" IVar="-1" Cut="0.0000000000000000e+00" cType="1" res="2.4508123751729727e-03" rms="4.3447935581207275e-01" purity="6.9865745306015015e-01" nType="-99"/>
        </Node>
        <Node pos="r" depth="1" NCoef="0" IVar="-1" Cut="0.0000000000000000e+00" cType="1" res="3.0333064496517181e-03" rms="4.4038790464401245e-01" purity="5.6360059976577759e-01" nType="-99"/>
      </Node>
    </BinaryTree>
    <BinaryTree type="DecisionTree" boostWeight="1.0000000000000000e+00" itree="270">
      <Node pos="s" depth="0" NCoef="0" IVar="2" Cut="2.1995570373535156e+02" cType="1" res="-1.7255740240216255e-03" rms="4.5272597670555115e-01" purity="4.9904075264930725e-01" nType="0">
        <Node pos="l" depth="1" NCoef="0" IVar="4" Cut="4.2919197678565979e-01" cType="1" res="-4.1050024330615997e-02" rms="4.0628913044929504e-01" purity="2.6310744881629944e-01" nType="0">
          <Node pos="l" depth="2" NCoef="0" IVar="-1" Cut="0.0000000000000000e+00" cType="1" res="-1.5397974057123065e-03" rms="4.0199771523475647e-01" purity="2.7066931128501892e-01" nType="-99"/>
          <Node pos="r" depth="2" NCoef="0" IVar="-1" Cut="0.0000000000000000e+00" cType="1" res="-5.7320445775985718e-03" rms="4.0874916315078735e-01" purity="2.5655767321586609e-01" nType="-99"/>
        </Node>
        <Node pos="r" depth="1" NCoef="0" IVar="7" Cut="8.0976653099060059e-01" cType="1" res="4.0238602086901665e-03" rms="4.5883959531784058e-01" purity="5.3353542089462280e-01" nType="0">
          <Node pos="l" depth="2" NCoef="0" IVar="-1" Cut="0.0000000000000000e+00" cType="1" res="-2.6701588649302721e-04" rms="4.6154537796974182e-01" purity="5.1405227184295654e-01" nType="-99"/>
          <Node pos="r" depth="2" NCoef="0" IVar="-1" Cut="0.0000000000000000e+00" cType="1" res="2.2504918742924929e-03" rms="4.4667804241180420e-01" purity="6.1011648178100586e-01" nType="-99"/>
        </Node>
      </Node>
    </BinaryTree>
    <BinaryTree type="DecisionTree" boostWeight="1.0000000000000000e+00" itree="271">
      <Node pos="s" depth="0" NCoef="0" IVar="6" Cut="7.5722402334213257e-01" cType="1" res="-6.1670364812016487e-03" rms="4.5297539234161377e-01" purity="4.8956382274627686e-01" nType="0">
        <Node pos="l" depth="1" NCoef="0" IVar="5" Cut="8.9897081488743424e-04" cType="1" res="2.3288806900382042e-02" rms="4.5112088322639465e-01" purity="5.8831614255905151e-01" nType="0">
          <Node pos="l" depth="2" NCoef="0" IVar="-1" Cut="0.0000000000000000e+00" cType="1" res="-5.9750044556494686e-07" rms="4.2734795808792114e-01" purity="6.7172408103942871e-01" nType="-99"/>
          <Node pos="r" depth="2" NCoef="0" IVar="-1" Cut="0.0000000000000000e+00" cType="1" res="2.5769076310098171e-03" rms="4.6697977185249329e-01" purity="5.2742689847946167e-01" nType="-99"/>
        </Node>
        <Node pos="r" depth="1" NCoef="0" IVar="3" Cut="2.7073509991168976e-02" cType="1" res="-1.2251021340489388e-02" rms="4.5311895012855530e-01" purity="4.6916687488555908e-01" nType="0">
          <Node pos="l" depth="2" NCoef="0" IVar="-1" Cut="0.0000000000000000e+00" cType="1" res="-1.7924045678228140e-03" rms="4.4847184419631958e-01" purity="4.3722379207611084e-01" nType="-99"/>
          <Node pos="r" depth="2" NCoef="0" IVar="-1" Cut="0.0000000000000000e+00" cType="1" res="1.2928375508636236e-04" rms="4.5811718702316284e-01" purity="5.0670897960662842e-01" nType="-99"/>
        </Node>
      </Node>
    </BinaryTree>
    <BinaryTree type="DecisionTree" boostWeight="1.0000000000000000e+00" itree="272">
      <Node pos="s" depth="0" NCoef="0" IVar="0" Cut="4.1114082336425781e+00" cType="1" res="5.9693428920581937e-04" rms="4.5145699381828308e-01" purity="4.9992686510086060e-01" nType="0">
        <Node pos="l" depth="1" NCoef="0" IVar="5" Cut="3.3390272874385118e-03" cType="1" res="-4.2105042375624180e-03" rms="4.5705026388168335e-01" purity="4.6788203716278076e-01" nType="0">
          <Node pos="l" depth="2" NCoef="0" IVar="-1" Cut="0.0000000000000000e+00" cType="1" res="-6.0717650922015309e-04" rms="4.5562648773193359e-01" purity="4.7524249553680420e-01" nType="-99"/>
          <Node pos="r" depth="2" NCoef="0" IVar="-1" Cut="0.0000000000000000e+00" cType="1" res="2.5539326015859842e-03" rms="4.6762764453887939e-01" purity="4.0241408348083496e-01" nType="-99"/>
        </Node>
        <Node pos="r" depth="1" NCoef="0" IVar="-1" Cut="0.0000000000000000e+00" cType="1" res="2.9118936508893967e-03" rms="3.9641726016998291e-01" purity="7.8166627883911133e-01" nType="-99"/>
      </Node>
    </BinaryTree>
    <BinaryTree type="DecisionTree" boostWeight="1.0000000000000000e+00" itree="273">
      <Node pos="s" depth="0" NCoef="0" IVar="1" Cut="9.7567778825759888e-01" cType="1" res="9.2063797637820244e-04" rms="4.5410320162773132e-01" purity="4.9923557043075562e-01" nType="0">
        <Node pos="l" depth="1" NCoef="0" IVar="5" Cut="1.5485716285184026e-03" cType="1" res="-3.0485989991575480e-03" rms="4.6040886640548706e-01" purity="4.6981716156005859e-01" nType="0">
          <Node pos="l" depth="2" NCoef="0" IVar="-1" Cut="0.0000000000000000e+00" cType="1" res="-1.1309380643069744e-03" rms="4.5792928338050842e-01" purity="5.1620262861251831e-01" nType="-99"/>
          <Node pos="r" depth="2" NCoef="0" IVar="-1" Cut="0.0000000000000000e+00" cType="1" res="9.0008653933182359e-04" rms="4.6280238032341003e-01" purity="4.1540291905403137e-01" nType="-99"/>
        </Node>
        <Node pos="r" depth="1" NCoef="0" IVar="-1" Cut="0.0000000000000000e+00" cType="1" res="3.2567414455115795e-03" rms="3.7526690959930420e-01" purity="8.2222479581832886e-01" nType="-99"/>
      </Node>
    </BinaryTree>
    <BinaryTree type="DecisionTree" boostWeight="1.0000000000000000e+00" itree="274">
      <Node pos="s" depth="0" NCoef="0" IVar="7" Cut="8.0963927507400513e-01" cType="1" res="2.5012337137013674e-03" rms="4.5219054818153381e-01" purity="5.0091063976287842e-01" nType="0">
        <Node pos="l" depth="1" NCoef="0" IVar="3" Cut="1.0023941844701767e-01" cType="1" res="-3.3446811139583588e-03" rms="4.5521062612533569e-01" purity="4.8064979910850525e-01" nType="0">
          <Node pos="l" depth="2" NCoef="0" IVar="-1" Cut="0.0000000000000000e+00" cType="1" res="-1.0368413059040904e-03" rms="4.5067974925041199e-01" purity="4.4939416646957397e-01" nType="-99"/>
          <Node pos="r" depth="2" NCoef="0" IVar="-1" Cut="0.0000000000000000e+00" cType="1" res="1.0835218708962202e-03" rms="4.6266037225723267e-01" purity="5.3728997707366943e-01" nType="-99"/>
        </Node>
        <Node pos="r" depth="1" NCoef="0" IVar="0" Cut="1.3741914033889771e+00" cType="1" res="2.5691643357276917e-02" rms="4.3924006819725037e-01" purity="5.8128452301025391e-01" nType="0">
          <Node pos="l" depth="2" NCoef="0" IVar="-1" Cut="0.0000000000000000e+00" cType="1" res="-6.9137808168306947e-04" rms="4.5687425136566162e-01" purity="4.2013695836067200e-01" nType="-99"/>
          <Node pos="r" depth="2" NCoef="0" IVar="-1" Cut="0.0000000000000000e+00" cType="1" res="3.3235177397727966e-03" rms="4.2284598946571350e-01" purity="7.0767939090728760e-01" nType="-99"/>
        </Node>
      </Node>
    </BinaryTree>
    <BinaryTree type="DecisionTree" boostWeight="1.0000000000000000e+00" itree="275">
      <Node pos="s" depth="0" NCoef="0" IVar="1" Cut="9.3710935115814209e-01" cType="1" res="9.2413695529103279e-04" rms="4.5122775435447693e-01" purity="4.9872758984565735e-01" nType="0">
        <Node pos="l" depth="1" NCoef="0" IVar="5" Cut="5.1707780221477151e-04" cType="1" res="-7.5401840731501579e-03" rms="4.5936200022697449e-01" purity="4.2432701587677002e-01" nType="0">
          <Node pos="l" depth="2" NCoef="0" IVar="-1" Cut="0.0000000000000000e+00" cType="1" res="-5.3031179122626781e-03" rms="4.4131669402122498e-01" purity="3.7234732508659363e-01" nType="-99"/>
          <Node pos="r" depth="2" NCoef="0" IVar="-1" Cut="0.0000000000000000e+00" cType="1" res="-1.4794243907090276e-04" rms="4.6047681570053101e-01" purity="4.2880341410636902e-01" nType="-99"/>
        </Node>
        <Node pos="r" depth="1" NCoef="0" IVar="0" Cut="2.0447952747344971e+00" cType="1" res="2.5048863142728806e-02" rms="4.2627358436584473e-01" purity="7.1078169345855713e-01" nType="0">
          <Node pos="l" depth="2" NCoef="0" IVar="-1" Cut="0.0000000000000000e+00" cType="1" res="3.4671216271817684e-03" rms="4.5540580153465271e-01" purity="6.3281846046447754e-01" nType="-99"/>
          <Node pos="r" depth="2" NCoef="0" IVar="-1" Cut="0.0000000000000000e+00" cType="1" res="9.3586446018889546e-04" rms="4.1355037689208984e-01" purity="7.4180936813354492e-01" nType="-99"/>
        </Node>
      </Node>
    </BinaryTree>
    <BinaryTree type="DecisionTree" boostWeight="1.0000000000000000e+00" itree="276">
      <Node pos="s" depth="0" NCoef="0" IVar="6" Cut="9.2192435264587402e-01" cType="1" res="2.2068957332521677e-03" rms="4.5260629057884216e-01" purity="5.0076878070831299e-01" nType="0">
        <Node pos="l" depth="1" NCoef="0" IVar="5" Cut="1.4126868918538094e-03" cType="1" res="1.9592650234699249e-02" rms="4.5614406466484070e-01" purity="5.7371824979782104e-01" nType="0">
          <Node pos="l" depth="2" NCoef="0" IVar="-1" Cut="0.0000000000000000e+00" cType="1" res="3.1110280542634428e-04" rms="4.4223544001579285e-01" purity="6.3054472208023071e-01" nType="-99"/>
          <Node pos="r" depth="2" NCoef="0" IVar="-1" Cut="0.0000000000000000e+00" cType="1" res="2.4816589429974556e-03" rms="4.7230449318885803e-01" purity="5.0257903337478638e-01" nType="-99"/>
        </Node>
        <Node pos="r" depth="1" NCoef="0" IVar="1" Cut="9.3690174818038940e-01" cType="1" res="-5.2452096715569496e-03" rms="4.5087617635726929e-01" purity="4.6950015425682068e-01" nType="0">
          <Node pos="l" depth="2" NCoef="0" IVar="-1" Cut="0.0000000000000000e+00" cType="1" res="-1.0615222854539752e-03" rms="4.5584154129028320e-01" purity="3.9301270246505737e-01" nType="-99"/>
          <Node pos="r" depth="2" NCoef="0" IVar="-1" Cut="0.0000000000000000e+00" cType="1" res="1.3968949206173420e-03" rms="4.3542656302452087e-01" purity="6.8614739179611206e-01" nType="-99"/>
        </Node>
      </Node>
    </BinaryTree>
    <BinaryTree type="DecisionTree" boostWeight="1.0000000000000000e+00" itree="277">
      <Node pos="s" depth="0" NCoef="0" IVar="2" Cut="5.8345550537109375e+02" cType="1" res="5.8796238154172897e-03" rms="4.5469400286674500e-01" purity="5.0362086296081543e-01" nType="0">
        <Node pos="l" depth="1" NCoef="0" IVar="3" Cut="1.9196382164955139e-01" cType="1" res="2.1168692037463188e-03" rms="4.5639860630035400e-01" purity="4.8823624849319458e-01" nType="0">
          <Node pos="l" depth="2" NCoef="0" IVar="-1" Cut="0.0000000000000000e+00" cType="1" res="-2.6034429902210832e-04" rms="4.5460468530654907e-01" purity="4.7509053349494934e-01" nType="-99"/>
          <Node pos="r" depth="2" NCoef="0" IVar="-1" Cut="0.0000000000000000e+00" cType="1" res="2.5746203027665615e-03" rms="4.6620967984199524e-01" purity="5.7442080974578857e-01" nType="-99"/>
        </Node>
        <Node pos="r" depth="1" NCoef="0" IVar="-1" Cut="0.0000000000000000e+00" cType="1" res="4.0392633527517319e-03" rms="4.2328953742980957e-01" purity="7.4115669727325439e-01" nType="-99"/>
      </Node>
    </BinaryTree>
    <BinaryTree type="DecisionTree" boostWeight="1.0000000000000000e+00" itree="278">
      <Node pos="s" depth="0" NCoef="0" IVar="2" Cut="2.6338488769531250e+02" cType="1" res="2.0578657276928425e-03" rms="4.4946324825286865e-01" purity="5.0192648172378540e-01" nType="0">
        <Node pos="l" depth="1" NCoef="0" IVar="6" Cut="1.5081496238708496e+00" cType="1" res="-1.8327286466956139e-02" rms="4.3574479222297668e-01" purity="3.3130431175231934e-01" nType="0">
          <Node pos="l" depth="2" NCoef="0" IVar="-1" Cut="0.0000000000000000e+00" cType="1" res="-1.1504282156238332e-04" rms="4.4816318154335022e-01" purity="3.6883777379989624e-01" nType="-99"/>
          <Node pos="r" depth="2" NCoef="0" IVar="-1" Cut="0.0000000000000000e+00" cType="1" res="-4.3801655992865562e-03" rms="4.1172796487808228e-01" purity="2.6631349325180054e-01" nType="-99"/>
        </Node>
        <Node pos="r" depth="1" NCoef="0" IVar="1" Cut="8.7530952692031860e-01" cType="1" res="1.1483524926006794e-02" rms="4.5535832643508911e-01" purity="5.8081853389739990e-01" nType="0">
          <Node pos="l" depth="2" NCoef="0" IVar="-1" Cut="0.0000000000000000e+00" cType="1" res="-9.0344727504998446e-04" rms="4.6896171569824219e-01" purity="4.3828094005584717e-01" nType="-99"/>
          <Node pos="r" depth="2" NCoef="0" IVar="-1" Cut="0.0000000000000000e+00" cType="1" res="1.3380540767684579e-03" rms="4.4997218251228333e-01" purity="6.3252496719360352e-01" nType="-99"/>
        </Node>
      </Node>
    </BinaryTree>
    <BinaryTree type="DecisionTree" boostWeight="1.0000000000000000e+00" itree="279">
      <Node pos="s" depth="0" NCoef="0" IVar="7" Cut="8.3166116476058960e-01" cType="1" res="2.5217764778062701e-04" rms="4.5341315865516663e-01" purity="4.9981561303138733e-01" nType="0">
        <Node pos="l" depth="1" NCoef="0" IVar="3" Cut="-6.1692255549132824e-03" cType="1" res="-4.9807797186076641e-03" rms="4.5592716336250305e-01" purity="4.8323783278465271e-01" nType="0">
          <Node pos="l" depth="2" NCoef="0" IVar="-1" Cut="0.0000000000000000e+00" cType="1" res="-2.0454269833862782e-03" rms="4.4868406653404236e-01" purity="4.1736549139022827e-01" nType="-99"/>
          <Node pos="r" depth="2" NCoef="0" IVar="-1" Cut="0.0000000000000000e+00" cType="1" res="5.9553270693868399e-04" rms="4.5982825756072998e-01" purity="5.2412360906600952e-01" nType="-99"/>
        </Node>
        <Node pos="r" depth="1" NCoef="0" IVar="2" Cut="2.9418579101562500e+02" cType="1" res="2.7846515178680420e-02" rms="4.3888786435127258e-01" purity="5.8723300695419312e-01" nType="0">
          <Node pos="l" depth="2" NCoef="0" IVar="-1" Cut="0.0000000000000000e+00" cType="1" res="-2.3264454212039709e-03" rms="4.3701890110969543e-01" purity="3.9767244458198547e-01" nType="-99"/>
          <Node pos="r" depth="2" NCoef="0" IVar="-1" Cut="0.0000000000000000e+00" cType="1" res="3.5620201379060745e-03" rms="4.3683096766471863e-01" purity="6.8328595161437988e-01" nType="-99"/>
        </Node>
      </Node>
    </BinaryTree>
    <BinaryTree type="DecisionTree" boostWeight="1.0000000000000000e+00" itree="280">
      <Node pos="s" depth="0" NCoef="0" IVar="3" Cut="1.7970907688140869e-01" cType="1" res="1.5443268930539489e-03" rms="4.5134127140045166e-01" purity="4.9967047572135925e-01" nType="0">
        <Node pos="l" depth="1" NCoef="0" IVar="7" Cut="6.9525027275085449e-01" cType="1" res="-5.3247758187353611e-03" rms="4.4920870661735535e-01" purity="4.8666232824325562e-01" nType="0">
          <Node pos="l" depth="2" NCoef="0" IVar="-1" Cut="0.0000000000000000e+00" cType="1" res="-1.6508194385096431e-03" rms="4.4610863924026489e-01" purity="4.2402982711791992e-01" nType="-99"/>
          <Node pos="r" depth="2" NCoef="0" IVar="-1" Cut="0.0000000000000000e+00" cType="1" res="8.5226394003257155e-04" rms="4.5179781317710876e-01" purity="5.5348467826843262e-01" nType="-99"/>
        </Node>
        <Node pos="r" depth="1" NCoef="0" IVar="5" Cut="1.6775878611952066e-03" cType="1" res="4.0832292288541794e-02" rms="4.6138894557952881e-01" purity="5.7407099008560181e-01" nType="0">
          <Node pos="l" depth="2" NCoef="0" IVar="-1" Cut="0.0000000000000000e+00" cType="1" res="6.7014497471973300e-04" rms="4.4900923967361450e-01" purity="6.0229611396789551e-01" nType="-99"/>
          <Node pos="r" depth="2" NCoef="0" IVar="-1" Cut="0.0000000000000000e+00" cType="1" res="5.0890315324068069e-03" rms="4.7469881176948547e-01" purity="5.3507733345031738e-01" nType="-99"/>
        </Node>
      </Node>
    </BinaryTree>
    <BinaryTree type="DecisionTree" boostWeight="1.0000000000000000e+00" itree="281">
      <Node pos="s" depth="0" NCoef="0" IVar="1" Cut="8.7539941072463989e-01" cType="1" res="1.4793489826843143e-03" rms="4.5373067259788513e-01" purity="4.9791011214256287e-01" nType="0">
        <Node pos="l" depth="1" NCoef="0" IVar="5" Cut="2.4419873952865601e-03" cType="1" res="-2.4005055427551270e-02" rms="4.5127010345458984e-01" purity="3.5117244720458984e-01" nType="0">
          <Node pos="l" depth="2" NCoef="0" IVar="-1" Cut="0.0000000000000000e+00" cType="1" res="-5.0451881252229214e-03" rms="4.3750050663948059e-01" purity="2.9064378142356873e-01" nType="-99"/>
          <Node pos="r" depth="2" NCoef="0" IVar="-1" Cut="0.0000000000000000e+00" cType="1" res="-6.1651633586734533e-04" rms="4.5590245723724365e-01" purity="3.7608757615089417e-01" nType="-99"/>
        </Node>
        <Node pos="r" depth="1" NCoef="0" IVar="5" Cut="2.3258172441273928e-03" cType="1" res="1.1378012597560883e-02" rms="4.5429751276969910e-01" purity="5.5490601062774658e-01" nType="0">
          <Node pos="l" depth="2" NCoef="0" IVar="-1" Cut="0.0000000000000000e+00" cType="1" res="4.8092263750731945e-04" rms="4.5225346088409424e-01" purity="5.6280922889709473e-01" nType="-99"/>
          <Node pos="r" depth="2" NCoef="0" IVar="-1" Cut="0.0000000000000000e+00" cType="1" res="3.9325207471847534e-03" rms="4.7397202253341675e-01" purity="4.6626299619674683e-01" nType="-99"/>
        </Node>
      </Node>
    </BinaryTree>
    <BinaryTree type="DecisionTree" boostWeight="1.0000000000000000e+00" itree="282">
      <Node pos="s" depth="0" NCoef="0" IVar="2" Cut="5.6065679931640625e+02" cType="1" res="4.7040935605764389e-03" rms="4.5119598507881165e-01" purity="5.0299543142318726e-01" nType="0">
        <Node pos="l" depth="1" NCoef="0" IVar="4" Cut="4.1537612676620483e-01" cType="1" res="9.1009680181741714e-04" rms="4.5318114757537842e-01" purity="4.8566958308219910e-01" nType="0">
          <Node pos="l" depth="2" NCoef="0" IVar="-1" Cut="0.0000000000000000e+00" cType="1" res="-7.7885290374979377e-04" rms="4.5479267835617065e-01" purity="4.5352798700332642e-01" nType="-99"/>
          <Node pos="r" depth="2" NCoef="0" IVar="-1" Cut="0.0000000000000000e+00" cType="1" res="9.9871784914284945e-04" rms="4.5093613862991333e-01" purity="5.2263814210891724e-01" nType="-99"/>
        </Node>
        <Node pos="r" depth="1" NCoef="0" IVar="-1" Cut="0.0000000000000000e+00" cType="1" res="3.6131418310105801e-03" rms="4.2000228166580200e-01" purity="7.3784875869750977e-01" nType="-99"/>
      </Node>
    </BinaryTree>
    <BinaryTree type="DecisionTree" boostWeight="1.0000000000000000e+00" itree="283">
      <Node pos="s" depth="0" NCoef="0" IVar="0" Cut="1.5293844044208527e-01" cType="1" res="7.3103625327348709e-03" rms="4.5317700505256653e-01" purity="5.0745701789855957e-01" nType="0">
        <Node pos="l" depth="1" NCoef="0" IVar="3" Cut="-1.2356768362224102e-02" cType="1" res="-2.9915824532508850e-02" rms="4.3302556872367859e-01" purity="2.8690558671951294e-01" nType="0">
          <Node pos="l" depth="2" NCoef="0" IVar="-1" Cut="0.0000000000000000e+00" cType="1" res="-1.0923941154032946e-03" rms="4.3032121658325195e-01" purity="2.8406599164009094e-01" nType="-99"/>
          <Node pos="r" depth="2" NCoef="0" IVar="-1" Cut="0.0000000000000000e+00" cType="1" res="-3.9714905433356762e-03" rms="4.3470907211303711e-01" purity="2.8932318091392517e-01" nType="-99"/>
        </Node>
        <Node pos="r" depth="1" NCoef="0" IVar="3" Cut="-6.1234399676322937e-02" cType="1" res="1.2493514455854893e-02" rms="4.5567101240158081e-01" purity="5.3816521167755127e-01" nType="0">
          <Node pos="l" depth="2" NCoef="0" IVar="-1" Cut="0.0000000000000000e+00" cType="1" res="-7.0353597402572632e-04" rms="4.5124417543411255e-01" purity="4.9347153306007385e-01" nType="-99"/>
          <Node pos="r" depth="2" NCoef="0" IVar="-1" Cut="0.0000000000000000e+00" cType="1" res="1.4126887544989586e-03" rms="4.5710667967796326e-01" purity="5.5587905645370483e-01" nType="-99"/>
        </Node>
      </Node>
    </BinaryTree>
    <BinaryTree type="DecisionTree" boostWeight="1.0000000000000000e+00" itree="284">
      <Node pos="s" depth="0" NCoef="0" IVar="1" Cut="8.6764198541641235e-01" cType="1" res="-3.9244825020432472e-03" rms="4.5233169198036194e-01" purity="4.9205309152603149e-01" nType="0">
        <Node pos="l" depth="1" NCoef="0" IVar="5" Cut="3.5980062093585730e-03" cType="1" res="-3.4748360514640808e-02" rms="4.4605153799057007e-01" purity="3.3474817872047424e-01" nType="0">
          <Node pos="l" depth="2" NCoef="0" IVar="-1" Cut="0.0000000000000000e+00" cType="1" res="-4.3179811909794807e-03" rms="4.4108155369758606e-01" purity="3.0993437767028809e-01" nType="-99"/>
          <Node pos="r" depth="2" NCoef="0" IVar="-1" Cut="0.0000000000000000e+00" cType="1" res="5.1424559205770493e-04" rms="4.5404484868049622e-01" purity="3.8961103558540344e-01" nType="-99"/>
        </Node>
        <Node pos="r" depth="1" NCoef="0" IVar="1" Cut="9.7833257913589478e-01" cType="1" res="4.1152029298245907e-03" rms="4.5361116528511047e-01" purity="5.3308236598968506e-01" nType="0">
          <Node pos="l" depth="2" NCoef="0" IVar="-1" Cut="0.0000000000000000e+00" cType="1" res="-1.5779658497194760e-05" rms="4.6116590499877930e-01" purity="5.0406903028488159e-01" nType="-99"/>
          <Node pos="r" depth="2" NCoef="0" IVar="-1" Cut="0.0000000000000000e+00" cType="1" res="3.6029096227139235e-03" rms="3.6378806829452515e-01" purity="8.3207947015762329e-01" nType="-99"/>
        </Node>
      </Node>
    </BinaryTree>
    <BinaryTree type="DecisionTree" boostWeight="1.0000000000000000e+00" itree="285">
      <Node pos="s" depth="0" NCoef="0" IVar="5" Cut="1.5393738867715001e-03" cType="1" res="1.3703296426683664e-03" rms="4.5367500185966492e-01" purity="4.9916583299636841e-01" nType="0">
        <Node pos="l" depth="1" NCoef="0" IVar="1" Cut="9.1010940074920654e-01" cType="1" res="-8.2555860280990601e-03" rms="4.4726672768592834e-01" purity="5.6085681915283203e-01" nType="0">
          <Node pos="l" depth="2" NCoef="0" IVar="-1" Cut="0.0000000000000000e+00" cType="1" res="-4.3539511971175671e-03" rms="4.4066211581230164e-01" purity="3.4585350751876831e-01" nType="-99"/>
          <Node pos="r" depth="2" NCoef="0" IVar="-1" Cut="0.0000000000000000e+00" cType="1" res="4.5026146108284593e-04" rms="4.4824531674385071e-01" purity="6.2740856409072876e-01" nType="-99"/>
        </Node>
        <Node pos="r" depth="1" NCoef="0" IVar="1" Cut="8.6549115180969238e-01" cType="1" res="1.4097995124757290e-02" rms="4.6170377731323242e-01" purity="4.1759631037712097e-01" nType="0">
          <Node pos="l" depth="2" NCoef="0" IVar="-1" Cut="0.0000000000000000e+00" cType="1" res="-7.4059591861441731e-04" rms="4.5821946859359741e-01" purity="3.6580374836921692e-01" nType="-99"/>
          <Node pos="r" depth="2" NCoef="0" IVar="-1" Cut="0.0000000000000000e+00" cType="1" res="1.8896167166531086e-03" rms="4.6311864256858826e-01" purity="4.4693848490715027e-01" nType="-99"/>
        </Node>
      </Node>
    </BinaryTree>
    <BinaryTree type="DecisionTree" boostWeight="1.0000000000000000e+00" itree="286">
      <Node pos="s" depth="0" NCoef="0" IVar="0" Cut="4.3995895385742188e+00" cType="1" res="6.4565530046820641e-03" rms="4.5102331042289734e-01" purity="5.0764137506484985e-01" nType="0">
        <Node pos="l" depth="1" NCoef="0" IVar="1" Cut="8.7539941072463989e-01" cType="1" res="1.9375887932255864e-03" rms="4.5706236362457275e-01" purity="4.7976875305175781e-01" nType="0">
          <Node pos="l" depth="2" NCoef="0" IVar="-1" Cut="0.0000000000000000e+00" cType="1" res="-1.4941721456125379e-03" rms="4.5021083950996399e-01" purity="3.5724434256553650e-01" nType="-99"/>
          <Node pos="r" depth="2" NCoef="0" IVar="-1" Cut="0.0000000000000000e+00" cType="1" res="7.4432214023545384e-04" rms="4.5957446098327637e-01" purity="5.3067439794540405e-01" nType="-99"/>
        </Node>
        <Node pos="r" depth="1" NCoef="0" IVar="-1" Cut="0.0000000000000000e+00" cType="1" res="4.0180175565183163e-03" rms="3.7298801541328430e-01" purity="8.2024079561233521e-01" nType="-99"/>
      </Node>
    </BinaryTree>
    <BinaryTree type="DecisionTree" boostWeight="1.0000000000000000e+00" itree="287">
      <Node pos="s" depth="0" NCoef="0" IVar="2" Cut="5.6033111572265625e+02" cType="1" res="-9.1339339269325137e-04" rms="4.5159313082695007e-01" purity="4.9728283286094666e-01" nType="0">
        <Node pos="l" depth="1" NCoef="0" IVar="2" Cut="2.5211268615722656e+02" cType="1" res="-5.3187245503067970e-03" rms="4.5335531234741211e-01" purity="4.7924500703811646e-01" nType="0">
          <Node pos="l" depth="2" NCoef="0" IVar="-1" Cut="0.0000000000000000e+00" cType="1" res="-2.6060957461595535e-03" rms="4.2859241366386414e-01" purity="3.0790564417839050e-01" nType="-99"/>
          <Node pos="r" depth="2" NCoef="0" IVar="-1" Cut="0.0000000000000000e+00" cType="1" res="3.0386613798327744e-04" rms="4.6253758668899536e-01" purity="5.4793089628219604e-01" nType="-99"/>
        </Node>
        <Node pos="r" depth="1" NCoef="0" IVar="-1" Cut="0.0000000000000000e+00" cType="1" res="3.7533931899815798e-03" rms="4.2298349738121033e-01" purity="7.3820841312408447e-01" nType="-99"/>
      </Node>
    </BinaryTree>
    <BinaryTree type="DecisionTree" boostWeight="1.0000000000000000e+00" itree="288">
      <Node pos="s" depth="0" NCoef="0" IVar="3" Cut="1.9124445319175720e-01" cType="1" res="4.1975332424044609e-03" rms="4.5202243328094482e-01" purity="5.0289613008499146e-01" nType="0">
        <Node pos="l" depth="1" NCoef="0" IVar="7" Cut="8.3296906948089600e-01" cType="1" res="-1.0518691269680858e-03" rms="4.5043793320655823e-01" purity="4.9232441186904907e-01" nType="0">
          <Node pos="l" depth="2" NCoef="0" IVar="-1" Cut="0.0000000000000000e+00" cType="1" res="-4.8306214739568532e-04" rms="4.5200735330581665e-01" purity="4.7216263413429260e-01" nType="-99"/>
          <Node pos="r" depth="2" NCoef="0" IVar="-1" Cut="0.0000000000000000e+00" cType="1" res="1.6236958326771855e-03" rms="4.4248312711715698e-01" purity="5.8214515447616577e-01" nType="-99"/>
        </Node>
        <Node pos="r" depth="1" NCoef="0" IVar="0" Cut="1.8520910739898682e+00" cType="1" res="4.0725193917751312e-02" rms="4.6124655008316040e-01" purity="5.7645887136459351e-01" nType="0">
          <Node pos="l" depth="2" NCoef="0" IVar="-1" Cut="0.0000000000000000e+00" cType="1" res="4.1721640154719353e-03" rms="4.7438225150108337e-01" purity="5.0013786554336548e-01" nType="-99"/>
          <Node pos="r" depth="2" NCoef="0" IVar="-1" Cut="0.0000000000000000e+00" cType="1" res="8.9819502318277955e-04" rms="4.4377687573432922e-01" purity="6.6644561290740967e-01" nType="-99"/>
        </Node>
      </Node>
    </BinaryTree>
    <BinaryTree type="DecisionTree" boostWeight="1.0000000000000000e+00" itree="289">
      <Node pos="s" depth="0" NCoef="0" IVar="3" Cut="9.4495795667171478e-02" cType="1" res="3.9198846934596077e-05" rms="4.4982397556304932e-01" purity="5.0203496217727661e-01" nType="0">
        <Node pos="l" depth="1" NCoef="0" IVar="7" Cut="4.6300816535949707e-01" cType="1" res="-8.4460983052849770e-03" rms="4.4502806663513184e-01" purity="4.8272961378097534e-01" nType="0">
          <Node pos="l" depth="2" NCoef="0" IVar="-1" Cut="0.0000000000000000e+00" cType="1" res="-7.0803682319819927e-03" rms="4.0959140658378601e-01" purity="2.5497844815254211e-01" nType="-99"/>
          <Node pos="r" depth="2" NCoef="0" IVar="-1" Cut="0.0000000000000000e+00" cType="1" res="-2.0273511472623795e-04" rms="4.4733232259750366e-01" purity="5.0128847360610962e-01" nType="-99"/>
        </Node>
        <Node pos="r" depth="1" NCoef="0" IVar="1" Cut="8.9069229364395142e-01" cType="1" res="1.9388837739825249e-02" rms="4.5998862385749817e-01" purity="5.4605841636657715e-01" nType="0">
          <Node pos="l" depth="2" NCoef="0" IVar="-1" Cut="0.0000000000000000e+00" cType="1" res="-1.2483994942158461e-04" rms="4.6830633282661438e-01" purity="4.1668295860290527e-01" nType="-99"/>
          <Node pos="r" depth="2" NCoef="0" IVar="-1" Cut="0.0000000000000000e+00" cType="1" res="2.2690489422529936e-03" rms="4.5309430360794067e-01" purity="6.4183151721954346e-01" nType="-99"/>
        </Node>
      </Node>
    </BinaryTree>
    <BinaryTree type="DecisionTree" boostWeight="1.0000000000000000e+00" itree="290">
      <Node pos="s" depth="0" NCoef="0" IVar="7" Cut="8.9080661535263062e-01" cType="1" res="1.1739667970687151e-03" rms="4.5219150185585022e-01" purity="4.9995946884155273e-01" nType="0">
        <Node pos="l" depth="1" NCoef="0" IVar="3" Cut="9.0161515399813652e-03" cType="1" res="-1.8455124227330089e-03" rms="4.5301276445388794e-01" purity="4.9188950657844543e-01" nType="0">
          <Node pos="l" depth="2" NCoef="0" IVar="-1" Cut="0.0000000000000000e+00" cType="1" res="-1.3092276640236378e-03" rms="4.4572937488555908e-01" purity="4.4801744818687439e-01" nType="-99"/>
          <Node pos="r" depth="2" NCoef="0" IVar="-1" Cut="0.0000000000000000e+00" cType="1" res="8.1000663340091705e-04" rms="4.5877191424369812e-01" purity="5.2981930971145630e-01" nType="-99"/>
        </Node>
        <Node pos="r" depth="1" NCoef="0" IVar="-1" Cut="0.0000000000000000e+00" cType="1" res="2.7655190788209438e-03" rms="4.3876129388809204e-01" purity="6.1007523536682129e-01" nType="-99"/>
      </Node>
    </BinaryTree>
    <BinaryTree type="DecisionTree" boostWeight="1.0000000000000000e+00" itree="291">
      <Node pos="s" depth="0" NCoef="0" IVar="4" Cut="2.4368751049041748e-01" cType="1" res="5.6600128300487995e-04" rms="4.5422965288162231e-01" purity="4.9813497066497803e-01" nType="0">
        <Node pos="l" depth="1" NCoef="0" IVar="5" Cut="5.0676619866862893e-04" cType="1" res="-2.8374992311000824e-02" rms="4.5372641086578369e-01" purity="4.3436351418495178e-01" nType="0">
          <Node pos="l" depth="2" NCoef="0" IVar="-1" Cut="0.0000000000000000e+00" cType="1" res="-4.2554317042231560e-03" rms="4.4705647230148315e-01" purity="5.4670202732086182e-01" nType="-99"/>
          <Node pos="r" depth="2" NCoef="0" IVar="-1" Cut="0.0000000000000000e+00" cType="1" res="-1.2860215501859784e-03" rms="4.5562687516212463e-01" purity="3.9381062984466553e-01" nType="-99"/>
        </Node>
        <Node pos="r" depth="1" NCoef="0" IVar="6" Cut="8.5725349187850952e-01" cType="1" res="9.5080249011516571e-03" rms="4.5401212573051453e-01" purity="5.1783871650695801e-01" nType="0">
          <Node pos="l" depth="2" NCoef="0" IVar="-1" Cut="0.0000000000000000e+00" cType="1" res="2.0614236127585173e-03" rms="4.5166385173797607e-01" purity="6.0128819942474365e-01" nType="-99"/>
          <Node pos="r" depth="2" NCoef="0" IVar="-1" Cut="0.0000000000000000e+00" cType="1" res="1.9856807193718851e-04" rms="4.5453369617462158e-01" purity="4.9187338352203369e-01" nType="-99"/>
        </Node>
      </Node>
    </BinaryTree>
    <BinaryTree type="DecisionTree" boostWeight="1.0000000000000000e+00" itree="292">
      <Node pos="s" depth="0" NCoef="0" IVar="4" Cut="1.2959522008895874e-01" cType="1" res="8.8860001415014267e-03" rms="4.5229536294937134e-01" purity="5.0777631998062134e-01" nType="0">
        <Node pos="l" depth="1" NCoef="0" IVar="-1" Cut="0.0000000000000000e+00" cType="1" res="-2.6034668553620577e-03" rms="4.5029264688491821e-01" purity="4.0942165255546570e-01" nType="-99"/>
        <Node pos="r" depth="1" NCoef="0" IVar="2" Cut="5.1318328857421875e+02" cType="1" res="1.2160770595073700e-02" rms="4.5226797461509705e-01" purity="5.1497924327850342e-01" nType="0">
          <Node pos="l" depth="2" NCoef="0" IVar="-1" Cut="0.0000000000000000e+00" cType="1" res="5.7448510779067874e-04" rms="4.5426589250564575e-01" purity="4.9317684769630432e-01" nType="-99"/>
          <Node pos="r" depth="2" NCoef="0" IVar="-1" Cut="0.0000000000000000e+00" cType="1" res="3.3604116179049015e-03" rms="4.2909103631973267e-01" purity="7.3904949426651001e-01" nType="-99"/>
        </Node>
      </Node>
    </BinaryTree>
    <BinaryTree type="DecisionTree" boostWeight="1.0000000000000000e+00" itree="293">
      <Node pos="s" depth="0" NCoef="0" IVar="5" Cut="1.5410924097523093e-03" cType="1" res="1.8569604726508260e-03" rms="4.5493260025978088e-01" purity="4.9935203790664673e-01" nType="0">
        <Node pos="l" depth="1" NCoef="0" IVar="1" Cut="9.1788089275360107e-01" cType="1" res="-7.3382491245865822e-03" rms="4.4912436604499817e-01" purity="5.6241065263748169e-01" nType="0">
          <Node pos="l" depth="2" NCoef="0" IVar="-1" Cut="0.0000000000000000e+00" cType="1" res="-2.3178618866950274e-03" rms="4.5834025740623474e-01" purity="3.9632886648178101e-01" nType="-99"/>
          <Node pos="r" depth="2" NCoef="0" IVar="-1" Cut="0.0000000000000000e+00" cType="1" res="3.1348865013569593e-04" rms="4.4397571682929993e-01" purity="6.4518284797668457e-01" nType="-99"/>
        </Node>
        <Node pos="r" depth="1" NCoef="0" IVar="6" Cut="1.2953276634216309e+00" cType="1" res="1.4277762733399868e-02" rms="4.6237227320671082e-01" purity="4.1417306661605835e-01" nType="0">
          <Node pos="l" depth="2" NCoef="0" IVar="-1" Cut="0.0000000000000000e+00" cType="1" res="1.7538990359753370e-03" rms="4.7301432490348816e-01" purity="4.6095740795135498e-01" nType="-99"/>
          <Node pos="r" depth="2" NCoef="0" IVar="-1" Cut="0.0000000000000000e+00" cType="1" res="-3.3537141280248761e-04" rms="4.4467419385910034e-01" purity="3.4137380123138428e-01" nType="-99"/>
        </Node>
      </Node>
    </BinaryTree>
    <BinaryTree type="DecisionTree" boostWeight="1.0000000000000000e+00" itree="294">
      <Node pos="s" depth="0" NCoef="0" IVar="4" Cut="4.1200122237205505e-01" cType="1" res="-1.8401221313979477e-04" rms="4.5158621668815613e-01" purity="4.9761572480201721e-01" nType="0">
        <Node pos="l" depth="1" NCoef="0" IVar="3" Cut="1.9347521662712097e-01" cType="1" res="-1.2082496657967567e-02" rms="4.5302087068557739e-01" purity="4.6871864795684814e-01" nType="0">
          <Node pos="l" depth="2" NCoef="0" IVar="-1" Cut="0.0000000000000000e+00" cType="1" res="-1.5109308296814561e-03" rms="4.5054706931114197e-01" purity="4.4728875160217285e-01" nType="-99"/>
          <Node pos="r" depth="2" NCoef="0" IVar="-1" Cut="0.0000000000000000e+00" cType="1" res="1.5173746505752206e-03" rms="4.6132922172546387e-01" purity="5.5635637044906616e-01" nType="-99"/>
        </Node>
        <Node pos="r" depth="1" NCoef="0" IVar="6" Cut="7.9775446653366089e-01" cType="1" res="1.4155123382806778e-02" rms="4.4943284988403320e-01" purity="5.3244018554687500e-01" nType="0">
          <Node pos="l" depth="2" NCoef="0" IVar="-1" Cut="0.0000000000000000e+00" cType="1" res="3.3369746524840593e-03" rms="4.3765807151794434e-01" purity="6.3319051265716553e-01" nType="-99"/>
          <Node pos="r" depth="2" NCoef="0" IVar="-1" Cut="0.0000000000000000e+00" cType="1" res="4.2877387022599578e-04" rms="4.5162141323089600e-01" purity="5.0999438762664795e-01" nType="-99"/>
        </Node>
      </Node>
    </BinaryTree>
    <BinaryTree type="DecisionTree" boostWeight="1.0000000000000000e+00" itree="295">
      <Node pos="s" depth="0" NCoef="0" IVar="1" Cut="9.7933822870254517e-01" cType="1" res="-1.5535925049334764e-03" rms="4.5143944025039673e-01" purity="4.9716806411743164e-01" nType="0">
        <Node pos="l" depth="1" NCoef="0" IVar="4" Cut="2.9136738181114197e-01" cType="1" res="-5.2731577306985855e-03" rms="4.5713391900062561e-01" purity="4.7207728028297424e-01" nType="0">
          <Node pos="l" depth="2" NCoef="0" IVar="-1" Cut="0.0000000000000000e+00" cType="1" res="-1.7016590572893620e-03" rms="4.5421549677848816e-01" purity="4.3166628479957581e-01" nType="-99"/>
          <Node pos="r" depth="2" NCoef="0" IVar="-1" Cut="0.0000000000000000e+00" cType="1" res="2.5603693211451173e-04" rms="4.5828402042388916e-01" purity="4.9180230498313904e-01" nType="-99"/>
        </Node>
        <Node pos="r" depth="1" NCoef="0" IVar="-1" Cut="0.0000000000000000e+00" cType="1" res="3.6365194246172905e-03" rms="3.6237385869026184e-01" purity="8.3556634187698364e-01" nType="-99"/>
      </Node>
    </BinaryTree>
    <BinaryTree type="DecisionTree" boostWeight="1.0000000000000000e+00" itree="296">
      <Node pos="s" depth="0" NCoef="0" IVar="0" Cut="3.9534065723419189e+00" cType="1" res="-9.1981678269803524e-04" rms="4.5131993293762207e-01" purity="4.9904847145080566e-01" nType="0">
        <Node pos="l" depth="1" NCoef="0" IVar="1" Cut="9.6796512603759766e-01" cType="1" res="-5.0866031087934971e-03" rms="4.5706751942634583e-01" purity="4.6338307857513428e-01" nType="0">
          <Node pos="l" depth="2" NCoef="0" IVar="-1" Cut="0.0000000000000000e+00" cType="1" res="-6.7706982372328639e-04" rms="4.6210294961929321e-01" purity="4.2996764183044434e-01" nType="-99"/>
          <Node pos="r" depth="2" NCoef="0" IVar="-1" Cut="0.0000000000000000e+00" cType="1" res="2.5553756859153509e-03" rms="4.0460133552551270e-01" purity="7.7577483654022217e-01" nType="-99"/>
        </Node>
        <Node pos="r" depth="1" NCoef="0" IVar="-1" Cut="0.0000000000000000e+00" cType="1" res="2.0544042345136404e-03" rms="4.0462327003479004e-01" purity="7.6462668180465698e-01" nType="-99"/>
      </Node>
    </BinaryTree>
    <BinaryTree type="DecisionTree" boostWeight="1.0000000000000000e+00" itree="297">
      <Node pos="s" depth="0" NCoef="0" IVar="5" Cut="1.2904385803267360e-03" cType="1" res="4.2678760364651680e-03" rms="4.5510169863700867e-01" purity="5.0155007839202881e-01" nType="0">
        <Node pos="l" depth="1" NCoef="0" IVar="1" Cut="9.0233594179153442e-01" cType="1" res="-9.4426330178976059e-03" rms="4.4729256629943848e-01" purity="5.7247316837310791e-01" nType="0">
          <Node pos="l" depth="2" NCoef="0" IVar="-1" Cut="0.0000000000000000e+00" cType="1" res="-4.7848490066826344e-03" rms="4.3661504983901978e-01" purity="3.0078601837158203e-01" nType="-99"/>
          <Node pos="r" depth="2" NCoef="0" IVar="-1" Cut="0.0000000000000000e+00" cType="1" res="-1.2290506856516004e-04" rms="4.4846528768539429e-01" purity="6.1510503292083740e-01" nType="-99"/>
        </Node>
        <Node pos="r" depth="1" NCoef="0" IVar="1" Cut="8.9789688587188721e-01" cType="1" res="1.8434440717101097e-02" rms="4.6260562539100647e-01" purity="4.2826777696609497e-01" nType="0">
          <Node pos="l" depth="2" NCoef="0" IVar="-1" Cut="0.0000000000000000e+00" cType="1" res="6.8638182710856199e-04" rms="4.5982336997985840e-01" purity="4.0672370791435242e-01" nType="-99"/>
          <Node pos="r" depth="2" NCoef="0" IVar="-1" Cut="0.0000000000000000e+00" cType="1" res="3.9234855212271214e-03" rms="4.7369638085365295e-01" purity="5.3467756509780884e-01" nType="-99"/>
        </Node>
      </Node>
    </BinaryTree>
    <BinaryTree type="DecisionTree" boostWeight="1.0000000000000000e+00" itree="298">
      <Node pos="s" depth="0" NCoef="0" IVar="4" Cut="5.9239953756332397e-01" cType="1" res="4.0092426352202892e-03" rms="4.5234355330467224e-01" purity="5.0547194480895996e-01" nType="0">
        <Node pos="l" depth="1" NCoef="0" IVar="5" Cut="3.6132254172116518e-03" cType="1" res="-1.9621765241026878e-03" rms="4.5422777533531189e-01" purity="4.9382978677749634e-01" nType="0">
          <Node pos="l" depth="2" NCoef="0" IVar="-1" Cut="0.0000000000000000e+00" cType="1" res="-3.5280062002129853e-04" rms="4.5363420248031616e-01" purity="4.9833500385284424e-01" nType="-99"/>
          <Node pos="r" depth="2" NCoef="0" IVar="-1" Cut="0.0000000000000000e+00" cType="1" res="2.9777791351079941e-03" rms="4.6057635545730591e-01" purity="4.2685878276824951e-01" nType="-99"/>
        </Node>
        <Node pos="r" depth="1" NCoef="0" IVar="2" Cut="2.6447702026367188e+02" cType="1" res="3.0838463455438614e-02" rms="4.4278642535209656e-01" purity="5.5777937173843384e-01" nType="0">
          <Node pos="l" depth="2" NCoef="0" IVar="-1" Cut="0.0000000000000000e+00" cType="1" res="2.6434048777446151e-04" rms="4.5233315229415894e-01" purity="3.9099693298339844e-01" nType="-99"/>
          <Node pos="r" depth="2" NCoef="0" IVar="-1" Cut="0.0000000000000000e+00" cType="1" res="3.2539053354412317e-03" rms="4.3421551585197449e-01" purity="6.8477308750152588e-01" nType="-99"/>
        </Node>
      </Node>
    </BinaryTree>
    <BinaryTree type="DecisionTree" boostWeight="1.0000000000000000e+00" itree="299">
      <Node pos="s" depth="0" NCoef="0" IVar="3" Cut="8.0636873841285706e-02" cType="1" res="5.4152514785528183e-03" rms="4.5057520270347595e-01" purity="5.0555777549743652e-01" nType="0">
        <Node pos="l" depth="1" NCoef="0" IVar="7" Cut="4.8903208971023560e-01" cType="1" res="-4.6657212078571320e-03" rms="4.4478034973144531e-01" purity="4.8388275504112244e-01" nType="0">
          <Node pos="l" depth="2" NCoef="0" IVar="-1" Cut="0.0000000000000000e+00" cType="1" res="-6.6506313160061836e-03" rms="4.0619125962257385e-01" purity="2.5612521171569824e-01" nType="-99"/>
          <Node pos="r" depth="2" NCoef="0" IVar="-1" Cut="0.0000000000000000e+00" cType="1" res="1.8655603344086558e-04" rms="4.4818031787872314e-01" purity="5.0873184204101562e-01" nType="-99"/>
        </Node>
        <Node pos="r" depth="1" NCoef="0" IVar="5" Cut="1.1247933143749833e-03" cType="1" res="2.5417499244213104e-02" rms="4.6120598912239075e-01" purity="5.4856437444686890e-01" nType="0">
          <Node pos="l" depth="2" NCoef="0" IVar="-1" Cut="0.0000000000000000e+00" cType="1" res="-3.0136431450955570e-04" rms="4.4040873646736145e-01" purity="6.1246854066848755e-01" nType="-99"/>
          <Node pos="r" depth="2" NCoef="0" IVar="-1" Cut="0.0000000000000000e+00" cType="1" res="3.3095621038228273e-03" rms="4.7689330577850342e-01" purity="4.9356290698051453e-01" nType="-99"/>
        </Node>
      </Node>
    </BinaryTree>
    <BinaryTree type="DecisionTree" boostWeight="1.0000000000000000e+00" itree="300">
      <Node pos="s" depth="0" NCoef="0" IVar="2" Cut="5.8419482421875000e+02" cType="1" res="9.1356300981715322e-04" rms="4.5256951451301575e-01" purity="5.0094693899154663e-01" nType="0">
        <Node pos="l" depth="1" NCoef="0" IVar="2" Cut="2.1322053527832031e+02" cType="1" res="-2.0158269908279181e-03" rms="4.5385015010833740e-01" purity="4.8620900511741638e-01" nType="0">
          <Node pos="l" depth="2" NCoef="0" IVar="-1" Cut="0.0000000000000000e+00" cType="1" res="-3.4626058768481016e-03" rms="4.0531089901924133e-01" purity="2.5529488921165466e-01" nType="-99"/>
          <Node pos="r" depth="2" NCoef="0" IVar="-1" Cut="0.0000000000000000e+00" cType="1" res="1.6586351557634771e-04" rms="4.5965608954429626e-01" purity="5.1652097702026367e-01" nType="-99"/>
        </Node>
        <Node pos="r" depth="1" NCoef="0" IVar="-1" Cut="0.0000000000000000e+00" cType="1" res="3.0506667681038380e-03" rms="4.2961540818214417e-01" purity="7.3003298044204712e-01" nType="-99"/>
      </Node>
    </BinaryTree>
    <BinaryTree type="DecisionTree" boostWeight="1.0000000000000000e+00" itree="301">
      <Node pos="s" depth="0" NCoef="0" IVar="1" Cut="9.7167283296585083e-01" cType="1" res="-1.6576857306063175e-03" rms="4.5205891132354736e-01" purity="4.9931612610816956e-01" nType="0">
        <Node pos="l" depth="1" NCoef="0" IVar="3" Cut="2.3198580741882324e-01" cType="1" res="-6.3935229554772377e-03" rms="4.5925018191337585e-01" purity="4.6311503648757935e-01" nType="0">
          <Node pos="l" depth="2" NCoef="0" IVar="-1" Cut="0.0000000000000000e+00" cType="1" res="-6.6883838735520840e-04" rms="4.5800957083702087e-01" purity="4.5643055438995361e-01" nType="-99"/>
          <Node pos="r" depth="2" NCoef="0" IVar="-1" Cut="0.0000000000000000e+00" cType="1" res="2.2488508839160204e-03" rms="4.7354295849800110e-01" purity="5.5229943990707397e-01" nType="-99"/>
        </Node>
        <Node pos="r" depth="1" NCoef="0" IVar="-1" Cut="0.0000000000000000e+00" cType="1" res="2.9107220470905304e-03" rms="3.8171961903572083e-01" purity="8.1291222572326660e-01" nType="-99"/>
      </Node>
    </BinaryTree>
    <BinaryTree type="DecisionTree" boostWeight="1.0000000000000000e+00" itree="302">
      <Node pos="s" depth="0" NCoef="0" IVar="3" Cut="1.3268075883388519e-01" cType="1" res="2.0503332780208439e-04" rms="4.5149219036102295e-01" purity="4.9661704897880554e-01" nType="0">
        <Node pos="l" depth="1" NCoef="0" IVar="4" Cut="4.1622868180274963e-01" cType="1" res="-5.3244396112859249e-03" rms="4.4935005903244019e-01" purity="4.8179408907890320e-01" nType="0">
          <Node pos="l" depth="2" NCoef="0" IVar="-1" Cut="0.0000000000000000e+00" cType="1" res="-1.5951720997691154e-03" rms="4.5092004537582397e-01" purity="4.3801879882812500e-01" nType="-99"/>
          <Node pos="r" depth="2" NCoef="0" IVar="-1" Cut="0.0000000000000000e+00" cType="1" res="7.3989521479234099e-04" rms="4.4726008176803589e-01" purity="5.2395552396774292e-01" nType="-99"/>
        </Node>
        <Node pos="r" depth="1" NCoef="0" IVar="0" Cut="1.6210799217224121e+00" cType="1" res="1.8943622708320618e-02" rms="4.5818114280700684e-01" purity="5.4684972763061523e-01" nType="0">
          <Node pos="l" depth="2" NCoef="0" IVar="-1" Cut="0.0000000000000000e+00" cType="1" res="-1.2843574222642928e-04" rms="4.6812427043914795e-01" purity="4.1322848200798035e-01" nType="-99"/>
          <Node pos="r" depth="2" NCoef="0" IVar="-1" Cut="0.0000000000000000e+00" cType="1" res="2.3221480660140514e-03" rms="4.4825315475463867e-01" purity="6.6678905487060547e-01" nType="-99"/>
        </Node>
      </Node>
    </BinaryTree>
    <BinaryTree type="DecisionTree" boostWeight="1.0000000000000000e+00" itree="303">
      <Node pos="s" depth="0" NCoef="0" IVar="3" Cut="-1.1935180518776178e-03" cType="1" res="-1.9152999157086015e-03" rms="4.5053389668464661e-01" purity="4.9815338850021362e-01" nType="0">
        <Node pos="l" depth="1" NCoef="0" IVar="4" Cut="1.7489604651927948e-01" cType="1" res="-1.5058252029120922e-02" rms="4.4371190667152405e-01" purity="4.6505442261695862e-01" nType="0">
          <Node pos="l" depth="2" NCoef="0" IVar="-1" Cut="0.0000000000000000e+00" cType="1" res="-4.8076873645186424e-03" rms="4.2215427756309509e-01" purity="3.6067384481430054e-01" nType="-99"/>
          <Node pos="r" depth="2" NCoef="0" IVar="-1" Cut="0.0000000000000000e+00" cType="1" res="-6.7390163894742727e-04" rms="4.4606104493141174e-01" purity="4.7837808728218079e-01" nType="-99"/>
        </Node>
        <Node pos="r" depth="1" NCoef="0" IVar="6" Cut="1.8278361558914185e+00" cType="1" res="9.4949491322040558e-03" rms="4.5606678724288940e-01" purity="5.2688872814178467e-01" nType="0">
          <Node pos="l" depth="2" NCoef="0" IVar="-1" Cut="0.0000000000000000e+00" cType="1" res="1.9741069991141558e-04" rms="4.5682317018508911e-01" purity="5.2929019927978516e-01" nType="-99"/>
          <Node pos="r" depth="2" NCoef="0" IVar="-1" Cut="0.0000000000000000e+00" cType="1" res="3.9267707616090775e-03" rms="4.4788002967834473e-01" purity="5.0983065366744995e-01" nType="-99"/>
        </Node>
      </Node>
    </BinaryTree>
    <BinaryTree type="DecisionTree" boostWeight="1.0000000000000000e+00" itree="304">
      <Node pos="s" depth="0" NCoef="0" IVar="2" Cut="2.2332936096191406e+02" cType="1" res="2.1155568538233638e-04" rms="4.5167514681816101e-01" purity="4.9877279996871948e-01" nType="0">
        <Node pos="l" depth="1" NCoef="0" IVar="6" Cut="1.4275786876678467e+00" cType="1" res="-2.5590589269995689e-02" rms="4.1712003946304321e-01" purity="2.7750253677368164e-01" nType="0">
          <Node pos="l" depth="2" NCoef="0" IVar="-1" Cut="0.0000000000000000e+00" cType="1" res="-5.6176673388108611e-04" rms="4.3150177597999573e-01" purity="3.1951564550399780e-01" nType="-99"/>
          <Node pos="r" depth="2" NCoef="0" IVar="-1" Cut="0.0000000000000000e+00" cType="1" res="-5.0890976563096046e-03" rms="3.9717534184455872e-01" purity="2.2508241236209869e-01" nType="-99"/>
        </Node>
        <Node pos="r" depth="1" NCoef="0" IVar="4" Cut="6.9239056110382080e-01" cType="1" res="4.6107489615678787e-03" rms="4.5716094970703125e-01" purity="5.3649872541427612e-01" nType="0">
          <Node pos="l" depth="2" NCoef="0" IVar="-1" Cut="0.0000000000000000e+00" cType="1" res="9.7123316663783044e-05" rms="4.5765280723571777e-01" purity="5.3105801343917847e-01" nType="-99"/>
          <Node pos="r" depth="2" NCoef="0" IVar="-1" Cut="0.0000000000000000e+00" cType="1" res="3.2522701658308506e-03" rms="4.4741716980934143e-01" purity="6.1554169654846191e-01" nType="-99"/>
        </Node>
      </Node>
    </BinaryTree>
    <BinaryTree type="DecisionTree" boostWeight="1.0000000000000000e+00" itree="305">
      <Node pos="s" depth="0" NCoef="0" IVar="1" Cut="8.9462983608245850e-01" cType="1" res="-9.0471195289865136e-04" rms="4.4984805583953857e-01" purity="5.0089758634567261e-01" nType="0">
        <Node pos="l" depth="1" NCoef="0" IVar="5" Cut="1.5486959600821137e-03" cType="1" res="-2.0229160785675049e-02" rms="4.5353060960769653e-01" purity="3.6930254101753235e-01" nType="0">
          <Node pos="l" depth="2" NCoef="0" IVar="-1" Cut="0.0000000000000000e+00" cType="1" res="-5.8594597503542900e-03" rms="4.2735248804092407e-01" purity="2.9138302803039551e-01" nType="-99"/>
          <Node pos="r" depth="2" NCoef="0" IVar="-1" Cut="0.0000000000000000e+00" cType="1" res="-6.7261181538924575e-04" rms="4.5814704895019531e-01" purity="3.8586533069610596e-01" nType="-99"/>
        </Node>
        <Node pos="r" depth="1" NCoef="0" IVar="2" Cut="3.0122769165039062e+02" cType="1" res="1.3980783522129059e-02" rms="4.4642072916030884e-01" purity="6.0226428508758545e-01" nType="0">
          <Node pos="l" depth="2" NCoef="0" IVar="-1" Cut="0.0000000000000000e+00" cType="1" res="-3.5336797009222209e-04" rms="4.5829159021377563e-01" purity="4.8124623298645020e-01" nType="-99"/>
          <Node pos="r" depth="2" NCoef="0" IVar="-1" Cut="0.0000000000000000e+00" cType="1" res="1.9077545730397105e-03" rms="4.3617859482765198e-01" purity="6.9831460714340210e-01" nType="-99"/>
        </Node>
      </Node>
    </BinaryTree>
    <BinaryTree type="DecisionTree" boostWeight="1.0000000000000000e+00" itree="306">
      <Node pos="s" depth="0" NCoef="0" IVar="4" Cut="1.3002441823482513e-01" cType="1" res="2.3887148126959801e-03" rms="4.5126271247863770e-01" purity="5.0059777498245239e-01" nType="0">
        <Node pos="l" depth="1" NCoef="0" IVar="-1" Cut="0.0000000000000000e+00" cType="1" res="-3.7178683560341597e-03" rms="4.4009068608283997e-01" purity="3.8953843712806702e-01" nType="-99"/>
        <Node pos="r" depth="1" NCoef="0" IVar="1" Cut="9.3700629472732544e-01" cType="1" res="6.0130418278276920e-03" rms="4.5180284976959229e-01" purity="5.0829744338989258e-01" nType="0">
          <Node pos="l" depth="2" NCoef="0" IVar="-1" Cut="0.0000000000000000e+00" cType="1" res="-2.9998444006196223e-05" rms="4.6173292398452759e-01" purity="4.3083557486534119e-01" nType="-99"/>
          <Node pos="r" depth="2" NCoef="0" IVar="-1" Cut="0.0000000000000000e+00" cType="1" res="1.5953173860907555e-03" rms="4.2362645268440247e-01" purity="7.1544903516769409e-01" nType="-99"/>
        </Node>
      </Node>
    </BinaryTree>
    <BinaryTree type="DecisionTree" boostWeight="1.0000000000000000e+00" itree="307">
      <Node pos="s" depth="0" NCoef="0" IVar="3" Cut="2.4296593666076660e-01" cType="1" res="4.3797474354505539e-03" rms="4.5399627089500427e-01" purity="5.0097894668579102e-01" nType="0">
        <Node pos="l" depth="1" NCoef="0" IVar="0" Cut="4.0459823608398438e+00" cType="1" res="1.1789907002821565e-03" rms="4.5317310094833374e-01" purity="4.9591132998466492e-01" nType="0">
          <Node pos="l" depth="2" NCoef="0" IVar="-1" Cut="0.0000000000000000e+00" cType="1" res="-1.7743503849487752e-04" rms="4.5912867784500122e-01" purity="4.6308153867721558e-01" nType="-99"/>
          <Node pos="r" depth="2" NCoef="0" IVar="-1" Cut="0.0000000000000000e+00" cType="1" res="2.2486699745059013e-03" rms="3.9774036407470703e-01" purity="7.7432006597518921e-01" nType="-99"/>
        </Node>
        <Node pos="r" depth="1" NCoef="0" IVar="-1" Cut="0.0000000000000000e+00" cType="1" res="3.7292924243956804e-03" rms="4.6426105499267578e-01" purity="5.8539563417434692e-01" nType="-99"/>
      </Node>
    </BinaryTree>
    <BinaryTree type="DecisionTree" boostWeight="1.0000000000000000e+00" itree="308">
      <Node pos="s" depth="0" NCoef="0" IVar="1" Cut="8.7535887956619263e-01" cType="1" res="3.2056367490440607e-03" rms="4.5205956697463989e-01" purity="5.0230729579925537e-01" nType="0">
        <Node pos="l" depth="1" NCoef="0" IVar="5" Cut="3.4851424861699343e-03" cType="1" res="-1.9257014617323875e-02" rms="4.5243883132934570e-01" purity="3.5458639264106750e-01" nType="0">
          <Node pos="l" depth="2" NCoef="0" IVar="-1" Cut="0.0000000000000000e+00" cType="1" res="-2.6543235871940851e-03" rms="4.4879585504531860e-01" purity="3.3678227663040161e-01" nType="-99"/>
          <Node pos="r" depth="2" NCoef="0" IVar="-1" Cut="0.0000000000000000e+00" cType="1" res="1.3556552585214376e-03" rms="4.5953640341758728e-01" purity="4.0062975883483887e-01" nType="-99"/>
        </Node>
        <Node pos="r" depth="1" NCoef="0" IVar="4" Cut="4.3463942408561707e-01" cType="1" res="1.1782273650169373e-02" rms="4.5162004232406616e-01" purity="5.5870974063873291e-01" nType="0">
          <Node pos="l" depth="2" NCoef="0" IVar="-1" Cut="0.0000000000000000e+00" cType="1" res="9.7989264759235084e-05" rms="4.5394137501716614e-01" purity="5.3183913230895996e-01" nType="-99"/>
          <Node pos="r" depth="2" NCoef="0" IVar="-1" Cut="0.0000000000000000e+00" cType="1" res="1.7561572603881359e-03" rms="4.4804629683494568e-01" purity="5.9537720680236816e-01" nType="-99"/>
        </Node>
      </Node>
    </BinaryTree>
    <BinaryTree type="DecisionTree" boostWeight="1.0000000000000000e+00" itree="309">
      <Node pos="s" depth="0" NCoef="0" IVar="1" Cut="8.6768853664398193e-01" cType="1" res="-9.9648302420973778e-04" rms="4.5383274555206299e-01" purity="4.9560207128524780e-01" nType="0">
        <Node pos="l" depth="1" NCoef="0" IVar="7" Cut="7.1113836765289307e-01" cType="1" res="-2.2085420787334442e-02" rms="4.4621682167053223e-01" purity="3.4851127862930298e-01" nType="0">
          <Node pos="l" depth="2" NCoef="0" IVar="-1" Cut="0.0000000000000000e+00" cType="1" res="-3.2521749380975962e-03" rms="4.3659648299217224e-01" purity="3.0492520332336426e-01" nType="-99"/>
          <Node pos="r" depth="2" NCoef="0" IVar="-1" Cut="0.0000000000000000e+00" cType="1" res="8.1928301369771361e-04" rms="4.6202099323272705e-01" purity="4.3126752972602844e-01" nType="-99"/>
        </Node>
        <Node pos="r" depth="1" NCoef="0" IVar="5" Cut="2.7190211694687605e-03" cType="1" res="4.4208560138940811e-03" rms="4.5561102032661438e-01" purity="5.3338682651519775e-01" nType="0">
          <Node pos="l" depth="2" NCoef="0" IVar="-1" Cut="0.0000000000000000e+00" cType="1" res="1.7808351913117804e-05" rms="4.5491504669189453e-01" purity="5.3887492418289185e-01" nType="-99"/>
          <Node pos="r" depth="2" NCoef="0" IVar="-1" Cut="0.0000000000000000e+00" cType="1" res="3.8532160688191652e-03" rms="4.6112537384033203e-01" purity="4.6288341283798218e-01" nType="-99"/>
        </Node>
      </Node>
    </BinaryTree>
    <BinaryTree type="DecisionTree" boostWeight="1.0000000000000000e+00" itree="310">
      <Node pos="s" depth="0" NCoef="0" IVar="7" Cut="6.2234055995941162e-01" cType="1" res="6.4758752705529332e-04" rms="4.5219883322715759e-01" purity="4.9658727645874023e-01" nType="0">
        <Node pos="l" depth="1" NCoef="0" IVar="3" Cut="8.5741966962814331e-02" cType="1" res="-1.2824623845517635e-02" rms="4.5066726207733154e-01" purity="4.3712884187698364e-01" nType="0">
          <Node pos="l" depth="2" NCoef="0" IVar="-1" Cut="0.0000000000000000e+00" cType="1" res="-2.5177374482154846e-03" rms="4.3657276034355164e-01" purity="3.4281119704246521e-01" nType="-99"/>
          <Node pos="r" depth="2" NCoef="0" IVar="-1" Cut="0.0000000000000000e+00" cType="1" res="1.0721653234213591e-04" rms="4.6127483248710632e-01" purity="5.1358127593994141e-01" nType="-99"/>
        </Node>
        <Node pos="r" depth="1" NCoef="0" IVar="3" Cut="5.7251155376434326e-02" cType="1" res="1.1390123516321182e-02" rms="4.5312947034835815e-01" purity="5.4399847984313965e-01" nType="0">
          <Node pos="l" depth="2" NCoef="0" IVar="-1" Cut="0.0000000000000000e+00" cType="1" res="4.1768490336835384e-04" rms="4.5173487067222595e-01" purity="5.3413003683090210e-01" nType="-99"/>
          <Node pos="r" depth="2" NCoef="0" IVar="-1" Cut="0.0000000000000000e+00" cType="1" res="2.2592116147279739e-03" rms="4.5832604169845581e-01" purity="5.8597099781036377e-01" nType="-99"/>
        </Node>
      </Node>
    </BinaryTree>
    <BinaryTree type="DecisionTree" boostWeight="1.0000000000000000e+00" itree="311">
      <Node pos="s" depth="0" NCoef="0" IVar="1" Cut="8.7540775537490845e-01" cType="1" res="-2.9978340025991201e-03" rms="4.5113858580589294e-01" purity="4.9474203586578369e-01" nType="0">
        <Node pos="l" depth="1" NCoef="0" IVar="3" Cut="1.4667521417140961e-01" cType="1" res="-2.2038744762539864e-02" rms="4.5023933053016663e-01" purity="3.5104110836982727e-01" nType="0">
          <Node pos="l" depth="2" NCoef="0" IVar="-1" Cut="0.0000000000000000e+00" cType="1" res="-2.6379141490906477e-03" rms="4.4195866584777832e-01" purity="3.2811751961708069e-01" nType="-99"/>
          <Node pos="r" depth="2" NCoef="0" IVar="-1" Cut="0.0000000000000000e+00" cType="1" res="1.3340621953830123e-03" rms="4.7745198011398315e-01" purity="4.3625620007514954e-01" nType="-99"/>
        </Node>
        <Node pos="r" depth="1" NCoef="0" IVar="2" Cut="3.6459030151367188e+02" cType="1" res="4.4906185939908028e-03" rms="4.5127168297767639e-01" purity="5.5125713348388672e-01" nType="0">
          <Node pos="l" depth="2" NCoef="0" IVar="-1" Cut="0.0000000000000000e+00" cType="1" res="-4.1881849756464362e-04" rms="4.5705944299697876e-01" purity="4.8600870370864868e-01" nType="-99"/>
          <Node pos="r" depth="2" NCoef="0" IVar="-1" Cut="0.0000000000000000e+00" cType="1" res="1.7201820155605674e-03" rms="4.3818074464797974e-01" purity="6.8709963560104370e-01" nType="-99"/>
        </Node>
      </Node>
    </BinaryTree>
    <BinaryTree type="DecisionTree" boostWeight="1.0000000000000000e+00" itree="312">
      <Node pos="s" depth="0" NCoef="0" IVar="5" Cut="2.6944284327328205e-03" cType="1" res="3.4219752997159958e-03" rms="4.5382288098335266e-01" purity="4.9986952543258667e-01" nType="0">
        <Node pos="l" depth="1" NCoef="0" IVar="1" Cut="9.0626078844070435e-01" cType="1" res="-1.3065766543149948e-03" rms="4.5086586475372314e-01" purity="5.2332091331481934e-01" nType="0">
          <Node pos="l" depth="2" NCoef="0" IVar="-1" Cut="0.0000000000000000e+00" cType="1" res="-1.1711658444255590e-03" rms="4.5585760474205017e-01" purity="3.8303148746490479e-01" nType="-99"/>
          <Node pos="r" depth="2" NCoef="0" IVar="-1" Cut="0.0000000000000000e+00" cType="1" res="6.0219952138140798e-04" rms="4.4700831174850464e-01" purity="6.2288224697113037e-01" nType="-99"/>
        </Node>
        <Node pos="r" depth="1" NCoef="0" IVar="2" Cut="3.1894036865234375e+02" cType="1" res="2.2710664197802544e-02" rms="4.6519291400909424e-01" purity="4.0420690178871155e-01" nType="0">
          <Node pos="l" depth="2" NCoef="0" IVar="-1" Cut="0.0000000000000000e+00" cType="1" res="3.1715538352727890e-03" rms="4.5297259092330933e-01" purity="3.4026196599006653e-01" nType="-99"/>
          <Node pos="r" depth="2" NCoef="0" IVar="-1" Cut="0.0000000000000000e+00" cType="1" res="-2.2511481802212074e-05" rms="4.8096230626106262e-01" purity="4.9442517757415771e-01" nType="-99"/>
        </Node>
      </Node>
    </BinaryTree>
    <BinaryTree type="DecisionTree" boostWeight="1.0000000000000000e+00" itree="313">
      <Node pos="s" depth="0" NCoef="0" IVar="2" Cut="5.4405206298828125e+02" cType="1" res="-7.6563132461160421e-04" rms="4.5171788334846497e-01" purity="4.9882826209068298e-01" nType="0">
        <Node pos="l" depth="1" NCoef="0" IVar="0" Cut="1.0618576779961586e-02" cType="1" res="-3.5816675517708063e-03" rms="4.5297682285308838e-01" purity="4.8138213157653809e-01" nType="0">
          <Node pos="l" depth="2" NCoef="0" IVar="-1" Cut="0.0000000000000000e+00" cType="1" res="-3.5301470197737217e-03" rms="4.2485919594764709e-01" purity="2.6439285278320312e-01" nType="-99"/>
          <Node pos="r" depth="2" NCoef="0" IVar="-1" Cut="0.0000000000000000e+00" cType="1" res="-3.8536313695658464e-06" rms="4.5566490292549133e-01" purity="5.0401186943054199e-01" nType="-99"/>
        </Node>
        <Node pos="r" depth="1" NCoef="0" IVar="-1" Cut="0.0000000000000000e+00" cType="1" res="2.1624446380883455e-03" rms="4.3501704931259155e-01" purity="7.0693659782409668e-01" nType="-99"/>
      </Node>
    </BinaryTree>
    <BinaryTree type="DecisionTree" boostWeight="1.0000000000000000e+00" itree="314">
      <Node pos="s" depth="0" NCoef="0" IVar="6" Cut="9.1473853588104248e-01" cType="1" res="-8.8910391787067056e-04" rms="4.5271280407905579e-01" purity="4.9645477533340454e-01" nType="0">
        <Node pos="l" depth="1" NCoef="0" IVar="2" Cut="4.0771066284179688e+02" cType="1" res="1.7386788502335548e-02" rms="4.5596262812614441e-01" purity="5.7492905855178833e-01" nType="0">
          <Node pos="l" depth="2" NCoef="0" IVar="-1" Cut="0.0000000000000000e+00" cType="1" res="2.0115275401622057e-03" rms="4.5903846621513367e-01" purity="5.2952283620834351e-01" nType="-99"/>
          <Node pos="r" depth="2" NCoef="0" IVar="-1" Cut="0.0000000000000000e+00" cType="1" res="-3.5894798929803073e-04" rms="4.4945517182350159e-01" purity="6.5702873468399048e-01" nType="-99"/>
        </Node>
        <Node pos="r" depth="1" NCoef="0" IVar="6" Cut="1.8754075765609741e+00" cType="1" res="-8.6608706042170525e-03" rms="4.5109942555427551e-01" purity="4.6308383345603943e-01" nType="0">
          <Node pos="l" depth="2" NCoef="0" IVar="-1" Cut="0.0000000000000000e+00" cType="1" res="-1.0141639504581690e-03" rms="4.5264267921447754e-01" purity="4.6614059805870056e-01" nType="-99"/>
          <Node pos="r" depth="2" NCoef="0" IVar="-1" Cut="0.0000000000000000e+00" cType="1" res="2.2778084967285395e-03" rms="4.3807995319366455e-01" purity="4.4144734740257263e-01" nType="-99"/>
        </Node>
      </Node>
    </BinaryTree>
    <BinaryTree type="DecisionTree" boostWeight="1.0000000000000000e+00" itree="315">
      <Node pos="s" depth="0" NCoef="0" IVar="2" Cut="5.7207238769531250e+02" cType="1" res="1.8317935755476356e-03" rms="4.5204934477806091e-01" purity="4.9967789649963379e-01" nType="0">
        <Node pos="l" depth="1" NCoef="0" IVar="0" Cut="4.0459823608398438e+00" cType="1" res="-1.7199915600940585e-03" rms="4.5375567674636841e-01" purity="4.8328292369842529e-01" nType="0">
          <Node pos="l" depth="2" NCoef="0" IVar="-1" Cut="0.0000000000000000e+00" cType="1" res="-4.9911945825442672e-04" rms="4.5939156413078308e-01" purity="4.4819983839988708e-01" nType="-99"/>
          <Node pos="r" depth="2" NCoef="0" IVar="-1" Cut="0.0000000000000000e+00" cType="1" res="2.8846859931945801e-03" rms="4.0046632289886475e-01" purity="7.7856886386871338e-01" nType="-99"/>
        </Node>
        <Node pos="r" depth="1" NCoef="0" IVar="-1" Cut="0.0000000000000000e+00" cType="1" res="3.4852842800319195e-03" rms="4.2321389913558960e-01" purity="7.3733556270599365e-01" nType="-99"/>
      </Node>
    </BinaryTree>
    <BinaryTree type="DecisionTree" boostWeight="1.0000000000000000e+00" itree="316">
      <Node pos="s" depth="0" NCoef="0" IVar="2" Cut="5.6139025878906250e+02" cType="1" res="-3.9301114156842232e-03" rms="4.4953870773315430e-01" purity="4.9390801787376404e-01" nType="0">
        <Node pos="l" depth="1" NCoef="0" IVar="4" Cut="3.6288028955459595e-01" cType="1" res="-7.3671410791575909e-03" rms="4.5096218585968018e-01" purity="4.7635892033576965e-01" nType="0">
          <Node pos="l" depth="2" NCoef="0" IVar="-1" Cut="0.0000000000000000e+00" cType="1" res="-1.7016842029988766e-03" rms="4.4870823621749878e-01" purity="4.3196824193000793e-01" nType="-99"/>
          <Node pos="r" depth="2" NCoef="0" IVar="-1" Cut="0.0000000000000000e+00" cType="1" res="3.3018106478266418e-04" rms="4.5231646299362183e-01" purity="5.1051026582717896e-01" nType="-99"/>
        </Node>
        <Node pos="r" depth="1" NCoef="0" IVar="-1" Cut="0.0000000000000000e+00" cType="1" res="2.6522448752075434e-03" rms="4.2809653282165527e-01" purity="7.2209692001342773e-01" nType="-99"/>
      </Node>
    </BinaryTree>
    <BinaryTree type="DecisionTree" boostWeight="1.0000000000000000e+00" itree="317">
      <Node pos="s" depth="0" NCoef="0" IVar="4" Cut="4.5605781674385071e-01" cType="1" res="4.5616365969181061e-03" rms="4.5285022258758545e-01" purity="5.0445944070816040e-01" nType="0">
        <Node pos="l" depth="1" NCoef="0" IVar="3" Cut="7.8026294708251953e-02" cType="1" res="-4.4918335042893887e-03" rms="4.5363181829452515e-01" purity="4.8325270414352417e-01" nType="0">
          <Node pos="l" depth="2" NCoef="0" IVar="-1" Cut="0.0000000000000000e+00" cType="1" res="-1.2734801275655627e-03" rms="4.4891181588172913e-01" purity="4.5153805613517761e-01" nType="-99"/>
          <Node pos="r" depth="2" NCoef="0" IVar="-1" Cut="0.0000000000000000e+00" cType="1" res="9.9289265926927328e-04" rms="4.5996367931365967e-01" purity="5.3096288442611694e-01" nType="-99"/>
        </Node>
        <Node pos="r" depth="1" NCoef="0" IVar="2" Cut="2.7508828735351562e+02" cType="1" res="1.9074251875281334e-02" rms="4.5121565461158752e-01" purity="5.3845363855361938e-01" nType="0">
          <Node pos="l" depth="2" NCoef="0" IVar="-1" Cut="0.0000000000000000e+00" cType="1" res="3.0717157642357051e-04" rms="4.5284208655357361e-01" purity="3.9751124382019043e-01" nType="-99"/>
          <Node pos="r" depth="2" NCoef="0" IVar="-1" Cut="0.0000000000000000e+00" cType="1" res="2.0224491599947214e-03" rms="4.4947120547294617e-01" purity="6.5576159954071045e-01" nType="-99"/>
        </Node>
      </Node>
    </BinaryTree>
    <BinaryTree type="DecisionTree" boostWeight="1.0000000000000000e+00" itree="318">
      <Node pos="s" depth="0" NCoef="0" IVar="5" Cut="5.1322655053809285e-04" cType="1" res="5.7820803485810757e-03" rms="4.5334643125534058e-01" purity="5.0297766923904419e-01" nType="0">
        <Node pos="l" depth="1" NCoef="0" IVar="1" Cut="9.6010881662368774e-01" cType="1" res="-1.0414612479507923e-02" rms="4.3143746256828308e-01" purity="6.3586026430130005e-01" nType="0">
          <Node pos="l" depth="2" NCoef="0" IVar="-1" Cut="0.0000000000000000e+00" cType="1" res="-2.5231123436242342e-03" rms="4.5483860373497009e-01" purity="5.0287944078445435e-01" nType="-99"/>
          <Node pos="r" depth="2" NCoef="0" IVar="-1" Cut="0.0000000000000000e+00" cType="1" res="1.0548571590334177e-03" rms="4.0586274862289429e-01" purity="7.6511055231094360e-01" nType="-99"/>
        </Node>
        <Node pos="r" depth="1" NCoef="0" IVar="1" Cut="8.6411499977111816e-01" cType="1" res="1.2271265499293804e-02" rms="4.6167328953742981e-01" purity="4.4973847270011902e-01" nType="0">
          <Node pos="l" depth="2" NCoef="0" IVar="-1" Cut="0.0000000000000000e+00" cType="1" res="-6.0758081963285804e-04" rms="4.5509666204452515e-01" purity="3.5916936397552490e-01" nType="-99"/>
          <Node pos="r" depth="2" NCoef="0" IVar="-1" Cut="0.0000000000000000e+00" cType="1" res="1.2341098627075553e-03" rms="4.6340680122375488e-01" purity="4.7616007924079895e-01" nType="-99"/>
        </Node>
      </Node>
    </BinaryTree>
    <BinaryTree type="DecisionTree" boostWeight="1.0000000000000000e+00" itree="319">
      <Node pos="s" depth="0" NCoef="0" IVar="3" Cut="1.9193945825099945e-01" cType="1" res="8.1416167085990310e-04" rms="4.4952183961868286e-01" purity="4.9936124682426453e-01" nType="0">
        <Node pos="l" depth="1" NCoef="0" IVar="1" Cut="9.6782410144805908e-01" cType="1" res="-5.1486911252140999e-03" rms="4.4747918844223022e-01" purity="4.8769623041152954e-01" nType="0">
          <Node pos="l" depth="2" NCoef="0" IVar="-1" Cut="0.0000000000000000e+00" cType="1" res="-7.2431488661095500e-04" rms="4.5430666208267212e-01" purity="4.4607171416282654e-01" nType="-99"/>
          <Node pos="r" depth="2" NCoef="0" IVar="-1" Cut="0.0000000000000000e+00" cType="1" res="2.3322554770857096e-03" rms="3.9149764180183411e-01" purity="7.9481703042984009e-01" nType="-99"/>
        </Node>
        <Node pos="r" depth="1" NCoef="0" IVar="2" Cut="2.9922384643554688e+02" cType="1" res="4.2650714516639709e-02" rms="4.6143865585327148e-01" purity="5.8120518922805786e-01" nType="0">
          <Node pos="l" depth="2" NCoef="0" IVar="-1" Cut="0.0000000000000000e+00" cType="1" res="4.2478162795305252e-03" rms="4.6821731328964233e-01" purity="5.0749713182449341e-01" nType="-99"/>
          <Node pos="r" depth="2" NCoef="0" IVar="-1" Cut="0.0000000000000000e+00" cType="1" res="1.1894601630046964e-03" rms="4.5264065265655518e-01" purity="6.6235363483428955e-01" nType="-99"/>
        </Node>
      </Node>
    </BinaryTree>
    <BinaryTree type="DecisionTree" boostWeight="1.0000000000000000e+00" itree="320">
      <Node pos="s" depth="0" NCoef="0" IVar="2" Cut="2.6974365234375000e+02" cType="1" res="-4.8762881197035313e-03" rms="4.5088011026382446e-01" purity="4.9302905797958374e-01" nType="0">
        <Node pos="l" depth="1" NCoef="0" IVar="6" Cut="1.4313195943832397e+00" cType="1" res="-2.1129403263330460e-02" rms="4.3311592936515808e-01" purity="3.3620205521583557e-01" nType="0">
          <Node pos="l" depth="2" NCoef="0" IVar="-1" Cut="0.0000000000000000e+00" cType="1" res="-3.5035950713790953e-04" rms="4.4413468241691589e-01" purity="3.7725582718849182e-01" nType="-99"/>
          <Node pos="r" depth="2" NCoef="0" IVar="-1" Cut="0.0000000000000000e+00" cType="1" res="-4.1985656134784222e-03" rms="4.1498476266860962e-01" purity="2.7525648474693298e-01" nType="-99"/>
        </Node>
        <Node pos="r" depth="1" NCoef="0" IVar="4" Cut="5.6655478477478027e-01" cType="1" res="3.5607595928013325e-03" rms="4.5960450172424316e-01" purity="5.7443851232528687e-01" nType="0">
          <Node pos="l" depth="2" NCoef="0" IVar="-1" Cut="0.0000000000000000e+00" cType="1" res="-2.2510901908390224e-04" rms="4.6239948272705078e-01" purity="5.5352497100830078e-01" nType="-99"/>
          <Node pos="r" depth="2" NCoef="0" IVar="-1" Cut="0.0000000000000000e+00" cType="1" res="2.2772331722080708e-03" rms="4.4514647126197815e-01" purity="6.7051231861114502e-01" nType="-99"/>
        </Node>
      </Node>
    </BinaryTree>
    <BinaryTree type="DecisionTree" boostWeight="1.0000000000000000e+00" itree="321">
      <Node pos="s" depth="0" NCoef="0" IVar="7" Cut="6.1491936445236206e-01" cType="1" res="3.2806529197841883e-03" rms="4.5227256417274475e-01" purity="5.0107622146606445e-01" nType="0">
        <Node pos="l" depth="1" NCoef="0" IVar="6" Cut="1.0892586708068848e+00" cType="1" res="-1.2577502056956291e-02" rms="4.5198076963424683e-01" purity="4.4069886207580566e-01" nType="0">
          <Node pos="l" depth="2" NCoef="0" IVar="-1" Cut="0.0000000000000000e+00" cType="1" res="6.8764889147132635e-04" rms="4.6044933795928955e-01" purity="5.1687848567962646e-01" nType="-99"/>
          <Node pos="r" depth="2" NCoef="0" IVar="-1" Cut="0.0000000000000000e+00" cType="1" res="-2.2122068330645561e-03" rms="4.4523429870605469e-01" purity="3.8706609606742859e-01" nType="-99"/>
        </Node>
        <Node pos="r" depth="1" NCoef="0" IVar="0" Cut="9.0054565668106079e-01" cType="1" res="1.5401895157992840e-02" rms="4.5212057232856750e-01" purity="5.4722595214843750e-01" nType="0">
          <Node pos="l" depth="2" NCoef="0" IVar="-1" Cut="0.0000000000000000e+00" cType="1" res="-2.0756092453666497e-06" rms="4.6006870269775391e-01" purity="3.7175273895263672e-01" nType="-99"/>
          <Node pos="r" depth="2" NCoef="0" IVar="-1" Cut="0.0000000000000000e+00" cType="1" res="1.4504494611173868e-03" rms="4.4822025299072266e-01" purity="6.2832260131835938e-01" nType="-99"/>
        </Node>
      </Node>
    </BinaryTree>
    <BinaryTree type="DecisionTree" boostWeight="1.0000000000000000e+00" itree="322">
      <Node pos="s" depth="0" NCoef="0" IVar="4" Cut="6.7778533697128296e-01" cType="1" res="-1.6096100443974137e-04" rms="4.5323669910430908e-01" purity="4.9730187654495239e-01" nType="0">
        <Node pos="l" depth="1" NCoef="0" IVar="3" Cut="-4.3713014572858810e-02" cType="1" res="-3.1655475031584501e-03" rms="4.5415300130844116e-01" purity="4.9110099673271179e-01" nType="0">
          <Node pos="l" depth="2" NCoef="0" IVar="-1" Cut="0.0000000000000000e+00" cType="1" res="-1.4235689304769039e-03" rms="4.4824400544166565e-01" purity="4.4949728250503540e-01" nType="-99"/>
          <Node pos="r" depth="2" NCoef="0" IVar="-1" Cut="0.0000000000000000e+00" cType="1" res="3.5548020969145000e-04" rms="4.5698189735412598e-01" purity="5.1279228925704956e-01" nType="-99"/>
        </Node>
        <Node pos="r" depth="1" NCoef="0" IVar="-1" Cut="0.0000000000000000e+00" cType="1" res="2.0820749923586845e-03" rms="4.4267883896827698e-01" purity="5.6022977828979492e-01" nType="-99"/>
      </Node>
    </BinaryTree>
    <BinaryTree type="DecisionTree" boostWeight="1.0000000000000000e+00" itree="323">
      <Node pos="s" depth="0" NCoef="0" IVar="1" Cut="8.7539976835250854e-01" cType="1" res="1.6945722745731473e-03" rms="4.4929990172386169e-01" purity="5.0213742256164551e-01" nType="0">
        <Node pos="l" depth="1" NCoef="0" IVar="5" Cut="2.6970205362886190e-03" cType="1" res="-1.7277756705880165e-02" rms="4.4947683811187744e-01" purity="3.5257247090339661e-01" nType="0">
          <Node pos="l" depth="2" NCoef="0" IVar="-1" Cut="0.0000000000000000e+00" cType="1" res="-4.2726178653538227e-03" rms="4.3987235426902771e-01" purity="2.9804560542106628e-01" nType="-99"/>
          <Node pos="r" depth="2" NCoef="0" IVar="-1" Cut="0.0000000000000000e+00" cType="1" res="2.5736476527526975e-04" rms="4.5382353663444519e-01" purity="3.8502570986747742e-01" nType="-99"/>
        </Node>
        <Node pos="r" depth="1" NCoef="0" IVar="2" Cut="2.0821949768066406e+02" cType="1" res="8.8954754173755646e-03" rms="4.4902291893959045e-01" purity="5.5890446901321411e-01" nType="0">
          <Node pos="l" depth="2" NCoef="0" IVar="-1" Cut="0.0000000000000000e+00" cType="1" res="-2.9839107301086187e-03" rms="4.2568096518516541e-01" purity="2.8922465443611145e-01" nType="-99"/>
          <Node pos="r" depth="2" NCoef="0" IVar="-1" Cut="0.0000000000000000e+00" cType="1" res="8.4553769556805491e-04" rms="4.5083639025688171e-01" purity="5.8264189958572388e-01" nType="-99"/>
        </Node>
      </Node>
    </BinaryTree>
    <BinaryTree type="DecisionTree" boostWeight="1.0000000000000000e+00" itree="324">
      <Node pos="s" depth="0" NCoef="0" IVar="0" Cut="2.0020015537738800e-01" cType="1" res="3.1471683178097010e-03" rms="4.4997256994247437e-01" purity="5.0349551439285278e-01" nType="0">
        <Node pos="l" depth="1" NCoef="0" IVar="5" Cut="2.4015028029680252e-03" cType="1" res="-2.6520807296037674e-02" rms="4.2374840378761292e-01" purity="2.8289914131164551e-01" nType="0">
          <Node pos="l" depth="2" NCoef="0" IVar="-1" Cut="0.0000000000000000e+00" cType="1" res="-4.8594712279736996e-03" rms="4.1157028079032898e-01" purity="2.6521572470664978e-01" nType="-99"/>
          <Node pos="r" depth="2" NCoef="0" IVar="-1" Cut="0.0000000000000000e+00" cType="1" res="7.4693725764518604e-06" rms="4.3489590287208557e-01" purity="3.0191269516944885e-01" nType="-99"/>
        </Node>
        <Node pos="r" depth="1" NCoef="0" IVar="0" Cut="4.1271834373474121e+00" cType="1" res="7.5631933286786079e-03" rms="4.5358052849769592e-01" purity="5.3633093833923340e-01" nType="0">
          <Node pos="l" depth="2" NCoef="0" IVar="-1" Cut="0.0000000000000000e+00" cType="1" res="2.6943994453176856e-04" rms="4.6068620681762695e-01" purity="5.0422132015228271e-01" nType="-99"/>
          <Node pos="r" depth="2" NCoef="0" IVar="-1" Cut="0.0000000000000000e+00" cType="1" res="2.4769194424152374e-03" rms="3.9312446117401123e-01" purity="7.8506046533584595e-01" nType="-99"/>
        </Node>
      </Node>
    </BinaryTree>
    <BinaryTree type="DecisionTree" boostWeight="1.0000000000000000e+00" itree="325">
      <Node pos="s" depth="0" NCoef="0" IVar="5" Cut="3.2260932493954897e-03" cType="1" res="4.1670422069728374e-03" rms="4.5101684331893921e-01" purity="5.0431656837463379e-01" nType="0">
        <Node pos="l" depth="1" NCoef="0" IVar="0" Cut="4.3575463294982910e+00" cType="1" res="4.0573827573098242e-04" rms="4.4981575012207031e-01" purity="5.1456081867218018e-01" nType="0">
          <Node pos="l" depth="2" NCoef="0" IVar="-1" Cut="0.0000000000000000e+00" cType="1" res="-2.0238957949914038e-04" rms="4.5583406090736389e-01" purity="4.8639026284217834e-01" nType="-99"/>
          <Node pos="r" depth="2" NCoef="0" IVar="-1" Cut="0.0000000000000000e+00" cType="1" res="2.4864897131919861e-03" rms="3.8082334399223328e-01" purity="8.0427175760269165e-01" nType="-99"/>
        </Node>
        <Node pos="r" depth="1" NCoef="0" IVar="3" Cut="2.1185077726840973e-02" cType="1" res="3.3426657319068909e-02" rms="4.5920237898826599e-01" purity="4.2462560534477234e-01" nType="0">
          <Node pos="l" depth="2" NCoef="0" IVar="-1" Cut="0.0000000000000000e+00" cType="1" res="3.6882495041936636e-03" rms="4.5208513736724854e-01" purity="4.2132776975631714e-01" nType="-99"/>
          <Node pos="r" depth="2" NCoef="0" IVar="-1" Cut="0.0000000000000000e+00" cType="1" res="8.0012908438220620e-04" rms="4.6679913997650146e-01" purity="4.2863127589225769e-01" nType="-99"/>
        </Node>
      </Node>
    </BinaryTree>
    <BinaryTree type="DecisionTree" boostWeight="1.0000000000000000e+00" itree="326">
      <Node pos="s" depth="0" NCoef="0" IVar="0" Cut="4.3000082969665527e+00" cType="1" res="-3.6703210207633674e-04" rms="4.5129242539405823e-01" purity="4.9715968966484070e-01" nType="0">
        <Node pos="l" depth="1" NCoef="0" IVar="5" Cut="1.4194821706041694e-03" cType="1" res="-3.7849615328013897e-03" rms="4.5686805248260498e-01" purity="4.6937027573585510e-01" nType="0">
          <Node pos="l" depth="2" NCoef="0" IVar="-1" Cut="0.0000000000000000e+00" cType="1" res="-1.0983163956552744e-03" rms="4.5326974987983704e-01" purity="5.3054594993591309e-01" nType="-99"/>
          <Node pos="r" depth="2" NCoef="0" IVar="-1" Cut="0.0000000000000000e+00" cType="1" res="6.6658243304118514e-04" rms="4.6040481328964233e-01" purity="4.0267005562782288e-01" nType="-99"/>
        </Node>
        <Node pos="r" depth="1" NCoef="0" IVar="-1" Cut="0.0000000000000000e+00" cType="1" res="2.7080981526523829e-03" rms="3.8296094536781311e-01" purity="8.0161499977111816e-01" nType="-99"/>
      </Node>
    </BinaryTree>
    <BinaryTree type="DecisionTree" boostWeight="1.0000000000000000e+00" itree="327">
      <Node pos="s" depth="0" NCoef="0" IVar="6" Cut="7.5851410627365112e-01" cType="1" res="-8.1575111835263669e-05" rms="4.5205053687095642e-01" purity="4.9663558602333069e-01" nType="0">
        <Node pos="l" depth="1" NCoef="0" IVar="3" Cut="4.3952744454145432e-02" cType="1" res="3.2420311123132706e-02" rms="4.5318078994750977e-01" purity="6.0224127769470215e-01" nType="0">
          <Node pos="l" depth="2" NCoef="0" IVar="-1" Cut="0.0000000000000000e+00" cType="1" res="3.5703771281987429e-03" rms="4.4397774338722229e-01" purity="6.0780560970306396e-01" nType="-99"/>
          <Node pos="r" depth="2" NCoef="0" IVar="-1" Cut="0.0000000000000000e+00" cType="1" res="-9.5248353318311274e-05" rms="4.6538519859313965e-01" purity="5.9342664480209351e-01" nType="-99"/>
        </Node>
        <Node pos="r" depth="1" NCoef="0" IVar="3" Cut="-9.0004891157150269e-02" cType="1" res="-6.9711282849311829e-03" rms="4.5151016116142273e-01" purity="4.7424998879432678e-01" nType="0">
          <Node pos="l" depth="2" NCoef="0" IVar="-1" Cut="0.0000000000000000e+00" cType="1" res="-2.4562592152506113e-03" rms="4.4747707247734070e-01" purity="4.1021949052810669e-01" nType="-99"/>
          <Node pos="r" depth="2" NCoef="0" IVar="-1" Cut="0.0000000000000000e+00" cType="1" res="-1.0199526150245219e-04" rms="4.5222136378288269e-01" purity="4.8855963349342346e-01" nType="-99"/>
        </Node>
      </Node>
    </BinaryTree>
    <BinaryTree type="DecisionTree" boostWeight="1.0000000000000000e+00" itree="328">
      <Node pos="s" depth="0" NCoef="0" IVar="6" Cut="7.7450031042098999e-01" cType="1" res="-2.3003134410828352e-03" rms="4.5488169789314270e-01" purity="4.9449214339256287e-01" nType="0">
        <Node pos="l" depth="1" NCoef="0" IVar="2" Cut="3.2976672363281250e+02" cType="1" res="2.1350374445319176e-02" rms="4.5562309026718140e-01" purity="5.8740180730819702e-01" nType="0">
          <Node pos="l" depth="2" NCoef="0" IVar="-1" Cut="0.0000000000000000e+00" cType="1" res="3.5054055042564869e-03" rms="4.6048885583877563e-01" purity="5.0964003801345825e-01" nType="-99"/>
          <Node pos="r" depth="2" NCoef="0" IVar="-1" Cut="0.0000000000000000e+00" cType="1" res="-1.0456627933308482e-04" rms="4.5057305693626404e-01" purity="6.4589381217956543e-01" nType="-99"/>
        </Node>
        <Node pos="r" depth="1" NCoef="0" IVar="4" Cut="4.6378132700920105e-01" cType="1" res="-7.6559819281101227e-03" rms="4.5454278588294983e-01" purity="4.7345283627510071e-01" nType="0">
          <Node pos="l" depth="2" NCoef="0" IVar="-1" Cut="0.0000000000000000e+00" cType="1" res="-1.0575634660199285e-03" rms="4.5311436057090759e-01" purity="4.5149880647659302e-01" nType="-99"/>
          <Node pos="r" depth="2" NCoef="0" IVar="-1" Cut="0.0000000000000000e+00" cType="1" res="2.8284697327762842e-04" rms="4.5667356252670288e-01" purity="5.0999879837036133e-01" nType="-99"/>
        </Node>
      </Node>
    </BinaryTree>
    <BinaryTree type="DecisionTree" boostWeight="1.0000000000000000e+00" itree="329">
      <Node pos="s" depth="0" NCoef="0" IVar="3" Cut="4.2249616235494614e-02" cType="1" res="1.6174921765923500e-03" rms="4.5281252264976501e-01" purity="5.0197136402130127e-01" nType="0">
        <Node pos="l" depth="1" NCoef="0" IVar="1" Cut="8.6373746395111084e-01" cType="1" res="-9.1431383043527603e-03" rms="4.4834527373313904e-01" purity="4.7315463423728943e-01" nType="0">
          <Node pos="l" depth="2" NCoef="0" IVar="-1" Cut="0.0000000000000000e+00" cType="1" res="-3.0495459213852882e-03" rms="4.3140700459480286e-01" purity="3.0730038881301880e-01" nType="-99"/>
          <Node pos="r" depth="2" NCoef="0" IVar="-1" Cut="0.0000000000000000e+00" cType="1" res="-2.7938265702687204e-04" rms="4.5118787884712219e-01" purity="5.0358051061630249e-01" nType="-99"/>
        </Node>
        <Node pos="r" depth="1" NCoef="0" IVar="5" Cut="8.8883988792076707e-04" cType="1" res="1.5957897529006004e-02" rms="4.5830577611923218e-01" purity="5.4037469625473022e-01" nType="0">
          <Node pos="l" depth="2" NCoef="0" IVar="-1" Cut="0.0000000000000000e+00" cType="1" res="2.6730182071332820e-05" rms="4.4143795967102051e-01" purity="6.3597607612609863e-01" nType="-99"/>
          <Node pos="r" depth="2" NCoef="0" IVar="-1" Cut="0.0000000000000000e+00" cType="1" res="1.7714519053697586e-03" rms="4.6922758221626282e-01" purity="4.7479426860809326e-01" nType="-99"/>
        </Node>
      </Node>
    </BinaryTree>
    <BinaryTree type="DecisionTree" boostWeight="1.0000000000000000e+00" itree="330">
      <Node pos="s" depth="0" NCoef="0" IVar="5" Cut="2.6969071477651596e-03" cType="1" res="-1.0613709455356002e-03" rms="4.5056501030921936e-01" purity="4.9891060590744019e-01" nType="0">
        <Node pos="l" depth="1" NCoef="0" IVar="1" Cut="9.3312758207321167e-01" cType="1" res="-7.0711229927837849e-03" rms="4.4847199320793152e-01" purity="5.1948606967926025e-01" nType="0">
          <Node pos="l" depth="2" NCoef="0" IVar="-1" Cut="0.0000000000000000e+00" cType="1" res="-1.3024354120716453e-03" rms="4.5815125107765198e-01" purity="4.2288288474082947e-01" nType="-99"/>
          <Node pos="r" depth="2" NCoef="0" IVar="-1" Cut="0.0000000000000000e+00" cType="1" res="8.5924769518896937e-04" rms="4.3006706237792969e-01" purity="6.9090318679809570e-01" nType="-99"/>
        </Node>
        <Node pos="r" depth="1" NCoef="0" IVar="2" Cut="2.7379373168945312e+02" cType="1" res="2.3585829883813858e-02" rms="4.5822530984878540e-01" purity="4.1452634334564209e-01" nType="0">
          <Node pos="l" depth="2" NCoef="0" IVar="-1" Cut="0.0000000000000000e+00" cType="1" res="2.8049526736140251e-04" rms="4.3115392327308655e-01" purity="2.7186700701713562e-01" nType="-99"/>
          <Node pos="r" depth="2" NCoef="0" IVar="-1" Cut="0.0000000000000000e+00" cType="1" res="2.2705569863319397e-03" rms="4.7435209155082703e-01" purity="5.0628268718719482e-01" nType="-99"/>
        </Node>
      </Node>
    </BinaryTree>
    <BinaryTree type="DecisionTree" boostWeight="1.0000000000000000e+00" itree="331">
      <Node pos="s" depth="0" NCoef="0" IVar="4" Cut="1.2935055792331696e-01" cType="1" res="8.3525775698944926e-04" rms="4.5202901959419250e-01" purity="4.9861162900924683e-01" nType="0">
        <Node pos="l" depth="1" NCoef="0" IVar="-1" Cut="0.0000000000000000e+00" cType="1" res="-3.8262058515101671e-03" rms="4.4743204116821289e-01" purity="3.9354726672172546e-01" nType="-99"/>
        <Node pos="r" depth="1" NCoef="0" IVar="1" Cut="9.4481700658798218e-01" cType="1" res="4.3414970859885216e-03" rms="4.5212131738662720e-01" purity="5.0568491220474243e-01" nType="0">
          <Node pos="l" depth="2" NCoef="0" IVar="-1" Cut="0.0000000000000000e+00" cType="1" res="-1.2942405010107905e-04" rms="4.6210777759552002e-01" purity="4.3713563680648804e-01" nType="-99"/>
          <Node pos="r" depth="2" NCoef="0" IVar="-1" Cut="0.0000000000000000e+00" cType="1" res="1.7788929399102926e-03" rms="4.1564285755157471e-01" purity="7.3906940221786499e-01" nType="-99"/>
        </Node>
      </Node>
    </BinaryTree>
    <BinaryTree type="DecisionTree" boostWeight="1.0000000000000000e+00" itree="332">
      <Node pos="s" depth="0" NCoef="0" IVar="7" Cut="6.5271300077438354e-01" cType="1" res="6.3563855364918709e-03" rms="4.5139068365097046e-01" purity="5.0436282157897949e-01" nType="0">
        <Node pos="l" depth="1" NCoef="0" IVar="3" Cut="1.8999683856964111e-01" cType="1" res="-3.8819361943751574e-03" rms="4.5391309261322021e-01" purity="4.5166462659835815e-01" nType="0">
          <Node pos="l" depth="2" NCoef="0" IVar="-1" Cut="0.0000000000000000e+00" cType="1" res="-1.1710957624018192e-03" rms="4.4806230068206787e-01" purity="4.1358181834220886e-01" nType="-99"/>
          <Node pos="r" depth="2" NCoef="0" IVar="-1" Cut="0.0000000000000000e+00" cType="1" res="2.0080218091607094e-03" rms="4.6925413608551025e-01" purity="5.6530833244323730e-01" nType="-99"/>
        </Node>
        <Node pos="r" depth="1" NCoef="0" IVar="0" Cut="8.3741140365600586e-01" cType="1" res="1.6921481117606163e-02" rms="4.4852796196937561e-01" purity="5.5874294042587280e-01" nType="0">
          <Node pos="l" depth="2" NCoef="0" IVar="-1" Cut="0.0000000000000000e+00" cType="1" res="-2.0396629406604916e-04" rms="4.6034106612205505e-01" purity="3.7429040670394897e-01" nType="-99"/>
          <Node pos="r" depth="2" NCoef="0" IVar="-1" Cut="0.0000000000000000e+00" cType="1" res="1.6351046506315470e-03" rms="4.4318249821662903e-01" purity="6.3668668270111084e-01" nType="-99"/>
        </Node>
      </Node>
    </BinaryTree>
    <BinaryTree type="DecisionTree" boostWeight="1.0000000000000000e+00" itree="333">
      <Node pos="s" depth="0" NCoef="0" IVar="1" Cut="9.7182089090347290e-01" cType="1" res="-1.6638251254335046e-03" rms="4.5055264234542847e-01" purity="4.9822437763214111e-01" nType="0">
        <Node pos="l" depth="1" NCoef="0" IVar="5" Cut="2.5828660000115633e-04" cType="1" res="-5.5115176364779472e-03" rms="4.5797297358512878e-01" purity="4.6261882781982422e-01" nType="0">
          <Node pos="l" depth="2" NCoef="0" IVar="-1" Cut="0.0000000000000000e+00" cType="1" res="-2.9136140365153551e-03" rms="4.4826665520668030e-01" purity="5.6585764884948730e-01" nType="-99"/>
          <Node pos="r" depth="2" NCoef="0" IVar="-1" Cut="0.0000000000000000e+00" cType="1" res="-8.7577252998016775e-05" rms="4.5896866917610168e-01" purity="4.4994944334030151e-01" nType="-99"/>
        </Node>
        <Node pos="r" depth="1" NCoef="0" IVar="-1" Cut="0.0000000000000000e+00" cType="1" res="2.4618518073111773e-03" rms="3.7669277191162109e-01" purity="8.1407868862152100e-01" nType="-99"/>
      </Node>
    </BinaryTree>
    <BinaryTree type="DecisionTree" boostWeight="1.0000000000000000e+00" itree="334">
      <Node pos="s" depth="0" NCoef="0" IVar="5" Cut="1.5188250690698624e-03" cType="1" res="1.5053063398227096e-03" rms="4.5253184437751770e-01" purity="4.9903494119644165e-01" nType="0">
        <Node pos="l" depth="1" NCoef="0" IVar="1" Cut="9.1014045476913452e-01" cType="1" res="-1.0422071442008018e-02" rms="4.4657143950462341e-01" purity="5.5911040306091309e-01" nType="0">
          <Node pos="l" depth="2" NCoef="0" IVar="-1" Cut="0.0000000000000000e+00" cType="1" res="-3.6550830118358135e-03" rms="4.4263538718223572e-01" purity="3.4121498465538025e-01" nType="-99"/>
          <Node pos="r" depth="2" NCoef="0" IVar="-1" Cut="0.0000000000000000e+00" cType="1" res="2.7255140594206750e-05" rms="4.4718667864799500e-01" purity="6.2480533123016357e-01" nType="-99"/>
        </Node>
        <Node pos="r" depth="1" NCoef="0" IVar="0" Cut="2.6277761459350586e+00" cType="1" res="1.7105106264352798e-02" rms="4.5974421501159668e-01" purity="4.2046231031417847e-01" nType="0">
          <Node pos="l" depth="2" NCoef="0" IVar="-1" Cut="0.0000000000000000e+00" cType="1" res="8.3297147648409009e-04" rms="4.5890238881111145e-01" purity="3.7778103351593018e-01" nType="-99"/>
          <Node pos="r" depth="2" NCoef="0" IVar="-1" Cut="0.0000000000000000e+00" cType="1" res="2.5531204883009195e-03" rms="4.6263238787651062e-01" purity="6.1771649122238159e-01" nType="-99"/>
        </Node>
      </Node>
    </BinaryTree>
    <BinaryTree type="DecisionTree" boostWeight="1.0000000000000000e+00" itree="335">
      <Node pos="s" depth="0" NCoef="0" IVar="3" Cut="-3.0694415792822838e-02" cType="1" res="3.3762494567781687e-03" rms="4.5038819313049316e-01" purity="5.0120890140533447e-01" nType="0">
        <Node pos="l" depth="1" NCoef="0" IVar="7" Cut="8.3231961727142334e-01" cType="1" res="-1.0758816264569759e-02" rms="4.4415268301963806e-01" purity="4.5937198400497437e-01" nType="0">
          <Node pos="l" depth="2" NCoef="0" IVar="-1" Cut="0.0000000000000000e+00" cType="1" res="-1.7943087732419372e-03" rms="4.4484442472457886e-01" purity="4.0868031978607178e-01" nType="-99"/>
          <Node pos="r" depth="2" NCoef="0" IVar="-1" Cut="0.0000000000000000e+00" cType="1" res="1.3745325850322843e-03" rms="4.4089180231094360e-01" purity="5.8532065153121948e-01" nType="-99"/>
        </Node>
        <Node pos="r" depth="1" NCoef="0" IVar="6" Cut="1.3641036748886108e+00" cType="1" res="1.2088561430573463e-02" rms="4.5396968722343445e-01" purity="5.2699548006057739e-01" nType="0">
          <Node pos="l" depth="2" NCoef="0" IVar="-1" Cut="0.0000000000000000e+00" cType="1" res="1.1723771604010835e-04" rms="4.5747044682502747e-01" purity="5.4615199565887451e-01" nType="-99"/>
          <Node pos="r" depth="2" NCoef="0" IVar="-1" Cut="0.0000000000000000e+00" cType="1" res="2.1632851567119360e-03" rms="4.4707536697387695e-01" purity="4.9289035797119141e-01" nType="-99"/>
        </Node>
      </Node>
    </BinaryTree>
    <BinaryTree type="DecisionTree" boostWeight="1.0000000000000000e+00" itree="336">
      <Node pos="s" depth="0" NCoef="0" IVar="7" Cut="7.1090459823608398e-01" cType="1" res="5.1121287979185581e-03" rms="4.5296004414558411e-01" purity="5.0443971157073975e-01" nType="0">
        <Node pos="l" depth="1" NCoef="0" IVar="3" Cut="1.7785611748695374e-01" cType="1" res="-2.5650660973042250e-03" rms="4.5376038551330566e-01" purity="4.6609368920326233e-01" nType="0">
          <Node pos="l" depth="2" NCoef="0" IVar="-1" Cut="0.0000000000000000e+00" cType="1" res="-6.9907389115542173e-04" rms="4.4968345761299133e-01" purity="4.3542522192001343e-01" nType="-99"/>
          <Node pos="r" depth="2" NCoef="0" IVar="-1" Cut="0.0000000000000000e+00" cType="1" res="1.2215833412483335e-03" rms="4.6564146876335144e-01" purity="5.6200236082077026e-01" nType="-99"/>
        </Node>
        <Node pos="r" depth="1" NCoef="0" IVar="6" Cut="8.0833035707473755e-01" cType="1" res="1.7345547676086426e-02" rms="4.5141205191612244e-01" purity="5.6554305553436279e-01" nType="0">
          <Node pos="l" depth="2" NCoef="0" IVar="-1" Cut="0.0000000000000000e+00" cType="1" res="2.7998120058327913e-03" rms="4.3532437086105347e-01" purity="6.4586591720581055e-01" nType="-99"/>
          <Node pos="r" depth="2" NCoef="0" IVar="-1" Cut="0.0000000000000000e+00" cType="1" res="6.6660274751484394e-04" rms="4.5593571662902832e-01" purity="5.4104673862457275e-01" nType="-99"/>
        </Node>
      </Node>
    </BinaryTree>
    <BinaryTree type="DecisionTree" boostWeight="1.0000000000000000e+00" itree="337">
      <Node pos="s" depth="0" NCoef="0" IVar="2" Cut="2.0327479553222656e+02" cType="1" res="-2.2703097783960402e-04" rms="4.5199289917945862e-01" purity="4.9904990196228027e-01" nType="0">
        <Node pos="l" depth="1" NCoef="0" IVar="-1" Cut="0.0000000000000000e+00" cType="1" res="-3.3134112600237131e-03" rms="4.0415513515472412e-01" purity="2.4260629713535309e-01" nType="-99"/>
        <Node pos="r" depth="1" NCoef="0" IVar="1" Cut="9.2157363891601562e-01" cType="1" res="2.2769060451537371e-03" rms="4.5541793107986450e-01" purity="5.1905238628387451e-01" nType="0">
          <Node pos="l" depth="2" NCoef="0" IVar="-1" Cut="0.0000000000000000e+00" cType="1" res="-3.2078128424473107e-04" rms="4.6476387977600098e-01" purity="4.2778176069259644e-01" nType="-99"/>
          <Node pos="r" depth="2" NCoef="0" IVar="-1" Cut="0.0000000000000000e+00" cType="1" res="9.5956824952736497e-04" rms="4.3853747844696045e-01" purity="6.7684209346771240e-01" nType="-99"/>
        </Node>
      </Node>
    </BinaryTree>
    <BinaryTree type="DecisionTree" boostWeight="1.0000000000000000e+00" itree="338">
      <Node pos="s" depth="0" NCoef="0" IVar="7" Cut="8.0583918094635010e-01" cType="1" res="2.9042703099548817e-03" rms="4.5000177621841431e-01" purity="5.0223666429519653e-01" nType="0">
        <Node pos="l" depth="1" NCoef="0" IVar="6" Cut="1.4701555967330933e+00" cType="1" res="-3.1722174026072025e-03" rms="4.5217955112457275e-01" purity="4.8049744963645935e-01" nType="0">
          <Node pos="l" depth="2" NCoef="0" IVar="-1" Cut="0.0000000000000000e+00" cType="1" res="3.1054811552166939e-04" rms="4.5870959758758545e-01" purity="5.1286250352859497e-01" nType="-99"/>
          <Node pos="r" depth="2" NCoef="0" IVar="-1" Cut="0.0000000000000000e+00" cType="1" res="-1.8101080786436796e-03" rms="4.3405196070671082e-01" purity="3.9607965946197510e-01" nType="-99"/>
        </Node>
        <Node pos="r" depth="1" NCoef="0" IVar="2" Cut="3.5926638793945312e+02" cType="1" res="2.6775490492582321e-02" rms="4.4053179025650024e-01" purity="5.8763837814331055e-01" nType="0">
          <Node pos="l" depth="2" NCoef="0" IVar="-1" Cut="0.0000000000000000e+00" cType="1" res="2.1855748491361737e-04" rms="4.5468461513519287e-01" purity="4.8579740524291992e-01" nType="-99"/>
          <Node pos="r" depth="2" NCoef="0" IVar="-1" Cut="0.0000000000000000e+00" cType="1" res="3.8402276113629341e-03" rms="4.1771081089973450e-01" purity="7.2996652126312256e-01" nType="-99"/>
        </Node>
      </Node>
    </BinaryTree>
    <BinaryTree type="DecisionTree" boostWeight="1.0000000000000000e+00" itree="339">
      <Node pos="s" depth="0" NCoef="0" IVar="4" Cut="6.7776823043823242e-01" cType="1" res="2.2691418416798115e-03" rms="4.5009464025497437e-01" purity="5.0233179330825806e-01" nType="0">
        <Node pos="l" depth="1" NCoef="0" IVar="1" Cut="9.2145025730133057e-01" cType="1" res="-1.8073609098792076e-03" rms="4.5021507143974304e-01" purity="4.9617749452590942e-01" nType="0">
          <Node pos="l" depth="2" NCoef="0" IVar="-1" Cut="0.0000000000000000e+00" cType="1" res="-8.2192261470481753e-04" rms="4.5550820231437683e-01" purity="4.0185299515724182e-01" nType="-99"/>
          <Node pos="r" depth="2" NCoef="0" IVar="-1" Cut="0.0000000000000000e+00" cType="1" res="1.0252310894429684e-03" rms="4.4012933969497681e-01" purity="6.6412878036499023e-01" nType="-99"/>
        </Node>
        <Node pos="r" depth="1" NCoef="0" IVar="-1" Cut="0.0000000000000000e+00" cType="1" res="3.1578065827488899e-03" rms="4.4650235772132874e-01" purity="5.6793045997619629e-01" nType="-99"/>
      </Node>
    </BinaryTree>
    <BinaryTree type="DecisionTree" boostWeight="1.0000000000000000e+00" itree="340">
      <Node pos="s" depth="0" NCoef="0" IVar="2" Cut="2.0424356079101562e+02" cType="1" res="-1.0044362716143951e-04" rms="4.5066165924072266e-01" purity="4.9764251708984375e-01" nType="0">
        <Node pos="l" depth="1" NCoef="0" IVar="-1" Cut="0.0000000000000000e+00" cType="1" res="-4.4640200212597847e-03" rms="3.9259323477745056e-01" purity="2.2940939664840698e-01" nType="-99"/>
        <Node pos="r" depth="1" NCoef="0" IVar="3" Cut="-7.6036073267459869e-02" cType="1" res="3.6438002716749907e-03" rms="4.5510557293891907e-01" purity="5.2066349983215332e-01" nType="0">
          <Node pos="l" depth="2" NCoef="0" IVar="-1" Cut="0.0000000000000000e+00" cType="1" res="-1.3066151877865195e-03" rms="4.5138821005821228e-01" purity="4.6624207496643066e-01" nType="-99"/>
          <Node pos="r" depth="2" NCoef="0" IVar="-1" Cut="0.0000000000000000e+00" cType="1" res="6.9852109299972653e-04" rms="4.5604386925697327e-01" purity="5.3746765851974487e-01" nType="-99"/>
        </Node>
      </Node>
    </BinaryTree>
    <BinaryTree type="DecisionTree" boostWeight="1.0000000000000000e+00" itree="341">
      <Node pos="s" depth="0" NCoef="0" IVar="4" Cut="1.2832768261432648e-01" cType="1" res="5.6944186799228191e-03" rms="4.5139846205711365e-01" purity="5.0342196226119995e-01" nType="0">
        <Node pos="l" depth="1" NCoef="0" IVar="-1" Cut="0.0000000000000000e+00" cType="1" res="-2.2835787385702133e-03" rms="4.4702306389808655e-01" purity="4.0591499209403992e-01" nType="-99"/>
        <Node pos="r" depth="1" NCoef="0" IVar="2" Cut="3.4458129882812500e+02" cType="1" res="8.2877874374389648e-03" rms="4.5159822702407837e-01" purity="5.1039600372314453e-01" nType="0">
          <Node pos="l" depth="2" NCoef="0" IVar="-1" Cut="0.0000000000000000e+00" cType="1" res="1.6710138879716396e-05" rms="4.5257532596588135e-01" purity="4.3120524287223816e-01" nType="-99"/>
          <Node pos="r" depth="2" NCoef="0" IVar="-1" Cut="0.0000000000000000e+00" cType="1" res="1.4527463354170322e-03" rms="4.4952172040939331e-01" purity="6.4980924129486084e-01" nType="-99"/>
        </Node>
      </Node>
    </BinaryTree>
    <BinaryTree type="DecisionTree" boostWeight="1.0000000000000000e+00" itree="342">
      <Node pos="s" depth="0" NCoef="0" IVar="3" Cut="1.8525713682174683e-01" cType="1" res="-1.8553036497905850e-03" rms="4.5059502124786377e-01" purity="4.9655184149742126e-01" nType="0">
        <Node pos="l" depth="1" NCoef="0" IVar="1" Cut="8.7539708614349365e-01" cType="1" res="-7.9664764925837517e-03" rms="4.4826152920722961e-01" purity="4.8436811566352844e-01" nType="0">
          <Node pos="l" depth="2" NCoef="0" IVar="-1" Cut="0.0000000000000000e+00" cType="1" res="-2.1724354010075331e-03" rms="4.4127276539802551e-01" purity="3.3661669492721558e-01" nType="-99"/>
          <Node pos="r" depth="2" NCoef="0" IVar="-1" Cut="0.0000000000000000e+00" cType="1" res="-3.6789500882150605e-05" rms="4.5065972208976746e-01" purity="5.4038846492767334e-01" nType="-99"/>
        </Node>
        <Node pos="r" depth="1" NCoef="0" IVar="0" Cut="1.5920011997222900e+00" cType="1" res="3.6795631051063538e-02" rms="4.6321871876716614e-01" purity="5.7360959053039551e-01" nType="0">
          <Node pos="l" depth="2" NCoef="0" IVar="-1" Cut="0.0000000000000000e+00" cType="1" res="3.6849053576588631e-03" rms="4.7658720612525940e-01" purity="4.7332057356834412e-01" nType="-99"/>
          <Node pos="r" depth="2" NCoef="0" IVar="-1" Cut="0.0000000000000000e+00" cType="1" res="1.3199317036196589e-03" rms="4.5010727643966675e-01" purity="6.6502243280410767e-01" nType="-99"/>
        </Node>
      </Node>
    </BinaryTree>
    <BinaryTree type="DecisionTree" boostWeight="1.0000000000000000e+00" itree="343">
      <Node pos="s" depth="0" NCoef="0" IVar="7" Cut="8.3166116476058960e-01" cType="1" res="1.3892541173845530e-03" rms="4.5372995734214783e-01" purity="5.0069260597229004e-01" nType="0">
        <Node pos="l" depth="1" NCoef="0" IVar="7" Cut="3.9050337672233582e-01" cType="1" res="-3.7880381569266319e-03" rms="4.5535624027252197e-01" purity="4.8306807875633240e-01" nType="0">
          <Node pos="l" depth="2" NCoef="0" IVar="-1" Cut="0.0000000000000000e+00" cType="1" res="2.0778223406523466e-03" rms="4.6413746476173401e-01" purity="4.8050338029861450e-01" nType="-99"/>
          <Node pos="r" depth="2" NCoef="0" IVar="-1" Cut="0.0000000000000000e+00" cType="1" res="-5.4871925385668874e-04" rms="4.5416286587715149e-01" purity="4.8336687684059143e-01" nType="-99"/>
        </Node>
        <Node pos="r" depth="1" NCoef="0" IVar="0" Cut="9.0372818708419800e-01" cType="1" res="2.8778726235032082e-02" rms="4.4402423501014709e-01" purity="5.9393149614334106e-01" nType="0">
          <Node pos="l" depth="2" NCoef="0" IVar="-1" Cut="0.0000000000000000e+00" cType="1" res="-2.8126453980803490e-04" rms="4.6439680457115173e-01" purity="4.0415289998054504e-01" nType="-99"/>
          <Node pos="r" depth="2" NCoef="0" IVar="-1" Cut="0.0000000000000000e+00" cType="1" res="2.7852815110236406e-03" rms="4.3350690603256226e-01" purity="6.8125450611114502e-01" nType="-99"/>
        </Node>
      </Node>
    </BinaryTree>
    <BinaryTree type="DecisionTree" boostWeight="1.0000000000000000e+00" itree="344">
      <Node pos="s" depth="0" NCoef="0" IVar="5" Cut="3.3551384694874287e-03" cType="1" res="3.2162140123546124e-03" rms="4.5091751217842102e-01" purity="5.0492787361145020e-01" nType="0">
        <Node pos="l" depth="1" NCoef="0" IVar="2" Cut="5.6139025878906250e+02" cType="1" res="-8.8537856936454773e-04" rms="4.4921037554740906e-01" purity="5.1266944408416748e-01" nType="0">
          <Node pos="l" depth="2" NCoef="0" IVar="-1" Cut="0.0000000000000000e+00" cType="1" res="-2.8130962164141238e-04" rms="4.5099255442619324e-01" purity="4.9592185020446777e-01" nType="-99"/>
          <Node pos="r" depth="2" NCoef="0" IVar="-1" Cut="0.0000000000000000e+00" cType="1" res="2.6574479416012764e-03" rms="4.2256537079811096e-01" purity="7.3642843961715698e-01" nType="-99"/>
        </Node>
        <Node pos="r" depth="1" NCoef="0" IVar="-1" Cut="0.0000000000000000e+00" cType="1" res="2.9765628278255463e-03" rms="4.6529006958007812e-01" purity="4.2977705597877502e-01" nType="-99"/>
      </Node>
    </BinaryTree>
    <BinaryTree type="DecisionTree" boostWeight="1.0000000000000000e+00" itree="345">
      <Node pos="s" depth="0" NCoef="0" IVar="1" Cut="9.6796536445617676e-01" cType="1" res="3.6186588113196194e-04" rms="4.4992786645889282e-01" purity="4.9863499402999878e-01" nType="0">
        <Node pos="l" depth="1" NCoef="0" IVar="5" Cut="2.6944589335471392e-03" cType="1" res="-4.0312865749001503e-03" rms="4.5828235149383545e-01" purity="4.5777738094329834e-01" nType="0">
          <Node pos="l" depth="2" NCoef="0" IVar="-1" Cut="0.0000000000000000e+00" cType="1" res="-7.4431858956813812e-04" rms="4.5780140161514282e-01" purity="4.7280153632164001e-01" nType="-99"/>
          <Node pos="r" depth="2" NCoef="0" IVar="-1" Cut="0.0000000000000000e+00" cType="1" res="1.2849050108343363e-03" rms="4.5922034978866577e-01" purity="4.0678057074546814e-01" nType="-99"/>
        </Node>
        <Node pos="r" depth="1" NCoef="0" IVar="-1" Cut="0.0000000000000000e+00" cType="1" res="2.5254567153751850e-03" rms="3.7934094667434692e-01" purity="8.0712515115737915e-01" nType="-99"/>
      </Node>
    </BinaryTree>
    <BinaryTree type="DecisionTree" boostWeight="1.0000000000000000e+00" itree="346">
      <Node pos="s" depth="0" NCoef="0" IVar="7" Cut="5.3793114423751831e-01" cType="1" res="1.7273584380745888e-03" rms="4.5043343305587769e-01" purity="5.0109112262725830e-01" nType="0">
        <Node pos="l" depth="1" NCoef="0" IVar="1" Cut="9.0986311435699463e-01" cType="1" res="-1.3503057882189751e-02" rms="4.4929322600364685e-01" purity="4.3804779648780823e-01" nType="0">
          <Node pos="l" depth="2" NCoef="0" IVar="-1" Cut="0.0000000000000000e+00" cType="1" res="-2.6176925748586655e-03" rms="4.4326639175415039e-01" purity="3.3010962605476379e-01" nType="-99"/>
          <Node pos="r" depth="2" NCoef="0" IVar="-1" Cut="0.0000000000000000e+00" cType="1" res="8.1026135012507439e-04" rms="4.5586138963699341e-01" purity="5.8033096790313721e-01" nType="-99"/>
        </Node>
        <Node pos="r" depth="1" NCoef="0" IVar="5" Cut="3.3390279859304428e-03" cType="1" res="7.9968012869358063e-03" rms="4.5075243711471558e-01" purity="5.2704232931137085e-01" nType="0">
          <Node pos="l" depth="2" NCoef="0" IVar="-1" Cut="0.0000000000000000e+00" cType="1" res="2.5326863396912813e-04" rms="4.4837427139282227e-01" purity="5.3553330898284912e-01" nType="-99"/>
          <Node pos="r" depth="2" NCoef="0" IVar="-1" Cut="0.0000000000000000e+00" cType="1" res="3.2503837719559669e-03" rms="4.6990072727203369e-01" purity="4.5013806223869324e-01" nType="-99"/>
        </Node>
      </Node>
    </BinaryTree>
    <BinaryTree type="DecisionTree" boostWeight="1.0000000000000000e+00" itree="347">
      <Node pos="s" depth="0" NCoef="0" IVar="7" Cut="8.1266313791275024e-01" cType="1" res="4.0045562200248241e-03" rms="4.5218405127525330e-01" purity="5.0317770242691040e-01" nType="0">
        <Node pos="l" depth="1" NCoef="0" IVar="3" Cut="2.1411153674125671e-01" cType="1" res="-1.8997781444340944e-03" rms="4.5443525910377502e-01" purity="4.8268759250640869e-01" nType="0">
          <Node pos="l" depth="2" NCoef="0" IVar="-1" Cut="0.0000000000000000e+00" cType="1" res="-5.4517702665179968e-04" rms="4.5377615094184875e-01" purity="4.6881377696990967e-01" nType="-99"/>
          <Node pos="r" depth="2" NCoef="0" IVar="-1" Cut="0.0000000000000000e+00" cType="1" res="2.5966456159949303e-03" rms="4.5715779066085815e-01" purity="5.8627116680145264e-01" nType="-99"/>
        </Node>
        <Node pos="r" depth="1" NCoef="0" IVar="2" Cut="3.0280941772460938e+02" cType="1" res="2.8709689155220985e-02" rms="4.4178527593612671e-01" purity="5.8891326189041138e-01" nType="0">
          <Node pos="l" depth="2" NCoef="0" IVar="-1" Cut="0.0000000000000000e+00" cType="1" res="-8.9898216538131237e-04" rms="4.4667938351631165e-01" purity="4.2743334174156189e-01" nType="-99"/>
          <Node pos="r" depth="2" NCoef="0" IVar="-1" Cut="0.0000000000000000e+00" cType="1" res="3.5300010349601507e-03" rms="4.3651145696640015e-01" purity="6.9412493705749512e-01" nType="-99"/>
        </Node>
      </Node>
    </BinaryTree>
    <BinaryTree type="DecisionTree" boostWeight="1.0000000000000000e+00" itree="348">
      <Node pos="s" depth="0" NCoef="0" IVar="0" Cut="3.8738639354705811e+00" cType="1" res="1.7773720901459455e-03" rms="4.4963082671165466e-01" purity="5.0278866291046143e-01" nType="0">
        <Node pos="l" depth="1" NCoef="0" IVar="2" Cut="5.4514965820312500e+02" cType="1" res="-2.5734475348144770e-03" rms="4.5606714487075806e-01" purity="4.6491771936416626e-01" nType="0">
          <Node pos="l" depth="2" NCoef="0" IVar="-1" Cut="0.0000000000000000e+00" cType="1" res="-4.1615599184297025e-04" rms="4.5650693774223328e-01" purity="4.4743239879608154e-01" nType="-99"/>
          <Node pos="r" depth="2" NCoef="0" IVar="-1" Cut="0.0000000000000000e+00" cType="1" res="2.4795106146484613e-03" rms="4.4816410541534424e-01" purity="6.9300031661987305e-01" nType="-99"/>
        </Node>
        <Node pos="r" depth="1" NCoef="0" IVar="-1" Cut="0.0000000000000000e+00" cType="1" res="2.2418105509132147e-03" rms="3.9994367957115173e-01" purity="7.7003717422485352e-01" nType="-99"/>
      </Node>
    </BinaryTree>
    <BinaryTree type="DecisionTree" boostWeight="1.0000000000000000e+00" itree="349">
      <Node pos="s" depth="0" NCoef="0" IVar="1" Cut="8.5997140407562256e-01" cType="1" res="4.3196557089686394e-03" rms="4.5341330766677856e-01" purity="5.0154244899749756e-01" nType="0">
        <Node pos="l" depth="1" NCoef="0" IVar="7" Cut="5.9491771459579468e-01" cType="1" res="-2.1816985681653023e-02" rms="4.4841298460960388e-01" purity="3.4241545200347900e-01" nType="0">
          <Node pos="l" depth="2" NCoef="0" IVar="-1" Cut="0.0000000000000000e+00" cType="1" res="8.0340297427028418e-04" rms="4.4473615288734436e-01" purity="3.3558186888694763e-01" nType="-99"/>
          <Node pos="r" depth="2" NCoef="0" IVar="-1" Cut="0.0000000000000000e+00" cType="1" res="-3.5355980508029461e-03" rms="4.4974058866500854e-01" purity="3.4793010354042053e-01" nType="-99"/>
        </Node>
        <Node pos="r" depth="1" NCoef="0" IVar="5" Cut="1.3158214278519154e-03" cType="1" res="7.8961476683616638e-03" rms="4.5397624373435974e-01" purity="5.2331715822219849e-01" nType="0">
          <Node pos="l" depth="2" NCoef="0" IVar="-1" Cut="0.0000000000000000e+00" cType="1" res="-5.2023493481101468e-05" rms="4.4647610187530518e-01" purity="5.8744013309478760e-01" nType="-99"/>
          <Node pos="r" depth="2" NCoef="0" IVar="-1" Cut="0.0000000000000000e+00" cType="1" res="1.3535288162529469e-03" rms="4.6352183818817139e-01" purity="4.3796285986900330e-01" nType="-99"/>
        </Node>
      </Node>
    </BinaryTree>
    <BinaryTree type="DecisionTree" boostWeight="1.0000000000000000e+00" itree="350">
      <Node pos="s" depth="0" NCoef="0" IVar="1" Cut="9.3710917234420776e-01" cType="1" res="-3.9692670106887817e-03" rms="4.5207157731056213e-01" purity="4.9535202980041504e-01" nType="0">
        <Node pos="l" depth="1" NCoef="0" IVar="5" Cut="6.3570844940841198e-04" cType="1" res="-1.1051052249968052e-02" rms="4.5984765887260437e-01" purity="4.1730657219886780e-01" nType="0">
          <Node pos="l" depth="2" NCoef="0" IVar="-1" Cut="0.0000000000000000e+00" cType="1" res="-5.6949811987578869e-03" rms="4.3992540240287781e-01" purity="3.6181992292404175e-01" nType="-99"/>
          <Node pos="r" depth="2" NCoef="0" IVar="-1" Cut="0.0000000000000000e+00" cType="1" res="-2.9350552358664572e-04" rms="4.6153917908668518e-01" purity="4.2359244823455811e-01" nType="-99"/>
        </Node>
        <Node pos="r" depth="1" NCoef="0" IVar="0" Cut="1.8863131999969482e+00" cType="1" res="1.5326413325965405e-02" rms="4.2957952618598938e-01" purity="7.0800203084945679e-01" nType="0">
          <Node pos="l" depth="2" NCoef="0" IVar="-1" Cut="0.0000000000000000e+00" cType="1" res="4.1835326701402664e-03" rms="4.5373615622520447e-01" purity="6.4234870672225952e-01" nType="-99"/>
          <Node pos="r" depth="2" NCoef="0" IVar="-1" Cut="0.0000000000000000e+00" cType="1" res="-9.1210560640320182e-05" rms="4.1982144117355347e-01" purity="7.3013770580291748e-01" nType="-99"/>
        </Node>
      </Node>
    </BinaryTree>
    <BinaryTree type="DecisionTree" boostWeight="1.0000000000000000e+00" itree="351">
      <Node pos="s" depth="0" NCoef="0" IVar="2" Cut="5.4751129150390625e+02" cType="1" res="-2.1833956707268953e-03" rms="4.5257937908172607e-01" purity="4.9891963601112366e-01" nType="0">
        <Node pos="l" depth="1" NCoef="0" IVar="6" Cut="1.9678665399551392e+00" cType="1" res="-5.5294237099587917e-03" rms="4.5381551980972290e-01" purity="4.8020750284194946e-01" nType="0">
          <Node pos="l" depth="2" NCoef="0" IVar="-1" Cut="0.0000000000000000e+00" cType="1" res="-6.0395535547286272e-04" rms="4.5509278774261475e-01" purity="4.8372387886047363e-01" nType="-99"/>
          <Node pos="r" depth="2" NCoef="0" IVar="-1" Cut="0.0000000000000000e+00" cType="1" res="2.4716588668525219e-03" rms="4.3528807163238525e-01" purity="4.3492621183395386e-01" nType="-99"/>
        </Node>
        <Node pos="r" depth="1" NCoef="0" IVar="-1" Cut="0.0000000000000000e+00" cType="1" res="2.5399473961442709e-03" rms="4.3518617749214172e-01" purity="7.2679060697555542e-01" nType="-99"/>
      </Node>
    </BinaryTree>
    <BinaryTree type="DecisionTree" boostWeight="1.0000000000000000e+00" itree="352">
      <Node pos="s" depth="0" NCoef="0" IVar="5" Cut="1.4113684883341193e-03" cType="1" res="-2.1793234627693892e-03" rms="4.5080837607383728e-01" purity="4.9788761138916016e-01" nType="0">
        <Node pos="l" depth="1" NCoef="0" IVar="1" Cut="9.1015803813934326e-01" cType="1" res="-1.0449979454278946e-02" rms="4.4586372375488281e-01" purity="5.6543099880218506e-01" nType="0">
          <Node pos="l" depth="2" NCoef="0" IVar="-1" Cut="0.0000000000000000e+00" cType="1" res="-3.8872291333973408e-03" rms="4.3896466493606567e-01" purity="3.3589911460876465e-01" nType="-99"/>
          <Node pos="r" depth="2" NCoef="0" IVar="-1" Cut="0.0000000000000000e+00" cType="1" res="-4.1906761907739565e-05" rms="4.4710728526115417e-01" purity="6.2487030029296875e-01" nType="-99"/>
        </Node>
        <Node pos="r" depth="1" NCoef="0" IVar="1" Cut="8.9709103107452393e-01" cType="1" res="7.6362481340765953e-03" rms="4.5641276240348816e-01" purity="4.1772747039794922e-01" nType="0">
          <Node pos="l" depth="2" NCoef="0" IVar="-1" Cut="0.0000000000000000e+00" cType="1" res="5.4626903875032440e-05" rms="4.5503449440002441e-01" purity="3.9832103252410889e-01" nType="-99"/>
          <Node pos="r" depth="2" NCoef="0" IVar="-1" Cut="0.0000000000000000e+00" cType="1" res="2.8713911306113005e-03" rms="4.6202066540718079e-01" purity="5.2266818284988403e-01" nType="-99"/>
        </Node>
      </Node>
    </BinaryTree>
    <BinaryTree type="DecisionTree" boostWeight="1.0000000000000000e+00" itree="353">
      <Node pos="s" depth="0" NCoef="0" IVar="5" Cut="3.3551361411809921e-03" cType="1" res="2.3530637845396996e-03" rms="4.5229858160018921e-01" purity="5.0154870748519897e-01" nType="0">
        <Node pos="l" depth="1" NCoef="0" IVar="2" Cut="3.4458129882812500e+02" cType="1" res="-2.9953752527944744e-04" rms="4.5026597380638123e-01" purity="5.1042169332504272e-01" nType="0">
          <Node pos="l" depth="2" NCoef="0" IVar="-1" Cut="0.0000000000000000e+00" cType="1" res="-6.0160632710903883e-04" rms="4.4951337575912476e-01" purity="4.3036982417106628e-01" nType="-99"/>
          <Node pos="r" depth="2" NCoef="0" IVar="-1" Cut="0.0000000000000000e+00" cType="1" res="7.9638254828751087e-04" rms="4.5119228959083557e-01" purity="6.3893491029739380e-01" nType="-99"/>
        </Node>
        <Node pos="r" depth="1" NCoef="0" IVar="-1" Cut="0.0000000000000000e+00" cType="1" res="1.9854353740811348e-03" rms="4.7062516212463379e-01" purity="4.1627243161201477e-01" nType="-99"/>
      </Node>
    </BinaryTree>
    <BinaryTree type="DecisionTree" boostWeight="1.0000000000000000e+00" itree="354">
      <Node pos="s" depth="0" NCoef="0" IVar="5" Cut="1.6775707481428981e-03" cType="1" res="-4.1759337182156742e-04" rms="4.5187675952911377e-01" purity="4.9915945529937744e-01" nType="0">
        <Node pos="l" depth="1" NCoef="0" IVar="4" Cut="3.8299027085304260e-01" cType="1" res="-8.8554080575704575e-03" rms="4.4634711742401123e-01" purity="5.5691564083099365e-01" nType="0">
          <Node pos="l" depth="2" NCoef="0" IVar="-1" Cut="0.0000000000000000e+00" cType="1" res="-1.5639844350516796e-03" rms="4.5194405317306519e-01" purity="5.1755774021148682e-01" nType="-99"/>
          <Node pos="r" depth="2" NCoef="0" IVar="-1" Cut="0.0000000000000000e+00" cType="1" res="2.4388397287111729e-04" rms="4.4065955281257629e-01" purity="5.9396427869796753e-01" nType="-99"/>
        </Node>
        <Node pos="r" depth="1" NCoef="0" IVar="1" Cut="8.6629354953765869e-01" cType="1" res="1.2232394888997078e-02" rms="4.5975229144096375e-01" purity="4.1257122159004211e-01" nType="0">
          <Node pos="l" depth="2" NCoef="0" IVar="-1" Cut="0.0000000000000000e+00" cType="1" res="-8.2492432557046413e-04" rms="4.5343732833862305e-01" purity="3.6468234658241272e-01" nType="-99"/>
          <Node pos="r" depth="2" NCoef="0" IVar="-1" Cut="0.0000000000000000e+00" cType="1" res="1.9381109159439802e-03" rms="4.6332925558090210e-01" purity="4.4508531689643860e-01" nType="-99"/>
        </Node>
      </Node>
    </BinaryTree>
    <BinaryTree type="DecisionTree" boostWeight="1.0000000000000000e+00" itree="355">
      <Node pos="s" depth="0" NCoef="0" IVar="1" Cut="9.6025109291076660e-01" cType="1" res="2.2823184262961149e-03" rms="4.5198422670364380e-01" purity="5.0076460838317871e-01" nType="0">
        <Node pos="l" depth="1" NCoef="0" IVar="5" Cut="5.1623646868392825e-04" cType="1" res="-1.3533697929233313e-03" rms="4.6073064208030701e-01" purity="4.5310670137405396e-01" nType="0">
          <Node pos="l" depth="2" NCoef="0" IVar="-1" Cut="0.0000000000000000e+00" cType="1" res="-1.6711921198293567e-03" rms="4.5573085546493530e-01" purity="5.1464462280273438e-01" nType="-99"/>
          <Node pos="r" depth="2" NCoef="0" IVar="-1" Cut="0.0000000000000000e+00" cType="1" res="2.2587252897210419e-04" rms="4.6160459518432617e-01" purity="4.4062021374702454e-01" nType="-99"/>
        </Node>
        <Node pos="r" depth="1" NCoef="0" IVar="3" Cut="-3.9484542794525623e-03" cType="1" res="2.3528525605797768e-02" rms="3.9637118577957153e-01" purity="7.7926772832870483e-01" nType="0">
          <Node pos="l" depth="2" NCoef="0" IVar="-1" Cut="0.0000000000000000e+00" cType="1" res="6.8474479485303164e-04" rms="4.1281503438949585e-01" purity="7.4791920185089111e-01" nType="-99"/>
          <Node pos="r" depth="2" NCoef="0" IVar="-1" Cut="0.0000000000000000e+00" cType="1" res="2.7395389042794704e-03" rms="3.7953546643257141e-01" purity="8.0916023254394531e-01" nType="-99"/>
        </Node>
      </Node>
    </BinaryTree>
    <BinaryTree type="DecisionTree" boostWeight="1.0000000000000000e+00" itree="356">
      <Node pos="s" depth="0" NCoef="0" IVar="6" Cut="1.1613677740097046e+00" cType="1" res="-3.9603658951818943e-03" rms="4.5306134223937988e-01" purity="4.9451273679733276e-01" nType="0">
        <Node pos="l" depth="1" NCoef="0" IVar="2" Cut="2.8027395629882812e+02" cType="1" res="7.8320587053894997e-03" rms="4.5854943990707397e-01" purity="5.4898631572723389e-01" nType="0">
          <Node pos="l" depth="2" NCoef="0" IVar="-1" Cut="0.0000000000000000e+00" cType="1" res="2.2776240948587656e-03" rms="4.5718720555305481e-01" purity="4.3016299605369568e-01" nType="-99"/>
          <Node pos="r" depth="2" NCoef="0" IVar="-1" Cut="0.0000000000000000e+00" cType="1" res="-1.3201365072745830e-04" rms="4.5878469944000244e-01" purity="6.0013407468795776e-01" nType="-99"/>
        </Node>
        <Node pos="r" depth="1" NCoef="0" IVar="2" Cut="4.0250939941406250e+02" cType="1" res="-1.5937196090817451e-02" rms="4.4710028171539307e-01" purity="4.3918734788894653e-01" nType="0">
          <Node pos="l" depth="2" NCoef="0" IVar="-1" Cut="0.0000000000000000e+00" cType="1" res="-1.8757302314043045e-03" rms="4.4565859436988831e-01" purity="4.0222814679145813e-01" nType="-99"/>
          <Node pos="r" depth="2" NCoef="0" IVar="-1" Cut="0.0000000000000000e+00" cType="1" res="2.1250369027256966e-03" rms="4.5233738422393799e-01" purity="6.5468299388885498e-01" nType="-99"/>
        </Node>
      </Node>
    </BinaryTree>
    <BinaryTree type="DecisionTree" boostWeight="1.0000000000000000e+00" itree="357">
      <Node pos="s" depth="0" NCoef="0" IVar="1" Cut="9.7952347993850708e-01" cType="1" res="1.8220607889816165e-03" rms="4.4937604665756226e-01" purity="5.0224053859710693e-01" nType="0">
        <Node pos="l" depth="1" NCoef="0" IVar="0" Cut="3.9484939575195312e+00" cType="1" res="-1.7241787863895297e-03" rms="4.5515745878219604e-01" purity="4.7709482908248901e-01" nType="0">
          <Node pos="l" depth="2" NCoef="0" IVar="-1" Cut="0.0000000000000000e+00" cType="1" res="-4.0577753679826856e-04" rms="4.5995476841926575e-01" purity="4.4625067710876465e-01" nType="-99"/>
          <Node pos="r" depth="2" NCoef="0" IVar="-1" Cut="0.0000000000000000e+00" cType="1" res="2.2912668064236641e-03" rms="4.0751096606254578e-01" purity="7.5579285621643066e-01" nType="-99"/>
        </Node>
        <Node pos="r" depth="1" NCoef="0" IVar="-1" Cut="0.0000000000000000e+00" cType="1" res="3.7890591192990541e-03" rms="3.5955473780632019e-01" purity="8.3990311622619629e-01" nType="-99"/>
      </Node>
    </BinaryTree>
    <BinaryTree type="DecisionTree" boostWeight="1.0000000000000000e+00" itree="358">
      <Node pos="s" depth="0" NCoef="0" IVar="2" Cut="3.1213906860351562e+02" cType="1" res="-3.4483349882066250e-03" rms="4.4999021291732788e-01" purity="4.9550890922546387e-01" nType="0">
        <Node pos="l" depth="1" NCoef="0" IVar="3" Cut="2.8048867359757423e-02" cType="1" res="-1.3969381339848042e-02" rms="4.4613385200500488e-01" purity="3.8924905657768250e-01" nType="0">
          <Node pos="l" depth="2" NCoef="0" IVar="-1" Cut="0.0000000000000000e+00" cType="1" res="-2.4512396194040775e-03" rms="4.3223950266838074e-01" purity="3.4717100858688354e-01" nType="-99"/>
          <Node pos="r" depth="2" NCoef="0" IVar="-1" Cut="0.0000000000000000e+00" cType="1" res="1.8534086120780557e-04" rms="4.5982816815376282e-01" purity="4.3385511636734009e-01" nType="-99"/>
        </Node>
        <Node pos="r" depth="1" NCoef="0" IVar="4" Cut="5.8683878183364868e-01" cType="1" res="7.8137265518307686e-03" rms="4.5381170511245728e-01" purity="6.0925275087356567e-01" nType="0">
          <Node pos="l" depth="2" NCoef="0" IVar="-1" Cut="0.0000000000000000e+00" cType="1" res="4.5798977225786075e-05" rms="4.5874392986297607e-01" purity="5.8815425634384155e-01" nType="-99"/>
          <Node pos="r" depth="2" NCoef="0" IVar="-1" Cut="0.0000000000000000e+00" cType="1" res="3.3798590302467346e-03" rms="4.1923117637634277e-01" purity="7.4016517400741577e-01" nType="-99"/>
        </Node>
      </Node>
    </BinaryTree>
    <BinaryTree type="DecisionTree" boostWeight="1.0000000000000000e+00" itree="359">
      <Node pos="s" depth="0" NCoef="0" IVar="4" Cut="4.1120749711990356e-01" cType="1" res="2.4178724270313978e-03" rms="4.5267692208290100e-01" purity="5.0165265798568726e-01" nType="0">
        <Node pos="l" depth="1" NCoef="0" IVar="6" Cut="1.8169124126434326e+00" cType="1" res="-1.1417868547141552e-02" rms="4.5289093255996704e-01" purity="4.6753859519958496e-01" nType="0">
          <Node pos="l" depth="2" NCoef="0" IVar="-1" Cut="0.0000000000000000e+00" cType="1" res="-1.1385891120880842e-03" rms="4.5431661605834961e-01" purity="4.7355857491493225e-01" nType="-99"/>
          <Node pos="r" depth="2" NCoef="0" IVar="-1" Cut="0.0000000000000000e+00" cType="1" res="2.0344036165624857e-03" rms="4.3895807862281799e-01" purity="4.1702166199684143e-01" nType="-99"/>
        </Node>
        <Node pos="r" depth="1" NCoef="0" IVar="2" Cut="2.1698348999023438e+02" cType="1" res="1.8428483977913857e-02" rms="4.5190075039863586e-01" purity="5.4112917184829712e-01" nType="0">
          <Node pos="l" depth="2" NCoef="0" IVar="-1" Cut="0.0000000000000000e+00" cType="1" res="-1.7582556465640664e-03" rms="4.2395883798599243e-01" purity="2.8513747453689575e-01" nType="-99"/>
          <Node pos="r" depth="2" NCoef="0" IVar="-1" Cut="0.0000000000000000e+00" cType="1" res="1.6594331245869398e-03" rms="4.5621424913406372e-01" purity="5.8503890037536621e-01" nType="-99"/>
        </Node>
      </Node>
    </BinaryTree>
    <BinaryTree type="DecisionTree" boostWeight="1.0000000000000000e+00" itree="360">
      <Node pos="s" depth="0" NCoef="0" IVar="0" Cut="2.0020015537738800e-01" cType="1" res="-6.6482964030001312e-05" rms="4.5341479778289795e-01" purity="4.9856048822402954e-01" nType="0">
        <Node pos="l" depth="1" NCoef="0" IVar="6" Cut="1.0744543075561523e+00" cType="1" res="-3.0326329171657562e-02" rms="4.2746809124946594e-01" purity="2.8180968761444092e-01" nType="0">
          <Node pos="l" depth="2" NCoef="0" IVar="-1" Cut="0.0000000000000000e+00" cType="1" res="-9.4539014389738441e-04" rms="4.6178483963012695e-01" purity="3.4564548730850220e-01" nType="-99"/>
          <Node pos="r" depth="2" NCoef="0" IVar="-1" Cut="0.0000000000000000e+00" cType="1" res="-4.4432035647332668e-03" rms="4.0030390024185181e-01" purity="2.3569966852664948e-01" nType="-99"/>
        </Node>
        <Node pos="r" depth="1" NCoef="0" IVar="7" Cut="7.5411909818649292e-01" cType="1" res="4.5759328640997410e-03" rms="4.5708802342414856e-01" purity="5.3181409835815430e-01" nType="0">
          <Node pos="l" depth="2" NCoef="0" IVar="-1" Cut="0.0000000000000000e+00" cType="1" res="-1.8696369079407305e-04" rms="4.6126571297645569e-01" purity="4.9784252047538757e-01" nType="-99"/>
          <Node pos="r" depth="2" NCoef="0" IVar="-1" Cut="0.0000000000000000e+00" cType="1" res="1.3899577315896749e-03" rms="4.4699859619140625e-01" purity="6.0911327600479126e-01" nType="-99"/>
        </Node>
      </Node>
    </BinaryTree>
    <BinaryTree type="DecisionTree" boostWeight="1.0000000000000000e+00" itree="361">
      <Node pos="s" depth="0" NCoef="0" IVar="6" Cut="7.5712192058563232e-01" cType="1" res="-3.7509368848986924e-04" rms="4.5194235444068909e-01" purity="4.9903258681297302e-01" nType="0">
        <Node pos="l" depth="1" NCoef="0" IVar="2" Cut="3.5578109741210938e+02" cType="1" res="2.4129610508680344e-02" rms="4.5432764291763306e-01" purity="5.9085386991500854e-01" nType="0">
          <Node pos="l" depth="2" NCoef="0" IVar="-1" Cut="0.0000000000000000e+00" cType="1" res="3.3939604181796312e-03" rms="4.6261966228485107e-01" purity="5.3121292591094971e-01" nType="-99"/>
          <Node pos="r" depth="2" NCoef="0" IVar="-1" Cut="0.0000000000000000e+00" cType="1" res="-8.6572094005532563e-05" rms="4.4468477368354797e-01" purity="6.4854985475540161e-01" nType="-99"/>
        </Node>
        <Node pos="r" depth="1" NCoef="0" IVar="4" Cut="6.5582168102264404e-01" cType="1" res="-5.4895463399589062e-03" rms="4.5127511024475098e-01" purity="4.7986829280853271e-01" nType="0">
          <Node pos="l" depth="2" NCoef="0" IVar="-1" Cut="0.0000000000000000e+00" cType="1" res="-7.5284618651494384e-04" rms="4.5246735215187073e-01" purity="4.7049114108085632e-01" nType="-99"/>
          <Node pos="r" depth="2" NCoef="0" IVar="-1" Cut="0.0000000000000000e+00" cType="1" res="2.2469772957265377e-03" rms="4.4001674652099609e-01" purity="5.5289870500564575e-01" nType="-99"/>
        </Node>
      </Node>
    </BinaryTree>
    <BinaryTree type="DecisionTree" boostWeight="1.0000000000000000e+00" itree="362">
      <Node pos="s" depth="0" NCoef="0" IVar="4" Cut="6.8670612573623657e-01" cType="1" res="2.5293370708823204e-03" rms="4.5040825009346008e-01" purity="5.0038504600524902e-01" nType="0">
        <Node pos="l" depth="1" NCoef="0" IVar="5" Cut="2.6944284327328205e-03" cType="1" res="-1.3792682439088821e-03" rms="4.5104539394378662e-01" purity="4.9395793676376343e-01" nType="0">
          <Node pos="l" depth="2" NCoef="0" IVar="-1" Cut="0.0000000000000000e+00" cType="1" res="-4.4055792386643589e-04" rms="4.5027863979339600e-01" purity="5.1673460006713867e-01" nType="-99"/>
          <Node pos="r" depth="2" NCoef="0" IVar="-1" Cut="0.0000000000000000e+00" cType="1" res="1.3077381299808621e-03" rms="4.5361924171447754e-01" purity="4.0174081921577454e-01" nType="-99"/>
        </Node>
        <Node pos="r" depth="1" NCoef="0" IVar="-1" Cut="0.0000000000000000e+00" cType="1" res="3.3450510818511248e-03" rms="4.3993186950683594e-01" purity="5.7785874605178833e-01" nType="-99"/>
      </Node>
    </BinaryTree>
    <BinaryTree type="DecisionTree" boostWeight="1.0000000000000000e+00" itree="363">
      <Node pos="s" depth="0" NCoef="0" IVar="6" Cut="1.2913521528244019e+00" cType="1" res="3.3133295364677906e-03" rms="4.5250868797302246e-01" purity="5.0360637903213501e-01" nType="0">
        <Node pos="l" depth="1" NCoef="0" IVar="2" Cut="3.4827755737304688e+02" cType="1" res="1.1242588050663471e-02" rms="4.5844486355781555e-01" purity="5.4532641172409058e-01" nType="0">
          <Node pos="l" depth="2" NCoef="0" IVar="-1" Cut="0.0000000000000000e+00" cType="1" res="1.5145356301218271e-03" rms="4.6169596910476685e-01" purity="4.8144924640655518e-01" nType="-99"/>
          <Node pos="r" depth="2" NCoef="0" IVar="-1" Cut="0.0000000000000000e+00" cType="1" res="-1.3546686386689544e-04" rms="4.5387423038482666e-01" purity="6.2769097089767456e-01" nType="-99"/>
        </Node>
        <Node pos="r" depth="1" NCoef="0" IVar="2" Cut="3.1029598999023438e+02" cType="1" res="-9.0083731338381767e-03" rms="4.4284477829933167e-01" purity="4.3877527117729187e-01" nType="0">
          <Node pos="l" depth="2" NCoef="0" IVar="-1" Cut="0.0000000000000000e+00" cType="1" res="-2.4416998494416475e-03" rms="4.3489173054695129e-01" purity="3.4392207860946655e-01" nType="-99"/>
          <Node pos="r" depth="2" NCoef="0" IVar="-1" Cut="0.0000000000000000e+00" cType="1" res="1.7447051359340549e-03" rms="4.5428326725959778e-01" purity="6.0556519031524658e-01" nType="-99"/>
        </Node>
      </Node>
    </BinaryTree>
    <BinaryTree type="DecisionTree" boostWeight="1.0000000000000000e+00" itree="364">
      <Node pos="s" depth="0" NCoef="0" IVar="2" Cut="3.4803479003906250e+02" cType="1" res="1.0752843227237463e-03" rms="4.5254716277122498e-01" purity="4.9898910522460938e-01" nType="0">
        <Node pos="l" depth="1" NCoef="0" IVar="6" Cut="1.0748577117919922e+00" cType="1" res="-8.6970282718539238e-03" rms="4.5211505889892578e-01" purity="4.2040929198265076e-01" nType="0">
          <Node pos="l" depth="2" NCoef="0" IVar="-1" Cut="0.0000000000000000e+00" cType="1" res="5.2780454279854894e-04" rms="4.5958623290061951e-01" purity="4.7583156824111938e-01" nType="-99"/>
          <Node pos="r" depth="2" NCoef="0" IVar="-1" Cut="0.0000000000000000e+00" cType="1" res="-1.3576655182987452e-03" rms="4.4780015945434570e-01" purity="3.9057293534278870e-01" nType="-99"/>
        </Node>
        <Node pos="r" depth="1" NCoef="0" IVar="6" Cut="1.1947685480117798e+00" cType="1" res="1.8041789531707764e-02" rms="4.5279574394226074e-01" purity="6.3541781902313232e-01" nType="0">
          <Node pos="l" depth="2" NCoef="0" IVar="-1" Cut="0.0000000000000000e+00" cType="1" res="7.5067211582791060e-05" rms="4.5321509242057800e-01" purity="6.3135266304016113e-01" nType="-99"/>
          <Node pos="r" depth="2" NCoef="0" IVar="-1" Cut="0.0000000000000000e+00" cType="1" res="3.2993603963404894e-03" rms="4.5000725984573364e-01" purity="6.4364802837371826e-01" nType="-99"/>
        </Node>
      </Node>
    </BinaryTree>
    <BinaryTree type="DecisionTree" boostWeight="1.0000000000000000e+00" itree="365">
      <Node pos="s" depth="0" NCoef="0" IVar="0" Cut="5.7462418079376221e-01" cType="1" res="1.9766376353800297e-03" rms="4.5013535022735596e-01" purity="5.0198012590408325e-01" nType="0">
        <Node pos="l" depth="1" NCoef="0" IVar="7" Cut="6.1766362190246582e-01" cType="1" res="-1.9302021712064743e-02" rms="4.3644374608993530e-01" purity="3.1087881326675415e-01" nType="0">
          <Node pos="l" depth="2" NCoef="0" IVar="-1" Cut="0.0000000000000000e+00" cType="1" res="6.8883702624589205e-05" rms="4.2913243174552917e-01" purity="2.8725934028625488e-01" nType="-99"/>
          <Node pos="r" depth="2" NCoef="0" IVar="-1" Cut="0.0000000000000000e+00" cType="1" res="-2.7993251569569111e-03" rms="4.4118076562881470e-01" purity="3.2831501960754395e-01" nType="-99"/>
        </Node>
        <Node pos="r" depth="1" NCoef="0" IVar="6" Cut="1.9223535060882568e+00" cType="1" res="7.9601164907217026e-03" rms="4.5373126864433289e-01" purity="5.5571711063385010e-01" nType="0">
          <Node pos="l" depth="2" NCoef="0" IVar="-1" Cut="0.0000000000000000e+00" cType="1" res="3.0604348285123706e-04" rms="4.5398679375648499e-01" purity="5.5944699048995972e-01" nType="-99"/>
          <Node pos="r" depth="2" NCoef="0" IVar="-1" Cut="0.0000000000000000e+00" cType="1" res="3.5513762850314379e-03" rms="4.4823980331420898e-01" purity="5.0844210386276245e-01" nType="-99"/>
        </Node>
      </Node>
    </BinaryTree>
    <BinaryTree type="DecisionTree" boostWeight="1.0000000000000000e+00" itree="366">
      <Node pos="s" depth="0" NCoef="0" IVar="7" Cut="3.7779089808464050e-01" cType="1" res="6.0876468196511269e-03" rms="4.5129972696304321e-01" purity="5.0721931457519531e-01" nType="0">
        <Node pos="l" depth="1" NCoef="0" IVar="-1" Cut="0.0000000000000000e+00" cType="1" res="2.7345076669007540e-03" rms="4.6058341860771179e-01" purity="4.9581485986709595e-01" nType="-99"/>
        <Node pos="r" depth="1" NCoef="0" IVar="2" Cut="5.6085913085937500e+02" cType="1" res="3.4897590521723032e-03" rms="4.5045444369316101e-01" purity="5.0812232494354248e-01" nType="0">
          <Node pos="l" depth="2" NCoef="0" IVar="-1" Cut="0.0000000000000000e+00" cType="1" res="5.1823579269694164e-05" rms="4.5219105482101440e-01" purity="4.9139499664306641e-01" nType="-99"/>
          <Node pos="r" depth="2" NCoef="0" IVar="-1" Cut="0.0000000000000000e+00" cType="1" res="2.6911280583590269e-03" rms="4.2513692378997803e-01" purity="7.2935032844543457e-01" nType="-99"/>
        </Node>
      </Node>
    </BinaryTree>
    <BinaryTree type="DecisionTree" boostWeight="1.0000000000000000e+00" itree="367">
      <Node pos="s" depth="0" NCoef="0" IVar="0" Cut="3.7468571662902832e+00" cType="1" res="1.0640784166753292e-03" rms="4.4969731569290161e-01" purity="5.0087249279022217e-01" nType="0">
        <Node pos="l" depth="1" NCoef="0" IVar="5" Cut="3.6132340319454670e-03" cType="1" res="-3.7339446134865284e-03" rms="4.5565685629844666e-01" purity="4.5915159583091736e-01" nType="0">
          <Node pos="l" depth="2" NCoef="0" IVar="-1" Cut="0.0000000000000000e+00" cType="1" res="-4.8363357200287282e-04" rms="4.5502558350563049e-01" purity="4.6222436428070068e-01" nType="-99"/>
          <Node pos="r" depth="2" NCoef="0" IVar="-1" Cut="0.0000000000000000e+00" cType="1" res="2.8882513288408518e-03" rms="4.6258100867271423e-01" purity="4.1400086879730225e-01" nType="-99"/>
        </Node>
        <Node pos="r" depth="1" NCoef="0" IVar="5" Cut="4.9725413555279374e-04" cType="1" res="3.1240463256835938e-02" rms="4.0894743800163269e-01" purity="7.6326912641525269e-01" nType="0">
          <Node pos="l" depth="2" NCoef="0" IVar="-1" Cut="0.0000000000000000e+00" cType="1" res="-9.8358621471561491e-05" rms="3.8262474536895752e-01" purity="8.0060756206512451e-01" nType="-99"/>
          <Node pos="r" depth="2" NCoef="0" IVar="-1" Cut="0.0000000000000000e+00" cType="1" res="3.7088373210281134e-03" rms="4.3032333254814148e-01" purity="7.2759354114532471e-01" nType="-99"/>
        </Node>
      </Node>
    </BinaryTree>
    <BinaryTree type="DecisionTree" boostWeight="1.0000000000000000e+00" itree="368">
      <Node pos="s" depth="0" NCoef="0" IVar="4" Cut="1.2701009213924408e-01" cType="1" res="5.1319389604032040e-03" rms="4.5218554139137268e-01" purity="5.0327861309051514e-01" nType="0">
        <Node pos="l" depth="1" NCoef="0" IVar="-1" Cut="0.0000000000000000e+00" cType="1" res="-3.4606261178851128e-03" rms="4.4965505599975586e-01" purity="3.8453111052513123e-01" nType="-99"/>
        <Node pos="r" depth="1" NCoef="0" IVar="5" Cut="5.1618978613987565e-04" cType="1" res="8.4216482937335968e-03" rms="4.5215469598770142e-01" purity="5.1102387905120850e-01" nType="0">
          <Node pos="l" depth="2" NCoef="0" IVar="-1" Cut="0.0000000000000000e+00" cType="1" res="-7.5820810161530972e-04" rms="4.3043208122253418e-01" purity="6.4272093772888184e-01" nType="-99"/>
          <Node pos="r" depth="2" NCoef="0" IVar="-1" Cut="0.0000000000000000e+00" cType="1" res="1.1415678309276700e-03" rms="4.6078237891197205e-01" purity="4.5546591281890869e-01" nType="-99"/>
        </Node>
      </Node>
    </BinaryTree>
    <BinaryTree type="DecisionTree" boostWeight="1.0000000000000000e+00" itree="369">
      <Node pos="s" depth="0" NCoef="0" IVar="4" Cut="5.0017195940017700e-01" cType="1" res="8.1859814235940576e-04" rms="4.5190337300300598e-01" purity="4.9820506572723389e-01" nType="0">
        <Node pos="l" depth="1" NCoef="0" IVar="5" Cut="3.3551368396729231e-03" cType="1" res="-7.5464001856744289e-03" rms="4.5252636075019836e-01" purity="4.7921052575111389e-01" nType="0">
          <Node pos="l" depth="2" NCoef="0" IVar="-1" Cut="0.0000000000000000e+00" cType="1" res="-8.5536041297018528e-04" rms="4.5100894570350647e-01" purity="4.8663237690925598e-01" nType="-99"/>
          <Node pos="r" depth="2" NCoef="0" IVar="-1" Cut="0.0000000000000000e+00" cType="1" res="2.4074087850749493e-03" rms="4.6462035179138184e-01" purity="4.0898710489273071e-01" nType="-99"/>
        </Node>
        <Node pos="r" depth="1" NCoef="0" IVar="2" Cut="2.5825747680664062e+02" cType="1" res="1.9504046067595482e-02" rms="4.4994735717773438e-01" purity="5.4063439369201660e-01" nType="0">
          <Node pos="l" depth="2" NCoef="0" IVar="-1" Cut="0.0000000000000000e+00" cType="1" res="-5.4916937369853258e-04" rms="4.4931793212890625e-01" purity="3.5779464244842529e-01" nType="-99"/>
          <Node pos="r" depth="2" NCoef="0" IVar="-1" Cut="0.0000000000000000e+00" cType="1" res="2.2756138350814581e-03" rms="4.4959333539009094e-01" purity="6.4977145195007324e-01" nType="-99"/>
        </Node>
      </Node>
    </BinaryTree>
    <BinaryTree type="DecisionTree" boostWeight="1.0000000000000000e+00" itree="370">
      <Node pos="s" depth="0" NCoef="0" IVar="0" Cut="7.6872184872627258e-02" cType="1" res="7.5716222636401653e-03" rms="4.5070874691009521e-01" purity="5.0817704200744629e-01" nType="0">
        <Node pos="l" depth="1" NCoef="0" IVar="4" Cut="3.7175145745277405e-01" cType="1" res="-2.4882281199097633e-02" rms="4.2498680949211121e-01" purity="2.8440380096435547e-01" nType="0">
          <Node pos="l" depth="2" NCoef="0" IVar="-1" Cut="0.0000000000000000e+00" cType="1" res="-5.1104226149618626e-03" rms="4.0734121203422546e-01" purity="2.4213333427906036e-01" nType="-99"/>
          <Node pos="r" depth="2" NCoef="0" IVar="-1" Cut="0.0000000000000000e+00" cType="1" res="-1.7778533219825476e-04" rms="4.3851193785667419e-01" purity="3.2123696804046631e-01" nType="-99"/>
        </Node>
        <Node pos="r" depth="1" NCoef="0" IVar="5" Cut="3.3359590452164412e-03" cType="1" res="1.1507931165397167e-02" rms="4.5357149839401245e-01" purity="5.3531831502914429e-01" nType="0">
          <Node pos="l" depth="2" NCoef="0" IVar="-1" Cut="0.0000000000000000e+00" cType="1" res="5.8168894611299038e-04" rms="4.5177584886550903e-01" purity="5.4146438837051392e-01" nType="-99"/>
          <Node pos="r" depth="2" NCoef="0" IVar="-1" Cut="0.0000000000000000e+00" cType="1" res="3.0628191307187080e-03" rms="4.7229632735252380e-01" purity="4.6470087766647339e-01" nType="-99"/>
        </Node>
      </Node>
    </BinaryTree>
    <BinaryTree type="DecisionTree" boostWeight="1.0000000000000000e+00" itree="371">
      <Node pos="s" depth="0" NCoef="0" IVar="6" Cut="1.4694288969039917e+00" cType="1" res="8.5274846060201526e-04" rms="4.4933572411537170e-01" purity="5.0118368864059448e-01" nType="0">
        <Node pos="l" depth="1" NCoef="0" IVar="1" Cut="8.6382883787155151e-01" cType="1" res="6.4002433791756630e-03" rms="4.5449501276016235e-01" purity="5.3241759538650513e-01" nType="0">
          <Node pos="l" depth="2" NCoef="0" IVar="-1" Cut="0.0000000000000000e+00" cType="1" res="-1.0984650580212474e-03" rms="4.6093854308128357e-01" purity="3.7350848317146301e-01" nType="-99"/>
          <Node pos="r" depth="2" NCoef="0" IVar="-1" Cut="0.0000000000000000e+00" cType="1" res="6.9597305264323950e-04" rms="4.5323923230171204e-01" purity="5.6057941913604736e-01" nType="-99"/>
        </Node>
        <Node pos="r" depth="1" NCoef="0" IVar="7" Cut="7.5118029117584229e-01" cType="1" res="-1.4212917536497116e-02" rms="4.3465864658355713e-01" purity="4.1635990142822266e-01" nType="0">
          <Node pos="l" depth="2" NCoef="0" IVar="-1" Cut="0.0000000000000000e+00" cType="1" res="-2.5893263518810272e-03" rms="4.3246302008628845e-01" purity="3.7235844135284424e-01" nType="-99"/>
          <Node pos="r" depth="2" NCoef="0" IVar="-1" Cut="0.0000000000000000e+00" cType="1" res="2.5073029100894928e-03" rms="4.3681582808494568e-01" purity="5.4119950532913208e-01" nType="-99"/>
        </Node>
      </Node>
    </BinaryTree>
    <BinaryTree type="DecisionTree" boostWeight="1.0000000000000000e+00" itree="372">
      <Node pos="s" depth="0" NCoef="0" IVar="5" Cut="3.2070260494947433e-03" cType="1" res="3.3031317871063948e-03" rms="4.5075377821922302e-01" purity="5.0285142660140991e-01" nType="0">
        <Node pos="l" depth="1" NCoef="0" IVar="4" Cut="5.1133400201797485e-01" cType="1" res="-6.4948201179504395e-04" rms="4.4845387339591980e-01" purity="5.1461070775985718e-01" nType="0">
          <Node pos="l" depth="2" NCoef="0" IVar="-1" Cut="0.0000000000000000e+00" cType="1" res="-5.7233421830460429e-04" rms="4.4887909293174744e-01" purity="4.9656334519386292e-01" nType="-99"/>
          <Node pos="r" depth="2" NCoef="0" IVar="-1" Cut="0.0000000000000000e+00" cType="1" res="1.1875231284648180e-03" rms="4.4694113731384277e-01" purity="5.5785375833511353e-01" nType="-99"/>
        </Node>
        <Node pos="r" depth="1" NCoef="0" IVar="4" Cut="4.0523740649223328e-01" cType="1" res="3.2682433724403381e-02" rms="4.6644565463066101e-01" purity="4.1544577479362488e-01" nType="0">
          <Node pos="l" depth="2" NCoef="0" IVar="-1" Cut="0.0000000000000000e+00" cType="1" res="4.3554166331887245e-03" rms="4.5850008726119995e-01" purity="4.3411326408386230e-01" nType="-99"/>
          <Node pos="r" depth="2" NCoef="0" IVar="-1" Cut="0.0000000000000000e+00" cType="1" res="-1.4284213830251247e-04" rms="4.7340783476829529e-01" purity="3.9321070909500122e-01" nType="-99"/>
        </Node>
      </Node>
    </BinaryTree>
    <BinaryTree type="DecisionTree" boostWeight="1.0000000000000000e+00" itree="373">
      <Node pos="s" depth="0" NCoef="0" IVar="5" Cut="7.7056733425706625e-04" cType="1" res="3.5556452348828316e-03" rms="4.5232126116752625e-01" purity="5.0270992517471313e-01" nType="0">
        <Node pos="l" depth="1" NCoef="0" IVar="1" Cut="9.7912406921386719e-01" cType="1" res="-9.5487078651785851e-03" rms="4.3749162554740906e-01" purity="6.1236667633056641e-01" nType="0">
          <Node pos="l" depth="2" NCoef="0" IVar="-1" Cut="0.0000000000000000e+00" cType="1" res="-1.2648802949115634e-03" rms="4.5050886273384094e-01" purity="5.6554818153381348e-01" nType="-99"/>
          <Node pos="r" depth="2" NCoef="0" IVar="-1" Cut="0.0000000000000000e+00" cType="1" res="2.2096962202340364e-03" rms="3.7093475461006165e-01" purity="8.2319551706314087e-01" nType="-99"/>
        </Node>
        <Node pos="r" depth="1" NCoef="0" IVar="2" Cut="2.1627943420410156e+02" cType="1" res="1.1429578065872192e-02" rms="4.6082329750061035e-01" purity="4.3682113289833069e-01" nType="0">
          <Node pos="l" depth="2" NCoef="0" IVar="-1" Cut="0.0000000000000000e+00" cType="1" res="-2.1825351286679506e-03" rms="3.9740955829620361e-01" purity="2.1234093606472015e-01" nType="-99"/>
          <Node pos="r" depth="2" NCoef="0" IVar="-1" Cut="0.0000000000000000e+00" cType="1" res="1.0813743574544787e-03" rms="4.6923202276229858e-01" purity="4.6977388858795166e-01" nType="-99"/>
        </Node>
      </Node>
    </BinaryTree>
    <BinaryTree type="DecisionTree" boostWeight="1.0000000000000000e+00" itree="374">
      <Node pos="s" depth="0" NCoef="0" IVar="4" Cut="6.7800337076187134e-01" cType="1" res="-2.1852536592632532e-03" rms="4.5005923509597778e-01" purity="4.9706310033798218e-01" nType="0">
        <Node pos="l" depth="1" NCoef="0" IVar="7" Cut="3.5873830318450928e-01" cType="1" res="-5.5096657015383244e-03" rms="4.5041555166244507e-01" purity="4.9111312627792358e-01" nType="0">
          <Node pos="l" depth="2" NCoef="0" IVar="-1" Cut="0.0000000000000000e+00" cType="1" res="2.6520357932895422e-03" rms="4.7353851795196533e-01" purity="4.8772880434989929e-01" nType="-99"/>
          <Node pos="r" depth="2" NCoef="0" IVar="-1" Cut="0.0000000000000000e+00" cType="1" res="-5.7957746321335435e-04" rms="4.4883996248245239e-01" purity="4.9131911993026733e-01" nType="-99"/>
        </Node>
        <Node pos="r" depth="1" NCoef="0" IVar="-1" Cut="0.0000000000000000e+00" cType="1" res="2.3125987499952316e-03" rms="4.4469332695007324e-01" purity="5.6056499481201172e-01" nType="-99"/>
      </Node>
    </BinaryTree>
    <BinaryTree type="DecisionTree" boostWeight="1.0000000000000000e+00" itree="375">
      <Node pos="s" depth="0" NCoef="0" IVar="4" Cut="6.7031025886535645e-01" cType="1" res="-2.2499642800539732e-03" rms="4.5176529884338379e-01" purity="4.9841594696044922e-01" nType="0">
        <Node pos="l" depth="1" NCoef="0" IVar="4" Cut="5.5302166938781738e-01" cType="1" res="-6.1772204935550690e-03" rms="4.5199963450431824e-01" purity="4.9188369512557983e-01" nType="0">
          <Node pos="l" depth="2" NCoef="0" IVar="-1" Cut="0.0000000000000000e+00" cType="1" res="-1.2579403119161725e-04" rms="4.5221742987632751e-01" purity="4.9167844653129578e-01" nType="-99"/>
          <Node pos="r" depth="2" NCoef="0" IVar="-1" Cut="0.0000000000000000e+00" cType="1" res="-2.2595524787902832e-03" rms="4.4999048113822937e-01" purity="4.9302867054939270e-01" nType="-99"/>
        </Node>
        <Node pos="r" depth="1" NCoef="0" IVar="-1" Cut="0.0000000000000000e+00" cType="1" res="2.4945514742285013e-03" rms="4.4771003723144531e-01" purity="5.6168568134307861e-01" nType="-99"/>
      </Node>
    </BinaryTree>
    <BinaryTree type="DecisionTree" boostWeight="1.0000000000000000e+00" itree="376">
      <Node pos="s" depth="0" NCoef="0" IVar="3" Cut="2.3018495738506317e-01" cType="1" res="-9.3929743161424994e-04" rms="4.5208054780960083e-01" purity="4.9684202671051025e-01" nType="0">
        <Node pos="l" depth="1" NCoef="0" IVar="2" Cut="3.8352902221679688e+02" cType="1" res="-3.6673634313046932e-03" rms="4.5139855146408081e-01" purity="4.9111509323120117e-01" nType="0">
          <Node pos="l" depth="2" NCoef="0" IVar="-1" Cut="0.0000000000000000e+00" cType="1" res="-6.7547737853601575e-04" rms="4.5098021626472473e-01" purity="4.3448740243911743e-01" nType="-99"/>
          <Node pos="r" depth="2" NCoef="0" IVar="-1" Cut="0.0000000000000000e+00" cType="1" res="7.0534850237891078e-04" rms="4.5219582319259644e-01" purity="6.4228510856628418e-01" nType="-99"/>
        </Node>
        <Node pos="r" depth="1" NCoef="0" IVar="-1" Cut="0.0000000000000000e+00" cType="1" res="2.2555263713002205e-03" rms="4.5931231975555420e-01" purity="5.7040685415267944e-01" nType="-99"/>
      </Node>
    </BinaryTree>
    <BinaryTree type="DecisionTree" boostWeight="1.0000000000000000e+00" itree="377">
      <Node pos="s" depth="0" NCoef="0" IVar="3" Cut="2.4595811963081360e-01" cType="1" res="-2.9663422610610723e-03" rms="4.5293423533439636e-01" purity="4.9145391583442688e-01" nType="0">
        <Node pos="l" depth="1" NCoef="0" IVar="0" Cut="4.2060680389404297e+00" cType="1" res="-5.2526770159602165e-03" rms="4.5191311836242676e-01" purity="4.8650285601615906e-01" nType="0">
          <Node pos="l" depth="2" NCoef="0" IVar="-1" Cut="0.0000000000000000e+00" cType="1" res="-5.5634125601500273e-04" rms="4.5640677213668823e-01" purity="4.5755124092102051e-01" nType="-99"/>
          <Node pos="r" depth="2" NCoef="0" IVar="-1" Cut="0.0000000000000000e+00" cType="1" res="1.4231752138584852e-03" rms="4.0294733643531799e-01" purity="7.7864408493041992e-01" nType="-99"/>
        </Node>
        <Node pos="r" depth="1" NCoef="0" IVar="-1" Cut="0.0000000000000000e+00" cType="1" res="2.4165809154510498e-03" rms="4.6876439452171326e-01" purity="5.7886260747909546e-01" nType="-99"/>
      </Node>
    </BinaryTree>
    <BinaryTree type="DecisionTree" boostWeight="1.0000000000000000e+00" itree="378">
      <Node pos="s" depth="0" NCoef="0" IVar="7" Cut="5.1419526338577271e-01" cType="1" res="6.3599613495171070e-03" rms="4.5249918103218079e-01" purity="5.0530540943145752e-01" nType="0">
        <Node pos="l" depth="1" NCoef="0" IVar="0" Cut="1.9581257104873657e+00" cType="1" res="-1.2415518984198570e-02" rms="4.5019131898880005e-01" purity="4.2666727304458618e-01" nType="0">
          <Node pos="l" depth="2" NCoef="0" IVar="-1" Cut="0.0000000000000000e+00" cType="1" res="3.8344887434504926e-04" rms="4.4494414329528809e-01" purity="3.4212130308151245e-01" nType="-99"/>
          <Node pos="r" depth="2" NCoef="0" IVar="-1" Cut="0.0000000000000000e+00" cType="1" res="-2.3687744978815317e-03" rms="4.5609003305435181e-01" purity="5.3898572921752930e-01" nType="-99"/>
        </Node>
        <Node pos="r" depth="1" NCoef="0" IVar="4" Cut="2.1569874882698059e-01" cType="1" res="1.2679026462137699e-02" rms="4.5309832692146301e-01" purity="5.3177177906036377e-01" nType="0">
          <Node pos="l" depth="2" NCoef="0" IVar="-1" Cut="0.0000000000000000e+00" cType="1" res="-1.7852601595222950e-03" rms="4.6333268284797668e-01" purity="4.8046550154685974e-01" nType="-99"/>
          <Node pos="r" depth="2" NCoef="0" IVar="-1" Cut="0.0000000000000000e+00" cType="1" res="1.1191922239959240e-03" rms="4.5203077793121338e-01" purity="5.3629851341247559e-01" nType="-99"/>
        </Node>
      </Node>
    </BinaryTree>
    <BinaryTree type="DecisionTree" boostWeight="1.0000000000000000e+00" itree="379">
      <Node pos="s" depth="0" NCoef="0" IVar="5" Cut="3.6132272798568010e-03" cType="1" res="-2.3413773160427809e-03" rms="4.5261433720588684e-01" purity="4.9754980206489563e-01" nType="0">
        <Node pos="l" depth="1" NCoef="0" IVar="3" Cut="2.3198580741882324e-01" cType="1" res="-5.0157792866230011e-03" rms="4.5170685648918152e-01" purity="5.0232779979705811e-01" nType="0">
          <Node pos="l" depth="2" NCoef="0" IVar="-1" Cut="0.0000000000000000e+00" cType="1" res="-5.6066358229145408e-04" rms="4.5013621449470520e-01" purity="4.9617955088615417e-01" nType="-99"/>
          <Node pos="r" depth="2" NCoef="0" IVar="-1" Cut="0.0000000000000000e+00" cType="1" res="2.1252338774502277e-03" rms="4.7076892852783203e-01" purity="5.8511179685592651e-01" nType="-99"/>
        </Node>
        <Node pos="r" depth="1" NCoef="0" IVar="-1" Cut="0.0000000000000000e+00" cType="1" res="2.6769526302814484e-03" rms="4.6419289708137512e-01" purity="4.2570221424102783e-01" nType="-99"/>
      </Node>
    </BinaryTree>
    <BinaryTree type="DecisionTree" boostWeight="1.0000000000000000e+00" itree="380">
      <Node pos="s" depth="0" NCoef="0" IVar="1" Cut="8.9468401670455933e-01" cType="1" res="3.3394439378753304e-04" rms="4.4912993907928467e-01" purity="5.0048083066940308e-01" nType="0">
        <Node pos="l" depth="1" NCoef="0" IVar="5" Cut="1.4128852635622025e-03" cType="1" res="-1.5006838366389275e-02" rms="4.4905284047126770e-01" purity="3.7062504887580872e-01" nType="0">
          <Node pos="l" depth="2" NCoef="0" IVar="-1" Cut="0.0000000000000000e+00" cType="1" res="-4.4844327494502068e-03" rms="4.1820839047431946e-01" purity="2.8500482439994812e-01" nType="-99"/>
          <Node pos="r" depth="2" NCoef="0" IVar="-1" Cut="0.0000000000000000e+00" cType="1" res="-6.1813858337700367e-04" rms="4.5390006899833679e-01" purity="3.8558945059776306e-01" nType="-99"/>
        </Node>
        <Node pos="r" depth="1" NCoef="0" IVar="4" Cut="2.2153332829475403e-01" cType="1" res="1.2209805659949780e-02" rms="4.4882968068122864e-01" purity="6.0100698471069336e-01" nType="0">
          <Node pos="l" depth="2" NCoef="0" IVar="-1" Cut="0.0000000000000000e+00" cType="1" res="-9.2419161228463054e-04" rms="4.5396497845649719e-01" purity="5.3150939941406250e-01" nType="-99"/>
          <Node pos="r" depth="2" NCoef="0" IVar="-1" Cut="0.0000000000000000e+00" cType="1" res="1.2456508120521903e-03" rms="4.4739007949829102e-01" purity="6.1749690771102905e-01" nType="-99"/>
        </Node>
      </Node>
    </BinaryTree>
    <BinaryTree type="DecisionTree" boostWeight="1.0000000000000000e+00" itree="381">
      <Node pos="s" depth="0" NCoef="0" IVar="3" Cut="-1.1722233891487122e-01" cType="1" res="-1.2751051690429449e-03" rms="4.5147463679313660e-01" purity="4.9786463379859924e-01" nType="0">
        <Node pos="l" depth="1" NCoef="0" IVar="-1" Cut="0.0000000000000000e+00" cType="1" res="-2.1275964099913836e-03" rms="4.4539588689804077e-01" purity="4.1392326354980469e-01" nType="-99"/>
        <Node pos="r" depth="1" NCoef="0" IVar="4" Cut="2.2606475651264191e-01" cType="1" res="1.5614751027897000e-03" rms="4.5204132795333862e-01" purity="5.0700908899307251e-01" nType="0">
          <Node pos="l" depth="2" NCoef="0" IVar="-1" Cut="0.0000000000000000e+00" cType="1" res="-1.3811041135340929e-03" rms="4.5892536640167236e-01" purity="4.4315499067306519e-01" nType="-99"/>
          <Node pos="r" depth="2" NCoef="0" IVar="-1" Cut="0.0000000000000000e+00" cType="1" res="4.4282511225901544e-04" rms="4.5030128955841064e-01" purity="5.2178126573562622e-01" nType="-99"/>
        </Node>
      </Node>
    </BinaryTree>
    <BinaryTree type="DecisionTree" boostWeight="1.0000000000000000e+00" itree="382">
      <Node pos="s" depth="0" NCoef="0" IVar="2" Cut="5.6477850341796875e+02" cType="1" res="-1.1791298165917397e-03" rms="4.5120608806610107e-01" purity="5.0333303213119507e-01" nType="0">
        <Node pos="l" depth="1" NCoef="0" IVar="3" Cut="-9.9160298705101013e-02" cType="1" res="-3.5777129232883453e-03" rms="4.5276325941085815e-01" purity="4.8553112149238586e-01" nType="0">
          <Node pos="l" depth="2" NCoef="0" IVar="-1" Cut="0.0000000000000000e+00" cType="1" res="-2.1394588984549046e-03" rms="4.4547498226165771e-01" purity="4.0836340188980103e-01" nType="-99"/>
          <Node pos="r" depth="2" NCoef="0" IVar="-1" Cut="0.0000000000000000e+00" cType="1" res="4.3635980546241626e-05" rms="4.5388171076774597e-01" purity="4.9888908863067627e-01" nType="-99"/>
        </Node>
        <Node pos="r" depth="1" NCoef="0" IVar="-1" Cut="0.0000000000000000e+00" cType="1" res="1.9305619644001126e-03" rms="4.3026548624038696e-01" purity="7.2462803125381470e-01" nType="-99"/>
      </Node>
    </BinaryTree>
    <BinaryTree type="DecisionTree" boostWeight="1.0000000000000000e+00" itree="383">
      <Node pos="s" depth="0" NCoef="0" IVar="2" Cut="5.6455590820312500e+02" cType="1" res="-1.0624111164361238e-03" rms="4.5167744159698486e-01" purity="4.9879068136215210e-01" nType="0">
        <Node pos="l" depth="1" NCoef="0" IVar="4" Cut="2.2586068511009216e-01" cType="1" res="-3.7197729106992483e-03" rms="4.5343258976936340e-01" purity="4.8241266608238220e-01" nType="0">
          <Node pos="l" depth="2" NCoef="0" IVar="-1" Cut="0.0000000000000000e+00" cType="1" res="-2.0201914012432098e-03" rms="4.5647472143173218e-01" purity="4.0376529097557068e-01" nType="-99"/>
          <Node pos="r" depth="2" NCoef="0" IVar="-1" Cut="0.0000000000000000e+00" cType="1" res="1.2472254456952214e-04" rms="4.5253333449363708e-01" purity="5.0113064050674438e-01" nType="-99"/>
        </Node>
        <Node pos="r" depth="1" NCoef="0" IVar="-1" Cut="0.0000000000000000e+00" cType="1" res="2.4605242069810629e-03" rms="4.2371156811714172e-01" purity="7.3499119281768799e-01" nType="-99"/>
      </Node>
    </BinaryTree>
    <BinaryTree type="DecisionTree" boostWeight="1.0000000000000000e+00" itree="384">
      <Node pos="s" depth="0" NCoef="0" IVar="2" Cut="3.4764395141601562e+02" cType="1" res="-5.3347358480095863e-03" rms="4.5107761025428772e-01" purity="4.9500676989555359e-01" nType="0">
        <Node pos="l" depth="1" NCoef="0" IVar="7" Cut="7.6345419883728027e-01" cType="1" res="-1.1460661888122559e-02" rms="4.5068907737731934e-01" purity="4.1822469234466553e-01" nType="0">
          <Node pos="l" depth="2" NCoef="0" IVar="-1" Cut="0.0000000000000000e+00" cType="1" res="-3.8100776146166027e-04" rms="4.5062440633773804e-01" purity="4.0752151608467102e-01" nType="-99"/>
          <Node pos="r" depth="2" NCoef="0" IVar="-1" Cut="0.0000000000000000e+00" cType="1" res="-2.3041595704853535e-03" rms="4.5030540227890015e-01" purity="4.5118305087089539e-01" nType="-99"/>
        </Node>
        <Node pos="r" depth="1" NCoef="0" IVar="7" Cut="8.3210802078247070e-01" cType="1" res="5.1355152390897274e-03" rms="4.5154851675033569e-01" purity="6.2624043226242065e-01" nType="0">
          <Node pos="l" depth="2" NCoef="0" IVar="-1" Cut="0.0000000000000000e+00" cType="1" res="-2.4219611077569425e-04" rms="4.5566916465759277e-01" purity="6.0912001132965088e-01" nType="-99"/>
          <Node pos="r" depth="2" NCoef="0" IVar="-1" Cut="0.0000000000000000e+00" cType="1" res="2.6123328134417534e-03" rms="4.3278664350509644e-01" purity="6.9507533311843872e-01" nType="-99"/>
        </Node>
      </Node>
    </BinaryTree>
    <BinaryTree type="DecisionTree" boostWeight="1.0000000000000000e+00" itree="385">
      <Node pos="s" depth="0" NCoef="0" IVar="7" Cut="7.1372324228286743e-01" cType="1" res="2.4620408657938242e-03" rms="4.5130199193954468e-01" purity="4.9829900264739990e-01" nType="0">
        <Node pos="l" depth="1" NCoef="0" IVar="7" Cut="3.5922044515609741e-01" cType="1" res="-6.7521017044782639e-03" rms="4.5227238535881042e-01" purity="4.5617020130157471e-01" nType="0">
          <Node pos="l" depth="2" NCoef="0" IVar="-1" Cut="0.0000000000000000e+00" cType="1" res="2.6189051568508148e-03" rms="4.7314342856407166e-01" purity="4.8293694853782654e-01" nType="-99"/>
          <Node pos="r" depth="2" NCoef="0" IVar="-1" Cut="0.0000000000000000e+00" cType="1" res="-8.1719167064875364e-04" rms="4.4991341233253479e-01" purity="4.5350751280784607e-01" nType="-99"/>
        </Node>
        <Node pos="r" depth="1" NCoef="0" IVar="2" Cut="2.7646710205078125e+02" cType="1" res="1.7465589568018913e-02" rms="4.4931325316429138e-01" purity="5.6689804792404175e-01" nType="0">
          <Node pos="l" depth="2" NCoef="0" IVar="-1" Cut="0.0000000000000000e+00" cType="1" res="-9.0312847169116139e-04" rms="4.5074975490570068e-01" purity="3.8663342595100403e-01" nType="-99"/>
          <Node pos="r" depth="2" NCoef="0" IVar="-1" Cut="0.0000000000000000e+00" cType="1" res="1.9851292017847300e-03" rms="4.4800916314125061e-01" purity="6.5051037073135376e-01" nType="-99"/>
        </Node>
      </Node>
    </BinaryTree>
    <BinaryTree type="DecisionTree" boostWeight="1.0000000000000000e+00" itree="386">
      <Node pos="s" depth="0" NCoef="0" IVar="0" Cut="4.3995895385742188e+00" cType="1" res="-2.8365742764435709e-04" rms="4.5132634043693542e-01" purity="4.9517974257469177e-01" nType="0">
        <Node pos="l" depth="1" NCoef="0" IVar="7" Cut="3.6402198672294617e-01" cType="1" res="-3.0575001146644354e-03" rms="4.5669278502464294e-01" purity="4.7015956044197083e-01" nType="0">
          <Node pos="l" depth="2" NCoef="0" IVar="-1" Cut="0.0000000000000000e+00" cType="1" res="2.2639748640358448e-03" rms="4.6421605348587036e-01" purity="4.6998319029808044e-01" nType="-99"/>
          <Node pos="r" depth="2" NCoef="0" IVar="-1" Cut="0.0000000000000000e+00" cType="1" res="-3.7389065255410969e-04" rms="4.5613217353820801e-01" purity="4.7017046809196472e-01" nType="-99"/>
        </Node>
        <Node pos="r" depth="1" NCoef="0" IVar="-1" Cut="0.0000000000000000e+00" cType="1" res="2.4969866499304771e-03" rms="3.7756609916687012e-01" purity="8.0265414714813232e-01" nType="-99"/>
      </Node>
    </BinaryTree>
    <BinaryTree type="DecisionTree" boostWeight="1.0000000000000000e+00" itree="387">
      <Node pos="s" depth="0" NCoef="0" IVar="5" Cut="1.4102809363976121e-03" cType="1" res="2.4591514375060797e-03" rms="4.5126733183860779e-01" purity="5.0047302246093750e-01" nType="0">
        <Node pos="l" depth="1" NCoef="0" IVar="2" Cut="4.1685095214843750e+02" cType="1" res="-8.8470932096242905e-03" rms="4.4277533888816833e-01" purity="5.6720453500747681e-01" nType="0">
          <Node pos="l" depth="2" NCoef="0" IVar="-1" Cut="0.0000000000000000e+00" cType="1" res="-1.2439107522368431e-03" rms="4.4757220149040222e-01" purity="5.2161079645156860e-01" nType="-99"/>
          <Node pos="r" depth="2" NCoef="0" IVar="-1" Cut="0.0000000000000000e+00" cType="1" res="1.3911552960053086e-03" rms="4.2482677102088928e-01" purity="7.2200018167495728e-01" nType="-99"/>
        </Node>
        <Node pos="r" depth="1" NCoef="0" IVar="5" Cut="1.6866076039150357e-03" cType="1" res="1.5652557834982872e-02" rms="4.6062830090522766e-01" purity="4.2260310053825378e-01" nType="0">
          <Node pos="l" depth="2" NCoef="0" IVar="-1" Cut="0.0000000000000000e+00" cType="1" res="3.4927937667816877e-03" rms="4.6828177571296692e-01" purity="5.0068253278732300e-01" nType="-99"/>
          <Node pos="r" depth="2" NCoef="0" IVar="-1" Cut="0.0000000000000000e+00" cType="1" res="6.8763183662667871e-04" rms="4.5905715227127075e-01" purity="4.0959870815277100e-01" nType="-99"/>
        </Node>
      </Node>
    </BinaryTree>
    <BinaryTree type="DecisionTree" boostWeight="1.0000000000000000e+00" itree="388">
      <Node pos="s" depth="0" NCoef="0" IVar="3" Cut="-5.0538452342152596e-03" cType="1" res="5.0920876674354076e-03" rms="4.5053425431251526e-01" purity="5.0661987066268921e-01" nType="0">
        <Node pos="l" depth="1" NCoef="0" IVar="5" Cut="2.5641608517616987e-03" cType="1" res="-4.7716554254293442e-03" rms="4.4684225320816040e-01" purity="4.7085157036781311e-01" nType="0">
          <Node pos="l" depth="2" NCoef="0" IVar="-1" Cut="0.0000000000000000e+00" cType="1" res="-9.2559534823521972e-04" rms="4.4323766231536865e-01" purity="4.9669787287712097e-01" nType="-99"/>
          <Node pos="r" depth="2" NCoef="0" IVar="-1" Cut="0.0000000000000000e+00" cType="1" res="1.6573051689192653e-03" rms="4.5785754919052124e-01" purity="3.8299340009689331e-01" nType="-99"/>
        </Node>
        <Node pos="r" depth="1" NCoef="0" IVar="1" Cut="8.9453858137130737e-01" cType="1" res="1.3273213058710098e-02" rms="4.5341089367866516e-01" purity="5.3628653287887573e-01" nType="0">
          <Node pos="l" depth="2" NCoef="0" IVar="-1" Cut="0.0000000000000000e+00" cType="1" res="-3.9768515853211284e-04" rms="4.6139273047447205e-01" purity="4.0511980652809143e-01" nType="-99"/>
          <Node pos="r" depth="2" NCoef="0" IVar="-1" Cut="0.0000000000000000e+00" cType="1" res="1.8509378423914313e-03" rms="4.4666862487792969e-01" purity="6.3669973611831665e-01" nType="-99"/>
        </Node>
      </Node>
    </BinaryTree>
    <BinaryTree type="DecisionTree" boostWeight="1.0000000000000000e+00" itree="389">
      <Node pos="s" depth="0" NCoef="0" IVar="6" Cut="6.6808354854583740e-01" cType="1" res="2.3795643355697393e-03" rms="4.5159953832626343e-01" purity="5.0402033329010010e-01" nType="0">
        <Node pos="l" depth="1" NCoef="0" IVar="7" Cut="6.7514985799789429e-01" cType="1" res="3.5022702068090439e-02" rms="4.4487950205802917e-01" purity="6.0838758945465088e-01" nType="0">
          <Node pos="l" depth="2" NCoef="0" IVar="-1" Cut="0.0000000000000000e+00" cType="1" res="1.6473438590764999e-03" rms="4.6273872256278992e-01" purity="5.5138963460922241e-01" nType="-99"/>
          <Node pos="r" depth="2" NCoef="0" IVar="-1" Cut="0.0000000000000000e+00" cType="1" res="3.0152604449540377e-03" rms="4.2779400944709778e-01" purity="6.6011244058609009e-01" nType="-99"/>
        </Node>
        <Node pos="r" depth="1" NCoef="0" IVar="5" Cut="1.5251488657668233e-03" cType="1" res="-1.5847203321754932e-03" rms="4.5224842429161072e-01" purity="4.9134564399719238e-01" nType="0">
          <Node pos="l" depth="2" NCoef="0" IVar="-1" Cut="0.0000000000000000e+00" cType="1" res="-8.4180728299543262e-04" rms="4.4678393006324768e-01" purity="5.5285382270812988e-01" nType="-99"/>
          <Node pos="r" depth="2" NCoef="0" IVar="-1" Cut="0.0000000000000000e+00" cType="1" res="8.5548864444717765e-04" rms="4.5901241898536682e-01" purity="4.1021409630775452e-01" nType="-99"/>
        </Node>
      </Node>
    </BinaryTree>
    <BinaryTree type="DecisionTree" boostWeight="1.0000000000000000e+00" itree="390">
      <Node pos="s" depth="0" NCoef="0" IVar="5" Cut="1.0323530295863748e-03" cType="1" res="2.7322866953909397e-03" rms="4.5518338680267334e-01" purity="4.9976068735122681e-01" nType="0">
        <Node pos="l" depth="1" NCoef="0" IVar="7" Cut="7.5168609619140625e-01" cType="1" res="-1.0702635161578655e-02" rms="4.4498348236083984e-01" purity="5.8549666404724121e-01" nType="0">
          <Node pos="l" depth="2" NCoef="0" IVar="-1" Cut="0.0000000000000000e+00" cType="1" res="-1.5172690618783236e-03" rms="4.5185285806655884e-01" purity="5.5061113834381104e-01" nType="-99"/>
          <Node pos="r" depth="2" NCoef="0" IVar="-1" Cut="0.0000000000000000e+00" cType="1" res="9.2124595539644361e-04" rms="4.2798763513565063e-01" purity="6.6491198539733887e-01" nType="-99"/>
        </Node>
        <Node pos="r" depth="1" NCoef="0" IVar="7" Cut="8.7142986059188843e-01" cType="1" res="1.3348787091672421e-02" rms="4.6280884742736816e-01" purity="4.3201074004173279e-01" nType="0">
          <Node pos="l" depth="2" NCoef="0" IVar="-1" Cut="0.0000000000000000e+00" cType="1" res="1.2401244603097439e-03" rms="4.6313893795013428e-01" purity="4.2925205826759338e-01" nType="-99"/>
          <Node pos="r" depth="2" NCoef="0" IVar="-1" Cut="0.0000000000000000e+00" cType="1" res="-1.8613099819049239e-03" rms="4.5752316713333130e-01" purity="4.5959532260894775e-01" nType="-99"/>
        </Node>
      </Node>
    </BinaryTree>
    <BinaryTree type="DecisionTree" boostWeight="1.0000000000000000e+00" itree="391">
      <Node pos="s" depth="0" NCoef="0" IVar="5" Cut="3.3551407977938652e-03" cType="1" res="3.3459644764661789e-03" rms="4.5299381017684937e-01" purity="5.0276440382003784e-01" nType="0">
        <Node pos="l" depth="1" NCoef="0" IVar="2" Cut="2.1928665161132812e+02" cType="1" res="-1.4473425690084696e-03" rms="4.5055279135704041e-01" purity="5.1060342788696289e-01" nType="0">
          <Node pos="l" depth="2" NCoef="0" IVar="-1" Cut="0.0000000000000000e+00" cType="1" res="-4.4941441155970097e-03" rms="3.9830228686332703e-01" purity="2.5289797782897949e-01" nType="-99"/>
          <Node pos="r" depth="2" NCoef="0" IVar="-1" Cut="0.0000000000000000e+00" cType="1" res="3.3804462873376906e-04" rms="4.5715621113777161e-01" purity="5.4732990264892578e-01" nType="-99"/>
        </Node>
        <Node pos="r" depth="1" NCoef="0" IVar="-1" Cut="0.0000000000000000e+00" cType="1" res="3.2327522058039904e-03" rms="4.7221851348876953e-01" purity="4.3219316005706787e-01" nType="-99"/>
      </Node>
    </BinaryTree>
    <BinaryTree type="DecisionTree" boostWeight="1.0000000000000000e+00" itree="392">
      <Node pos="s" depth="0" NCoef="0" IVar="3" Cut="-1.0272488743066788e-01" cType="1" res="-2.8231907635927200e-03" rms="4.5235916972160339e-01" purity="4.9673008918762207e-01" nType="0">
        <Node pos="l" depth="1" NCoef="0" IVar="2" Cut="3.5464810180664062e+02" cType="1" res="-2.9338587075471878e-02" rms="4.4114917516708374e-01" purity="4.2770609259605408e-01" nType="0">
          <Node pos="l" depth="2" NCoef="0" IVar="-1" Cut="0.0000000000000000e+00" cType="1" res="-4.2886831797659397e-03" rms="4.2254859209060669e-01" purity="3.1145751476287842e-01" nType="-99"/>
          <Node pos="r" depth="2" NCoef="0" IVar="-1" Cut="0.0000000000000000e+00" cType="1" res="-3.2634503440931439e-04" rms="4.6157523989677429e-01" purity="5.6898015737533569e-01" nType="-99"/>
        </Node>
        <Node pos="r" depth="1" NCoef="0" IVar="2" Cut="2.0004200744628906e+02" cType="1" res="1.5892410883679986e-03" rms="4.5404750108718872e-01" purity="5.0821638107299805e-01" nType="0">
          <Node pos="l" depth="2" NCoef="0" IVar="-1" Cut="0.0000000000000000e+00" cType="1" res="-3.4487273078411818e-03" rms="3.9924544095993042e-01" purity="2.4588677287101746e-01" nType="-99"/>
          <Node pos="r" depth="2" NCoef="0" IVar="-1" Cut="0.0000000000000000e+00" cType="1" res="2.8982336516492069e-04" rms="4.5768281817436218e-01" purity="5.2736490964889526e-01" nType="-99"/>
        </Node>
      </Node>
    </BinaryTree>
    <BinaryTree type="DecisionTree" boostWeight="1.0000000000000000e+00" itree="393">
      <Node pos="s" depth="0" NCoef="0" IVar="2" Cut="5.8345550537109375e+02" cType="1" res="1.7705770005704835e-05" rms="4.4965505599975586e-01" purity="4.9981647729873657e-01" nType="0">
        <Node pos="l" depth="1" NCoef="0" IVar="7" Cut="3.5579356551170349e-01" cType="1" res="-2.9425015673041344e-03" rms="4.5092475414276123e-01" purity="4.8422908782958984e-01" nType="0">
          <Node pos="l" depth="2" NCoef="0" IVar="-1" Cut="0.0000000000000000e+00" cType="1" res="2.3057998623698950e-03" rms="4.6871936321258545e-01" purity="4.8683410882949829e-01" nType="-99"/>
          <Node pos="r" depth="2" NCoef="0" IVar="-1" Cut="0.0000000000000000e+00" cType="1" res="-3.5750426468439400e-04" rms="4.4980332255363464e-01" purity="4.8408052325248718e-01" nType="-99"/>
        </Node>
        <Node pos="r" depth="1" NCoef="0" IVar="-1" Cut="0.0000000000000000e+00" cType="1" res="2.9660139698535204e-03" rms="4.2752403020858765e-01" purity="7.3536145687103271e-01" nType="-99"/>
      </Node>
    </BinaryTree>
    <BinaryTree type="DecisionTree" boostWeight="1.0000000000000000e+00" itree="394">
      <Node pos="s" depth="0" NCoef="0" IVar="6" Cut="1.6708041429519653e+00" cType="1" res="5.3771249949932098e-03" rms="4.5327723026275635e-01" purity="5.0479334592819214e-01" nType="0">
        <Node pos="l" depth="1" NCoef="0" IVar="5" Cut="1.5485257608816028e-03" cType="1" res="1.5978022711351514e-03" rms="4.5536246895790100e-01" purity="5.1530021429061890e-01" nType="0">
          <Node pos="l" depth="2" NCoef="0" IVar="-1" Cut="0.0000000000000000e+00" cType="1" res="-4.5823582331649959e-04" rms="4.4639685750007629e-01" purity="5.7317984104156494e-01" nType="-99"/>
          <Node pos="r" depth="2" NCoef="0" IVar="-1" Cut="0.0000000000000000e+00" cType="1" res="8.5977010894566774e-04" rms="4.6699827909469604e-01" purity="4.3698364496231079e-01" nType="-99"/>
        </Node>
        <Node pos="r" depth="1" NCoef="0" IVar="2" Cut="2.9668746948242188e+02" cType="1" res="2.5236960500478745e-02" rms="4.4162672758102417e-01" purity="4.4958126544952393e-01" nType="0">
          <Node pos="l" depth="2" NCoef="0" IVar="-1" Cut="0.0000000000000000e+00" cType="1" res="4.3921853648498654e-04" rms="4.3819451332092285e-01" purity="3.4851875901222229e-01" nType="-99"/>
          <Node pos="r" depth="2" NCoef="0" IVar="-1" Cut="0.0000000000000000e+00" cType="1" res="3.7120163906365633e-03" rms="4.4530919194221497e-01" purity="6.1965030431747437e-01" nType="-99"/>
        </Node>
      </Node>
    </BinaryTree>
    <BinaryTree type="DecisionTree" boostWeight="1.0000000000000000e+00" itree="395">
      <Node pos="s" depth="0" NCoef="0" IVar="4" Cut="1.3096567988395691e-01" cType="1" res="-1.7867366550490260e-03" rms="4.5255494117736816e-01" purity="4.9849408864974976e-01" nType="0">
        <Node pos="l" depth="1" NCoef="0" IVar="-1" Cut="0.0000000000000000e+00" cType="1" res="-3.6792836617678404e-03" rms="4.3344146013259888e-01" purity="3.9249750971794128e-01" nType="-99"/>
        <Node pos="r" depth="1" NCoef="0" IVar="2" Cut="2.7545938110351562e+02" cType="1" res="1.5435102395713329e-03" rms="4.5371061563491821e-01" purity="5.0608807802200317e-01" nType="0">
          <Node pos="l" depth="2" NCoef="0" IVar="-1" Cut="0.0000000000000000e+00" cType="1" res="8.8126724585890770e-04" rms="4.4043272733688354e-01" purity="3.7978556752204895e-01" nType="-99"/>
          <Node pos="r" depth="2" NCoef="0" IVar="-1" Cut="0.0000000000000000e+00" cType="1" res="-2.8903194470331073e-04" rms="4.6166270971298218e-01" purity="5.8449202775955200e-01" nType="-99"/>
        </Node>
      </Node>
    </BinaryTree>
    <BinaryTree type="DecisionTree" boostWeight="1.0000000000000000e+00" itree="396">
      <Node pos="s" depth="0" NCoef="0" IVar="1" Cut="9.6008247137069702e-01" cType="1" res="-2.3054560006130487e-04" rms="4.5130923390388489e-01" purity="5.0054490566253662e-01" nType="0">
        <Node pos="l" depth="1" NCoef="0" IVar="4" Cut="4.5686879754066467e-01" cType="1" res="-5.0877192988991737e-03" rms="4.6069216728210449e-01" purity="4.4973361492156982e-01" nType="0">
          <Node pos="l" depth="2" NCoef="0" IVar="-1" Cut="0.0000000000000000e+00" cType="1" res="-8.0033676931634545e-04" rms="4.6110081672668457e-01" purity="4.3042376637458801e-01" nType="-99"/>
          <Node pos="r" depth="2" NCoef="0" IVar="-1" Cut="0.0000000000000000e+00" cType="1" res="3.4986890386790037e-04" rms="4.5982530713081360e-01" purity="4.8223680257797241e-01" nType="-99"/>
        </Node>
        <Node pos="r" depth="1" NCoef="0" IVar="0" Cut="3.0315349102020264e+00" cType="1" res="2.6674870401620865e-02" rms="3.9423877000808716e-01" purity="7.8200501203536987e-01" nType="0">
          <Node pos="l" depth="2" NCoef="0" IVar="-1" Cut="0.0000000000000000e+00" cType="1" res="3.0549815855920315e-03" rms="4.1138380765914917e-01" purity="7.4934858083724976e-01" nType="-99"/>
          <Node pos="r" depth="2" NCoef="0" IVar="-1" Cut="0.0000000000000000e+00" cType="1" res="6.9285137578845024e-04" rms="3.7518146634101868e-01" purity="8.1514942646026611e-01" nType="-99"/>
        </Node>
      </Node>
    </BinaryTree>
    <BinaryTree type="DecisionTree" boostWeight="1.0000000000000000e+00" itree="397">
      <Node pos="s" depth="0" NCoef="0" IVar="6" Cut="7.0648646354675293e-01" cType="1" res="4.0152133442461491e-03" rms="4.5341750979423523e-01" purity="5.0172066688537598e-01" nType="0">
        <Node pos="l" depth="1" NCoef="0" IVar="2" Cut="3.3813983154296875e+02" cType="1" res="2.6922902092337608e-02" rms="4.5387449860572815e-01" purity="6.0035133361816406e-01" nType="0">
          <Node pos="l" depth="2" NCoef="0" IVar="-1" Cut="0.0000000000000000e+00" cType="1" res="4.4393162243068218e-03" rms="4.6296027302742004e-01" purity="5.3226643800735474e-01" nType="-99"/>
          <Node pos="r" depth="2" NCoef="0" IVar="-1" Cut="0.0000000000000000e+00" cType="1" res="-3.6369776353240013e-04" rms="4.4373536109924316e-01" purity="6.5591406822204590e-01" nType="-99"/>
        </Node>
        <Node pos="r" depth="1" NCoef="0" IVar="4" Cut="3.4393090009689331e-01" cType="1" res="4.0664616972208023e-04" rms="4.5323991775512695e-01" purity="4.8618379235267639e-01" nType="0">
          <Node pos="l" depth="2" NCoef="0" IVar="-1" Cut="0.0000000000000000e+00" cType="1" res="-6.8885809741914272e-04" rms="4.5036000013351440e-01" purity="4.4340419769287109e-01" nType="-99"/>
          <Node pos="r" depth="2" NCoef="0" IVar="-1" Cut="0.0000000000000000e+00" cType="1" res="4.9376476090401411e-04" rms="4.5506793260574341e-01" purity="5.1524913311004639e-01" nType="-99"/>
        </Node>
      </Node>
    </BinaryTree>
    <BinaryTree type="DecisionTree" boostWeight="1.0000000000000000e+00" itree="398">
      <Node pos="s" depth="0" NCoef="0" IVar="1" Cut="9.5241087675094604e-01" cType="1" res="1.7323866486549377e-03" rms="4.5006734132766724e-01" purity="5.0224971771240234e-01" nType="0">
        <Node pos="l" depth="1" NCoef="0" IVar="6" Cut="1.7365440130233765e+00" cType="1" res="-3.1786116305738688e-03" rms="4.5857653021812439e-01" purity="4.4291391968727112e-01" nType="0">
          <Node pos="l" depth="2" NCoef="0" IVar="-1" Cut="0.0000000000000000e+00" cType="1" res="7.7697084634564817e-05" rms="4.6300354599952698e-01" purity="4.6034619212150574e-01" nType="-99"/>
          <Node pos="r" depth="2" NCoef="0" IVar="-1" Cut="0.0000000000000000e+00" cType="1" res="-2.5912974961102009e-03" rms="4.2696899175643921e-01" purity="3.2731136679649353e-01" nType="-99"/>
        </Node>
        <Node pos="r" depth="1" NCoef="0" IVar="5" Cut="1.6825350758153945e-04" cType="1" res="2.2442907094955444e-02" rms="4.1161087155342102e-01" purity="7.5247931480407715e-01" nType="0">
          <Node pos="l" depth="2" NCoef="0" IVar="-1" Cut="0.0000000000000000e+00" cType="1" res="7.6387712033465505e-04" rms="4.0007665753364563e-01" purity="7.7247238159179688e-01" nType="-99"/>
          <Node pos="r" depth="2" NCoef="0" IVar="-1" Cut="0.0000000000000000e+00" cType="1" res="3.1862505711615086e-03" rms="4.3424838781356812e-01" purity="7.0933884382247925e-01" nType="-99"/>
        </Node>
      </Node>
    </BinaryTree>
    <BinaryTree type="DecisionTree" boostWeight="1.0000000000000000e+00" itree="399">
      <Node pos="s" depth="0" NCoef="0" IVar="0" Cut="6.1166502535343170e-02" cType="1" res="1.7063802806660533e-03" rms="4.4965252280235291e-01" purity="5.0190460681915283e-01" nType="0">
        <Node pos="l" depth="1" NCoef="0" IVar="4" Cut="3.8628855347633362e-01" cType="1" res="-2.4593606591224670e-02" rms="4.2069700360298157e-01" purity="2.8183358907699585e-01" nType="0">
          <Node pos="l" depth="2" NCoef="0" IVar="-1" Cut="0.0000000000000000e+00" cType="1" res="-4.8376671038568020e-03" rms="4.0540227293968201e-01" purity="2.4247182905673981e-01" nType="-99"/>
          <Node pos="r" depth="2" NCoef="0" IVar="-1" Cut="0.0000000000000000e+00" cType="1" res="-2.1443342848215252e-04" rms="4.3367508053779602e-01" purity="3.1948271393775940e-01" nType="-99"/>
        </Node>
        <Node pos="r" depth="1" NCoef="0" IVar="4" Cut="3.6774599552154541e-01" cType="1" res="4.7664344310760498e-03" rms="4.5280212163925171e-01" purity="5.2751028537750244e-01" nType="0">
          <Node pos="l" depth="2" NCoef="0" IVar="-1" Cut="0.0000000000000000e+00" cType="1" res="1.0640065884217620e-03" rms="4.5469567179679871e-01" purity="5.1143795251846313e-01" nType="-99"/>
          <Node pos="r" depth="2" NCoef="0" IVar="-1" Cut="0.0000000000000000e+00" cType="1" res="-3.2274652039632201e-04" rms="4.5091617107391357e-01" purity="5.4169005155563354e-01" nType="-99"/>
        </Node>
      </Node>
    </BinaryTree>
    <BinaryTree type="DecisionTree" boostWeight="1.0000000000000000e+00" itree="400">
      <Node pos="s" depth="0" NCoef="0" IVar="4" Cut="3.9294397830963135e-01" cType="1" res="1.2998677557334304e-03" rms="4.4821345806121826e-01" purity="5.0300878286361694e-01" nType="0">
        <Node pos="l" depth="1" NCoef="0" IVar="3" Cut="8.0447010695934296e-03" cType="1" res="-9.4002680853009224e-03" rms="4.5014724135398865e-01" purity="4.7061008214950562e-01" nType="0">
          <Node pos="l" depth="2" NCoef="0" IVar="-1" Cut="0.0000000000000000e+00" cType="1" res="-1.8877785187214613e-03" rms="4.4183185696601868e-01" purity="4.2501980066299438e-01" nType="-99"/>
          <Node pos="r" depth="2" NCoef="0" IVar="-1" Cut="0.0000000000000000e+00" cType="1" res="2.0205536566209048e-04" rms="4.5645251870155334e-01" purity="5.0781869888305664e-01" nType="-99"/>
        </Node>
        <Node pos="r" depth="1" NCoef="0" IVar="1" Cut="8.7535947561264038e-01" cType="1" res="1.2291224673390388e-02" rms="4.4595110416412354e-01" purity="5.3628933429718018e-01" nType="0">
          <Node pos="l" depth="2" NCoef="0" IVar="-1" Cut="0.0000000000000000e+00" cType="1" res="-9.0180727420374751e-04" rms="4.5033231377601624e-01" purity="3.7660530209541321e-01" nType="-99"/>
          <Node pos="r" depth="2" NCoef="0" IVar="-1" Cut="0.0000000000000000e+00" cType="1" res="1.4572571963071823e-03" rms="4.4400367140769958e-01" purity="5.9477442502975464e-01" nType="-99"/>
        </Node>
      </Node>
    </BinaryTree>
    <BinaryTree type="DecisionTree" boostWeight="1.0000000000000000e+00" itree="401">
      <Node pos="s" depth="0" NCoef="0" IVar="5" Cut="5.1322655053809285e-04" cType="1" res="4.0069897659122944e-03" rms="4.5533666014671326e-01" purity="5.0343966484069824e-01" nType="0">
        <Node pos="l" depth="1" NCoef="0" IVar="1" Cut="9.4100552797317505e-01" cType="1" res="-1.0689496062695980e-02" rms="4.3156439065933228e-01" purity="6.4027917385101318e-01" nType="0">
          <Node pos="l" depth="2" NCoef="0" IVar="-1" Cut="0.0000000000000000e+00" cType="1" res="-3.5317577421665192e-03" rms="4.5190879702568054e-01" purity="3.8760837912559509e-01" nType="-99"/>
          <Node pos="r" depth="2" NCoef="0" IVar="-1" Cut="0.0000000000000000e+00" cType="1" res="-7.1917675086297095e-05" rms="4.2525231838226318e-01" purity="7.1020978689193726e-01" nType="-99"/>
        </Node>
        <Node pos="r" depth="1" NCoef="0" IVar="0" Cut="3.6910143494606018e-01" cType="1" res="1.0019301436841488e-02" rms="4.6457752585411072e-01" purity="4.4745883345603943e-01" nType="0">
          <Node pos="l" depth="2" NCoef="0" IVar="-1" Cut="0.0000000000000000e+00" cType="1" res="-1.1614083778113127e-03" rms="4.3419829010963440e-01" purity="3.0469468235969543e-01" nType="-99"/>
          <Node pos="r" depth="2" NCoef="0" IVar="-1" Cut="0.0000000000000000e+00" cType="1" res="1.0992778697982430e-03" rms="4.7267293930053711e-01" purity="4.8815083503723145e-01" nType="-99"/>
        </Node>
      </Node>
    </BinaryTree>
    <BinaryTree type="DecisionTree" boostWeight="1.0000000000000000e+00" itree="402">
      <Node pos="s" depth="0" NCoef="0" IVar="0" Cut="2.5199859142303467e+00" cType="1" res="3.8061037193983793e-03" rms="4.4999825954437256e-01" purity="5.0308996438980103e-01" nType="0">
        <Node pos="l" depth="1" NCoef="0" IVar="0" Cut="7.0386809110641479e-01" cType="1" res="-3.1312936916947365e-03" rms="4.5633342862129211e-01" purity="4.2041274905204773e-01" nType="0">
          <Node pos="l" depth="2" NCoef="0" IVar="-1" Cut="0.0000000000000000e+00" cType="1" res="1.1157452827319503e-03" rms="4.4863387942314148e-01" purity="3.4281906485557556e-01" nType="-99"/>
          <Node pos="r" depth="2" NCoef="0" IVar="-1" Cut="0.0000000000000000e+00" cType="1" res="-8.7787688244134188e-04" rms="4.6052071452140808e-01" purity="4.6592071652412415e-01" nType="-99"/>
        </Node>
        <Node pos="r" depth="1" NCoef="0" IVar="6" Cut="9.1072624921798706e-01" cType="1" res="1.9378148019313812e-02" rms="4.3503978848457336e-01" purity="6.8867158889770508e-01" nType="0">
          <Node pos="l" depth="2" NCoef="0" IVar="-1" Cut="0.0000000000000000e+00" cType="1" res="3.0253801960498095e-03" rms="4.1090416908264160e-01" purity="7.5872683525085449e-01" nType="-99"/>
          <Node pos="r" depth="2" NCoef="0" IVar="-1" Cut="0.0000000000000000e+00" cType="1" res="4.7147317673079669e-04" rms="4.4498905539512634e-01" purity="6.5699958801269531e-01" nType="-99"/>
        </Node>
      </Node>
    </BinaryTree>
    <BinaryTree type="DecisionTree" boostWeight="1.0000000000000000e+00" itree="403">
      <Node pos="s" depth="0" NCoef="0" IVar="6" Cut="6.3003170490264893e-01" cType="1" res="-1.9835555576719344e-04" rms="4.5306760072708130e-01" purity="4.9935647845268250e-01" nType="0">
        <Node pos="l" depth="1" NCoef="0" IVar="-1" Cut="0.0000000000000000e+00" cType="1" res="2.1955228876322508e-03" rms="4.4591116905212402e-01" purity="6.1328786611557007e-01" nType="-99"/>
        <Node pos="r" depth="1" NCoef="0" IVar="1" Cut="9.7527307271957397e-01" cType="1" res="-3.1266408041119576e-03" rms="4.5358380675315857e-01" purity="4.8921117186546326e-01" nType="0">
          <Node pos="l" depth="2" NCoef="0" IVar="-1" Cut="0.0000000000000000e+00" cType="1" res="-4.4367229565978050e-04" rms="4.5981746912002563e-01" purity="4.5900025963783264e-01" nType="-99"/>
          <Node pos="r" depth="2" NCoef="0" IVar="-1" Cut="0.0000000000000000e+00" cType="1" res="2.3646475747227669e-03" rms="3.7716588377952576e-01" purity="8.1943446397781372e-01" nType="-99"/>
        </Node>
      </Node>
    </BinaryTree>
    <BinaryTree type="DecisionTree" boostWeight="1.0000000000000000e+00" itree="404">
      <Node pos="s" depth="0" NCoef="0" IVar="0" Cut="4.5541338920593262e+00" cType="1" res="-2.9404569067992270e-04" rms="4.5012858510017395e-01" purity="4.9989593029022217e-01" nType="0">
        <Node pos="l" depth="1" NCoef="0" IVar="6" Cut="1.2777328491210938e+00" cType="1" res="-2.9000132344663143e-03" rms="4.5568928122520447e-01" purity="4.7551047801971436e-01" nType="0">
          <Node pos="l" depth="2" NCoef="0" IVar="-1" Cut="0.0000000000000000e+00" cType="1" res="3.6425550933927298e-04" rms="4.6388885378837585e-01" purity="5.2138537168502808e-01" nType="-99"/>
          <Node pos="r" depth="2" NCoef="0" IVar="-1" Cut="0.0000000000000000e+00" cType="1" res="-1.1332181748002768e-03" rms="4.4329407811164856e-01" purity="4.0918034315109253e-01" nType="-99"/>
        </Node>
        <Node pos="r" depth="1" NCoef="0" IVar="-1" Cut="0.0000000000000000e+00" cType="1" res="2.5585321709513664e-03" rms="3.6818540096282959e-01" purity="8.1848722696304321e-01" nType="-99"/>
      </Node>
    </BinaryTree>
    <BinaryTree type="DecisionTree" boostWeight="1.0000000000000000e+00" itree="405">
      <Node pos="s" depth="0" NCoef="0" IVar="6" Cut="1.4705028533935547e+00" cType="1" res="4.9684480763971806e-03" rms="4.5317828655242920e-01" purity="5.0274401903152466e-01" nType="0">
        <Node pos="l" depth="1" NCoef="0" IVar="7" Cut="4.1870307922363281e-01" cType="1" res="1.0170793160796165e-02" rms="4.5815455913543701e-01" purity="5.3401070833206177e-01" nType="0">
          <Node pos="l" depth="2" NCoef="0" IVar="-1" Cut="0.0000000000000000e+00" cType="1" res="2.5588092394173145e-03" rms="4.6192851662635803e-01" purity="5.0924295186996460e-01" nType="-99"/>
          <Node pos="r" depth="2" NCoef="0" IVar="-1" Cut="0.0000000000000000e+00" cType="1" res="4.6071372344158590e-04" rms="4.5755013823509216e-01" purity="5.3718680143356323e-01" nType="-99"/>
        </Node>
        <Node pos="r" depth="1" NCoef="0" IVar="2" Cut="3.3048522949218750e+02" cType="1" res="-9.9016549065709114e-03" rms="4.3830284476280212e-01" purity="4.1337326169013977e-01" nType="0">
          <Node pos="l" depth="2" NCoef="0" IVar="-1" Cut="0.0000000000000000e+00" cType="1" res="-2.5466301012784243e-03" rms="4.3323212862014771e-01" purity="3.3634370565414429e-01" nType="-99"/>
          <Node pos="r" depth="2" NCoef="0" IVar="-1" Cut="0.0000000000000000e+00" cType="1" res="2.9108379967510700e-03" rms="4.4727119803428650e-01" purity="6.2627029418945312e-01" nType="-99"/>
        </Node>
      </Node>
    </BinaryTree>
    <BinaryTree type="DecisionTree" boostWeight="1.0000000000000000e+00" itree="406">
      <Node pos="s" depth="0" NCoef="0" IVar="0" Cut="1.6182674169540405e+00" cType="1" res="1.0901226196438074e-03" rms="4.4926077127456665e-01" purity="5.0088393688201904e-01" nType="0">
        <Node pos="l" depth="1" NCoef="0" IVar="4" Cut="5.6659877300262451e-01" cType="1" res="-8.8048866018652916e-03" rms="4.5077764987945557e-01" purity="3.7267938256263733e-01" nType="0">
          <Node pos="l" depth="2" NCoef="0" IVar="-1" Cut="0.0000000000000000e+00" cType="1" res="-1.6258060350082815e-04" rms="4.5263019204139709e-01" purity="3.7434121966362000e-01" nType="-99"/>
          <Node pos="r" depth="2" NCoef="0" IVar="-1" Cut="0.0000000000000000e+00" cType="1" res="-2.5655261706560850e-03" rms="4.4333159923553467e-01" purity="3.6679416894912720e-01" nType="-99"/>
        </Node>
        <Node pos="r" depth="1" NCoef="0" IVar="5" Cut="2.0315784495323896e-03" cType="1" res="1.0816477239131927e-02" rms="4.4755157828330994e-01" purity="6.2690329551696777e-01" nType="0">
          <Node pos="l" depth="2" NCoef="0" IVar="-1" Cut="0.0000000000000000e+00" cType="1" res="8.7883345258887857e-05" rms="4.4111859798431396e-01" purity="6.4521080255508423e-01" nType="-99"/>
          <Node pos="r" depth="2" NCoef="0" IVar="-1" Cut="0.0000000000000000e+00" cType="1" res="2.7944380417466164e-03" rms="4.6966025233268738e-01" purity="5.5657559633255005e-01" nType="-99"/>
        </Node>
      </Node>
    </BinaryTree>
    <BinaryTree type="DecisionTree" boostWeight="1.0000000000000000e+00" itree="407">
      <Node pos="s" depth="0" NCoef="0" IVar="2" Cut="3.6992651367187500e+02" cType="1" res="-7.4215460335835814e-04" rms="4.5014071464538574e-01" purity="4.9982219934463501e-01" nType="0">
        <Node pos="l" depth="1" NCoef="0" IVar="6" Cut="1.8280196189880371e+00" cType="1" res="-7.5699756853282452e-03" rms="4.4954726099967957e-01" purity="4.3608176708221436e-01" nType="0">
          <Node pos="l" depth="2" NCoef="0" IVar="-1" Cut="0.0000000000000000e+00" cType="1" res="-2.4368023150600493e-04" rms="4.5227700471878052e-01" purity="4.4962832331657410e-01" nType="-99"/>
          <Node pos="r" depth="2" NCoef="0" IVar="-1" Cut="0.0000000000000000e+00" cType="1" res="-3.4127545077353716e-03" rms="4.2723631858825684e-01" purity="3.3471786975860596e-01" nType="-99"/>
        </Node>
        <Node pos="r" depth="1" NCoef="0" IVar="6" Cut="9.9285346269607544e-01" cType="1" res="1.4985180459916592e-02" rms="4.5111176371574402e-01" purity="6.4664310216903687e-01" nType="0">
          <Node pos="l" depth="2" NCoef="0" IVar="-1" Cut="0.0000000000000000e+00" cType="1" res="-7.4642110848799348e-04" rms="4.5057681202888489e-01" purity="6.3983082771301270e-01" nType="-99"/>
          <Node pos="r" depth="2" NCoef="0" IVar="-1" Cut="0.0000000000000000e+00" cType="1" res="2.6094494387507439e-03" rms="4.5014095306396484e-01" purity="6.5351217985153198e-01" nType="-99"/>
        </Node>
      </Node>
    </BinaryTree>
    <BinaryTree type="DecisionTree" boostWeight="1.0000000000000000e+00" itree="408">
      <Node pos="s" depth="0" NCoef="0" IVar="2" Cut="5.8396594238281250e+02" cType="1" res="5.5400826968252659e-03" rms="4.5393079519271851e-01" purity="5.0247120857238770e-01" nType="0">
        <Node pos="l" depth="1" NCoef="0" IVar="7" Cut="4.1870307922363281e-01" cType="1" res="2.9013582970947027e-03" rms="4.5529410243034363e-01" purity="4.8745641112327576e-01" nType="0">
          <Node pos="l" depth="2" NCoef="0" IVar="-1" Cut="0.0000000000000000e+00" cType="1" res="2.5869514793157578e-03" rms="4.6016433835029602e-01" purity="4.6864446997642517e-01" nType="-99"/>
          <Node pos="r" depth="2" NCoef="0" IVar="-1" Cut="0.0000000000000000e+00" cType="1" res="-1.1075560905737802e-04" rms="4.5444986224174500e-01" purity="4.8999392986297607e-01" nType="-99"/>
        </Node>
        <Node pos="r" depth="1" NCoef="0" IVar="-1" Cut="0.0000000000000000e+00" cType="1" res="3.0571504030376673e-03" rms="4.3024393916130066e-01" purity="7.3468130826950073e-01" nType="-99"/>
      </Node>
    </BinaryTree>
    <BinaryTree type="DecisionTree" boostWeight="1.0000000000000000e+00" itree="409">
      <Node pos="s" depth="0" NCoef="0" IVar="4" Cut="2.6893240213394165e-01" cType="1" res="-5.7730852859094739e-04" rms="4.5193111896514893e-01" purity="4.9743849039077759e-01" nType="0">
        <Node pos="l" depth="1" NCoef="0" IVar="6" Cut="1.1338878870010376e+00" cType="1" res="-1.4705446548759937e-02" rms="4.5209065079689026e-01" purity="4.4790294766426086e-01" nType="0">
          <Node pos="l" depth="2" NCoef="0" IVar="-1" Cut="0.0000000000000000e+00" cType="1" res="-2.5468464009463787e-03" rms="4.5747524499893188e-01" purity="4.8804339766502380e-01" nType="-99"/>
          <Node pos="r" depth="2" NCoef="0" IVar="-1" Cut="0.0000000000000000e+00" cType="1" res="4.9276562640443444e-04" rms="4.4562065601348877e-01" purity="4.0761417150497437e-01" nType="-99"/>
        </Node>
        <Node pos="r" depth="1" NCoef="0" IVar="6" Cut="1.2847996950149536e+00" cType="1" res="4.9805869348347187e-03" rms="4.5174726843833923e-01" purity="5.1692539453506470e-01" nType="0">
          <Node pos="l" depth="2" NCoef="0" IVar="-1" Cut="0.0000000000000000e+00" cType="1" res="8.7615492520853877e-04" rms="4.5557919144630432e-01" purity="5.5750459432601929e-01" nType="-99"/>
          <Node pos="r" depth="2" NCoef="0" IVar="-1" Cut="0.0000000000000000e+00" cType="1" res="-4.7500853543169796e-04" rms="4.4586414098739624e-01" purity="4.5783108472824097e-01" nType="-99"/>
        </Node>
      </Node>
    </BinaryTree>
    <BinaryTree type="DecisionTree" boostWeight="1.0000000000000000e+00" itree="410">
      <Node pos="s" depth="0" NCoef="0" IVar="2" Cut="5.8419482421875000e+02" cType="1" res="5.0582177937030792e-03" rms="4.5148944854736328e-01" purity="5.0486981868743896e-01" nType="0">
        <Node pos="l" depth="1" NCoef="0" IVar="4" Cut="2.9583859443664551e-01" cType="1" res="2.2567790001630783e-03" rms="4.5263555645942688e-01" purity="4.8978668451309204e-01" nType="0">
          <Node pos="l" depth="2" NCoef="0" IVar="-1" Cut="0.0000000000000000e+00" cType="1" res="-1.1762727517634630e-03" rms="4.5151150226593018e-01" purity="4.3055346608161926e-01" nType="-99"/>
          <Node pos="r" depth="2" NCoef="0" IVar="-1" Cut="0.0000000000000000e+00" cType="1" res="7.3878554394468665e-04" rms="4.5290532708168030e-01" purity="5.1667833328247070e-01" nType="-99"/>
        </Node>
        <Node pos="r" depth="1" NCoef="0" IVar="-1" Cut="0.0000000000000000e+00" cType="1" res="3.1298368703573942e-03" rms="4.3144246935844421e-01" purity="7.3433381319046021e-01" nType="-99"/>
      </Node>
    </BinaryTree>
    <BinaryTree type="DecisionTree" boostWeight="1.0000000000000000e+00" itree="411">
      <Node pos="s" depth="0" NCoef="0" IVar="7" Cut="5.7353448867797852e-01" cType="1" res="1.2139804894104600e-03" rms="4.5083251595497131e-01" purity="5.0224822759628296e-01" nType="0">
        <Node pos="l" depth="1" NCoef="0" IVar="0" Cut="3.6846044659614563e-01" cType="1" res="-1.7021866515278816e-02" rms="4.4906407594680786e-01" purity="4.3137663602828979e-01" nType="0">
          <Node pos="l" depth="2" NCoef="0" IVar="-1" Cut="0.0000000000000000e+00" cType="1" res="1.6505673993378878e-03" rms="4.2564824223518372e-01" purity="2.9227361083030701e-01" nType="-99"/>
          <Node pos="r" depth="2" NCoef="0" IVar="-1" Cut="0.0000000000000000e+00" cType="1" res="-1.7008840804919600e-03" rms="4.5318207144737244e-01" purity="4.5843911170959473e-01" nType="-99"/>
        </Node>
        <Node pos="r" depth="1" NCoef="0" IVar="6" Cut="1.3115342855453491e+00" cType="1" res="1.1253165081143379e-02" rms="4.5148888230323792e-01" purity="5.4126435518264771e-01" nType="0">
          <Node pos="l" depth="2" NCoef="0" IVar="-1" Cut="0.0000000000000000e+00" cType="1" res="2.3473950568586588e-04" rms="4.5498010516166687e-01" purity="5.5743587017059326e-01" nType="-99"/>
          <Node pos="r" depth="2" NCoef="0" IVar="-1" Cut="0.0000000000000000e+00" cType="1" res="1.7891819588840008e-03" rms="4.4475725293159485e-01" purity="5.1202428340911865e-01" nType="-99"/>
        </Node>
      </Node>
    </BinaryTree>
    <BinaryTree type="DecisionTree" boostWeight="1.0000000000000000e+00" itree="412">
      <Node pos="s" depth="0" NCoef="0" IVar="1" Cut="8.7536716461181641e-01" cType="1" res="-2.7436821255832911e-03" rms="4.5081126689910889e-01" purity="4.9489253759384155e-01" nType="0">
        <Node pos="l" depth="1" NCoef="0" IVar="3" Cut="-3.1316280364990234e-03" cType="1" res="-1.8646920099854469e-02" rms="4.5152428746223450e-01" purity="3.5025966167449951e-01" nType="0">
          <Node pos="l" depth="2" NCoef="0" IVar="-1" Cut="0.0000000000000000e+00" cType="1" res="5.2096968283876777e-04" rms="4.5198160409927368e-01" purity="3.5162305831909180e-01" nType="-99"/>
          <Node pos="r" depth="2" NCoef="0" IVar="-1" Cut="0.0000000000000000e+00" cType="1" res="-3.1219040974974632e-03" rms="4.4993960857391357e-01" purity="3.4904861450195312e-01" nType="-99"/>
        </Node>
        <Node pos="r" depth="1" NCoef="0" IVar="5" Cut="2.2396745625883341e-03" cType="1" res="3.3960097935050726e-03" rms="4.5038548111915588e-01" purity="5.5073028802871704e-01" nType="0">
          <Node pos="l" depth="2" NCoef="0" IVar="-1" Cut="0.0000000000000000e+00" cType="1" res="-1.6512400179635733e-05" rms="4.4959151744842529e-01" purity="5.6043213605880737e-01" nType="-99"/>
          <Node pos="r" depth="2" NCoef="0" IVar="-1" Cut="0.0000000000000000e+00" cType="1" res="2.6745253708213568e-03" rms="4.5665666460990906e-01" purity="4.5382994413375854e-01" nType="-99"/>
        </Node>
      </Node>
    </BinaryTree>
    <BinaryTree type="DecisionTree" boostWeight="1.0000000000000000e+00" itree="413">
      <Node pos="s" depth="0" NCoef="0" IVar="1" Cut="9.1782486438751221e-01" cType="1" res="-4.7742021270096302e-03" rms="4.4937124848365784e-01" purity="4.9731087684631348e-01" nType="0">
        <Node pos="l" depth="1" NCoef="0" IVar="5" Cut="1.7979814438149333e-03" cType="1" res="-1.2473854236304760e-02" rms="4.5471191406250000e-01" purity="3.9842087030410767e-01" nType="0">
          <Node pos="l" depth="2" NCoef="0" IVar="-1" Cut="0.0000000000000000e+00" cType="1" res="-2.1528478246182203e-03" rms="4.5210430026054382e-01" purity="3.9936891198158264e-01" nType="-99"/>
          <Node pos="r" depth="2" NCoef="0" IVar="-1" Cut="0.0000000000000000e+00" cType="1" res="-1.0906493844231591e-04" rms="4.5610535144805908e-01" purity="3.9779114723205566e-01" nType="-99"/>
        </Node>
        <Node pos="r" depth="1" NCoef="0" IVar="7" Cut="4.9439767003059387e-01" cType="1" res="7.2978856042027473e-03" rms="4.4059672951698303e-01" purity="6.5235799551010132e-01" nType="0">
          <Node pos="l" depth="2" NCoef="0" IVar="-1" Cut="0.0000000000000000e+00" cType="1" res="-1.3958646450191736e-03" rms="4.5389837026596069e-01" purity="5.6473618745803833e-01" nType="-99"/>
          <Node pos="r" depth="2" NCoef="0" IVar="-1" Cut="0.0000000000000000e+00" cType="1" res="9.5798471011221409e-04" rms="4.3697082996368408e-01" purity="6.7409396171569824e-01" nType="-99"/>
        </Node>
      </Node>
    </BinaryTree>
    <BinaryTree type="DecisionTree" boostWeight="1.0000000000000000e+00" itree="414">
      <Node pos="s" depth="0" NCoef="0" IVar="0" Cut="4.5373263359069824e+00" cType="1" res="-1.0804983321577311e-03" rms="4.5278045535087585e-01" purity="4.9803143739700317e-01" nType="0">
        <Node pos="l" depth="1" NCoef="0" IVar="5" Cut="1.5384863363578916e-03" cType="1" res="-3.9745545946061611e-03" rms="4.5844429731369019e-01" purity="4.7299596667289734e-01" nType="0">
          <Node pos="l" depth="2" NCoef="0" IVar="-1" Cut="0.0000000000000000e+00" cType="1" res="-9.4510818598791957e-04" rms="4.5412388443946838e-01" purity="5.2838921546936035e-01" nType="-99"/>
          <Node pos="r" depth="2" NCoef="0" IVar="-1" Cut="0.0000000000000000e+00" cType="1" res="5.2934518316760659e-04" rms="4.6335911750793457e-01" purity="4.0604558587074280e-01" nType="-99"/>
        </Node>
        <Node pos="r" depth="1" NCoef="0" IVar="-1" Cut="0.0000000000000000e+00" cType="1" res="2.7143908664584160e-03" rms="3.7079384922981262e-01" purity="8.1839877367019653e-01" nType="-99"/>
      </Node>
    </BinaryTree>
    <BinaryTree type="DecisionTree" boostWeight="1.0000000000000000e+00" itree="415">
      <Node pos="s" depth="0" NCoef="0" IVar="5" Cut="1.3980533694848418e-03" cType="1" res="8.1200135173276067e-04" rms="4.5185154676437378e-01" purity="5.0047236680984497e-01" nType="0">
        <Node pos="l" depth="1" NCoef="0" IVar="1" Cut="9.0240120887756348e-01" cType="1" res="-9.2141749337315559e-03" rms="4.4468581676483154e-01" purity="5.6867301464080811e-01" nType="0">
          <Node pos="l" depth="2" NCoef="0" IVar="-1" Cut="0.0000000000000000e+00" cType="1" res="-4.5957085676491261e-03" rms="4.2907035350799561e-01" purity="2.9718270897865295e-01" nType="-99"/>
          <Node pos="r" depth="2" NCoef="0" IVar="-1" Cut="0.0000000000000000e+00" cType="1" res="-7.3336763307452202e-05" rms="4.4697254896163940e-01" purity="6.1787837743759155e-01" nType="-99"/>
        </Node>
        <Node pos="r" depth="1" NCoef="0" IVar="4" Cut="2.4959471821784973e-01" cType="1" res="1.2356880120933056e-02" rms="4.5969367027282715e-01" purity="4.2194104194641113e-01" nType="0">
          <Node pos="l" depth="2" NCoef="0" IVar="-1" Cut="0.0000000000000000e+00" cType="1" res="-8.4428361151367426e-04" rms="4.5270159840583801e-01" purity="3.7626880407333374e-01" nType="-99"/>
          <Node pos="r" depth="2" NCoef="0" IVar="-1" Cut="0.0000000000000000e+00" cType="1" res="1.4218279393389821e-03" rms="4.6173265576362610e-01" purity="4.3717113137245178e-01" nType="-99"/>
        </Node>
      </Node>
    </BinaryTree>
    <BinaryTree type="DecisionTree" boostWeight="1.0000000000000000e+00" itree="416">
      <Node pos="s" depth="0" NCoef="0" IVar="1" Cut="9.7182089090347290e-01" cType="1" res="4.4863289222121239e-03" rms="4.4836434721946716e-01" purity="5.0600540637969971e-01" nType="0">
        <Node pos="l" depth="1" NCoef="0" IVar="0" Cut="-9.5791302621364594e-02" cType="1" res="1.1984769953414798e-03" rms="4.5560914278030396e-01" purity="4.7162190079689026e-01" nType="0">
          <Node pos="l" depth="2" NCoef="0" IVar="-1" Cut="0.0000000000000000e+00" cType="1" res="-2.7271041180938482e-03" rms="4.1560214757919312e-01" purity="2.7434408664703369e-01" nType="-99"/>
          <Node pos="r" depth="2" NCoef="0" IVar="-1" Cut="0.0000000000000000e+00" cType="1" res="2.6877215714193881e-04" rms="4.5892584323883057e-01" purity="4.8928532004356384e-01" nType="-99"/>
        </Node>
        <Node pos="r" depth="1" NCoef="0" IVar="-1" Cut="0.0000000000000000e+00" cType="1" res="2.6699423324316740e-03" rms="3.7428691983222961e-01" purity="8.2067501544952393e-01" nType="-99"/>
      </Node>
    </BinaryTree>
    <BinaryTree type="DecisionTree" boostWeight="1.0000000000000000e+00" itree="417">
      <Node pos="s" depth="0" NCoef="0" IVar="7" Cut="3.5746872425079346e-01" cType="1" res="2.6984747964888811e-03" rms="4.5316168665885925e-01" purity="5.0170296430587769e-01" nType="0">
        <Node pos="l" depth="1" NCoef="0" IVar="-1" Cut="0.0000000000000000e+00" cType="1" res="3.1619518995285034e-03" rms="4.6107706427574158e-01" purity="5.1174277067184448e-01" nType="-99"/>
        <Node pos="r" depth="1" NCoef="0" IVar="1" Cut="8.6768567562103271e-01" cType="1" res="1.9831280224025249e-04" rms="4.5256966352462769e-01" purity="5.0111603736877441e-01" nType="0">
          <Node pos="l" depth="2" NCoef="0" IVar="-1" Cut="0.0000000000000000e+00" cType="1" res="-1.8948925426229835e-03" rms="4.5304197072982788e-01" purity="3.4071806073188782e-01" nType="-99"/>
          <Node pos="r" depth="2" NCoef="0" IVar="-1" Cut="0.0000000000000000e+00" cType="1" res="4.3435298721306026e-04" rms="4.5225310325622559e-01" purity="5.4075181484222412e-01" nType="-99"/>
        </Node>
      </Node>
    </BinaryTree>
    <BinaryTree type="DecisionTree" boostWeight="1.0000000000000000e+00" itree="418">
      <Node pos="s" depth="0" NCoef="0" IVar="2" Cut="5.6503894042968750e+02" cType="1" res="6.1724521219730377e-04" rms="4.4760620594024658e-01" purity="5.0195598602294922e-01" nType="0">
        <Node pos="l" depth="1" NCoef="0" IVar="7" Cut="3.5873830318450928e-01" cType="1" res="-2.0194246899336576e-03" rms="4.4915983080863953e-01" purity="4.8575681447982788e-01" nType="0">
          <Node pos="l" depth="2" NCoef="0" IVar="-1" Cut="0.0000000000000000e+00" cType="1" res="2.8935447335243225e-03" rms="4.6299129724502563e-01" purity="4.9513843655586243e-01" nType="-99"/>
          <Node pos="r" depth="2" NCoef="0" IVar="-1" Cut="0.0000000000000000e+00" cType="1" res="-3.2727318466641009e-04" rms="4.4821900129318237e-01" purity="4.8521739244461060e-01" nType="-99"/>
        </Node>
        <Node pos="r" depth="1" NCoef="0" IVar="-1" Cut="0.0000000000000000e+00" cType="1" res="2.6296710129827261e-03" rms="4.2265018820762634e-01" purity="7.3637503385543823e-01" nType="-99"/>
      </Node>
    </BinaryTree>
    <BinaryTree type="DecisionTree" boostWeight="1.0000000000000000e+00" itree="419">
      <Node pos="s" depth="0" NCoef="0" IVar="3" Cut="9.1960892081260681e-02" cType="1" res="3.4316806122660637e-03" rms="4.5104259252548218e-01" purity="5.0352877378463745e-01" nType="0">
        <Node pos="l" depth="1" NCoef="0" IVar="7" Cut="4.6300816535949707e-01" cType="1" res="-2.1507774945348501e-03" rms="4.4734445214271545e-01" purity="4.8347043991088867e-01" nType="0">
          <Node pos="l" depth="2" NCoef="0" IVar="-1" Cut="0.0000000000000000e+00" cType="1" res="-2.9791386332362890e-03" rms="4.2912471294403076e-01" purity="2.7805733680725098e-01" nType="-99"/>
          <Node pos="r" depth="2" NCoef="0" IVar="-1" Cut="0.0000000000000000e+00" cType="1" res="3.1071060220710933e-05" rms="4.4878298044204712e-01" purity="5.0113546848297119e-01" nType="-99"/>
        </Node>
        <Node pos="r" depth="1" NCoef="0" IVar="6" Cut="1.4380214214324951e+00" cType="1" res="1.5885414555668831e-02" rms="4.5894062519073486e-01" purity="5.4827630519866943e-01" nType="0">
          <Node pos="l" depth="2" NCoef="0" IVar="-1" Cut="0.0000000000000000e+00" cType="1" res="4.3245730921626091e-04" rms="4.6051427721977234e-01" purity="5.6382632255554199e-01" nType="-99"/>
          <Node pos="r" depth="2" NCoef="0" IVar="-1" Cut="0.0000000000000000e+00" cType="1" res="2.5964651722460985e-03" rms="4.5462897419929504e-01" purity="5.1305109262466431e-01" nType="-99"/>
        </Node>
      </Node>
    </BinaryTree>
    <BinaryTree type="DecisionTree" boostWeight="1.0000000000000000e+00" itree="420">
      <Node pos="s" depth="0" NCoef="0" IVar="6" Cut="1.5112292766571045e+00" cType="1" res="-5.6643004063516855e-04" rms="4.5013770461082458e-01" purity="4.9919626116752625e-01" nType="0">
        <Node pos="l" depth="1" NCoef="0" IVar="2" Cut="3.4827755737304688e+02" cType="1" res="5.1382808014750481e-03" rms="4.5626950263977051e-01" purity="5.2742886543273926e-01" nType="0">
          <Node pos="l" depth="2" NCoef="0" IVar="-1" Cut="0.0000000000000000e+00" cType="1" res="8.8095950195565820e-04" rms="4.5855322480201721e-01" purity="4.6408671140670776e-01" nType="-99"/>
          <Node pos="r" depth="2" NCoef="0" IVar="-1" Cut="0.0000000000000000e+00" cType="1" res="-3.4960964694619179e-04" rms="4.5271474123001099e-01" purity="6.1987572908401489e-01" nType="-99"/>
        </Node>
        <Node pos="r" depth="1" NCoef="0" IVar="2" Cut="2.9590420532226562e+02" cType="1" res="-1.8864095211029053e-02" rms="4.2936921119689941e-01" purity="4.0864112973213196e-01" nType="0">
          <Node pos="l" depth="2" NCoef="0" IVar="-1" Cut="0.0000000000000000e+00" cType="1" res="-3.6692167632281780e-03" rms="4.1411328315734863e-01" purity="3.0209428071975708e-01" nType="-99"/>
          <Node pos="r" depth="2" NCoef="0" IVar="-1" Cut="0.0000000000000000e+00" cType="1" res="1.1202763998880982e-03" rms="4.5069468021392822e-01" purity="5.8146196603775024e-01" nType="-99"/>
        </Node>
      </Node>
    </BinaryTree>
    <BinaryTree type="DecisionTree" boostWeight="1.0000000000000000e+00" itree="421">
      <Node pos="s" depth="0" NCoef="0" IVar="3" Cut="-3.4036833792924881e-02" cType="1" res="4.4022542424499989e-03" rms="4.4960287213325500e-01" purity="5.0493144989013672e-01" nType="0">
        <Node pos="l" depth="1" NCoef="0" IVar="7" Cut="6.4470595121383667e-01" cType="1" res="-1.1464472860097885e-02" rms="4.3893375992774963e-01" purity="4.6321454644203186e-01" nType="0">
          <Node pos="l" depth="2" NCoef="0" IVar="-1" Cut="0.0000000000000000e+00" cType="1" res="-3.4849504008889198e-03" rms="4.1978311538696289e-01" purity="2.9513162374496460e-01" nType="-99"/>
          <Node pos="r" depth="2" NCoef="0" IVar="-1" Cut="0.0000000000000000e+00" cType="1" res="1.5140836694627069e-05" rms="4.4620972871780396e-01" purity="5.3375786542892456e-01" nType="-99"/>
        </Node>
        <Node pos="r" depth="1" NCoef="0" IVar="1" Cut="8.6382883787155151e-01" cType="1" res="1.3681326061487198e-02" rms="4.5547050237655640e-01" purity="5.2932804822921753e-01" nType="0">
          <Node pos="l" depth="2" NCoef="0" IVar="-1" Cut="0.0000000000000000e+00" cType="1" res="-1.3995873741805553e-03" rms="4.5225754380226135e-01" purity="3.6850988864898682e-01" nType="-99"/>
          <Node pos="r" depth="2" NCoef="0" IVar="-1" Cut="0.0000000000000000e+00" cType="1" res="1.3460326008498669e-03" rms="4.5580798387527466e-01" purity="5.5900496244430542e-01" nType="-99"/>
        </Node>
      </Node>
    </BinaryTree>
    <BinaryTree type="DecisionTree" boostWeight="1.0000000000000000e+00" itree="422">
      <Node pos="s" depth="0" NCoef="0" IVar="1" Cut="9.6025162935256958e-01" cType="1" res="-3.9962152950465679e-03" rms="4.5021060109138489e-01" purity="4.9560764431953430e-01" nType="0">
        <Node pos="l" depth="1" NCoef="0" IVar="5" Cut="7.6992204412817955e-04" cType="1" res="-7.9220570623874664e-03" rms="4.5975011587142944e-01" purity="4.4504630565643311e-01" nType="0">
          <Node pos="l" depth="2" NCoef="0" IVar="-1" Cut="0.0000000000000000e+00" cType="1" res="-1.7770875710994005e-03" rms="4.5446607470512390e-01" purity="5.0140810012817383e-01" nType="-99"/>
          <Node pos="r" depth="2" NCoef="0" IVar="-1" Cut="0.0000000000000000e+00" cType="1" res="-1.3899832265451550e-04" rms="4.6143230795860291e-01" purity="4.2535391449928284e-01" nType="-99"/>
        </Node>
        <Node pos="r" depth="1" NCoef="0" IVar="1" Cut="9.7904443740844727e-01" cType="1" res="1.8153894692659378e-02" rms="3.9132466912269592e-01" purity="7.8088092803955078e-01" nType="0">
          <Node pos="l" depth="2" NCoef="0" IVar="-1" Cut="0.0000000000000000e+00" cType="1" res="3.9667051169089973e-04" rms="4.1631945967674255e-01" purity="7.3391228914260864e-01" nType="-99"/>
          <Node pos="r" depth="2" NCoef="0" IVar="-1" Cut="0.0000000000000000e+00" cType="1" res="2.6067169383168221e-03" rms="3.6081209778785706e-01" purity="8.3338767290115356e-01" nType="-99"/>
        </Node>
      </Node>
    </BinaryTree>
    <BinaryTree type="DecisionTree" boostWeight="1.0000000000000000e+00" itree="423">
      <Node pos="s" depth="0" NCoef="0" IVar="5" Cut="2.5811587693169713e-04" cType="1" res="-2.3261043243110180e-03" rms="4.5166698098182678e-01" purity="4.9519333243370056e-01" nType="0">
        <Node pos="l" depth="1" NCoef="0" IVar="3" Cut="-4.8484548926353455e-02" cType="1" res="-1.8552482128143311e-02" rms="4.2206647992134094e-01" purity="6.7644858360290527e-01" nType="0">
          <Node pos="l" depth="2" NCoef="0" IVar="-1" Cut="0.0000000000000000e+00" cType="1" res="9.3373045092448592e-04" rms="4.2037743330001831e-01" purity="6.7694610357284546e-01" nType="-99"/>
          <Node pos="r" depth="2" NCoef="0" IVar="-1" Cut="0.0000000000000000e+00" cType="1" res="-2.8062579222023487e-03" rms="4.2200759053230286e-01" purity="6.7617189884185791e-01" nType="-99"/>
        </Node>
        <Node pos="r" depth="1" NCoef="0" IVar="1" Cut="8.5437947511672974e-01" cType="1" res="1.6151075251400471e-03" rms="4.5848163962364197e-01" purity="4.5116841793060303e-01" nType="0">
          <Node pos="l" depth="2" NCoef="0" IVar="-1" Cut="0.0000000000000000e+00" cType="1" res="-3.0935257673263550e-03" rms="4.3617129325866699e-01" purity="3.1808358430862427e-01" nType="-99"/>
          <Node pos="r" depth="2" NCoef="0" IVar="-1" Cut="0.0000000000000000e+00" cType="1" res="3.2209354685619473e-04" rms="4.5995298027992249e-01" purity="4.6104723215103149e-01" nType="-99"/>
        </Node>
      </Node>
    </BinaryTree>
    <BinaryTree type="DecisionTree" boostWeight="1.0000000000000000e+00" itree="424">
      <Node pos="s" depth="0" NCoef="0" IVar="7" Cut="8.9136350154876709e-01" cType="1" res="3.6825771530857310e-05" rms="4.5161092281341553e-01" purity="4.9961176514625549e-01" nType="0">
        <Node pos="l" depth="1" NCoef="0" IVar="3" Cut="5.2749466150999069e-02" cType="1" res="-3.2302783802151680e-03" rms="4.5290485024452209e-01" purity="4.9057388305664062e-01" nType="0">
          <Node pos="l" depth="2" NCoef="0" IVar="-1" Cut="0.0000000000000000e+00" cType="1" res="-1.0284060845151544e-03" rms="4.4692745804786682e-01" purity="4.5741784572601318e-01" nType="-99"/>
          <Node pos="r" depth="2" NCoef="0" IVar="-1" Cut="0.0000000000000000e+00" cType="1" res="7.4727123137563467e-04" rms="4.6048635244369507e-01" purity="5.3539538383483887e-01" nType="-99"/>
        </Node>
        <Node pos="r" depth="1" NCoef="0" IVar="-1" Cut="0.0000000000000000e+00" cType="1" res="3.0147815123200417e-03" rms="4.3083888292312622e-01" purity="6.2432897090911865e-01" nType="-99"/>
      </Node>
    </BinaryTree>
    <BinaryTree type="DecisionTree" boostWeight="1.0000000000000000e+00" itree="425">
      <Node pos="s" depth="0" NCoef="0" IVar="7" Cut="8.9112210273742676e-01" cType="1" res="-2.0125859882682562e-03" rms="4.5086678862571716e-01" purity="4.9897539615631104e-01" nType="0">
        <Node pos="l" depth="1" NCoef="0" IVar="2" Cut="2.8025112915039062e+02" cType="1" res="-4.4570621103048325e-03" rms="4.5231661200523376e-01" purity="4.9015775322914124e-01" nType="0">
          <Node pos="l" depth="2" NCoef="0" IVar="-1" Cut="0.0000000000000000e+00" cType="1" res="6.0676934663206339e-04" rms="4.4438025355339050e-01" purity="3.7769722938537598e-01" nType="-99"/>
          <Node pos="r" depth="2" NCoef="0" IVar="-1" Cut="0.0000000000000000e+00" cType="1" res="-8.4872130537405610e-04" rms="4.5746663212776184e-01" purity="5.6681632995605469e-01" nType="-99"/>
        </Node>
        <Node pos="r" depth="1" NCoef="0" IVar="-1" Cut="0.0000000000000000e+00" cType="1" res="2.0274322014302015e-03" rms="4.3025776743888855e-01" purity="6.1389613151550293e-01" nType="-99"/>
      </Node>
    </BinaryTree>
    <BinaryTree type="DecisionTree" boostWeight="1.0000000000000000e+00" itree="426">
      <Node pos="s" depth="0" NCoef="0" IVar="4" Cut="6.6001003980636597e-01" cType="1" res="5.1496005617082119e-03" rms="4.5131537318229675e-01" purity="5.0676530599594116e-01" nType="0">
        <Node pos="l" depth="1" NCoef="0" IVar="7" Cut="3.5671317577362061e-01" cType="1" res="1.8321836832910776e-03" rms="4.5247736573219299e-01" purity="4.9942421913146973e-01" nType="0">
          <Node pos="l" depth="2" NCoef="0" IVar="-1" Cut="0.0000000000000000e+00" cType="1" res="2.7343232650309801e-03" rms="4.6995693445205688e-01" purity="4.9877011775970459e-01" nType="-99"/>
          <Node pos="r" depth="2" NCoef="0" IVar="-1" Cut="0.0000000000000000e+00" cType="1" res="-3.2536183425690979e-05" rms="4.5127919316291809e-01" purity="4.9946448206901550e-01" nType="-99"/>
        </Node>
        <Node pos="r" depth="1" NCoef="0" IVar="-1" Cut="0.0000000000000000e+00" cType="1" res="2.3258482106029987e-03" rms="4.4020777940750122e-01" purity="5.6967723369598389e-01" nType="-99"/>
      </Node>
    </BinaryTree>
    <BinaryTree type="DecisionTree" boostWeight="1.0000000000000000e+00" itree="427">
      <Node pos="s" depth="0" NCoef="0" IVar="1" Cut="9.3710935115814209e-01" cType="1" res="3.2282313331961632e-03" rms="4.5096480846405029e-01" purity="5.0235396623611450e-01" nType="0">
        <Node pos="l" depth="1" NCoef="0" IVar="5" Cut="1.4195296680554748e-03" cType="1" res="-3.3671213313937187e-03" rms="4.5857527852058411e-01" purity="4.2694428563117981e-01" nType="0">
          <Node pos="l" depth="2" NCoef="0" IVar="-1" Cut="0.0000000000000000e+00" cType="1" res="-1.7398941563442349e-03" rms="4.5484644174575806e-01" purity="4.4038078188896179e-01" nType="-99"/>
          <Node pos="r" depth="2" NCoef="0" IVar="-1" Cut="0.0000000000000000e+00" cType="1" res="6.7894835956394672e-04" rms="4.6043694019317627e-01" purity="4.1851016879081726e-01" nType="-99"/>
        </Node>
        <Node pos="r" depth="1" NCoef="0" IVar="5" Cut="1.4767117681913078e-04" cType="1" res="2.1384013816714287e-02" rms="4.2879453301429749e-01" purity="7.0994269847869873e-01" nType="0">
          <Node pos="l" depth="2" NCoef="0" IVar="-1" Cut="0.0000000000000000e+00" cType="1" res="-2.9585798620246351e-04" rms="4.0899509191513062e-01" purity="7.5537067651748657e-01" nType="-99"/>
          <Node pos="r" depth="2" NCoef="0" IVar="-1" Cut="0.0000000000000000e+00" cType="1" res="2.8090367559343576e-03" rms="4.4497770071029663e-01" purity="6.6814112663269043e-01" nType="-99"/>
        </Node>
      </Node>
    </BinaryTree>
    <BinaryTree type="DecisionTree" boostWeight="1.0000000000000000e+00" itree="428">
      <Node pos="s" depth="0" NCoef="0" IVar="2" Cut="3.4458129882812500e+02" cType="1" res="6.0332948341965675e-03" rms="4.5035055279731750e-01" purity="5.0604897737503052e-01" nType="0">
        <Node pos="l" depth="1" NCoef="0" IVar="7" Cut="8.6569964885711670e-01" cType="1" res="-5.0815829308703542e-04" rms="4.4926640391349792e-01" purity="4.2722180485725403e-01" nType="0">
          <Node pos="l" depth="2" NCoef="0" IVar="-1" Cut="0.0000000000000000e+00" cType="1" res="2.5393231771886349e-04" rms="4.5035129785537720e-01" purity="4.2513972520828247e-01" nType="-99"/>
          <Node pos="r" depth="2" NCoef="0" IVar="-1" Cut="0.0000000000000000e+00" cType="1" res="-3.0812451150268316e-03" rms="4.3567159771919250e-01" purity="4.4903311133384705e-01" nType="-99"/>
        </Node>
        <Node pos="r" depth="1" NCoef="0" IVar="4" Cut="2.7598601579666138e-01" cType="1" res="1.6902156174182892e-02" rms="4.5193687081336975e-01" purity="6.3702315092086792e-01" nType="0">
          <Node pos="l" depth="2" NCoef="0" IVar="-1" Cut="0.0000000000000000e+00" cType="1" res="2.3780844639986753e-03" rms="4.5813506841659546e-01" purity="5.9910589456558228e-01" nType="-99"/>
          <Node pos="r" depth="2" NCoef="0" IVar="-1" Cut="0.0000000000000000e+00" cType="1" res="2.4367636069655418e-04" rms="4.4739836454391479e-01" purity="6.6144579648971558e-01" nType="-99"/>
        </Node>
      </Node>
    </BinaryTree>
    <BinaryTree type="DecisionTree" boostWeight="1.0000000000000000e+00" itree="429">
      <Node pos="s" depth="0" NCoef="0" IVar="0" Cut="1.4290763139724731e+00" cType="1" res="3.0863052234053612e-03" rms="4.5245453715324402e-01" purity="5.0292313098907471e-01" nType="0">
        <Node pos="l" depth="1" NCoef="0" IVar="4" Cut="1.8308129906654358e-01" cType="1" res="1.3730389066040516e-02" rms="4.5600992441177368e-01" purity="3.8523456454277039e-01" nType="0">
          <Node pos="l" depth="2" NCoef="0" IVar="-1" Cut="0.0000000000000000e+00" cType="1" res="-2.5486273225396872e-03" rms="4.2608201503753662e-01" purity="3.1241768598556519e-01" nType="-99"/>
          <Node pos="r" depth="2" NCoef="0" IVar="-1" Cut="0.0000000000000000e+00" cType="1" res="1.5873974189162254e-03" rms="4.6019741892814636e-01" purity="3.9677295088768005e-01" nType="-99"/>
        </Node>
        <Node pos="r" depth="1" NCoef="0" IVar="6" Cut="7.5851410627365112e-01" cType="1" res="-5.5351560004055500e-03" rms="4.4936934113502502e-01" purity="5.9824818372726440e-01" nType="0">
          <Node pos="l" depth="2" NCoef="0" IVar="-1" Cut="0.0000000000000000e+00" cType="1" res="1.3065580278635025e-03" rms="4.2850390076637268e-01" purity="6.9510418176651001e-01" nType="-99"/>
          <Node pos="r" depth="2" NCoef="0" IVar="-1" Cut="0.0000000000000000e+00" cType="1" res="-7.3100533336400986e-04" rms="4.5358672738075256e-01" purity="5.7722574472427368e-01" nType="-99"/>
        </Node>
      </Node>
    </BinaryTree>
    <BinaryTree type="DecisionTree" boostWeight="1.0000000000000000e+00" itree="430">
      <Node pos="s" depth="0" NCoef="0" IVar="2" Cut="5.5777886962890625e+02" cType="1" res="2.8800952713936567e-03" rms="4.5074594020843506e-01" purity="5.0293582677841187e-01" nType="0">
        <Node pos="l" depth="1" NCoef="0" IVar="1" Cut="8.7925624847412109e-01" cType="1" res="-9.9148392109782435e-06" rms="4.5249351859092712e-01" purity="4.8489606380462646e-01" nType="0">
          <Node pos="l" depth="2" NCoef="0" IVar="-1" Cut="0.0000000000000000e+00" cType="1" res="-1.1590679641813040e-03" rms="4.4964438676834106e-01" purity="3.4712895750999451e-01" nType="-99"/>
          <Node pos="r" depth="2" NCoef="0" IVar="-1" Cut="0.0000000000000000e+00" cType="1" res="4.7722258022986352e-04" rms="4.5363920927047729e-01" purity="5.4860013723373413e-01" nType="-99"/>
        </Node>
        <Node pos="r" depth="1" NCoef="0" IVar="-1" Cut="0.0000000000000000e+00" cType="1" res="2.6254984550178051e-03" rms="4.2637950181961060e-01" purity="7.3075872659683228e-01" nType="-99"/>
      </Node>
    </BinaryTree>
    <BinaryTree type="DecisionTree" boostWeight="1.0000000000000000e+00" itree="431">
      <Node pos="s" depth="0" NCoef="0" IVar="5" Cut="3.4841883461922407e-03" cType="1" res="-2.4740805383771658e-03" rms="4.5076552033424377e-01" purity="4.9626976251602173e-01" nType="0">
        <Node pos="l" depth="1" NCoef="0" IVar="1" Cut="8.7539708614349365e-01" cType="1" res="-5.5512096732854843e-03" rms="4.4903880357742310e-01" purity="5.0266087055206299e-01" nType="0">
          <Node pos="l" depth="2" NCoef="0" IVar="-1" Cut="0.0000000000000000e+00" cType="1" res="-2.1898185368627310e-03" rms="4.4225606322288513e-01" purity="3.3698427677154541e-01" nType="-99"/>
          <Node pos="r" depth="2" NCoef="0" IVar="-1" Cut="0.0000000000000000e+00" cType="1" res="3.0053755835979246e-05" rms="4.5067909359931946e-01" purity="5.4768967628479004e-01" nType="-99"/>
        </Node>
        <Node pos="r" depth="1" NCoef="0" IVar="-1" Cut="0.0000000000000000e+00" cType="1" res="2.3932834155857563e-03" rms="4.6935674548149109e-01" purity="4.1987276077270508e-01" nType="-99"/>
      </Node>
    </BinaryTree>
    <BinaryTree type="DecisionTree" boostWeight="1.0000000000000000e+00" itree="432">
      <Node pos="s" depth="0" NCoef="0" IVar="1" Cut="8.7535887956619263e-01" cType="1" res="7.3929107747972012e-04" rms="4.5004341006278992e-01" purity="5.0041139125823975e-01" nType="0">
        <Node pos="l" depth="1" NCoef="0" IVar="3" Cut="-2.0640930160880089e-02" cType="1" res="-2.1085973829030991e-02" rms="4.4845503568649292e-01" purity="3.4909656643867493e-01" nType="0">
          <Node pos="l" depth="2" NCoef="0" IVar="-1" Cut="0.0000000000000000e+00" cType="1" res="3.1764600862516090e-05" rms="4.4419699907302856e-01" purity="3.4168723225593567e-01" nType="-99"/>
          <Node pos="r" depth="2" NCoef="0" IVar="-1" Cut="0.0000000000000000e+00" cType="1" res="-2.6885902043431997e-03" rms="4.5079410076141357e-01" purity="3.5426023602485657e-01" nType="-99"/>
        </Node>
        <Node pos="r" depth="1" NCoef="0" IVar="3" Cut="-6.1333831399679184e-02" cType="1" res="9.0803429484367371e-03" rms="4.5036971569061279e-01" purity="5.5823999643325806e-01" nType="0">
          <Node pos="l" depth="2" NCoef="0" IVar="-1" Cut="0.0000000000000000e+00" cType="1" res="-1.0563343530520797e-03" rms="4.4369646906852722e-01" purity="5.0223463773727417e-01" nType="-99"/>
          <Node pos="r" depth="2" NCoef="0" IVar="-1" Cut="0.0000000000000000e+00" cType="1" res="1.2476387200877070e-03" rms="4.5260760188102722e-01" purity="5.8003574609756470e-01" nType="-99"/>
        </Node>
      </Node>
    </BinaryTree>
    <BinaryTree type="DecisionTree" boostWeight="1.0000000000000000e+00" itree="433">
      <Node pos="s" depth="0" NCoef="0" IVar="5" Cut="1.5384863363578916e-03" cType="1" res="4.9875052645802498e-03" rms="4.5113390684127808e-01" purity="5.0319051742553711e-01" nType="0">
        <Node pos="l" depth="1" NCoef="0" IVar="1" Cut="9.1785162687301636e-01" cType="1" res="-2.2407106589525938e-03" rms="4.4406339526176453e-01" purity="5.6380218267440796e-01" nType="0">
          <Node pos="l" depth="2" NCoef="0" IVar="-1" Cut="0.0000000000000000e+00" cType="1" res="-1.9280685810372233e-03" rms="4.4555675983428955e-01" purity="3.9067202806472778e-01" nType="-99"/>
          <Node pos="r" depth="2" NCoef="0" IVar="-1" Cut="0.0000000000000000e+00" cType="1" res="6.2260788399726152e-04" rms="4.4288817048072815e-01" purity="6.4919501543045044e-01" nType="-99"/>
        </Node>
        <Node pos="r" depth="1" NCoef="0" IVar="0" Cut="2.3498384952545166e+00" cType="1" res="1.4641257934272289e-02" rms="4.6023064851760864e-01" purity="4.2223972082138062e-01" nType="0">
          <Node pos="l" depth="2" NCoef="0" IVar="-1" Cut="0.0000000000000000e+00" cType="1" res="5.3156382637098432e-04" rms="4.6046337485313416e-01" purity="3.7254446744918823e-01" nType="-99"/>
          <Node pos="r" depth="2" NCoef="0" IVar="-1" Cut="0.0000000000000000e+00" cType="1" res="2.6309613604098558e-03" rms="4.5800572633743286e-01" purity="6.2165290117263794e-01" nType="-99"/>
        </Node>
      </Node>
    </BinaryTree>
    <BinaryTree type="DecisionTree" boostWeight="1.0000000000000000e+00" itree="434">
      <Node pos="s" depth="0" NCoef="0" IVar="1" Cut="9.3711131811141968e-01" cType="1" res="-2.2428079973906279e-03" rms="4.5027640461921692e-01" purity="4.9800547957420349e-01" nType="0">
        <Node pos="l" depth="1" NCoef="0" IVar="3" Cut="2.3308499157428741e-01" cType="1" res="-8.7680583819746971e-03" rms="4.5874145627021790e-01" purity="4.2224368453025818e-01" nType="0">
          <Node pos="l" depth="2" NCoef="0" IVar="-1" Cut="0.0000000000000000e+00" cType="1" res="-8.8372087338939309e-04" rms="4.5649597048759460e-01" purity="4.1513693332672119e-01" nType="-99"/>
          <Node pos="r" depth="2" NCoef="0" IVar="-1" Cut="0.0000000000000000e+00" cType="1" res="2.2282297722995281e-03" rms="4.8489332199096680e-01" purity="5.1461124420166016e-01" nType="-99"/>
        </Node>
        <Node pos="r" depth="1" NCoef="0" IVar="6" Cut="1.1112420558929443e+00" cType="1" res="1.6021057963371277e-02" rms="4.2515707015991211e-01" purity="7.1005892753601074e-01" nType="0">
          <Node pos="l" depth="2" NCoef="0" IVar="-1" Cut="0.0000000000000000e+00" cType="1" res="-4.8636091378284618e-05" rms="4.1976770758628845e-01" purity="7.3003160953521729e-01" nType="-99"/>
          <Node pos="r" depth="2" NCoef="0" IVar="-1" Cut="0.0000000000000000e+00" cType="1" res="2.1154291462153196e-03" rms="4.2946502566337585e-01" purity="6.9176709651947021e-01" nType="-99"/>
        </Node>
      </Node>
    </BinaryTree>
    <BinaryTree type="DecisionTree" boostWeight="1.0000000000000000e+00" itree="435">
      <Node pos="s" depth="0" NCoef="0" IVar="3" Cut="1.8710236251354218e-01" cType="1" res="5.5966707877814770e-03" rms="4.5254424214363098e-01" purity="5.0410455465316772e-01" nType="0">
        <Node pos="l" depth="1" NCoef="0" IVar="7" Cut="4.5289328694343567e-01" cType="1" res="1.7561586573719978e-03" rms="4.5059862732887268e-01" purity="4.9247476458549500e-01" nType="0">
          <Node pos="l" depth="2" NCoef="0" IVar="-1" Cut="0.0000000000000000e+00" cType="1" res="-2.7265120297670364e-03" rms="4.3007442355155945e-01" purity="3.1828537583351135e-01" nType="-99"/>
          <Node pos="r" depth="2" NCoef="0" IVar="-1" Cut="0.0000000000000000e+00" cType="1" res="3.5845339880324900e-04" rms="4.5242300629615784e-01" purity="5.0950038433074951e-01" nType="-99"/>
        </Node>
        <Node pos="r" depth="1" NCoef="0" IVar="7" Cut="4.0113100409507751e-01" cType="1" res="3.0507067218422890e-02" rms="4.6419548988342285e-01" purity="5.7953798770904541e-01" nType="0">
          <Node pos="l" depth="2" NCoef="0" IVar="-1" Cut="0.0000000000000000e+00" cType="1" res="3.8274424150586128e-03" rms="4.5948874950408936e-01" purity="5.8824545145034790e-01" nType="-99"/>
          <Node pos="r" depth="2" NCoef="0" IVar="-1" Cut="0.0000000000000000e+00" cType="1" res="6.4227904658764601e-04" rms="4.6644309163093567e-01" purity="5.7325685024261475e-01" nType="-99"/>
        </Node>
      </Node>
    </BinaryTree>
    <BinaryTree type="DecisionTree" boostWeight="1.0000000000000000e+00" itree="436">
      <Node pos="s" depth="0" NCoef="0" IVar="5" Cut="2.7099181897938251e-03" cType="1" res="-5.1464023999869823e-03" rms="4.5117723941802979e-01" purity="4.9536913633346558e-01" nType="0">
        <Node pos="l" depth="1" NCoef="0" IVar="1" Cut="9.7568237781524658e-01" cType="1" res="-1.0441827587783337e-02" rms="4.4763579964637756e-01" purity="5.1757335662841797e-01" nType="0">
          <Node pos="l" depth="2" NCoef="0" IVar="-1" Cut="0.0000000000000000e+00" cType="1" res="-1.0398987215012312e-03" rms="4.5512202382087708e-01" purity="4.8180121183395386e-01" nType="-99"/>
          <Node pos="r" depth="2" NCoef="0" IVar="-1" Cut="0.0000000000000000e+00" cType="1" res="1.8844022415578365e-03" rms="3.7719154357910156e-01" purity="8.1817549467086792e-01" nType="-99"/>
        </Node>
        <Node pos="r" depth="1" NCoef="0" IVar="3" Cut="1.0641786456108093e-01" cType="1" res="1.6228022053837776e-02" rms="4.6458479762077332e-01" purity="4.0574398636817932e-01" nType="0">
          <Node pos="l" depth="2" NCoef="0" IVar="-1" Cut="0.0000000000000000e+00" cType="1" res="2.1611577831208706e-03" rms="4.5969006419181824e-01" purity="4.0514123439788818e-01" nType="-99"/>
          <Node pos="r" depth="2" NCoef="0" IVar="-1" Cut="0.0000000000000000e+00" cType="1" res="-1.3352464884519577e-03" rms="4.7561529278755188e-01" purity="4.0735602378845215e-01" nType="-99"/>
        </Node>
      </Node>
    </BinaryTree>
    <BinaryTree type="DecisionTree" boostWeight="1.0000000000000000e+00" itree="437">
      <Node pos="s" depth="0" NCoef="0" IVar="7" Cut="8.3166116476058960e-01" cType="1" res="3.4776257816702127e-03" rms="4.4729387760162354e-01" purity="5.0432229042053223e-01" nType="0">
        <Node pos="l" depth="1" NCoef="0" IVar="4" Cut="2.2606475651264191e-01" cType="1" res="-1.3935028109699488e-03" rms="4.5011731982231140e-01" purity="4.8488163948059082e-01" nType="0">
          <Node pos="l" depth="2" NCoef="0" IVar="-1" Cut="0.0000000000000000e+00" cType="1" res="-1.7411659937351942e-03" rms="4.4843807816505432e-01" purity="4.1911575198173523e-01" nType="-99"/>
          <Node pos="r" depth="2" NCoef="0" IVar="-1" Cut="0.0000000000000000e+00" cType="1" res="3.5364396171644330e-04" rms="4.5040953159332275e-01" purity="5.0407773256301880e-01" nType="-99"/>
        </Node>
        <Node pos="r" depth="1" NCoef="0" IVar="2" Cut="3.5890792846679688e+02" cType="1" res="2.9582047834992409e-02" rms="4.3091130256652832e-01" purity="6.0850483179092407e-01" nType="0">
          <Node pos="l" depth="2" NCoef="0" IVar="-1" Cut="0.0000000000000000e+00" cType="1" res="7.1880262112244964e-04" rms="4.4436138868331909e-01" purity="5.1171004772186279e-01" nType="-99"/>
          <Node pos="r" depth="2" NCoef="0" IVar="-1" Cut="0.0000000000000000e+00" cType="1" res="3.6596106365323067e-03" rms="4.1125658154487610e-01" purity="7.3521524667739868e-01" nType="-99"/>
        </Node>
      </Node>
    </BinaryTree>
    <BinaryTree type="DecisionTree" boostWeight="1.0000000000000000e+00" itree="438">
      <Node pos="s" depth="0" NCoef="0" IVar="6" Cut="1.9341255426406860e+00" cType="1" res="1.1200465814908966e-04" rms="4.5104986429214478e-01" purity="5.0155824422836304e-01" nType="0">
        <Node pos="l" depth="1" NCoef="0" IVar="0" Cut="4.0829916000366211e+00" cType="1" res="-2.9758666642010212e-03" rms="4.5199272036552429e-01" purity="5.0507748126983643e-01" nType="0">
          <Node pos="l" depth="2" NCoef="0" IVar="-1" Cut="0.0000000000000000e+00" cType="1" res="-4.1964344563893974e-04" rms="4.5864203572273254e-01" purity="4.7027680277824402e-01" nType="-99"/>
          <Node pos="r" depth="2" NCoef="0" IVar="-1" Cut="0.0000000000000000e+00" cType="1" res="1.5308113070204854e-03" rms="3.9288815855979919e-01" purity="7.8841054439544678e-01" nType="-99"/>
        </Node>
        <Node pos="r" depth="1" NCoef="0" IVar="-1" Cut="0.0000000000000000e+00" cType="1" res="3.0421933624893427e-03" rms="4.3665209412574768e-01" purity="4.5588141679763794e-01" nType="-99"/>
      </Node>
    </BinaryTree>
    <BinaryTree type="DecisionTree" boostWeight="1.0000000000000000e+00" itree="439">
      <Node pos="s" depth="0" NCoef="0" IVar="1" Cut="9.4470632076263428e-01" cType="1" res="3.8773524574935436e-03" rms="4.5070365071296692e-01" purity="5.0481873750686646e-01" nType="0">
        <Node pos="l" depth="1" NCoef="0" IVar="7" Cut="4.1870307922363281e-01" cType="1" res="-1.1082984274253249e-03" rms="4.6036025881767273e-01" purity="4.3646782636642456e-01" nType="0">
          <Node pos="l" depth="2" NCoef="0" IVar="-1" Cut="0.0000000000000000e+00" cType="1" res="2.2261424455791712e-03" rms="4.6005052328109741e-01" purity="4.3649426102638245e-01" nType="-99"/>
          <Node pos="r" depth="2" NCoef="0" IVar="-1" Cut="0.0000000000000000e+00" cType="1" res="-4.1183293797075748e-04" rms="4.6022117137908936e-01" purity="4.3646389245986938e-01" nType="-99"/>
        </Node>
        <Node pos="r" depth="1" NCoef="0" IVar="0" Cut="1.9842127561569214e+00" cType="1" res="2.0613096654415131e-02" rms="4.1621866822242737e-01" purity="7.3425793647766113e-01" nType="0">
          <Node pos="l" depth="2" NCoef="0" IVar="-1" Cut="0.0000000000000000e+00" cType="1" res="3.5528047010302544e-03" rms="4.4995197653770447e-01" purity="6.6226780414581299e-01" nType="-99"/>
          <Node pos="r" depth="2" NCoef="0" IVar="-1" Cut="0.0000000000000000e+00" cType="1" res="6.9317861925810575e-04" rms="4.0367677807807922e-01" purity="7.5835949182510376e-01" nType="-99"/>
        </Node>
      </Node>
    </BinaryTree>
    <BinaryTree type="DecisionTree" boostWeight="1.0000000000000000e+00" itree="440">
      <Node pos="s" depth="0" NCoef="0" IVar="5" Cut="1.5411077765747905e-03" cType="1" res="1.7376546747982502e-03" rms="4.5264172554016113e-01" purity="5.0044745206832886e-01" nType="0">
        <Node pos="l" depth="1" NCoef="0" IVar="3" Cut="-6.1234399676322937e-02" cType="1" res="-8.5773169994354248e-03" rms="4.4285544753074646e-01" purity="5.6083941459655762e-01" nType="0">
          <Node pos="l" depth="2" NCoef="0" IVar="-1" Cut="0.0000000000000000e+00" cType="1" res="-1.8703388050198555e-03" rms="4.3692854046821594e-01" purity="5.1072829961776733e-01" nType="-99"/>
          <Node pos="r" depth="2" NCoef="0" IVar="-1" Cut="0.0000000000000000e+00" cType="1" res="-1.3374049740377814e-04" rms="4.4506597518920898e-01" purity="5.8119034767150879e-01" nType="-99"/>
        </Node>
        <Node pos="r" depth="1" NCoef="0" IVar="7" Cut="7.1372324228286743e-01" cType="1" res="1.5587992034852505e-02" rms="4.6509897708892822e-01" purity="4.1935667395591736e-01" nType="0">
          <Node pos="l" depth="2" NCoef="0" IVar="-1" Cut="0.0000000000000000e+00" cType="1" res="4.4355497811920941e-04" rms="4.6094158291816711e-01" purity="3.8046580553054810e-01" nType="-99"/>
          <Node pos="r" depth="2" NCoef="0" IVar="-1" Cut="0.0000000000000000e+00" cType="1" res="2.1247798576951027e-03" rms="4.7167089581489563e-01" purity="4.8599115014076233e-01" nType="-99"/>
        </Node>
      </Node>
    </BinaryTree>
    <BinaryTree type="DecisionTree" boostWeight="1.0000000000000000e+00" itree="441">
      <Node pos="s" depth="0" NCoef="0" IVar="3" Cut="-1.2689566612243652e-01" cType="1" res="4.3697920627892017e-03" rms="4.5070537924766541e-01" purity="5.0111544132232666e-01" nType="0">
        <Node pos="l" depth="1" NCoef="0" IVar="-1" Cut="0.0000000000000000e+00" cType="1" res="-2.7265518438071012e-03" rms="4.3440139293670654e-01" purity="3.9159816503524780e-01" nType="-99"/>
        <Node pos="r" depth="1" NCoef="0" IVar="2" Cut="2.1511708068847656e+02" cType="1" res="7.1116122417151928e-03" rms="4.5172700285911560e-01" purity="5.0896537303924561e-01" nType="0">
          <Node pos="l" depth="2" NCoef="0" IVar="-1" Cut="0.0000000000000000e+00" cType="1" res="-2.2700200788676739e-03" rms="4.1290649771690369e-01" purity="2.6148593425750732e-01" nType="-99"/>
          <Node pos="r" depth="2" NCoef="0" IVar="-1" Cut="0.0000000000000000e+00" cType="1" res="7.6223030919209123e-04" rms="4.5654800534248352e-01" purity="5.4226732254028320e-01" nType="-99"/>
        </Node>
      </Node>
    </BinaryTree>
    <BinaryTree type="DecisionTree" boostWeight="1.0000000000000000e+00" itree="442">
      <Node pos="s" depth="0" NCoef="0" IVar="1" Cut="8.7926101684570312e-01" cType="1" res="1.4641415327787399e-03" rms="4.5143148303031921e-01" purity="5.0161576271057129e-01" nType="0">
        <Node pos="l" depth="1" NCoef="0" IVar="5" Cut="3.2071142923086882e-03" cType="1" res="-1.1348548345267773e-02" rms="4.5533546805381775e-01" purity="3.6132925748825073e-01" nType="0">
          <Node pos="l" depth="2" NCoef="0" IVar="-1" Cut="0.0000000000000000e+00" cType="1" res="-2.3823918309062719e-03" rms="4.4717660546302795e-01" purity="3.3191707730293274e-01" nType="-99"/>
          <Node pos="r" depth="2" NCoef="0" IVar="-1" Cut="0.0000000000000000e+00" cType="1" res="1.2852295767515898e-03" rms="4.6679222583770752e-01" purity="4.0910461544990540e-01" nType="-99"/>
        </Node>
        <Node pos="r" depth="1" NCoef="0" IVar="7" Cut="5.7909649610519409e-01" cType="1" res="7.2602001018822193e-03" rms="4.4953435659408569e-01" purity="5.6507700681686401e-01" nType="0">
          <Node pos="l" depth="2" NCoef="0" IVar="-1" Cut="0.0000000000000000e+00" cType="1" res="-4.2002493864856660e-04" rms="4.5313760638237000e-01" purity="4.9786901473999023e-01" nType="-99"/>
          <Node pos="r" depth="2" NCoef="0" IVar="-1" Cut="0.0000000000000000e+00" cType="1" res="9.8657736089080572e-04" rms="4.4741606712341309e-01" purity="6.0140502452850342e-01" nType="-99"/>
        </Node>
      </Node>
    </BinaryTree>
    <BinaryTree type="DecisionTree" boostWeight="1.0000000000000000e+00" itree="443">
      <Node pos="s" depth="0" NCoef="0" IVar="6" Cut="1.8282487392425537e+00" cType="1" res="8.2237418973818421e-04" rms="4.5200428366661072e-01" purity="5.0240784883499146e-01" nType="0">
        <Node pos="l" depth="1" NCoef="0" IVar="6" Cut="1.4267570972442627e+00" cType="1" res="-1.7660791054368019e-03" rms="4.5281532406806946e-01" purity="5.0932717323303223e-01" nType="0">
          <Node pos="l" depth="2" NCoef="0" IVar="-1" Cut="0.0000000000000000e+00" cType="1" res="1.9015138968825340e-04" rms="4.5673325657844543e-01" purity="5.3187352418899536e-01" nType="-99"/>
          <Node pos="r" depth="2" NCoef="0" IVar="-1" Cut="0.0000000000000000e+00" cType="1" res="-1.3964775716885924e-03" rms="4.3771556019783020e-01" purity="4.2644700407981873e-01" nType="-99"/>
        </Node>
        <Node pos="r" depth="1" NCoef="0" IVar="7" Cut="5.9252005815505981e-01" cType="1" res="2.3761475458741188e-02" rms="4.4409340620040894e-01" purity="4.4108822941780090e-01" nType="0">
          <Node pos="l" depth="2" NCoef="0" IVar="-1" Cut="0.0000000000000000e+00" cType="1" res="5.9167947620153427e-04" rms="4.4749504327774048e-01" purity="3.7556266784667969e-01" nType="-99"/>
          <Node pos="r" depth="2" NCoef="0" IVar="-1" Cut="0.0000000000000000e+00" cType="1" res="2.8686847072094679e-03" rms="4.4017755985260010e-01" purity="5.0464326143264771e-01" nType="-99"/>
        </Node>
      </Node>
    </BinaryTree>
    <BinaryTree type="DecisionTree" boostWeight="1.0000000000000000e+00" itree="444">
      <Node pos="s" depth="0" NCoef="0" IVar="5" Cut="3.4642650280147791e-03" cType="1" res="6.3200541771948338e-03" rms="4.5145726203918457e-01" purity="5.0721162557601929e-01" nType="0">
        <Node pos="l" depth="1" NCoef="0" IVar="5" Cut="3.0193459242582321e-03" cType="1" res="4.3994258157908916e-03" rms="4.5024016499519348e-01" purity="5.1528614759445190e-01" nType="0">
          <Node pos="l" depth="2" NCoef="0" IVar="-1" Cut="0.0000000000000000e+00" cType="1" res="4.5676445006392896e-04" rms="4.4976308941841125e-01" purity="5.2657330036163330e-01" nType="-99"/>
          <Node pos="r" depth="2" NCoef="0" IVar="-1" Cut="0.0000000000000000e+00" cType="1" res="-1.6887016827240586e-03" rms="4.5570898056030273e-01" purity="3.6491569876670837e-01" nType="-99"/>
        </Node>
        <Node pos="r" depth="1" NCoef="0" IVar="-1" Cut="0.0000000000000000e+00" cType="1" res="2.0587609615176916e-03" rms="4.6496725082397461e-01" purity="4.1202634572982788e-01" nType="-99"/>
      </Node>
    </BinaryTree>
    <BinaryTree type="DecisionTree" boostWeight="1.0000000000000000e+00" itree="445">
      <Node pos="s" depth="0" NCoef="0" IVar="7" Cut="8.5124659538269043e-01" cType="1" res="9.1018131934106350e-04" rms="4.4968542456626892e-01" purity="5.0136917829513550e-01" nType="0">
        <Node pos="l" depth="1" NCoef="0" IVar="4" Cut="1.3207380473613739e-01" cType="1" res="-2.4951326195150614e-03" rms="4.5160689949989319e-01" purity="4.8718571662902832e-01" nType="0">
          <Node pos="l" depth="2" NCoef="0" IVar="-1" Cut="0.0000000000000000e+00" cType="1" res="-2.3846109397709370e-03" rms="4.4936025142669678e-01" purity="3.9276820421218872e-01" nType="-99"/>
          <Node pos="r" depth="2" NCoef="0" IVar="-1" Cut="0.0000000000000000e+00" cType="1" res="-1.4553732398780994e-05" rms="4.5170339941978455e-01" purity="4.9461340904235840e-01" nType="-99"/>
        </Node>
        <Node pos="r" depth="1" NCoef="0" IVar="2" Cut="3.4456521606445312e+02" cType="1" res="2.4074535816907883e-02" rms="4.3568444252014160e-01" purity="5.9785121679306030e-01" nType="0">
          <Node pos="l" depth="2" NCoef="0" IVar="-1" Cut="0.0000000000000000e+00" cType="1" res="-3.1329825287684798e-04" rms="4.4637322425842285e-01" purity="4.8473045229911804e-01" nType="-99"/>
          <Node pos="r" depth="2" NCoef="0" IVar="-1" Cut="0.0000000000000000e+00" cType="1" res="3.4226842690259218e-03" rms="4.2223051190376282e-01" purity="7.1563667058944702e-01" nType="-99"/>
        </Node>
      </Node>
    </BinaryTree>
    <BinaryTree type="DecisionTree" boostWeight="1.0000000000000000e+00" itree="446">
      <Node pos="s" depth="0" NCoef="0" IVar="6" Cut="1.8270845413208008e+00" cType="1" res="-1.4350851415656507e-05" rms="4.4944235682487488e-01" purity="5.0220948457717896e-01" nType="0">
        <Node pos="l" depth="1" NCoef="0" IVar="6" Cut="1.4619445800781250e+00" cType="1" res="-3.7166485562920570e-03" rms="4.5082929730415344e-01" purity="5.0838899612426758e-01" nType="0">
          <Node pos="l" depth="2" NCoef="0" IVar="-1" Cut="0.0000000000000000e+00" cType="1" res="2.5277158783865161e-05" rms="4.5366397500038147e-01" purity="5.3062099218368530e-01" nType="-99"/>
          <Node pos="r" depth="2" NCoef="0" IVar="-1" Cut="0.0000000000000000e+00" cType="1" res="-1.6692928038537502e-03" rms="4.3781134486198425e-01" purity="4.1145038604736328e-01" nType="-99"/>
        </Node>
        <Node pos="r" depth="1" NCoef="0" IVar="3" Cut="3.7258729338645935e-02" cType="1" res="3.1066356226801872e-02" rms="4.3638879060745239e-01" purity="4.5033267140388489e-01" nType="0">
          <Node pos="l" depth="2" NCoef="0" IVar="-1" Cut="0.0000000000000000e+00" cType="1" res="-7.0860644336789846e-04" rms="4.2230105400085449e-01" purity="3.6264282464981079e-01" nType="-99"/>
          <Node pos="r" depth="2" NCoef="0" IVar="-1" Cut="0.0000000000000000e+00" cType="1" res="4.6021258458495140e-03" rms="4.4591128826141357e-01" purity="5.3085476160049438e-01" nType="-99"/>
        </Node>
      </Node>
    </BinaryTree>
    <BinaryTree type="DecisionTree" boostWeight="1.0000000000000000e+00" itree="447">
      <Node pos="s" depth="0" NCoef="0" IVar="1" Cut="9.1011142730712891e-01" cType="1" res="-3.8991766050457954e-03" rms="4.4933068752288818e-01" purity="4.9489989876747131e-01" nType="0">
        <Node pos="l" depth="1" NCoef="0" IVar="5" Cut="9.0350949903950095e-04" cType="1" res="-1.2946696951985359e-02" rms="4.5340934395790100e-01" purity="3.8707488775253296e-01" nType="0">
          <Node pos="l" depth="2" NCoef="0" IVar="-1" Cut="0.0000000000000000e+00" cType="1" res="-3.9053934160619974e-03" rms="4.2691648006439209e-01" purity="2.9490500688552856e-01" nType="-99"/>
          <Node pos="r" depth="2" NCoef="0" IVar="-1" Cut="0.0000000000000000e+00" cType="1" res="-6.7699997453019023e-04" rms="4.5616573095321655e-01" purity="3.9752066135406494e-01" nType="-99"/>
        </Node>
        <Node pos="r" depth="1" NCoef="0" IVar="4" Cut="1.9774208962917328e-01" cType="1" res="7.7747129835188389e-03" rms="4.4374024868011475e-01" purity="6.3402491807937622e-01" nType="0">
          <Node pos="l" depth="2" NCoef="0" IVar="-1" Cut="0.0000000000000000e+00" cType="1" res="3.5109259188175201e-03" rms="4.4201537966728210e-01" purity="6.2800806760787964e-01" nType="-99"/>
          <Node pos="r" depth="2" NCoef="0" IVar="-1" Cut="0.0000000000000000e+00" cType="1" res="-1.1020159581676126e-04" rms="4.4350695610046387e-01" purity="6.3524794578552246e-01" nType="-99"/>
        </Node>
      </Node>
    </BinaryTree>
    <BinaryTree type="DecisionTree" boostWeight="1.0000000000000000e+00" itree="448">
      <Node pos="s" depth="0" NCoef="0" IVar="2" Cut="4.1685095214843750e+02" cType="1" res="-1.0378013830631971e-03" rms="4.5050081610679626e-01" purity="5.0199037790298462e-01" nType="0">
        <Node pos="l" depth="1" NCoef="0" IVar="3" Cut="1.7624387145042419e-01" cType="1" res="-5.6160492822527885e-03" rms="4.5315054059028625e-01" purity="4.5571133494377136e-01" nType="0">
          <Node pos="l" depth="2" NCoef="0" IVar="-1" Cut="0.0000000000000000e+00" cType="1" res="-7.3072523809969425e-04" rms="4.5138439536094666e-01" purity="4.4161191582679749e-01" nType="-99"/>
          <Node pos="r" depth="2" NCoef="0" IVar="-1" Cut="0.0000000000000000e+00" cType="1" res="1.0907530086115003e-03" rms="4.6166485548019409e-01" purity="5.2954512834548950e-01" nType="-99"/>
        </Node>
        <Node pos="r" depth="1" NCoef="0" IVar="1" Cut="9.1307860612869263e-01" cType="1" res="1.5989592298865318e-02" rms="4.4008839130401611e-01" purity="6.7411136627197266e-01" nType="0">
          <Node pos="l" depth="2" NCoef="0" IVar="-1" Cut="0.0000000000000000e+00" cType="1" res="-1.6740683349780738e-04" rms="4.7385317087173462e-01" purity="5.7736283540725708e-01" nType="-99"/>
          <Node pos="r" depth="2" NCoef="0" IVar="-1" Cut="0.0000000000000000e+00" cType="1" res="2.6888307183980942e-03" rms="3.9689594507217407e-01" purity="7.8477734327316284e-01" nType="-99"/>
        </Node>
      </Node>
    </BinaryTree>
    <BinaryTree type="DecisionTree" boostWeight="1.0000000000000000e+00" itree="449">
      <Node pos="s" depth="0" NCoef="0" IVar="7" Cut="3.9806446433067322e-01" cType="1" res="1.5448658086825162e-04" rms="4.4993507862091064e-01" purity="5.0043851137161255e-01" nType="0">
        <Node pos="l" depth="1" NCoef="0" IVar="-1" Cut="0.0000000000000000e+00" cType="1" res="-2.3651767987757921e-03" rms="4.5008015632629395e-01" purity="4.1334122419357300e-01" nType="-99"/>
        <Node pos="r" depth="1" NCoef="0" IVar="7" Cut="5.6483554840087891e-01" cType="1" res="3.1483643688261509e-03" rms="4.4980758428573608e-01" purity="5.0881683826446533e-01" nType="0">
          <Node pos="l" depth="2" NCoef="0" IVar="-1" Cut="0.0000000000000000e+00" cType="1" res="1.3568104477599263e-03" rms="4.5154440402984619e-01" purity="4.6365115046501160e-01" nType="-99"/>
          <Node pos="r" depth="2" NCoef="0" IVar="-1" Cut="0.0000000000000000e+00" cType="1" res="-1.9127117411699146e-04" rms="4.4900101423263550e-01" purity="5.2617567777633667e-01" nType="-99"/>
        </Node>
      </Node>
    </BinaryTree>
    <BinaryTree type="DecisionTree" boostWeight="1.0000000000000000e+00" itree="450">
      <Node pos="s" depth="0" NCoef="0" IVar="2" Cut="5.6652465820312500e+02" cType="1" res="-9.7162224119529128e-04" rms="4.5034897327423096e-01" purity="5.0081121921539307e-01" nType="0">
        <Node pos="l" depth="1" NCoef="0" IVar="1" Cut="8.6383414268493652e-01" cType="1" res="-3.9551081135869026e-03" rms="4.5213821530342102e-01" purity="4.8272606730461121e-01" nType="0">
          <Node pos="l" depth="2" NCoef="0" IVar="-1" Cut="0.0000000000000000e+00" cType="1" res="-2.0144504960626364e-03" rms="4.4599691033363342e-01" purity="3.2308796048164368e-01" nType="-99"/>
          <Node pos="r" depth="2" NCoef="0" IVar="-1" Cut="0.0000000000000000e+00" cType="1" res="3.7267820971464971e-06" rms="4.5318505167961121e-01" purity="5.1306635141372681e-01" nType="-99"/>
        </Node>
        <Node pos="r" depth="1" NCoef="0" IVar="-1" Cut="0.0000000000000000e+00" cType="1" res="2.5660414248704910e-03" rms="4.2412126064300537e-01" purity="7.3906958103179932e-01" nType="-99"/>
      </Node>
    </BinaryTree>
    <BinaryTree type="DecisionTree" boostWeight="1.0000000000000000e+00" itree="451">
      <Node pos="s" depth="0" NCoef="0" IVar="4" Cut="7.1166986227035522e-01" cType="1" res="2.7851315680891275e-03" rms="4.5348256826400757e-01" purity="5.0400567054748535e-01" nType="0">
        <Node pos="l" depth="1" NCoef="0" IVar="5" Cut="1.2697563506662846e-03" cType="1" res="2.7201016200706363e-04" rms="4.5418807864189148e-01" purity="4.9945929646492004e-01" nType="0">
          <Node pos="l" depth="2" NCoef="0" IVar="-1" Cut="0.0000000000000000e+00" cType="1" res="-7.4926810339093208e-04" rms="4.4535377621650696e-01" purity="5.7299500703811646e-01" nType="-99"/>
          <Node pos="r" depth="2" NCoef="0" IVar="-1" Cut="0.0000000000000000e+00" cType="1" res="8.0594996688887477e-04" rms="4.6279489994049072e-01" purity="4.2423141002655029e-01" nType="-99"/>
        </Node>
        <Node pos="r" depth="1" NCoef="0" IVar="-1" Cut="0.0000000000000000e+00" cType="1" res="3.0684815719723701e-03" rms="4.3942254781723022e-01" purity="5.7989376783370972e-01" nType="-99"/>
      </Node>
    </BinaryTree>
    <BinaryTree type="DecisionTree" boostWeight="1.0000000000000000e+00" itree="452">
      <Node pos="s" depth="0" NCoef="0" IVar="1" Cut="8.7151455879211426e-01" cType="1" res="-2.0240773446857929e-03" rms="4.5222225785255432e-01" purity="4.9792316555976868e-01" nType="0">
        <Node pos="l" depth="1" NCoef="0" IVar="2" Cut="2.6992388916015625e+02" cType="1" res="-2.3080477491021156e-02" rms="4.4924840331077576e-01" purity="3.4397357702255249e-01" nType="0">
          <Node pos="l" depth="2" NCoef="0" IVar="-1" Cut="0.0000000000000000e+00" cType="1" res="-4.4786970829591155e-04" rms="4.1497012972831726e-01" purity="2.3681162297725677e-01" nType="-99"/>
          <Node pos="r" depth="2" NCoef="0" IVar="-1" Cut="0.0000000000000000e+00" cType="1" res="-2.3645318578928709e-03" rms="4.6907696127891541e-01" purity="4.1112023591995239e-01" nType="-99"/>
        </Node>
        <Node pos="r" depth="1" NCoef="0" IVar="7" Cut="7.2428423166275024e-01" cType="1" res="4.7184652648866177e-03" rms="4.5296353101730347e-01" purity="5.4721993207931519e-01" nType="0">
          <Node pos="l" depth="2" NCoef="0" IVar="-1" Cut="0.0000000000000000e+00" cType="1" res="8.6357659893110394e-04" rms="4.5607349276542664e-01" purity="5.2397799491882324e-01" nType="-99"/>
          <Node pos="r" depth="2" NCoef="0" IVar="-1" Cut="0.0000000000000000e+00" cType="1" res="-6.0388969723135233e-04" rms="4.4710302352905273e-01" purity="5.8828568458557129e-01" nType="-99"/>
        </Node>
      </Node>
    </BinaryTree>
    <BinaryTree type="DecisionTree" boostWeight="1.0000000000000000e+00" itree="453">
      <Node pos="s" depth="0" NCoef="0" IVar="7" Cut="3.5746872425079346e-01" cType="1" res="9.7344792447984219e-04" rms="4.5273619890213013e-01" purity="4.9980205297470093e-01" nType="0">
        <Node pos="l" depth="1" NCoef="0" IVar="-1" Cut="0.0000000000000000e+00" cType="1" res="2.8498894535005093e-03" rms="4.6241983771324158e-01" purity="4.9733284115791321e-01" nType="-99"/>
        <Node pos="r" depth="1" NCoef="0" IVar="3" Cut="1.6323179006576538e-01" cType="1" res="-1.2251995503902435e-03" rms="4.5209175348281860e-01" purity="4.9993884563446045e-01" nType="0">
          <Node pos="l" depth="2" NCoef="0" IVar="-1" Cut="0.0000000000000000e+00" cType="1" res="2.1346034191083163e-04" rms="4.5071637630462646e-01" purity="4.9683487415313721e-01" nType="-99"/>
          <Node pos="r" depth="2" NCoef="0" IVar="-1" Cut="0.0000000000000000e+00" cType="1" res="-1.8080371664837003e-03" rms="4.5935937762260437e-01" purity="5.1828557252883911e-01" nType="-99"/>
        </Node>
      </Node>
    </BinaryTree>
    <BinaryTree type="DecisionTree" boostWeight="1.0000000000000000e+00" itree="454">
      <Node pos="s" depth="0" NCoef="0" IVar="7" Cut="8.7087559700012207e-01" cType="1" res="4.4503642129711807e-04" rms="4.4906461238861084e-01" purity="4.9923631548881531e-01" nType="0">
        <Node pos="l" depth="1" NCoef="0" IVar="4" Cut="1.2959522008895874e-01" cType="1" res="3.6123765166848898e-03" rms="4.5050084590911865e-01" purity="4.9413046240806580e-01" nType="0">
          <Node pos="l" depth="2" NCoef="0" IVar="-1" Cut="0.0000000000000000e+00" cType="1" res="-2.3140467237681150e-03" rms="4.4398376345634460e-01" purity="3.9251816272735596e-01" nType="-99"/>
          <Node pos="r" depth="2" NCoef="0" IVar="-1" Cut="0.0000000000000000e+00" cType="1" res="4.3066279613412917e-04" rms="4.5086371898651123e-01" purity="5.0134783983230591e-01" nType="-99"/>
        </Node>
        <Node pos="r" depth="1" NCoef="0" IVar="-1" Cut="0.0000000000000000e+00" cType="1" res="-2.1738745272159576e-03" rms="4.3382930755615234e-01" purity="5.4834496974945068e-01" nType="-99"/>
      </Node>
    </BinaryTree>
    <BinaryTree type="DecisionTree" boostWeight="1.0000000000000000e+00" itree="455">
      <Node pos="s" depth="0" NCoef="0" IVar="3" Cut="4.0815558284521103e-02" cType="1" res="6.7916879197582603e-04" rms="4.5118772983551025e-01" purity="4.9863538146018982e-01" nType="0">
        <Node pos="l" depth="1" NCoef="0" IVar="7" Cut="8.3543872833251953e-01" cType="1" res="-8.7957438081502914e-03" rms="4.4686189293861389e-01" purity="4.7051742672920227e-01" nType="0">
          <Node pos="l" depth="2" NCoef="0" IVar="-1" Cut="0.0000000000000000e+00" cType="1" res="-1.1989332269877195e-03" rms="4.4731399416923523e-01" purity="4.3550446629524231e-01" nType="-99"/>
          <Node pos="r" depth="2" NCoef="0" IVar="-1" Cut="0.0000000000000000e+00" cType="1" res="9.4681960763409734e-04" rms="4.4463717937469482e-01" purity="5.8420497179031372e-01" nType="-99"/>
        </Node>
        <Node pos="r" depth="1" NCoef="0" IVar="7" Cut="5.1634347438812256e-01" cType="1" res="1.3468979857861996e-02" rms="4.5665034651756287e-01" purity="5.3659075498580933e-01" nType="0">
          <Node pos="l" depth="2" NCoef="0" IVar="-1" Cut="0.0000000000000000e+00" cType="1" res="1.1227697541471571e-04" rms="4.5287695527076721e-01" purity="5.0347393751144409e-01" nType="-99"/>
          <Node pos="r" depth="2" NCoef="0" IVar="-1" Cut="0.0000000000000000e+00" cType="1" res="1.5711142914369702e-03" rms="4.5944848656654358e-01" purity="5.6330430507659912e-01" nType="-99"/>
        </Node>
      </Node>
    </BinaryTree>
    <BinaryTree type="DecisionTree" boostWeight="1.0000000000000000e+00" itree="456">
      <Node pos="s" depth="0" NCoef="0" IVar="5" Cut="3.0793470796197653e-03" cType="1" res="4.2676469311118126e-03" rms="4.5179200172424316e-01" purity="5.0527501106262207e-01" nType="0">
        <Node pos="l" depth="1" NCoef="0" IVar="3" Cut="2.3413610458374023e-01" cType="1" res="7.9134069383144379e-03" rms="4.5203894376754761e-01" purity="5.2520376443862915e-01" nType="0">
          <Node pos="l" depth="2" NCoef="0" IVar="-1" Cut="0.0000000000000000e+00" cType="1" res="3.7228179280646145e-04" rms="4.5185247063636780e-01" purity="5.1954793930053711e-01" nType="-99"/>
          <Node pos="r" depth="2" NCoef="0" IVar="-1" Cut="0.0000000000000000e+00" cType="1" res="3.0410434119403362e-03" rms="4.5294275879859924e-01" purity="6.0519486665725708e-01" nType="-99"/>
        </Node>
        <Node pos="r" depth="1" NCoef="0" IVar="3" Cut="5.1444955170154572e-02" cType="1" res="-2.0367180928587914e-02" rms="4.4934538006782532e-01" purity="3.7061437964439392e-01" nType="0">
          <Node pos="l" depth="2" NCoef="0" IVar="-1" Cut="0.0000000000000000e+00" cType="1" res="1.3645016224472784e-05" rms="4.4896325469017029e-01" purity="3.7357747554779053e-01" nType="-99"/>
          <Node pos="r" depth="2" NCoef="0" IVar="-1" Cut="0.0000000000000000e+00" cType="1" res="-3.8254538085311651e-03" rms="4.4806668162345886e-01" purity="3.6599794030189514e-01" nType="-99"/>
        </Node>
      </Node>
    </BinaryTree>
    <BinaryTree type="DecisionTree" boostWeight="1.0000000000000000e+00" itree="457">
      <Node pos="s" depth="0" NCoef="0" IVar="3" Cut="2.7752166613936424e-02" cType="1" res="-5.5797229288145900e-04" rms="4.5175004005432129e-01" purity="5.0117331743240356e-01" nType="0">
        <Node pos="l" depth="1" NCoef="0" IVar="4" Cut="1.9810558855533600e-01" cType="1" res="-8.3229783922433853e-03" rms="4.4777625799179077e-01" purity="4.7005298733711243e-01" nType="0">
          <Node pos="l" depth="2" NCoef="0" IVar="-1" Cut="0.0000000000000000e+00" cType="1" res="1.4102020068094134e-03" rms="4.5647743344306946e-01" purity="4.2810994386672974e-01" nType="-99"/>
          <Node pos="r" depth="2" NCoef="0" IVar="-1" Cut="0.0000000000000000e+00" cType="1" res="-9.4752246513962746e-04" rms="4.4610530138015747e-01" purity="4.7725933790206909e-01" nType="-99"/>
        </Node>
        <Node pos="r" depth="1" NCoef="0" IVar="1" Cut="8.6762475967407227e-01" cType="1" res="8.5388012230396271e-03" rms="4.5619326829910278e-01" purity="5.3763103485107422e-01" nType="0">
          <Node pos="l" depth="2" NCoef="0" IVar="-1" Cut="0.0000000000000000e+00" cType="1" res="-1.1820211075246334e-03" rms="4.5605149865150452e-01" purity="3.7374508380889893e-01" nType="-99"/>
          <Node pos="r" depth="2" NCoef="0" IVar="-1" Cut="0.0000000000000000e+00" cType="1" res="9.8581041675060987e-04" rms="4.5602789521217346e-01" purity="5.7740753889083862e-01" nType="-99"/>
        </Node>
      </Node>
    </BinaryTree>
    <BinaryTree type="DecisionTree" boostWeight="1.0000000000000000e+00" itree="458">
      <Node pos="s" depth="0" NCoef="0" IVar="1" Cut="9.1396266222000122e-01" cType="1" res="-2.5478351744823158e-04" rms="4.5068657398223877e-01" purity="5.0204253196716309e-01" nType="0">
        <Node pos="l" depth="1" NCoef="0" IVar="0" Cut="1.3898484706878662e+00" cType="1" res="-8.8096028193831444e-03" rms="4.5703342556953430e-01" purity="3.9575266838073730e-01" nType="0">
          <Node pos="l" depth="2" NCoef="0" IVar="-1" Cut="0.0000000000000000e+00" cType="1" res="3.3203692873939872e-04" rms="4.4997590780258179e-01" purity="3.4477716684341431e-01" nType="-99"/>
          <Node pos="r" depth="2" NCoef="0" IVar="-1" Cut="0.0000000000000000e+00" cType="1" res="-1.8465790199115872e-03" rms="4.6689391136169434e-01" purity="4.7337201237678528e-01" nType="-99"/>
        </Node>
        <Node pos="r" depth="1" NCoef="0" IVar="0" Cut="1.9352843761444092e+00" cType="1" res="1.1515729129314423e-02" rms="4.4153416156768799e-01" purity="6.4828592538833618e-01" nType="0">
          <Node pos="l" depth="2" NCoef="0" IVar="-1" Cut="0.0000000000000000e+00" cType="1" res="2.3301455657929182e-03" rms="4.6289148926734924e-01" purity="5.5850380659103394e-01" nType="-99"/>
          <Node pos="r" depth="2" NCoef="0" IVar="-1" Cut="0.0000000000000000e+00" cType="1" res="-1.4285572979133576e-04" rms="4.2793798446655273e-01" purity="7.0092320442199707e-01" nType="-99"/>
        </Node>
      </Node>
    </BinaryTree>
    <BinaryTree type="DecisionTree" boostWeight="1.0000000000000000e+00" itree="459">
      <Node pos="s" depth="0" NCoef="0" IVar="6" Cut="1.9660116434097290e+00" cType="1" res="1.3625781284645200e-03" rms="4.5350098609924316e-01" purity="4.9886134266853333e-01" nType="0">
        <Node pos="l" depth="1" NCoef="0" IVar="3" Cut="-9.7198605537414551e-02" cType="1" res="-7.0459040580317378e-04" rms="4.5544299483299255e-01" purity="5.0214552879333496e-01" nType="0">
          <Node pos="l" depth="2" NCoef="0" IVar="-1" Cut="0.0000000000000000e+00" cType="1" res="1.1735035805031657e-03" rms="4.5088568329811096e-01" purity="4.6908625960350037e-01" nType="-99"/>
          <Node pos="r" depth="2" NCoef="0" IVar="-1" Cut="0.0000000000000000e+00" cType="1" res="-2.9695068951696157e-04" rms="4.5632719993591309e-01" purity="5.0915861129760742e-01" nType="-99"/>
        </Node>
        <Node pos="r" depth="1" NCoef="0" IVar="-1" Cut="0.0000000000000000e+00" cType="1" res="2.2379544097930193e-03" rms="4.2525139451026917e-01" purity="4.5425003767013550e-01" nType="-99"/>
      </Node>
    </BinaryTree>
    <BinaryTree type="DecisionTree" boostWeight="1.0000000000000000e+00" itree="460">
      <Node pos="s" depth="0" NCoef="0" IVar="3" Cut="2.2853873670101166e-01" cType="1" res="-3.1743403524160385e-03" rms="4.5099616050720215e-01" purity="4.9933913350105286e-01" nType="0">
        <Node pos="l" depth="1" NCoef="0" IVar="5" Cut="3.3353155013173819e-03" cType="1" res="-5.4922834970057011e-03" rms="4.4971746206283569e-01" purity="4.9264553189277649e-01" nType="0">
          <Node pos="l" depth="2" NCoef="0" IVar="-1" Cut="0.0000000000000000e+00" cType="1" res="-5.9715175302699208e-04" rms="4.4807896018028259e-01" purity="5.0149905681610107e-01" nType="-99"/>
          <Node pos="r" depth="2" NCoef="0" IVar="-1" Cut="0.0000000000000000e+00" cType="1" res="1.3590716989710927e-03" rms="4.6350684762001038e-01" purity="4.1274952888488770e-01" nType="-99"/>
        </Node>
        <Node pos="r" depth="1" NCoef="0" IVar="-1" Cut="0.0000000000000000e+00" cType="1" res="1.7929308814927936e-03" rms="4.6626386046409607e-01" purity="5.8641928434371948e-01" nType="-99"/>
      </Node>
    </BinaryTree>
    <BinaryTree type="DecisionTree" boostWeight="1.0000000000000000e+00" itree="461">
      <Node pos="s" depth="0" NCoef="0" IVar="2" Cut="2.7641906738281250e+02" cType="1" res="-1.8767606525216252e-04" rms="4.5496362447738647e-01" purity="5.0073754787445068e-01" nType="0">
        <Node pos="l" depth="1" NCoef="0" IVar="5" Cut="5.1285233348608017e-04" cType="1" res="1.4360801316797733e-02" rms="4.4864249229431152e-01" purity="3.8068878650665283e-01" nType="0">
          <Node pos="l" depth="2" NCoef="0" IVar="-1" Cut="0.0000000000000000e+00" cType="1" res="-3.6343996180221438e-04" rms="4.5446845889091492e-01" purity="5.1542854309082031e-01" nType="-99"/>
          <Node pos="r" depth="2" NCoef="0" IVar="-1" Cut="0.0000000000000000e+00" cType="1" res="1.8047455232590437e-03" rms="4.4626143574714661e-01" purity="3.3098864555358887e-01" nType="-99"/>
        </Node>
        <Node pos="r" depth="1" NCoef="0" IVar="6" Cut="1.1220548152923584e+00" cType="1" res="-9.0607022866606712e-03" rms="4.5854952931404114e-01" purity="5.7395452260971069e-01" nType="0">
          <Node pos="l" depth="2" NCoef="0" IVar="-1" Cut="0.0000000000000000e+00" cType="1" res="-1.4266908401623368e-03" rms="4.6007424592971802e-01" purity="5.8488571643829346e-01" nType="-99"/>
          <Node pos="r" depth="2" NCoef="0" IVar="-1" Cut="0.0000000000000000e+00" cType="1" res="3.0383150442503393e-04" rms="4.5642516016960144e-01" purity="5.6150078773498535e-01" nType="-99"/>
        </Node>
      </Node>
    </BinaryTree>
    <BinaryTree type="DecisionTree" boostWeight="1.0000000000000000e+00" itree="462">
      <Node pos="s" depth="0" NCoef="0" IVar="6" Cut="1.6475785970687866e+00" cType="1" res="-3.7009961670264602e-04" rms="4.5206385850906372e-01" purity="4.9794131517410278e-01" nType="0">
        <Node pos="l" depth="1" NCoef="0" IVar="7" Cut="6.9397318363189697e-01" cType="1" res="-3.6804494448006153e-03" rms="4.5559868216514587e-01" purity="5.1057785749435425e-01" nType="0">
          <Node pos="l" depth="2" NCoef="0" IVar="-1" Cut="0.0000000000000000e+00" cType="1" res="2.1599821047857404e-04" rms="4.5820498466491699e-01" purity="4.8317071795463562e-01" nType="-99"/>
          <Node pos="r" depth="2" NCoef="0" IVar="-1" Cut="0.0000000000000000e+00" cType="1" res="-9.0860459022223949e-04" rms="4.5182690024375916e-01" purity="5.4826831817626953e-01" nType="-99"/>
        </Node>
        <Node pos="r" depth="1" NCoef="0" IVar="2" Cut="2.9842080688476562e+02" cType="1" res="1.5391359105706215e-02" rms="4.3449395895004272e-01" purity="4.3777546286582947e-01" nType="0">
          <Node pos="l" depth="2" NCoef="0" IVar="-1" Cut="0.0000000000000000e+00" cType="1" res="-7.2027673013508320e-04" rms="4.3458220362663269e-01" purity="3.3204200863838196e-01" nType="-99"/>
          <Node pos="r" depth="2" NCoef="0" IVar="-1" Cut="0.0000000000000000e+00" cType="1" res="3.7635588087141514e-03" rms="4.3099302053451538e-01" purity="6.3150566816329956e-01" nType="-99"/>
        </Node>
      </Node>
    </BinaryTree>
    <BinaryTree type="DecisionTree" boostWeight="1.0000000000000000e+00" itree="463">
      <Node pos="s" depth="0" NCoef="0" IVar="6" Cut="1.4701555967330933e+00" cType="1" res="-1.7937161028385162e-03" rms="4.5085784792900085e-01" purity="4.9644747376441956e-01" nType="0">
        <Node pos="l" depth="1" NCoef="0" IVar="6" Cut="1.3605315685272217e+00" cType="1" res="5.2133314311504364e-03" rms="4.5629864931106567e-01" purity="5.2834653854370117e-01" nType="0">
          <Node pos="l" depth="2" NCoef="0" IVar="-1" Cut="0.0000000000000000e+00" cType="1" res="7.2784976509865373e-05" rms="4.5642682909965515e-01" purity="5.3062701225280762e-01" nType="-99"/>
          <Node pos="r" depth="2" NCoef="0" IVar="-1" Cut="0.0000000000000000e+00" cType="1" res="2.8263258282095194e-03" rms="4.5370107889175415e-01" purity="5.0914955139160156e-01" nType="-99"/>
        </Node>
        <Node pos="r" depth="1" NCoef="0" IVar="2" Cut="3.2489938354492188e+02" cType="1" res="-2.1809864789247513e-02" rms="4.3431875109672546e-01" purity="4.0532550215721130e-01" nType="0">
          <Node pos="l" depth="2" NCoef="0" IVar="-1" Cut="0.0000000000000000e+00" cType="1" res="-3.7516029551625252e-03" rms="4.2513990402221680e-01" purity="3.2176280021667480e-01" nType="-99"/>
          <Node pos="r" depth="2" NCoef="0" IVar="-1" Cut="0.0000000000000000e+00" cType="1" res="2.0789208356291056e-03" rms="4.5189884305000305e-01" purity="6.1292421817779541e-01" nType="-99"/>
        </Node>
      </Node>
    </BinaryTree>
    <BinaryTree type="DecisionTree" boostWeight="1.0000000000000000e+00" itree="464">
      <Node pos="s" depth="0" NCoef="0" IVar="0" Cut="-4.6721115708351135e-02" cType="1" res="2.7828142629005015e-04" rms="4.5106008648872375e-01" purity="5.0022232532501221e-01" nType="0">
        <Node pos="l" depth="1" NCoef="0" IVar="-1" Cut="0.0000000000000000e+00" cType="1" res="-2.2287552710622549e-03" rms="4.2551586031913757e-01" purity="2.8207108378410339e-01" nType="-99"/>
        <Node pos="r" depth="1" NCoef="0" IVar="3" Cut="2.1798948943614960e-01" cType="1" res="2.4752558674663305e-03" rms="4.5324292778968811e-01" purity="5.2001887559890747e-01" nType="0">
          <Node pos="l" depth="2" NCoef="0" IVar="-1" Cut="0.0000000000000000e+00" cType="1" res="3.4475835855118930e-04" rms="4.5212537050247192e-01" purity="5.1808619499206543e-01" nType="-99"/>
          <Node pos="r" depth="2" NCoef="0" IVar="-1" Cut="0.0000000000000000e+00" cType="1" res="-1.6076513566076756e-03" rms="4.6425953507423401e-01" purity="5.4073268175125122e-01" nType="-99"/>
        </Node>
      </Node>
    </BinaryTree>
    <BinaryTree type="DecisionTree" boostWeight="1.0000000000000000e+00" itree="465">
      <Node pos="s" depth="0" NCoef="0" IVar="5" Cut="3.6132237873971462e-03" cType="1" res="-2.8870117384940386e-03" rms="4.5104068517684937e-01" purity="4.9548420310020447e-01" nType="0">
        <Node pos="l" depth="1" NCoef="0" IVar="5" Cut="5.5587221868336201e-04" cType="1" res="-6.3386396504938602e-04" rms="4.5084556937217712e-01" purity="5.0496572256088257e-01" nType="0">
          <Node pos="l" depth="2" NCoef="0" IVar="-1" Cut="0.0000000000000000e+00" cType="1" res="-8.9743750868365169e-04" rms="4.3278172612190247e-01" purity="6.2819665670394897e-01" nType="-99"/>
          <Node pos="r" depth="2" NCoef="0" IVar="-1" Cut="0.0000000000000000e+00" cType="1" res="3.5208344343118370e-04" rms="4.5918598771095276e-01" purity="4.4561827182769775e-01" nType="-99"/>
        </Node>
        <Node pos="r" depth="1" NCoef="0" IVar="-1" Cut="0.0000000000000000e+00" cType="1" res="-2.8748312033712864e-03" rms="4.5262366533279419e-01" purity="3.4746095538139343e-01" nType="-99"/>
      </Node>
    </BinaryTree>
    <BinaryTree type="DecisionTree" boostWeight="1.0000000000000000e+00" itree="466">
      <Node pos="s" depth="0" NCoef="0" IVar="1" Cut="9.7566699981689453e-01" cType="1" res="-5.2007846534252167e-03" rms="4.5088386535644531e-01" purity="4.9557593464851379e-01" nType="0">
        <Node pos="l" depth="1" NCoef="0" IVar="7" Cut="3.7535709142684937e-01" cType="1" res="-7.8868959099054337e-03" rms="4.5694708824157715e-01" purity="4.6616694331169128e-01" nType="0">
          <Node pos="l" depth="2" NCoef="0" IVar="-1" Cut="0.0000000000000000e+00" cType="1" res="1.9300170242786407e-03" rms="4.6483457088470459e-01" purity="4.6863874793052673e-01" nType="-99"/>
          <Node pos="r" depth="2" NCoef="0" IVar="-1" Cut="0.0000000000000000e+00" cType="1" res="-7.4992352165281773e-04" rms="4.5623746514320374e-01" purity="4.6598008275032043e-01" nType="-99"/>
        </Node>
        <Node pos="r" depth="1" NCoef="0" IVar="-1" Cut="0.0000000000000000e+00" cType="1" res="1.9607380963861942e-03" rms="3.7602329254150391e-01" purity="8.2115983963012695e-01" nType="-99"/>
      </Node>
    </BinaryTree>
    <BinaryTree type="DecisionTree" boostWeight="1.0000000000000000e+00" itree="467">
      <Node pos="s" depth="0" NCoef="0" IVar="7" Cut="3.5728698968887329e-01" cType="1" res="-2.8656912036240101e-03" rms="4.4991204142570496e-01" purity="4.9869313836097717e-01" nType="0">
        <Node pos="l" depth="1" NCoef="0" IVar="-1" Cut="0.0000000000000000e+00" cType="1" res="3.7405814509838820e-03" rms="4.6761772036552429e-01" purity="5.1931434869766235e-01" nType="-99"/>
        <Node pos="r" depth="1" NCoef="0" IVar="1" Cut="9.6024078130722046e-01" cType="1" res="-5.9482199139893055e-03" rms="4.4873827695846558e-01" purity="4.9759221076965332e-01" nType="0">
          <Node pos="l" depth="2" NCoef="0" IVar="-1" Cut="0.0000000000000000e+00" cType="1" res="-8.3097943570464849e-04" rms="4.5720687508583069e-01" purity="4.4593018293380737e-01" nType="-99"/>
          <Node pos="r" depth="2" NCoef="0" IVar="-1" Cut="0.0000000000000000e+00" cType="1" res="1.9000930478796363e-03" rms="3.9690372347831726e-01" purity="7.8487372398376465e-01" nType="-99"/>
        </Node>
      </Node>
    </BinaryTree>
    <BinaryTree type="DecisionTree" boostWeight="1.0000000000000000e+00" itree="468">
      <Node pos="s" depth="0" NCoef="0" IVar="2" Cut="2.1995570373535156e+02" cType="1" res="4.7303638420999050e-03" rms="4.5014369487762451e-01" purity="5.0330013036727905e-01" nType="0">
        <Node pos="l" depth="1" NCoef="0" IVar="1" Cut="8.8696670532226562e-01" cType="1" res="-1.7923248931765556e-02" rms="4.1037073731422424e-01" purity="2.6942357420921326e-01" nType="0">
          <Node pos="l" depth="2" NCoef="0" IVar="-1" Cut="0.0000000000000000e+00" cType="1" res="7.5964565621688962e-04" rms="3.9022940397262573e-01" purity="2.0900490880012512e-01" nType="-99"/>
          <Node pos="r" depth="2" NCoef="0" IVar="-1" Cut="0.0000000000000000e+00" cType="1" res="-3.1815345864742994e-03" rms="4.2443859577178955e-01" purity="3.1652697920799255e-01" nType="-99"/>
        </Node>
        <Node pos="r" depth="1" NCoef="0" IVar="4" Cut="1.2560155987739563e-01" cType="1" res="8.1541119143366814e-03" rms="4.5575505495071411e-01" purity="5.3864699602127075e-01" nType="0">
          <Node pos="l" depth="2" NCoef="0" IVar="-1" Cut="0.0000000000000000e+00" cType="1" res="-1.8913303501904011e-03" rms="4.5226842164993286e-01" purity="4.2432925105094910e-01" nType="-99"/>
          <Node pos="r" depth="2" NCoef="0" IVar="-1" Cut="0.0000000000000000e+00" cType="1" res="7.2195980465039611e-04" rms="4.5590671896934509e-01" purity="5.4686236381530762e-01" nType="-99"/>
        </Node>
      </Node>
    </BinaryTree>
    <BinaryTree type="DecisionTree" boostWeight="1.0000000000000000e+00" itree="469">
      <Node pos="s" depth="0" NCoef="0" IVar="5" Cut="3.3390272874385118e-03" cType="1" res="-3.5446942783892155e-03" rms="4.5162171125411987e-01" purity="4.9500697851181030e-01" nType="0">
        <Node pos="l" depth="1" NCoef="0" IVar="7" Cut="4.5442005991935730e-01" cType="1" res="-6.2725516036152840e-03" rms="4.5029547810554504e-01" purity="5.0407189130783081e-01" nType="0">
          <Node pos="l" depth="2" NCoef="0" IVar="-1" Cut="0.0000000000000000e+00" cType="1" res="-1.8895932007580996e-03" rms="4.4055387377738953e-01" purity="4.3732672929763794e-01" nType="-99"/>
          <Node pos="r" depth="2" NCoef="0" IVar="-1" Cut="0.0000000000000000e+00" cType="1" res="-1.9002941553480923e-04" rms="4.5207455754280090e-01" purity="5.1703941822052002e-01" nType="-99"/>
        </Node>
        <Node pos="r" depth="1" NCoef="0" IVar="-1" Cut="0.0000000000000000e+00" cType="1" res="1.6604968113824725e-03" rms="4.6346980333328247e-01" purity="4.0697464346885681e-01" nType="-99"/>
      </Node>
    </BinaryTree>
    <BinaryTree type="DecisionTree" boostWeight="1.0000000000000000e+00" itree="470">
      <Node pos="s" depth="0" NCoef="0" IVar="5" Cut="3.7208837457001209e-03" cType="1" res="4.1422280482947826e-03" rms="4.5026007294654846e-01" purity="5.0371587276458740e-01" nType="0">
        <Node pos="l" depth="1" NCoef="0" IVar="4" Cut="6.4528888463973999e-01" cType="1" res="1.3423140626400709e-03" rms="4.4977495074272156e-01" purity="5.0625270605087280e-01" nType="0">
          <Node pos="l" depth="2" NCoef="0" IVar="-1" Cut="0.0000000000000000e+00" cType="1" res="-1.3039370242040604e-04" rms="4.5000556111335754e-01" purity="4.9798902869224548e-01" nType="-99"/>
          <Node pos="r" depth="2" NCoef="0" IVar="-1" Cut="0.0000000000000000e+00" cType="1" res="1.7974728252738714e-03" rms="4.4728085398674011e-01" purity="5.6932961940765381e-01" nType="-99"/>
        </Node>
        <Node pos="r" depth="1" NCoef="0" IVar="-1" Cut="0.0000000000000000e+00" cType="1" res="3.8154276553541422e-03" rms="4.5610737800598145e-01" purity="4.5583850145339966e-01" nType="-99"/>
      </Node>
    </BinaryTree>
    <BinaryTree type="DecisionTree" boostWeight="1.0000000000000000e+00" itree="471">
      <Node pos="s" depth="0" NCoef="0" IVar="4" Cut="4.0440911054611206e-01" cType="1" res="-1.4375410974025726e-03" rms="4.5199170708656311e-01" purity="4.9769899249076843e-01" nType="0">
        <Node pos="l" depth="1" NCoef="0" IVar="1" Cut="8.6761087179183960e-01" cType="1" res="-9.9952733144164085e-03" rms="4.5230272412300110e-01" purity="4.6870794892311096e-01" nType="0">
          <Node pos="l" depth="2" NCoef="0" IVar="-1" Cut="0.0000000000000000e+00" cType="1" res="-2.2595208138227463e-03" rms="4.3966639041900635e-01" purity="3.2410439848899841e-01" nType="-99"/>
          <Node pos="r" depth="2" NCoef="0" IVar="-1" Cut="0.0000000000000000e+00" cType="1" res="-3.8032748852856457e-04" rms="4.5536467432975769e-01" purity="5.0574415922164917e-01" nType="-99"/>
        </Node>
        <Node pos="r" depth="1" NCoef="0" IVar="0" Cut="1.2361907958984375e+00" cType="1" res="8.1735299900174141e-03" rms="4.5144879817962646e-01" purity="5.3025841712951660e-01" nType="0">
          <Node pos="l" depth="2" NCoef="0" IVar="-1" Cut="0.0000000000000000e+00" cType="1" res="1.8683670787140727e-03" rms="4.6077960729598999e-01" purity="3.9903190732002258e-01" nType="-99"/>
          <Node pos="r" depth="2" NCoef="0" IVar="-1" Cut="0.0000000000000000e+00" cType="1" res="-2.1899958665017039e-04" rms="4.4440829753875732e-01" purity="6.2264519929885864e-01" nType="-99"/>
        </Node>
      </Node>
    </BinaryTree>
    <BinaryTree type="DecisionTree" boostWeight="1.0000000000000000e+00" itree="472">
      <Node pos="s" depth="0" NCoef="0" IVar="2" Cut="2.1613893127441406e+02" cType="1" res="-1.8949505465570837e-04" rms="4.5132899284362793e-01" purity="5.0083577632904053e-01" nType="0">
        <Node pos="l" depth="1" NCoef="0" IVar="7" Cut="6.3483393192291260e-01" cType="1" res="-2.6496607810258865e-02" rms="4.0859586000442505e-01" purity="2.6231640577316284e-01" nType="0">
          <Node pos="l" depth="2" NCoef="0" IVar="-1" Cut="0.0000000000000000e+00" cType="1" res="-4.7001463826745749e-04" rms="4.0585896372795105e-01" purity="2.6934310793876648e-01" nType="-99"/>
          <Node pos="r" depth="2" NCoef="0" IVar="-1" Cut="0.0000000000000000e+00" cType="1" res="-5.4431394673883915e-03" rms="4.1043487191200256e-01" purity="2.5280898809432983e-01" nType="-99"/>
        </Node>
        <Node pos="r" depth="1" NCoef="0" IVar="6" Cut="1.8014950752258301e+00" cType="1" res="3.3655855804681778e-03" rms="4.5668110251426697e-01" purity="5.3306865692138672e-01" nType="0">
          <Node pos="l" depth="2" NCoef="0" IVar="-1" Cut="0.0000000000000000e+00" cType="1" res="-5.0235023081768304e-05" rms="4.5726957917213440e-01" purity="5.3536951541900635e-01" nType="-99"/>
          <Node pos="r" depth="2" NCoef="0" IVar="-1" Cut="0.0000000000000000e+00" cType="1" res="2.8135550674051046e-03" rms="4.4968056678771973e-01" purity="5.1236408948898315e-01" nType="-99"/>
        </Node>
      </Node>
    </BinaryTree>
    <BinaryTree type="DecisionTree" boostWeight="1.0000000000000000e+00" itree="473">
      <Node pos="s" depth="0" NCoef="0" IVar="5" Cut="1.2904385803267360e-03" cType="1" res="-5.6137074716389179e-03" rms="4.5171624422073364e-01" purity="4.9296584725379944e-01" nType="0">
        <Node pos="l" depth="1" NCoef="0" IVar="1" Cut="9.3712198734283447e-01" cType="1" res="-1.4411005191504955e-02" rms="4.4511735439300537e-01" purity="5.6720125675201416e-01" nType="0">
          <Node pos="l" depth="2" NCoef="0" IVar="-1" Cut="0.0000000000000000e+00" cType="1" res="-2.2883706260472536e-03" rms="4.5622116327285767e-01" purity="4.3314284086227417e-01" nType="-99"/>
          <Node pos="r" depth="2" NCoef="0" IVar="-1" Cut="0.0000000000000000e+00" cType="1" res="1.3546072295866907e-04" rms="4.3346700072288513e-01" purity="6.9706326723098755e-01" nType="-99"/>
        </Node>
        <Node pos="r" depth="1" NCoef="0" IVar="1" Cut="8.9939349889755249e-01" cType="1" res="3.7317350506782532e-03" rms="4.5843741297721863e-01" purity="4.1410499811172485e-01" nType="0">
          <Node pos="l" depth="2" NCoef="0" IVar="-1" Cut="0.0000000000000000e+00" cType="1" res="-4.0230675949715078e-04" rms="4.5516854524612427e-01" purity="3.9071345329284668e-01" nType="-99"/>
          <Node pos="r" depth="2" NCoef="0" IVar="-1" Cut="0.0000000000000000e+00" cType="1" res="3.3895848318934441e-03" rms="4.7246912121772766e-01" purity="5.3846555948257446e-01" nType="-99"/>
        </Node>
      </Node>
    </BinaryTree>
    <BinaryTree type="DecisionTree" boostWeight="1.0000000000000000e+00" itree="474">
      <Node pos="s" depth="0" NCoef="0" IVar="6" Cut="1.3819725513458252e+00" cType="1" res="3.2380971242673695e-04" rms="4.5022821426391602e-01" purity="5.0013858079910278e-01" nType="0">
        <Node pos="l" depth="1" NCoef="0" IVar="3" Cut="6.7686781287193298e-02" cType="1" res="-6.4597362652420998e-03" rms="4.5491304993629456e-01" purity="5.2534633874893188e-01" nType="0">
          <Node pos="l" depth="2" NCoef="0" IVar="-1" Cut="0.0000000000000000e+00" cType="1" res="1.0053044388769194e-04" rms="4.5347568392753601e-01" purity="5.1726424694061279e-01" nType="-99"/>
          <Node pos="r" depth="2" NCoef="0" IVar="-1" Cut="0.0000000000000000e+00" cType="1" res="-1.4231156092137098e-03" rms="4.5713561773300171e-01" purity="5.3981554508209229e-01" nType="-99"/>
        </Node>
        <Node pos="r" depth="1" NCoef="0" IVar="2" Cut="2.4288772583007812e+02" cType="1" res="1.4026118442416191e-02" rms="4.4029459357261658e-01" purity="4.4922053813934326e-01" nType="0">
          <Node pos="l" depth="2" NCoef="0" IVar="-1" Cut="0.0000000000000000e+00" cType="1" res="-9.0229627676308155e-04" rms="4.1533288359642029e-01" purity="2.8266513347625732e-01" nType="-99"/>
          <Node pos="r" depth="2" NCoef="0" IVar="-1" Cut="0.0000000000000000e+00" cType="1" res="1.6921069473028183e-03" rms="4.5093169808387756e-01" purity="5.2601069211959839e-01" nType="-99"/>
        </Node>
      </Node>
    </BinaryTree>
    <BinaryTree type="DecisionTree" boostWeight="1.0000000000000000e+00" itree="475">
      <Node pos="s" depth="0" NCoef="0" IVar="5" Cut="1.5384863363578916e-03" cType="1" res="3.8931870367377996e-03" rms="4.5074698328971863e-01" purity="5.0095814466476440e-01" nType="0">
        <Node pos="l" depth="1" NCoef="0" IVar="2" Cut="4.2044451904296875e+02" cType="1" res="-3.6448703613132238e-03" rms="4.4315955042839050e-01" purity="5.6142473220825195e-01" nType="0">
          <Node pos="l" depth="2" NCoef="0" IVar="-1" Cut="0.0000000000000000e+00" cType="1" res="-7.4001337634399533e-04" rms="4.4911709427833557e-01" purity="5.1667392253875732e-01" nType="-99"/>
          <Node pos="r" depth="2" NCoef="0" IVar="-1" Cut="0.0000000000000000e+00" cType="1" res="1.4480755198746920e-03" rms="4.1981935501098633e-01" purity="7.2473937273025513e-01" nType="-99"/>
        </Node>
        <Node pos="r" depth="1" NCoef="0" IVar="5" Cut="3.6686947569251060e-03" cType="1" res="1.3937228359282017e-02" rms="4.6047094464302063e-01" purity="4.2038971185684204e-01" nType="0">
          <Node pos="l" depth="2" NCoef="0" IVar="-1" Cut="0.0000000000000000e+00" cType="1" res="1.2875441461801529e-03" rms="4.6238484978675842e-01" purity="4.2629683017730713e-01" nType="-99"/>
          <Node pos="r" depth="2" NCoef="0" IVar="-1" Cut="0.0000000000000000e+00" cType="1" res="-9.3413965078070760e-04" rms="4.4657173752784729e-01" purity="3.8098371028900146e-01" nType="-99"/>
        </Node>
      </Node>
    </BinaryTree>
    <BinaryTree type="DecisionTree" boostWeight="1.0000000000000000e+00" itree="476">
      <Node pos="s" depth="0" NCoef="0" IVar="0" Cut="2.0731914043426514e+00" cType="1" res="5.7724042562767863e-04" rms="4.5192372798919678e-01" purity="4.9710211157798767e-01" nType="0">
        <Node pos="l" depth="1" NCoef="0" IVar="3" Cut="-6.0108907520771027e-02" cType="1" res="8.7658502161502838e-03" rms="4.5727604627609253e-01" purity="4.1016590595245361e-01" nType="0">
          <Node pos="l" depth="2" NCoef="0" IVar="-1" Cut="0.0000000000000000e+00" cType="1" res="-1.0652297642081976e-03" rms="4.3740853667259216e-01" purity="3.5933661460876465e-01" nType="-99"/>
          <Node pos="r" depth="2" NCoef="0" IVar="-1" Cut="0.0000000000000000e+00" cType="1" res="1.2865152675658464e-03" rms="4.6485188603401184e-01" purity="4.3091422319412231e-01" nType="-99"/>
        </Node>
        <Node pos="r" depth="1" NCoef="0" IVar="7" Cut="5.5578923225402832e-01" cType="1" res="-1.2398330494761467e-02" rms="4.4300037622451782e-01" purity="6.3486021757125854e-01" nType="0">
          <Node pos="l" depth="2" NCoef="0" IVar="-1" Cut="0.0000000000000000e+00" cType="1" res="-2.3713374976068735e-03" rms="4.5776343345642090e-01" purity="5.4721522331237793e-01" nType="-99"/>
          <Node pos="r" depth="2" NCoef="0" IVar="-1" Cut="0.0000000000000000e+00" cType="1" res="-6.6192500526085496e-05" rms="4.3495702743530273e-01" purity="6.7883515357971191e-01" nType="-99"/>
        </Node>
      </Node>
    </BinaryTree>
    <BinaryTree type="DecisionTree" boostWeight="1.0000000000000000e+00" itree="477">
      <Node pos="s" depth="0" NCoef="0" IVar="5" Cut="5.1370059372857213e-04" cType="1" res="8.7639992125332355e-04" rms="4.5092976093292236e-01" purity="4.9959394335746765e-01" nType="0">
        <Node pos="l" depth="1" NCoef="0" IVar="1" Cut="9.6016675233840942e-01" cType="1" res="-1.3539938256144524e-02" rms="4.2863965034484863e-01" purity="6.3696968555450439e-01" nType="0">
          <Node pos="l" depth="2" NCoef="0" IVar="-1" Cut="0.0000000000000000e+00" cType="1" res="-2.7419731486588717e-03" rms="4.5854395627975464e-01" purity="4.9391070008277893e-01" nType="-99"/>
          <Node pos="r" depth="2" NCoef="0" IVar="-1" Cut="0.0000000000000000e+00" cType="1" res="7.2829885175451636e-04" rms="3.9653465151786804e-01" purity="7.7397859096527100e-01" nType="-99"/>
        </Node>
        <Node pos="r" depth="1" NCoef="0" IVar="2" Cut="3.7793994140625000e+02" cType="1" res="6.8039400503039360e-03" rms="4.5965021848678589e-01" purity="4.4310936331748962e-01" nType="0">
          <Node pos="l" depth="2" NCoef="0" IVar="-1" Cut="0.0000000000000000e+00" cType="1" res="1.3648367894347757e-04" rms="4.5636120438575745e-01" purity="3.8221889734268188e-01" nType="-99"/>
          <Node pos="r" depth="2" NCoef="0" IVar="-1" Cut="0.0000000000000000e+00" cType="1" res="1.2404829030856490e-03" rms="4.6798875927925110e-01" purity="6.0431027412414551e-01" nType="-99"/>
        </Node>
      </Node>
    </BinaryTree>
    <BinaryTree type="DecisionTree" boostWeight="1.0000000000000000e+00" itree="478">
      <Node pos="s" depth="0" NCoef="0" IVar="0" Cut="4.4519305229187012e+00" cType="1" res="-8.6136389290913939e-04" rms="4.5101350545883179e-01" purity="4.9988582730293274e-01" nType="0">
        <Node pos="l" depth="1" NCoef="0" IVar="1" Cut="9.6756577491760254e-01" cType="1" res="-3.3754224423319101e-03" rms="4.5654344558715820e-01" purity="4.7437319159507751e-01" nType="0">
          <Node pos="l" depth="2" NCoef="0" IVar="-1" Cut="0.0000000000000000e+00" cType="1" res="-4.4891750440001488e-04" rms="4.6125513315200806e-01" purity="4.4159728288650513e-01" nType="-99"/>
          <Node pos="r" depth="2" NCoef="0" IVar="-1" Cut="0.0000000000000000e+00" cType="1" res="1.7155347159132361e-03" rms="4.0962648391723633e-01" purity="7.7631247043609619e-01" nType="-99"/>
        </Node>
        <Node pos="r" depth="1" NCoef="0" IVar="-1" Cut="0.0000000000000000e+00" cType="1" res="2.2391709499061108e-03" rms="3.7643772363662720e-01" purity="8.0848479270935059e-01" nType="-99"/>
      </Node>
    </BinaryTree>
    <BinaryTree type="DecisionTree" boostWeight="1.0000000000000000e+00" itree="479">
      <Node pos="s" depth="0" NCoef="0" IVar="4" Cut="1.2734858691692352e-01" cType="1" res="5.8326136786490679e-04" rms="4.5240357518196106e-01" purity="4.9929419159889221e-01" nType="0">
        <Node pos="l" depth="1" NCoef="0" IVar="-1" Cut="0.0000000000000000e+00" cType="1" res="-3.3999928273260593e-03" rms="4.4569861888885498e-01" purity="3.9253467321395874e-01" nType="-99"/>
        <Node pos="r" depth="1" NCoef="0" IVar="2" Cut="2.2712829589843750e+02" cType="1" res="3.6099173594266176e-03" rms="4.5269712805747986e-01" purity="5.0655537843704224e-01" nType="0">
          <Node pos="l" depth="2" NCoef="0" IVar="-1" Cut="0.0000000000000000e+00" cType="1" res="-1.7651371890679002e-03" rms="4.1921558976173401e-01" purity="2.8149384260177612e-01" nType="-99"/>
          <Node pos="r" depth="2" NCoef="0" IVar="-1" Cut="0.0000000000000000e+00" cType="1" res="5.5495853303000331e-04" rms="4.5901891589164734e-01" purity="5.5192542076110840e-01" nType="-99"/>
        </Node>
      </Node>
    </BinaryTree>
    <BinaryTree type="DecisionTree" boostWeight="1.0000000000000000e+00" itree="480">
      <Node pos="s" depth="0" NCoef="0" IVar="5" Cut="5.0838466268032789e-04" cType="1" res="3.0588658992201090e-03" rms="4.5372575521469116e-01" purity="5.0149846076965332e-01" nType="0">
        <Node pos="l" depth="1" NCoef="0" IVar="2" Cut="3.1888638305664062e+02" cType="1" res="-1.0867712087929249e-02" rms="4.3305829167366028e-01" purity="6.3681095838546753e-01" nType="0">
          <Node pos="l" depth="2" NCoef="0" IVar="-1" Cut="0.0000000000000000e+00" cType="1" res="-2.0544086582958698e-03" rms="4.4999518990516663e-01" purity="5.3746551275253296e-01" nType="-99"/>
          <Node pos="r" depth="2" NCoef="0" IVar="-1" Cut="0.0000000000000000e+00" cType="1" res="5.0149299204349518e-04" rms="4.1461381316184998e-01" purity="7.3657822608947754e-01" nType="-99"/>
        </Node>
        <Node pos="r" depth="1" NCoef="0" IVar="5" Cut="7.3666375828906894e-04" cType="1" res="8.6083700880408287e-03" rms="4.6158659458160400e-01" purity="4.4757866859436035e-01" nType="0">
          <Node pos="l" depth="2" NCoef="0" IVar="-1" Cut="0.0000000000000000e+00" cType="1" res="2.9968221206218004e-03" rms="4.7206854820251465e-01" purity="5.5656248331069946e-01" nType="-99"/>
          <Node pos="r" depth="2" NCoef="0" IVar="-1" Cut="0.0000000000000000e+00" cType="1" res="3.0584685737267137e-04" rms="4.6015283465385437e-01" purity="4.3485239148139954e-01" nType="-99"/>
        </Node>
      </Node>
    </BinaryTree>
    <BinaryTree type="DecisionTree" boostWeight="1.0000000000000000e+00" itree="481">
      <Node pos="s" depth="0" NCoef="0" IVar="4" Cut="1.2774169445037842e-01" cType="1" res="-3.3915049862116575e-03" rms="4.5163750648498535e-01" purity="4.9643945693969727e-01" nType="0">
        <Node pos="l" depth="1" NCoef="0" IVar="-1" Cut="0.0000000000000000e+00" cType="1" res="-3.7677094805985689e-03" rms="4.3972289562225342e-01" purity="3.7350600957870483e-01" nType="-99"/>
        <Node pos="r" depth="1" NCoef="0" IVar="5" Cut="1.5236844774335623e-03" cType="1" res="-3.8850109558552504e-04" rms="4.5225542783737183e-01" purity="5.0458461046218872e-01" nType="0">
          <Node pos="l" depth="2" NCoef="0" IVar="-1" Cut="0.0000000000000000e+00" cType="1" res="-7.3838751995936036e-04" rms="4.4498825073242188e-01" purity="5.6482851505279541e-01" nType="-99"/>
          <Node pos="r" depth="2" NCoef="0" IVar="-1" Cut="0.0000000000000000e+00" cType="1" res="9.1524078743532300e-04" rms="4.6138745546340942e-01" purity="4.2468440532684326e-01" nType="-99"/>
        </Node>
      </Node>
    </BinaryTree>
    <BinaryTree type="DecisionTree" boostWeight="1.0000000000000000e+00" itree="482">
      <Node pos="s" depth="0" NCoef="0" IVar="2" Cut="2.0327479553222656e+02" cType="1" res="3.2811565324664116e-03" rms="4.5147678256034851e-01" purity="5.0412911176681519e-01" nType="0">
        <Node pos="l" depth="1" NCoef="0" IVar="-1" Cut="0.0000000000000000e+00" cType="1" res="-3.3495400566607714e-03" rms="3.8472786545753479e-01" purity="2.2949576377868652e-01" nType="-99"/>
        <Node pos="r" depth="1" NCoef="0" IVar="1" Cut="8.5610842704772949e-01" cType="1" res="6.1776875518262386e-03" rms="4.5639505982398987e-01" purity="5.2664411067962646e-01" nType="0">
          <Node pos="l" depth="2" NCoef="0" IVar="-1" Cut="0.0000000000000000e+00" cType="1" res="-1.9024475477635860e-03" rms="4.5789161324501038e-01" purity="3.5582676529884338e-01" nType="-99"/>
          <Node pos="r" depth="2" NCoef="0" IVar="-1" Cut="0.0000000000000000e+00" cType="1" res="6.0479698004201055e-04" rms="4.5618072152137756e-01" purity="5.4039794206619263e-01" nType="-99"/>
        </Node>
      </Node>
    </BinaryTree>
    <BinaryTree type="DecisionTree" boostWeight="1.0000000000000000e+00" itree="483">
      <Node pos="s" depth="0" NCoef="0" IVar="2" Cut="4.0286764526367188e+02" cType="1" res="-7.4624217813834548e-04" rms="4.4991195201873779e-01" purity="4.9832189083099365e-01" nType="0">
        <Node pos="l" depth="1" NCoef="0" IVar="1" Cut="8.7925773859024048e-01" cType="1" res="-6.4623728394508362e-03" rms="4.5109236240386963e-01" purity="4.4764450192451477e-01" nType="0">
          <Node pos="l" depth="2" NCoef="0" IVar="-1" Cut="0.0000000000000000e+00" cType="1" res="-1.6873758286237717e-03" rms="4.4053858518600464e-01" purity="3.0760702490806580e-01" nType="-99"/>
          <Node pos="r" depth="2" NCoef="0" IVar="-1" Cut="0.0000000000000000e+00" cType="1" res="1.8210632333648391e-05" rms="4.5585885643959045e-01" purity="5.1406651735305786e-01" nType="-99"/>
        </Node>
        <Node pos="r" depth="1" NCoef="0" IVar="2" Cut="4.7941104125976562e+02" cType="1" res="1.8554970622062683e-02" rms="4.4536125659942627e-01" purity="6.6944015026092529e-01" nType="0">
          <Node pos="l" depth="2" NCoef="0" IVar="-1" Cut="0.0000000000000000e+00" cType="1" res="2.6335229631513357e-03" rms="4.4562754034996033e-01" purity="6.6281992197036743e-01" nType="-99"/>
          <Node pos="r" depth="2" NCoef="0" IVar="-1" Cut="0.0000000000000000e+00" cType="1" res="-3.6766850826097652e-05" rms="4.4423866271972656e-01" purity="6.7497771978378296e-01" nType="-99"/>
        </Node>
      </Node>
    </BinaryTree>
    <BinaryTree type="DecisionTree" boostWeight="1.0000000000000000e+00" itree="484">
      <Node pos="s" depth="0" NCoef="0" IVar="5" Cut="1.5485257608816028e-03" cType="1" res="2.2819668520241976e-03" rms="4.5115479826927185e-01" purity="5.0188887119293213e-01" nType="0">
        <Node pos="l" depth="1" NCoef="0" IVar="1" Cut="9.4868171215057373e-01" cType="1" res="-8.0198654904961586e-03" rms="4.4126901030540466e-01" purity="5.6060433387756348e-01" nType="0">
          <Node pos="l" depth="2" NCoef="0" IVar="-1" Cut="0.0000000000000000e+00" cType="1" res="-1.2153993593528867e-03" rms="4.5570027828216553e-01" purity="4.6217140555381775e-01" nType="-99"/>
          <Node pos="r" depth="2" NCoef="0" IVar="-1" Cut="0.0000000000000000e+00" cType="1" res="5.6654075160622597e-04" rms="4.1435167193412781e-01" purity="7.3278534412384033e-01" nType="-99"/>
        </Node>
        <Node pos="r" depth="1" NCoef="0" IVar="1" Cut="8.9438450336456299e-01" cType="1" res="1.6230447217822075e-02" rms="4.6384009718894958e-01" purity="4.2238929867744446e-01" nType="0">
          <Node pos="l" depth="2" NCoef="0" IVar="-1" Cut="0.0000000000000000e+00" cType="1" res="6.7012151703238487e-04" rms="4.6253809332847595e-01" purity="4.0435430407524109e-01" nType="-99"/>
          <Node pos="r" depth="2" NCoef="0" IVar="-1" Cut="0.0000000000000000e+00" cType="1" res="3.8303574547171593e-03" rms="4.6943670511245728e-01" purity="5.3298282623291016e-01" nType="-99"/>
        </Node>
      </Node>
    </BinaryTree>
    <BinaryTree type="DecisionTree" boostWeight="1.0000000000000000e+00" itree="485">
      <Node pos="s" depth="0" NCoef="0" IVar="2" Cut="5.4645697021484375e+02" cType="1" res="-4.4714827090501785e-03" rms="4.5083883404731750e-01" purity="4.9565356969833374e-01" nType="0">
        <Node pos="l" depth="1" NCoef="0" IVar="4" Cut="4.6552568674087524e-01" cType="1" res="-7.3650730773806572e-03" rms="4.5213931798934937e-01" purity="4.7631567716598511e-01" nType="0">
          <Node pos="l" depth="2" NCoef="0" IVar="-1" Cut="0.0000000000000000e+00" cType="1" res="-1.1152625083923340e-03" rms="4.5389914512634277e-01" purity="4.4811326265335083e-01" nType="-99"/>
          <Node pos="r" depth="2" NCoef="0" IVar="-1" Cut="0.0000000000000000e+00" cType="1" res="3.7337452522478998e-04" rms="4.4898530840873718e-01" purity="5.2205348014831543e-01" nType="-99"/>
        </Node>
        <Node pos="r" depth="1" NCoef="0" IVar="-1" Cut="0.0000000000000000e+00" cType="1" res="2.0241425372660160e-03" rms="4.3362897634506226e-01" purity="7.2524499893188477e-01" nType="-99"/>
      </Node>
    </BinaryTree>
    <BinaryTree type="DecisionTree" boostWeight="1.0000000000000000e+00" itree="486">
      <Node pos="s" depth="0" NCoef="0" IVar="5" Cut="1.1545326560735703e-03" cType="1" res="3.7634624168276787e-03" rms="4.5381361246109009e-01" purity="5.0323945283889771e-01" nType="0">
        <Node pos="l" depth="1" NCoef="0" IVar="1" Cut="9.3312942981719971e-01" cType="1" res="-7.2095138020813465e-03" rms="4.4264662265777588e-01" purity="5.8358544111251831e-01" nType="0">
          <Node pos="l" depth="2" NCoef="0" IVar="-1" Cut="0.0000000000000000e+00" cType="1" res="-1.8437783000990748e-03" rms="4.5592468976974487e-01" purity="4.2265796661376953e-01" nType="-99"/>
          <Node pos="r" depth="2" NCoef="0" IVar="-1" Cut="0.0000000000000000e+00" cType="1" res="3.1006280914880335e-04" rms="4.3329381942749023e-01" purity="6.8950635194778442e-01" nType="-99"/>
        </Node>
        <Node pos="r" depth="1" NCoef="0" IVar="7" Cut="4.1697120666503906e-01" cType="1" res="1.3710260391235352e-02" rms="4.6347951889038086e-01" purity="4.3040731549263000e-01" nType="0">
          <Node pos="l" depth="2" NCoef="0" IVar="-1" Cut="0.0000000000000000e+00" cType="1" res="3.9301314391195774e-03" rms="4.7311443090438843e-01" purity="4.3330404162406921e-01" nType="-99"/>
          <Node pos="r" depth="2" NCoef="0" IVar="-1" Cut="0.0000000000000000e+00" cType="1" res="5.7094765361398458e-04" rms="4.6184334158897400e-01" purity="4.3000620603561401e-01" nType="-99"/>
        </Node>
      </Node>
    </BinaryTree>
    <BinaryTree type="DecisionTree" boostWeight="1.0000000000000000e+00" itree="487">
      <Node pos="s" depth="0" NCoef="0" IVar="6" Cut="1.8256494998931885e+00" cType="1" res="2.0756758749485016e-03" rms="4.5172327756881714e-01" purity="5.0202941894531250e-01" nType="0">
        <Node pos="l" depth="1" NCoef="0" IVar="0" Cut="2.3138906955718994e+00" cType="1" res="-2.4584948550909758e-03" rms="4.5239645242691040e-01" purity="5.0645673274993896e-01" nType="0">
          <Node pos="l" depth="2" NCoef="0" IVar="-1" Cut="0.0000000000000000e+00" cType="1" res="-7.6331006130203605e-04" rms="4.5866343379020691e-01" purity="4.1574814915657043e-01" nType="-99"/>
          <Node pos="r" depth="2" NCoef="0" IVar="-1" Cut="0.0000000000000000e+00" cType="1" res="8.0779416020959616e-04" rms="4.3995094299316406e-01" purity="6.7766672372817993e-01" nType="-99"/>
        </Node>
        <Node pos="r" depth="1" NCoef="0" IVar="0" Cut="1.5226131677627563e+00" cType="1" res="4.0583316236734390e-02" rms="4.4410318136215210e-01" purity="4.6442925930023193e-01" nType="0">
          <Node pos="l" depth="2" NCoef="0" IVar="-1" Cut="0.0000000000000000e+00" cType="1" res="6.4454190433025360e-03" rms="4.4255718588829041e-01" purity="3.7755215167999268e-01" nType="-99"/>
          <Node pos="r" depth="2" NCoef="0" IVar="-1" Cut="0.0000000000000000e+00" cType="1" res="5.1996088586747646e-04" rms="4.4319638609886169e-01" purity="5.5114448070526123e-01" nType="-99"/>
        </Node>
      </Node>
    </BinaryTree>
    <BinaryTree type="DecisionTree" boostWeight="1.0000000000000000e+00" itree="488">
      <Node pos="s" depth="0" NCoef="0" IVar="5" Cut="3.5586771555244923e-03" cType="1" res="2.6378451730124652e-04" rms="4.5119604468345642e-01" purity="4.9988692998886108e-01" nType="0">
        <Node pos="l" depth="1" NCoef="0" IVar="1" Cut="8.6382746696472168e-01" cType="1" res="-1.4619724825024605e-03" rms="4.5005771517753601e-01" purity="5.0624698400497437e-01" nType="0">
          <Node pos="l" depth="2" NCoef="0" IVar="-1" Cut="0.0000000000000000e+00" cType="1" res="-2.2611753083765507e-03" rms="4.4220939278602600e-01" purity="3.1643092632293701e-01" nType="-99"/>
          <Node pos="r" depth="2" NCoef="0" IVar="-1" Cut="0.0000000000000000e+00" cType="1" res="1.1431578604970127e-04" rms="4.5088562369346619e-01" purity="5.2885681390762329e-01" nType="-99"/>
        </Node>
        <Node pos="r" depth="1" NCoef="0" IVar="-1" Cut="0.0000000000000000e+00" cType="1" res="1.6669145552441478e-03" rms="4.6558025479316711e-01" purity="4.1456615924835205e-01" nType="-99"/>
      </Node>
    </BinaryTree>
    <BinaryTree type="DecisionTree" boostWeight="1.0000000000000000e+00" itree="489">
      <Node pos="s" depth="0" NCoef="0" IVar="7" Cut="6.7708349227905273e-01" cType="1" res="1.6702939756214619e-03" rms="4.5340776443481445e-01" purity="5.0016182661056519e-01" nType="0">
        <Node pos="l" depth="1" NCoef="0" IVar="2" Cut="2.7545938110351562e+02" cType="1" res="1.1191931553184986e-02" rms="4.5534053444862366e-01" purity="4.6924269199371338e-01" nType="0">
          <Node pos="l" depth="2" NCoef="0" IVar="-1" Cut="0.0000000000000000e+00" cType="1" res="1.9580086227506399e-03" rms="4.4622486829757690e-01" purity="3.5970485210418701e-01" nType="-99"/>
          <Node pos="r" depth="2" NCoef="0" IVar="-1" Cut="0.0000000000000000e+00" cType="1" res="1.7291345284320414e-04" rms="4.6154013276100159e-01" purity="5.4737341403961182e-01" nType="-99"/>
        </Node>
        <Node pos="r" depth="1" NCoef="0" IVar="0" Cut="5.8775132894515991e-01" cType="1" res="-1.0356655344367027e-02" rms="4.5066714286804199e-01" purity="5.3921627998352051e-01" nType="0">
          <Node pos="l" depth="2" NCoef="0" IVar="-1" Cut="0.0000000000000000e+00" cType="1" res="1.0679053375497460e-03" rms="4.5959869027137756e-01" purity="3.8644874095916748e-01" nType="-99"/>
          <Node pos="r" depth="2" NCoef="0" IVar="-1" Cut="0.0000000000000000e+00" cType="1" res="-1.2314823688939214e-03" rms="4.4757962226867676e-01" purity="5.8679711818695068e-01" nType="-99"/>
        </Node>
      </Node>
    </BinaryTree>
    <BinaryTree type="DecisionTree" boostWeight="1.0000000000000000e+00" itree="490">
      <Node pos="s" depth="0" NCoef="0" IVar="2" Cut="2.1417602539062500e+02" cType="1" res="3.2601435668766499e-03" rms="4.5012804865837097e-01" purity="5.0120854377746582e-01" nType="0">
        <Node pos="l" depth="1" NCoef="0" IVar="5" Cut="1.5082055469974875e-03" cType="1" res="-2.7529498562216759e-02" rms="3.9889052510261536e-01" purity="2.5131580233573914e-01" nType="0">
          <Node pos="l" depth="2" NCoef="0" IVar="-1" Cut="0.0000000000000000e+00" cType="1" res="-1.1578015983104706e-03" rms="4.2241698503494263e-01" purity="3.2613310217857361e-01" nType="-99"/>
          <Node pos="r" depth="2" NCoef="0" IVar="-1" Cut="0.0000000000000000e+00" cType="1" res="-5.2436990663409233e-03" rms="3.7052372097969055e-01" purity="1.6869147121906281e-01" nType="-99"/>
        </Node>
        <Node pos="r" depth="1" NCoef="0" IVar="4" Cut="6.5399193763732910e-01" cType="1" res="7.0837084203958511e-03" rms="4.5594421029090881e-01" purity="5.3224116563796997e-01" nType="0">
          <Node pos="l" depth="2" NCoef="0" IVar="-1" Cut="0.0000000000000000e+00" cType="1" res="3.2504781847819686e-04" rms="4.5651501417160034e-01" purity="5.2474308013916016e-01" nType="-99"/>
          <Node pos="r" depth="2" NCoef="0" IVar="-1" Cut="0.0000000000000000e+00" cType="1" res="1.9117644988000393e-03" rms="4.5018577575683594e-01" purity="5.9992736577987671e-01" nType="-99"/>
        </Node>
      </Node>
    </BinaryTree>
    <BinaryTree type="DecisionTree" boostWeight="1.0000000000000000e+00" itree="491">
      <Node pos="s" depth="0" NCoef="0" IVar="7" Cut="8.1189233064651489e-01" cType="1" res="-2.2566947154700756e-03" rms="4.5217776298522949e-01" purity="5.0025194883346558e-01" nType="0">
        <Node pos="l" depth="1" NCoef="0" IVar="2" Cut="3.4458129882812500e+02" cType="1" res="-7.5550354085862637e-03" rms="4.5479589700698853e-01" purity="4.7995004057884216e-01" nType="0">
          <Node pos="l" depth="2" NCoef="0" IVar="-1" Cut="0.0000000000000000e+00" cType="1" res="2.9405609893728979e-05" rms="4.5275369286537170e-01" purity="4.1861605644226074e-01" nType="-99"/>
          <Node pos="r" depth="2" NCoef="0" IVar="-1" Cut="0.0000000000000000e+00" cType="1" res="-1.5062160091474652e-03" rms="4.5816203951835632e-01" purity="5.9251016378402710e-01" nType="-99"/>
        </Node>
        <Node pos="r" depth="1" NCoef="0" IVar="1" Cut="9.1783452033996582e-01" cType="1" res="1.9593445584177971e-02" rms="4.4054380059242249e-01" purity="5.8397632837295532e-01" nType="0">
          <Node pos="l" depth="2" NCoef="0" IVar="-1" Cut="0.0000000000000000e+00" cType="1" res="1.0165322237298824e-05" rms="4.6242094039916992e-01" purity="4.6434774994850159e-01" nType="-99"/>
          <Node pos="r" depth="2" NCoef="0" IVar="-1" Cut="0.0000000000000000e+00" cType="1" res="3.1646501738578081e-03" rms="4.0707859396934509e-01" purity="7.4828970432281494e-01" nType="-99"/>
        </Node>
      </Node>
    </BinaryTree>
    <BinaryTree type="DecisionTree" boostWeight="1.0000000000000000e+00" itree="492">
      <Node pos="s" depth="0" NCoef="0" IVar="1" Cut="9.7952383756637573e-01" cType="1" res="4.3327509774826467e-04" rms="4.4980317354202271e-01" purity="5.0236445665359497e-01" nType="0">
        <Node pos="l" depth="1" NCoef="0" IVar="4" Cut="6.1478734016418457e-01" cType="1" res="-1.7189697828143835e-03" rms="4.5547828078269958e-01" purity="4.7788986563682556e-01" nType="0">
          <Node pos="l" depth="2" NCoef="0" IVar="-1" Cut="0.0000000000000000e+00" cType="1" res="1.5380718105006963e-04" rms="4.5581519603729248e-01" purity="4.7669205069541931e-01" nType="-99"/>
          <Node pos="r" depth="2" NCoef="0" IVar="-1" Cut="0.0000000000000000e+00" cType="1" res="-1.7503150738775730e-03" rms="4.5284768939018250e-01" purity="4.8486968874931335e-01" nType="-99"/>
        </Node>
        <Node pos="r" depth="1" NCoef="0" IVar="-1" Cut="0.0000000000000000e+00" cType="1" res="2.3776760790497065e-03" rms="3.6400514841079712e-01" purity="8.3072382211685181e-01" nType="-99"/>
      </Node>
    </BinaryTree>
    <BinaryTree type="DecisionTree" boostWeight="1.0000000000000000e+00" itree="493">
      <Node pos="s" depth="0" NCoef="0" IVar="1" Cut="9.1782808303833008e-01" cType="1" res="-8.2741834921762347e-04" rms="4.4998183846473694e-01" purity="5.0168484449386597e-01" nType="0">
        <Node pos="l" depth="1" NCoef="0" IVar="7" Cut="4.1781091690063477e-01" cType="1" res="-8.8150463998317719e-03" rms="4.5556831359863281e-01" purity="4.0538078546524048e-01" nType="0">
          <Node pos="l" depth="2" NCoef="0" IVar="-1" Cut="0.0000000000000000e+00" cType="1" res="1.6631740145385265e-03" rms="4.4890120625495911e-01" purity="4.0257000923156738e-01" nType="-99"/>
          <Node pos="r" depth="2" NCoef="0" IVar="-1" Cut="0.0000000000000000e+00" cType="1" res="-9.8744919523596764e-04" rms="4.5636549592018127e-01" purity="4.0579801797866821e-01" nType="-99"/>
        </Node>
        <Node pos="r" depth="1" NCoef="0" IVar="3" Cut="-7.2815038263797760e-02" cType="1" res="1.1930429376661777e-02" rms="4.4061207771301270e-01" purity="6.5550184249877930e-01" nType="0">
          <Node pos="l" depth="2" NCoef="0" IVar="-1" Cut="0.0000000000000000e+00" cType="1" res="2.3747656960040331e-03" rms="4.2990329861640930e-01" purity="6.5334510803222656e-01" nType="-99"/>
          <Node pos="r" depth="2" NCoef="0" IVar="-1" Cut="0.0000000000000000e+00" cType="1" res="2.7151263202540576e-04" rms="4.4407302141189575e-01" purity="6.5626710653305054e-01" nType="-99"/>
        </Node>
      </Node>
    </BinaryTree>
    <BinaryTree type="DecisionTree" boostWeight="1.0000000000000000e+00" itree="494">
      <Node pos="s" depth="0" NCoef="0" IVar="6" Cut="1.0686966180801392e+00" cType="1" res="-5.8615994639694691e-03" rms="4.4941762089729309e-01" purity="4.9619054794311523e-01" nType="0">
        <Node pos="l" depth="1" NCoef="0" IVar="2" Cut="4.2470986938476562e+02" cType="1" res="6.9870157167315483e-03" rms="4.5615234971046448e-01" purity="5.5943560600280762e-01" nType="0">
          <Node pos="l" depth="2" NCoef="0" IVar="-1" Cut="0.0000000000000000e+00" cType="1" res="1.1046013096347451e-03" rms="4.5787498354911804e-01" purity="5.2170681953430176e-01" nType="-99"/>
          <Node pos="r" depth="2" NCoef="0" IVar="-1" Cut="0.0000000000000000e+00" cType="1" res="-1.0366900824010372e-03" rms="4.5113646984100342e-01" purity="6.5189379453659058e-01" nType="-99"/>
        </Node>
        <Node pos="r" depth="1" NCoef="0" IVar="7" Cut="6.5207743644714355e-01" cType="1" res="-1.5606752596795559e-02" rms="4.4399362802505493e-01" purity="4.4822174310684204e-01" nType="0">
          <Node pos="l" depth="2" NCoef="0" IVar="-1" Cut="0.0000000000000000e+00" cType="1" res="-2.4273199960589409e-03" rms="4.3697693943977356e-01" purity="3.9488354325294495e-01" nType="-99"/>
          <Node pos="r" depth="2" NCoef="0" IVar="-1" Cut="0.0000000000000000e+00" cType="1" res="8.2269274571444839e-05" rms="4.5101135969161987e-01" purity="5.0704419612884521e-01" nType="-99"/>
        </Node>
      </Node>
    </BinaryTree>
    <BinaryTree type="DecisionTree" boostWeight="1.0000000000000000e+00" itree="495">
      <Node pos="s" depth="0" NCoef="0" IVar="6" Cut="9.9359738826751709e-01" cType="1" res="-9.2452508397400379e-04" rms="4.4989103078842163e-01" purity="5.0001353025436401e-01" nType="0">
        <Node pos="l" depth="1" NCoef="0" IVar="5" Cut="2.6944412384182215e-03" cType="1" res="1.1405429802834988e-02" rms="4.5071017742156982e-01" purity="5.6859493255615234e-01" nType="0">
          <Node pos="l" depth="2" NCoef="0" IVar="-1" Cut="0.0000000000000000e+00" cType="1" res="2.5572112645022571e-04" rms="4.4539383053779602e-01" purity="5.8728188276290894e-01" nType="-99"/>
          <Node pos="r" depth="2" NCoef="0" IVar="-1" Cut="0.0000000000000000e+00" cType="1" res="2.8304227162152529e-03" rms="4.7087657451629639e-01" purity="4.9059411883354187e-01" nType="-99"/>
        </Node>
        <Node pos="r" depth="1" NCoef="0" IVar="5" Cut="5.1283242646604776e-04" cType="1" res="-8.0917105078697205e-03" rms="4.4925871491432190e-01" purity="4.6014839410781860e-01" nType="0">
          <Node pos="l" depth="2" NCoef="0" IVar="-1" Cut="0.0000000000000000e+00" cType="1" res="-2.2044098004698753e-03" rms="4.3522262573242188e-01" purity="5.8998036384582520e-01" nType="-99"/>
          <Node pos="r" depth="2" NCoef="0" IVar="-1" Cut="0.0000000000000000e+00" cType="1" res="1.6346024494851008e-05" rms="4.5437043905258179e-01" purity="4.0927377343177795e-01" nType="-99"/>
        </Node>
      </Node>
    </BinaryTree>
    <BinaryTree type="DecisionTree" boostWeight="1.0000000000000000e+00" itree="496">
      <Node pos="s" depth="0" NCoef="0" IVar="5" Cut="2.1812045015394688e-03" cType="1" res="-2.9503571568056941e-04" rms="4.5032024383544922e-01" purity="4.9820733070373535e-01" nType="0">
        <Node pos="l" depth="1" NCoef="0" IVar="1" Cut="9.2167854309082031e-01" cType="1" res="-6.8552563898265362e-03" rms="4.4580155611038208e-01" purity="5.3447675704956055e-01" nType="0">
          <Node pos="l" depth="2" NCoef="0" IVar="-1" Cut="0.0000000000000000e+00" cType="1" res="-1.2408111942932010e-03" rms="4.5266643166542053e-01" purity="4.0877801179885864e-01" nType="-99"/>
          <Node pos="r" depth="2" NCoef="0" IVar="-1" Cut="0.0000000000000000e+00" cType="1" res="2.0218426652718335e-04" rms="4.3867930769920349e-01" purity="6.5897154808044434e-01" nType="-99"/>
        </Node>
        <Node pos="r" depth="1" NCoef="0" IVar="1" Cut="8.7688088417053223e-01" cType="1" res="1.5526856295764446e-02" rms="4.6065199375152588e-01" purity="4.1073304414749146e-01" nType="0">
          <Node pos="l" depth="2" NCoef="0" IVar="-1" Cut="0.0000000000000000e+00" cType="1" res="5.0440616905689240e-04" rms="4.5880576968193054e-01" purity="3.9155289530754089e-01" nType="-99"/>
          <Node pos="r" depth="2" NCoef="0" IVar="-1" Cut="0.0000000000000000e+00" cType="1" res="2.8437890578061342e-03" rms="4.6538949012756348e-01" purity="4.7133964300155640e-01" nType="-99"/>
        </Node>
      </Node>
    </BinaryTree>
    <BinaryTree type="DecisionTree" boostWeight="1.0000000000000000e+00" itree="497">
      <Node pos="s" depth="0" NCoef="0" IVar="0" Cut="5.0978696346282959e-01" cType="1" res="-9.3062990345060825e-04" rms="4.5307710766792297e-01" purity="4.9550935626029968e-01" nType="0">
        <Node pos="l" depth="1" NCoef="0" IVar="5" Cut="1.5147497178986669e-03" cType="1" res="1.3939627446234226e-02" rms="4.4459396600723267e-01" purity="3.3656829595565796e-01" nType="0">
          <Node pos="l" depth="2" NCoef="0" IVar="-1" Cut="0.0000000000000000e+00" cType="1" res="-8.9429289801046252e-04" rms="4.3444705009460449e-01" purity="3.1581956148147583e-01" nType="-99"/>
          <Node pos="r" depth="2" NCoef="0" IVar="-1" Cut="0.0000000000000000e+00" cType="1" res="2.0056613720953465e-03" rms="4.4838520884513855e-01" purity="3.4521350264549255e-01" nType="-99"/>
        </Node>
        <Node pos="r" depth="1" NCoef="0" IVar="3" Cut="1.3569755852222443e-01" cType="1" res="-4.9388748593628407e-03" rms="4.5525357127189636e-01" purity="5.3835153579711914e-01" nType="0">
          <Node pos="l" depth="2" NCoef="0" IVar="-1" Cut="0.0000000000000000e+00" cType="1" res="-6.9745298242196441e-04" rms="4.5396023988723755e-01" purity="5.2480512857437134e-01" nType="-99"/>
          <Node pos="r" depth="2" NCoef="0" IVar="-1" Cut="0.0000000000000000e+00" cType="1" res="8.0405047629028559e-04" rms="4.5929035544395447e-01" purity="5.8533036708831787e-01" nType="-99"/>
        </Node>
      </Node>
    </BinaryTree>
    <BinaryTree type="DecisionTree" boostWeight="1.0000000000000000e+00" itree="498">
      <Node pos="s" depth="0" NCoef="0" IVar="6" Cut="1.0853391885757446e+00" cType="1" res="1.5480787260457873e-03" rms="4.5200759172439575e-01" purity="5.0058865547180176e-01" nType="0">
        <Node pos="l" depth="1" NCoef="0" IVar="2" Cut="4.2438284301757812e+02" cType="1" res="8.7077952921390533e-03" rms="4.5643472671508789e-01" purity="5.6072551012039185e-01" nType="0">
          <Node pos="l" depth="2" NCoef="0" IVar="-1" Cut="0.0000000000000000e+00" cType="1" res="1.3484014198184013e-03" rms="4.6047812700271606e-01" purity="5.2394288778305054e-01" nType="-99"/>
          <Node pos="r" depth="2" NCoef="0" IVar="-1" Cut="0.0000000000000000e+00" cType="1" res="-1.2911980738863349e-03" rms="4.4505855441093445e-01" purity="6.5221804380416870e-01" nType="-99"/>
        </Node>
        <Node pos="r" depth="1" NCoef="0" IVar="6" Cut="1.5532493591308594e+00" cType="1" res="-4.0852413512766361e-03" rms="4.4841319322586060e-01" purity="4.5327246189117432e-01" nType="0">
          <Node pos="l" depth="2" NCoef="0" IVar="-1" Cut="0.0000000000000000e+00" cType="1" res="-1.0372144170105457e-03" rms="4.5093169808387756e-01" purity="4.6759122610092163e-01" nType="-99"/>
          <Node pos="r" depth="2" NCoef="0" IVar="-1" Cut="0.0000000000000000e+00" cType="1" res="8.7453675223514438e-04" rms="4.4407206773757935e-01" purity="4.3126586079597473e-01" nType="-99"/>
        </Node>
      </Node>
    </BinaryTree>
    <BinaryTree type="DecisionTree" boostWeight="1.0000000000000000e+00" itree="499">
      <Node pos="s" depth="0" NCoef="0" IVar="3" Cut="8.0448463559150696e-02" cType="1" res="-1.5581453917548060e-03" rms="4.5011797547340393e-01" purity="4.9865037202835083e-01" nType="0">
        <Node pos="l" depth="1" NCoef="0" IVar="5" Cut="2.8253311756998301e-03" cType="1" res="-7.4857911095023155e-03" rms="4.4656863808631897e-01" purity="4.7852104902267456e-01" nType="0">
          <Node pos="l" depth="2" NCoef="0" IVar="-1" Cut="0.0000000000000000e+00" cType="1" res="-2.3337319726124406e-04" rms="4.4794219732284546e-01" purity="5.0502824783325195e-01" nType="-99"/>
          <Node pos="r" depth="2" NCoef="0" IVar="-1" Cut="0.0000000000000000e+00" cType="1" res="-2.1815837826579809e-03" rms="4.3926855921745300e-01" purity="3.5036522150039673e-01" nType="-99"/>
        </Node>
        <Node pos="r" depth="1" NCoef="0" IVar="5" Cut="1.1427749413996935e-03" cType="1" res="1.0268011130392551e-02" rms="4.5688712596893311e-01" purity="5.3881013393402100e-01" nType="0">
          <Node pos="l" depth="2" NCoef="0" IVar="-1" Cut="0.0000000000000000e+00" cType="1" res="-3.9919858681969345e-04" rms="4.4176608324050903e-01" purity="6.0882276296615601e-01" nType="-99"/>
          <Node pos="r" depth="2" NCoef="0" IVar="-1" Cut="0.0000000000000000e+00" cType="1" res="1.6390141099691391e-03" rms="4.6973955631256104e-01" purity="4.7518682479858398e-01" nType="-99"/>
        </Node>
      </Node>
    </BinaryTree>
    <BinaryTree type="DecisionTree" boostWeight="1.0000000000000000e+00" itree="500">
      <Node pos="s" depth="0" NCoef="0" IVar="2" Cut="2.4764628601074219e+02" cType="1" res="1.9569343421608210e-03" rms="4.4871187210083008e-01" purity="5.0098317861557007e-01" nType="0">
        <Node pos="l" depth="1" NCoef="0" IVar="5" Cut="1.4102809363976121e-03" cType="1" res="-1.7913963645696640e-02" rms="4.2657300829887390e-01" purity="3.0480176210403442e-01" nType="0">
          <Node pos="l" depth="2" NCoef="0" IVar="-1" Cut="0.0000000000000000e+00" cType="1" res="-2.8376793488860130e-03" rms="4.3213576078414917e-01" purity="3.5953903198242188e-01" nType="-99"/>
          <Node pos="r" depth="2" NCoef="0" IVar="-1" Cut="0.0000000000000000e+00" cType="1" res="-1.5360309043899179e-04" rms="4.2040449380874634e-01" purity="2.5112667679786682e-01" nType="-99"/>
        </Node>
        <Node pos="r" depth="1" NCoef="0" IVar="4" Cut="6.5352690219879150e-01" cType="1" res="8.5469475015997887e-03" rms="4.5562535524368286e-01" purity="5.6604510545730591e-01" nType="0">
          <Node pos="l" depth="2" NCoef="0" IVar="-1" Cut="0.0000000000000000e+00" cType="1" res="3.1122533255256712e-04" rms="4.5692321658134460e-01" purity="5.5560022592544556e-01" nType="-99"/>
          <Node pos="r" depth="2" NCoef="0" IVar="-1" Cut="0.0000000000000000e+00" cType="1" res="2.9597301036119461e-03" rms="4.4147136807441711e-01" purity="6.6439121961593628e-01" nType="-99"/>
        </Node>
      </Node>
    </BinaryTree>
    <BinaryTree type="DecisionTree" boostWeight="1.0000000000000000e+00" itree="501">
      <Node pos="s" depth="0" NCoef="0" IVar="7" Cut="7.1337604522705078e-01" cType="1" res="3.2577067613601685e-03" rms="4.4990202784538269e-01" purity="5.0182634592056274e-01" nType="0">
        <Node pos="l" depth="1" NCoef="0" IVar="5" Cut="7.7427033102139831e-04" cType="1" res="-3.0970943626016378e-03" rms="4.5158201456069946e-01" purity="4.6224495768547058e-01" nType="0">
          <Node pos="l" depth="2" NCoef="0" IVar="-1" Cut="0.0000000000000000e+00" cType="1" res="-1.0912693105638027e-03" rms="4.4447669386863708e-01" purity="5.6856441497802734e-01" nType="-99"/>
          <Node pos="r" depth="2" NCoef="0" IVar="-1" Cut="0.0000000000000000e+00" cType="1" res="2.8502580244094133e-04" rms="4.5549935102462769e-01" purity="4.0072068572044373e-01" nType="-99"/>
        </Node>
        <Node pos="r" depth="1" NCoef="0" IVar="4" Cut="2.7928727865219116e-01" cType="1" res="1.3550282455980778e-02" rms="4.4697600603103638e-01" purity="5.6593447923660278e-01" nType="0">
          <Node pos="l" depth="2" NCoef="0" IVar="-1" Cut="0.0000000000000000e+00" cType="1" res="-1.1926173465326428e-03" rms="4.5027312636375427e-01" purity="5.5247354507446289e-01" nType="-99"/>
          <Node pos="r" depth="2" NCoef="0" IVar="-1" Cut="0.0000000000000000e+00" cType="1" res="1.3189734891057014e-03" rms="4.4615030288696289e-01" purity="5.6835943460464478e-01" nType="-99"/>
        </Node>
      </Node>
    </BinaryTree>
    <BinaryTree type="DecisionTree" boostWeight="1.0000000000000000e+00" itree="502">
      <Node pos="s" depth="0" NCoef="0" IVar="3" Cut="-7.0438593626022339e-02" cType="1" res="-1.8008283805102110e-03" rms="4.5047047734260559e-01" purity="5.0051695108413696e-01" nType="0">
        <Node pos="l" depth="1" NCoef="0" IVar="2" Cut="4.0851419067382812e+02" cType="1" res="-1.5551385469734669e-02" rms="4.4029161334037781e-01" purity="4.5076191425323486e-01" nType="0">
          <Node pos="l" depth="2" NCoef="0" IVar="-1" Cut="0.0000000000000000e+00" cType="1" res="-2.3752534762024879e-03" rms="4.3593350052833557e-01" purity="3.7651494145393372e-01" nType="-99"/>
          <Node pos="r" depth="2" NCoef="0" IVar="-1" Cut="0.0000000000000000e+00" cType="1" res="1.2614848092198372e-03" rms="4.4929197430610657e-01" purity="6.3885182142257690e-01" nType="-99"/>
        </Node>
        <Node pos="r" depth="1" NCoef="0" IVar="6" Cut="1.8456246852874756e+00" cType="1" res="3.0539629515260458e-03" rms="4.5391026139259338e-01" purity="5.1808357238769531e-01" nType="0">
          <Node pos="l" depth="2" NCoef="0" IVar="-1" Cut="0.0000000000000000e+00" cType="1" res="1.0597135769785382e-05" rms="4.5598283410072327e-01" purity="5.2366054058074951e-01" nType="-99"/>
          <Node pos="r" depth="2" NCoef="0" IVar="-1" Cut="0.0000000000000000e+00" cType="1" res="2.1225120872259140e-03" rms="4.3470135331153870e-01" purity="4.6969801187515259e-01" nType="-99"/>
        </Node>
      </Node>
    </BinaryTree>
    <BinaryTree type="DecisionTree" boostWeight="1.0000000000000000e+00" itree="503">
      <Node pos="s" depth="0" NCoef="0" IVar="6" Cut="8.5804539918899536e-01" cType="1" res="-3.6596828140318394e-03" rms="4.4980075955390930e-01" purity="4.9629259109497070e-01" nType="0">
        <Node pos="l" depth="1" NCoef="0" IVar="2" Cut="4.2044451904296875e+02" cType="1" res="1.1256515979766846e-02" rms="4.4955262541770935e-01" purity="5.7812172174453735e-01" nType="0">
          <Node pos="l" depth="2" NCoef="0" IVar="-1" Cut="0.0000000000000000e+00" cType="1" res="1.4901994727551937e-03" rms="4.5209905505180359e-01" purity="5.3587639331817627e-01" nType="-99"/>
          <Node pos="r" depth="2" NCoef="0" IVar="-1" Cut="0.0000000000000000e+00" cType="1" res="-6.5876182634383440e-04" rms="4.4372832775115967e-01" purity="6.6178143024444580e-01" nType="-99"/>
        </Node>
        <Node pos="r" depth="1" NCoef="0" IVar="3" Cut="7.7772736549377441e-02" cType="1" res="-8.5906386375427246e-03" rms="4.4977399706840515e-01" purity="4.6924173831939697e-01" nType="0">
          <Node pos="l" depth="2" NCoef="0" IVar="-1" Cut="0.0000000000000000e+00" cType="1" res="-1.2228137347847223e-03" rms="4.4332537055015564e-01" purity="4.4591483473777771e-01" nType="-99"/>
          <Node pos="r" depth="2" NCoef="0" IVar="-1" Cut="0.0000000000000000e+00" cType="1" res="4.1687535122036934e-04" rms="4.6151629090309143e-01" purity="5.1389968395233154e-01" nType="-99"/>
        </Node>
      </Node>
    </BinaryTree>
    <BinaryTree type="DecisionTree" boostWeight="1.0000000000000000e+00" itree="504">
      <Node pos="s" depth="0" NCoef="0" IVar="3" Cut="-2.0037084817886353e-02" cType="1" res="-2.6376538444310427e-03" rms="4.4968491792678833e-01" purity="4.9771404266357422e-01" nType="0">
        <Node pos="l" depth="1" NCoef="0" IVar="2" Cut="3.6992651367187500e+02" cType="1" res="-1.5211384743452072e-02" rms="4.4231867790222168e-01" purity="4.5800638198852539e-01" nType="0">
          <Node pos="l" depth="2" NCoef="0" IVar="-1" Cut="0.0000000000000000e+00" cType="1" res="-2.0521201658993959e-03" rms="4.3685808777809143e-01" purity="3.7953454256057739e-01" nType="-99"/>
          <Node pos="r" depth="2" NCoef="0" IVar="-1" Cut="0.0000000000000000e+00" cType="1" res="2.9740657191723585e-04" rms="4.5192822813987732e-01" purity="6.0808491706848145e-01" nType="-99"/>
        </Node>
        <Node pos="r" depth="1" NCoef="0" IVar="7" Cut="5.8150649070739746e-01" cType="1" res="6.1382311396300793e-03" rms="4.5454949140548706e-01" purity="5.2542823553085327e-01" nType="0">
          <Node pos="l" depth="2" NCoef="0" IVar="-1" Cut="0.0000000000000000e+00" cType="1" res="-3.0618076561950147e-04" rms="4.5843857526779175e-01" purity="4.8356214165687561e-01" nType="-99"/>
          <Node pos="r" depth="2" NCoef="0" IVar="-1" Cut="0.0000000000000000e+00" cType="1" res="1.0969031136482954e-03" rms="4.5069554448127747e-01" purity="5.6425887346267700e-01" nType="-99"/>
        </Node>
      </Node>
    </BinaryTree>
    <BinaryTree type="DecisionTree" boostWeight="1.0000000000000000e+00" itree="505">
      <Node pos="s" depth="0" NCoef="0" IVar="7" Cut="6.9397318363189697e-01" cType="1" res="-3.4365881583653390e-04" rms="4.5012876391410828e-01" purity="4.9760669469833374e-01" nType="0">
        <Node pos="l" depth="1" NCoef="0" IVar="5" Cut="5.1618349971249700e-04" cType="1" res="6.3504399731755257e-03" rms="4.5377981662750244e-01" purity="4.6618044376373291e-01" nType="0">
          <Node pos="l" depth="2" NCoef="0" IVar="-1" Cut="0.0000000000000000e+00" cType="1" res="-8.5555884288623929e-04" rms="4.3810290098190308e-01" purity="5.8799076080322266e-01" nType="-99"/>
          <Node pos="r" depth="2" NCoef="0" IVar="-1" Cut="0.0000000000000000e+00" cType="1" res="9.7000406822189689e-04" rms="4.5944571495056152e-01" purity="4.1959616541862488e-01" nType="-99"/>
        </Node>
        <Node pos="r" depth="1" NCoef="0" IVar="2" Cut="2.2802615356445312e+02" cType="1" res="-9.9071720615029335e-03" rms="4.4468593597412109e-01" purity="5.4250377416610718e-01" nType="0">
          <Node pos="l" depth="2" NCoef="0" IVar="-1" Cut="0.0000000000000000e+00" cType="1" res="-5.1857121288776398e-03" rms="4.0265157818794250e-01" purity="2.5926068425178528e-01" nType="-99"/>
          <Node pos="r" depth="2" NCoef="0" IVar="-1" Cut="0.0000000000000000e+00" cType="1" res="-1.8729642033576965e-04" rms="4.5059165358543396e-01" purity="5.8753222227096558e-01" nType="-99"/>
        </Node>
      </Node>
    </BinaryTree>
    <BinaryTree type="DecisionTree" boostWeight="1.0000000000000000e+00" itree="506">
      <Node pos="s" depth="0" NCoef="0" IVar="4" Cut="2.0104044675827026e-01" cType="1" res="-6.8155750341247767e-05" rms="4.5150262117385864e-01" purity="4.9773687124252319e-01" nType="0">
        <Node pos="l" depth="1" NCoef="0" IVar="3" Cut="3.4974347800016403e-02" cType="1" res="-1.9642965868115425e-02" rms="4.5218008756637573e-01" purity="4.3373569846153259e-01" nType="0">
          <Node pos="l" depth="2" NCoef="0" IVar="-1" Cut="0.0000000000000000e+00" cType="1" res="-3.3268909901380539e-03" rms="4.3248420953750610e-01" purity="3.6756208539009094e-01" nType="-99"/>
          <Node pos="r" depth="2" NCoef="0" IVar="-1" Cut="0.0000000000000000e+00" cType="1" res="-4.8794860049383715e-05" rms="4.6889826655387878e-01" purity="4.9505129456520081e-01" nType="-99"/>
        </Node>
        <Node pos="r" depth="1" NCoef="0" IVar="4" Cut="7.1215820312500000e-01" cType="1" res="3.7812339141964912e-03" rms="4.5126935839653015e-01" purity="5.1032269001007080e-01" nType="0">
          <Node pos="l" depth="2" NCoef="0" IVar="-1" Cut="0.0000000000000000e+00" cType="1" res="4.4345876085571945e-04" rms="4.5209097862243652e-01" purity="5.1184499263763428e-01" nType="-99"/>
          <Node pos="r" depth="2" NCoef="0" IVar="-1" Cut="0.0000000000000000e+00" cType="1" res="-2.4305682163685560e-03" rms="4.3710571527481079e-01" purity="4.8745971918106079e-01" nType="-99"/>
        </Node>
      </Node>
    </BinaryTree>
    <BinaryTree type="DecisionTree" boostWeight="1.0000000000000000e+00" itree="507">
      <Node pos="s" depth="0" NCoef="0" IVar="3" Cut="8.3147279918193817e-02" cType="1" res="1.2772827176377177e-03" rms="4.5002013444900513e-01" purity="5.0100779533386230e-01" nType="0">
        <Node pos="l" depth="1" NCoef="0" IVar="3" Cut="4.4444549828767776e-02" cType="1" res="-4.1921343654394150e-03" rms="4.4535711407661438e-01" purity="4.7921124100685120e-01" nType="0">
          <Node pos="l" depth="2" NCoef="0" IVar="-1" Cut="0.0000000000000000e+00" cType="1" res="4.1862735088216141e-05" rms="4.4522488117218018e-01" purity="4.7990587353706360e-01" nType="-99"/>
          <Node pos="r" depth="2" NCoef="0" IVar="-1" Cut="0.0000000000000000e+00" cType="1" res="-2.8227292932569981e-03" rms="4.4483935832977295e-01" purity="4.7429361939430237e-01" nType="-99"/>
        </Node>
        <Node pos="r" depth="1" NCoef="0" IVar="6" Cut="1.6519908905029297e+00" cType="1" res="1.2293847277760506e-02" rms="4.5907101035118103e-01" purity="5.4491060972213745e-01" nType="0">
          <Node pos="l" depth="2" NCoef="0" IVar="-1" Cut="0.0000000000000000e+00" cType="1" res="2.5780647411011159e-04" rms="4.5923316478729248e-01" purity="5.5116629600524902e-01" nType="-99"/>
          <Node pos="r" depth="2" NCoef="0" IVar="-1" Cut="0.0000000000000000e+00" cType="1" res="3.4740932751446962e-03" rms="4.5650085806846619e-01" purity="5.1750653982162476e-01" nType="-99"/>
        </Node>
      </Node>
    </BinaryTree>
    <BinaryTree type="DecisionTree" boostWeight="1.0000000000000000e+00" itree="508">
      <Node pos="s" depth="0" NCoef="0" IVar="4" Cut="3.9248812198638916e-01" cType="1" res="2.1807448938488960e-03" rms="4.4960933923721313e-01" purity="5.0274413824081421e-01" nType="0">
        <Node pos="l" depth="1" NCoef="0" IVar="5" Cut="8.8359822984784842e-04" cType="1" res="-8.0703161656856537e-03" rms="4.5129001140594482e-01" purity="4.6622663736343384e-01" nType="0">
          <Node pos="l" depth="2" NCoef="0" IVar="-1" Cut="0.0000000000000000e+00" cType="1" res="-1.7759789479896426e-03" rms="4.4463160634040833e-01" purity="5.5089634656906128e-01" nType="-99"/>
          <Node pos="r" depth="2" NCoef="0" IVar="-1" Cut="0.0000000000000000e+00" cType="1" res="1.9204101408831775e-04" rms="4.5530197024345398e-01" purity="4.1050219535827637e-01" nType="-99"/>
        </Node>
        <Node pos="r" depth="1" NCoef="0" IVar="6" Cut="9.5799368619918823e-01" cType="1" res="1.2545425444841385e-02" rms="4.4766506552696228e-01" purity="5.3966641426086426e-01" nType="0">
          <Node pos="l" depth="2" NCoef="0" IVar="-1" Cut="0.0000000000000000e+00" cType="1" res="-6.3622230663895607e-04" rms="4.4503661990165710e-01" purity="5.8058452606201172e-01" nType="-99"/>
          <Node pos="r" depth="2" NCoef="0" IVar="-1" Cut="0.0000000000000000e+00" cType="1" res="1.5795603394508362e-03" rms="4.4849136471748352e-01" purity="5.2156436443328857e-01" nType="-99"/>
        </Node>
      </Node>
    </BinaryTree>
    <BinaryTree type="DecisionTree" boostWeight="1.0000000000000000e+00" itree="509">
      <Node pos="s" depth="0" NCoef="0" IVar="5" Cut="3.3390356693416834e-03" cType="1" res="7.2037521749734879e-03" rms="4.5082360506057739e-01" purity="5.0525730848312378e-01" nType="0">
        <Node pos="l" depth="1" NCoef="0" IVar="3" Cut="1.2923431396484375e-01" cType="1" res="4.2910133488476276e-03" rms="4.4935372471809387e-01" purity="5.1401907205581665e-01" nType="0">
          <Node pos="l" depth="2" NCoef="0" IVar="-1" Cut="0.0000000000000000e+00" cType="1" res="-8.7914086179807782e-05" rms="4.4787633419036865e-01" purity="4.9717882275581360e-01" nType="-99"/>
          <Node pos="r" depth="2" NCoef="0" IVar="-1" Cut="0.0000000000000000e+00" cType="1" res="1.5042461454868317e-03" rms="4.5369654893875122e-01" purity="5.6921482086181641e-01" nType="-99"/>
        </Node>
        <Node pos="r" depth="1" NCoef="0" IVar="-1" Cut="0.0000000000000000e+00" cType="1" res="2.3952713236212730e-03" rms="4.6339991688728333e-01" purity="4.2373591661453247e-01" nType="-99"/>
      </Node>
    </BinaryTree>
    <BinaryTree type="DecisionTree" boostWeight="1.0000000000000000e+00" itree="510">
      <Node pos="s" depth="0" NCoef="0" IVar="3" Cut="-9.8602607846260071e-02" cType="1" res="-1.2377135863061994e-04" rms="4.4976136088371277e-01" purity="4.9872455000877380e-01" nType="0">
        <Node pos="l" depth="1" NCoef="0" IVar="7" Cut="6.2603765726089478e-01" cType="1" res="-2.1968826651573181e-02" rms="4.4229680299758911e-01" purity="4.2746698856353760e-01" nType="0">
          <Node pos="l" depth="2" NCoef="0" IVar="-1" Cut="0.0000000000000000e+00" cType="1" res="2.9233816894702613e-04" rms="4.2955699563026428e-01" purity="3.0653512477874756e-01" nType="-99"/>
          <Node pos="r" depth="2" NCoef="0" IVar="-1" Cut="0.0000000000000000e+00" cType="1" res="-2.4568894878029823e-03" rms="4.4793277978897095e-01" purity="4.8717057704925537e-01" nType="-99"/>
        </Node>
        <Node pos="r" depth="1" NCoef="0" IVar="7" Cut="7.3391205072402954e-01" cType="1" res="4.0137302130460739e-03" rms="4.5104211568832397e-01" purity="5.1222085952758789e-01" nType="0">
          <Node pos="l" depth="2" NCoef="0" IVar="-1" Cut="0.0000000000000000e+00" cType="1" res="-1.0166106949327514e-04" rms="4.5420113205909729e-01" purity="4.8206683993339539e-01" nType="-99"/>
          <Node pos="r" depth="2" NCoef="0" IVar="-1" Cut="0.0000000000000000e+00" cType="1" res="1.0869341203942895e-03" rms="4.4401344656944275e-01" purity="5.7648491859436035e-01" nType="-99"/>
        </Node>
      </Node>
    </BinaryTree>
    <BinaryTree type="DecisionTree" boostWeight="1.0000000000000000e+00" itree="511">
      <Node pos="s" depth="0" NCoef="0" IVar="1" Cut="9.1765975952148438e-01" cType="1" res="-1.2499033473432064e-03" rms="4.5118054747581482e-01" purity="4.9614116549491882e-01" nType="0">
        <Node pos="l" depth="1" NCoef="0" IVar="5" Cut="2.9538800008594990e-03" cType="1" res="-9.6584819257259369e-03" rms="4.5703384280204773e-01" purity="3.9669781923294067e-01" nType="0">
          <Node pos="l" depth="2" NCoef="0" IVar="-1" Cut="0.0000000000000000e+00" cType="1" res="-1.2258867500349879e-03" rms="4.5564427971839905e-01" purity="3.9433926343917847e-01" nType="-99"/>
          <Node pos="r" depth="2" NCoef="0" IVar="-1" Cut="0.0000000000000000e+00" cType="1" res="6.9551082560792565e-04" rms="4.6050456166267395e-01" purity="4.0355688333511353e-01" nType="-99"/>
        </Node>
        <Node pos="r" depth="1" NCoef="0" IVar="6" Cut="1.2154395580291748e+00" cType="1" res="1.2058763764798641e-02" rms="4.4143053889274597e-01" purity="6.5353500843048096e-01" nType="0">
          <Node pos="l" depth="2" NCoef="0" IVar="-1" Cut="0.0000000000000000e+00" cType="1" res="1.1356897448422387e-04" rms="4.3727976083755493e-01" purity="6.7480289936065674e-01" nType="-99"/>
          <Node pos="r" depth="2" NCoef="0" IVar="-1" Cut="0.0000000000000000e+00" cType="1" res="1.7455752240493894e-03" rms="4.4640690088272095e-01" purity="6.2586963176727295e-01" nType="-99"/>
        </Node>
      </Node>
    </BinaryTree>
    <BinaryTree type="DecisionTree" boostWeight="1.0000000000000000e+00" itree="512">
      <Node pos="s" depth="0" NCoef="0" IVar="5" Cut="2.8389736544340849e-03" cType="1" res="8.4216333925724030e-04" rms="4.5053768157958984e-01" purity="5.0291019678115845e-01" nType="0">
        <Node pos="l" depth="1" NCoef="0" IVar="1" Cut="9.6411150693893433e-01" cType="1" res="-3.8171722553670406e-03" rms="4.4769173860549927e-01" purity="5.2139317989349365e-01" nType="0">
          <Node pos="l" depth="2" NCoef="0" IVar="-1" Cut="0.0000000000000000e+00" cType="1" res="-5.1385903498157859e-04" rms="4.5783573389053345e-01" purity="4.6711146831512451e-01" nType="-99"/>
          <Node pos="r" depth="2" NCoef="0" IVar="-1" Cut="0.0000000000000000e+00" cType="1" res="1.0091733420267701e-03" rms="3.9383250474929810e-01" purity="7.8725814819335938e-01" nType="-99"/>
        </Node>
        <Node pos="r" depth="1" NCoef="0" IVar="1" Cut="8.6644035577774048e-01" cType="1" res="2.2570537403225899e-02" rms="4.6296003460884094e-01" purity="4.1671651601791382e-01" nType="0">
          <Node pos="l" depth="2" NCoef="0" IVar="-1" Cut="0.0000000000000000e+00" cType="1" res="6.2411086400970817e-04" rms="4.6117275953292847e-01" purity="3.9543989300727844e-01" nType="-99"/>
          <Node pos="r" depth="2" NCoef="0" IVar="-1" Cut="0.0000000000000000e+00" cType="1" res="3.8357665762305260e-03" rms="4.6553447842597961e-01" purity="4.6935540437698364e-01" nType="-99"/>
        </Node>
      </Node>
    </BinaryTree>
    <BinaryTree type="DecisionTree" boostWeight="1.0000000000000000e+00" itree="513">
      <Node pos="s" depth="0" NCoef="0" IVar="7" Cut="7.3446118831634521e-01" cType="1" res="-1.4115823432803154e-05" rms="4.5137691497802734e-01" purity="4.9890056252479553e-01" nType="0">
        <Node pos="l" depth="1" NCoef="0" IVar="1" Cut="9.0603506565093994e-01" cType="1" res="-7.0349089801311493e-03" rms="4.5279371738433838e-01" purity="4.6210467815399170e-01" nType="0">
          <Node pos="l" depth="2" NCoef="0" IVar="-1" Cut="0.0000000000000000e+00" cType="1" res="-1.2068096548318863e-03" rms="4.5052552223205566e-01" purity="3.5970705747604370e-01" nType="-99"/>
          <Node pos="r" depth="2" NCoef="0" IVar="-1" Cut="0.0000000000000000e+00" cType="1" res="2.4060536816250533e-04" rms="4.5535710453987122e-01" purity="5.8848106861114502e-01" nType="-99"/>
        </Node>
        <Node pos="r" depth="1" NCoef="0" IVar="6" Cut="1.5890029668807983e+00" cType="1" res="1.3475481420755386e-02" rms="4.4833371043205261e-01" purity="5.6959939002990723e-01" nType="0">
          <Node pos="l" depth="2" NCoef="0" IVar="-1" Cut="0.0000000000000000e+00" cType="1" res="5.5308412993326783e-04" rms="4.4917097687721252e-01" purity="5.7528692483901978e-01" nType="-99"/>
          <Node pos="r" depth="2" NCoef="0" IVar="-1" Cut="0.0000000000000000e+00" cType="1" res="2.9445076361298561e-03" rms="4.4278195500373840e-01" purity="5.3958588838577271e-01" nType="-99"/>
        </Node>
      </Node>
    </BinaryTree>
    <BinaryTree type="DecisionTree" boostWeight="1.0000000000000000e+00" itree="514">
      <Node pos="s" depth="0" NCoef="0" IVar="3" Cut="2.1382892131805420e-01" cType="1" res="4.0137856267392635e-03" rms="4.5248436927795410e-01" purity="5.0284916162490845e-01" nType="0">
        <Node pos="l" depth="1" NCoef="0" IVar="1" Cut="8.9467972517013550e-01" cType="1" res="8.9216296328231692e-04" rms="4.5170259475708008e-01" purity="4.9416097998619080e-01" nType="0">
          <Node pos="l" depth="2" NCoef="0" IVar="-1" Cut="0.0000000000000000e+00" cType="1" res="-6.9684337358921766e-04" rms="4.5359116792678833e-01" purity="3.6923757195472717e-01" nType="-99"/>
          <Node pos="r" depth="2" NCoef="0" IVar="-1" Cut="0.0000000000000000e+00" cType="1" res="6.1515282141044736e-04" rms="4.5004165172576904e-01" purity="5.9326010942459106e-01" nType="-99"/>
        </Node>
        <Node pos="r" depth="1" NCoef="0" IVar="-1" Cut="0.0000000000000000e+00" cType="1" res="2.2134033497422934e-03" rms="4.5885562896728516e-01" purity="5.8646094799041748e-01" nType="-99"/>
      </Node>
    </BinaryTree>
    <BinaryTree type="DecisionTree" boostWeight="1.0000000000000000e+00" itree="515">
      <Node pos="s" depth="0" NCoef="0" IVar="4" Cut="1.7881709337234497e-01" cType="1" res="-1.2250588042661548e-03" rms="4.5095041394233704e-01" purity="5.0073421001434326e-01" nType="0">
        <Node pos="l" depth="1" NCoef="0" IVar="5" Cut="9.9656486418098211e-04" cType="1" res="2.8085121884942055e-02" rms="4.5593050122261047e-01" purity="4.7978320717811584e-01" nType="0">
          <Node pos="l" depth="2" NCoef="0" IVar="-1" Cut="0.0000000000000000e+00" cType="1" res="-9.5455517293885350e-04" rms="4.4534024596214294e-01" purity="5.2439558506011963e-01" nType="-99"/>
          <Node pos="r" depth="2" NCoef="0" IVar="-1" Cut="0.0000000000000000e+00" cType="1" res="4.0517128072679043e-03" rms="4.6100470423698425e-01" purity="4.4856607913970947e-01" nType="-99"/>
        </Node>
        <Node pos="r" depth="1" NCoef="0" IVar="1" Cut="9.5639491081237793e-01" cType="1" res="-5.9455670416355133e-03" rms="4.4996473193168640e-01" purity="5.0410836935043335e-01" nType="0">
          <Node pos="l" depth="2" NCoef="0" IVar="-1" Cut="0.0000000000000000e+00" cType="1" res="-6.9158797850832343e-04" rms="4.5907840132713318e-01" purity="4.4645565748214722e-01" nType="-99"/>
          <Node pos="r" depth="2" NCoef="0" IVar="-1" Cut="0.0000000000000000e+00" cType="1" res="8.7725493358448148e-04" rms="4.0457969903945923e-01" purity="7.7143597602844238e-01" nType="-99"/>
        </Node>
      </Node>
    </BinaryTree>
    <BinaryTree type="DecisionTree" boostWeight="1.0000000000000000e+00" itree="516">
      <Node pos="s" depth="0" NCoef="0" IVar="4" Cut="6.4480519294738770e-01" cType="1" res="-1.6030751867219806e-03" rms="4.4921228289604187e-01" purity="4.9676415324211121e-01" nType="0">
        <Node pos="l" depth="1" NCoef="0" IVar="4" Cut="1.4062857627868652e-01" cType="1" res="-4.0924143977463245e-03" rms="4.4986498355865479e-01" purity="4.8899132013320923e-01" nType="0">
          <Node pos="l" depth="2" NCoef="0" IVar="-1" Cut="0.0000000000000000e+00" cType="1" res="1.4352852012962103e-03" rms="4.5783606171607971e-01" purity="4.5859095454216003e-01" nType="-99"/>
          <Node pos="r" depth="2" NCoef="0" IVar="-1" Cut="0.0000000000000000e+00" cType="1" res="-4.7480722423642874e-04" rms="4.4896718859672546e-01" purity="4.9211001396179199e-01" nType="-99"/>
        </Node>
        <Node pos="r" depth="1" NCoef="0" IVar="4" Cut="7.0265507698059082e-01" cType="1" res="1.6794448718428612e-02" rms="4.4392618536949158e-01" purity="5.5420982837677002e-01" nType="0">
          <Node pos="l" depth="2" NCoef="0" IVar="-1" Cut="0.0000000000000000e+00" cType="1" res="2.2456711158156395e-03" rms="4.4310110807418823e-01" purity="5.7688033580780029e-01" nType="-99"/>
          <Node pos="r" depth="2" NCoef="0" IVar="-1" Cut="0.0000000000000000e+00" cType="1" res="2.3102579871192575e-04" rms="4.4423142075538635e-01" purity="5.3379547595977783e-01" nType="-99"/>
        </Node>
      </Node>
    </BinaryTree>
    <BinaryTree type="DecisionTree" boostWeight="1.0000000000000000e+00" itree="517">
      <Node pos="s" depth="0" NCoef="0" IVar="3" Cut="-1.2724691629409790e-01" cType="1" res="5.1623736508190632e-03" rms="4.5046129822731018e-01" purity="5.0604748725891113e-01" nType="0">
        <Node pos="l" depth="1" NCoef="0" IVar="-1" Cut="0.0000000000000000e+00" cType="1" res="2.7205224614590406e-03" rms="4.4147175550460815e-01" purity="4.7302377223968506e-01" nType="-99"/>
        <Node pos="r" depth="1" NCoef="0" IVar="3" Cut="-7.8900419175624847e-02" cType="1" res="2.9010202270001173e-03" rms="4.5100241899490356e-01" purity="5.0837624073028564e-01" nType="0">
          <Node pos="l" depth="2" NCoef="0" IVar="-1" Cut="0.0000000000000000e+00" cType="1" res="-1.2221049983054399e-03" rms="4.3714445829391479e-01" purity="4.5611652731895447e-01" nType="-99"/>
          <Node pos="r" depth="2" NCoef="0" IVar="-1" Cut="0.0000000000000000e+00" cType="1" res="4.9029669025912881e-04" rms="4.5380231738090515e-01" purity="5.1953190565109253e-01" nType="-99"/>
        </Node>
      </Node>
    </BinaryTree>
    <BinaryTree type="DecisionTree" boostWeight="1.0000000000000000e+00" itree="518">
      <Node pos="s" depth="0" NCoef="0" IVar="7" Cut="4.5923069119453430e-01" cType="1" res="1.7367111286148429e-03" rms="4.5173251628875732e-01" purity="4.9933773279190063e-01" nType="0">
        <Node pos="l" depth="1" NCoef="0" IVar="5" Cut="1.0136816417798400e-03" cType="1" res="-1.8598150461912155e-02" rms="4.5505753159523010e-01" purity="4.1782400012016296e-01" nType="0">
          <Node pos="l" depth="2" NCoef="0" IVar="-1" Cut="0.0000000000000000e+00" cType="1" res="-4.2132479138672352e-03" rms="4.4914931058883667e-01" purity="4.6132230758666992e-01" nType="-99"/>
          <Node pos="r" depth="2" NCoef="0" IVar="-1" Cut="0.0000000000000000e+00" cType="1" res="4.2013305937871337e-04" rms="4.5741468667984009e-01" purity="3.8847079873085022e-01" nType="-99"/>
        </Node>
        <Node pos="r" depth="1" NCoef="0" IVar="1" Cut="9.4470632076263428e-01" cType="1" res="5.8676092885434628e-03" rms="4.5094200968742371e-01" purity="5.1589673757553101e-01" nType="0">
          <Node pos="l" depth="2" NCoef="0" IVar="-1" Cut="0.0000000000000000e+00" cType="1" res="1.0918563020823058e-05" rms="4.6143323183059692e-01" purity="4.4532531499862671e-01" nType="-99"/>
          <Node pos="r" depth="2" NCoef="0" IVar="-1" Cut="0.0000000000000000e+00" cType="1" res="1.7596347024664283e-03" rms="4.1439339518547058e-01" purity="7.4573689699172974e-01" nType="-99"/>
        </Node>
      </Node>
    </BinaryTree>
    <BinaryTree type="DecisionTree" boostWeight="1.0000000000000000e+00" itree="519">
      <Node pos="s" depth="0" NCoef="0" IVar="7" Cut="3.5597342252731323e-01" cType="1" res="-2.2490858100354671e-03" rms="4.5144212245941162e-01" purity="4.9604687094688416e-01" nType="0">
        <Node pos="l" depth="1" NCoef="0" IVar="-1" Cut="0.0000000000000000e+00" cType="1" res="2.8967373073101044e-03" rms="4.7461184859275818e-01" purity="5.0244289636611938e-01" nType="-99"/>
        <Node pos="r" depth="1" NCoef="0" IVar="7" Cut="5.1863622665405273e-01" cType="1" res="-4.6952827833592892e-03" rms="4.4996637105941772e-01" purity="4.9568349123001099e-01" nType="0">
          <Node pos="l" depth="2" NCoef="0" IVar="-1" Cut="0.0000000000000000e+00" cType="1" res="-1.5964638441801071e-03" rms="4.4447967410087585e-01" purity="4.2191070318222046e-01" nType="-99"/>
          <Node pos="r" depth="2" NCoef="0" IVar="-1" Cut="0.0000000000000000e+00" cType="1" res="1.5892132978478912e-06" rms="4.5147320628166199e-01" purity="5.1756531000137329e-01" nType="-99"/>
        </Node>
      </Node>
    </BinaryTree>
    <BinaryTree type="DecisionTree" boostWeight="1.0000000000000000e+00" itree="520">
      <Node pos="s" depth="0" NCoef="0" IVar="7" Cut="8.2693207263946533e-01" cType="1" res="7.0078098215162754e-03" rms="4.5100006461143494e-01" purity="5.0623279809951782e-01" nType="0">
        <Node pos="l" depth="1" NCoef="0" IVar="1" Cut="9.2927592992782593e-01" cType="1" res="2.1156687289476395e-03" rms="4.5306193828582764e-01" purity="4.8598802089691162e-01" nType="0">
          <Node pos="l" depth="2" NCoef="0" IVar="-1" Cut="0.0000000000000000e+00" cType="1" res="6.1295222258195281e-04" rms="4.5725148916244507e-01" purity="4.1829848289489746e-01" nType="-99"/>
          <Node pos="r" depth="2" NCoef="0" IVar="-1" Cut="0.0000000000000000e+00" cType="1" res="-9.2201441293582320e-04" rms="4.4247773289680481e-01" purity="6.4854353666305542e-01" nType="-99"/>
        </Node>
        <Node pos="r" depth="1" NCoef="0" IVar="6" Cut="1.3087961673736572e+00" cType="1" res="3.0284259468317032e-02" rms="4.4031387567520142e-01" purity="6.0255604982376099e-01" nType="0">
          <Node pos="l" depth="2" NCoef="0" IVar="-1" Cut="0.0000000000000000e+00" cType="1" res="1.3845615321770310e-03" rms="4.4660437107086182e-01" purity="6.0941684246063232e-01" nType="-99"/>
          <Node pos="r" depth="2" NCoef="0" IVar="-1" Cut="0.0000000000000000e+00" cType="1" res="3.5056488122791052e-03" rms="4.2582714557647705e-01" purity="5.8790647983551025e-01" nType="-99"/>
        </Node>
      </Node>
    </BinaryTree>
    <BinaryTree type="DecisionTree" boostWeight="1.0000000000000000e+00" itree="521">
      <Node pos="s" depth="0" NCoef="0" IVar="2" Cut="5.6033111572265625e+02" cType="1" res="6.6529861651360989e-03" rms="4.5123991370201111e-01" purity="5.0900095701217651e-01" nType="0">
        <Node pos="l" depth="1" NCoef="0" IVar="1" Cut="9.3710178136825562e-01" cType="1" res="4.0233340114355087e-03" rms="4.5320031046867371e-01" purity="4.9123856425285339e-01" nType="0">
          <Node pos="l" depth="2" NCoef="0" IVar="-1" Cut="0.0000000000000000e+00" cType="1" res="-2.6637495466275141e-05" rms="4.5976921916007996e-01" purity="4.1679608821868896e-01" nType="-99"/>
          <Node pos="r" depth="2" NCoef="0" IVar="-1" Cut="0.0000000000000000e+00" cType="1" res="1.1263632914051414e-03" rms="4.3419942259788513e-01" purity="6.9802528619766235e-01" nType="-99"/>
        </Node>
        <Node pos="r" depth="1" NCoef="0" IVar="-1" Cut="0.0000000000000000e+00" cType="1" res="2.7517334092408419e-03" rms="4.2333152890205383e-01" purity="7.4081361293792725e-01" nType="-99"/>
      </Node>
    </BinaryTree>
    <BinaryTree type="DecisionTree" boostWeight="1.0000000000000000e+00" itree="522">
      <Node pos="s" depth="0" NCoef="0" IVar="5" Cut="3.4841818269342184e-03" cType="1" res="1.5730102313682437e-03" rms="4.4977203011512756e-01" purity="5.0314503908157349e-01" nType="0">
        <Node pos="l" depth="1" NCoef="0" IVar="6" Cut="1.4701555967330933e+00" cType="1" res="-1.0422131745144725e-03" rms="4.4860008358955383e-01" purity="5.0958198308944702e-01" nType="0">
          <Node pos="l" depth="2" NCoef="0" IVar="-1" Cut="0.0000000000000000e+00" cType="1" res="2.7737964410334826e-04" rms="4.5337268710136414e-01" purity="5.4005920886993408e-01" nType="-99"/>
          <Node pos="r" depth="2" NCoef="0" IVar="-1" Cut="0.0000000000000000e+00" cType="1" res="-1.2147459201514721e-03" rms="4.3409791588783264e-01" purity="4.2094612121582031e-01" nType="-99"/>
        </Node>
        <Node pos="r" depth="1" NCoef="0" IVar="-1" Cut="0.0000000000000000e+00" cType="1" res="2.3422699887305498e-03" rms="4.6256750822067261e-01" purity="4.2512255907058716e-01" nType="-99"/>
      </Node>
    </BinaryTree>
    <BinaryTree type="DecisionTree" boostWeight="1.0000000000000000e+00" itree="523">
      <Node pos="s" depth="0" NCoef="0" IVar="5" Cut="1.5396758681163192e-03" cType="1" res="1.0229701874777675e-03" rms="4.4902887940406799e-01" purity="4.9880388379096985e-01" nType="0">
        <Node pos="l" depth="1" NCoef="0" IVar="2" Cut="2.5145243835449219e+02" cType="1" res="-7.4794562533497810e-03" rms="4.4057792425155640e-01" purity="5.5786025524139404e-01" nType="0">
          <Node pos="l" depth="2" NCoef="0" IVar="-1" Cut="0.0000000000000000e+00" cType="1" res="-2.4590971879661083e-03" rms="4.3614020943641663e-01" purity="3.6013385653495789e-01" nType="-99"/>
          <Node pos="r" depth="2" NCoef="0" IVar="-1" Cut="0.0000000000000000e+00" cType="1" res="2.0650036276492756e-06" rms="4.4179442524909973e-01" purity="6.2386155128479004e-01" nType="-99"/>
        </Node>
        <Node pos="r" depth="1" NCoef="0" IVar="5" Cut="1.8062248127534986e-03" cType="1" res="1.2234809808433056e-02" rms="4.5969516038894653e-01" purity="4.2092841863632202e-01" nType="0">
          <Node pos="l" depth="2" NCoef="0" IVar="-1" Cut="0.0000000000000000e+00" cType="1" res="3.4011597745120525e-03" rms="4.5930242538452148e-01" purity="4.9645188450813293e-01" nType="-99"/>
          <Node pos="r" depth="2" NCoef="0" IVar="-1" Cut="0.0000000000000000e+00" cType="1" res="4.0643269312568009e-04" rms="4.5944446325302124e-01" purity="4.0770182013511658e-01" nType="-99"/>
        </Node>
      </Node>
    </BinaryTree>
    <BinaryTree type="DecisionTree" boostWeight="1.0000000000000000e+00" itree="524">
      <Node pos="s" depth="0" NCoef="0" IVar="7" Cut="3.9772266149520874e-01" cType="1" res="2.3276514839380980e-03" rms="4.5030263066291809e-01" purity="5.0143003463745117e-01" nType="0">
        <Node pos="l" depth="1" NCoef="0" IVar="-1" Cut="0.0000000000000000e+00" cType="1" res="-2.4718523491173983e-03" rms="4.5602729916572571e-01" purity="4.1233611106872559e-01" nType="-99"/>
        <Node pos="r" depth="1" NCoef="0" IVar="6" Cut="6.2154483795166016e-01" cType="1" res="5.7827974669635296e-03" rms="4.4958028197288513e-01" purity="5.1033681631088257e-01" nType="0">
          <Node pos="l" depth="2" NCoef="0" IVar="-1" Cut="0.0000000000000000e+00" cType="1" res="2.1324886474758387e-03" rms="4.4599395990371704e-01" purity="6.3039427995681763e-01" nType="-99"/>
          <Node pos="r" depth="2" NCoef="0" IVar="-1" Cut="0.0000000000000000e+00" cType="1" res="2.5086666573770344e-04" rms="4.4982689619064331e-01" purity="4.9962788820266724e-01" nType="-99"/>
        </Node>
      </Node>
    </BinaryTree>
    <BinaryTree type="DecisionTree" boostWeight="1.0000000000000000e+00" itree="525">
      <Node pos="s" depth="0" NCoef="0" IVar="7" Cut="4.7993743419647217e-01" cType="1" res="1.6526882536709309e-03" rms="4.5117723941802979e-01" purity="4.9962803721427917e-01" nType="0">
        <Node pos="l" depth="1" NCoef="0" IVar="2" Cut="2.6782507324218750e+02" cType="1" res="1.9664339721202850e-02" rms="4.5171841979026794e-01" purity="4.6145659685134888e-01" nType="0">
          <Node pos="l" depth="2" NCoef="0" IVar="-1" Cut="0.0000000000000000e+00" cType="1" res="3.4397197887301445e-03" rms="4.4449040293693542e-01" purity="3.6461368203163147e-01" nType="-99"/>
          <Node pos="r" depth="2" NCoef="0" IVar="-1" Cut="0.0000000000000000e+00" cType="1" res="3.2887529232539237e-04" rms="4.5596975088119507e-01" purity="5.2731287479400635e-01" nType="-99"/>
        </Node>
        <Node pos="r" depth="1" NCoef="0" IVar="3" Cut="7.4289731681346893e-02" cType="1" res="-2.8811441734433174e-03" rms="4.5092758536338806e-01" purity="5.0923639535903931e-01" nType="0">
          <Node pos="l" depth="2" NCoef="0" IVar="-1" Cut="0.0000000000000000e+00" cType="1" res="2.5408650981262326e-04" rms="4.4831788539886475e-01" purity="5.0192934274673462e-01" nType="-99"/>
          <Node pos="r" depth="2" NCoef="0" IVar="-1" Cut="0.0000000000000000e+00" cType="1" res="-1.5092387329787016e-03" rms="4.5785814523696899e-01" purity="5.3027129173278809e-01" nType="-99"/>
        </Node>
      </Node>
    </BinaryTree>
    <BinaryTree type="DecisionTree" boostWeight="1.0000000000000000e+00" itree="526">
      <Node pos="s" depth="0" NCoef="0" IVar="5" Cut="2.7099181897938251e-03" cType="1" res="4.7212038189172745e-03" rms="4.5006987452507019e-01" purity="5.0239884853363037e-01" nType="0">
        <Node pos="l" depth="1" NCoef="0" IVar="1" Cut="8.8697111606597900e-01" cType="1" res="6.8452995037660003e-04" rms="4.4629693031311035e-01" purity="5.2582204341888428e-01" nType="0">
          <Node pos="l" depth="2" NCoef="0" IVar="-1" Cut="0.0000000000000000e+00" cType="1" res="-1.7630934016779065e-03" rms="4.4137385487556458e-01" purity="3.4104216098785400e-01" nType="-99"/>
          <Node pos="r" depth="2" NCoef="0" IVar="-1" Cut="0.0000000000000000e+00" cType="1" res="5.1837763749063015e-04" rms="4.4752004742622375e-01" purity="5.8040446043014526e-01" nType="-99"/>
        </Node>
        <Node pos="r" depth="1" NCoef="0" IVar="3" Cut="-7.2290509939193726e-02" cType="1" res="2.0644119009375572e-02" rms="4.6431171894073486e-01" purity="4.1000467538833618e-01" nType="0">
          <Node pos="l" depth="2" NCoef="0" IVar="-1" Cut="0.0000000000000000e+00" cType="1" res="4.0709655731916428e-03" rms="4.5558503270149231e-01" purity="4.0203738212585449e-01" nType="-99"/>
          <Node pos="r" depth="2" NCoef="0" IVar="-1" Cut="0.0000000000000000e+00" cType="1" res="5.8560672914609313e-04" rms="4.6673575043678284e-01" purity="4.1282740235328674e-01" nType="-99"/>
        </Node>
      </Node>
    </BinaryTree>
    <BinaryTree type="DecisionTree" boostWeight="1.0000000000000000e+00" itree="527">
      <Node pos="s" depth="0" NCoef="0" IVar="4" Cut="1.9891791045665741e-01" cType="1" res="2.1205027587711811e-03" rms="4.5098355412483215e-01" purity="5.0146651268005371e-01" nType="0">
        <Node pos="l" depth="1" NCoef="0" IVar="3" Cut="1.1064546555280685e-01" cType="1" res="-1.8332218751311302e-02" rms="4.4618189334869385e-01" purity="4.3420448899269104e-01" nType="0">
          <Node pos="l" depth="2" NCoef="0" IVar="-1" Cut="0.0000000000000000e+00" cType="1" res="-2.7729382272809744e-03" rms="4.3768134713172913e-01" purity="3.8023066520690918e-01" nType="-99"/>
          <Node pos="r" depth="2" NCoef="0" IVar="-1" Cut="0.0000000000000000e+00" cType="1" res="4.4797422015108168e-04" rms="4.5772078633308411e-01" purity="5.1650208234786987e-01" nType="-99"/>
        </Node>
        <Node pos="r" depth="1" NCoef="0" IVar="0" Cut="2.0933113098144531e+00" cType="1" res="6.1606508679687977e-03" rms="4.5181652903556824e-01" purity="5.1475316286087036e-01" nType="0">
          <Node pos="l" depth="2" NCoef="0" IVar="-1" Cut="0.0000000000000000e+00" cType="1" res="9.7495043883100152e-04" rms="4.5854699611663818e-01" purity="4.2488560080528259e-01" nType="-99"/>
          <Node pos="r" depth="2" NCoef="0" IVar="-1" Cut="0.0000000000000000e+00" cType="1" res="-3.5080980160273612e-04" rms="4.4041755795478821e-01" purity="6.6085183620452881e-01" nType="-99"/>
        </Node>
      </Node>
    </BinaryTree>
    <BinaryTree type="DecisionTree" boostWeight="1.0000000000000000e+00" itree="528">
      <Node pos="s" depth="0" NCoef="0" IVar="0" Cut="5.5482208728790283e-01" cType="1" res="-2.8224030756973661e-05" rms="4.5035266876220703e-01" purity="4.9895066022872925e-01" nType="0">
        <Node pos="l" depth="1" NCoef="0" IVar="0" Cut="2.0668159425258636e-01" cType="1" res="1.2087040580809116e-02" rms="4.4249618053436279e-01" purity="3.3902928233146667e-01" nType="0">
          <Node pos="l" depth="2" NCoef="0" IVar="-1" Cut="0.0000000000000000e+00" cType="1" res="-8.4320211317390203e-04" rms="4.2886036634445190e-01" purity="2.9817569255828857e-01" nType="-99"/>
          <Node pos="r" depth="2" NCoef="0" IVar="-1" Cut="0.0000000000000000e+00" cType="1" res="3.6008192691951990e-03" rms="4.6131277084350586e-01" purity="4.0388408303260803e-01" nType="-99"/>
        </Node>
        <Node pos="r" depth="1" NCoef="0" IVar="3" Cut="1.7954604327678680e-01" cType="1" res="-3.5110472235828638e-03" rms="4.5252594351768494e-01" purity="5.4492390155792236e-01" nType="0">
          <Node pos="l" depth="2" NCoef="0" IVar="-1" Cut="0.0000000000000000e+00" cType="1" res="-5.2612443687394261e-04" rms="4.5210945606231689e-01" purity="5.3296381235122681e-01" nType="-99"/>
          <Node pos="r" depth="2" NCoef="0" IVar="-1" Cut="0.0000000000000000e+00" cType="1" res="1.1807909468188882e-03" rms="4.5413872599601746e-01" purity="6.0921800136566162e-01" nType="-99"/>
        </Node>
      </Node>
    </BinaryTree>
    <BinaryTree type="DecisionTree" boostWeight="1.0000000000000000e+00" itree="529">
      <Node pos="s" depth="0" NCoef="0" IVar="6" Cut="2.0037205219268799e+00" cType="1" res="1.1469061719253659e-03" rms="4.5018023252487183e-01" purity="5.0389778614044189e-01" nType="0">
        <Node pos="l" depth="1" NCoef="0" IVar="7" Cut="3.7767574191093445e-01" cType="1" res="3.6866711452603340e-03" rms="4.5195031166076660e-01" purity="5.1134479045867920e-01" nType="0">
          <Node pos="l" depth="2" NCoef="0" IVar="-1" Cut="0.0000000000000000e+00" cType="1" res="2.6059998199343681e-03" rms="4.6525943279266357e-01" purity="5.0428563356399536e-01" nType="-99"/>
          <Node pos="r" depth="2" NCoef="0" IVar="-1" Cut="0.0000000000000000e+00" cType="1" res="8.5588078945875168e-05" rms="4.5085552334785461e-01" purity="5.1186406612396240e-01" nType="-99"/>
        </Node>
        <Node pos="r" depth="1" NCoef="0" IVar="-1" Cut="0.0000000000000000e+00" cType="1" res="-3.4640198573470116e-03" rms="4.1665905714035034e-01" purity="3.7755450606346130e-01" nType="-99"/>
      </Node>
    </BinaryTree>
    <BinaryTree type="DecisionTree" boostWeight="1.0000000000000000e+00" itree="530">
      <Node pos="s" depth="0" NCoef="0" IVar="1" Cut="8.9461630582809448e-01" cType="1" res="5.0482456572353840e-04" rms="4.4889450073242188e-01" purity="5.0421094894409180e-01" nType="0">
        <Node pos="l" depth="1" NCoef="0" IVar="0" Cut="2.8084523677825928e+00" cType="1" res="-1.2339203618466854e-02" rms="4.5032748579978943e-01" purity="3.7467613816261292e-01" nType="0">
          <Node pos="l" depth="2" NCoef="0" IVar="-1" Cut="0.0000000000000000e+00" cType="1" res="-1.4516557566821575e-03" rms="4.4701504707336426e-01" purity="3.3870404958724976e-01" nType="-99"/>
          <Node pos="r" depth="2" NCoef="0" IVar="-1" Cut="0.0000000000000000e+00" cType="1" res="1.4720944454893470e-03" rms="4.6855351328849792e-01" purity="5.9682184457778931e-01" nType="-99"/>
        </Node>
        <Node pos="r" depth="1" NCoef="0" IVar="0" Cut="1.4247702360153198e+00" cType="1" res="1.0286558419466019e-02" rms="4.4755291938781738e-01" purity="6.0286188125610352e-01" nType="0">
          <Node pos="l" depth="2" NCoef="0" IVar="-1" Cut="0.0000000000000000e+00" cType="1" res="2.2569433785974979e-03" rms="4.6683895587921143e-01" purity="4.7988051176071167e-01" nType="-99"/>
          <Node pos="r" depth="2" NCoef="0" IVar="-1" Cut="0.0000000000000000e+00" cType="1" res="1.3252455391921103e-04" rms="4.3935790657997131e-01" purity="6.5184271335601807e-01" nType="-99"/>
        </Node>
      </Node>
    </BinaryTree>
    <BinaryTree type="DecisionTree" boostWeight="1.0000000000000000e+00" itree="531">
      <Node pos="s" depth="0" NCoef="0" IVar="6" Cut="1.8169124126434326e+00" cType="1" res="-1.9123001256957650e-03" rms="4.4938567280769348e-01" purity="4.9795851111412048e-01" nType="0">
        <Node pos="l" depth="1" NCoef="0" IVar="2" Cut="4.1982852172851562e+02" cType="1" res="-4.8618060536682606e-03" rms="4.5107457041740417e-01" purity="5.0417894124984741e-01" nType="0">
          <Node pos="l" depth="2" NCoef="0" IVar="-1" Cut="0.0000000000000000e+00" cType="1" res="-6.6165823955088854e-04" rms="4.5281910896301270e-01" purity="4.5940142869949341e-01" nType="-99"/>
          <Node pos="r" depth="2" NCoef="0" IVar="-1" Cut="0.0000000000000000e+00" cType="1" res="7.0687592960894108e-04" rms="4.4431129097938538e-01" purity="6.6762530803680420e-01" nType="-99"/>
        </Node>
        <Node pos="r" depth="1" NCoef="0" IVar="0" Cut="1.5846476554870605e+00" cType="1" res="2.2626342251896858e-02" rms="4.3430492281913757e-01" purity="4.4620725512504578e-01" nType="0">
          <Node pos="l" depth="2" NCoef="0" IVar="-1" Cut="0.0000000000000000e+00" cType="1" res="3.7012924440205097e-03" rms="4.3127813935279846e-01" purity="3.3852970600128174e-01" nType="-99"/>
          <Node pos="r" depth="2" NCoef="0" IVar="-1" Cut="0.0000000000000000e+00" cType="1" res="2.6594835799187422e-04" rms="4.3652158975601196e-01" purity="5.5444967746734619e-01" nType="-99"/>
        </Node>
      </Node>
    </BinaryTree>
    <BinaryTree type="DecisionTree" boostWeight="1.0000000000000000e+00" itree="532">
      <Node pos="s" depth="0" NCoef="0" IVar="0" Cut="4.2060680389404297e+00" cType="1" res="4.9051032401621342e-03" rms="4.4987574219703674e-01" purity="5.0586444139480591e-01" nType="0">
        <Node pos="l" depth="1" NCoef="0" IVar="5" Cut="5.1617698045447469e-04" cType="1" res="2.5481334887444973e-03" rms="4.5610088109970093e-01" purity="4.7589689493179321e-01" nType="0">
          <Node pos="l" depth="2" NCoef="0" IVar="-1" Cut="0.0000000000000000e+00" cType="1" res="-5.8061222080141306e-04" rms="4.3809559941291809e-01" purity="6.0469979047775269e-01" nType="-99"/>
          <Node pos="r" depth="2" NCoef="0" IVar="-1" Cut="0.0000000000000000e+00" cType="1" res="4.5605923514813185e-04" rms="4.6236810088157654e-01" purity="4.2940089106559753e-01" nType="-99"/>
        </Node>
        <Node pos="r" depth="1" NCoef="0" IVar="-1" Cut="0.0000000000000000e+00" cType="1" res="2.0729689858853817e-03" rms="3.8347339630126953e-01" purity="7.9682719707489014e-01" nType="-99"/>
      </Node>
    </BinaryTree>
    <BinaryTree type="DecisionTree" boostWeight="1.0000000000000000e+00" itree="533">
      <Node pos="s" depth="0" NCoef="0" IVar="1" Cut="8.7536674737930298e-01" cType="1" res="3.8947907742112875e-03" rms="4.5183756947517395e-01" purity="5.0374650955200195e-01" nType="0">
        <Node pos="l" depth="1" NCoef="0" IVar="2" Cut="3.0905874633789062e+02" cType="1" res="-1.0500784032046795e-02" rms="4.5322358608245850e-01" purity="3.5877278447151184e-01" nType="0">
          <Node pos="l" depth="2" NCoef="0" IVar="-1" Cut="0.0000000000000000e+00" cType="1" res="1.0009758407250047e-03" rms="4.3529745936393738e-01" purity="2.9222637414932251e-01" nType="-99"/>
          <Node pos="r" depth="2" NCoef="0" IVar="-1" Cut="0.0000000000000000e+00" cType="1" res="-2.5070107076317072e-03" rms="4.7350811958312988e-01" purity="4.4299924373626709e-01" nType="-99"/>
        </Node>
        <Node pos="r" depth="1" NCoef="0" IVar="3" Cut="1.8771955370903015e-01" cType="1" res="9.3570621684193611e-03" rms="4.5119035243988037e-01" purity="5.5875545740127563e-01" nType="0">
          <Node pos="l" depth="2" NCoef="0" IVar="-1" Cut="0.0000000000000000e+00" cType="1" res="9.4107817858457565e-04" rms="4.5064771175384521e-01" purity="5.5453789234161377e-01" nType="-99"/>
          <Node pos="r" depth="2" NCoef="0" IVar="-1" Cut="0.0000000000000000e+00" cType="1" res="-1.1524651199579239e-03" rms="4.5386794209480286e-01" purity="5.8650785684585571e-01" nType="-99"/>
        </Node>
      </Node>
    </BinaryTree>
    <BinaryTree type="DecisionTree" boostWeight="1.0000000000000000e+00" itree="534">
      <Node pos="s" depth="0" NCoef="0" IVar="1" Cut="9.0625429153442383e-01" cType="1" res="-1.6004838980734348e-03" rms="4.5018947124481201e-01" purity="5.0061476230621338e-01" nType="0">
        <Node pos="l" depth="1" NCoef="0" IVar="0" Cut="5.7748788595199585e-01" cType="1" res="-9.1569144278764725e-03" rms="4.5466575026512146e-01" purity="3.8991472125053406e-01" nType="0">
          <Node pos="l" depth="2" NCoef="0" IVar="-1" Cut="0.0000000000000000e+00" cType="1" res="7.3061819421127439e-04" rms="4.4488662481307983e-01" purity="3.2185748219490051e-01" nType="-99"/>
          <Node pos="r" depth="2" NCoef="0" IVar="-1" Cut="0.0000000000000000e+00" cType="1" res="-1.3123585376888514e-03" rms="4.5990699529647827e-01" purity="4.2915612459182739e-01" nType="-99"/>
        </Node>
        <Node pos="r" depth="1" NCoef="0" IVar="5" Cut="2.4274762836284935e-04" cType="1" res="6.7471833899617195e-03" rms="4.4504302740097046e-01" purity="6.2290614843368530e-01" nType="0">
          <Node pos="l" depth="2" NCoef="0" IVar="-1" Cut="0.0000000000000000e+00" cType="1" res="-1.0042692301794887e-03" rms="4.1933432221412659e-01" purity="7.1493625640869141e-01" nType="-99"/>
          <Node pos="r" depth="2" NCoef="0" IVar="-1" Cut="0.0000000000000000e+00" cType="1" res="1.2192458380013704e-03" rms="4.5937266945838928e-01" purity="5.6767320632934570e-01" nType="-99"/>
        </Node>
      </Node>
    </BinaryTree>
    <BinaryTree type="DecisionTree" boostWeight="1.0000000000000000e+00" itree="535">
      <Node pos="s" depth="0" NCoef="0" IVar="7" Cut="3.5728698968887329e-01" cType="1" res="1.2536905705928802e-03" rms="4.4998452067375183e-01" purity="5.0140643119812012e-01" nType="0">
        <Node pos="l" depth="1" NCoef="0" IVar="-1" Cut="0.0000000000000000e+00" cType="1" res="3.2645757310092449e-03" rms="4.6519115567207336e-01" purity="5.0485426187515259e-01" nType="-99"/>
        <Node pos="r" depth="1" NCoef="0" IVar="1" Cut="8.7921035289764404e-01" cType="1" res="-1.3669186737388372e-03" rms="4.4895401597023010e-01" purity="5.0120830535888672e-01" nType="0">
          <Node pos="l" depth="2" NCoef="0" IVar="-1" Cut="0.0000000000000000e+00" cType="1" res="-1.1335298186168075e-03" rms="4.4893240928649902e-01" purity="3.5912105441093445e-01" nType="-99"/>
          <Node pos="r" depth="2" NCoef="0" IVar="-1" Cut="0.0000000000000000e+00" cType="1" res="3.3198314486071467e-04" rms="4.4883215427398682e-01" purity="5.6606090068817139e-01" nType="-99"/>
        </Node>
      </Node>
    </BinaryTree>
    <BinaryTree type="DecisionTree" boostWeight="1.0000000000000000e+00" itree="536">
      <Node pos="s" depth="0" NCoef="0" IVar="4" Cut="5.2421885728836060e-01" cType="1" res="5.1027233712375164e-04" rms="4.5219975709915161e-01" purity="5.0227236747741699e-01" nType="0">
        <Node pos="l" depth="1" NCoef="0" IVar="2" Cut="3.8152368164062500e+02" cType="1" res="-5.0056674517691135e-03" rms="4.5395040512084961e-01" purity="4.8321485519409180e-01" nType="0">
          <Node pos="l" depth="2" NCoef="0" IVar="-1" Cut="0.0000000000000000e+00" cType="1" res="-9.4619131414219737e-04" rms="4.5351701974868774e-01" purity="4.1380104422569275e-01" nType="-99"/>
          <Node pos="r" depth="2" NCoef="0" IVar="-1" Cut="0.0000000000000000e+00" cType="1" res="7.4123713420704007e-04" rms="4.5447003841400146e-01" purity="6.3494348526000977e-01" nType="-99"/>
        </Node>
        <Node pos="r" depth="1" NCoef="0" IVar="6" Cut="9.3502086400985718e-01" cType="1" res="1.4924544841051102e-02" rms="4.4727164506912231e-01" purity="5.5207365751266479e-01" nType="0">
          <Node pos="l" depth="2" NCoef="0" IVar="-1" Cut="0.0000000000000000e+00" cType="1" res="-5.0394743448123336e-04" rms="4.3771106004714966e-01" purity="5.9021931886672974e-01" nType="-99"/>
          <Node pos="r" depth="2" NCoef="0" IVar="-1" Cut="0.0000000000000000e+00" cType="1" res="1.6357434215024114e-03" rms="4.5056647062301636e-01" purity="5.3759956359863281e-01" nType="-99"/>
        </Node>
      </Node>
    </BinaryTree>
    <BinaryTree type="DecisionTree" boostWeight="1.0000000000000000e+00" itree="537">
      <Node pos="s" depth="0" NCoef="0" IVar="1" Cut="8.7540197372436523e-01" cType="1" res="-5.1243901252746582e-03" rms="4.4848197698593140e-01" purity="4.9682912230491638e-01" nType="0">
        <Node pos="l" depth="1" NCoef="0" IVar="0" Cut="1.1288319826126099e+00" cType="1" res="-1.8950983881950378e-02" rms="4.4666948914527893e-01" purity="3.5136824846267700e-01" nType="0">
          <Node pos="l" depth="2" NCoef="0" IVar="-1" Cut="0.0000000000000000e+00" cType="1" res="-2.3366790264844894e-04" rms="4.3824049830436707e-01" purity="3.0914241075515747e-01" nType="-99"/>
          <Node pos="r" depth="2" NCoef="0" IVar="-1" Cut="0.0000000000000000e+00" cType="1" res="-2.9571305494755507e-03" rms="4.5835539698600769e-01" purity="4.1720792651176453e-01" nType="-99"/>
        </Node>
        <Node pos="r" depth="1" NCoef="0" IVar="5" Cut="6.8913388531655073e-04" cType="1" res="2.2795627592131495e-04" rms="4.4906735420227051e-01" purity="5.5313783884048462e-01" nType="0">
          <Node pos="l" depth="2" NCoef="0" IVar="-1" Cut="0.0000000000000000e+00" cType="1" res="-9.7260228358209133e-04" rms="4.3441471457481384e-01" purity="6.3400053977966309e-01" nType="-99"/>
          <Node pos="r" depth="2" NCoef="0" IVar="-1" Cut="0.0000000000000000e+00" cType="1" res="8.0477149458602071e-04" rms="4.6090838313102722e-01" purity="4.8402112722396851e-01" nType="-99"/>
        </Node>
      </Node>
    </BinaryTree>
    <BinaryTree type="DecisionTree" boostWeight="1.0000000000000000e+00" itree="538">
      <Node pos="s" depth="0" NCoef="0" IVar="2" Cut="3.8094287109375000e+02" cType="1" res="4.0081990882754326e-03" rms="4.5057624578475952e-01" purity="5.0378721952438354e-01" nType="0">
        <Node pos="l" depth="1" NCoef="0" IVar="4" Cut="4.2208704352378845e-01" cType="1" res="-1.0098201455548406e-03" rms="4.5032078027725220e-01" purity="4.4316795468330383e-01" nType="0">
          <Node pos="l" depth="2" NCoef="0" IVar="-1" Cut="0.0000000000000000e+00" cType="1" res="-9.1317691840231419e-04" rms="4.4379034638404846e-01" purity="3.9991468191146851e-01" nType="-99"/>
          <Node pos="r" depth="2" NCoef="0" IVar="-1" Cut="0.0000000000000000e+00" cType="1" res="7.5467122951522470e-04" rms="4.5682835578918457e-01" purity="4.8882359266281128e-01" nType="-99"/>
        </Node>
        <Node pos="r" depth="1" NCoef="0" IVar="6" Cut="9.9359738826751709e-01" cType="1" res="1.6633098945021629e-02" rms="4.5097136497497559e-01" purity="6.5630012750625610e-01" nType="0">
          <Node pos="l" depth="2" NCoef="0" IVar="-1" Cut="0.0000000000000000e+00" cType="1" res="-4.5122264418751001e-04" rms="4.5081430673599243e-01" purity="6.5020412206649780e-01" nType="-99"/>
          <Node pos="r" depth="2" NCoef="0" IVar="-1" Cut="0.0000000000000000e+00" cType="1" res="2.7637232560664415e-03" rms="4.4972699880599976e-01" purity="6.6307508945465088e-01" nType="-99"/>
        </Node>
      </Node>
    </BinaryTree>
    <BinaryTree type="DecisionTree" boostWeight="1.0000000000000000e+00" itree="539">
      <Node pos="s" depth="0" NCoef="0" IVar="4" Cut="3.3755961060523987e-01" cType="1" res="-2.9930702294223011e-04" rms="4.5000782608985901e-01" purity="4.9853697419166565e-01" nType="0">
        <Node pos="l" depth="1" NCoef="0" IVar="6" Cut="1.2913521528244019e+00" cType="1" res="1.0844719596207142e-02" rms="4.5473894476890564e-01" purity="4.7828486561775208e-01" nType="0">
          <Node pos="l" depth="2" NCoef="0" IVar="-1" Cut="0.0000000000000000e+00" cType="1" res="1.4484827406704426e-03" rms="4.6392840147018433e-01" purity="5.2731728553771973e-01" nType="-99"/>
          <Node pos="r" depth="2" NCoef="0" IVar="-1" Cut="0.0000000000000000e+00" cType="1" res="-5.0390383694320917e-04" rms="4.3839821219444275e-01" purity="3.9628863334655762e-01" nType="-99"/>
        </Node>
        <Node pos="r" depth="1" NCoef="0" IVar="6" Cut="1.8727189302444458e+00" cType="1" res="-8.2678161561489105e-03" rms="4.4642359018325806e-01" purity="5.1301813125610352e-01" nType="0">
          <Node pos="l" depth="2" NCoef="0" IVar="-1" Cut="0.0000000000000000e+00" cType="1" res="-8.7194767547771335e-04" rms="4.4762283563613892e-01" purity="5.1608353853225708e-01" nType="-99"/>
          <Node pos="r" depth="2" NCoef="0" IVar="-1" Cut="0.0000000000000000e+00" cType="1" res="2.3037337232381105e-03" rms="4.3226006627082825e-01" purity="4.8215594887733459e-01" nType="-99"/>
        </Node>
      </Node>
    </BinaryTree>
    <BinaryTree type="DecisionTree" boostWeight="1.0000000000000000e+00" itree="540">
      <Node pos="s" depth="0" NCoef="0" IVar="3" Cut="-1.1803531646728516e-01" cType="1" res="-2.2464902140200138e-03" rms="4.4824683666229248e-01" purity="4.9959072470664978e-01" nType="0">
        <Node pos="l" depth="1" NCoef="0" IVar="-1" Cut="0.0000000000000000e+00" cType="1" res="-2.5454985443502665e-03" rms="4.2582926154136658e-01" purity="4.1856765747070312e-01" nType="-99"/>
        <Node pos="r" depth="1" NCoef="0" IVar="3" Cut="2.2550413012504578e-01" cType="1" res="8.0815370893105865e-04" rms="4.5037394762039185e-01" purity="5.0790888071060181e-01" nType="0">
          <Node pos="l" depth="2" NCoef="0" IVar="-1" Cut="0.0000000000000000e+00" cType="1" res="-1.4516009832732379e-04" rms="4.4919314980506897e-01" purity="5.0141221284866333e-01" nType="-99"/>
          <Node pos="r" depth="2" NCoef="0" IVar="-1" Cut="0.0000000000000000e+00" cType="1" res="2.0229651127010584e-03" rms="4.6189993619918823e-01" purity="5.7848739624023438e-01" nType="-99"/>
        </Node>
      </Node>
    </BinaryTree>
    <BinaryTree type="DecisionTree" boostWeight="1.0000000000000000e+00" itree="541">
      <Node pos="s" depth="0" NCoef="0" IVar="0" Cut="3.5350461006164551e+00" cType="1" res="3.3772379538277164e-05" rms="4.4769608974456787e-01" purity="5.0300997495651245e-01" nType="0">
        <Node pos="l" depth="1" NCoef="0" IVar="1" Cut="9.1011291742324829e-01" cType="1" res="-3.7874493282288313e-03" rms="4.5297276973724365e-01" purity="4.5745500922203064e-01" nType="0">
          <Node pos="l" depth="2" NCoef="0" IVar="-1" Cut="0.0000000000000000e+00" cType="1" res="-9.2959759058430791e-04" rms="4.5140537619590759e-01" purity="3.6931285262107849e-01" nType="-99"/>
          <Node pos="r" depth="2" NCoef="0" IVar="-1" Cut="0.0000000000000000e+00" cType="1" res="6.2397448346018791e-04" rms="4.5504468679428101e-01" purity="5.9183782339096069e-01" nType="-99"/>
        </Node>
        <Node pos="r" depth="1" NCoef="0" IVar="2" Cut="3.2639669799804688e+02" cType="1" res="2.0269092172384262e-02" rms="4.1806441545486450e-01" purity="7.4424690008163452e-01" nType="0">
          <Node pos="l" depth="2" NCoef="0" IVar="-1" Cut="0.0000000000000000e+00" cType="1" res="2.9931573662906885e-03" rms="4.3590313196182251e-01" purity="7.0638191699981689e-01" nType="-99"/>
          <Node pos="r" depth="2" NCoef="0" IVar="-1" Cut="0.0000000000000000e+00" cType="1" res="-3.9912282954901457e-04" rms="3.9924070239067078e-01" purity="7.7914369106292725e-01" nType="-99"/>
        </Node>
      </Node>
    </BinaryTree>
    <BinaryTree type="DecisionTree" boostWeight="1.0000000000000000e+00" itree="542">
      <Node pos="s" depth="0" NCoef="0" IVar="7" Cut="3.7721970677375793e-01" cType="1" res="5.9371034149080515e-04" rms="4.5199358463287354e-01" purity="5.0066828727722168e-01" nType="0">
        <Node pos="l" depth="1" NCoef="0" IVar="-1" Cut="0.0000000000000000e+00" cType="1" res="-2.3118641693145037e-03" rms="4.4050168991088867e-01" purity="4.2699000239372253e-01" nType="-99"/>
        <Node pos="r" depth="1" NCoef="0" IVar="3" Cut="-1.1850786209106445e-01" cType="1" res="2.8610441368073225e-03" rms="4.5274040102958679e-01" purity="5.0606322288513184e-01" nType="0">
          <Node pos="l" depth="2" NCoef="0" IVar="-1" Cut="0.0000000000000000e+00" cType="1" res="1.8993658013641834e-03" rms="4.4763574004173279e-01" purity="4.7484788298606873e-01" nType="-99"/>
          <Node pos="r" depth="2" NCoef="0" IVar="-1" Cut="0.0000000000000000e+00" cType="1" res="4.3024665501434356e-05" rms="4.5319655537605286e-01" purity="5.0924509763717651e-01" nType="-99"/>
        </Node>
      </Node>
    </BinaryTree>
    <BinaryTree type="DecisionTree" boostWeight="1.0000000000000000e+00" itree="543">
      <Node pos="s" depth="0" NCoef="0" IVar="6" Cut="6.2916785478591919e-01" cType="1" res="2.0861809607595205e-03" rms="4.4922140240669250e-01" purity="5.0136810541152954e-01" nType="0">
        <Node pos="l" depth="1" NCoef="0" IVar="-1" Cut="0.0000000000000000e+00" cType="1" res="2.8054278809577227e-03" rms="4.4250926375389099e-01" purity="6.3070440292358398e-01" nType="-99"/>
        <Node pos="r" depth="1" NCoef="0" IVar="7" Cut="8.3151924610137939e-01" cType="1" res="-1.3996901689097285e-03" rms="4.4964835047721863e-01" purity="4.8986136913299561e-01" nType="0">
          <Node pos="l" depth="2" NCoef="0" IVar="-1" Cut="0.0000000000000000e+00" cType="1" res="-4.2274876614101231e-04" rms="4.5108041167259216e-01" purity="4.7146087884902954e-01" nType="-99"/>
          <Node pos="r" depth="2" NCoef="0" IVar="-1" Cut="0.0000000000000000e+00" cType="1" res="1.4442889951169491e-03" rms="4.4151321053504944e-01" purity="5.8464115858078003e-01" nType="-99"/>
        </Node>
      </Node>
    </BinaryTree>
    <BinaryTree type="DecisionTree" boostWeight="1.0000000000000000e+00" itree="544">
      <Node pos="s" depth="0" NCoef="0" IVar="5" Cut="1.2904385803267360e-03" cType="1" res="6.9756928132846951e-04" rms="4.5254731178283691e-01" purity="5.0153839588165283e-01" nType="0">
        <Node pos="l" depth="1" NCoef="0" IVar="6" Cut="1.8070188760757446e+00" cType="1" res="-1.0418750345706940e-02" rms="4.4541767239570618e-01" purity="5.7198143005371094e-01" nType="0">
          <Node pos="l" depth="2" NCoef="0" IVar="-1" Cut="0.0000000000000000e+00" cType="1" res="-5.4389244178310037e-04" rms="4.4604793190956116e-01" purity="5.8392661809921265e-01" nType="-99"/>
          <Node pos="r" depth="2" NCoef="0" IVar="-1" Cut="0.0000000000000000e+00" cType="1" res="-2.7243315707892179e-03" rms="4.3919801712036133e-01" purity="4.6967113018035889e-01" nType="-99"/>
        </Node>
        <Node pos="r" depth="1" NCoef="0" IVar="6" Cut="1.3359439373016357e+00" cType="1" res="1.2530812993645668e-02" rms="4.5972007513046265e-01" purity="4.2655229568481445e-01" nType="0">
          <Node pos="l" depth="2" NCoef="0" IVar="-1" Cut="0.0000000000000000e+00" cType="1" res="1.5978226438164711e-03" rms="4.7173207998275757e-01" purity="4.7177872061729431e-01" nType="-99"/>
          <Node pos="r" depth="2" NCoef="0" IVar="-1" Cut="0.0000000000000000e+00" cType="1" res="-5.4437888320535421e-04" rms="4.3746355175971985e-01" purity="3.4822112321853638e-01" nType="-99"/>
        </Node>
      </Node>
    </BinaryTree>
    <BinaryTree type="DecisionTree" boostWeight="1.0000000000000000e+00" itree="545">
      <Node pos="s" depth="0" NCoef="0" IVar="2" Cut="3.4458129882812500e+02" cType="1" res="1.4956153463572264e-03" rms="4.4728890061378479e-01" purity="5.0194400548934937e-01" nType="0">
        <Node pos="l" depth="1" NCoef="0" IVar="7" Cut="4.5303788781166077e-01" cType="1" res="-6.4980010502040386e-03" rms="4.4533872604370117e-01" purity="4.2150726914405823e-01" nType="0">
          <Node pos="l" depth="2" NCoef="0" IVar="-1" Cut="0.0000000000000000e+00" cType="1" res="-2.8491297271102667e-03" rms="4.2970356345176697e-01" purity="3.5341328382492065e-01" nType="-99"/>
          <Node pos="r" depth="2" NCoef="0" IVar="-1" Cut="0.0000000000000000e+00" cType="1" res="-4.3889911466976628e-05" rms="4.4825485348701477e-01" purity="4.3549716472625732e-01" nType="-99"/>
        </Node>
        <Node pos="r" depth="1" NCoef="0" IVar="4" Cut="1.7245811223983765e-01" cType="1" res="1.5022451058030128e-02" rms="4.5024666190147400e-01" purity="6.3805943727493286e-01" nType="0">
          <Node pos="l" depth="2" NCoef="0" IVar="-1" Cut="0.0000000000000000e+00" cType="1" res="-8.6574087617918849e-04" rms="4.5525193214416504e-01" purity="5.2462655305862427e-01" nType="-99"/>
          <Node pos="r" depth="2" NCoef="0" IVar="-1" Cut="0.0000000000000000e+00" cType="1" res="1.3761916197836399e-03" rms="4.4893175363540649e-01" purity="6.6260445117950439e-01" nType="-99"/>
        </Node>
      </Node>
    </BinaryTree>
    <BinaryTree type="DecisionTree" boostWeight="1.0000000000000000e+00" itree="546">
      <Node pos="s" depth="0" NCoef="0" IVar="5" Cut="3.3359583467245102e-03" cType="1" res="-6.2668179161846638e-03" rms="4.4963359832763672e-01" purity="4.9371686577796936e-01" nType="0">
        <Node pos="l" depth="1" NCoef="0" IVar="2" Cut="4.4294299316406250e+02" cType="1" res="-9.2195672914385796e-03" rms="4.4785323739051819e-01" purity="5.0244188308715820e-01" nType="0">
          <Node pos="l" depth="2" NCoef="0" IVar="-1" Cut="0.0000000000000000e+00" cType="1" res="-9.4368570717051625e-04" rms="4.5039200782775879e-01" purity="4.6278360486030579e-01" nType="-99"/>
          <Node pos="r" depth="2" NCoef="0" IVar="-1" Cut="0.0000000000000000e+00" cType="1" res="5.0893757725134492e-04" rms="4.3551474809646606e-01" purity="6.8617331981658936e-01" nType="-99"/>
        </Node>
        <Node pos="r" depth="1" NCoef="0" IVar="-1" Cut="0.0000000000000000e+00" cType="1" res="1.4468082226812840e-03" rms="4.6455323696136475e-01" purity="4.1492640972137451e-01" nType="-99"/>
      </Node>
    </BinaryTree>
    <BinaryTree type="DecisionTree" boostWeight="1.0000000000000000e+00" itree="547">
      <Node pos="s" depth="0" NCoef="0" IVar="4" Cut="7.1166986227035522e-01" cType="1" res="1.2643911177292466e-03" rms="4.5017400383949280e-01" purity="5.0072365999221802e-01" nType="0">
        <Node pos="l" depth="1" NCoef="0" IVar="5" Cut="1.1613949900493026e-03" cType="1" res="-9.1039156541228294e-04" rms="4.5152601599693298e-01" purity="4.9641191959381104e-01" nType="0">
          <Node pos="l" depth="2" NCoef="0" IVar="-1" Cut="0.0000000000000000e+00" cType="1" res="-6.6216825507581234e-04" rms="4.4343400001525879e-01" purity="5.7751590013504028e-01" nType="-99"/>
          <Node pos="r" depth="2" NCoef="0" IVar="-1" Cut="0.0000000000000000e+00" cType="1" res="4.8442964907735586e-04" rms="4.5876324176788330e-01" purity="4.2126756906509399e-01" nType="-99"/>
        </Node>
        <Node pos="r" depth="1" NCoef="0" IVar="-1" Cut="0.0000000000000000e+00" cType="1" res="2.6060696691274643e-03" rms="4.2573049664497375e-01" purity="5.7164657115936279e-01" nType="-99"/>
      </Node>
    </BinaryTree>
    <BinaryTree type="DecisionTree" boostWeight="1.0000000000000000e+00" itree="548">
      <Node pos="s" depth="0" NCoef="0" IVar="4" Cut="3.5999062657356262e-01" cType="1" res="-2.6908265426754951e-03" rms="4.4830119609832764e-01" purity="4.9612948298454285e-01" nType="0">
        <Node pos="l" depth="1" NCoef="0" IVar="2" Cut="5.2829986572265625e+02" cType="1" res="-1.5456136316061020e-02" rms="4.4981905817985535e-01" purity="4.5550572872161865e-01" nType="0">
          <Node pos="l" depth="2" NCoef="0" IVar="-1" Cut="0.0000000000000000e+00" cType="1" res="-1.6554464818909764e-03" rms="4.5101562142372131e-01" purity="4.1882824897766113e-01" nType="-99"/>
          <Node pos="r" depth="2" NCoef="0" IVar="-1" Cut="0.0000000000000000e+00" cType="1" res="1.6768205678090453e-03" rms="4.4012203812599182e-01" purity="6.8345820903778076e-01" nType="-99"/>
        </Node>
        <Node pos="r" depth="1" NCoef="0" IVar="3" Cut="-2.1647779271006584e-02" cType="1" res="7.6377703808248043e-03" rms="4.4680246710777283e-01" purity="5.2899873256683350e-01" nType="0">
          <Node pos="l" depth="2" NCoef="0" IVar="-1" Cut="0.0000000000000000e+00" cType="1" res="-7.0129823870956898e-04" rms="4.4254258275032043e-01" purity="4.8501762747764587e-01" nType="-99"/>
          <Node pos="r" depth="2" NCoef="0" IVar="-1" Cut="0.0000000000000000e+00" cType="1" res="1.3801540480926633e-03" rms="4.4943422079086304e-01" purity="5.6061154603958130e-01" nType="-99"/>
        </Node>
      </Node>
    </BinaryTree>
    <BinaryTree type="DecisionTree" boostWeight="1.0000000000000000e+00" itree="549">
      <Node pos="s" depth="0" NCoef="0" IVar="7" Cut="4.9647283554077148e-01" cType="1" res="1.5997319715097547e-03" rms="4.5138594508171082e-01" purity="5.0263869762420654e-01" nType="0">
        <Node pos="l" depth="1" NCoef="0" IVar="1" Cut="8.8682544231414795e-01" cType="1" res="1.6070958226919174e-02" rms="4.5063388347625732e-01" purity="4.5655319094657898e-01" nType="0">
          <Node pos="l" depth="2" NCoef="0" IVar="-1" Cut="0.0000000000000000e+00" cType="1" res="-3.0078840791247785e-04" rms="4.4320785999298096e-01" purity="3.3666977286338806e-01" nType="-99"/>
          <Node pos="r" depth="2" NCoef="0" IVar="-1" Cut="0.0000000000000000e+00" cType="1" res="2.1091531962156296e-03" rms="4.5526400208473206e-01" purity="5.4076236486434937e-01" nType="-99"/>
        </Node>
        <Node pos="r" depth="1" NCoef="0" IVar="3" Cut="1.6232797503471375e-01" cType="1" res="-2.7225357480347157e-03" rms="4.5152038335800171e-01" purity="5.1640349626541138e-01" nType="0">
          <Node pos="l" depth="2" NCoef="0" IVar="-1" Cut="0.0000000000000000e+00" cType="1" res="1.2796389455616008e-05" rms="4.5074343681335449e-01" purity="5.1472443342208862e-01" nType="-99"/>
          <Node pos="r" depth="2" NCoef="0" IVar="-1" Cut="0.0000000000000000e+00" cType="1" res="-2.8038229793310165e-03" rms="4.5970723032951355e-01" purity="5.3780633211135864e-01" nType="-99"/>
        </Node>
      </Node>
    </BinaryTree>
    <BinaryTree type="DecisionTree" boostWeight="1.0000000000000000e+00" itree="550">
      <Node pos="s" depth="0" NCoef="0" IVar="5" Cut="2.0647086203098297e-03" cType="1" res="1.6746530309319496e-03" rms="4.5209923386573792e-01" purity="4.9984708428382874e-01" nType="0">
        <Node pos="l" depth="1" NCoef="0" IVar="0" Cut="4.8569974303245544e-01" cType="1" res="7.2526498697698116e-03" rms="4.5027655363082886e-01" purity="5.5221605300903320e-01" nType="0">
          <Node pos="l" depth="2" NCoef="0" IVar="-1" Cut="0.0000000000000000e+00" cType="1" res="2.9395308811217546e-03" rms="4.4980412721633911e-01" purity="3.5835188627243042e-01" nType="-99"/>
          <Node pos="r" depth="2" NCoef="0" IVar="-1" Cut="0.0000000000000000e+00" cType="1" res="2.3447185230907053e-04" rms="4.5021525025367737e-01" purity="5.8048444986343384e-01" nType="-99"/>
        </Node>
        <Node pos="r" depth="1" NCoef="0" IVar="0" Cut="6.3314145803451538e-01" cType="1" res="-1.0384858585894108e-02" rms="4.5578160881996155e-01" purity="3.8662654161453247e-01" nType="0">
          <Node pos="l" depth="2" NCoef="0" IVar="-1" Cut="0.0000000000000000e+00" cType="1" res="4.2685976950451732e-04" rms="4.4272115826606750e-01" purity="3.3184710144996643e-01" nType="-99"/>
          <Node pos="r" depth="2" NCoef="0" IVar="-1" Cut="0.0000000000000000e+00" cType="1" res="-1.4415342593565583e-03" rms="4.6449086070060730e-01" purity="4.2539381980895996e-01" nType="-99"/>
        </Node>
      </Node>
    </BinaryTree>
    <BinaryTree type="DecisionTree" boostWeight="1.0000000000000000e+00" itree="551">
      <Node pos="s" depth="0" NCoef="0" IVar="0" Cut="3.3343858718872070e+00" cType="1" res="-5.2955059800297022e-04" rms="4.5185905694961548e-01" purity="4.9713343381881714e-01" nType="0">
        <Node pos="l" depth="1" NCoef="0" IVar="7" Cut="4.9435594677925110e-01" cType="1" res="3.5967698786407709e-03" rms="4.5657637715339661e-01" purity="4.5482239127159119e-01" nType="0">
          <Node pos="l" depth="2" NCoef="0" IVar="-1" Cut="0.0000000000000000e+00" cType="1" res="1.9271547207608819e-03" rms="4.5235875248908997e-01" purity="4.2223799228668213e-01" nType="-99"/>
          <Node pos="r" depth="2" NCoef="0" IVar="-1" Cut="0.0000000000000000e+00" cType="1" res="-1.9250789773650467e-04" rms="4.5759499073028564e-01" purity="4.6423456072807312e-01" nType="-99"/>
        </Node>
        <Node pos="r" depth="1" NCoef="0" IVar="4" Cut="4.4518458843231201e-01" cType="1" res="-2.0016212016344070e-02" rms="4.2834407091140747e-01" purity="6.9694852828979492e-01" nType="0">
          <Node pos="l" depth="2" NCoef="0" IVar="-1" Cut="0.0000000000000000e+00" cType="1" res="-3.7360037094913423e-04" rms="4.3208059668540955e-01" purity="6.8863785266876221e-01" nType="-99"/>
          <Node pos="r" depth="2" NCoef="0" IVar="-1" Cut="0.0000000000000000e+00" cType="1" res="-3.3024039585143328e-03" rms="4.2156091332435608e-01" purity="7.0973050594329834e-01" nType="-99"/>
        </Node>
      </Node>
    </BinaryTree>
    <BinaryTree type="DecisionTree" boostWeight="1.0000000000000000e+00" itree="552">
      <Node pos="s" depth="0" NCoef="0" IVar="2" Cut="2.0004200744628906e+02" cType="1" res="-2.2066871169954538e-03" rms="4.4891560077667236e-01" purity="4.9932375550270081e-01" nType="0">
        <Node pos="l" depth="1" NCoef="0" IVar="-1" Cut="0.0000000000000000e+00" cType="1" res="-3.2525891438126564e-03" rms="4.0109881758689880e-01" purity="2.3221130669116974e-01" nType="-99"/>
        <Node pos="r" depth="1" NCoef="0" IVar="5" Cut="1.5485257608816028e-03" cType="1" res="-3.3760440419428051e-04" rms="4.5184132456779480e-01" purity="5.1701271533966064e-01" nType="0">
          <Node pos="l" depth="2" NCoef="0" IVar="-1" Cut="0.0000000000000000e+00" cType="1" res="-5.0682539585977793e-04" rms="4.4312858581542969e-01" purity="5.7666736841201782e-01" nType="-99"/>
          <Node pos="r" depth="2" NCoef="0" IVar="-1" Cut="0.0000000000000000e+00" cType="1" res="6.3128682086244226e-04" rms="4.6356382966041565e-01" purity="4.3375474214553833e-01" nType="-99"/>
        </Node>
      </Node>
    </BinaryTree>
    <BinaryTree type="DecisionTree" boostWeight="1.0000000000000000e+00" itree="553">
      <Node pos="s" depth="0" NCoef="0" IVar="4" Cut="4.3919122219085693e-01" cType="1" res="-6.0816328041255474e-03" rms="4.4985044002532959e-01" purity="4.9517041444778442e-01" nType="0">
        <Node pos="l" depth="1" NCoef="0" IVar="5" Cut="1.6469319816678762e-03" cType="1" res="2.2865752689540386e-03" rms="4.5313915610313416e-01" purity="4.8494493961334229e-01" nType="0">
          <Node pos="l" depth="2" NCoef="0" IVar="-1" Cut="0.0000000000000000e+00" cType="1" res="-4.6167644904926419e-04" rms="4.4870480895042419e-01" purity="5.3389197587966919e-01" nType="-99"/>
          <Node pos="r" depth="2" NCoef="0" IVar="-1" Cut="0.0000000000000000e+00" cType="1" res="1.1118777329102159e-03" rms="4.5938777923583984e-01" purity="4.1164919734001160e-01" nType="-99"/>
        </Node>
        <Node pos="r" depth="1" NCoef="0" IVar="0" Cut="1.4783253669738770e+00" cType="1" res="-1.8304923549294472e-02" rms="4.4472008943557739e-01" purity="5.1010656356811523e-01" nType="0">
          <Node pos="l" depth="2" NCoef="0" IVar="-1" Cut="0.0000000000000000e+00" cType="1" res="-2.8352041263133287e-03" rms="4.4854182004928589e-01" purity="3.5489869117736816e-01" nType="-99"/>
          <Node pos="r" depth="2" NCoef="0" IVar="-1" Cut="0.0000000000000000e+00" cType="1" res="-2.3813892039470375e-04" rms="4.4087958335876465e-01" purity="6.4306646585464478e-01" nType="-99"/>
        </Node>
      </Node>
    </BinaryTree>
    <BinaryTree type="DecisionTree" boostWeight="1.0000000000000000e+00" itree="554">
      <Node pos="s" depth="0" NCoef="0" IVar="6" Cut="6.9906187057495117e-01" cType="1" res="-1.7486661672592163e-03" rms="4.5014667510986328e-01" purity="4.9917089939117432e-01" nType="0">
        <Node pos="l" depth="1" NCoef="0" IVar="5" Cut="1.0274339001625776e-03" cType="1" res="1.9992081448435783e-02" rms="4.4921514391899109e-01" purity="6.0407865047454834e-01" nType="0">
          <Node pos="l" depth="2" NCoef="0" IVar="-1" Cut="0.0000000000000000e+00" cType="1" res="-5.1839026855304837e-04" rms="4.2092764377593994e-01" purity="6.7841511964797974e-01" nType="-99"/>
          <Node pos="r" depth="2" NCoef="0" IVar="-1" Cut="0.0000000000000000e+00" cType="1" res="2.7080948930233717e-03" rms="4.7046276926994324e-01" purity="5.4167556762695312e-01" nType="-99"/>
        </Node>
        <Node pos="r" depth="1" NCoef="0" IVar="0" Cut="4.3995895385742188e+00" cType="1" res="-5.1155737601220608e-03" rms="4.5019689202308655e-01" purity="4.8292416334152222e-01" nType="0">
          <Node pos="l" depth="2" NCoef="0" IVar="-1" Cut="0.0000000000000000e+00" cType="1" res="-5.3076271433383226e-04" rms="4.5546782016754150e-01" purity="4.5665231347084045e-01" nType="-99"/>
          <Node pos="r" depth="2" NCoef="0" IVar="-1" Cut="0.0000000000000000e+00" cType="1" res="1.5854068333283067e-03" rms="3.8080099225044250e-01" purity="7.9630321264266968e-01" nType="-99"/>
        </Node>
      </Node>
    </BinaryTree>
    <BinaryTree type="DecisionTree" boostWeight="1.0000000000000000e+00" itree="555">
      <Node pos="s" depth="0" NCoef="0" IVar="5" Cut="5.0555530469864607e-04" cType="1" res="3.3828725572675467e-03" rms="4.5386791229248047e-01" purity="5.0270175933837891e-01" nType="0">
        <Node pos="l" depth="1" NCoef="0" IVar="1" Cut="9.3701815605163574e-01" cType="1" res="-1.4205333776772022e-02" rms="4.3134275078773499e-01" purity="6.3444715738296509e-01" nType="0">
          <Node pos="l" depth="2" NCoef="0" IVar="-1" Cut="0.0000000000000000e+00" cType="1" res="-4.3887826614081860e-03" rms="4.4061934947967529e-01" purity="3.4856694936752319e-01" nType="-99"/>
          <Node pos="r" depth="2" NCoef="0" IVar="-1" Cut="0.0000000000000000e+00" cType="1" res="-3.6140580778010190e-04" rms="4.2863997817039490e-01" purity="7.0036792755126953e-01" nType="-99"/>
        </Node>
        <Node pos="r" depth="1" NCoef="0" IVar="0" Cut="2.2781531512737274e-01" cType="1" res="1.0483992286026478e-02" rms="4.6246212720870972e-01" purity="4.4951036572456360e-01" nType="0">
          <Node pos="l" depth="2" NCoef="0" IVar="-1" Cut="0.0000000000000000e+00" cType="1" res="-1.4541513519361615e-03" rms="4.2960792779922485e-01" purity="2.9741975665092468e-01" nType="-99"/>
          <Node pos="r" depth="2" NCoef="0" IVar="-1" Cut="0.0000000000000000e+00" cType="1" res="1.0939917992800474e-03" rms="4.6905907988548279e-01" purity="4.8235288262367249e-01" nType="-99"/>
        </Node>
      </Node>
    </BinaryTree>
    <BinaryTree type="DecisionTree" boostWeight="1.0000000000000000e+00" itree="556">
      <Node pos="s" depth="0" NCoef="0" IVar="1" Cut="9.7937649488449097e-01" cType="1" res="2.2348600905388594e-03" rms="4.5109337568283081e-01" purity="5.0096398591995239e-01" nType="0">
        <Node pos="l" depth="1" NCoef="0" IVar="6" Cut="1.8455662727355957e+00" cType="1" res="3.3418931707274169e-05" rms="4.5721322298049927e-01" purity="4.7589096426963806e-01" nType="0">
          <Node pos="l" depth="2" NCoef="0" IVar="-1" Cut="0.0000000000000000e+00" cType="1" res="-1.8715651822276413e-04" rms="4.5905932784080505e-01" purity="4.8197799921035767e-01" nType="-99"/>
          <Node pos="r" depth="2" NCoef="0" IVar="-1" Cut="0.0000000000000000e+00" cType="1" res="1.8761852988973260e-03" rms="4.3931704759597778e-01" purity="4.2052030563354492e-01" nType="-99"/>
        </Node>
        <Node pos="r" depth="1" NCoef="0" IVar="-1" Cut="0.0000000000000000e+00" cType="1" res="2.5833714753389359e-03" rms="3.5762834548950195e-01" purity="8.3766990900039673e-01" nType="-99"/>
      </Node>
    </BinaryTree>
    <BinaryTree type="DecisionTree" boostWeight="1.0000000000000000e+00" itree="557">
      <Node pos="s" depth="0" NCoef="0" IVar="2" Cut="4.2072079467773438e+02" cType="1" res="5.3961458615958691e-04" rms="4.4912618398666382e-01" purity="4.9994164705276489e-01" nType="0">
        <Node pos="l" depth="1" NCoef="0" IVar="6" Cut="9.9220991134643555e-01" cType="1" res="-3.5218731500208378e-03" rms="4.5125716924667358e-01" purity="4.5381852984428406e-01" nType="0">
          <Node pos="l" depth="2" NCoef="0" IVar="-1" Cut="0.0000000000000000e+00" cType="1" res="9.8469620570540428e-04" rms="4.5688423514366150e-01" purity="5.1605963706970215e-01" nType="-99"/>
          <Node pos="r" depth="2" NCoef="0" IVar="-1" Cut="0.0000000000000000e+00" cType="1" res="-8.5908221080899239e-04" rms="4.4853469729423523e-01" purity="4.2641016840934753e-01" nType="-99"/>
        </Node>
        <Node pos="r" depth="1" NCoef="0" IVar="6" Cut="9.9276298284530640e-01" cType="1" res="1.6461493447422981e-02" rms="4.4031175971031189e-01" purity="6.8075376749038696e-01" nType="0">
          <Node pos="l" depth="2" NCoef="0" IVar="-1" Cut="0.0000000000000000e+00" cType="1" res="-6.7664234666153789e-04" rms="4.4489088654518127e-01" purity="6.6623127460479736e-01" nType="-99"/>
          <Node pos="r" depth="2" NCoef="0" IVar="-1" Cut="0.0000000000000000e+00" cType="1" res="3.1721028499305248e-03" rms="4.3242406845092773e-01" purity="6.9863426685333252e-01" nType="-99"/>
        </Node>
      </Node>
    </BinaryTree>
    <BinaryTree type="DecisionTree" boostWeight="1.0000000000000000e+00" itree="558">
      <Node pos="s" depth="0" NCoef="0" IVar="7" Cut="4.5670017600059509e-01" cType="1" res="-2.0277097355574369e-03" rms="4.4983932375907898e-01" purity="4.9721658229827881e-01" nType="0">
        <Node pos="l" depth="1" NCoef="0" IVar="3" Cut="2.3413610458374023e-01" cType="1" res="-2.2353192791342735e-02" rms="4.4039514660835266e-01" purity="4.2366683483123779e-01" nType="0">
          <Node pos="l" depth="2" NCoef="0" IVar="-1" Cut="0.0000000000000000e+00" cType="1" res="-3.1612443272024393e-03" rms="4.3468376994132996e-01" purity="3.6068013310432434e-01" nType="-99"/>
          <Node pos="r" depth="2" NCoef="0" IVar="-1" Cut="0.0000000000000000e+00" cType="1" res="9.0163009008392692e-04" rms="4.5063662528991699e-01" purity="5.6228262186050415e-01" nType="-99"/>
        </Node>
        <Node pos="r" depth="1" NCoef="0" IVar="4" Cut="3.2593187689781189e-01" cType="1" res="1.9878731109201908e-03" rms="4.5157358050346375e-01" purity="5.1174736022949219e-01" nType="0">
          <Node pos="l" depth="2" NCoef="0" IVar="-1" Cut="0.0000000000000000e+00" cType="1" res="1.3906608801335096e-03" rms="4.5588299632072449e-01" purity="5.0465810298919678e-01" nType="-99"/>
          <Node pos="r" depth="2" NCoef="0" IVar="-1" Cut="0.0000000000000000e+00" cType="1" res="-3.7844010512344539e-04" rms="4.4962161779403687e-01" purity="5.1460689306259155e-01" nType="-99"/>
        </Node>
      </Node>
    </BinaryTree>
    <BinaryTree type="DecisionTree" boostWeight="1.0000000000000000e+00" itree="559">
      <Node pos="s" depth="0" NCoef="0" IVar="3" Cut="-6.0005281120538712e-02" cType="1" res="9.3555432977154851e-04" rms="4.5071625709533691e-01" purity="4.9650403857231140e-01" nType="0">
        <Node pos="l" depth="1" NCoef="0" IVar="5" Cut="1.3922929065302014e-03" cType="1" res="-1.0020611807703972e-02" rms="4.4044229388237000e-01" purity="4.5177927613258362e-01" nType="0">
          <Node pos="l" depth="2" NCoef="0" IVar="-1" Cut="0.0000000000000000e+00" cType="1" res="-1.8234475282952189e-03" rms="4.3366336822509766e-01" purity="5.1763200759887695e-01" nType="-99"/>
          <Node pos="r" depth="2" NCoef="0" IVar="-1" Cut="0.0000000000000000e+00" cType="1" res="4.6088424278423190e-04" rms="4.4737979769706726e-01" purity="3.7794828414916992e-01" nType="-99"/>
        </Node>
        <Node pos="r" depth="1" NCoef="0" IVar="5" Cut="5.0766248023137450e-04" cType="1" res="5.4562701843678951e-03" rms="4.5481094717979431e-01" purity="5.1495832204818726e-01" nType="0">
          <Node pos="l" depth="2" NCoef="0" IVar="-1" Cut="0.0000000000000000e+00" cType="1" res="-6.1094167176634073e-04" rms="4.2736500501632690e-01" purity="6.4995086193084717e-01" nType="-99"/>
          <Node pos="r" depth="2" NCoef="0" IVar="-1" Cut="0.0000000000000000e+00" cType="1" res="7.5115193612873554e-04" rms="4.6502313017845154e-01" purity="4.6201539039611816e-01" nType="-99"/>
        </Node>
      </Node>
    </BinaryTree>
    <BinaryTree type="DecisionTree" boostWeight="1.0000000000000000e+00" itree="560">
      <Node pos="s" depth="0" NCoef="0" IVar="4" Cut="2.0104044675827026e-01" cType="1" res="-7.6212745625525713e-04" rms="4.5246684551239014e-01" purity="4.9578517675399780e-01" nType="0">
        <Node pos="l" depth="1" NCoef="0" IVar="0" Cut="2.0568299293518066e+00" cType="1" res="1.4971929602324963e-02" rms="4.5291605591773987e-01" purity="4.6577933430671692e-01" nType="0">
          <Node pos="l" depth="2" NCoef="0" IVar="-1" Cut="0.0000000000000000e+00" cType="1" res="2.1620348561555147e-03" rms="4.5037156343460083e-01" purity="3.9412489533424377e-01" nType="-99"/>
          <Node pos="r" depth="2" NCoef="0" IVar="-1" Cut="0.0000000000000000e+00" cType="1" res="-3.1888505327515304e-04" rms="4.5609366893768311e-01" purity="5.7613056898117065e-01" nType="-99"/>
        </Node>
        <Node pos="r" depth="1" NCoef="0" IVar="1" Cut="8.6377978324890137e-01" cType="1" res="-4.1627082973718643e-03" rms="4.5229777693748474e-01" purity="5.0227028131484985e-01" nType="0">
          <Node pos="l" depth="2" NCoef="0" IVar="-1" Cut="0.0000000000000000e+00" cType="1" res="-1.6878247261047363e-03" rms="4.4709262251853943e-01" purity="3.4605234861373901e-01" nType="-99"/>
          <Node pos="r" depth="2" NCoef="0" IVar="-1" Cut="0.0000000000000000e+00" cType="1" res="-6.0252918046899140e-05" rms="4.5320358872413635e-01" purity="5.3193753957748413e-01" nType="-99"/>
        </Node>
      </Node>
    </BinaryTree>
    <BinaryTree type="DecisionTree" boostWeight="1.0000000000000000e+00" itree="561">
      <Node pos="s" depth="0" NCoef="0" IVar="4" Cut="6.7031025886535645e-01" cType="1" res="3.0432653147727251e-03" rms="4.5141217112541199e-01" purity="5.0273227691650391e-01" nType="0">
        <Node pos="l" depth="1" NCoef="0" IVar="2" Cut="2.6604739379882812e+02" cType="1" res="2.3730979592073709e-04" rms="4.5215654373168945e-01" purity="4.9621924757957458e-01" nType="0">
          <Node pos="l" depth="2" NCoef="0" IVar="-1" Cut="0.0000000000000000e+00" cType="1" res="9.8548957612365484e-04" rms="4.3852701783180237e-01" purity="3.5112214088439941e-01" nType="-99"/>
          <Node pos="r" depth="2" NCoef="0" IVar="-1" Cut="0.0000000000000000e+00" cType="1" res="-3.3762518432922661e-04" rms="4.5819586515426636e-01" purity="5.6298273801803589e-01" nType="-99"/>
        </Node>
        <Node pos="r" depth="1" NCoef="0" IVar="-1" Cut="0.0000000000000000e+00" cType="1" res="2.1321703679859638e-03" rms="4.4320714473724365e-01" purity="5.6590270996093750e-01" nType="-99"/>
      </Node>
    </BinaryTree>
    <BinaryTree type="DecisionTree" boostWeight="1.0000000000000000e+00" itree="562">
      <Node pos="s" depth="0" NCoef="0" IVar="0" Cut="-2.3457875475287437e-02" cType="1" res="-1.4117753016762435e-04" rms="4.4995728135108948e-01" purity="4.9869355559349060e-01" nType="0">
        <Node pos="l" depth="1" NCoef="0" IVar="-1" Cut="0.0000000000000000e+00" cType="1" res="-3.1100553460419178e-03" rms="4.2544099688529968e-01" purity="2.6710927486419678e-01" nType="-99"/>
        <Node pos="r" depth="1" NCoef="0" IVar="5" Cut="1.2657031766138971e-04" cType="1" res="3.0297238845378160e-03" rms="4.5213514566421509e-01" purity="5.2112191915512085e-01" nType="0">
          <Node pos="l" depth="2" NCoef="0" IVar="-1" Cut="0.0000000000000000e+00" cType="1" res="-1.2865413445979357e-03" rms="4.0767967700958252e-01" purity="7.2871267795562744e-01" nType="-99"/>
          <Node pos="r" depth="2" NCoef="0" IVar="-1" Cut="0.0000000000000000e+00" cType="1" res="4.2509246850386262e-04" rms="4.5889708399772644e-01" purity="4.8728945851325989e-01" nType="-99"/>
        </Node>
      </Node>
    </BinaryTree>
    <BinaryTree type="DecisionTree" boostWeight="1.0000000000000000e+00" itree="563">
      <Node pos="s" depth="0" NCoef="0" IVar="4" Cut="3.8082230091094971e-01" cType="1" res="2.4119767476804554e-04" rms="4.5084571838378906e-01" purity="4.9910500645637512e-01" nType="0">
        <Node pos="l" depth="1" NCoef="0" IVar="3" Cut="9.3436136841773987e-02" cType="1" res="-8.1317937001585960e-03" rms="4.4990164041519165e-01" purity="4.6643534302711487e-01" nType="0">
          <Node pos="l" depth="2" NCoef="0" IVar="-1" Cut="0.0000000000000000e+00" cType="1" res="-1.8030666979029775e-03" rms="4.4029521942138672e-01" purity="4.2589253187179565e-01" nType="-99"/>
          <Node pos="r" depth="2" NCoef="0" IVar="-1" Cut="0.0000000000000000e+00" cType="1" res="1.0837666923180223e-03" rms="4.6354410052299500e-01" purity="5.3000789880752563e-01" nType="-99"/>
        </Node>
        <Node pos="r" depth="1" NCoef="0" IVar="7" Cut="6.5458923578262329e-01" cType="1" res="8.0036921426653862e-03" rms="4.5158052444458008e-01" purity="5.2939265966415405e-01" nType="0">
          <Node pos="l" depth="2" NCoef="0" IVar="-1" Cut="0.0000000000000000e+00" cType="1" res="1.9808963406831026e-03" rms="4.6172639727592468e-01" purity="5.0548040866851807e-01" nType="-99"/>
          <Node pos="r" depth="2" NCoef="0" IVar="-1" Cut="0.0000000000000000e+00" cType="1" res="-1.5573261771351099e-04" rms="4.4596096873283386e-01" purity="5.4161578416824341e-01" nType="-99"/>
        </Node>
      </Node>
    </BinaryTree>
    <BinaryTree type="DecisionTree" boostWeight="1.0000000000000000e+00" itree="564">
      <Node pos="s" depth="0" NCoef="0" IVar="4" Cut="2.0224177837371826e-01" cType="1" res="-1.2704897671937943e-03" rms="4.5101639628410339e-01" purity="4.9789613485336304e-01" nType="0">
        <Node pos="l" depth="1" NCoef="0" IVar="6" Cut="1.1491912603378296e+00" cType="1" res="1.4496165327727795e-02" rms="4.5876678824424744e-01" purity="4.7112795710563660e-01" nType="0">
          <Node pos="l" depth="2" NCoef="0" IVar="-1" Cut="0.0000000000000000e+00" cType="1" res="5.7359252423339058e-06" rms="4.6447172760963440e-01" purity="5.0466048717498779e-01" nType="-99"/>
          <Node pos="r" depth="2" NCoef="0" IVar="-1" Cut="0.0000000000000000e+00" cType="1" res="2.4246596731245518e-03" rms="4.5122489333152771e-01" purity="4.3092182278633118e-01" nType="-99"/>
        </Node>
        <Node pos="r" depth="1" NCoef="0" IVar="3" Cut="1.7320720851421356e-01" cType="1" res="-4.6000885777175426e-03" rms="4.4929182529449463e-01" purity="5.0354897975921631e-01" nType="0">
          <Node pos="l" depth="2" NCoef="0" IVar="-1" Cut="0.0000000000000000e+00" cType="1" res="-1.2744292325805873e-04" rms="4.4872319698333740e-01" purity="5.0075680017471313e-01" nType="-99"/>
          <Node pos="r" depth="2" NCoef="0" IVar="-1" Cut="0.0000000000000000e+00" cType="1" res="-1.7496142536401749e-03" rms="4.5285710692405701e-01" purity="5.2378052473068237e-01" nType="-99"/>
        </Node>
      </Node>
    </BinaryTree>
    <BinaryTree type="DecisionTree" boostWeight="1.0000000000000000e+00" itree="565">
      <Node pos="s" depth="0" NCoef="0" IVar="4" Cut="6.6968291997909546e-01" cType="1" res="1.4260949101299047e-03" rms="4.5253825187683105e-01" purity="5.0129055976867676e-01" nType="0">
        <Node pos="l" depth="1" NCoef="0" IVar="6" Cut="1.8256494998931885e+00" cType="1" res="-1.5843469882383943e-03" rms="4.5334738492965698e-01" purity="4.9494558572769165e-01" nType="0">
          <Node pos="l" depth="2" NCoef="0" IVar="-1" Cut="0.0000000000000000e+00" cType="1" res="-3.7404874456115067e-04" rms="4.5452162623405457e-01" purity="5.0157624483108521e-01" nType="-99"/>
          <Node pos="r" depth="2" NCoef="0" IVar="-1" Cut="0.0000000000000000e+00" cType="1" res="2.2948575206100941e-03" rms="4.4206526875495911e-01" purity="4.3872064352035522e-01" nType="-99"/>
        </Node>
        <Node pos="r" depth="1" NCoef="0" IVar="-1" Cut="0.0000000000000000e+00" cType="1" res="2.1477770060300827e-03" rms="4.4354209303855896e-01" purity="5.6290972232818604e-01" nType="-99"/>
      </Node>
    </BinaryTree>
    <BinaryTree type="DecisionTree" boostWeight="1.0000000000000000e+00" itree="566">
      <Node pos="s" depth="0" NCoef="0" IVar="4" Cut="2.4350035190582275e-01" cType="1" res="2.8494803700596094e-03" rms="4.5141601562500000e-01" purity="5.0204998254776001e-01" nType="0">
        <Node pos="l" depth="1" NCoef="0" IVar="5" Cut="2.5808983482420444e-03" cType="1" res="-1.0002841241657734e-02" rms="4.5202365517616272e-01" purity="4.5410957932472229e-01" nType="0">
          <Node pos="l" depth="2" NCoef="0" IVar="-1" Cut="0.0000000000000000e+00" cType="1" res="-1.2724099215120077e-03" rms="4.5200836658477783e-01" purity="4.7258657217025757e-01" nType="-99"/>
          <Node pos="r" depth="2" NCoef="0" IVar="-1" Cut="0.0000000000000000e+00" cType="1" res="1.0462227510288358e-03" rms="4.5122173428535461e-01" purity="3.9220845699310303e-01" nType="-99"/>
        </Node>
        <Node pos="r" depth="1" NCoef="0" IVar="4" Cut="2.9550281167030334e-01" cType="1" res="6.9359089247882366e-03" rms="4.5114594697952271e-01" purity="5.1729267835617065e-01" nType="0">
          <Node pos="l" depth="2" NCoef="0" IVar="-1" Cut="0.0000000000000000e+00" cType="1" res="2.0356755703687668e-03" rms="4.6179497241973877e-01" purity="5.0649940967559814e-01" nType="-99"/>
          <Node pos="r" depth="2" NCoef="0" IVar="-1" Cut="0.0000000000000000e+00" cType="1" res="2.7776710339821875e-04" rms="4.4955101609230042e-01" purity="5.1880335807800293e-01" nType="-99"/>
        </Node>
      </Node>
    </BinaryTree>
    <BinaryTree type="DecisionTree" boostWeight="1.0000000000000000e+00" itree="567">
      <Node pos="s" depth="0" NCoef="0" IVar="4" Cut="3.9245235919952393e-01" cType="1" res="6.7509487271308899e-03" rms="4.5174553990364075e-01" purity="5.0682812929153442e-01" nType="0">
        <Node pos="l" depth="1" NCoef="0" IVar="0" Cut="1.8700594902038574e+00" cType="1" res="-2.7591164689511061e-03" rms="4.5183011889457703e-01" purity="4.7244256734848022e-01" nType="0">
          <Node pos="l" depth="2" NCoef="0" IVar="-1" Cut="0.0000000000000000e+00" cType="1" res="4.9046793719753623e-04" rms="4.5052915811538696e-01" purity="3.8037747144699097e-01" nType="-99"/>
          <Node pos="r" depth="2" NCoef="0" IVar="-1" Cut="0.0000000000000000e+00" cType="1" res="-9.4123062444850802e-04" rms="4.5321029424667358e-01" purity="5.8845764398574829e-01" nType="-99"/>
        </Node>
        <Node pos="r" depth="1" NCoef="0" IVar="4" Cut="4.4857898354530334e-01" cType="1" res="1.6215955838561058e-02" rms="4.5146247744560242e-01" purity="5.4105073213577271e-01" nType="0">
          <Node pos="l" depth="2" NCoef="0" IVar="-1" Cut="0.0000000000000000e+00" cType="1" res="2.7481282595545053e-03" rms="4.6010705828666687e-01" purity="5.5533093214035034e-01" nType="-99"/>
          <Node pos="r" depth="2" NCoef="0" IVar="-1" Cut="0.0000000000000000e+00" cType="1" res="7.0965627674013376e-04" rms="4.4897651672363281e-01" purity="5.3733217716217041e-01" nType="-99"/>
        </Node>
      </Node>
    </BinaryTree>
    <BinaryTree type="DecisionTree" boostWeight="1.0000000000000000e+00" itree="568">
      <Node pos="s" depth="0" NCoef="0" IVar="0" Cut="4.5638585090637207e+00" cType="1" res="-6.3077257946133614e-03" rms="4.4838947057723999e-01" purity="4.9545833468437195e-01" nType="0">
        <Node pos="l" depth="1" NCoef="0" IVar="1" Cut="8.9468729496002197e-01" cType="1" res="-9.1742435470223427e-03" rms="4.5338481664657593e-01" purity="4.7142660617828369e-01" nType="0">
          <Node pos="l" depth="2" NCoef="0" IVar="-1" Cut="0.0000000000000000e+00" cType="1" res="-1.4130470808595419e-03" rms="4.4933712482452393e-01" purity="3.6223387718200684e-01" nType="-99"/>
          <Node pos="r" depth="2" NCoef="0" IVar="-1" Cut="0.0000000000000000e+00" cType="1" res="-8.9421177108306438e-05" rms="4.5665585994720459e-01" purity="5.6441849470138550e-01" nType="-99"/>
        </Node>
        <Node pos="r" depth="1" NCoef="0" IVar="-1" Cut="0.0000000000000000e+00" cType="1" res="2.4778603110462427e-03" rms="3.7278893589973450e-01" purity="8.1816101074218750e-01" nType="-99"/>
      </Node>
    </BinaryTree>
    <BinaryTree type="DecisionTree" boostWeight="1.0000000000000000e+00" itree="569">
      <Node pos="s" depth="0" NCoef="0" IVar="7" Cut="5.8199471235275269e-01" cType="1" res="-5.3382539190351963e-03" rms="4.5270964503288269e-01" purity="4.9146860837936401e-01" nType="0">
        <Node pos="l" depth="1" NCoef="0" IVar="4" Cut="3.8231617212295532e-01" cType="1" res="6.4504677429795265e-03" rms="4.5461022853851318e-01" purity="4.5098617672920227e-01" nType="0">
          <Node pos="l" depth="2" NCoef="0" IVar="-1" Cut="0.0000000000000000e+00" cType="1" res="-1.6174165648408234e-04" rms="4.5248752832412720e-01" purity="4.3712899088859558e-01" nType="-99"/>
          <Node pos="r" depth="2" NCoef="0" IVar="-1" Cut="0.0000000000000000e+00" cType="1" res="2.7048853226006031e-03" rms="4.6100467443466187e-01" purity="5.0244987010955811e-01" nType="-99"/>
        </Node>
        <Node pos="r" depth="1" NCoef="0" IVar="6" Cut="1.0350731611251831e+00" cType="1" res="-1.2549770064651966e-02" rms="4.5139130949974060e-01" purity="5.1623290777206421e-01" nType="0">
          <Node pos="l" depth="2" NCoef="0" IVar="-1" Cut="0.0000000000000000e+00" cType="1" res="-1.7073689959943295e-03" rms="4.5292305946350098e-01" purity="5.5552607774734497e-01" nType="-99"/>
          <Node pos="r" depth="2" NCoef="0" IVar="-1" Cut="0.0000000000000000e+00" cType="1" res="-3.0763857648707926e-04" rms="4.5011237263679504e-01" purity="4.8822760581970215e-01" nType="-99"/>
        </Node>
      </Node>
    </BinaryTree>
    <BinaryTree type="DecisionTree" boostWeight="1.0000000000000000e+00" itree="570">
      <Node pos="s" depth="0" NCoef="0" IVar="1" Cut="9.1774374246597290e-01" cType="1" res="-1.6205587889999151e-03" rms="4.5045518875122070e-01" purity="4.9867090582847595e-01" nType="0">
        <Node pos="l" depth="1" NCoef="0" IVar="7" Cut="8.6775499582290649e-01" cType="1" res="-7.7778096310794353e-03" rms="4.5764759182929993e-01" purity="4.0119022130966187e-01" nType="0">
          <Node pos="l" depth="2" NCoef="0" IVar="-1" Cut="0.0000000000000000e+00" cType="1" res="-2.8522300999611616e-04" rms="4.5664468407630920e-01" purity="3.9918476343154907e-01" nType="-99"/>
          <Node pos="r" depth="2" NCoef="0" IVar="-1" Cut="0.0000000000000000e+00" cType="1" res="-3.2272113021463156e-03" rms="4.6548914909362793e-01" purity="4.2044770717620850e-01" nType="-99"/>
        </Node>
        <Node pos="r" depth="1" NCoef="0" IVar="7" Cut="8.3341544866561890e-01" cType="1" res="8.0614276230335236e-03" rms="4.3873247504234314e-01" purity="6.5195459127426147e-01" nType="0">
          <Node pos="l" depth="2" NCoef="0" IVar="-1" Cut="0.0000000000000000e+00" cType="1" res="1.1912327317986637e-04" rms="4.4417521357536316e-01" purity="6.3398253917694092e-01" nType="-99"/>
          <Node pos="r" depth="2" NCoef="0" IVar="-1" Cut="0.0000000000000000e+00" cType="1" res="2.6723323389887810e-03" rms="4.1004326939582825e-01" purity="7.3877340555191040e-01" nType="-99"/>
        </Node>
      </Node>
    </BinaryTree>
    <BinaryTree type="DecisionTree" boostWeight="1.0000000000000000e+00" itree="571">
      <Node pos="s" depth="0" NCoef="0" IVar="6" Cut="1.8255823850631714e+00" cType="1" res="1.0824362980201840e-03" rms="4.5471411943435669e-01" purity="4.9772289395332336e-01" nType="0">
        <Node pos="l" depth="1" NCoef="0" IVar="2" Cut="2.7573931884765625e+02" cType="1" res="-3.6037706304341555e-03" rms="4.5671799778938293e-01" purity="5.0202679634094238e-01" nType="0">
          <Node pos="l" depth="2" NCoef="0" IVar="-1" Cut="0.0000000000000000e+00" cType="1" res="1.1684187920764089e-03" rms="4.4833046197891235e-01" purity="3.8030722737312317e-01" nType="-99"/>
          <Node pos="r" depth="2" NCoef="0" IVar="-1" Cut="0.0000000000000000e+00" cType="1" res="-9.2019315343350172e-04" rms="4.6095001697540283e-01" purity="5.6878101825714111e-01" nType="-99"/>
        </Node>
        <Node pos="r" depth="1" NCoef="0" IVar="3" Cut="4.1428543627262115e-02" cType="1" res="4.1802201420068741e-02" rms="4.3479397892951965e-01" purity="4.6032541990280151e-01" nType="0">
          <Node pos="l" depth="2" NCoef="0" IVar="-1" Cut="0.0000000000000000e+00" cType="1" res="1.5047611668705940e-03" rms="4.2359074950218201e-01" purity="3.9780130982398987e-01" nType="-99"/>
          <Node pos="r" depth="2" NCoef="0" IVar="-1" Cut="0.0000000000000000e+00" cType="1" res="4.4409655965864658e-03" rms="4.4450336694717407e-01" purity="5.2300769090652466e-01" nType="-99"/>
        </Node>
      </Node>
    </BinaryTree>
    <BinaryTree type="DecisionTree" boostWeight="1.0000000000000000e+00" itree="572">
      <Node pos="s" depth="0" NCoef="0" IVar="3" Cut="1.9682678580284119e-01" cType="1" res="5.4265507496893406e-03" rms="4.5055383443832397e-01" purity="5.0300794839859009e-01" nType="0">
        <Node pos="l" depth="1" NCoef="0" IVar="7" Cut="4.8717254400253296e-01" cType="1" res="2.8643254190683365e-03" rms="4.4946974515914917e-01" purity="4.9309974908828735e-01" nType="0">
          <Node pos="l" depth="2" NCoef="0" IVar="-1" Cut="0.0000000000000000e+00" cType="1" res="-1.8489551730453968e-03" rms="4.3278485536575317e-01" purity="3.3725059032440186e-01" nType="-99"/>
          <Node pos="r" depth="2" NCoef="0" IVar="-1" Cut="0.0000000000000000e+00" cType="1" res="4.8097563558258116e-04" rms="4.5193412899971008e-01" purity="5.1779353618621826e-01" nType="-99"/>
        </Node>
        <Node pos="r" depth="1" NCoef="0" IVar="6" Cut="1.1722234487533569e+00" cType="1" res="2.4256156757473946e-02" rms="4.5800244808197021e-01" purity="5.7582235336303711e-01" nType="0">
          <Node pos="l" depth="2" NCoef="0" IVar="-1" Cut="0.0000000000000000e+00" cType="1" res="5.0043110968545079e-04" rms="4.5999494194984436e-01" purity="6.0050755739212036e-01" nType="-99"/>
          <Node pos="r" depth="2" NCoef="0" IVar="-1" Cut="0.0000000000000000e+00" cType="1" res="2.7203178033232689e-03" rms="4.5547845959663391e-01" purity="5.5189502239227295e-01" nType="-99"/>
        </Node>
      </Node>
    </BinaryTree>
    <BinaryTree type="DecisionTree" boostWeight="1.0000000000000000e+00" itree="573">
      <Node pos="s" depth="0" NCoef="0" IVar="4" Cut="1.2798009812831879e-01" cType="1" res="-1.7599993152543902e-03" rms="4.4782552123069763e-01" purity="5.0107842683792114e-01" nType="0">
        <Node pos="l" depth="1" NCoef="0" IVar="-1" Cut="0.0000000000000000e+00" cType="1" res="-3.1448183581233025e-03" rms="4.4041913747787476e-01" purity="3.8724669814109802e-01" nType="-99"/>
        <Node pos="r" depth="1" NCoef="0" IVar="0" Cut="1.6939034461975098e+00" cType="1" res="8.9975417358800769e-04" rms="4.4820258021354675e-01" purity="5.0884163379669189e-01" nType="0">
          <Node pos="l" depth="2" NCoef="0" IVar="-1" Cut="0.0000000000000000e+00" cType="1" res="-6.5447256201878190e-04" rms="4.5320197939872742e-01" purity="3.8121101260185242e-01" nType="-99"/>
          <Node pos="r" depth="2" NCoef="0" IVar="-1" Cut="0.0000000000000000e+00" cType="1" res="6.9436716148629785e-04" rms="4.4278547167778015e-01" purity="6.4041996002197266e-01" nType="-99"/>
        </Node>
      </Node>
    </BinaryTree>
    <BinaryTree type="DecisionTree" boostWeight="1.0000000000000000e+00" itree="574">
      <Node pos="s" depth="0" NCoef="0" IVar="4" Cut="6.9219237565994263e-01" cType="1" res="-6.9568923208862543e-04" rms="4.4861626625061035e-01" purity="5.0023669004440308e-01" nType="0">
        <Node pos="l" depth="1" NCoef="0" IVar="2" Cut="5.1398858642578125e+02" cType="1" res="-2.7507427148520947e-03" rms="4.4915133714675903e-01" purity="4.9494954943656921e-01" nType="0">
          <Node pos="l" depth="2" NCoef="0" IVar="-1" Cut="0.0000000000000000e+00" cType="1" res="-3.9097419357858598e-04" rms="4.5017883181571960e-01" purity="4.7113403677940369e-01" nType="-99"/>
          <Node pos="r" depth="2" NCoef="0" IVar="-1" Cut="0.0000000000000000e+00" cType="1" res="1.3287012698128819e-03" rms="4.3958979845046997e-01" purity="6.9953119754791260e-01" nType="-99"/>
        </Node>
        <Node pos="r" depth="1" NCoef="0" IVar="-1" Cut="0.0000000000000000e+00" cType="1" res="1.7969999462366104e-03" rms="4.4072768092155457e-01" purity="5.6899225711822510e-01" nType="-99"/>
      </Node>
    </BinaryTree>
    <BinaryTree type="DecisionTree" boostWeight="1.0000000000000000e+00" itree="575">
      <Node pos="s" depth="0" NCoef="0" IVar="2" Cut="5.8098834228515625e+02" cType="1" res="-6.3539989059790969e-04" rms="4.4823676347732544e-01" purity="5.0125378370285034e-01" nType="0">
        <Node pos="l" depth="1" NCoef="0" IVar="4" Cut="1.3207380473613739e-01" cType="1" res="-2.6938773225992918e-03" rms="4.4987431168556213e-01" purity="4.8517763614654541e-01" nType="0">
          <Node pos="l" depth="2" NCoef="0" IVar="-1" Cut="0.0000000000000000e+00" cType="1" res="-2.7724097017198801e-03" rms="4.3354287743568420e-01" purity="3.5979264974594116e-01" nType="-99"/>
          <Node pos="r" depth="2" NCoef="0" IVar="-1" Cut="0.0000000000000000e+00" cType="1" res="-4.5752680307487026e-05" rms="4.5081821084022522e-01" purity="4.9318099021911621e-01" nType="-99"/>
        </Node>
        <Node pos="r" depth="1" NCoef="0" IVar="-1" Cut="0.0000000000000000e+00" cType="1" res="1.9920712802559137e-03" rms="4.2276132106781006e-01" purity="7.3346936702728271e-01" nType="-99"/>
      </Node>
    </BinaryTree>
    <BinaryTree type="DecisionTree" boostWeight="1.0000000000000000e+00" itree="576">
      <Node pos="s" depth="0" NCoef="0" IVar="1" Cut="9.7566699981689453e-01" cType="1" res="2.2104696836322546e-03" rms="4.5120406150817871e-01" purity="5.0265264511108398e-01" nType="0">
        <Node pos="l" depth="1" NCoef="0" IVar="3" Cut="1.7082993686199188e-01" cType="1" res="-2.8868005028925836e-04" rms="4.5781490206718445e-01" purity="4.7323349118232727e-01" nType="0">
          <Node pos="l" depth="2" NCoef="0" IVar="-1" Cut="0.0000000000000000e+00" cType="1" res="-2.7649689582176507e-04" rms="4.5538079738616943e-01" purity="4.5931705832481384e-01" nType="-99"/>
          <Node pos="r" depth="2" NCoef="0" IVar="-1" Cut="0.0000000000000000e+00" cType="1" res="1.1524810688570142e-03" rms="4.6968716382980347e-01" purity="5.4460626840591431e-01" nType="-99"/>
        </Node>
        <Node pos="r" depth="1" NCoef="0" IVar="-1" Cut="0.0000000000000000e+00" cType="1" res="2.3892722092568874e-03" rms="3.6940905451774597e-01" purity="8.2719314098358154e-01" nType="-99"/>
      </Node>
    </BinaryTree>
    <BinaryTree type="DecisionTree" boostWeight="1.0000000000000000e+00" itree="577">
      <Node pos="s" depth="0" NCoef="0" IVar="7" Cut="4.0007245540618896e-01" cType="1" res="4.4279252178966999e-03" rms="4.4872382283210754e-01" purity="5.0522637367248535e-01" nType="0">
        <Node pos="l" depth="1" NCoef="0" IVar="-1" Cut="0.0000000000000000e+00" cType="1" res="-1.9750166684389114e-03" rms="4.5241495966911316e-01" purity="4.2048498988151550e-01" nType="-99"/>
        <Node pos="r" depth="1" NCoef="0" IVar="0" Cut="1.5863914489746094e+00" cType="1" res="7.4869198724627495e-03" rms="4.4823572039604187e-01" purity="5.1377987861633301e-01" nType="0">
          <Node pos="l" depth="2" NCoef="0" IVar="-1" Cut="0.0000000000000000e+00" cType="1" res="-6.4514664700254798e-05" rms="4.5178744196891785e-01" purity="3.8498911261558533e-01" nType="-99"/>
          <Node pos="r" depth="2" NCoef="0" IVar="-1" Cut="0.0000000000000000e+00" cType="1" res="1.0176670039072633e-03" rms="4.4465118646621704e-01" purity="6.3748717308044434e-01" nType="-99"/>
        </Node>
      </Node>
    </BinaryTree>
    <BinaryTree type="DecisionTree" boostWeight="1.0000000000000000e+00" itree="578">
      <Node pos="s" depth="0" NCoef="0" IVar="3" Cut="2.0550300180912018e-01" cType="1" res="1.9560533110052347e-03" rms="4.5268115401268005e-01" purity="5.0280684232711792e-01" nType="0">
        <Node pos="l" depth="1" NCoef="0" IVar="3" Cut="1.6423112154006958e-01" cType="1" res="-2.6337571907788515e-03" rms="4.5174661278724670e-01" purity="4.9156054854393005e-01" nType="0">
          <Node pos="l" depth="2" NCoef="0" IVar="-1" Cut="0.0000000000000000e+00" cType="1" res="5.5366053857142106e-05" rms="4.5191973447799683e-01" purity="4.9076905846595764e-01" nType="-99"/>
          <Node pos="r" depth="2" NCoef="0" IVar="-1" Cut="0.0000000000000000e+00" cType="1" res="-3.3506006002426147e-03" rms="4.4725552201271057e-01" purity="5.0170004367828369e-01" nType="-99"/>
        </Node>
        <Node pos="r" depth="1" NCoef="0" IVar="-1" Cut="0.0000000000000000e+00" cType="1" res="2.6547948364168406e-03" rms="4.5863816142082214e-01" purity="5.9709239006042480e-01" nType="-99"/>
      </Node>
    </BinaryTree>
    <BinaryTree type="DecisionTree" boostWeight="1.0000000000000000e+00" itree="579">
      <Node pos="s" depth="0" NCoef="0" IVar="0" Cut="2.0356881618499756e+00" cType="1" res="-8.9460815070196986e-04" rms="4.5198640227317810e-01" purity="4.9820336699485779e-01" nType="0">
        <Node pos="l" depth="1" NCoef="0" IVar="3" Cut="1.9186612963676453e-01" cType="1" res="6.3279764726758003e-03" rms="4.5668977499008179e-01" purity="4.0893006324768066e-01" nType="0">
          <Node pos="l" depth="2" NCoef="0" IVar="-1" Cut="0.0000000000000000e+00" cType="1" res="1.6612571198493242e-04" rms="4.5417198538780212e-01" purity="3.9711397886276245e-01" nType="-99"/>
          <Node pos="r" depth="2" NCoef="0" IVar="-1" Cut="0.0000000000000000e+00" cType="1" res="2.3633157834410667e-03" rms="4.7282397747039795e-01" purity="4.9118897318840027e-01" nType="-99"/>
        </Node>
        <Node pos="r" depth="1" NCoef="0" IVar="2" Cut="3.4827755737304688e+02" cType="1" res="-1.1790743097662926e-02" rms="4.4457468390464783e-01" purity="6.3288277387619019e-01" nType="0">
          <Node pos="l" depth="2" NCoef="0" IVar="-1" Cut="0.0000000000000000e+00" cType="1" res="-1.8786782165989280e-03" rms="4.5948582887649536e-01" purity="5.6212896108627319e-01" nType="-99"/>
          <Node pos="r" depth="2" NCoef="0" IVar="-1" Cut="0.0000000000000000e+00" cType="1" res="8.2697789184749126e-04" rms="4.2086830735206604e-01" purity="7.3552560806274414e-01" nType="-99"/>
        </Node>
      </Node>
    </BinaryTree>
    <BinaryTree type="DecisionTree" boostWeight="1.0000000000000000e+00" itree="580">
      <Node pos="s" depth="0" NCoef="0" IVar="1" Cut="9.6008247137069702e-01" cType="1" res="-6.5029240213334560e-03" rms="4.4762900471687317e-01" purity="4.9427619576454163e-01" nType="0">
        <Node pos="l" depth="1" NCoef="0" IVar="0" Cut="3.3560941219329834e+00" cType="1" res="-9.9837556481361389e-03" rms="4.5520183444023132e-01" purity="4.4370245933532715e-01" nType="0">
          <Node pos="l" depth="2" NCoef="0" IVar="-1" Cut="0.0000000000000000e+00" cType="1" res="-9.8205707035958767e-04" rms="4.5651048421859741e-01" purity="4.0896844863891602e-01" nType="-99"/>
          <Node pos="r" depth="2" NCoef="0" IVar="-1" Cut="0.0000000000000000e+00" cType="1" res="7.3357648216187954e-04" rms="4.4611495733261108e-01" purity="6.6640692949295044e-01" nType="-99"/>
        </Node>
        <Node pos="r" depth="1" NCoef="0" IVar="0" Cut="2.8899438381195068e+00" cType="1" res="1.2883278541266918e-02" rms="4.0230634808540344e-01" purity="7.7594226598739624e-01" nType="0">
          <Node pos="l" depth="2" NCoef="0" IVar="-1" Cut="0.0000000000000000e+00" cType="1" res="2.7903432492166758e-03" rms="4.1331064701080322e-01" purity="7.5121700763702393e-01" nType="-99"/>
          <Node pos="r" depth="2" NCoef="0" IVar="-1" Cut="0.0000000000000000e+00" cType="1" res="-9.1023260029032826e-04" rms="3.9080291986465454e-01" purity="7.9772025346755981e-01" nType="-99"/>
        </Node>
      </Node>
    </BinaryTree>
    <BinaryTree type="DecisionTree" boostWeight="1.0000000000000000e+00" itree="581">
      <Node pos="s" depth="0" NCoef="0" IVar="7" Cut="8.2765805721282959e-01" cType="1" res="-1.1819481151178479e-03" rms="4.5118045806884766e-01" purity="4.9852588772773743e-01" nType="0">
        <Node pos="l" depth="1" NCoef="0" IVar="7" Cut="7.9630255699157715e-01" cType="1" res="-5.3954692557454109e-03" rms="4.5307043194770813e-01" purity="4.8068168759346008e-01" nType="0">
          <Node pos="l" depth="2" NCoef="0" IVar="-1" Cut="0.0000000000000000e+00" cType="1" res="-1.7240081797353923e-04" rms="4.5335656404495239e-01" purity="4.7993579506874084e-01" nType="-99"/>
          <Node pos="r" depth="2" NCoef="0" IVar="-1" Cut="0.0000000000000000e+00" cType="1" res="-3.6687590181827545e-03" rms="4.4644209742546082e-01" purity="4.9168190360069275e-01" nType="-99"/>
        </Node>
        <Node pos="r" depth="1" NCoef="0" IVar="7" Cut="8.6805075407028198e-01" cType="1" res="1.9614256918430328e-02" rms="4.4114470481872559e-01" purity="5.8659768104553223e-01" nType="0">
          <Node pos="l" depth="2" NCoef="0" IVar="-1" Cut="0.0000000000000000e+00" cType="1" res="2.6440203655511141e-03" rms="4.4627228379249573e-01" purity="5.9279865026473999e-01" nType="-99"/>
          <Node pos="r" depth="2" NCoef="0" IVar="-1" Cut="0.0000000000000000e+00" cType="1" res="5.0513440510258079e-04" rms="4.3744686245918274e-01" purity="5.8270967006683350e-01" nType="-99"/>
        </Node>
      </Node>
    </BinaryTree>
    <BinaryTree type="DecisionTree" boostWeight="1.0000000000000000e+00" itree="582">
      <Node pos="s" depth="0" NCoef="0" IVar="5" Cut="3.5918687935918570e-03" cType="1" res="1.5338092343881726e-03" rms="4.5037052035331726e-01" purity="5.0026655197143555e-01" nType="0">
        <Node pos="l" depth="1" NCoef="0" IVar="0" Cut="1.4290763139724731e+00" cType="1" res="3.8084767293184996e-03" rms="4.5056957006454468e-01" purity="5.0966471433639526e-01" nType="0">
          <Node pos="l" depth="2" NCoef="0" IVar="-1" Cut="0.0000000000000000e+00" cType="1" res="1.1130330385640264e-03" rms="4.5493018627166748e-01" purity="3.8920971751213074e-01" nType="-99"/>
          <Node pos="r" depth="2" NCoef="0" IVar="-1" Cut="0.0000000000000000e+00" cType="1" res="-2.7596874861046672e-04" rms="4.4704321026802063e-01" purity="6.0183435678482056e-01" nType="-99"/>
        </Node>
        <Node pos="r" depth="1" NCoef="0" IVar="-1" Cut="0.0000000000000000e+00" cType="1" res="-2.4406849406659603e-03" rms="4.4598233699798584e-01" purity="3.5924911499023438e-01" nType="-99"/>
      </Node>
    </BinaryTree>
    <BinaryTree type="DecisionTree" boostWeight="1.0000000000000000e+00" itree="583">
      <Node pos="s" depth="0" NCoef="0" IVar="5" Cut="7.7426596544682980e-04" cType="1" res="-4.7195954248309135e-03" rms="4.4979271292686462e-01" purity="4.9703967571258545e-01" nType="0">
        <Node pos="l" depth="1" NCoef="0" IVar="1" Cut="9.2170721292495728e-01" cType="1" res="-1.4723200350999832e-02" rms="4.3464308977127075e-01" purity="6.0795605182647705e-01" nType="0">
          <Node pos="l" depth="2" NCoef="0" IVar="-1" Cut="0.0000000000000000e+00" cType="1" res="-4.0596416220068932e-03" rms="4.3878391385078430e-01" purity="3.1093826889991760e-01" nType="-99"/>
          <Node pos="r" depth="2" NCoef="0" IVar="-1" Cut="0.0000000000000000e+00" cType="1" res="-6.0652638785541058e-04" rms="4.3355244398117065e-01" purity="6.6546320915222168e-01" nType="-99"/>
        </Node>
        <Node pos="r" depth="1" NCoef="0" IVar="5" Cut="9.9276832770556211e-04" cType="1" res="1.2647605035454035e-03" rms="4.5851203799247742e-01" purity="4.3068727850914001e-01" nType="0">
          <Node pos="l" depth="2" NCoef="0" IVar="-1" Cut="0.0000000000000000e+00" cType="1" res="2.8776670806109905e-03" rms="4.6083992719650269e-01" purity="5.3475081920623779e-01" nType="-99"/>
          <Node pos="r" depth="2" NCoef="0" IVar="-1" Cut="0.0000000000000000e+00" cType="1" res="-2.5498034665361047e-04" rms="4.5799884200096130e-01" purity="4.1852506995201111e-01" nType="-99"/>
        </Node>
      </Node>
    </BinaryTree>
    <BinaryTree type="DecisionTree" boostWeight="1.0000000000000000e+00" itree="584">
      <Node pos="s" depth="0" NCoef="0" IVar="3" Cut="1.8525713682174683e-01" cType="1" res="4.5679854229092598e-03" rms="4.4890919327735901e-01" purity="5.0586313009262085e-01" nType="0">
        <Node pos="l" depth="1" NCoef="0" IVar="7" Cut="6.6003531217575073e-01" cType="1" res="1.4569766353815794e-03" rms="4.4756552577018738e-01" purity="4.9500921368598938e-01" nType="0">
          <Node pos="l" depth="2" NCoef="0" IVar="-1" Cut="0.0000000000000000e+00" cType="1" res="-6.4654601737856865e-04" rms="4.4597205519676208e-01" purity="4.1891479492187500e-01" nType="-99"/>
          <Node pos="r" depth="2" NCoef="0" IVar="-1" Cut="0.0000000000000000e+00" cType="1" res="6.4681988442316651e-04" rms="4.4867083430290222e-01" purity="5.5537551641464233e-01" nType="-99"/>
        </Node>
        <Node pos="r" depth="1" NCoef="0" IVar="7" Cut="4.2651268839836121e-01" cType="1" res="2.3978715762495995e-02" rms="4.5672523975372314e-01" purity="5.7358455657958984e-01" nType="0">
          <Node pos="l" depth="2" NCoef="0" IVar="-1" Cut="0.0000000000000000e+00" cType="1" res="2.9396633617579937e-03" rms="4.5518016815185547e-01" purity="5.8384460210800171e-01" nType="-99"/>
          <Node pos="r" depth="2" NCoef="0" IVar="-1" Cut="0.0000000000000000e+00" cType="1" res="1.0229388135485351e-04" rms="4.5731428265571594e-01" purity="5.6257146596908569e-01" nType="-99"/>
        </Node>
      </Node>
    </BinaryTree>
    <BinaryTree type="DecisionTree" boostWeight="1.0000000000000000e+00" itree="585">
      <Node pos="s" depth="0" NCoef="0" IVar="0" Cut="3.2615754008293152e-01" cType="1" res="-1.3845541980117559e-03" rms="4.5103856921195984e-01" purity="4.9483382701873779e-01" nType="0">
        <Node pos="l" depth="1" NCoef="0" IVar="6" Cut="1.2396900653839111e+00" cType="1" res="-2.2659463807940483e-02" rms="4.2757755517959595e-01" purity="2.8619182109832764e-01" nType="0">
          <Node pos="l" depth="2" NCoef="0" IVar="-1" Cut="0.0000000000000000e+00" cType="1" res="-2.5514021399430931e-04" rms="4.5965299010276794e-01" purity="3.4086543321609497e-01" nType="-99"/>
          <Node pos="r" depth="2" NCoef="0" IVar="-1" Cut="0.0000000000000000e+00" cType="1" res="-5.1227328367531300e-03" rms="3.8116940855979919e-01" purity="2.1624091267585754e-01" nType="-99"/>
        </Node>
        <Node pos="r" depth="1" NCoef="0" IVar="5" Cut="2.6664459146559238e-03" cType="1" res="2.8062972705811262e-03" rms="4.5540043711662292e-01" purity="5.3593331575393677e-01" nType="0">
          <Node pos="l" depth="2" NCoef="0" IVar="-1" Cut="0.0000000000000000e+00" cType="1" res="-1.0128860594704747e-04" rms="4.5249736309051514e-01" purity="5.5147665739059448e-01" nType="-99"/>
          <Node pos="r" depth="2" NCoef="0" IVar="-1" Cut="0.0000000000000000e+00" cType="1" res="1.6158848302438855e-03" rms="4.6939694881439209e-01" purity="4.5624566078186035e-01" nType="-99"/>
        </Node>
      </Node>
    </BinaryTree>
    <BinaryTree type="DecisionTree" boostWeight="1.0000000000000000e+00" itree="586">
      <Node pos="s" depth="0" NCoef="0" IVar="2" Cut="3.9287210083007812e+02" cType="1" res="-1.6755593242123723e-03" rms="4.4947126507759094e-01" purity="5.0006300210952759e-01" nType="0">
        <Node pos="l" depth="1" NCoef="0" IVar="7" Cut="8.4828704595565796e-01" cType="1" res="-6.3726669177412987e-03" rms="4.5076981186866760e-01" purity="4.4531509280204773e-01" nType="0">
          <Node pos="l" depth="2" NCoef="0" IVar="-1" Cut="0.0000000000000000e+00" cType="1" res="-2.6467707357369363e-04" rms="4.5067864656448364e-01" purity="4.4146782159805298e-01" nType="-99"/>
          <Node pos="r" depth="2" NCoef="0" IVar="-1" Cut="0.0000000000000000e+00" cType="1" res="-2.0753962453454733e-03" rms="4.5085871219635010e-01" purity="4.7636589407920837e-01" nType="-99"/>
        </Node>
        <Node pos="r" depth="1" NCoef="0" IVar="6" Cut="1.2146860361099243e+00" cType="1" res="1.2183154001832008e-02" rms="4.4532921910285950e-01" purity="6.6159546375274658e-01" nType="0">
          <Node pos="l" depth="2" NCoef="0" IVar="-1" Cut="0.0000000000000000e+00" cType="1" res="-4.0305353468284011e-04" rms="4.4745030999183655e-01" purity="6.5339618921279907e-01" nType="-99"/>
          <Node pos="r" depth="2" NCoef="0" IVar="-1" Cut="0.0000000000000000e+00" cType="1" res="3.6174911074340343e-03" rms="4.3705540895462036e-01" purity="6.8147617578506470e-01" nType="-99"/>
        </Node>
      </Node>
    </BinaryTree>
    <BinaryTree type="DecisionTree" boostWeight="1.0000000000000000e+00" itree="587">
      <Node pos="s" depth="0" NCoef="0" IVar="0" Cut="3.7512269616127014e-01" cType="1" res="-2.0597449038177729e-03" rms="4.5072859525680542e-01" purity="4.9642071127891541e-01" nType="0">
        <Node pos="l" depth="1" NCoef="0" IVar="5" Cut="2.3092231713235378e-03" cType="1" res="-2.4904670193791389e-02" rms="4.3033429980278015e-01" purity="2.9032146930694580e-01" nType="0">
          <Node pos="l" depth="2" NCoef="0" IVar="-1" Cut="0.0000000000000000e+00" cType="1" res="-4.4705462642014027e-03" rms="4.1915300488471985e-01" purity="2.7039867639541626e-01" nType="-99"/>
          <Node pos="r" depth="2" NCoef="0" IVar="-1" Cut="0.0000000000000000e+00" cType="1" res="-3.3686787355691195e-04" rms="4.3982473015785217e-01" purity="3.0954676866531372e-01" nType="-99"/>
        </Node>
        <Node pos="r" depth="1" NCoef="0" IVar="5" Cut="2.4378164671361446e-03" cType="1" res="2.6457691565155983e-03" rms="4.5467323064804077e-01" purity="5.3887230157852173e-01" nType="0">
          <Node pos="l" depth="2" NCoef="0" IVar="-1" Cut="0.0000000000000000e+00" cType="1" res="4.8768802662380040e-04" rms="4.5223754644393921e-01" purity="5.6692707538604736e-01" nType="-99"/>
          <Node pos="r" depth="2" NCoef="0" IVar="-1" Cut="0.0000000000000000e+00" cType="1" res="-1.0393133852630854e-03" rms="4.6412053704261780e-01" purity="4.2355456948280334e-01" nType="-99"/>
        </Node>
      </Node>
    </BinaryTree>
    <BinaryTree type="DecisionTree" boostWeight="1.0000000000000000e+00" itree="588">
      <Node pos="s" depth="0" NCoef="0" IVar="2" Cut="4.9650576782226562e+02" cType="1" res="-1.6179505037143826e-03" rms="4.5036000013351440e-01" purity="4.9957832694053650e-01" nType="0">
        <Node pos="l" depth="1" NCoef="0" IVar="1" Cut="9.6795517206192017e-01" cType="1" res="-4.4322065077722073e-03" rms="4.5241728425025940e-01" purity="4.7261995077133179e-01" nType="0">
          <Node pos="l" depth="2" NCoef="0" IVar="-1" Cut="0.0000000000000000e+00" cType="1" res="-5.5230082944035530e-04" rms="4.5958650112152100e-01" purity="4.2969802021980286e-01" nType="-99"/>
          <Node pos="r" depth="2" NCoef="0" IVar="-1" Cut="0.0000000000000000e+00" cType="1" res="1.4270688407123089e-03" rms="3.9500728249549866e-01" purity="7.8794795274734497e-01" nType="-99"/>
        </Node>
        <Node pos="r" depth="1" NCoef="0" IVar="-1" Cut="0.0000000000000000e+00" cType="1" res="1.3812187826260924e-03" rms="4.3366995453834534e-01" purity="7.0611292123794556e-01" nType="-99"/>
      </Node>
    </BinaryTree>
    <BinaryTree type="DecisionTree" boostWeight="1.0000000000000000e+00" itree="589">
      <Node pos="s" depth="0" NCoef="0" IVar="2" Cut="2.2471582031250000e+02" cType="1" res="2.1723946556448936e-03" rms="4.5174232125282288e-01" purity="4.9971315264701843e-01" nType="0">
        <Node pos="l" depth="1" NCoef="0" IVar="3" Cut="-1.3549959287047386e-02" cType="1" res="2.0774979144334793e-02" rms="4.3234753608703613e-01" purity="3.1529605388641357e-01" nType="0">
          <Node pos="l" depth="2" NCoef="0" IVar="-1" Cut="0.0000000000000000e+00" cType="1" res="4.4070146977901459e-03" rms="4.2508447170257568e-01" purity="3.0041858553886414e-01" nType="-99"/>
          <Node pos="r" depth="2" NCoef="0" IVar="-1" Cut="0.0000000000000000e+00" cType="1" res="3.9860015385784209e-04" rms="4.3676468729972839e-01" purity="3.2596907019615173e-01" nType="-99"/>
        </Node>
        <Node pos="r" depth="1" NCoef="0" IVar="7" Cut="4.5844185352325439e-01" cType="1" res="-1.2519857846200466e-03" rms="4.5513960719108582e-01" purity="5.3366082906723022e-01" nType="0">
          <Node pos="l" depth="2" NCoef="0" IVar="-1" Cut="0.0000000000000000e+00" cType="1" res="-1.3102249940857291e-03" rms="4.5346790552139282e-01" purity="4.5824575424194336e-01" nType="-99"/>
          <Node pos="r" depth="2" NCoef="0" IVar="-1" Cut="0.0000000000000000e+00" cType="1" res="1.4346132229547948e-04" rms="4.5539459586143494e-01" purity="5.4853928089141846e-01" nType="-99"/>
        </Node>
      </Node>
    </BinaryTree>
    <BinaryTree type="DecisionTree" boostWeight="1.0000000000000000e+00" itree="590">
      <Node pos="s" depth="0" NCoef="0" IVar="1" Cut="9.6796536445617676e-01" cType="1" res="1.1327208485454321e-03" rms="4.4920516014099121e-01" purity="5.0406861305236816e-01" nType="0">
        <Node pos="l" depth="1" NCoef="0" IVar="5" Cut="2.5832303799688816e-04" cType="1" res="-1.5062353340908885e-03" rms="4.5767590403556824e-01" purity="4.6325874328613281e-01" nType="0">
          <Node pos="l" depth="2" NCoef="0" IVar="-1" Cut="0.0000000000000000e+00" cType="1" res="-1.8172258278355002e-03" rms="4.4519039988517761e-01" purity="5.5441004037857056e-01" nType="-99"/>
          <Node pos="r" depth="2" NCoef="0" IVar="-1" Cut="0.0000000000000000e+00" cType="1" res="6.7126391513738781e-05" rms="4.5890718698501587e-01" purity="4.5362490415573120e-01" nType="-99"/>
        </Node>
        <Node pos="r" depth="1" NCoef="0" IVar="-1" Cut="0.0000000000000000e+00" cType="1" res="1.6063343500718474e-03" rms="3.8106712698936462e-01" purity="8.0236256122589111e-01" nType="-99"/>
      </Node>
    </BinaryTree>
    <BinaryTree type="DecisionTree" boostWeight="1.0000000000000000e+00" itree="591">
      <Node pos="s" depth="0" NCoef="0" IVar="0" Cut="1.8360514640808105e+00" cType="1" res="-1.8769176676869392e-03" rms="4.5102456212043762e-01" purity="4.9756038188934326e-01" nType="0">
        <Node pos="l" depth="1" NCoef="0" IVar="1" Cut="9.3990820646286011e-01" cType="1" res="6.1138728633522987e-03" rms="4.5610833168029785e-01" purity="3.9740201830863953e-01" nType="0">
          <Node pos="l" depth="2" NCoef="0" IVar="-1" Cut="0.0000000000000000e+00" cType="1" res="9.7795440524350852e-05" rms="4.5607730746269226e-01" purity="3.7083420157432556e-01" nType="-99"/>
          <Node pos="r" depth="2" NCoef="0" IVar="-1" Cut="0.0000000000000000e+00" cType="1" res="3.3267957624047995e-03" rms="4.5409950613975525e-01" purity="6.3348424434661865e-01" nType="-99"/>
        </Node>
        <Node pos="r" depth="1" NCoef="0" IVar="0" Cut="2.4261653423309326e+00" cType="1" res="-1.1849251575767994e-02" rms="4.4439712166786194e-01" purity="6.2255585193634033e-01" nType="0">
          <Node pos="l" depth="2" NCoef="0" IVar="-1" Cut="0.0000000000000000e+00" cType="1" res="-2.0874852780252695e-03" rms="4.6004658937454224e-01" purity="5.1302546262741089e-01" nType="-99"/>
          <Node pos="r" depth="2" NCoef="0" IVar="-1" Cut="0.0000000000000000e+00" cType="1" res="-2.9452948365360498e-04" rms="4.3792819976806641e-01" purity="6.6517335176467896e-01" nType="-99"/>
        </Node>
      </Node>
    </BinaryTree>
    <BinaryTree type="DecisionTree" boostWeight="1.0000000000000000e+00" itree="592">
      <Node pos="s" depth="0" NCoef="0" IVar="2" Cut="4.1444338989257812e+02" cType="1" res="4.5504197478294373e-03" rms="4.4924151897430420e-01" purity="5.0376373529434204e-01" nType="0">
        <Node pos="l" depth="1" NCoef="0" IVar="3" Cut="-1.2045244127511978e-01" cType="1" res="9.6030847635120153e-04" rms="4.4998306035995483e-01" purity="4.5810496807098389e-01" nType="0">
          <Node pos="l" depth="2" NCoef="0" IVar="-1" Cut="0.0000000000000000e+00" cType="1" res="-3.8228596094995737e-03" rms="4.2436480522155762e-01" purity="3.0714404582977295e-01" nType="-99"/>
          <Node pos="r" depth="2" NCoef="0" IVar="-1" Cut="0.0000000000000000e+00" cType="1" res="3.0258626793511212e-04" rms="4.5166516304016113e-01" purity="4.6933272480964661e-01" nType="-99"/>
        </Node>
        <Node pos="r" depth="1" NCoef="0" IVar="6" Cut="1.0369032621383667e+00" cType="1" res="1.7960695549845695e-02" rms="4.4620534777641296e-01" purity="6.7431467771530151e-01" nType="0">
          <Node pos="l" depth="2" NCoef="0" IVar="-1" Cut="0.0000000000000000e+00" cType="1" res="-4.5957512338645756e-04" rms="4.4689118862152100e-01" purity="6.6365820169448853e-01" nType="-99"/>
          <Node pos="r" depth="2" NCoef="0" IVar="-1" Cut="0.0000000000000000e+00" cType="1" res="3.5604501608759165e-03" rms="4.4262659549713135e-01" purity="6.9021368026733398e-01" nType="-99"/>
        </Node>
      </Node>
    </BinaryTree>
    <BinaryTree type="DecisionTree" boostWeight="1.0000000000000000e+00" itree="593">
      <Node pos="s" depth="0" NCoef="0" IVar="4" Cut="5.9343904256820679e-01" cType="1" res="1.2393749784678221e-03" rms="4.5025327801704407e-01" purity="4.9999192357063293e-01" nType="0">
        <Node pos="l" depth="1" NCoef="0" IVar="1" Cut="9.7167491912841797e-01" cType="1" res="-2.8891277033835649e-03" rms="4.5013114809989929e-01" purity="4.8933985829353333e-01" nType="0">
          <Node pos="l" depth="2" NCoef="0" IVar="-1" Cut="0.0000000000000000e+00" cType="1" res="-4.1919347131624818e-04" rms="4.5651188492774963e-01" purity="4.5543062686920166e-01" nType="-99"/>
          <Node pos="r" depth="2" NCoef="0" IVar="-1" Cut="0.0000000000000000e+00" cType="1" res="1.8939014989882708e-03" rms="3.8419795036315918e-01" purity="8.0691891908645630e-01" nType="-99"/>
        </Node>
        <Node pos="r" depth="1" NCoef="0" IVar="5" Cut="1.1391630396246910e-03" cType="1" res="2.0542237907648087e-02" rms="4.5032203197479248e-01" purity="5.4979580640792847e-01" nType="0">
          <Node pos="l" depth="2" NCoef="0" IVar="-1" Cut="0.0000000000000000e+00" cType="1" res="1.8099916633218527e-04" rms="4.2794165015220642e-01" purity="6.3348084688186646e-01" nType="-99"/>
          <Node pos="r" depth="2" NCoef="0" IVar="-1" Cut="0.0000000000000000e+00" cType="1" res="2.4515194818377495e-03" rms="4.6776512265205383e-01" purity="4.7945263981819153e-01" nType="-99"/>
        </Node>
      </Node>
    </BinaryTree>
    <BinaryTree type="DecisionTree" boostWeight="1.0000000000000000e+00" itree="594">
      <Node pos="s" depth="0" NCoef="0" IVar="2" Cut="4.9201309204101562e+02" cType="1" res="2.3485035635530949e-03" rms="4.5148789882659912e-01" purity="5.0105345249176025e-01" nType="0">
        <Node pos="l" depth="1" NCoef="0" IVar="3" Cut="-1.1104121804237366e-01" cType="1" res="6.8075694143772125e-03" rms="4.5167544484138489e-01" purity="4.8159942030906677e-01" nType="0">
          <Node pos="l" depth="2" NCoef="0" IVar="-1" Cut="0.0000000000000000e+00" cType="1" res="-1.6389256343245506e-03" rms="4.4052404165267944e-01" purity="3.8345250487327576e-01" nType="-99"/>
          <Node pos="r" depth="2" NCoef="0" IVar="-1" Cut="0.0000000000000000e+00" cType="1" res="7.1318965638056397e-04" rms="4.5287305116653442e-01" purity="4.9322962760925293e-01" nType="-99"/>
        </Node>
        <Node pos="r" depth="1" NCoef="0" IVar="7" Cut="6.8169701099395752e-01" cType="1" res="-3.1931698322296143e-02" rms="4.4856581091880798e-01" purity="6.5061128139495850e-01" nType="0">
          <Node pos="l" depth="2" NCoef="0" IVar="-1" Cut="0.0000000000000000e+00" cType="1" res="-2.9396505560725927e-03" rms="4.5921793580055237e-01" purity="6.0655862092971802e-01" nType="-99"/>
          <Node pos="r" depth="2" NCoef="0" IVar="-1" Cut="0.0000000000000000e+00" cType="1" res="-1.6031650593504310e-03" rms="4.3815127015113831e-01" purity="6.9184637069702148e-01" nType="-99"/>
        </Node>
      </Node>
    </BinaryTree>
    <BinaryTree type="DecisionTree" boostWeight="1.0000000000000000e+00" itree="595">
      <Node pos="s" depth="0" NCoef="0" IVar="7" Cut="3.9499178528785706e-01" cType="1" res="-4.8875031061470509e-03" rms="4.5018762350082397e-01" purity="4.9312132596969604e-01" nType="0">
        <Node pos="l" depth="1" NCoef="0" IVar="-1" Cut="0.0000000000000000e+00" cType="1" res="-2.5267272721976042e-03" rms="4.4969591498374939e-01" purity="4.1717988252639771e-01" nType="-99"/>
        <Node pos="r" depth="1" NCoef="0" IVar="6" Cut="1.8652462959289551e+00" cType="1" res="-2.0965621806681156e-03" rms="4.5014166831970215e-01" purity="5.0071942806243896e-01" nType="0">
          <Node pos="l" depth="2" NCoef="0" IVar="-1" Cut="0.0000000000000000e+00" cType="1" res="-3.4733189386315644e-04" rms="4.5208224654197693e-01" purity="5.0606155395507812e-01" nType="-99"/>
          <Node pos="r" depth="2" NCoef="0" IVar="-1" Cut="0.0000000000000000e+00" cType="1" res="2.0773881115019321e-03" rms="4.2832556366920471e-01" purity="4.4499364495277405e-01" nType="-99"/>
        </Node>
      </Node>
    </BinaryTree>
    <BinaryTree type="DecisionTree" boostWeight="1.0000000000000000e+00" itree="596">
      <Node pos="s" depth="0" NCoef="0" IVar="6" Cut="1.3803905248641968e+00" cType="1" res="-3.2971741165965796e-03" rms="4.4865706562995911e-01" purity="4.9621447920799255e-01" nType="0">
        <Node pos="l" depth="1" NCoef="0" IVar="7" Cut="7.5424498319625854e-01" cType="1" res="2.7063030283898115e-03" rms="4.5507836341857910e-01" purity="5.3219377994537354e-01" nType="0">
          <Node pos="l" depth="2" NCoef="0" IVar="-1" Cut="0.0000000000000000e+00" cType="1" res="7.7752606011927128e-04" rms="4.5885655283927917e-01" purity="5.1580196619033813e-01" nType="-99"/>
          <Node pos="r" depth="2" NCoef="0" IVar="-1" Cut="0.0000000000000000e+00" cType="1" res="-1.1280952021479607e-03" rms="4.4597023725509644e-01" purity="5.6873440742492676e-01" nType="-99"/>
        </Node>
        <Node pos="r" depth="1" NCoef="0" IVar="7" Cut="6.7077809572219849e-01" cType="1" res="-1.6007507219910622e-02" rms="4.3447569012641907e-01" purity="4.2004042863845825e-01" nType="0">
          <Node pos="l" depth="2" NCoef="0" IVar="-1" Cut="0.0000000000000000e+00" cType="1" res="-3.0327243730425835e-03" rms="4.3088883161544800e-01" purity="3.5955113172531128e-01" nType="-99"/>
          <Node pos="r" depth="2" NCoef="0" IVar="-1" Cut="0.0000000000000000e+00" cType="1" res="8.2078267587348819e-04" rms="4.3784752488136292e-01" purity="5.0266259908676147e-01" nType="-99"/>
        </Node>
      </Node>
    </BinaryTree>
    <BinaryTree type="DecisionTree" boostWeight="1.0000000000000000e+00" itree="597">
      <Node pos="s" depth="0" NCoef="0" IVar="7" Cut="3.5822257399559021e-01" cType="1" res="-1.5818236861377954e-03" rms="4.5340061187744141e-01" purity="4.9578958749771118e-01" nType="0">
        <Node pos="l" depth="1" NCoef="0" IVar="-1" Cut="0.0000000000000000e+00" cType="1" res="-3.2316562719643116e-03" rms="4.5852544903755188e-01" purity="4.2676776647567749e-01" nType="-99"/>
        <Node pos="r" depth="1" NCoef="0" IVar="5" Cut="5.1369873108342290e-04" cType="1" res="7.1604643017053604e-04" rms="4.5300573110580444e-01" purity="4.9957659840583801e-01" nType="0">
          <Node pos="l" depth="2" NCoef="0" IVar="-1" Cut="0.0000000000000000e+00" cType="1" res="-1.1255390709266067e-03" rms="4.2874124646186829e-01" purity="6.3473612070083618e-01" nType="-99"/>
          <Node pos="r" depth="2" NCoef="0" IVar="-1" Cut="0.0000000000000000e+00" cType="1" res="5.0530093722045422e-04" rms="4.6237882971763611e-01" purity="4.4447836279869080e-01" nType="-99"/>
        </Node>
      </Node>
    </BinaryTree>
    <BinaryTree type="DecisionTree" boostWeight="1.0000000000000000e+00" itree="598">
      <Node pos="s" depth="0" NCoef="0" IVar="4" Cut="2.2242707014083862e-01" cType="1" res="2.3165463062468916e-04" rms="4.5053589344024658e-01" purity="5.0050121545791626e-01" nType="0">
        <Node pos="l" depth="1" NCoef="0" IVar="2" Cut="4.0219308471679688e+02" cType="1" res="-1.6675470396876335e-02" rms="4.4568267464637756e-01" purity="4.3676051497459412e-01" nType="0">
          <Node pos="l" depth="2" NCoef="0" IVar="-1" Cut="0.0000000000000000e+00" cType="1" res="-2.4609337560832500e-03" rms="4.3635147809982300e-01" purity="3.5767224431037903e-01" nType="-99"/>
          <Node pos="r" depth="2" NCoef="0" IVar="-1" Cut="0.0000000000000000e+00" cType="1" res="5.1296601304784417e-04" rms="4.6100199222564697e-01" purity="5.7916665077209473e-01" nType="-99"/>
        </Node>
        <Node pos="r" depth="1" NCoef="0" IVar="3" Cut="-1.1970337480306625e-01" cType="1" res="4.5187221840023994e-03" rms="4.5165762305259705e-01" purity="5.1666361093521118e-01" nType="0">
          <Node pos="l" depth="2" NCoef="0" IVar="-1" Cut="0.0000000000000000e+00" cType="1" res="-2.3948997259140015e-03" rms="4.5033520460128784e-01" purity="4.3046605587005615e-01" nType="-99"/>
          <Node pos="r" depth="2" NCoef="0" IVar="-1" Cut="0.0000000000000000e+00" cType="1" res="4.9344281433150172e-04" rms="4.5164680480957031e-01" purity="5.2258533239364624e-01" nType="-99"/>
        </Node>
      </Node>
    </BinaryTree>
    <BinaryTree type="DecisionTree" boostWeight="1.0000000000000000e+00" itree="599">
      <Node pos="s" depth="0" NCoef="0" IVar="1" Cut="8.6383283138275146e-01" cType="1" res="5.3023966029286385e-03" rms="4.4999453425407410e-01" purity="5.0462943315505981e-01" nType="0">
        <Node pos="l" depth="1" NCoef="0" IVar="6" Cut="1.3843528032302856e+00" cType="1" res="-1.6086304560303688e-02" rms="4.4965639710426331e-01" purity="3.4825840592384338e-01" nType="0">
          <Node pos="l" depth="2" NCoef="0" IVar="-1" Cut="0.0000000000000000e+00" cType="1" res="-2.0888624712824821e-03" rms="4.5804446935653687e-01" purity="3.6538878083229065e-01" nType="-99"/>
          <Node pos="r" depth="2" NCoef="0" IVar="-1" Cut="0.0000000000000000e+00" cType="1" res="6.1517913127318025e-04" rms="4.3163105845451355e-01" purity="3.1435328722000122e-01" nType="-99"/>
        </Node>
        <Node pos="r" depth="1" NCoef="0" IVar="0" Cut="2.3295991122722626e-01" cType="1" res="9.3886815011501312e-03" rms="4.4994345307350159e-01" purity="5.3450399637222290e-01" nType="0">
          <Node pos="l" depth="2" NCoef="0" IVar="-1" Cut="0.0000000000000000e+00" cType="1" res="2.8346152976155281e-03" rms="4.5180955529212952e-01" purity="3.5244417190551758e-01" nType="-99"/>
          <Node pos="r" depth="2" NCoef="0" IVar="-1" Cut="0.0000000000000000e+00" cType="1" res="4.7248406917788088e-04" rms="4.4966134428977966e-01" purity="5.5475676059722900e-01" nType="-99"/>
        </Node>
      </Node>
    </BinaryTree>
    <BinaryTree type="DecisionTree" boostWeight="1.0000000000000000e+00" itree="600">
      <Node pos="s" depth="0" NCoef="0" IVar="7" Cut="8.8816642761230469e-01" cType="1" res="5.8854639064520597e-04" rms="4.5042210817337036e-01" purity="4.9738904833793640e-01" nType="0">
        <Node pos="l" depth="1" NCoef="0" IVar="4" Cut="3.4393090009689331e-01" cType="1" res="-2.0439371000975370e-03" rms="4.5154604315757751e-01" purity="4.8737704753875732e-01" nType="0">
          <Node pos="l" depth="2" NCoef="0" IVar="-1" Cut="0.0000000000000000e+00" cType="1" res="-9.0835813898593187e-04" rms="4.5054486393928528e-01" purity="4.4316348433494568e-01" nType="-99"/>
          <Node pos="r" depth="2" NCoef="0" IVar="-1" Cut="0.0000000000000000e+00" cType="1" res="4.0036760037764907e-04" rms="4.5214211940765381e-01" purity="5.2044743299484253e-01" nType="-99"/>
        </Node>
        <Node pos="r" depth="1" NCoef="0" IVar="-1" Cut="0.0000000000000000e+00" cType="1" res="2.2056750021874905e-03" rms="4.3520689010620117e-01" purity="6.1946165561676025e-01" nType="-99"/>
      </Node>
    </BinaryTree>
    <BinaryTree type="DecisionTree" boostWeight="1.0000000000000000e+00" itree="601">
      <Node pos="s" depth="0" NCoef="0" IVar="2" Cut="3.6112322998046875e+02" cType="1" res="1.6651374753564596e-03" rms="4.5148506760597229e-01" purity="5.0189596414566040e-01" nType="0">
        <Node pos="l" depth="1" NCoef="0" IVar="6" Cut="1.0884306430816650e+00" cType="1" res="6.9803823716938496e-03" rms="4.5046710968017578e-01" purity="4.4539937376976013e-01" nType="0">
          <Node pos="l" depth="2" NCoef="0" IVar="-1" Cut="0.0000000000000000e+00" cType="1" res="1.9667267333716154e-03" rms="4.5912757515907288e-01" purity="5.0609004497528076e-01" nType="-99"/>
          <Node pos="r" depth="2" NCoef="0" IVar="-1" Cut="0.0000000000000000e+00" cType="1" res="-4.3995358282700181e-04" rms="4.4478520750999451e-01" purity="4.0952646732330322e-01" nType="-99"/>
        </Node>
        <Node pos="r" depth="1" NCoef="0" IVar="6" Cut="1.1929398775100708e+00" cType="1" res="-9.3518737703561783e-03" rms="4.5338937640190125e-01" purity="6.1899763345718384e-01" nType="0">
          <Node pos="l" depth="2" NCoef="0" IVar="-1" Cut="0.0000000000000000e+00" cType="1" res="-1.9453957211226225e-03" rms="4.5734262466430664e-01" purity="6.0570859909057617e-01" nType="-99"/>
          <Node pos="r" depth="2" NCoef="0" IVar="-1" Cut="0.0000000000000000e+00" cType="1" res="2.1788233425468206e-03" rms="4.4151899218559265e-01" purity="6.4868378639221191e-01" nType="-99"/>
        </Node>
      </Node>
    </BinaryTree>
    <BinaryTree type="DecisionTree" boostWeight="1.0000000000000000e+00" itree="602">
      <Node pos="s" depth="0" NCoef="0" IVar="5" Cut="2.6944293640553951e-03" cType="1" res="4.2437463998794556e-03" rms="4.5244699716567993e-01" purity="5.0186163187026978e-01" nType="0">
        <Node pos="l" depth="1" NCoef="0" IVar="4" Cut="6.9217681884765625e-01" cType="1" res="5.9775763656944036e-04" rms="4.4996938109397888e-01" purity="5.2367889881134033e-01" nType="0">
          <Node pos="l" depth="2" NCoef="0" IVar="-1" Cut="0.0000000000000000e+00" cType="1" res="2.1250445570331067e-04" rms="4.5010110735893250e-01" purity="5.2393054962158203e-01" nType="-99"/>
          <Node pos="r" depth="2" NCoef="0" IVar="-1" Cut="0.0000000000000000e+00" cType="1" res="-2.4188898969441652e-03" rms="4.4678691029548645e-01" purity="5.2011209726333618e-01" nType="-99"/>
        </Node>
        <Node pos="r" depth="1" NCoef="0" IVar="1" Cut="8.5849845409393311e-01" cType="1" res="1.8977176398038864e-02" rms="4.6203094720840454e-01" purity="4.1369780898094177e-01" nType="0">
          <Node pos="l" depth="2" NCoef="0" IVar="-1" Cut="0.0000000000000000e+00" cType="1" res="-1.7684543272480369e-03" rms="4.5419272780418396e-01" purity="3.5151121020317078e-01" nType="-99"/>
          <Node pos="r" depth="2" NCoef="0" IVar="-1" Cut="0.0000000000000000e+00" cType="1" res="2.9552578926086426e-03" rms="4.6478781104087830e-01" purity="4.4945171475410461e-01" nType="-99"/>
        </Node>
      </Node>
    </BinaryTree>
    <BinaryTree type="DecisionTree" boostWeight="1.0000000000000000e+00" itree="603">
      <Node pos="s" depth="0" NCoef="0" IVar="7" Cut="3.5744351148605347e-01" cType="1" res="3.2037997152656317e-03" rms="4.5026364922523499e-01" purity="5.0017267465591431e-01" nType="0">
        <Node pos="l" depth="1" NCoef="0" IVar="-1" Cut="0.0000000000000000e+00" cType="1" res="3.1691142357885838e-03" rms="4.5803743600845337e-01" purity="5.0609964132308960e-01" nType="-99"/>
        <Node pos="r" depth="1" NCoef="0" IVar="3" Cut="2.1732540428638458e-01" cType="1" res="8.3883450133726001e-04" rms="4.4970878958702087e-01" purity="4.9984243512153625e-01" nType="0">
          <Node pos="l" depth="2" NCoef="0" IVar="-1" Cut="0.0000000000000000e+00" cType="1" res="2.7302509988658130e-04" rms="4.4917985796928406e-01" purity="4.9830627441406250e-01" nType="-99"/>
          <Node pos="r" depth="2" NCoef="0" IVar="-1" Cut="0.0000000000000000e+00" cType="1" res="-3.0395949725061655e-03" rms="4.5537126064300537e-01" purity="5.2331036329269409e-01" nType="-99"/>
        </Node>
      </Node>
    </BinaryTree>
    <BinaryTree type="DecisionTree" boostWeight="1.0000000000000000e+00" itree="604">
      <Node pos="s" depth="0" NCoef="0" IVar="1" Cut="9.1774094104766846e-01" cType="1" res="-4.0950947441160679e-03" rms="4.4861185550689697e-01" purity="4.9565455317497253e-01" nType="0">
        <Node pos="l" depth="1" NCoef="0" IVar="7" Cut="8.4837323427200317e-01" cType="1" res="-1.1294853873550892e-02" rms="4.5279642939567566e-01" purity="3.9843744039535522e-01" nType="0">
          <Node pos="l" depth="2" NCoef="0" IVar="-1" Cut="0.0000000000000000e+00" cType="1" res="-5.3309596842154860e-04" rms="4.5252951979637146e-01" purity="3.9337655901908875e-01" nType="-99"/>
          <Node pos="r" depth="2" NCoef="0" IVar="-1" Cut="0.0000000000000000e+00" cType="1" res="-2.8709946200251579e-03" rms="4.5358601212501526e-01" purity="4.3461221456527710e-01" nType="-99"/>
        </Node>
        <Node pos="r" depth="1" NCoef="0" IVar="4" Cut="5.6119453907012939e-01" cType="1" res="7.6085850596427917e-03" rms="4.4147446751594543e-01" purity="6.5368729829788208e-01" nType="0">
          <Node pos="l" depth="2" NCoef="0" IVar="-1" Cut="0.0000000000000000e+00" cType="1" res="-2.1707646737922914e-05" rms="4.4870582222938538e-01" purity="6.3276380300521851e-01" nType="-99"/>
          <Node pos="r" depth="2" NCoef="0" IVar="-1" Cut="0.0000000000000000e+00" cType="1" res="2.3992026690393686e-03" rms="4.1569659113883972e-01" purity="7.2262310981750488e-01" nType="-99"/>
        </Node>
      </Node>
    </BinaryTree>
    <BinaryTree type="DecisionTree" boostWeight="1.0000000000000000e+00" itree="605">
      <Node pos="s" depth="0" NCoef="0" IVar="5" Cut="1.5485461335629225e-03" cType="1" res="4.5820767991244793e-03" rms="4.5234143733978271e-01" purity="5.0148409605026245e-01" nType="0">
        <Node pos="l" depth="1" NCoef="0" IVar="5" Cut="1.2308427831158042e-03" cType="1" res="-3.3724417444318533e-03" rms="4.4684711098670959e-01" purity="5.5962228775024414e-01" nType="0">
          <Node pos="l" depth="2" NCoef="0" IVar="-1" Cut="0.0000000000000000e+00" cType="1" res="2.2263524442678317e-05" rms="4.4591554999351501e-01" purity="5.7965922355651855e-01" nType="-99"/>
          <Node pos="r" depth="2" NCoef="0" IVar="-1" Cut="0.0000000000000000e+00" cType="1" res="-2.0431017037481070e-03" rms="4.5225107669830322e-01" purity="4.2582482099533081e-01" nType="-99"/>
        </Node>
        <Node pos="r" depth="1" NCoef="0" IVar="3" Cut="-8.3877243101596832e-02" cType="1" res="1.5085812658071518e-02" rms="4.5928493142127991e-01" purity="4.2471414804458618e-01" nType="0">
          <Node pos="l" depth="2" NCoef="0" IVar="-1" Cut="0.0000000000000000e+00" cType="1" res="3.2246503978967667e-03" rms="4.5588377118110657e-01" purity="4.1109201312065125e-01" nType="-99"/>
          <Node pos="r" depth="2" NCoef="0" IVar="-1" Cut="0.0000000000000000e+00" cType="1" res="5.1385222468525171e-04" rms="4.5993602275848389e-01" purity="4.2853927612304688e-01" nType="-99"/>
        </Node>
      </Node>
    </BinaryTree>
    <BinaryTree type="DecisionTree" boostWeight="1.0000000000000000e+00" itree="606">
      <Node pos="s" depth="0" NCoef="0" IVar="7" Cut="3.5746872425079346e-01" cType="1" res="-3.8328964728862047e-03" rms="4.4915512204170227e-01" purity="4.9536615610122681e-01" nType="0">
        <Node pos="l" depth="1" NCoef="0" IVar="-1" Cut="0.0000000000000000e+00" cType="1" res="2.9488666914403439e-03" rms="4.5803251862525940e-01" purity="5.0511777400970459e-01" nType="-99"/>
        <Node pos="r" depth="1" NCoef="0" IVar="4" Cut="5.3513675928115845e-01" cType="1" res="-6.4193592406809330e-03" rms="4.4850939512252808e-01" purity="4.9481591582298279e-01" nType="0">
          <Node pos="l" depth="2" NCoef="0" IVar="-1" Cut="0.0000000000000000e+00" cType="1" res="-9.4325927784666419e-04" rms="4.4752091169357300e-01" purity="4.7870346903800964e-01" nType="-99"/>
          <Node pos="r" depth="2" NCoef="0" IVar="-1" Cut="0.0000000000000000e+00" cType="1" res="7.7048415550962090e-04" rms="4.5066350698471069e-01" purity="5.3743815422058105e-01" nType="-99"/>
        </Node>
      </Node>
    </BinaryTree>
    <BinaryTree type="DecisionTree" boostWeight="1.0000000000000000e+00" itree="607">
      <Node pos="s" depth="0" NCoef="0" IVar="5" Cut="3.4674587659537792e-03" cType="1" res="2.1836617961525917e-03" rms="4.4884184002876282e-01" purity="5.0309473276138306e-01" nType="0">
        <Node pos="l" depth="1" NCoef="0" IVar="0" Cut="4.6113667488098145e+00" cType="1" res="-2.5082976208068430e-04" rms="4.4826507568359375e-01" purity="5.0957953929901123e-01" nType="0">
          <Node pos="l" depth="2" NCoef="0" IVar="-1" Cut="0.0000000000000000e+00" cType="1" res="-1.6516706091351807e-04" rms="4.5391258597373962e-01" purity="4.8446103930473328e-01" nType="-99"/>
          <Node pos="r" depth="2" NCoef="0" IVar="-1" Cut="0.0000000000000000e+00" cType="1" res="1.9499224144965410e-03" rms="3.7134215235710144e-01" purity="8.1705111265182495e-01" nType="-99"/>
        </Node>
        <Node pos="r" depth="1" NCoef="0" IVar="-1" Cut="0.0000000000000000e+00" cType="1" res="2.1092621609568596e-03" rms="4.5445123314857483e-01" purity="4.2906162142753601e-01" nType="-99"/>
      </Node>
    </BinaryTree>
    <BinaryTree type="DecisionTree" boostWeight="1.0000000000000000e+00" itree="608">
      <Node pos="s" depth="0" NCoef="0" IVar="7" Cut="3.5746872425079346e-01" cType="1" res="5.6091132573783398e-03" rms="4.5226362347602844e-01" purity="5.0478816032409668e-01" nType="0">
        <Node pos="l" depth="1" NCoef="0" IVar="-1" Cut="0.0000000000000000e+00" cType="1" res="3.4962790086865425e-03" rms="4.6055784821510315e-01" purity="5.1958495378494263e-01" nType="-99"/>
        <Node pos="r" depth="1" NCoef="0" IVar="6" Cut="7.7358525991439819e-01" cType="1" res="3.0884391162544489e-03" rms="4.5165905356407166e-01" purity="5.0395238399505615e-01" nType="0">
          <Node pos="l" depth="2" NCoef="0" IVar="-1" Cut="0.0000000000000000e+00" cType="1" res="1.5381303383037448e-03" rms="4.5266693830490112e-01" purity="6.0384154319763184e-01" nType="-99"/>
          <Node pos="r" depth="2" NCoef="0" IVar="-1" Cut="0.0000000000000000e+00" cType="1" res="-1.0317930718883872e-04" rms="4.5130780339241028e-01" purity="4.8106783628463745e-01" nType="-99"/>
        </Node>
      </Node>
    </BinaryTree>
    <BinaryTree type="DecisionTree" boostWeight="1.0000000000000000e+00" itree="609">
      <Node pos="s" depth="0" NCoef="0" IVar="6" Cut="1.0092201232910156e+00" cType="1" res="-1.7273890262003988e-04" rms="4.5091933012008667e-01" purity="4.9766317009925842e-01" nType="0">
        <Node pos="l" depth="1" NCoef="0" IVar="2" Cut="2.8027395629882812e+02" cType="1" res="1.2205872684717178e-02" rms="4.5756807923316956e-01" purity="5.6463956832885742e-01" nType="0">
          <Node pos="l" depth="2" NCoef="0" IVar="-1" Cut="0.0000000000000000e+00" cType="1" res="3.1326403841376305e-03" rms="4.6078574657440186e-01" purity="4.6081256866455078e-01" nType="-99"/>
          <Node pos="r" depth="2" NCoef="0" IVar="-1" Cut="0.0000000000000000e+00" cType="1" res="-5.9673166106222197e-05" rms="4.5557221770286560e-01" purity="6.0834139585494995e-01" nType="-99"/>
        </Node>
        <Node pos="r" depth="1" NCoef="0" IVar="5" Cut="8.9747138554230332e-04" cType="1" res="-7.6572964899241924e-03" rms="4.4668489694595337e-01" purity="4.5716679096221924e-01" nType="0">
          <Node pos="l" depth="2" NCoef="0" IVar="-1" Cut="0.0000000000000000e+00" cType="1" res="-1.7246308270841837e-03" rms="4.4134277105331421e-01" purity="5.5133336782455444e-01" nType="-99"/>
          <Node pos="r" depth="2" NCoef="0" IVar="-1" Cut="0.0000000000000000e+00" cType="1" res="1.7596784164197743e-04" rms="4.4982042908668518e-01" purity="3.9629286527633667e-01" nType="-99"/>
        </Node>
      </Node>
    </BinaryTree>
    <BinaryTree type="DecisionTree" boostWeight="1.0000000000000000e+00" itree="610">
      <Node pos="s" depth="0" NCoef="0" IVar="5" Cut="2.5419264566153288e-03" cType="1" res="8.2616513827815652e-04" rms="4.5079869031906128e-01" purity="4.9968877434730530e-01" nType="0">
        <Node pos="l" depth="1" NCoef="0" IVar="3" Cut="-1.1797869205474854e-01" cType="1" res="-3.9409566670656204e-03" rms="4.4622823596000671e-01" purity="5.2516841888427734e-01" nType="0">
          <Node pos="l" depth="2" NCoef="0" IVar="-1" Cut="0.0000000000000000e+00" cType="1" res="-3.3285927493125200e-03" rms="4.4481518864631653e-01" purity="4.2688161134719849e-01" nType="-99"/>
          <Node pos="r" depth="2" NCoef="0" IVar="-1" Cut="0.0000000000000000e+00" cType="1" res="-1.7053333067451604e-05" rms="4.4619157910346985e-01" purity="5.3471010923385620e-01" nType="-99"/>
        </Node>
        <Node pos="r" depth="1" NCoef="0" IVar="1" Cut="8.6730670928955078e-01" cType="1" res="1.7070559784770012e-02" rms="4.6567007899284363e-01" purity="4.1286444664001465e-01" nType="0">
          <Node pos="l" depth="2" NCoef="0" IVar="-1" Cut="0.0000000000000000e+00" cType="1" res="2.3647649504709989e-04" rms="4.6230673789978027e-01" purity="3.8759267330169678e-01" nType="-99"/>
          <Node pos="r" depth="2" NCoef="0" IVar="-1" Cut="0.0000000000000000e+00" cType="1" res="2.7650857809931040e-03" rms="4.7046053409576416e-01" purity="4.5647764205932617e-01" nType="-99"/>
        </Node>
      </Node>
    </BinaryTree>
    <BinaryTree type="DecisionTree" boostWeight="1.0000000000000000e+00" itree="611">
      <Node pos="s" depth="0" NCoef="0" IVar="0" Cut="-2.1130897104740143e-01" cType="1" res="1.6540364595130086e-03" rms="4.5255827903747559e-01" purity="5.0123316049575806e-01" nType="0">
        <Node pos="l" depth="1" NCoef="0" IVar="-1" Cut="0.0000000000000000e+00" cType="1" res="2.8892299160361290e-03" rms="4.4573041796684265e-01" purity="3.3198463916778564e-01" nType="-99"/>
        <Node pos="r" depth="1" NCoef="0" IVar="6" Cut="1.5584672689437866e+00" cType="1" res="-2.4815669166855514e-04" rms="4.5291906595230103e-01" purity="5.1192820072174072e-01" nType="0">
          <Node pos="l" depth="2" NCoef="0" IVar="-1" Cut="0.0000000000000000e+00" cType="1" res="-2.2516801254823804e-04" rms="4.5481353998184204e-01" purity="5.3061401844024658e-01" nType="-99"/>
          <Node pos="r" depth="2" NCoef="0" IVar="-1" Cut="0.0000000000000000e+00" cType="1" res="8.2285545067861676e-04" rms="4.4561073184013367e-01" purity="4.4226455688476562e-01" nType="-99"/>
        </Node>
      </Node>
    </BinaryTree>
    <BinaryTree type="DecisionTree" boostWeight="1.0000000000000000e+00" itree="612">
      <Node pos="s" depth="0" NCoef="0" IVar="7" Cut="8.2693207263946533e-01" cType="1" res="4.7291745431721210e-03" rms="4.5250934362411499e-01" purity="5.0210630893707275e-01" nType="0">
        <Node pos="l" depth="1" NCoef="0" IVar="7" Cut="5.1865273714065552e-01" cType="1" res="1.1797217885032296e-03" rms="4.5384898781776428e-01" purity="4.8439505696296692e-01" nType="0">
          <Node pos="l" depth="2" NCoef="0" IVar="-1" Cut="0.0000000000000000e+00" cType="1" res="1.0671748314052820e-03" rms="4.5388409495353699e-01" purity="4.5315545797348022e-01" nType="-99"/>
          <Node pos="r" depth="2" NCoef="0" IVar="-1" Cut="0.0000000000000000e+00" cType="1" res="-3.5278871655464172e-04" rms="4.5370405912399292e-01" purity="4.9895399808883667e-01" nType="-99"/>
        </Node>
        <Node pos="r" depth="1" NCoef="0" IVar="2" Cut="3.6715936279296875e+02" cType="1" res="2.2391840815544128e-02" rms="4.4536283612251282e-01" purity="5.9024059772491455e-01" nType="0">
          <Node pos="l" depth="2" NCoef="0" IVar="-1" Cut="0.0000000000000000e+00" cType="1" res="4.5468827011063695e-04" rms="4.5666942000389099e-01" purity="5.0221854448318481e-01" nType="-99"/>
          <Node pos="r" depth="2" NCoef="0" IVar="-1" Cut="0.0000000000000000e+00" cType="1" res="3.0177000444382429e-03" rms="4.2649587988853455e-01" purity="7.2386896610260010e-01" nType="-99"/>
        </Node>
      </Node>
    </BinaryTree>
    <BinaryTree type="DecisionTree" boostWeight="1.0000000000000000e+00" itree="613">
      <Node pos="s" depth="0" NCoef="0" IVar="0" Cut="3.8498361110687256e+00" cType="1" res="-2.3090257309377193e-03" rms="4.4771748781204224e-01" purity="5.0058615207672119e-01" nType="0">
        <Node pos="l" depth="1" NCoef="0" IVar="1" Cut="9.4085431098937988e-01" cType="1" res="-6.6736391745507717e-03" rms="4.5440983772277832e-01" purity="4.6010473370552063e-01" nType="0">
          <Node pos="l" depth="2" NCoef="0" IVar="-1" Cut="0.0000000000000000e+00" cType="1" res="-8.2528853090479970e-04" rms="4.5712155103683472e-01" purity="4.0443268418312073e-01" nType="-99"/>
          <Node pos="r" depth="2" NCoef="0" IVar="-1" Cut="0.0000000000000000e+00" cType="1" res="7.8593485523015261e-04" rms="4.4315114617347717e-01" purity="6.7843580245971680e-01" nType="-99"/>
        </Node>
        <Node pos="r" depth="1" NCoef="0" IVar="-1" Cut="0.0000000000000000e+00" cType="1" res="1.9720492418855429e-03" rms="3.9771404862403870e-01" purity="7.7720624208450317e-01" nType="-99"/>
      </Node>
    </BinaryTree>
    <BinaryTree type="DecisionTree" boostWeight="1.0000000000000000e+00" itree="614">
      <Node pos="s" depth="0" NCoef="0" IVar="1" Cut="9.3325358629226685e-01" cType="1" res="-1.5955296112224460e-03" rms="4.5030868053436279e-01" purity="4.9594995379447937e-01" nType="0">
        <Node pos="l" depth="1" NCoef="0" IVar="1" Cut="9.0495431423187256e-01" cType="1" res="-7.2623929008841515e-03" rms="4.5754712820053101e-01" purity="4.1603541374206543e-01" nType="0">
          <Node pos="l" depth="2" NCoef="0" IVar="-1" Cut="0.0000000000000000e+00" cType="1" res="-1.7158496484626085e-04" rms="4.5529019832611084e-01" purity="3.9306667447090149e-01" nType="-99"/>
          <Node pos="r" depth="2" NCoef="0" IVar="-1" Cut="0.0000000000000000e+00" cType="1" res="-1.5213851584121585e-03" rms="4.6376723051071167e-01" purity="4.8307177424430847e-01" nType="-99"/>
        </Node>
        <Node pos="r" depth="1" NCoef="0" IVar="5" Cut="2.1797249792143703e-04" cType="1" res="1.2456055730581284e-02" rms="4.3151617050170898e-01" purity="6.9410645961761475e-01" nType="0">
          <Node pos="l" depth="2" NCoef="0" IVar="-1" Cut="0.0000000000000000e+00" cType="1" res="-7.0376956136897206e-04" rms="4.1118580102920532e-01" purity="7.3772710561752319e-01" nType="-99"/>
          <Node pos="r" depth="2" NCoef="0" IVar="-1" Cut="0.0000000000000000e+00" cType="1" res="2.4662502110004425e-03" rms="4.5360678434371948e-01" purity="6.4113515615463257e-01" nType="-99"/>
        </Node>
      </Node>
    </BinaryTree>
    <BinaryTree type="DecisionTree" boostWeight="1.0000000000000000e+00" itree="615">
      <Node pos="s" depth="0" NCoef="0" IVar="6" Cut="1.2023137807846069e+00" cType="1" res="2.2999143693596125e-03" rms="4.5013415813446045e-01" purity="5.0355452299118042e-01" nType="0">
        <Node pos="l" depth="1" NCoef="0" IVar="4" Cut="6.1561179161071777e-01" cType="1" res="-8.7537541985511780e-03" rms="4.5641764998435974e-01" purity="5.3304731845855713e-01" nType="0">
          <Node pos="l" depth="2" NCoef="0" IVar="-1" Cut="0.0000000000000000e+00" cType="1" res="-1.6893539577722549e-04" rms="4.5692276954650879e-01" purity="5.3320086002349854e-01" nType="-99"/>
          <Node pos="r" depth="2" NCoef="0" IVar="-1" Cut="0.0000000000000000e+00" cType="1" res="-3.5917691420763731e-03" rms="4.5117938518524170e-01" purity="5.3207963705062866e-01" nType="-99"/>
        </Node>
        <Node pos="r" depth="1" NCoef="0" IVar="2" Cut="2.7379125976562500e+02" cType="1" res="1.5196255408227444e-02" rms="4.4234150648117065e-01" purity="4.6914526820182800e-01" nType="0">
          <Node pos="l" depth="2" NCoef="0" IVar="-1" Cut="0.0000000000000000e+00" cType="1" res="-2.1178659153520130e-05" rms="4.3097549676895142e-01" purity="3.3259010314941406e-01" nType="-99"/>
          <Node pos="r" depth="2" NCoef="0" IVar="-1" Cut="0.0000000000000000e+00" cType="1" res="1.8490474903956056e-03" rms="4.5101708173751831e-01" purity="5.8063209056854248e-01" nType="-99"/>
        </Node>
      </Node>
    </BinaryTree>
    <BinaryTree type="DecisionTree" boostWeight="1.0000000000000000e+00" itree="616">
      <Node pos="s" depth="0" NCoef="0" IVar="3" Cut="2.3334528505802155e-01" cType="1" res="2.8461699839681387e-03" rms="4.4834694266319275e-01" purity="5.0245958566665649e-01" nType="0">
        <Node pos="l" depth="1" NCoef="0" IVar="2" Cut="2.1968833923339844e+02" cType="1" res="7.1708986070007086e-04" rms="4.4751027226448059e-01" purity="4.9661239981651306e-01" nType="0">
          <Node pos="l" depth="2" NCoef="0" IVar="-1" Cut="0.0000000000000000e+00" cType="1" res="-2.2367055062204599e-03" rms="4.0399286150932312e-01" purity="2.5557386875152588e-01" nType="-99"/>
          <Node pos="r" depth="2" NCoef="0" IVar="-1" Cut="0.0000000000000000e+00" cType="1" res="2.8929315158165991e-04" rms="4.5358338952064514e-01" purity="5.3279882669448853e-01" nType="-99"/>
        </Node>
        <Node pos="r" depth="1" NCoef="0" IVar="-1" Cut="0.0000000000000000e+00" cType="1" res="2.1133343689143658e-03" rms="4.5866340398788452e-01" purity="5.8257997035980225e-01" nType="-99"/>
      </Node>
    </BinaryTree>
    <BinaryTree type="DecisionTree" boostWeight="1.0000000000000000e+00" itree="617">
      <Node pos="s" depth="0" NCoef="0" IVar="5" Cut="2.5687672314234078e-04" cType="1" res="3.1592503655701876e-03" rms="4.5501548051834106e-01" purity="5.0419610738754272e-01" nType="0">
        <Node pos="l" depth="1" NCoef="0" IVar="0" Cut="2.0654242038726807e+00" cType="1" res="-1.6788013279438019e-02" rms="4.2462801933288574e-01" purity="6.8001538515090942e-01" nType="0">
          <Node pos="l" depth="2" NCoef="0" IVar="-1" Cut="0.0000000000000000e+00" cType="1" res="5.8062770403921604e-04" rms="4.4482672214508057e-01" purity="5.5265259742736816e-01" nType="-99"/>
          <Node pos="r" depth="2" NCoef="0" IVar="-1" Cut="0.0000000000000000e+00" cType="1" res="-2.1524862386286259e-03" rms="4.1512638330459595e-01" purity="7.3518377542495728e-01" nType="-99"/>
        </Node>
        <Node pos="r" depth="1" NCoef="0" IVar="3" Cut="1.6140505671501160e-01" cType="1" res="7.8818304464221001e-03" rms="4.6179109811782837e-01" purity="4.6257033944129944e-01" nType="0">
          <Node pos="l" depth="2" NCoef="0" IVar="-1" Cut="0.0000000000000000e+00" cType="1" res="1.0524934623390436e-03" rms="4.5866632461547852e-01" purity="4.5934599637985229e-01" nType="-99"/>
          <Node pos="r" depth="2" NCoef="0" IVar="-1" Cut="0.0000000000000000e+00" cType="1" res="-1.6986130503937602e-03" rms="4.7505843639373779e-01" purity="4.7798418998718262e-01" nType="-99"/>
        </Node>
      </Node>
    </BinaryTree>
    <BinaryTree type="DecisionTree" boostWeight="1.0000000000000000e+00" itree="618">
      <Node pos="s" depth="0" NCoef="0" IVar="6" Cut="1.6475785970687866e+00" cType="1" res="4.5881568803451955e-04" rms="4.5156449079513550e-01" purity="5.0054240226745605e-01" nType="0">
        <Node pos="l" depth="1" NCoef="0" IVar="3" Cut="-1.1809184402227402e-01" cType="1" res="-4.1056149639189243e-03" rms="4.5440810918807983e-01" purity="5.1238203048706055e-01" nType="0">
          <Node pos="l" depth="2" NCoef="0" IVar="-1" Cut="0.0000000000000000e+00" cType="1" res="1.6380837187170982e-03" rms="4.4862937927246094e-01" purity="4.8044368624687195e-01" nType="-99"/>
          <Node pos="r" depth="2" NCoef="0" IVar="-1" Cut="0.0000000000000000e+00" cType="1" res="-5.0314830150455236e-04" rms="4.5496505498886108e-01" purity="5.1601904630661011e-01" nType="-99"/>
        </Node>
        <Node pos="r" depth="1" NCoef="0" IVar="7" Cut="5.9370011091232300e-01" cType="1" res="2.2610645741224289e-02" rms="4.3682461977005005e-01" purity="4.4308304786682129e-01" nType="0">
          <Node pos="l" depth="2" NCoef="0" IVar="-1" Cut="0.0000000000000000e+00" cType="1" res="-4.4156495278002694e-05" rms="4.2942455410957336e-01" purity="3.6827358603477478e-01" nType="-99"/>
          <Node pos="r" depth="2" NCoef="0" IVar="-1" Cut="0.0000000000000000e+00" cType="1" res="3.1529886182397604e-03" rms="4.4221553206443787e-01" purity="5.0866478681564331e-01" nType="-99"/>
        </Node>
      </Node>
    </BinaryTree>
    <BinaryTree type="DecisionTree" boostWeight="1.0000000000000000e+00" itree="619">
      <Node pos="s" depth="0" NCoef="0" IVar="3" Cut="-5.9516173787415028e-03" cType="1" res="2.6389621198177338e-03" rms="4.4941580295562744e-01" purity="5.0207316875457764e-01" nType="0">
        <Node pos="l" depth="1" NCoef="0" IVar="3" Cut="-1.2151599675416946e-01" cType="1" res="-7.9241748899221420e-03" rms="4.4303363561630249e-01" purity="4.6365755796432495e-01" nType="0">
          <Node pos="l" depth="2" NCoef="0" IVar="-1" Cut="0.0000000000000000e+00" cType="1" res="-2.9771015979349613e-03" rms="4.3595173954963684e-01" purity="3.9590010046958923e-01" nType="-99"/>
          <Node pos="r" depth="2" NCoef="0" IVar="-1" Cut="0.0000000000000000e+00" cType="1" res="-1.2477024574764073e-04" rms="4.4431442022323608e-01" purity="4.7841355204582214e-01" nType="-99"/>
        </Node>
        <Node pos="r" depth="1" NCoef="0" IVar="4" Cut="5.4803425073623657e-01" cType="1" res="1.1258538812398911e-02" rms="4.5437535643577576e-01" purity="5.3342050313949585e-01" nType="0">
          <Node pos="l" depth="2" NCoef="0" IVar="-1" Cut="0.0000000000000000e+00" cType="1" res="1.1751322308555245e-03" rms="4.5700669288635254e-01" purity="5.2731257677078247e-01" nType="-99"/>
          <Node pos="r" depth="2" NCoef="0" IVar="-1" Cut="0.0000000000000000e+00" cType="1" res="-6.1964016640558839e-04" rms="4.4443237781524658e-01" purity="5.5489182472229004e-01" nType="-99"/>
        </Node>
      </Node>
    </BinaryTree>
    <BinaryTree type="DecisionTree" boostWeight="1.0000000000000000e+00" itree="620">
      <Node pos="s" depth="0" NCoef="0" IVar="0" Cut="2.6416239738464355e+00" cType="1" res="3.0001465347595513e-04" rms="4.4697815179824829e-01" purity="5.0262695550918579e-01" nType="0">
        <Node pos="l" depth="1" NCoef="0" IVar="1" Cut="9.6008497476577759e-01" cType="1" res="-6.8716681562364101e-03" rms="4.5356100797653198e-01" purity="4.2222547531127930e-01" nType="0">
          <Node pos="l" depth="2" NCoef="0" IVar="-1" Cut="0.0000000000000000e+00" cType="1" res="-8.0800417345017195e-04" rms="4.5612204074859619e-01" purity="3.9357855916023254e-01" nType="-99"/>
          <Node pos="r" depth="2" NCoef="0" IVar="-1" Cut="0.0000000000000000e+00" cType="1" res="2.5782976299524307e-03" rms="4.2174136638641357e-01" purity="7.3972010612487793e-01" nType="-99"/>
        </Node>
        <Node pos="r" depth="1" NCoef="0" IVar="6" Cut="8.5218203067779541e-01" cType="1" res="1.7682615667581558e-02" rms="4.3010941147804260e-01" purity="6.9750273227691650e-01" nType="0">
          <Node pos="l" depth="2" NCoef="0" IVar="-1" Cut="0.0000000000000000e+00" cType="1" res="3.2370481640100479e-03" rms="4.0086352825164795e-01" purity="7.7665829658508301e-01" nType="-99"/>
          <Node pos="r" depth="2" NCoef="0" IVar="-1" Cut="0.0000000000000000e+00" cType="1" res="4.1721962043084204e-04" rms="4.4005978107452393e-01" purity="6.6774851083755493e-01" nType="-99"/>
        </Node>
      </Node>
    </BinaryTree>
    <BinaryTree type="DecisionTree" boostWeight="1.0000000000000000e+00" itree="621">
      <Node pos="s" depth="0" NCoef="0" IVar="4" Cut="3.8417997956275940e-01" cType="1" res="-7.5779017060995102e-04" rms="4.5001870393753052e-01" purity="4.9611112475395203e-01" nType="0">
        <Node pos="l" depth="1" NCoef="0" IVar="5" Cut="2.6604083832353354e-03" cType="1" res="1.0525293648242950e-02" rms="4.5209529995918274e-01" purity="4.8531073331832886e-01" nType="0">
          <Node pos="l" depth="2" NCoef="0" IVar="-1" Cut="0.0000000000000000e+00" cType="1" res="1.2956425780430436e-04" rms="4.5042985677719116e-01" purity="5.0029915571212769e-01" nType="-99"/>
          <Node pos="r" depth="2" NCoef="0" IVar="-1" Cut="0.0000000000000000e+00" cType="1" res="3.0131235253065825e-03" rms="4.5677354931831360e-01" purity="4.2955866456031799e-01" nType="-99"/>
        </Node>
        <Node pos="r" depth="1" NCoef="0" IVar="6" Cut="1.6966404914855957e+00" cType="1" res="-1.1897105723619461e-02" rms="4.4768023490905762e-01" purity="5.0677388906478882e-01" nType="0">
          <Node pos="l" depth="2" NCoef="0" IVar="-1" Cut="0.0000000000000000e+00" cType="1" res="-1.2955304700881243e-03" rms="4.5009884238243103e-01" purity="5.1359915733337402e-01" nType="-99"/>
          <Node pos="r" depth="2" NCoef="0" IVar="-1" Cut="0.0000000000000000e+00" cType="1" res="1.4824689133092761e-03" rms="4.3359258770942688e-01" purity="4.7151380777359009e-01" nType="-99"/>
        </Node>
      </Node>
    </BinaryTree>
    <BinaryTree type="DecisionTree" boostWeight="1.0000000000000000e+00" itree="622">
      <Node pos="s" depth="0" NCoef="0" IVar="7" Cut="4.3880620598793030e-01" cType="1" res="1.2389954645186663e-03" rms="4.5079100131988525e-01" purity="5.0101917982101440e-01" nType="0">
        <Node pos="l" depth="1" NCoef="0" IVar="3" Cut="2.1988151967525482e-01" cType="1" res="2.5168333202600479e-02" rms="4.5059597492218018e-01" purity="4.7457173466682434e-01" nType="0">
          <Node pos="l" depth="2" NCoef="0" IVar="-1" Cut="0.0000000000000000e+00" cType="1" res="7.0157647132873535e-04" rms="4.4083800911903381e-01" purity="3.8321810960769653e-01" nType="-99"/>
          <Node pos="r" depth="2" NCoef="0" IVar="-1" Cut="0.0000000000000000e+00" cType="1" res="2.9967580921947956e-03" rms="4.6200400590896606e-01" purity="5.9238409996032715e-01" nType="-99"/>
        </Node>
        <Node pos="r" depth="1" NCoef="0" IVar="3" Cut="1.8615345656871796e-01" cType="1" res="-2.9168999753892422e-03" rms="4.5069539546966553e-01" purity="5.0561243295669556e-01" nType="0">
          <Node pos="l" depth="2" NCoef="0" IVar="-1" Cut="0.0000000000000000e+00" cType="1" res="-2.3235830667545088e-05" rms="4.4965159893035889e-01" purity="5.0395357608795166e-01" nType="-99"/>
          <Node pos="r" depth="2" NCoef="0" IVar="-1" Cut="0.0000000000000000e+00" cType="1" res="-2.6980156544595957e-03" rms="4.6333965659141541e-01" purity="5.2842444181442261e-01" nType="-99"/>
        </Node>
      </Node>
    </BinaryTree>
    <BinaryTree type="DecisionTree" boostWeight="1.0000000000000000e+00" itree="623">
      <Node pos="s" depth="0" NCoef="0" IVar="0" Cut="4.4519305229187012e+00" cType="1" res="4.1372142732143402e-03" rms="4.4917973875999451e-01" purity="5.0556129217147827e-01" nType="0">
        <Node pos="l" depth="1" NCoef="0" IVar="3" Cut="-7.3729984462261200e-02" cType="1" res="2.0222018938511610e-03" rms="4.5492482185363770e-01" purity="4.8097130656242371e-01" nType="0">
          <Node pos="l" depth="2" NCoef="0" IVar="-1" Cut="0.0000000000000000e+00" cType="1" res="-7.0474698441103101e-04" rms="4.4769427180290222e-01" purity="4.2950385808944702e-01" nType="-99"/>
          <Node pos="r" depth="2" NCoef="0" IVar="-1" Cut="0.0000000000000000e+00" cType="1" res="4.0185693069361150e-04" rms="4.5719954371452332e-01" purity="4.9776810407638550e-01" nType="-99"/>
        </Node>
        <Node pos="r" depth="1" NCoef="0" IVar="-1" Cut="0.0000000000000000e+00" cType="1" res="2.4102828465402126e-03" rms="3.6756533384323120e-01" purity="8.1745696067810059e-01" nType="-99"/>
      </Node>
    </BinaryTree>
    <BinaryTree type="DecisionTree" boostWeight="1.0000000000000000e+00" itree="624">
      <Node pos="s" depth="0" NCoef="0" IVar="5" Cut="2.5661458494141698e-04" cType="1" res="-1.9363778410479426e-03" rms="4.5216777920722961e-01" purity="4.9835225939750671e-01" nType="0">
        <Node pos="l" depth="1" NCoef="0" IVar="1" Cut="9.7957319021224976e-01" cType="1" res="-1.8321128562092781e-02" rms="4.2126321792602539e-01" purity="6.8079239130020142e-01" nType="0">
          <Node pos="l" depth="2" NCoef="0" IVar="-1" Cut="0.0000000000000000e+00" cType="1" res="-2.5212755426764488e-03" rms="4.4754472374916077e-01" purity="6.0279828310012817e-01" nType="-99"/>
          <Node pos="r" depth="2" NCoef="0" IVar="-1" Cut="0.0000000000000000e+00" cType="1" res="7.0314208278432488e-04" rms="3.6994358897209167e-01" purity="8.1564295291900635e-01" nType="-99"/>
        </Node>
        <Node pos="r" depth="1" NCoef="0" IVar="5" Cut="2.9346826486289501e-03" cType="1" res="1.9471574341878295e-03" rms="4.5910227298736572e-01" purity="4.5511007308959961e-01" nType="0">
          <Node pos="l" depth="2" NCoef="0" IVar="-1" Cut="0.0000000000000000e+00" cType="1" res="4.4836095185019076e-04" rms="4.6123221516609192e-01" purity="4.7336396574974060e-01" nType="-99"/>
          <Node pos="r" depth="2" NCoef="0" IVar="-1" Cut="0.0000000000000000e+00" cType="1" res="-1.2562338961288333e-03" rms="4.4933015108108521e-01" purity="3.7656873464584351e-01" nType="-99"/>
        </Node>
      </Node>
    </BinaryTree>
    <BinaryTree type="DecisionTree" boostWeight="1.0000000000000000e+00" itree="625">
      <Node pos="s" depth="0" NCoef="0" IVar="5" Cut="5.1617884309962392e-04" cType="1" res="4.8004444688558578e-03" rms="4.5126774907112122e-01" purity="5.0751113891601562e-01" nType="0">
        <Node pos="l" depth="1" NCoef="0" IVar="6" Cut="8.1903684139251709e-01" cType="1" res="-9.3726189807057381e-03" rms="4.2985975742340088e-01" purity="6.4052605628967285e-01" nType="0">
          <Node pos="l" depth="2" NCoef="0" IVar="-1" Cut="0.0000000000000000e+00" cType="1" res="-2.6255648117512465e-03" rms="4.1783705353736877e-01" purity="6.7302078008651733e-01" nType="-99"/>
          <Node pos="r" depth="2" NCoef="0" IVar="-1" Cut="0.0000000000000000e+00" cType="1" res="-1.9129246356897056e-04" rms="4.3300336599349976e-01" purity="6.3122302293777466e-01" nType="-99"/>
        </Node>
        <Node pos="r" depth="1" NCoef="0" IVar="4" Cut="1.5147215127944946e-01" cType="1" res="1.0684391483664513e-02" rms="4.5973429083824158e-01" purity="4.5228996872901917e-01" nType="0">
          <Node pos="l" depth="2" NCoef="0" IVar="-1" Cut="0.0000000000000000e+00" cType="1" res="-1.3698383700102568e-03" rms="4.4952976703643799e-01" purity="3.7905544042587280e-01" nType="-99"/>
          <Node pos="r" depth="2" NCoef="0" IVar="-1" Cut="0.0000000000000000e+00" cType="1" res="9.6564361592754722e-04" rms="4.6072834730148315e-01" purity="4.6031352877616882e-01" nType="-99"/>
        </Node>
      </Node>
    </BinaryTree>
    <BinaryTree type="DecisionTree" boostWeight="1.0000000000000000e+00" itree="626">
      <Node pos="s" depth="0" NCoef="0" IVar="1" Cut="9.6796405315399170e-01" cType="1" res="-6.4207226969301701e-03" rms="4.4765898585319519e-01" purity="4.9655219912528992e-01" nType="0">
        <Node pos="l" depth="1" NCoef="0" IVar="3" Cut="4.9002122133970261e-02" cType="1" res="-9.6532721072435379e-03" rms="4.5503988862037659e-01" purity="4.5743781328201294e-01" nType="0">
          <Node pos="l" depth="2" NCoef="0" IVar="-1" Cut="0.0000000000000000e+00" cType="1" res="-2.5928393006324768e-04" rms="4.4951257109642029e-01" purity="4.4357126951217651e-01" nType="-99"/>
          <Node pos="r" depth="2" NCoef="0" IVar="-1" Cut="0.0000000000000000e+00" cType="1" res="-1.3072823639959097e-03" rms="4.6301165223121643e-01" purity="4.7812044620513916e-01" nType="-99"/>
        </Node>
        <Node pos="r" depth="1" NCoef="0" IVar="-1" Cut="0.0000000000000000e+00" cType="1" res="1.4540873235091567e-03" rms="3.8507303595542908e-01" purity="7.9838615655899048e-01" nType="-99"/>
      </Node>
    </BinaryTree>
    <BinaryTree type="DecisionTree" boostWeight="1.0000000000000000e+00" itree="627">
      <Node pos="s" depth="0" NCoef="0" IVar="4" Cut="4.2988476157188416e-01" cType="1" res="-1.2620057677850127e-03" rms="4.5132398605346680e-01" purity="4.9785688519477844e-01" nType="0">
        <Node pos="l" depth="1" NCoef="0" IVar="6" Cut="1.4701555967330933e+00" cType="1" res="3.3621718175709248e-03" rms="4.5006805658340454e-01" purity="4.8288422822952271e-01" nType="0">
          <Node pos="l" depth="2" NCoef="0" IVar="-1" Cut="0.0000000000000000e+00" cType="1" res="7.3199160397052765e-04" rms="4.5535394549369812e-01" purity="5.1794445514678955e-01" nType="-99"/>
          <Node pos="r" depth="2" NCoef="0" IVar="-1" Cut="0.0000000000000000e+00" cType="1" res="-1.3884168583899736e-03" rms="4.3383616209030151e-01" purity="3.8192650675773621e-01" nType="-99"/>
        </Node>
        <Node pos="r" depth="1" NCoef="0" IVar="6" Cut="1.1656672954559326e+00" cType="1" res="-7.5656296685338020e-03" rms="4.5295438170433044e-01" purity="5.1826745271682739e-01" nType="0">
          <Node pos="l" depth="2" NCoef="0" IVar="-1" Cut="0.0000000000000000e+00" cType="1" res="-1.7592937219887972e-03" rms="4.5408123731613159e-01" purity="5.4389256238937378e-01" nType="-99"/>
          <Node pos="r" depth="2" NCoef="0" IVar="-1" Cut="0.0000000000000000e+00" cType="1" res="5.5618659825995564e-04" rms="4.5140400528907776e-01" purity="4.9540603160858154e-01" nType="-99"/>
        </Node>
      </Node>
    </BinaryTree>
    <BinaryTree type="DecisionTree" boostWeight="1.0000000000000000e+00" itree="628">
      <Node pos="s" depth="0" NCoef="0" IVar="3" Cut="-5.9232536703348160e-02" cType="1" res="8.0199330113828182e-04" rms="4.5184284448623657e-01" purity="4.9852243065834045e-01" nType="0">
        <Node pos="l" depth="1" NCoef="0" IVar="6" Cut="1.4451735019683838e+00" cType="1" res="-1.4535535126924515e-02" rms="4.4093209505081177e-01" purity="4.5400556921958923e-01" nType="0">
          <Node pos="l" depth="2" NCoef="0" IVar="-1" Cut="0.0000000000000000e+00" cType="1" res="-3.4840474836528301e-04" rms="4.4862392544746399e-01" purity="4.9142378568649292e-01" nType="-99"/>
          <Node pos="r" depth="2" NCoef="0" IVar="-1" Cut="0.0000000000000000e+00" cType="1" res="-3.8750665262341499e-03" rms="4.1589105129241943e-01" purity="3.4284955263137817e-01" nType="-99"/>
        </Node>
        <Node pos="r" depth="1" NCoef="0" IVar="2" Cut="3.5438037109375000e+02" cType="1" res="7.2863800451159477e-03" rms="4.5622217655181885e-01" purity="5.1734322309494019e-01" nType="0">
          <Node pos="l" depth="2" NCoef="0" IVar="-1" Cut="0.0000000000000000e+00" cType="1" res="1.2535885907709599e-03" rms="4.5725211501121521e-01" purity="4.6687671542167664e-01" nType="-99"/>
          <Node pos="r" depth="2" NCoef="0" IVar="-1" Cut="0.0000000000000000e+00" cType="1" res="-1.0440171463415027e-03" rms="4.5310398936271667e-01" purity="6.2963932752609253e-01" nType="-99"/>
        </Node>
      </Node>
    </BinaryTree>
    <BinaryTree type="DecisionTree" boostWeight="1.0000000000000000e+00" itree="629">
      <Node pos="s" depth="0" NCoef="0" IVar="2" Cut="2.3733721923828125e+02" cType="1" res="-1.1099945986643434e-03" rms="4.5171481370925903e-01" purity="4.9494409561157227e-01" nType="0">
        <Node pos="l" depth="1" NCoef="0" IVar="1" Cut="8.7141227722167969e-01" cType="1" res="-1.8992291763424873e-02" rms="4.2566168308258057e-01" purity="2.9156178236007690e-01" nType="0">
          <Node pos="l" depth="2" NCoef="0" IVar="-1" Cut="0.0000000000000000e+00" cType="1" res="1.9698396790772676e-03" rms="4.1044041514396667e-01" purity="2.3014824092388153e-01" nType="-99"/>
          <Node pos="r" depth="2" NCoef="0" IVar="-1" Cut="0.0000000000000000e+00" cType="1" res="-2.8960274066776037e-03" rms="4.3057781457901001e-01" purity="3.1540441513061523e-01" nType="-99"/>
        </Node>
        <Node pos="r" depth="1" NCoef="0" IVar="6" Cut="1.8182185888290405e+00" cType="1" res="3.5977899096906185e-03" rms="4.5821145176887512e-01" purity="5.4848748445510864e-01" nType="0">
          <Node pos="l" depth="2" NCoef="0" IVar="-1" Cut="0.0000000000000000e+00" cType="1" res="-3.1954623409546912e-05" rms="4.5832940936088562e-01" purity="5.4871565103530884e-01" nType="-99"/>
          <Node pos="r" depth="2" NCoef="0" IVar="-1" Cut="0.0000000000000000e+00" cType="1" res="3.2593519426882267e-03" rms="4.5447427034378052e-01" purity="5.4595965147018433e-01" nType="-99"/>
        </Node>
      </Node>
    </BinaryTree>
    <BinaryTree type="DecisionTree" boostWeight="1.0000000000000000e+00" itree="630">
      <Node pos="s" depth="0" NCoef="0" IVar="0" Cut="2.7527213096618652e+00" cType="1" res="8.2201289478689432e-04" rms="4.4762152433395386e-01" purity="5.0218325853347778e-01" nType="0">
        <Node pos="l" depth="1" NCoef="0" IVar="7" Cut="3.7842071056365967e-01" cType="1" res="-5.2721579559147358e-03" rms="4.5407977700233459e-01" purity="4.2786183953285217e-01" nType="0">
          <Node pos="l" depth="2" NCoef="0" IVar="-1" Cut="0.0000000000000000e+00" cType="1" res="1.8762416439130902e-03" rms="4.5549950003623962e-01" purity="4.2805027961730957e-01" nType="-99"/>
          <Node pos="r" depth="2" NCoef="0" IVar="-1" Cut="0.0000000000000000e+00" cType="1" res="-5.8393186191096902e-04" rms="4.5386412739753723e-01" purity="4.2784598469734192e-01" nType="-99"/>
        </Node>
        <Node pos="r" depth="1" NCoef="0" IVar="5" Cut="2.5319244014099240e-04" cType="1" res="1.7213700339198112e-02" rms="4.2934015393257141e-01" purity="7.0208793878555298e-01" nType="0">
          <Node pos="l" depth="2" NCoef="0" IVar="-1" Cut="0.0000000000000000e+00" cType="1" res="-5.7492876658216119e-04" rms="3.9099672436714172e-01" purity="7.8284192085266113e-01" nType="-99"/>
          <Node pos="r" depth="2" NCoef="0" IVar="-1" Cut="0.0000000000000000e+00" cType="1" res="1.9188999431207776e-03" rms="4.4934010505676270e-01" purity="6.5558683872222900e-01" nType="-99"/>
        </Node>
      </Node>
    </BinaryTree>
    <BinaryTree type="DecisionTree" boostWeight="1.0000000000000000e+00" itree="631">
      <Node pos="s" depth="0" NCoef="0" IVar="0" Cut="1.0670202970504761e+00" cType="1" res="3.5446458496153355e-03" rms="4.5012083649635315e-01" purity="5.0430983304977417e-01" nType="0">
        <Node pos="l" depth="1" NCoef="0" IVar="3" Cut="4.8187997192144394e-02" cType="1" res="1.5745688229799271e-02" rms="4.5305186510086060e-01" purity="3.6842745542526245e-01" nType="0">
          <Node pos="l" depth="2" NCoef="0" IVar="-1" Cut="0.0000000000000000e+00" cType="1" res="2.2566253319382668e-03" rms="4.5023703575134277e-01" purity="3.6367204785346985e-01" nType="-99"/>
          <Node pos="r" depth="2" NCoef="0" IVar="-1" Cut="0.0000000000000000e+00" cType="1" res="-1.3039077748544514e-04" rms="4.5688462257385254e-01" purity="3.7588143348693848e-01" nType="-99"/>
        </Node>
        <Node pos="r" depth="1" NCoef="0" IVar="3" Cut="1.4777237176895142e-01" cType="1" res="-3.1050820834934711e-03" rms="4.4837558269500732e-01" purity="5.7836753129959106e-01" nType="0">
          <Node pos="l" depth="2" NCoef="0" IVar="-1" Cut="0.0000000000000000e+00" cType="1" res="-6.3022167887538671e-04" rms="4.4981685280799866e-01" purity="5.6232655048370361e-01" nType="-99"/>
          <Node pos="r" depth="2" NCoef="0" IVar="-1" Cut="0.0000000000000000e+00" cType="1" res="1.2947028735652566e-03" rms="4.4210258126258850e-01" purity="6.3926529884338379e-01" nType="-99"/>
        </Node>
      </Node>
    </BinaryTree>
    <BinaryTree type="DecisionTree" boostWeight="1.0000000000000000e+00" itree="632">
      <Node pos="s" depth="0" NCoef="0" IVar="0" Cut="8.6179965734481812e-01" cType="1" res="-3.3202988561242819e-03" rms="4.5171022415161133e-01" purity="4.9781227111816406e-01" nType="0">
        <Node pos="l" depth="1" NCoef="0" IVar="7" Cut="8.1457448005676270e-01" cType="1" res="1.1570882983505726e-02" rms="4.5189636945724487e-01" purity="3.5191634297370911e-01" nType="0">
          <Node pos="l" depth="2" NCoef="0" IVar="-1" Cut="0.0000000000000000e+00" cType="1" res="4.0482811164110899e-04" rms="4.4733470678329468e-01" purity="3.2969310879707336e-01" nType="-99"/>
          <Node pos="r" depth="2" NCoef="0" IVar="-1" Cut="0.0000000000000000e+00" cType="1" res="2.7714020106941462e-03" rms="4.6793434023857117e-01" purity="4.3658843636512756e-01" nType="-99"/>
        </Node>
        <Node pos="r" depth="1" NCoef="0" IVar="0" Cut="4.5616297721862793e+00" cType="1" res="-9.5496997237205505e-03" rms="4.5148664712905884e-01" purity="5.5884462594985962e-01" nType="0">
          <Node pos="l" depth="2" NCoef="0" IVar="-1" Cut="0.0000000000000000e+00" cType="1" res="-9.4187795184552670e-04" rms="4.5993435382843018e-01" purity="5.2951371669769287e-01" nType="-99"/>
          <Node pos="r" depth="2" NCoef="0" IVar="-1" Cut="0.0000000000000000e+00" cType="1" res="2.3297681473195553e-03" rms="3.6479100584983826e-01" purity="8.2192850112915039e-01" nType="-99"/>
        </Node>
      </Node>
    </BinaryTree>
    <BinaryTree type="DecisionTree" boostWeight="1.0000000000000000e+00" itree="633">
      <Node pos="s" depth="0" NCoef="0" IVar="0" Cut="3.8651779294013977e-01" cType="1" res="2.2008810192346573e-03" rms="4.5175927877426147e-01" purity="4.9979668855667114e-01" nType="0">
        <Node pos="l" depth="1" NCoef="0" IVar="5" Cut="1.5411367639899254e-03" cType="1" res="-1.5168009325861931e-02" rms="4.2868390679359436e-01" purity="2.9898399114608765e-01" nType="0">
          <Node pos="l" depth="2" NCoef="0" IVar="-1" Cut="0.0000000000000000e+00" cType="1" res="-5.0030020065605640e-03" rms="4.0722951292991638e-01" purity="2.6580101251602173e-01" nType="-99"/>
          <Node pos="r" depth="2" NCoef="0" IVar="-1" Cut="0.0000000000000000e+00" cType="1" res="-8.0446579886483960e-06" rms="4.3643459677696228e-01" purity="3.1281995773315430e-01" nType="-99"/>
        </Node>
        <Node pos="r" depth="1" NCoef="0" IVar="6" Cut="1.2157996892929077e+00" cType="1" res="5.8204745873808861e-03" rms="4.5633798837661743e-01" purity="5.4164510965347290e-01" nType="0">
          <Node pos="l" depth="2" NCoef="0" IVar="-1" Cut="0.0000000000000000e+00" cType="1" res="-1.2731357128359377e-04" rms="4.6005275845527649e-01" purity="5.7355278730392456e-01" nType="-99"/>
          <Node pos="r" depth="2" NCoef="0" IVar="-1" Cut="0.0000000000000000e+00" cType="1" res="1.0597109794616699e-03" rms="4.5166903734207153e-01" purity="5.0337505340576172e-01" nType="-99"/>
        </Node>
      </Node>
    </BinaryTree>
    <BinaryTree type="DecisionTree" boostWeight="1.0000000000000000e+00" itree="634">
      <Node pos="s" depth="0" NCoef="0" IVar="4" Cut="5.2800375223159790e-01" cType="1" res="-1.0194244096055627e-03" rms="4.4998654723167419e-01" purity="4.9899798631668091e-01" nType="0">
        <Node pos="l" depth="1" NCoef="0" IVar="5" Cut="2.5809177896007895e-04" cType="1" res="3.7763370200991631e-03" rms="4.5155447721481323e-01" purity="4.9044749140739441e-01" nType="0">
          <Node pos="l" depth="2" NCoef="0" IVar="-1" Cut="0.0000000000000000e+00" cType="1" res="-1.4326648088172078e-03" rms="4.2642551660537720e-01" purity="6.5296840667724609e-01" nType="-99"/>
          <Node pos="r" depth="2" NCoef="0" IVar="-1" Cut="0.0000000000000000e+00" cType="1" res="6.4472213853150606e-04" rms="4.5710262656211853e-01" purity="4.5221602916717529e-01" nType="-99"/>
        </Node>
        <Node pos="r" depth="1" NCoef="0" IVar="3" Cut="4.6790625900030136e-02" cType="1" res="-1.4265635982155800e-02" rms="4.4535890221595764e-01" purity="5.2261501550674438e-01" nType="0">
          <Node pos="l" depth="2" NCoef="0" IVar="-1" Cut="0.0000000000000000e+00" cType="1" res="-3.9792919415049255e-04" rms="4.4199553132057190e-01" purity="5.1961773633956909e-01" nType="-99"/>
          <Node pos="r" depth="2" NCoef="0" IVar="-1" Cut="0.0000000000000000e+00" cType="1" res="-2.3642189335078001e-03" rms="4.5180264115333557e-01" purity="5.2893376350402832e-01" nType="-99"/>
        </Node>
      </Node>
    </BinaryTree>
    <BinaryTree type="DecisionTree" boostWeight="1.0000000000000000e+00" itree="635">
      <Node pos="s" depth="0" NCoef="0" IVar="0" Cut="-1.6225537657737732e-01" cType="1" res="2.0922757685184479e-03" rms="4.4731083512306213e-01" purity="5.0595545768737793e-01" nType="0">
        <Node pos="l" depth="1" NCoef="0" IVar="-1" Cut="0.0000000000000000e+00" cType="1" res="-4.0536955930292606e-03" rms="4.1189464926719666e-01" purity="2.6158985495567322e-01" nType="-99"/>
        <Node pos="r" depth="1" NCoef="0" IVar="3" Cut="2.3526272177696228e-01" cType="1" res="5.2939821034669876e-03" rms="4.4958263635635376e-01" purity="5.2354395389556885e-01" nType="0">
          <Node pos="l" depth="2" NCoef="0" IVar="-1" Cut="0.0000000000000000e+00" cType="1" res="1.7813418526202440e-04" rms="4.4963186979293823e-01" purity="5.1709473133087158e-01" nType="-99"/>
          <Node pos="r" depth="2" NCoef="0" IVar="-1" Cut="0.0000000000000000e+00" cType="1" res="2.8885072097182274e-03" rms="4.4711384177207947e-01" purity="6.1268115043640137e-01" nType="-99"/>
        </Node>
      </Node>
    </BinaryTree>
    <BinaryTree type="DecisionTree" boostWeight="1.0000000000000000e+00" itree="636">
      <Node pos="s" depth="0" NCoef="0" IVar="3" Cut="-4.8140205442905426e-02" cType="1" res="8.2103786990046501e-03" rms="4.4828626513481140e-01" purity="5.0890004634857178e-01" nType="0">
        <Node pos="l" depth="1" NCoef="0" IVar="3" Cut="-8.7617270648479462e-02" cType="1" res="1.9655382260680199e-02" rms="4.4727382063865662e-01" purity="4.8699098825454712e-01" nType="0">
          <Node pos="l" depth="2" NCoef="0" IVar="-1" Cut="0.0000000000000000e+00" cType="1" res="6.6685903584584594e-04" rms="4.4551968574523926e-01" purity="4.6400266885757446e-01" nType="-99"/>
          <Node pos="r" depth="2" NCoef="0" IVar="-1" Cut="0.0000000000000000e+00" cType="1" res="2.5540068745613098e-03" rms="4.4935327768325806e-01" purity="5.2049785852432251e-01" nType="-99"/>
        </Node>
        <Node pos="r" depth="1" NCoef="0" IVar="5" Cut="2.0647014025598764e-03" cType="1" res="2.4083792231976986e-03" rms="4.4868713617324829e-01" purity="5.2000671625137329e-01" nType="0">
          <Node pos="l" depth="2" NCoef="0" IVar="-1" Cut="0.0000000000000000e+00" cType="1" res="8.8166794739663601e-04" rms="4.4481238722801208e-01" purity="5.7261621952056885e-01" nType="-99"/>
          <Node pos="r" depth="2" NCoef="0" IVar="-1" Cut="0.0000000000000000e+00" cType="1" res="-1.4821733348071575e-03" rms="4.5665198564529419e-01" purity="3.9873161911964417e-01" nType="-99"/>
        </Node>
      </Node>
    </BinaryTree>
    <BinaryTree type="DecisionTree" boostWeight="1.0000000000000000e+00" itree="637">
      <Node pos="s" depth="0" NCoef="0" IVar="5" Cut="5.1617698045447469e-04" cType="1" res="7.8631024807691574e-03" rms="4.5144721865653992e-01" purity="5.0657474994659424e-01" nType="0">
        <Node pos="l" depth="1" NCoef="0" IVar="1" Cut="9.6027702093124390e-01" cType="1" res="-9.6182329580187798e-03" rms="4.2776426672935486e-01" purity="6.3854163885116577e-01" nType="0">
          <Node pos="l" depth="2" NCoef="0" IVar="-1" Cut="0.0000000000000000e+00" cType="1" res="-1.8201931379735470e-03" rms="4.5102706551551819e-01" purity="5.0425159931182861e-01" nType="-99"/>
          <Node pos="r" depth="2" NCoef="0" IVar="-1" Cut="0.0000000000000000e+00" cType="1" res="4.1327287908643484e-04" rms="4.0340000391006470e-01" purity="7.6857048273086548e-01" nType="-99"/>
        </Node>
        <Node pos="r" depth="1" NCoef="0" IVar="4" Cut="4.7490277886390686e-01" cType="1" res="1.5088858082890511e-02" rms="4.6068730950355530e-01" purity="4.5202732086181641e-01" nType="0">
          <Node pos="l" depth="2" NCoef="0" IVar="-1" Cut="0.0000000000000000e+00" cType="1" res="1.6469851834699512e-03" rms="4.5865476131439209e-01" purity="4.5114576816558838e-01" nType="-99"/>
          <Node pos="r" depth="2" NCoef="0" IVar="-1" Cut="0.0000000000000000e+00" cType="1" res="-3.5557011869968846e-05" rms="4.6413218975067139e-01" purity="4.5370534062385559e-01" nType="-99"/>
        </Node>
      </Node>
    </BinaryTree>
    <BinaryTree type="DecisionTree" boostWeight="1.0000000000000000e+00" itree="638">
      <Node pos="s" depth="0" NCoef="0" IVar="6" Cut="2.0037205219268799e+00" cType="1" res="-5.0266605103388429e-04" rms="4.5172035694122314e-01" purity="5.0141185522079468e-01" nType="0">
        <Node pos="l" depth="1" NCoef="0" IVar="7" Cut="4.3884193897247314e-01" cType="1" res="1.3826154172420502e-03" rms="4.5382097363471985e-01" purity="5.0766593217849731e-01" nType="0">
          <Node pos="l" depth="2" NCoef="0" IVar="-1" Cut="0.0000000000000000e+00" cType="1" res="1.5166272642090917e-03" rms="4.5118835568428040e-01" purity="4.7809153795242310e-01" nType="-99"/>
          <Node pos="r" depth="2" NCoef="0" IVar="-1" Cut="0.0000000000000000e+00" cType="1" res="-1.2329980381764472e-04" rms="4.5415845513343811e-01" purity="5.1234567165374756e-01" nType="-99"/>
        </Node>
        <Node pos="r" depth="1" NCoef="0" IVar="-1" Cut="0.0000000000000000e+00" cType="1" res="-2.5534306187182665e-03" rms="4.1431748867034912e-01" purity="3.9828032255172729e-01" nType="-99"/>
      </Node>
    </BinaryTree>
    <BinaryTree type="DecisionTree" boostWeight="1.0000000000000000e+00" itree="639">
      <Node pos="s" depth="0" NCoef="0" IVar="5" Cut="2.1937438286840916e-03" cType="1" res="3.2798233442008495e-03" rms="4.5325872302055359e-01" purity="5.0173610448837280e-01" nType="0">
        <Node pos="l" depth="1" NCoef="0" IVar="4" Cut="5.3511029481887817e-01" cType="1" res="-2.5651901960372925e-03" rms="4.4936698675155640e-01" purity="5.3773981332778931e-01" nType="0">
          <Node pos="l" depth="2" NCoef="0" IVar="-1" Cut="0.0000000000000000e+00" cType="1" res="2.0043744007125497e-04" rms="4.4977709650993347e-01" purity="5.3217792510986328e-01" nType="-99"/>
          <Node pos="r" depth="2" NCoef="0" IVar="-1" Cut="0.0000000000000000e+00" cType="1" res="-1.3386836508288980e-03" rms="4.4779214262962341e-01" purity="5.5408042669296265e-01" nType="-99"/>
        </Node>
        <Node pos="r" depth="1" NCoef="0" IVar="0" Cut="2.2934572696685791e+00" cType="1" res="1.7446618527173996e-02" rms="4.6224895119667053e-01" purity="4.1447243094444275e-01" nType="0">
          <Node pos="l" depth="2" NCoef="0" IVar="-1" Cut="0.0000000000000000e+00" cType="1" res="3.4209433943033218e-04" rms="4.6112698316574097e-01" purity="3.6134329438209534e-01" nType="-99"/>
          <Node pos="r" depth="2" NCoef="0" IVar="-1" Cut="0.0000000000000000e+00" cType="1" res="4.0043932385742664e-03" rms="4.6305474638938904e-01" purity="6.3026589155197144e-01" nType="-99"/>
        </Node>
      </Node>
    </BinaryTree>
    <BinaryTree type="DecisionTree" boostWeight="1.0000000000000000e+00" itree="640">
      <Node pos="s" depth="0" NCoef="0" IVar="2" Cut="3.4827755737304688e+02" cType="1" res="4.0017190622165799e-04" rms="4.4796586036682129e-01" purity="5.0008606910705566e-01" nType="0">
        <Node pos="l" depth="1" NCoef="0" IVar="2" Cut="1.9838902282714844e+02" cType="1" res="-8.2171196117997169e-03" rms="4.4923222064971924e-01" purity="4.1786286234855652e-01" nType="0">
          <Node pos="l" depth="2" NCoef="0" IVar="-1" Cut="0.0000000000000000e+00" cType="1" res="-5.4215262643992901e-03" rms="3.7680882215499878e-01" purity="2.1280288696289062e-01" nType="-99"/>
          <Node pos="r" depth="2" NCoef="0" IVar="-1" Cut="0.0000000000000000e+00" cType="1" res="-2.8202045359648764e-04" rms="4.5597672462463379e-01" purity="4.3948847055435181e-01" nType="-99"/>
        </Node>
        <Node pos="r" depth="1" NCoef="0" IVar="6" Cut="1.1225810050964355e+00" cType="1" res="1.5253454446792603e-02" rms="4.4538342952728271e-01" purity="6.4181101322174072e-01" nType="0">
          <Node pos="l" depth="2" NCoef="0" IVar="-1" Cut="0.0000000000000000e+00" cType="1" res="2.5436116266064346e-04" rms="4.4732552766799927e-01" purity="6.4179104566574097e-01" nType="-99"/>
          <Node pos="r" depth="2" NCoef="0" IVar="-1" Cut="0.0000000000000000e+00" cType="1" res="2.1423038560897112e-03" rms="4.4181069731712341e-01" purity="6.4184170961380005e-01" nType="-99"/>
        </Node>
      </Node>
    </BinaryTree>
    <BinaryTree type="DecisionTree" boostWeight="1.0000000000000000e+00" itree="641">
      <Node pos="s" depth="0" NCoef="0" IVar="5" Cut="2.8221833053976297e-03" cType="1" res="-3.0672454740852118e-03" rms="4.4830441474914551e-01" purity="4.9652153253555298e-01" nType="0">
        <Node pos="l" depth="1" NCoef="0" IVar="1" Cut="9.1783487796783447e-01" cType="1" res="-7.9238694161176682e-03" rms="4.4544190168380737e-01" purity="5.1481562852859497e-01" nType="0">
          <Node pos="l" depth="2" NCoef="0" IVar="-1" Cut="0.0000000000000000e+00" cType="1" res="-1.3216787483543158e-03" rms="4.4722762703895569e-01" purity="4.0271347761154175e-01" nType="-99"/>
          <Node pos="r" depth="2" NCoef="0" IVar="-1" Cut="0.0000000000000000e+00" cType="1" res="2.3709778906777501e-04" rms="4.4311091303825378e-01" purity="6.4364910125732422e-01" nType="-99"/>
        </Node>
        <Node pos="r" depth="1" NCoef="0" IVar="1" Cut="8.6085933446884155e-01" cType="1" res="1.8487945199012756e-02" rms="4.6017637848854065e-01" purity="4.1532662510871887e-01" nType="0">
          <Node pos="l" depth="2" NCoef="0" IVar="-1" Cut="0.0000000000000000e+00" cType="1" res="2.5212210603058338e-03" rms="4.6622091531753540e-01" purity="4.1638725996017456e-01" nType="-99"/>
          <Node pos="r" depth="2" NCoef="0" IVar="-1" Cut="0.0000000000000000e+00" cType="1" res="1.0935929458355531e-04" rms="4.5318350195884705e-01" purity="4.1422346234321594e-01" nType="-99"/>
        </Node>
      </Node>
    </BinaryTree>
    <BinaryTree type="DecisionTree" boostWeight="1.0000000000000000e+00" itree="642">
      <Node pos="s" depth="0" NCoef="0" IVar="5" Cut="2.6690084487199783e-03" cType="1" res="-7.6772905886173248e-03" rms="4.5138010382652283e-01" purity="4.9400004744529724e-01" nType="0">
        <Node pos="l" depth="1" NCoef="0" IVar="3" Cut="7.7961146831512451e-02" cType="1" res="-1.1236341670155525e-02" rms="4.4951984286308289e-01" purity="5.1668924093246460e-01" nType="0">
          <Node pos="l" depth="2" NCoef="0" IVar="-1" Cut="0.0000000000000000e+00" cType="1" res="-3.3066989271901548e-04" rms="4.4567394256591797e-01" purity="5.0849747657775879e-01" nType="-99"/>
          <Node pos="r" depth="2" NCoef="0" IVar="-1" Cut="0.0000000000000000e+00" cType="1" res="-1.7451111925765872e-03" rms="4.5673376321792603e-01" purity="5.3288751840591431e-01" nType="-99"/>
        </Node>
        <Node pos="r" depth="1" NCoef="0" IVar="5" Cut="3.0210344120860100e-03" cType="1" res="6.2867007218301296e-03" rms="4.5833912491798401e-01" purity="4.0497851371765137e-01" nType="0">
          <Node pos="l" depth="2" NCoef="0" IVar="-1" Cut="0.0000000000000000e+00" cType="1" res="2.4953098036348820e-03" rms="4.6370184421539307e-01" purity="4.4443470239639282e-01" nType="-99"/>
          <Node pos="r" depth="2" NCoef="0" IVar="-1" Cut="0.0000000000000000e+00" cType="1" res="-4.5321867219172418e-04" rms="4.5545503497123718e-01" purity="3.8809281587600708e-01" nType="-99"/>
        </Node>
      </Node>
    </BinaryTree>
    <BinaryTree type="DecisionTree" boostWeight="1.0000000000000000e+00" itree="643">
      <Node pos="s" depth="0" NCoef="0" IVar="5" Cut="7.7426416100934148e-04" cType="1" res="-5.5214279564097524e-04" rms="4.5113775134086609e-01" purity="5.0119632482528687e-01" nType="0">
        <Node pos="l" depth="1" NCoef="0" IVar="1" Cut="9.7549051046371460e-01" cType="1" res="-1.2010612525045872e-02" rms="4.3774160742759705e-01" purity="6.0858374834060669e-01" nType="0">
          <Node pos="l" depth="2" NCoef="0" IVar="-1" Cut="0.0000000000000000e+00" cType="1" res="-1.3538650237023830e-03" rms="4.5223140716552734e-01" purity="5.4961419105529785e-01" nType="-99"/>
          <Node pos="r" depth="2" NCoef="0" IVar="-1" Cut="0.0000000000000000e+00" cType="1" res="9.6135208150371909e-04" rms="3.8323989510536194e-01" purity="8.0985456705093384e-01" nType="-99"/>
        </Node>
        <Node pos="r" depth="1" NCoef="0" IVar="5" Cut="2.9581738635897636e-03" cType="1" res="6.3746860250830650e-03" rms="4.5890763401985168e-01" purity="4.3627887964248657e-01" nType="0">
          <Node pos="l" depth="2" NCoef="0" IVar="-1" Cut="0.0000000000000000e+00" cType="1" res="8.8862807024270296e-04" rms="4.6006256341934204e-01" purity="4.5614621043205261e-01" nType="-99"/>
          <Node pos="r" depth="2" NCoef="0" IVar="-1" Cut="0.0000000000000000e+00" cType="1" res="-9.5671758754178882e-04" rms="4.5478489995002747e-01" purity="3.7492263317108154e-01" nType="-99"/>
        </Node>
      </Node>
    </BinaryTree>
    <BinaryTree type="DecisionTree" boostWeight="1.0000000000000000e+00" itree="644">
      <Node pos="s" depth="0" NCoef="0" IVar="6" Cut="1.7695960998535156e+00" cType="1" res="-4.2089046910405159e-03" rms="4.5073431730270386e-01" purity="4.9541848897933960e-01" nType="0">
        <Node pos="l" depth="1" NCoef="0" IVar="5" Cut="3.5958753433078527e-03" cType="1" res="-1.6420652391389012e-03" rms="4.5338964462280273e-01" purity="5.0874078273773193e-01" nType="0">
          <Node pos="l" depth="2" NCoef="0" IVar="-1" Cut="0.0000000000000000e+00" cType="1" res="4.6270437451312318e-05" rms="4.5286968350410461e-01" purity="5.1734280586242676e-01" nType="-99"/>
          <Node pos="r" depth="2" NCoef="0" IVar="-1" Cut="0.0000000000000000e+00" cType="1" res="-2.7059628628194332e-03" rms="4.5995566248893738e-01" purity="3.7449878454208374e-01" nType="-99"/>
        </Node>
        <Node pos="r" depth="1" NCoef="0" IVar="7" Cut="5.9661418199539185e-01" cType="1" res="-2.3662697523832321e-02" rms="4.2957898974418640e-01" purity="3.9445054531097412e-01" nType="0">
          <Node pos="l" depth="2" NCoef="0" IVar="-1" Cut="0.0000000000000000e+00" cType="1" res="-4.4709425419569016e-03" rms="4.2114827036857605e-01" purity="3.1210452318191528e-01" nType="-99"/>
          <Node pos="r" depth="2" NCoef="0" IVar="-1" Cut="0.0000000000000000e+00" cType="1" res="1.3093990855850279e-04" rms="4.3581995368003845e-01" purity="4.7176873683929443e-01" nType="-99"/>
        </Node>
      </Node>
    </BinaryTree>
    <BinaryTree type="DecisionTree" boostWeight="1.0000000000000000e+00" itree="645">
      <Node pos="s" depth="0" NCoef="0" IVar="5" Cut="3.0316645279526711e-03" cType="1" res="1.3450213009491563e-03" rms="4.5033028721809387e-01" purity="5.0034767389297485e-01" nType="0">
        <Node pos="l" depth="1" NCoef="0" IVar="2" Cut="5.6625885009765625e+02" cType="1" res="-3.8304906338453293e-03" rms="4.4814726710319519e-01" purity="5.1301842927932739e-01" nType="0">
          <Node pos="l" depth="2" NCoef="0" IVar="-1" Cut="0.0000000000000000e+00" cType="1" res="-4.5157028944231570e-04" rms="4.5093354582786560e-01" purity="4.9405118823051453e-01" nType="-99"/>
          <Node pos="r" depth="2" NCoef="0" IVar="-1" Cut="0.0000000000000000e+00" cType="1" res="1.8257849151268601e-03" rms="4.1062584519386292e-01" purity="7.4990588426589966e-01" nType="-99"/>
        </Node>
        <Node pos="r" depth="1" NCoef="0" IVar="6" Cut="1.3210104703903198e+00" cType="1" res="3.1503725796937943e-02" rms="4.6169376373291016e-01" purity="4.2651319503784180e-01" nType="0">
          <Node pos="l" depth="2" NCoef="0" IVar="-1" Cut="0.0000000000000000e+00" cType="1" res="3.2228513155132532e-03" rms="4.7510412335395813e-01" purity="4.7882223129272461e-01" nType="-99"/>
          <Node pos="r" depth="2" NCoef="0" IVar="-1" Cut="0.0000000000000000e+00" cType="1" res="2.1281761291902512e-04" rms="4.3778628110885620e-01" purity="3.4260371327400208e-01" nType="-99"/>
        </Node>
      </Node>
    </BinaryTree>
    <BinaryTree type="DecisionTree" boostWeight="1.0000000000000000e+00" itree="646">
      <Node pos="s" depth="0" NCoef="0" IVar="1" Cut="8.5997098684310913e-01" cType="1" res="-2.7065749745815992e-03" rms="4.4961678981781006e-01" purity="4.9727427959442139e-01" nType="0">
        <Node pos="l" depth="1" NCoef="0" IVar="7" Cut="6.4694684743881226e-01" cType="1" res="2.0626600831747055e-02" rms="4.5632132887840271e-01" purity="3.8824233412742615e-01" nType="0">
          <Node pos="l" depth="2" NCoef="0" IVar="-1" Cut="0.0000000000000000e+00" cType="1" res="-2.5158730568364263e-04" rms="4.4606831669807434e-01" purity="3.3370712399482727e-01" nType="-99"/>
          <Node pos="r" depth="2" NCoef="0" IVar="-1" Cut="0.0000000000000000e+00" cType="1" res="3.2309535890817642e-03" rms="4.6600404381752014e-01" purity="4.4858157634735107e-01" nType="-99"/>
        </Node>
        <Node pos="r" depth="1" NCoef="0" IVar="5" Cut="2.7159971650689840e-03" cType="1" res="-5.9579950757324696e-03" rms="4.4857823848724365e-01" purity="5.1246756315231323e-01" nType="0">
          <Node pos="l" depth="2" NCoef="0" IVar="-1" Cut="0.0000000000000000e+00" cType="1" res="-1.7592670337762684e-04" rms="4.4943609833717346e-01" purity="5.3118640184402466e-01" nType="-99"/>
          <Node pos="r" depth="2" NCoef="0" IVar="-1" Cut="0.0000000000000000e+00" cType="1" res="-2.3054000921547413e-03" rms="4.4147834181785583e-01" purity="3.7695112824440002e-01" nType="-99"/>
        </Node>
      </Node>
    </BinaryTree>
    <BinaryTree type="DecisionTree" boostWeight="1.0000000000000000e+00" itree="647">
      <Node pos="s" depth="0" NCoef="0" IVar="1" Cut="9.3312817811965942e-01" cType="1" res="-4.7754007391631603e-03" rms="4.4932830333709717e-01" purity="4.9368292093276978e-01" nType="0">
        <Node pos="l" depth="1" NCoef="0" IVar="3" Cut="-2.8381191194057465e-02" cType="1" res="-1.0997021570801735e-02" rms="4.5583909749984741e-01" purity="4.1375631093978882e-01" nType="0">
          <Node pos="l" depth="2" NCoef="0" IVar="-1" Cut="0.0000000000000000e+00" cType="1" res="-1.7937520751729608e-03" rms="4.3964707851409912e-01" purity="3.6981186270713806e-01" nType="-99"/>
          <Node pos="r" depth="2" NCoef="0" IVar="-1" Cut="0.0000000000000000e+00" cType="1" res="-2.3490315652452409e-04" rms="4.6571594476699829e-01" purity="4.4179862737655640e-01" nType="-99"/>
        </Node>
        <Node pos="r" depth="1" NCoef="0" IVar="0" Cut="3.0999674797058105e+00" cType="1" res="1.0584671981632710e-02" rms="4.3245211243629456e-01" purity="6.9100749492645264e-01" nType="0">
          <Node pos="l" depth="2" NCoef="0" IVar="-1" Cut="0.0000000000000000e+00" cType="1" res="1.5054232208058238e-03" rms="4.4871836900711060e-01" purity="6.4722108840942383e-01" nType="-99"/>
          <Node pos="r" depth="2" NCoef="0" IVar="-1" Cut="0.0000000000000000e+00" cType="1" res="-6.7605543881654739e-04" rms="4.0386536717414856e-01" purity="7.6219034194946289e-01" nType="-99"/>
        </Node>
      </Node>
    </BinaryTree>
    <BinaryTree type="DecisionTree" boostWeight="1.0000000000000000e+00" itree="648">
      <Node pos="s" depth="0" NCoef="0" IVar="1" Cut="8.7925660610198975e-01" cType="1" res="5.6759803555905819e-03" rms="4.5051643252372742e-01" purity="5.0615435838699341e-01" nType="0">
        <Node pos="l" depth="1" NCoef="0" IVar="7" Cut="4.7832462191581726e-01" cType="1" res="-6.8374206312000751e-03" rms="4.5044729113578796e-01" purity="3.6733797192573547e-01" nType="0">
          <Node pos="l" depth="2" NCoef="0" IVar="-1" Cut="0.0000000000000000e+00" cType="1" res="1.8523659091442823e-03" rms="4.4477224349975586e-01" purity="3.6428508162498474e-01" nType="-99"/>
          <Node pos="r" depth="2" NCoef="0" IVar="-1" Cut="0.0000000000000000e+00" cType="1" res="-1.1839374201372266e-03" rms="4.5168578624725342e-01" purity="3.6821863055229187e-01" nType="-99"/>
        </Node>
        <Node pos="r" depth="1" NCoef="0" IVar="4" Cut="3.7233558297157288e-01" cType="1" res="1.1413546279072762e-02" rms="4.5043191313743591e-01" purity="5.6980359554290771e-01" nType="0">
          <Node pos="l" depth="2" NCoef="0" IVar="-1" Cut="0.0000000000000000e+00" cType="1" res="-3.0791576136834919e-04" rms="4.5113211870193481e-01" purity="5.2753323316574097e-01" nType="-99"/>
          <Node pos="r" depth="2" NCoef="0" IVar="-1" Cut="0.0000000000000000e+00" cType="1" res="1.7245222115889192e-03" rms="4.4939604401588440e-01" purity="6.0587328672409058e-01" nType="-99"/>
        </Node>
      </Node>
    </BinaryTree>
    <BinaryTree type="DecisionTree" boostWeight="1.0000000000000000e+00" itree="649">
      <Node pos="s" depth="0" NCoef="0" IVar="7" Cut="4.7631698846817017e-01" cType="1" res="4.2399205267429352e-03" rms="4.5168682932853699e-01" purity="5.0221604108810425e-01" nType="0">
        <Node pos="l" depth="1" NCoef="0" IVar="3" Cut="4.8916004598140717e-02" cType="1" res="2.1216083317995071e-02" rms="4.5117434859275818e-01" purity="4.6225646138191223e-01" nType="0">
          <Node pos="l" depth="2" NCoef="0" IVar="-1" Cut="0.0000000000000000e+00" cType="1" res="-7.9701573122292757e-04" rms="4.1421315073966980e-01" purity="2.7435642480850220e-01" nType="-99"/>
          <Node pos="r" depth="2" NCoef="0" IVar="-1" Cut="0.0000000000000000e+00" cType="1" res="2.1492359228432178e-03" rms="4.6315374970436096e-01" purity="5.2905189990997314e-01" nType="-99"/>
        </Node>
        <Node pos="r" depth="1" NCoef="0" IVar="7" Cut="6.5978181362152100e-01" cType="1" res="5.5162392527563497e-05" rms="4.5171505212783813e-01" purity="5.1206642389297485e-01" nType="0">
          <Node pos="l" depth="2" NCoef="0" IVar="-1" Cut="0.0000000000000000e+00" cType="1" res="-9.3751651002094150e-04" rms="4.5059272646903992e-01" purity="4.5063552260398865e-01" nType="-99"/>
          <Node pos="r" depth="2" NCoef="0" IVar="-1" Cut="0.0000000000000000e+00" cType="1" res="5.8803788851946592e-04" rms="4.5226472616195679e-01" purity="5.5278879404067993e-01" nType="-99"/>
        </Node>
      </Node>
    </BinaryTree>
    <BinaryTree type="DecisionTree" boostWeight="1.0000000000000000e+00" itree="650">
      <Node pos="s" depth="0" NCoef="0" IVar="6" Cut="1.0243303775787354e+00" cType="1" res="4.4954651966691017e-03" rms="4.5208370685577393e-01" purity="5.0275719165802002e-01" nType="0">
        <Node pos="l" depth="1" NCoef="0" IVar="2" Cut="3.9411688232421875e+02" cType="1" res="-7.0380503311753273e-03" rms="4.5808628201484680e-01" purity="5.4601603746414185e-01" nType="0">
          <Node pos="l" depth="2" NCoef="0" IVar="-1" Cut="0.0000000000000000e+00" cType="1" res="4.8216656432487071e-04" rms="4.6090084314346313e-01" purity="4.9852851033210754e-01" nType="-99"/>
          <Node pos="r" depth="2" NCoef="0" IVar="-1" Cut="0.0000000000000000e+00" cType="1" res="-2.2784599568694830e-03" rms="4.5179951190948486e-01" purity="6.3260358572006226e-01" nType="-99"/>
        </Node>
        <Node pos="r" depth="1" NCoef="0" IVar="2" Cut="3.1292861938476562e+02" cType="1" res="1.1536224745213985e-02" rms="4.4823402166366577e-01" purity="4.7634938359260559e-01" nType="0">
          <Node pos="l" depth="2" NCoef="0" IVar="-1" Cut="0.0000000000000000e+00" cType="1" res="3.2348211220778467e-07" rms="4.4662198424339294e-01" purity="3.8259711861610413e-01" nType="-99"/>
          <Node pos="r" depth="2" NCoef="0" IVar="-1" Cut="0.0000000000000000e+00" cType="1" res="1.8325492274016142e-03" rms="4.5000794529914856e-01" purity="6.0967928171157837e-01" nType="-99"/>
        </Node>
      </Node>
    </BinaryTree>
    <BinaryTree type="DecisionTree" boostWeight="1.0000000000000000e+00" itree="651">
      <Node pos="s" depth="0" NCoef="0" IVar="6" Cut="1.2024012804031372e+00" cType="1" res="-1.8640467897057533e-03" rms="4.5081713795661926e-01" purity="4.9610668420791626e-01" nType="0">
        <Node pos="l" depth="1" NCoef="0" IVar="1" Cut="9.3710917234420776e-01" cType="1" res="-9.3434294685721397e-03" rms="4.5434558391571045e-01" purity="5.3068560361862183e-01" nType="0">
          <Node pos="l" depth="2" NCoef="0" IVar="-1" Cut="0.0000000000000000e+00" cType="1" res="-1.1573598021641374e-03" rms="4.6497762203216553e-01" purity="4.5441117882728577e-01" nType="-99"/>
          <Node pos="r" depth="2" NCoef="0" IVar="-1" Cut="0.0000000000000000e+00" cType="1" res="7.3154567508026958e-04" rms="4.2415148019790649e-01" purity="7.3363888263702393e-01" nType="-99"/>
        </Node>
        <Node pos="r" depth="1" NCoef="0" IVar="2" Cut="3.0905874633789062e+02" cType="1" res="6.4938431605696678e-03" rms="4.4669315218925476e-01" purity="4.5746618509292603e-01" nType="0">
          <Node pos="l" depth="2" NCoef="0" IVar="-1" Cut="0.0000000000000000e+00" cType="1" res="-2.0411280274856836e-04" rms="4.4184565544128418e-01" purity="3.6637780070304871e-01" nType="-99"/>
          <Node pos="r" depth="2" NCoef="0" IVar="-1" Cut="0.0000000000000000e+00" cType="1" res="1.3815865386277437e-03" rms="4.5406678318977356e-01" purity="6.0520082712173462e-01" nType="-99"/>
        </Node>
      </Node>
    </BinaryTree>
    <BinaryTree type="DecisionTree" boostWeight="1.0000000000000000e+00" itree="652">
      <Node pos="s" depth="0" NCoef="0" IVar="7" Cut="3.5703206062316895e-01" cType="1" res="-4.3083698983537033e-05" rms="4.5063537359237671e-01" purity="4.9927714467048645e-01" nType="0">
        <Node pos="l" depth="1" NCoef="0" IVar="-1" Cut="0.0000000000000000e+00" cType="1" res="2.5336693506687880e-03" rms="4.7126677632331848e-01" purity="5.0025939941406250e-01" nType="-99"/>
        <Node pos="r" depth="1" NCoef="0" IVar="1" Cut="9.0625458955764771e-01" cType="1" res="-2.1633503492921591e-03" rms="4.4932803511619568e-01" purity="4.9922066926956177e-01" nType="0">
          <Node pos="l" depth="2" NCoef="0" IVar="-1" Cut="0.0000000000000000e+00" cType="1" res="-8.4143900312483311e-04" rms="4.5404052734375000e-01" purity="3.8540536165237427e-01" nType="-99"/>
          <Node pos="r" depth="2" NCoef="0" IVar="-1" Cut="0.0000000000000000e+00" cType="1" res="5.4417294450104237e-04" rms="4.4387081265449524e-01" purity="6.2449049949645996e-01" nType="-99"/>
        </Node>
      </Node>
    </BinaryTree>
    <BinaryTree type="DecisionTree" boostWeight="1.0000000000000000e+00" itree="653">
      <Node pos="s" depth="0" NCoef="0" IVar="3" Cut="-1.5109102241694927e-02" cType="1" res="4.8708883114159107e-03" rms="4.5179662108421326e-01" purity="5.0307345390319824e-01" nType="0">
        <Node pos="l" depth="1" NCoef="0" IVar="0" Cut="8.5485416650772095e-01" cType="1" res="1.4005088247358799e-02" rms="4.5035761594772339e-01" purity="4.8443606495857239e-01" nType="0">
          <Node pos="l" depth="2" NCoef="0" IVar="-1" Cut="0.0000000000000000e+00" cType="1" res="3.2384456135332584e-03" rms="4.4570183753967285e-01" purity="3.5151016712188721e-01" nType="-99"/>
          <Node pos="r" depth="2" NCoef="0" IVar="-1" Cut="0.0000000000000000e+00" cType="1" res="2.7185777435079217e-04" rms="4.5198583602905273e-01" purity="5.4199749231338501e-01" nType="-99"/>
        </Node>
        <Node pos="r" depth="1" NCoef="0" IVar="6" Cut="1.5595015287399292e+00" cType="1" res="-2.1163374185562134e-03" rms="4.5276990532875061e-01" purity="5.1733022928237915e-01" nType="0">
          <Node pos="l" depth="2" NCoef="0" IVar="-1" Cut="0.0000000000000000e+00" cType="1" res="-5.2949128439649940e-04" rms="4.5653447508811951e-01" purity="5.3135746717453003e-01" nType="-99"/>
          <Node pos="r" depth="2" NCoef="0" IVar="-1" Cut="0.0000000000000000e+00" cType="1" res="1.1803376255556941e-03" rms="4.3962159752845764e-01" purity="4.7098863124847412e-01" nType="-99"/>
        </Node>
      </Node>
    </BinaryTree>
    <BinaryTree type="DecisionTree" boostWeight="1.0000000000000000e+00" itree="654">
      <Node pos="s" depth="0" NCoef="0" IVar="3" Cut="2.3359045386314392e-01" cType="1" res="-1.4769628178328276e-03" rms="4.5058262348175049e-01" purity="5.0190353393554688e-01" nType="0">
        <Node pos="l" depth="1" NCoef="0" IVar="1" Cut="9.3711185455322266e-01" cType="1" res="5.5599253391847014e-04" rms="4.4993892312049866e-01" purity="4.9998819828033447e-01" nType="0">
          <Node pos="l" depth="2" NCoef="0" IVar="-1" Cut="0.0000000000000000e+00" cType="1" res="-2.4338743241969496e-04" rms="4.5775610208511353e-01" purity="4.2358809709548950e-01" nType="-99"/>
          <Node pos="r" depth="2" NCoef="0" IVar="-1" Cut="0.0000000000000000e+00" cType="1" res="7.7936874004080892e-04" rms="4.2814004421234131e-01" purity="7.0448958873748779e-01" nType="-99"/>
        </Node>
        <Node pos="r" depth="1" NCoef="0" IVar="-1" Cut="0.0000000000000000e+00" cType="1" res="-2.1409725304692984e-03" rms="4.5881783962249756e-01" purity="5.2973061800003052e-01" nType="-99"/>
      </Node>
    </BinaryTree>
    <BinaryTree type="DecisionTree" boostWeight="1.0000000000000000e+00" itree="655">
      <Node pos="s" depth="0" NCoef="0" IVar="1" Cut="9.0625458955764771e-01" cType="1" res="-1.3277307152748108e-04" rms="4.5020613074302673e-01" purity="4.9939808249473572e-01" nType="0">
        <Node pos="l" depth="1" NCoef="0" IVar="3" Cut="1.1649525165557861e-01" cType="1" res="-6.6893855109810829e-03" rms="4.5368531346321106e-01" purity="3.8968971371650696e-01" nType="0">
          <Node pos="l" depth="2" NCoef="0" IVar="-1" Cut="0.0000000000000000e+00" cType="1" res="6.3579769630450755e-05" rms="4.5014539361000061e-01" purity="3.8313841819763184e-01" nType="-99"/>
          <Node pos="r" depth="2" NCoef="0" IVar="-1" Cut="0.0000000000000000e+00" cType="1" res="-1.9639600068330765e-03" rms="4.6293810009956360e-01" purity="4.0832355618476868e-01" nType="-99"/>
        </Node>
        <Node pos="r" depth="1" NCoef="0" IVar="5" Cut="1.0438280878588557e-03" cType="1" res="7.2312415577471256e-03" rms="4.4615131616592407e-01" purity="6.2261623144149780e-01" nType="0">
          <Node pos="l" depth="2" NCoef="0" IVar="-1" Cut="0.0000000000000000e+00" cType="1" res="8.7931861344259232e-05" rms="4.4292095303535461e-01" purity="6.3814073801040649e-01" nType="-99"/>
          <Node pos="r" depth="2" NCoef="0" IVar="-1" Cut="0.0000000000000000e+00" cType="1" res="2.3418092168867588e-03" rms="4.6032187342643738e-01" purity="5.4774653911590576e-01" nType="-99"/>
        </Node>
      </Node>
    </BinaryTree>
    <BinaryTree type="DecisionTree" boostWeight="1.0000000000000000e+00" itree="656">
      <Node pos="s" depth="0" NCoef="0" IVar="6" Cut="1.9146850109100342e+00" cType="1" res="1.2130165123380721e-04" rms="4.4968983530998230e-01" purity="5.0399821996688843e-01" nType="0">
        <Node pos="l" depth="1" NCoef="0" IVar="5" Cut="5.0627347081899643e-04" cType="1" res="2.6525815483182669e-03" rms="4.5186665654182434e-01" purity="5.1384156942367554e-01" nType="0">
          <Node pos="l" depth="2" NCoef="0" IVar="-1" Cut="0.0000000000000000e+00" cType="1" res="-5.8105908101424575e-04" rms="4.2820841073989868e-01" purity="6.4826750755310059e-01" nType="-99"/>
          <Node pos="r" depth="2" NCoef="0" IVar="-1" Cut="0.0000000000000000e+00" cType="1" res="4.9550674157217145e-04" rms="4.6143379807472229e-01" purity="4.5700436830520630e-01" nType="-99"/>
        </Node>
        <Node pos="r" depth="1" NCoef="0" IVar="-1" Cut="0.0000000000000000e+00" cType="1" res="-2.6712869293987751e-03" rms="4.1978773474693298e-01" purity="3.7917169928550720e-01" nType="-99"/>
      </Node>
    </BinaryTree>
    <BinaryTree type="DecisionTree" boostWeight="1.0000000000000000e+00" itree="657">
      <Node pos="s" depth="0" NCoef="0" IVar="3" Cut="2.4126011133193970e-01" cType="1" res="3.2984060235321522e-03" rms="4.5089748501777649e-01" purity="5.0140196084976196e-01" nType="0">
        <Node pos="l" depth="1" NCoef="0" IVar="5" Cut="1.2904619507025927e-04" cType="1" res="5.5245780386030674e-03" rms="4.5042261481285095e-01" purity="5.0033116340637207e-01" nType="0">
          <Node pos="l" depth="2" NCoef="0" IVar="-1" Cut="0.0000000000000000e+00" cType="1" res="-1.0977385099977255e-03" rms="4.1130325198173523e-01" purity="7.2086441516876221e-01" nType="-99"/>
          <Node pos="r" depth="2" NCoef="0" IVar="-1" Cut="0.0000000000000000e+00" cType="1" res="6.0274288989603519e-04" rms="4.5597222447395325e-01" purity="4.6699851751327515e-01" nType="-99"/>
        </Node>
        <Node pos="r" depth="1" NCoef="0" IVar="-1" Cut="0.0000000000000000e+00" cType="1" res="-2.4478021077811718e-03" rms="4.5732560753822327e-01" purity="5.1993715763092041e-01" nType="-99"/>
      </Node>
    </BinaryTree>
    <BinaryTree type="DecisionTree" boostWeight="1.0000000000000000e+00" itree="658">
      <Node pos="s" depth="0" NCoef="0" IVar="4" Cut="3.2112339138984680e-01" cType="1" res="4.3132049031555653e-03" rms="4.5071327686309814e-01" purity="5.0245261192321777e-01" nType="0">
        <Node pos="l" depth="1" NCoef="0" IVar="5" Cut="5.1619875011965632e-04" cType="1" res="-6.8294084630906582e-03" rms="4.5003658533096313e-01" purity="4.6009811758995056e-01" nType="0">
          <Node pos="l" depth="2" NCoef="0" IVar="-1" Cut="0.0000000000000000e+00" cType="1" res="-2.5777469854801893e-03" rms="4.3294683098793030e-01" purity="5.6127285957336426e-01" nType="-99"/>
          <Node pos="r" depth="2" NCoef="0" IVar="-1" Cut="0.0000000000000000e+00" cType="1" res="2.9944340349175036e-04" rms="4.5607814192771912e-01" purity="4.2054426670074463e-01" nType="-99"/>
        </Node>
        <Node pos="r" depth="1" NCoef="0" IVar="4" Cut="4.0044242143630981e-01" cType="1" res="1.0989503003656864e-02" rms="4.5098635554313660e-01" purity="5.2783006429672241e-01" nType="0">
          <Node pos="l" depth="2" NCoef="0" IVar="-1" Cut="0.0000000000000000e+00" cType="1" res="2.3046648129820824e-03" rms="4.4910451769828796e-01" purity="5.3316628932952881e-01" nType="-99"/>
          <Node pos="r" depth="2" NCoef="0" IVar="-1" Cut="0.0000000000000000e+00" cType="1" res="3.1570799183100462e-04" rms="4.5133703947067261e-01" purity="5.2623671293258667e-01" nType="-99"/>
        </Node>
      </Node>
    </BinaryTree>
    <BinaryTree type="DecisionTree" boostWeight="1.0000000000000000e+00" itree="659">
      <Node pos="s" depth="0" NCoef="0" IVar="5" Cut="7.6924625318497419e-04" cType="1" res="7.5257010757923126e-04" rms="4.5008209347724915e-01" purity="5.0238537788391113e-01" nType="0">
        <Node pos="l" depth="1" NCoef="0" IVar="7" Cut="7.6080501079559326e-01" cType="1" res="-1.1697293259203434e-02" rms="4.3328979611396790e-01" purity="6.1104279756546021e-01" nType="0">
          <Node pos="l" depth="2" NCoef="0" IVar="-1" Cut="0.0000000000000000e+00" cType="1" res="-1.7951768822968006e-03" rms="4.4395953416824341e-01" purity="5.7114410400390625e-01" nType="-99"/>
          <Node pos="r" depth="2" NCoef="0" IVar="-1" Cut="0.0000000000000000e+00" cType="1" res="1.1875818017870188e-03" rms="4.0681961178779602e-01" purity="7.0101529359817505e-01" nType="-99"/>
        </Node>
        <Node pos="r" depth="1" NCoef="0" IVar="6" Cut="1.9228386878967285e+00" cType="1" res="8.1378249451518059e-03" rms="4.5959419012069702e-01" purity="4.3792983889579773e-01" nType="0">
          <Node pos="l" depth="2" NCoef="0" IVar="-1" Cut="0.0000000000000000e+00" cType="1" res="3.2051952439360321e-04" rms="4.6178966760635376e-01" purity="4.4070413708686829e-01" nType="-99"/>
          <Node pos="r" depth="2" NCoef="0" IVar="-1" Cut="0.0000000000000000e+00" cType="1" res="3.7546469829976559e-03" rms="4.3239769339561462e-01" purity="4.0710550546646118e-01" nType="-99"/>
        </Node>
      </Node>
    </BinaryTree>
    <BinaryTree type="DecisionTree" boostWeight="1.0000000000000000e+00" itree="660">
      <Node pos="s" depth="0" NCoef="0" IVar="5" Cut="2.1606264635920525e-03" cType="1" res="-6.3322256319224834e-03" rms="4.5036023855209351e-01" purity="4.9390363693237305e-01" nType="0">
        <Node pos="l" depth="1" NCoef="0" IVar="1" Cut="8.7543785572052002e-01" cType="1" res="-1.1857646517455578e-02" rms="4.4560807943344116e-01" purity="5.3102838993072510e-01" nType="0">
          <Node pos="l" depth="2" NCoef="0" IVar="-1" Cut="0.0000000000000000e+00" cType="1" res="-4.6725799329578876e-03" rms="4.1187098622322083e-01" purity="2.5921562314033508e-01" nType="-99"/>
          <Node pos="r" depth="2" NCoef="0" IVar="-1" Cut="0.0000000000000000e+00" cType="1" res="-5.7780183851718903e-04" rms="4.4847249984741211e-01" purity="5.5663508176803589e-01" nType="-99"/>
        </Node>
        <Node pos="r" depth="1" NCoef="0" IVar="4" Cut="3.8123914599418640e-01" cType="1" res="6.6495016217231750e-03" rms="4.6107223629951477e-01" purity="4.0668064355850220e-01" nType="0">
          <Node pos="l" depth="2" NCoef="0" IVar="-1" Cut="0.0000000000000000e+00" cType="1" res="1.6628369921818376e-03" rms="4.5993065834045410e-01" purity="4.0703520178794861e-01" nType="-99"/>
          <Node pos="r" depth="2" NCoef="0" IVar="-1" Cut="0.0000000000000000e+00" cType="1" res="-6.2896945746615529e-04" rms="4.6162575483322144e-01" purity="4.0634492039680481e-01" nType="-99"/>
        </Node>
      </Node>
    </BinaryTree>
    <BinaryTree type="DecisionTree" boostWeight="1.0000000000000000e+00" itree="661">
      <Node pos="s" depth="0" NCoef="0" IVar="3" Cut="1.5187790989875793e-01" cType="1" res="1.5321589307859540e-03" rms="4.5185866951942444e-01" purity="5.0193530321121216e-01" nType="0">
        <Node pos="l" depth="1" NCoef="0" IVar="6" Cut="1.7277832031250000e+00" cType="1" res="-3.9019067771732807e-03" rms="4.4902619719505310e-01" purity="4.8695990443229675e-01" nType="0">
          <Node pos="l" depth="2" NCoef="0" IVar="-1" Cut="0.0000000000000000e+00" cType="1" res="2.2033613277017139e-05" rms="4.5303428173065186e-01" purity="5.0473827123641968e-01" nType="-99"/>
          <Node pos="r" depth="2" NCoef="0" IVar="-1" Cut="0.0000000000000000e+00" cType="1" res="-2.6227678172290325e-03" rms="4.2122668027877808e-01" purity="3.7218999862670898e-01" nType="-99"/>
        </Node>
        <Node pos="r" depth="1" NCoef="0" IVar="2" Cut="2.7168048095703125e+02" cType="1" res="2.4134218692779541e-02" rms="4.6277010440826416e-01" purity="5.6422299146652222e-01" nType="0">
          <Node pos="l" depth="2" NCoef="0" IVar="-1" Cut="0.0000000000000000e+00" cType="1" res="3.2713774126023054e-03" rms="4.7241553664207458e-01" purity="4.6007171273231506e-01" nType="-99"/>
          <Node pos="r" depth="2" NCoef="0" IVar="-1" Cut="0.0000000000000000e+00" cType="1" res="6.1681942315772176e-04" rms="4.5587238669395447e-01" purity="6.3110780715942383e-01" nType="-99"/>
        </Node>
      </Node>
    </BinaryTree>
    <BinaryTree type="DecisionTree" boostWeight="1.0000000000000000e+00" itree="662">
      <Node pos="s" depth="0" NCoef="0" IVar="6" Cut="1.2893869876861572e+00" cType="1" res="3.8147184532135725e-03" rms="4.4866257905960083e-01" purity="5.0402927398681641e-01" nType="0">
        <Node pos="l" depth="1" NCoef="0" IVar="2" Cut="3.4827755737304688e+02" cType="1" res="9.2452289536595345e-03" rms="4.5470800995826721e-01" purity="5.4444253444671631e-01" nType="0">
          <Node pos="l" depth="2" NCoef="0" IVar="-1" Cut="0.0000000000000000e+00" cType="1" res="1.5791658079251647e-03" rms="4.5589643716812134e-01" purity="4.8116821050643921e-01" nType="-99"/>
          <Node pos="r" depth="2" NCoef="0" IVar="-1" Cut="0.0000000000000000e+00" cType="1" res="-5.1519164117053151e-04" rms="4.5259183645248413e-01" purity="6.2738329172134399e-01" nType="-99"/>
        </Node>
        <Node pos="r" depth="1" NCoef="0" IVar="2" Cut="3.7250344848632812e+02" cType="1" res="-4.7898138873279095e-03" rms="4.3877568840980530e-01" purity="4.3999534845352173e-01" nType="0">
          <Node pos="l" depth="2" NCoef="0" IVar="-1" Cut="0.0000000000000000e+00" cType="1" res="-1.0536167537793517e-03" rms="4.3921920657157898e-01" purity="3.9175438880920410e-01" nType="-99"/>
          <Node pos="r" depth="2" NCoef="0" IVar="-1" Cut="0.0000000000000000e+00" cType="1" res="2.2343418095260859e-03" rms="4.3466705083847046e-01" purity="6.6116333007812500e-01" nType="-99"/>
        </Node>
      </Node>
    </BinaryTree>
    <BinaryTree type="DecisionTree" boostWeight="1.0000000000000000e+00" itree="663">
      <Node pos="s" depth="0" NCoef="0" IVar="1" Cut="8.9842212200164795e-01" cType="1" res="-1.3567672576755285e-03" rms="4.4937023520469666e-01" purity="4.9905025959014893e-01" nType="0">
        <Node pos="l" depth="1" NCoef="0" IVar="6" Cut="1.7446142435073853e+00" cType="1" res="-1.3018094934523106e-02" rms="4.4830623269081116e-01" purity="3.7615162134170532e-01" nType="0">
          <Node pos="l" depth="2" NCoef="0" IVar="-1" Cut="0.0000000000000000e+00" cType="1" res="-5.5741262622177601e-04" rms="4.5579311251640320e-01" purity="3.9265143871307373e-01" nType="-99"/>
          <Node pos="r" depth="2" NCoef="0" IVar="-1" Cut="0.0000000000000000e+00" cType="1" res="-4.3256036005914211e-03" rms="3.9385595917701721e-01" purity="2.6793500781059265e-01" nType="-99"/>
        </Node>
        <Node pos="r" depth="1" NCoef="0" IVar="2" Cut="2.2791801452636719e+02" cType="1" res="8.7460242211818695e-03" rms="4.5004576444625854e-01" purity="6.0552346706390381e-01" nType="0">
          <Node pos="l" depth="2" NCoef="0" IVar="-1" Cut="0.0000000000000000e+00" cType="1" res="2.7081335429102182e-03" rms="4.6192994713783264e-01" purity="4.2904806137084961e-01" nType="-99"/>
          <Node pos="r" depth="2" NCoef="0" IVar="-1" Cut="0.0000000000000000e+00" cType="1" res="2.7735059848055243e-04" rms="4.4774463772773743e-01" purity="6.3674694299697876e-01" nType="-99"/>
        </Node>
      </Node>
    </BinaryTree>
    <BinaryTree type="DecisionTree" boostWeight="1.0000000000000000e+00" itree="664">
      <Node pos="s" depth="0" NCoef="0" IVar="2" Cut="2.7110787963867188e+02" cType="1" res="1.0415094438940287e-03" rms="4.5056274533271790e-01" purity="5.0138401985168457e-01" nType="0">
        <Node pos="l" depth="1" NCoef="0" IVar="4" Cut="2.9208734631538391e-01" cType="1" res="1.1127218604087830e-02" rms="4.4257330894470215e-01" purity="3.6579933762550354e-01" nType="0">
          <Node pos="l" depth="2" NCoef="0" IVar="-1" Cut="0.0000000000000000e+00" cType="1" res="3.8632932119071484e-03" rms="4.3768608570098877e-01" purity="3.5422131419181824e-01" nType="-99"/>
          <Node pos="r" depth="2" NCoef="0" IVar="-1" Cut="0.0000000000000000e+00" cType="1" res="-1.2665762369579170e-05" rms="4.4366961717605591e-01" purity="3.6975866556167603e-01" nType="-99"/>
        </Node>
        <Node pos="r" depth="1" NCoef="0" IVar="6" Cut="1.6935033798217773e+00" cType="1" res="-4.5331651344895363e-03" rms="4.5482259988784790e-01" purity="5.7632565498352051e-01" nType="0">
          <Node pos="l" depth="2" NCoef="0" IVar="-1" Cut="0.0000000000000000e+00" cType="1" res="-6.2773469835519791e-04" rms="4.5597311854362488e-01" purity="5.7584780454635620e-01" nType="-99"/>
          <Node pos="r" depth="2" NCoef="0" IVar="-1" Cut="0.0000000000000000e+00" cType="1" res="2.2160825319588184e-03" rms="4.4369262456893921e-01" purity="5.8016020059585571e-01" nType="-99"/>
        </Node>
      </Node>
    </BinaryTree>
    <BinaryTree type="DecisionTree" boostWeight="1.0000000000000000e+00" itree="665">
      <Node pos="s" depth="0" NCoef="0" IVar="4" Cut="6.0845869779586792e-01" cType="1" res="4.4692014344036579e-03" rms="4.5131614804267883e-01" purity="5.0706851482391357e-01" nType="0">
        <Node pos="l" depth="1" NCoef="0" IVar="5" Cut="3.2261025626212358e-03" cType="1" res="9.2802969738841057e-03" rms="4.5196145772933960e-01" purity="5.0508558750152588e-01" nType="0">
          <Node pos="l" depth="2" NCoef="0" IVar="-1" Cut="0.0000000000000000e+00" cType="1" res="3.1150496215559542e-04" rms="4.5034170150756836e-01" purity="5.1338607072830200e-01" nType="-99"/>
          <Node pos="r" depth="2" NCoef="0" IVar="-1" Cut="0.0000000000000000e+00" cType="1" res="3.2720365561544895e-03" rms="4.6254411339759827e-01" purity="4.4073155522346497e-01" nType="-99"/>
        </Node>
        <Node pos="r" depth="1" NCoef="0" IVar="0" Cut="1.5863914489746094e+00" cType="1" res="-2.2206280380487442e-02" rms="4.4678232073783875e-01" purity="5.1806336641311646e-01" nType="0">
          <Node pos="l" depth="2" NCoef="0" IVar="-1" Cut="0.0000000000000000e+00" cType="1" res="-2.9906346462666988e-03" rms="4.5334973931312561e-01" purity="3.6720576882362366e-01" nType="-99"/>
          <Node pos="r" depth="2" NCoef="0" IVar="-1" Cut="0.0000000000000000e+00" cType="1" res="-4.2256727465428412e-04" rms="4.3957313895225525e-01" purity="6.6779738664627075e-01" nType="-99"/>
        </Node>
      </Node>
    </BinaryTree>
    <BinaryTree type="DecisionTree" boostWeight="1.0000000000000000e+00" itree="666">
      <Node pos="s" depth="0" NCoef="0" IVar="2" Cut="2.7640264892578125e+02" cType="1" res="-2.8153716120868921e-03" rms="4.5136022567749023e-01" purity="4.9640130996704102e-01" nType="0">
        <Node pos="l" depth="1" NCoef="0" IVar="7" Cut="8.0674797296524048e-01" cType="1" res="6.1293044127523899e-03" rms="4.4267061352729797e-01" purity="3.7042617797851562e-01" nType="0">
          <Node pos="l" depth="2" NCoef="0" IVar="-1" Cut="0.0000000000000000e+00" cType="1" res="1.2992694973945618e-03" rms="4.4434392452239990e-01" purity="3.7395644187927246e-01" nType="-99"/>
          <Node pos="r" depth="2" NCoef="0" IVar="-1" Cut="0.0000000000000000e+00" cType="1" res="-3.7014193367213011e-03" rms="4.3013596534729004e-01" purity="3.5185009241104126e-01" nType="-99"/>
        </Node>
        <Node pos="r" depth="1" NCoef="0" IVar="3" Cut="-8.5249014198780060e-02" cType="1" res="-8.3388201892375946e-03" rms="4.5655608177185059e-01" purity="5.7419258356094360e-01" nType="0">
          <Node pos="l" depth="2" NCoef="0" IVar="-1" Cut="0.0000000000000000e+00" cType="1" res="9.5855607651174068e-04" rms="4.5556452870368958e-01" purity="5.4694998264312744e-01" nType="-99"/>
          <Node pos="r" depth="2" NCoef="0" IVar="-1" Cut="0.0000000000000000e+00" cType="1" res="-1.0161461541429162e-03" rms="4.5664077997207642e-01" purity="5.8236712217330933e-01" nType="-99"/>
        </Node>
      </Node>
    </BinaryTree>
    <BinaryTree type="DecisionTree" boostWeight="1.0000000000000000e+00" itree="667">
      <Node pos="s" depth="0" NCoef="0" IVar="2" Cut="5.8345550537109375e+02" cType="1" res="6.4424020820297301e-05" rms="4.4979849457740784e-01" purity="5.0012582540512085e-01" nType="0">
        <Node pos="l" depth="1" NCoef="0" IVar="4" Cut="4.5715340971946716e-01" cType="1" res="-2.9317680746316910e-03" rms="4.5135736465454102e-01" purity="4.8382753133773804e-01" nType="0">
          <Node pos="l" depth="2" NCoef="0" IVar="-1" Cut="0.0000000000000000e+00" cType="1" res="-8.1804872024804354e-04" rms="4.5186236500740051e-01" purity="4.5365291833877563e-01" nType="-99"/>
          <Node pos="r" depth="2" NCoef="0" IVar="-1" Cut="0.0000000000000000e+00" cType="1" res="6.6817656625062227e-04" rms="4.5031479001045227e-01" purity="5.2937442064285278e-01" nType="-99"/>
        </Node>
        <Node pos="r" depth="1" NCoef="0" IVar="-1" Cut="0.0000000000000000e+00" cType="1" res="3.0830439645797014e-03" rms="4.2268502712249756e-01" purity="7.4875849485397339e-01" nType="-99"/>
      </Node>
    </BinaryTree>
    <BinaryTree type="DecisionTree" boostWeight="1.0000000000000000e+00" itree="668">
      <Node pos="s" depth="0" NCoef="0" IVar="4" Cut="4.2988070845603943e-01" cType="1" res="2.3287448857445270e-04" rms="4.4906949996948242e-01" purity="4.9997425079345703e-01" nType="0">
        <Node pos="l" depth="1" NCoef="0" IVar="4" Cut="1.1915811896324158e-01" cType="1" res="7.2647733613848686e-03" rms="4.5073604583740234e-01" purity="4.8807427287101746e-01" nType="0">
          <Node pos="l" depth="2" NCoef="0" IVar="-1" Cut="0.0000000000000000e+00" cType="1" res="-2.0731249824166298e-03" rms="4.4045606255531311e-01" purity="4.1267606616020203e-01" nType="-99"/>
          <Node pos="r" depth="2" NCoef="0" IVar="-1" Cut="0.0000000000000000e+00" cType="1" res="7.6512101804837584e-04" rms="4.5159530639648438e-01" purity="4.9552777409553528e-01" nType="-99"/>
        </Node>
        <Node pos="r" depth="1" NCoef="0" IVar="3" Cut="1.0768686980009079e-01" cType="1" res="-9.4461692497134209e-03" rms="4.4658434391021729e-01" purity="5.1635390520095825e-01" nType="0">
          <Node pos="l" depth="2" NCoef="0" IVar="-1" Cut="0.0000000000000000e+00" cType="1" res="-2.0041422976646572e-04" rms="4.4582861661911011e-01" purity="5.1568067073822021e-01" nType="-99"/>
          <Node pos="r" depth="2" NCoef="0" IVar="-1" Cut="0.0000000000000000e+00" cType="1" res="-3.0957153066992760e-03" rms="4.4883584976196289e-01" purity="5.1968622207641602e-01" nType="-99"/>
        </Node>
      </Node>
    </BinaryTree>
    <BinaryTree type="DecisionTree" boostWeight="1.0000000000000000e+00" itree="669">
      <Node pos="s" depth="0" NCoef="0" IVar="3" Cut="8.5741966962814331e-02" cType="1" res="2.5692502968013287e-03" rms="4.5099335908889771e-01" purity="5.0365722179412842e-01" nType="0">
        <Node pos="l" depth="1" NCoef="0" IVar="1" Cut="8.5612076520919800e-01" cType="1" res="-2.8542438521981239e-03" rms="4.4907316565513611e-01" purity="4.8139619827270508e-01" nType="0">
          <Node pos="l" depth="2" NCoef="0" IVar="-1" Cut="0.0000000000000000e+00" cType="1" res="2.8589426074177027e-03" rms="4.6210941672325134e-01" purity="3.8945251703262329e-01" nType="-99"/>
          <Node pos="r" depth="2" NCoef="0" IVar="-1" Cut="0.0000000000000000e+00" cType="1" res="-4.6435510739684105e-04" rms="4.4776406884193420e-01" purity="4.8932763934135437e-01" nType="-99"/>
        </Node>
        <Node pos="r" depth="1" NCoef="0" IVar="4" Cut="5.1307684183120728e-01" cType="1" res="1.3713626191020012e-02" rms="4.5471054315567017e-01" purity="5.4939985275268555e-01" nType="0">
          <Node pos="l" depth="2" NCoef="0" IVar="-1" Cut="0.0000000000000000e+00" cType="1" res="1.5172939747571945e-03" rms="4.5453715324401855e-01" purity="5.5195099115371704e-01" nType="-99"/>
          <Node pos="r" depth="2" NCoef="0" IVar="-1" Cut="0.0000000000000000e+00" cType="1" res="-1.7566698370501399e-03" rms="4.5348769426345825e-01" purity="5.3813916444778442e-01" nType="-99"/>
        </Node>
      </Node>
    </BinaryTree>
    <BinaryTree type="DecisionTree" boostWeight="1.0000000000000000e+00" itree="670">
      <Node pos="s" depth="0" NCoef="0" IVar="3" Cut="-4.6346839517354965e-02" cType="1" res="-1.6291898209601641e-03" rms="4.5079547166824341e-01" purity="5.0084292888641357e-01" nType="0">
        <Node pos="l" depth="1" NCoef="0" IVar="6" Cut="7.5736480951309204e-01" cType="1" res="7.2787310928106308e-03" rms="4.4527831673622131e-01" purity="4.7542056441307068e-01" nType="0">
          <Node pos="l" depth="2" NCoef="0" IVar="-1" Cut="0.0000000000000000e+00" cType="1" res="3.0172709375619888e-03" rms="4.4866022467613220e-01" purity="5.9721267223358154e-01" nType="-99"/>
          <Node pos="r" depth="2" NCoef="0" IVar="-1" Cut="0.0000000000000000e+00" cType="1" res="-4.5165557821746916e-05" rms="4.4415006041526794e-01" purity="4.4896793365478516e-01" nType="-99"/>
        </Node>
        <Node pos="r" depth="1" NCoef="0" IVar="7" Cut="6.2281757593154907e-01" cType="1" res="-6.2317457050085068e-03" rms="4.5355126261711121e-01" purity="5.1397824287414551e-01" nType="0">
          <Node pos="l" depth="2" NCoef="0" IVar="-1" Cut="0.0000000000000000e+00" cType="1" res="3.3487330074422061e-04" rms="4.5844176411628723e-01" purity="4.9038371443748474e-01" nType="-99"/>
          <Node pos="r" depth="2" NCoef="0" IVar="-1" Cut="0.0000000000000000e+00" cType="1" res="-1.3701233547180891e-03" rms="4.4739308953285217e-01" purity="5.4170161485671997e-01" nType="-99"/>
        </Node>
      </Node>
    </BinaryTree>
    <BinaryTree type="DecisionTree" boostWeight="1.0000000000000000e+00" itree="671">
      <Node pos="s" depth="0" NCoef="0" IVar="1" Cut="8.5612124204635620e-01" cType="1" res="1.2912540696561337e-03" rms="4.5284679532051086e-01" purity="5.0116050243377686e-01" nType="0">
        <Node pos="l" depth="1" NCoef="0" IVar="-1" Cut="0.0000000000000000e+00" cType="1" res="-2.1504694595932961e-03" rms="4.3941456079483032e-01" purity="3.3465877175331116e-01" nType="-99"/>
        <Node pos="r" depth="1" NCoef="0" IVar="0" Cut="9.2342090606689453e-01" cType="1" res="3.6306886468082666e-03" rms="4.5384538173675537e-01" purity="5.1474660634994507e-01" nType="0">
          <Node pos="l" depth="2" NCoef="0" IVar="-1" Cut="0.0000000000000000e+00" cType="1" res="1.3991146115586162e-03" rms="4.5523455739021301e-01" purity="3.6993211507797241e-01" nType="-99"/>
          <Node pos="r" depth="2" NCoef="0" IVar="-1" Cut="0.0000000000000000e+00" cType="1" res="-1.3133070024196059e-04" rms="4.5315104722976685e-01" purity="5.7487380504608154e-01" nType="-99"/>
        </Node>
      </Node>
    </BinaryTree>
    <BinaryTree type="DecisionTree" boostWeight="1.0000000000000000e+00" itree="672">
      <Node pos="s" depth="0" NCoef="0" IVar="6" Cut="9.3529498577117920e-01" cType="1" res="-3.9307307451963425e-03" rms="4.4700416922569275e-01" purity="4.9920964241027832e-01" nType="0">
        <Node pos="l" depth="1" NCoef="0" IVar="5" Cut="1.4918196247890592e-03" cType="1" res="1.0313983075320721e-02" rms="4.5295763015747070e-01" purity="5.7478964328765869e-01" nType="0">
          <Node pos="l" depth="2" NCoef="0" IVar="-1" Cut="0.0000000000000000e+00" cType="1" res="-5.8148341486230493e-04" rms="4.3783038854598999e-01" purity="6.2573564052581787e-01" nType="-99"/>
          <Node pos="r" depth="2" NCoef="0" IVar="-1" Cut="0.0000000000000000e+00" cType="1" res="2.2673388011753559e-03" rms="4.7128078341484070e-01" purity="5.0677549839019775e-01" nType="-99"/>
        </Node>
        <Node pos="r" depth="1" NCoef="0" IVar="2" Cut="4.0250939941406250e+02" cType="1" res="-1.0495317168533802e-02" rms="4.4407990574836731e-01" purity="4.6437904238700867e-01" nType="0">
          <Node pos="l" depth="2" NCoef="0" IVar="-1" Cut="0.0000000000000000e+00" cType="1" res="-1.5394807560369372e-03" rms="4.4484946131706238e-01" purity="4.1765093803405762e-01" nType="-99"/>
          <Node pos="r" depth="2" NCoef="0" IVar="-1" Cut="0.0000000000000000e+00" cType="1" res="2.2309902124106884e-03" rms="4.3778067827224731e-01" purity="6.8002820014953613e-01" nType="-99"/>
        </Node>
      </Node>
    </BinaryTree>
    <BinaryTree type="DecisionTree" boostWeight="1.0000000000000000e+00" itree="673">
      <Node pos="s" depth="0" NCoef="0" IVar="2" Cut="2.1613893127441406e+02" cType="1" res="-3.2818445470184088e-03" rms="4.4954717159271240e-01" purity="4.9974623322486877e-01" nType="0">
        <Node pos="l" depth="1" NCoef="0" IVar="1" Cut="8.9824032783508301e-01" cType="1" res="-2.5005167350172997e-02" rms="4.0595486760139465e-01" purity="2.5228330492973328e-01" nType="0">
          <Node pos="l" depth="2" NCoef="0" IVar="-1" Cut="0.0000000000000000e+00" cType="1" res="9.0346665820106864e-04" rms="3.9096760749816895e-01" purity="2.0721563696861267e-01" nType="-99"/>
          <Node pos="r" depth="2" NCoef="0" IVar="-1" Cut="0.0000000000000000e+00" cType="1" res="-5.5394032970070839e-03" rms="4.1980668902397156e-01" purity="3.0593061447143555e-01" nType="-99"/>
        </Node>
        <Node pos="r" depth="1" NCoef="0" IVar="0" Cut="7.6872184872627258e-02" cType="1" res="-4.5406533172354102e-04" rms="4.5483818650245667e-01" purity="5.3195911645889282e-01" nType="0">
          <Node pos="l" depth="2" NCoef="0" IVar="-1" Cut="0.0000000000000000e+00" cType="1" res="-2.1785655990242958e-03" rms="4.3723466992378235e-01" purity="3.0280992388725281e-01" nType="-99"/>
          <Node pos="r" depth="2" NCoef="0" IVar="-1" Cut="0.0000000000000000e+00" cType="1" res="1.5870398783590645e-04" rms="4.5674794912338257e-01" purity="5.5845105648040771e-01" nType="-99"/>
        </Node>
      </Node>
    </BinaryTree>
    <BinaryTree type="DecisionTree" boostWeight="1.0000000000000000e+00" itree="674">
      <Node pos="s" depth="0" NCoef="0" IVar="4" Cut="6.0589677095413208e-01" cType="1" res="-1.3541993394028395e-04" rms="4.4986742734909058e-01" purity="4.9914699792861938e-01" nType="0">
        <Node pos="l" depth="1" NCoef="0" IVar="1" Cut="9.3700194358825684e-01" cType="1" res="-4.4283731840550900e-03" rms="4.5051813125610352e-01" purity="4.8862609267234802e-01" nType="0">
          <Node pos="l" depth="2" NCoef="0" IVar="-1" Cut="0.0000000000000000e+00" cType="1" res="-7.4514327570796013e-04" rms="4.5541048049926758e-01" purity="4.1664883494377136e-01" nType="-99"/>
          <Node pos="r" depth="2" NCoef="0" IVar="-1" Cut="0.0000000000000000e+00" cType="1" res="8.2064518937841058e-04" rms="4.3595865368843079e-01" purity="6.9247460365295410e-01" nType="-99"/>
        </Node>
        <Node pos="r" depth="1" NCoef="0" IVar="5" Cut="1.4111429918557405e-03" cType="1" res="2.1849602460861206e-02" rms="4.4587284326553345e-01" purity="5.5302667617797852e-01" nType="0">
          <Node pos="l" depth="2" NCoef="0" IVar="-1" Cut="0.0000000000000000e+00" cType="1" res="-1.4711117546539754e-04" rms="4.2298585176467896e-01" purity="6.2149387598037720e-01" nType="-99"/>
          <Node pos="r" depth="2" NCoef="0" IVar="-1" Cut="0.0000000000000000e+00" cType="1" res="3.3078563865274191e-03" rms="4.6888712048530579e-01" purity="4.7586750984191895e-01" nType="-99"/>
        </Node>
      </Node>
    </BinaryTree>
    <BinaryTree type="DecisionTree" boostWeight="1.0000000000000000e+00" itree="675">
      <Node pos="s" depth="0" NCoef="0" IVar="4" Cut="4.8264852166175842e-01" cType="1" res="-1.5121201286092401e-03" rms="4.5029750466346741e-01" purity="4.9888399243354797e-01" nType="0">
        <Node pos="l" depth="1" NCoef="0" IVar="5" Cut="1.6695244703441858e-03" cType="1" res="-7.9319030046463013e-03" rms="4.5192947983741760e-01" purity="4.7897061705589294e-01" nType="0">
          <Node pos="l" depth="2" NCoef="0" IVar="-1" Cut="0.0000000000000000e+00" cType="1" res="-1.1991487117484212e-03" rms="4.4835275411605835e-01" purity="5.2833992242813110e-01" nType="-99"/>
          <Node pos="r" depth="2" NCoef="0" IVar="-1" Cut="0.0000000000000000e+00" cType="1" res="3.1723105348646641e-04" rms="4.5680400729179382e-01" purity="4.0713030099868774e-01" nType="-99"/>
        </Node>
        <Node pos="r" depth="1" NCoef="0" IVar="6" Cut="8.6670780181884766e-01" cType="1" res="1.0939777828752995e-02" rms="4.4685226678848267e-01" purity="5.3750824928283691e-01" nType="0">
          <Node pos="l" depth="2" NCoef="0" IVar="-1" Cut="0.0000000000000000e+00" cType="1" res="-1.5535899437963963e-03" rms="4.4385507702827454e-01" purity="5.7179266214370728e-01" nType="-99"/>
          <Node pos="r" depth="2" NCoef="0" IVar="-1" Cut="0.0000000000000000e+00" cType="1" res="1.4516639057546854e-03" rms="4.4726592302322388e-01" purity="5.2773129940032959e-01" nType="-99"/>
        </Node>
      </Node>
    </BinaryTree>
    <BinaryTree type="DecisionTree" boostWeight="1.0000000000000000e+00" itree="676">
      <Node pos="s" depth="0" NCoef="0" IVar="0" Cut="1.0510405302047729e+00" cType="1" res="-1.4895716449245811e-03" rms="4.5005288720130920e-01" purity="4.9856171011924744e-01" nType="0">
        <Node pos="l" depth="1" NCoef="0" IVar="4" Cut="5.9033304452896118e-01" cType="1" res="-1.2777262367308140e-02" rms="4.4672620296478271e-01" purity="3.4088808298110962e-01" nType="0">
          <Node pos="l" depth="2" NCoef="0" IVar="-1" Cut="0.0000000000000000e+00" cType="1" res="-1.4952864730730653e-03" rms="4.4534033536911011e-01" purity="3.2971784472465515e-01" nType="-99"/>
          <Node pos="r" depth="2" NCoef="0" IVar="-1" Cut="0.0000000000000000e+00" cType="1" res="6.5989175345748663e-04" rms="4.5224314928054810e-01" purity="3.9072978496551514e-01" nType="-99"/>
        </Node>
        <Node pos="r" depth="1" NCoef="0" IVar="7" Cut="3.9774581789970398e-01" cType="1" res="4.5475838705897331e-03" rms="4.5170634984970093e-01" purity="5.8289247751235962e-01" nType="0">
          <Node pos="l" depth="2" NCoef="0" IVar="-1" Cut="0.0000000000000000e+00" cType="1" res="-2.9537826776504517e-03" rms="4.5950934290885925e-01" purity="4.7844994068145752e-01" nType="-99"/>
          <Node pos="r" depth="2" NCoef="0" IVar="-1" Cut="0.0000000000000000e+00" cType="1" res="6.2363484175875783e-04" rms="4.5062893629074097e-01" purity="5.9365051984786987e-01" nType="-99"/>
        </Node>
      </Node>
    </BinaryTree>
    <BinaryTree type="DecisionTree" boostWeight="1.0000000000000000e+00" itree="677">
      <Node pos="s" depth="0" NCoef="0" IVar="7" Cut="6.2136560678482056e-01" cType="1" res="2.1218790207058191e-03" rms="4.5024201273918152e-01" purity="5.0135624408721924e-01" nType="0">
        <Node pos="l" depth="1" NCoef="0" IVar="6" Cut="1.7455207109451294e+00" cType="1" res="1.5684552490711212e-02" rms="4.4942411780357361e-01" purity="4.6744433045387268e-01" nType="0">
          <Node pos="l" depth="2" NCoef="0" IVar="-1" Cut="0.0000000000000000e+00" cType="1" res="1.5444996533915401e-03" rms="4.5510756969451904e-01" purity="4.8499345779418945e-01" nType="-99"/>
          <Node pos="r" depth="2" NCoef="0" IVar="-1" Cut="0.0000000000000000e+00" cType="1" res="-1.3447599485516548e-03" rms="4.1493609547615051e-01" purity="3.6980190873146057e-01" nType="-99"/>
        </Node>
        <Node pos="r" depth="1" NCoef="0" IVar="0" Cut="3.5064771771430969e-02" cType="1" res="-9.1196401044726372e-03" rms="4.5060950517654419e-01" purity="5.2946442365646362e-01" nType="0">
          <Node pos="l" depth="2" NCoef="0" IVar="-1" Cut="0.0000000000000000e+00" cType="1" res="-4.0530092082917690e-03" rms="4.2517262697219849e-01" purity="2.9019123315811157e-01" nType="-99"/>
          <Node pos="r" depth="2" NCoef="0" IVar="-1" Cut="0.0000000000000000e+00" cType="1" res="-3.3497466938570142e-04" rms="4.5331868529319763e-01" purity="5.5763930082321167e-01" nType="-99"/>
        </Node>
      </Node>
    </BinaryTree>
    <BinaryTree type="DecisionTree" boostWeight="1.0000000000000000e+00" itree="678">
      <Node pos="s" depth="0" NCoef="0" IVar="7" Cut="5.9278023242950439e-01" cType="1" res="-2.6471386663615704e-03" rms="4.5072519779205322e-01" purity="4.9510595202445984e-01" nType="0">
        <Node pos="l" depth="1" NCoef="0" IVar="6" Cut="1.5119392871856689e+00" cType="1" res="6.6117062233388424e-03" rms="4.4883978366851807e-01" purity="4.5388135313987732e-01" nType="0">
          <Node pos="l" depth="2" NCoef="0" IVar="-1" Cut="0.0000000000000000e+00" cType="1" res="1.0883817449212074e-03" rms="4.5659217238426208e-01" purity="4.9331417679786682e-01" nType="-99"/>
          <Node pos="r" depth="2" NCoef="0" IVar="-1" Cut="0.0000000000000000e+00" cType="1" res="-1.3823275221511722e-03" rms="4.2683622241020203e-01" purity="3.4969374537467957e-01" nType="-99"/>
        </Node>
        <Node pos="r" depth="1" NCoef="0" IVar="4" Cut="5.8273082971572876e-01" cType="1" res="-8.7258610874414444e-03" rms="4.5185559988021851e-01" purity="5.2217113971710205e-01" nType="0">
          <Node pos="l" depth="2" NCoef="0" IVar="-1" Cut="0.0000000000000000e+00" cType="1" res="-1.2563837226480246e-03" rms="4.5383247733116150e-01" purity="5.1054644584655762e-01" nType="-99"/>
          <Node pos="r" depth="2" NCoef="0" IVar="-1" Cut="0.0000000000000000e+00" cType="1" res="8.4935076301917434e-04" rms="4.4644236564636230e-01" purity="5.4976212978363037e-01" nType="-99"/>
        </Node>
      </Node>
    </BinaryTree>
    <BinaryTree type="DecisionTree" boostWeight="1.0000000000000000e+00" itree="679">
      <Node pos="s" depth="0" NCoef="0" IVar="1" Cut="9.3711161613464355e-01" cType="1" res="-7.0484034949913621e-04" rms="4.4808056950569153e-01" purity="5.0217688083648682e-01" nType="0">
        <Node pos="l" depth="1" NCoef="0" IVar="6" Cut="9.9715536832809448e-01" cType="1" res="-6.2731076031923294e-03" rms="4.5655736327171326e-01" purity="4.2477402091026306e-01" nType="0">
          <Node pos="l" depth="2" NCoef="0" IVar="-1" Cut="0.0000000000000000e+00" cType="1" res="-1.3749478384852409e-03" rms="4.6700865030288696e-01" purity="4.7051221132278442e-01" nType="-99"/>
          <Node pos="r" depth="2" NCoef="0" IVar="-1" Cut="0.0000000000000000e+00" cType="1" res="9.6090836450457573e-05" rms="4.5053705573081970e-01" purity="3.9965969324111938e-01" nType="-99"/>
        </Node>
        <Node pos="r" depth="1" NCoef="0" IVar="0" Cut="1.9416303634643555e+00" cType="1" res="1.4542630873620510e-02" rms="4.2362776398658752e-01" purity="7.1412742137908936e-01" nType="0">
          <Node pos="l" depth="2" NCoef="0" IVar="-1" Cut="0.0000000000000000e+00" cType="1" res="2.6303166523575783e-03" rms="4.5743349194526672e-01" purity="6.2123972177505493e-01" nType="-99"/>
          <Node pos="r" depth="2" NCoef="0" IVar="-1" Cut="0.0000000000000000e+00" cType="1" res="4.3537956662476063e-04" rms="4.1103312373161316e-01" purity="7.4601095914840698e-01" nType="-99"/>
        </Node>
      </Node>
    </BinaryTree>
    <BinaryTree type="DecisionTree" boostWeight="1.0000000000000000e+00" itree="680">
      <Node pos="s" depth="0" NCoef="0" IVar="1" Cut="8.6768609285354614e-01" cType="1" res="1.1337110772728920e-03" rms="4.4881963729858398e-01" purity="5.0224274396896362e-01" nType="0">
        <Node pos="l" depth="1" NCoef="0" IVar="6" Cut="9.3869554996490479e-01" cType="1" res="-1.7967037856578827e-02" rms="4.4459941983222961e-01" purity="3.4642475843429565e-01" nType="0">
          <Node pos="l" depth="2" NCoef="0" IVar="-1" Cut="0.0000000000000000e+00" cType="1" res="1.1617478448897600e-03" rms="4.7673082351684570e-01" purity="4.3935886025428772e-01" nType="-99"/>
          <Node pos="r" depth="2" NCoef="0" IVar="-1" Cut="0.0000000000000000e+00" cType="1" res="-2.7781457174569368e-03" rms="4.2888543009757996e-01" purity="3.0572792887687683e-01" nType="-99"/>
        </Node>
        <Node pos="r" depth="1" NCoef="0" IVar="3" Cut="5.2749466150999069e-02" cType="1" res="5.8693597093224525e-03" rms="4.4973433017730713e-01" purity="5.4087471961975098e-01" nType="0">
          <Node pos="l" depth="2" NCoef="0" IVar="-1" Cut="0.0000000000000000e+00" cType="1" res="-4.4199161493452266e-05" rms="4.4616657495498657e-01" purity="5.1376700401306152e-01" nType="-99"/>
          <Node pos="r" depth="2" NCoef="0" IVar="-1" Cut="0.0000000000000000e+00" cType="1" res="1.0704158339649439e-03" rms="4.5488837361335754e-01" purity="5.8176183700561523e-01" nType="-99"/>
        </Node>
      </Node>
    </BinaryTree>
    <BinaryTree type="DecisionTree" boostWeight="1.0000000000000000e+00" itree="681">
      <Node pos="s" depth="0" NCoef="0" IVar="1" Cut="8.9468818902969360e-01" cType="1" res="3.1116849277168512e-03" rms="4.4795230031013489e-01" purity="5.0525605678558350e-01" nType="0">
        <Node pos="l" depth="1" NCoef="0" IVar="7" Cut="8.4482735395431519e-01" cType="1" res="-6.8389740772545338e-03" rms="4.4993832707405090e-01" purity="3.7888559699058533e-01" nType="0">
          <Node pos="l" depth="2" NCoef="0" IVar="-1" Cut="0.0000000000000000e+00" cType="1" res="-1.2721690291073173e-04" rms="4.4928398728370667e-01" purity="3.7588739395141602e-01" nType="-99"/>
          <Node pos="r" depth="2" NCoef="0" IVar="-1" Cut="0.0000000000000000e+00" cType="1" res="-3.1528945546597242e-03" rms="4.5292538404464722e-01" purity="4.0105023980140686e-01" nType="-99"/>
        </Node>
        <Node pos="r" depth="1" NCoef="0" IVar="6" Cut="1.8064806461334229e+00" cType="1" res="1.0800185613334179e-02" rms="4.4625979661941528e-01" purity="6.0289782285690308e-01" nType="0">
          <Node pos="l" depth="2" NCoef="0" IVar="-1" Cut="0.0000000000000000e+00" cType="1" res="1.0280874557793140e-03" rms="4.4584551453590393e-01" purity="6.1583811044692993e-01" nType="-99"/>
          <Node pos="r" depth="2" NCoef="0" IVar="-1" Cut="0.0000000000000000e+00" cType="1" res="-1.9406633218750358e-03" rms="4.4830742478370667e-01" purity="4.8845455050468445e-01" nType="-99"/>
        </Node>
      </Node>
    </BinaryTree>
    <BinaryTree type="DecisionTree" boostWeight="1.0000000000000000e+00" itree="682">
      <Node pos="s" depth="0" NCoef="0" IVar="0" Cut="1.3959311246871948e+00" cType="1" res="3.0322107486426830e-03" rms="4.5066869258880615e-01" purity="5.0406271219253540e-01" nType="0">
        <Node pos="l" depth="1" NCoef="0" IVar="0" Cut="9.0594696998596191e-01" cType="1" res="1.1688070371747017e-02" rms="4.5568072795867920e-01" purity="3.8261610269546509e-01" nType="0">
          <Node pos="l" depth="2" NCoef="0" IVar="-1" Cut="0.0000000000000000e+00" cType="1" res="2.6058880030177534e-04" rms="4.5015978813171387e-01" purity="3.4729698300361633e-01" nType="-99"/>
          <Node pos="r" depth="2" NCoef="0" IVar="-1" Cut="0.0000000000000000e+00" cType="1" res="2.1715974435210228e-03" rms="4.6737605333328247e-01" purity="4.6270933747291565e-01" nType="-99"/>
        </Node>
        <Node pos="r" depth="1" NCoef="0" IVar="0" Cut="2.1887230873107910e+00" cType="1" res="-3.8394141010940075e-03" rms="4.4653025269508362e-01" purity="6.0047549009323120e-01" nType="0">
          <Node pos="l" depth="2" NCoef="0" IVar="-1" Cut="0.0000000000000000e+00" cType="1" res="-1.8122630426660180e-03" rms="4.5844006538391113e-01" purity="4.7035849094390869e-01" nType="-99"/>
          <Node pos="r" depth="2" NCoef="0" IVar="-1" Cut="0.0000000000000000e+00" cType="1" res="4.7869162517599761e-04" rms="4.4018349051475525e-01" purity="6.6393977403640747e-01" nType="-99"/>
        </Node>
      </Node>
    </BinaryTree>
    <BinaryTree type="DecisionTree" boostWeight="1.0000000000000000e+00" itree="683">
      <Node pos="s" depth="0" NCoef="0" IVar="3" Cut="-1.6833811532706022e-03" cType="1" res="-2.6376924943178892e-03" rms="4.4968348741531372e-01" purity="4.9487495422363281e-01" nType="0">
        <Node pos="l" depth="1" NCoef="0" IVar="4" Cut="4.5695713162422180e-01" cType="1" res="-9.9936295300722122e-03" rms="4.4329348206520081e-01" purity="4.6387702226638794e-01" nType="0">
          <Node pos="l" depth="2" NCoef="0" IVar="-1" Cut="0.0000000000000000e+00" cType="1" res="-1.6148276627063751e-03" rms="4.3945828080177307e-01" purity="4.3081977963447571e-01" nType="-99"/>
          <Node pos="r" depth="2" NCoef="0" IVar="-1" Cut="0.0000000000000000e+00" cType="1" res="3.7788180634379387e-04" rms="4.4821974635124207e-01" purity="5.1060593128204346e-01" nType="-99"/>
        </Node>
        <Node pos="r" depth="1" NCoef="0" IVar="0" Cut="2.5973589420318604e+00" cType="1" res="3.6940583959221840e-03" rms="4.5501673221588135e-01" purity="5.2155697345733643e-01" nType="0">
          <Node pos="l" depth="2" NCoef="0" IVar="-1" Cut="0.0000000000000000e+00" cType="1" res="6.8975094472989440e-04" rms="4.6227163076400757e-01" purity="4.5781648159027100e-01" nType="-99"/>
          <Node pos="r" depth="2" NCoef="0" IVar="-1" Cut="0.0000000000000000e+00" cType="1" res="-7.8429124550893903e-04" rms="4.3581464886665344e-01" purity="6.8235486745834351e-01" nType="-99"/>
        </Node>
      </Node>
    </BinaryTree>
    <BinaryTree type="DecisionTree" boostWeight="1.0000000000000000e+00" itree="684">
      <Node pos="s" depth="0" NCoef="0" IVar="5" Cut="2.0547953899949789e-03" cType="1" res="-6.2924735248088837e-03" rms="4.5052349567413330e-01" purity="4.9125361442565918e-01" nType="0">
        <Node pos="l" depth="1" NCoef="0" IVar="3" Cut="1.6561688482761383e-01" cType="1" res="-5.6749477516859770e-04" rms="4.4848453998565674e-01" purity="5.4368388652801514e-01" nType="0">
          <Node pos="l" depth="2" NCoef="0" IVar="-1" Cut="0.0000000000000000e+00" cType="1" res="-3.8754878914915025e-04" rms="4.4870290160179138e-01" purity="5.2848887443542480e-01" nType="-99"/>
          <Node pos="r" depth="2" NCoef="0" IVar="-1" Cut="0.0000000000000000e+00" cType="1" res="1.5463911695405841e-03" rms="4.4667193293571472e-01" purity="6.1876749992370605e-01" nType="-99"/>
        </Node>
        <Node pos="r" depth="1" NCoef="0" IVar="5" Cut="2.5849968660622835e-03" cType="1" res="-1.8825966864824295e-02" rms="4.5470383763313293e-01" purity="3.7646982073783875e-01" nType="0">
          <Node pos="l" depth="2" NCoef="0" IVar="-1" Cut="0.0000000000000000e+00" cType="1" res="-3.5448658745735884e-03" rms="4.4398263096809387e-01" purity="3.5672029852867126e-01" nType="-99"/>
          <Node pos="r" depth="2" NCoef="0" IVar="-1" Cut="0.0000000000000000e+00" cType="1" res="-5.1542796427384019e-04" rms="4.5869633555412292e-01" purity="3.8490253686904907e-01" nType="-99"/>
        </Node>
      </Node>
    </BinaryTree>
    <BinaryTree type="DecisionTree" boostWeight="1.0000000000000000e+00" itree="685">
      <Node pos="s" depth="0" NCoef="0" IVar="4" Cut="6.3834041357040405e-01" cType="1" res="1.1335780145600438e-03" rms="4.5049095153808594e-01" purity="5.0021404027938843e-01" nType="0">
        <Node pos="l" depth="1" NCoef="0" IVar="6" Cut="1.9389445781707764e+00" cType="1" res="5.1568076014518738e-03" rms="4.5102217793464661e-01" purity="4.9965205788612366e-01" nType="0">
          <Node pos="l" depth="2" NCoef="0" IVar="-1" Cut="0.0000000000000000e+00" cType="1" res="1.4560595445800573e-04" rms="4.5275393128395081e-01" purity="5.0408512353897095e-01" nType="-99"/>
          <Node pos="r" depth="2" NCoef="0" IVar="-1" Cut="0.0000000000000000e+00" cType="1" res="3.3285145182162523e-03" rms="4.2747142910957336e-01" purity="4.4550842046737671e-01" nType="-99"/>
        </Node>
        <Node pos="r" depth="1" NCoef="0" IVar="3" Cut="7.8918534563854337e-04" cType="1" res="-2.7163974940776825e-02" rms="4.4571208953857422e-01" purity="5.0416672229766846e-01" nType="0">
          <Node pos="l" depth="2" NCoef="0" IVar="-1" Cut="0.0000000000000000e+00" cType="1" res="-3.8252508966252208e-04" rms="4.4473364949226379e-01" purity="5.0078076124191284e-01" nType="-99"/>
          <Node pos="r" depth="2" NCoef="0" IVar="-1" Cut="0.0000000000000000e+00" cType="1" res="-3.9051512721925974e-03" rms="4.4551706314086914e-01" purity="5.0799447298049927e-01" nType="-99"/>
        </Node>
      </Node>
    </BinaryTree>
    <BinaryTree type="DecisionTree" boostWeight="1.0000000000000000e+00" itree="686">
      <Node pos="s" depth="0" NCoef="0" IVar="7" Cut="8.3142691850662231e-01" cType="1" res="1.4313544379547238e-03" rms="4.5038595795631409e-01" purity="4.9936506152153015e-01" nType="0">
        <Node pos="l" depth="1" NCoef="0" IVar="2" Cut="4.5348385620117188e+02" cType="1" res="5.6842546910047531e-03" rms="4.5215296745300293e-01" purity="4.8996034264564514e-01" nType="0">
          <Node pos="l" depth="2" NCoef="0" IVar="-1" Cut="0.0000000000000000e+00" cType="1" res="7.2284723864868283e-04" rms="4.5288124680519104e-01" purity="4.6593287587165833e-01" nType="-99"/>
          <Node pos="r" depth="2" NCoef="0" IVar="-1" Cut="0.0000000000000000e+00" cType="1" res="-1.4518948737531900e-03" rms="4.4665065407752991e-01" purity="6.4054560661315918e-01" nType="-99"/>
        </Node>
        <Node pos="r" depth="1" NCoef="0" IVar="0" Cut="1.2261129617691040e+00" cType="1" res="-2.1816087886691093e-02" rms="4.3987581133842468e-01" purity="5.5077362060546875e-01" nType="0">
          <Node pos="l" depth="2" NCoef="0" IVar="-1" Cut="0.0000000000000000e+00" cType="1" res="-3.9482996799051762e-03" rms="4.5374506711959839e-01" purity="3.7450644373893738e-01" nType="-99"/>
          <Node pos="r" depth="2" NCoef="0" IVar="-1" Cut="0.0000000000000000e+00" cType="1" res="-1.6840419266372919e-04" rms="4.2913490533828735e-01" purity="6.7032420635223389e-01" nType="-99"/>
        </Node>
      </Node>
    </BinaryTree>
    <BinaryTree type="DecisionTree" boostWeight="1.0000000000000000e+00" itree="687">
      <Node pos="s" depth="0" NCoef="0" IVar="2" Cut="4.9914306640625000e+02" cType="1" res="2.5795544497668743e-03" rms="4.5132780075073242e-01" purity="4.9914872646331787e-01" nType="0">
        <Node pos="l" depth="1" NCoef="0" IVar="6" Cut="6.2157899141311646e-01" cType="1" res="4.9991328269243240e-03" rms="4.5175576210021973e-01" purity="4.7978499531745911e-01" nType="0">
          <Node pos="l" depth="2" NCoef="0" IVar="-1" Cut="0.0000000000000000e+00" cType="1" res="2.7059663552790880e-03" rms="4.6344438195228577e-01" purity="5.7793658971786499e-01" nType="-99"/>
          <Node pos="r" depth="2" NCoef="0" IVar="-1" Cut="0.0000000000000000e+00" cType="1" res="1.9905270892195404e-04" rms="4.5089519023895264e-01" purity="4.7343906760215759e-01" nType="-99"/>
        </Node>
        <Node pos="r" depth="1" NCoef="0" IVar="-1" Cut="0.0000000000000000e+00" cType="1" res="-1.2759255478158593e-03" rms="4.4712215662002563e-01" purity="6.6456139087677002e-01" nType="-99"/>
      </Node>
    </BinaryTree>
    <BinaryTree type="DecisionTree" boostWeight="1.0000000000000000e+00" itree="688">
      <Node pos="s" depth="0" NCoef="0" IVar="1" Cut="9.5998185873031616e-01" cType="1" res="-1.5277344500645995e-03" rms="4.4884824752807617e-01" purity="4.9854677915573120e-01" nType="0">
        <Node pos="l" depth="1" NCoef="0" IVar="7" Cut="8.6704045534133911e-01" cType="1" res="-4.6382700093090534e-03" rms="4.5770037174224854e-01" purity="4.4769355654716492e-01" nType="0">
          <Node pos="l" depth="2" NCoef="0" IVar="-1" Cut="0.0000000000000000e+00" cType="1" res="-1.3286600005812943e-04" rms="4.5811524987220764e-01" purity="4.4431126117706299e-01" nType="-99"/>
          <Node pos="r" depth="2" NCoef="0" IVar="-1" Cut="0.0000000000000000e+00" cType="1" res="-2.2031276021152735e-03" rms="4.5281884074211121e-01" purity="4.8015549778938293e-01" nType="-99"/>
        </Node>
        <Node pos="r" depth="1" NCoef="0" IVar="0" Cut="3.0595746040344238e+00" cType="1" res="1.5724757686257362e-02" rms="3.9573162794113159e-01" purity="7.8060269355773926e-01" nType="0">
          <Node pos="l" depth="2" NCoef="0" IVar="-1" Cut="0.0000000000000000e+00" cType="1" res="2.2725653834640980e-03" rms="4.1041216254234314e-01" purity="7.4958771467208862e-01" nType="-99"/>
          <Node pos="r" depth="2" NCoef="0" IVar="-1" Cut="0.0000000000000000e+00" cType="1" res="-8.3932311099488288e-05" rms="3.7923634052276611e-01" purity="8.1266260147094727e-01" nType="-99"/>
        </Node>
      </Node>
    </BinaryTree>
    <BinaryTree type="DecisionTree" boostWeight="1.0000000000000000e+00" itree="689">
      <Node pos="s" depth="0" NCoef="0" IVar="3" Cut="2.0368568599224091e-01" cType="1" res="3.1696567311882973e-03" rms="4.5023640990257263e-01" purity="5.0422799587249756e-01" nType="0">
        <Node pos="l" depth="1" NCoef="0" IVar="2" Cut="3.0748309326171875e+02" cType="1" res="5.7350522838532925e-03" rms="4.4903662800788879e-01" purity="5.0093823671340942e-01" nType="0">
          <Node pos="l" depth="2" NCoef="0" IVar="-1" Cut="0.0000000000000000e+00" cType="1" res="-1.3888475950807333e-04" rms="4.4337055087089539e-01" purity="3.8919904828071594e-01" nType="-99"/>
          <Node pos="r" depth="2" NCoef="0" IVar="-1" Cut="0.0000000000000000e+00" cType="1" res="8.5971929365769029e-04" rms="4.5431357622146606e-01" purity="6.0861307382583618e-01" nType="-99"/>
        </Node>
        <Node pos="r" depth="1" NCoef="0" IVar="3" Cut="2.4321705102920532e-01" cType="1" res="-1.9121522083878517e-02" rms="4.5992779731750488e-01" purity="5.3281325101852417e-01" nType="0">
          <Node pos="l" depth="2" NCoef="0" IVar="-1" Cut="0.0000000000000000e+00" cType="1" res="-1.3774967519566417e-03" rms="4.6175801753997803e-01" purity="5.2809345722198486e-01" nType="-99"/>
          <Node pos="r" depth="2" NCoef="0" IVar="-1" Cut="0.0000000000000000e+00" cType="1" res="-1.2467022752389312e-03" rms="4.5818284153938293e-01" purity="5.3729140758514404e-01" nType="-99"/>
        </Node>
      </Node>
    </BinaryTree>
    <BinaryTree type="DecisionTree" boostWeight="1.0000000000000000e+00" itree="690">
      <Node pos="s" depth="0" NCoef="0" IVar="0" Cut="2.8305208683013916e-01" cType="1" res="-9.6590287284925580e-04" rms="4.5127043128013611e-01" purity="4.9816197156906128e-01" nType="0">
        <Node pos="l" depth="1" NCoef="0" IVar="5" Cut="2.3098082747310400e-03" cType="1" res="1.8882777541875839e-02" rms="4.3627113103866577e-01" purity="3.2846498489379883e-01" nType="0">
          <Node pos="l" depth="2" NCoef="0" IVar="-1" Cut="0.0000000000000000e+00" cType="1" res="-4.2933816439472139e-04" rms="4.2433267831802368e-01" purity="2.9891681671142578e-01" nType="-99"/>
          <Node pos="r" depth="2" NCoef="0" IVar="-1" Cut="0.0000000000000000e+00" cType="1" res="3.3659578766673803e-03" rms="4.4588088989257812e-01" purity="3.5562232136726379e-01" nType="-99"/>
        </Node>
        <Node pos="r" depth="1" NCoef="0" IVar="1" Cut="9.7181046009063721e-01" cType="1" res="-4.5402962714433670e-03" rms="4.5382663607597351e-01" purity="5.2872145175933838e-01" nType="0">
          <Node pos="l" depth="2" NCoef="0" IVar="-1" Cut="0.0000000000000000e+00" cType="1" res="-5.7180551812052727e-04" rms="4.6280497312545776e-01" purity="4.9136671423912048e-01" nType="-99"/>
          <Node pos="r" depth="2" NCoef="0" IVar="-1" Cut="0.0000000000000000e+00" cType="1" res="1.9457601010799408e-03" rms="3.7638962268829346e-01" purity="8.1621539592742920e-01" nType="-99"/>
        </Node>
      </Node>
    </BinaryTree>
    <BinaryTree type="DecisionTree" boostWeight="1.0000000000000000e+00" itree="691">
      <Node pos="s" depth="0" NCoef="0" IVar="1" Cut="8.5611140727996826e-01" cType="1" res="2.5130610447376966e-03" rms="4.4847270846366882e-01" purity="4.9946323037147522e-01" nType="0">
        <Node pos="l" depth="1" NCoef="0" IVar="-1" Cut="0.0000000000000000e+00" cType="1" res="-2.6281718164682388e-03" rms="4.4593250751495361e-01" purity="3.2010611891746521e-01" nType="-99"/>
        <Node pos="r" depth="1" NCoef="0" IVar="7" Cut="3.6228159070014954e-01" cType="1" res="5.2806693129241467e-03" rms="4.4856357574462891e-01" purity="5.1397663354873657e-01" nType="0">
          <Node pos="l" depth="2" NCoef="0" IVar="-1" Cut="0.0000000000000000e+00" cType="1" res="2.1732710301876068e-03" rms="4.5899796485900879e-01" purity="5.1507228612899780e-01" nType="-99"/>
          <Node pos="r" depth="2" NCoef="0" IVar="-1" Cut="0.0000000000000000e+00" cType="1" res="2.6313273701816797e-04" rms="4.4785788655281067e-01" purity="5.1390862464904785e-01" nType="-99"/>
        </Node>
      </Node>
    </BinaryTree>
    <BinaryTree type="DecisionTree" boostWeight="1.0000000000000000e+00" itree="692">
      <Node pos="s" depth="0" NCoef="0" IVar="6" Cut="7.8204083442687988e-01" cType="1" res="3.1147960107773542e-03" rms="4.4810846447944641e-01" purity="5.0428634881973267e-01" nType="0">
        <Node pos="l" depth="1" NCoef="0" IVar="1" Cut="8.9453256130218506e-01" cType="1" res="1.7197519540786743e-02" rms="4.4134679436683655e-01" purity="6.0214370489120483e-01" nType="0">
          <Node pos="l" depth="2" NCoef="0" IVar="-1" Cut="0.0000000000000000e+00" cType="1" res="-3.1745046726427972e-04" rms="4.6231821179389954e-01" purity="4.6279621124267578e-01" nType="-99"/>
          <Node pos="r" depth="2" NCoef="0" IVar="-1" Cut="0.0000000000000000e+00" cType="1" res="2.2631622850894928e-03" rms="4.2564287781715393e-01" purity="6.9815891981124878e-01" nType="-99"/>
        </Node>
        <Node pos="r" depth="1" NCoef="0" IVar="4" Cut="4.5095607638359070e-01" cType="1" res="-2.2665447613690048e-04" rms="4.4963318109512329e-01" purity="4.8106735944747925e-01" nType="0">
          <Node pos="l" depth="2" NCoef="0" IVar="-1" Cut="0.0000000000000000e+00" cType="1" res="-5.3139188094064593e-04" rms="4.5105358958244324e-01" purity="4.5416906476020813e-01" nType="-99"/>
          <Node pos="r" depth="2" NCoef="0" IVar="-1" Cut="0.0000000000000000e+00" cType="1" res="7.2677969001233578e-04" rms="4.4731554388999939e-01" purity="5.2105361223220825e-01" nType="-99"/>
        </Node>
      </Node>
    </BinaryTree>
    <BinaryTree type="DecisionTree" boostWeight="1.0000000000000000e+00" itree="693">
      <Node pos="s" depth="0" NCoef="0" IVar="5" Cut="1.2831567437388003e-04" cType="1" res="6.1787026934325695e-03" rms="4.5043331384658813e-01" purity="5.0602114200592041e-01" nType="0">
        <Node pos="l" depth="1" NCoef="0" IVar="6" Cut="1.1316443681716919e+00" cType="1" res="-1.9658038392663002e-02" rms="4.1237133741378784e-01" purity="7.1392983198165894e-01" nType="0">
          <Node pos="l" depth="2" NCoef="0" IVar="-1" Cut="0.0000000000000000e+00" cType="1" res="-3.8983181002549827e-04" rms="3.9900973439216614e-01" purity="7.6016861200332642e-01" nType="-99"/>
          <Node pos="r" depth="2" NCoef="0" IVar="-1" Cut="0.0000000000000000e+00" cType="1" res="-2.8231895994395018e-03" rms="4.2511755228042603e-01" purity="6.6641575098037720e-01" nType="-99"/>
        </Node>
        <Node pos="r" depth="1" NCoef="0" IVar="1" Cut="9.4214862585067749e-01" cType="1" res="1.0020650923252106e-02" rms="4.5569673180580139e-01" purity="4.7510492801666260e-01" nType="0">
          <Node pos="l" depth="2" NCoef="0" IVar="-1" Cut="0.0000000000000000e+00" cType="1" res="3.9044834556989372e-04" rms="4.5791789889335632e-01" purity="4.4195282459259033e-01" nType="-99"/>
          <Node pos="r" depth="2" NCoef="0" IVar="-1" Cut="0.0000000000000000e+00" cType="1" res="2.5381066370755434e-03" rms="4.4028323888778687e-01" purity="6.8490463495254517e-01" nType="-99"/>
        </Node>
      </Node>
    </BinaryTree>
    <BinaryTree type="DecisionTree" boostWeight="1.0000000000000000e+00" itree="694">
      <Node pos="s" depth="0" NCoef="0" IVar="0" Cut="2.8786504268646240e+00" cType="1" res="4.5173387043178082e-03" rms="4.5177859067916870e-01" purity="5.0520807504653931e-01" nType="0">
        <Node pos="l" depth="1" NCoef="0" IVar="0" Cut="-2.4035058915615082e-01" cType="1" res="9.1079976409673691e-03" rms="4.5645171403884888e-01" purity="4.4826623797416687e-01" nType="0">
          <Node pos="l" depth="2" NCoef="0" IVar="-1" Cut="0.0000000000000000e+00" cType="1" res="-2.8322422876954079e-03" rms="4.1900485754013062e-01" purity="2.6853582262992859e-01" nType="-99"/>
          <Node pos="r" depth="2" NCoef="0" IVar="-1" Cut="0.0000000000000000e+00" cType="1" res="8.4931729361414909e-04" rms="4.5891007781028748e-01" purity="4.6123230457305908e-01" nType="-99"/>
        </Node>
        <Node pos="r" depth="1" NCoef="0" IVar="7" Cut="5.8875972032546997e-01" cType="1" res="-1.0063408873975277e-02" rms="4.3628409504890442e-01" purity="6.8606549501419067e-01" nType="0">
          <Node pos="l" depth="2" NCoef="0" IVar="-1" Cut="0.0000000000000000e+00" cType="1" res="-2.3895108606666327e-03" rms="4.5368123054504395e-01" purity="6.0514467954635620e-01" nType="-99"/>
          <Node pos="r" depth="2" NCoef="0" IVar="-1" Cut="0.0000000000000000e+00" cType="1" res="3.7609733408316970e-04" rms="4.2468526959419250e-01" purity="7.3496955633163452e-01" nType="-99"/>
        </Node>
      </Node>
    </BinaryTree>
    <BinaryTree type="DecisionTree" boostWeight="1.0000000000000000e+00" itree="695">
      <Node pos="s" depth="0" NCoef="0" IVar="2" Cut="5.1000039672851562e+02" cType="1" res="-2.2819895821157843e-04" rms="4.4984999299049377e-01" purity="5.0012189149856567e-01" nType="0">
        <Node pos="l" depth="1" NCoef="0" IVar="2" Cut="2.3555526733398438e+02" cType="1" res="-2.5434175040572882e-03" rms="4.5149201154708862e-01" purity="4.7693088650703430e-01" nType="0">
          <Node pos="l" depth="2" NCoef="0" IVar="-1" Cut="0.0000000000000000e+00" cType="1" res="-2.0389817655086517e-03" rms="4.2102161049842834e-01" purity="2.8935402631759644e-01" nType="-99"/>
          <Node pos="r" depth="2" NCoef="0" IVar="-1" Cut="0.0000000000000000e+00" cType="1" res="1.9255150982644409e-04" rms="4.5943012833595276e-01" purity="5.2888089418411255e-01" nType="-99"/>
        </Node>
        <Node pos="r" depth="1" NCoef="0" IVar="-1" Cut="0.0000000000000000e+00" cType="1" res="1.4267347287386656e-03" rms="4.3424993753433228e-01" purity="7.0868849754333496e-01" nType="-99"/>
      </Node>
    </BinaryTree>
    <BinaryTree type="DecisionTree" boostWeight="1.0000000000000000e+00" itree="696">
      <Node pos="s" depth="0" NCoef="0" IVar="2" Cut="5.8722912597656250e+02" cType="1" res="1.7314309661742300e-04" rms="4.4840934872627258e-01" purity="5.0072240829467773e-01" nType="0">
        <Node pos="l" depth="1" NCoef="0" IVar="6" Cut="1.6481785774230957e+00" cType="1" res="-1.5154418069869280e-03" rms="4.5002508163452148e-01" purity="4.8571616411209106e-01" nType="0">
          <Node pos="l" depth="2" NCoef="0" IVar="-1" Cut="0.0000000000000000e+00" cType="1" res="-3.4470888203941286e-04" rms="4.5369735360145569e-01" purity="4.9698123335838318e-01" nType="-99"/>
          <Node pos="r" depth="2" NCoef="0" IVar="-1" Cut="0.0000000000000000e+00" cType="1" res="1.0895945597440004e-03" rms="4.3210563063621521e-01" purity="4.3303775787353516e-01" nType="-99"/>
        </Node>
        <Node pos="r" depth="1" NCoef="0" IVar="-1" Cut="0.0000000000000000e+00" cType="1" res="1.8919171998277307e-03" rms="4.2136266827583313e-01" purity="7.3618590831756592e-01" nType="-99"/>
      </Node>
    </BinaryTree>
    <BinaryTree type="DecisionTree" boostWeight="1.0000000000000000e+00" itree="697">
      <Node pos="s" depth="0" NCoef="0" IVar="1" Cut="8.5990846157073975e-01" cType="1" res="-9.8869006615132093e-04" rms="4.5007413625717163e-01" purity="5.0037765502929688e-01" nType="0">
        <Node pos="l" depth="1" NCoef="0" IVar="2" Cut="3.0600738525390625e+02" cType="1" res="2.9517933726310730e-02" rms="4.6183446049690247e-01" purity="3.9071941375732422e-01" nType="0">
          <Node pos="l" depth="2" NCoef="0" IVar="-1" Cut="0.0000000000000000e+00" cType="1" res="4.9028345383703709e-03" rms="4.4705957174301147e-01" purity="3.2441344857215881e-01" nType="-99"/>
          <Node pos="r" depth="2" NCoef="0" IVar="-1" Cut="0.0000000000000000e+00" cType="1" res="-1.7602613661438227e-04" rms="4.7692820429801941e-01" purity="4.7009822726249695e-01" nType="-99"/>
        </Node>
        <Node pos="r" depth="1" NCoef="0" IVar="0" Cut="4.3995895385742188e+00" cType="1" res="-5.1359194330871105e-03" rms="4.4829130172729492e-01" purity="5.1528519392013550e-01" nType="0">
          <Node pos="l" depth="2" NCoef="0" IVar="-1" Cut="0.0000000000000000e+00" cType="1" res="-5.4344563977792859e-04" rms="4.5409911870956421e-01" purity="4.8738014698028564e-01" nType="-99"/>
          <Node pos="r" depth="2" NCoef="0" IVar="-1" Cut="0.0000000000000000e+00" cType="1" res="1.5408255858346820e-03" rms="3.8283002376556396e-01" purity="8.0129128694534302e-01" nType="-99"/>
        </Node>
      </Node>
    </BinaryTree>
    <BinaryTree type="DecisionTree" boostWeight="1.0000000000000000e+00" itree="698">
      <Node pos="s" depth="0" NCoef="0" IVar="7" Cut="6.5724569559097290e-01" cType="1" res="-8.7920459918677807e-04" rms="4.5086875557899475e-01" purity="4.9926036596298218e-01" nType="0">
        <Node pos="l" depth="1" NCoef="0" IVar="4" Cut="3.1637600064277649e-01" cType="1" res="-1.1744029819965363e-02" rms="4.4960936903953552e-01" purity="4.4325953722000122e-01" nType="0">
          <Node pos="l" depth="2" NCoef="0" IVar="-1" Cut="0.0000000000000000e+00" cType="1" res="-1.8560626776888967e-03" rms="4.4564825296401978e-01" purity="4.1342461109161377e-01" nType="-99"/>
          <Node pos="r" depth="2" NCoef="0" IVar="-1" Cut="0.0000000000000000e+00" cType="1" res="1.7274971469305456e-04" rms="4.5368862152099609e-01" purity="4.7739762067794800e-01" nType="-99"/>
        </Node>
        <Node pos="r" depth="1" NCoef="0" IVar="0" Cut="2.4816247820854187e-01" cType="1" res="1.0351623408496380e-02" rms="4.5189237594604492e-01" purity="5.5714768171310425e-01" nType="0">
          <Node pos="l" depth="2" NCoef="0" IVar="-1" Cut="0.0000000000000000e+00" cType="1" res="3.4605145920068026e-03" rms="4.6534895896911621e-01" purity="3.7789914011955261e-01" nType="-99"/>
          <Node pos="r" depth="2" NCoef="0" IVar="-1" Cut="0.0000000000000000e+00" cType="1" res="3.2210611971095204e-04" rms="4.4922602176666260e-01" purity="5.8895725011825562e-01" nType="-99"/>
        </Node>
      </Node>
    </BinaryTree>
    <BinaryTree type="DecisionTree" boostWeight="1.0000000000000000e+00" itree="699">
      <Node pos="s" depth="0" NCoef="0" IVar="1" Cut="9.7566694021224976e-01" cType="1" res="-8.1354862777516246e-04" rms="4.4977876543998718e-01" purity="4.9981263279914856e-01" nType="0">
        <Node pos="l" depth="1" NCoef="0" IVar="4" Cut="6.6829729080200195e-01" cType="1" res="-3.8851103745400906e-03" rms="4.5732691884040833e-01" purity="4.6754288673400879e-01" nType="0">
          <Node pos="l" depth="2" NCoef="0" IVar="-1" Cut="0.0000000000000000e+00" cType="1" res="-5.0483242375776172e-04" rms="4.5680555701255798e-01" purity="4.6194460988044739e-01" nType="-99"/>
          <Node pos="r" depth="2" NCoef="0" IVar="-1" Cut="0.0000000000000000e+00" cType="1" res="1.8284908728674054e-03" rms="4.6131780743598938e-01" purity="5.2262610197067261e-01" nType="-99"/>
        </Node>
        <Node pos="r" depth="1" NCoef="0" IVar="-1" Cut="0.0000000000000000e+00" cType="1" res="2.5390072260051966e-03" rms="3.6032572388648987e-01" purity="8.3605527877807617e-01" nType="-99"/>
      </Node>
    </BinaryTree>
    <BinaryTree type="DecisionTree" boostWeight="1.0000000000000000e+00" itree="700">
      <Node pos="s" depth="0" NCoef="0" IVar="4" Cut="6.5399193763732910e-01" cType="1" res="-3.3900225389515981e-05" rms="4.5009011030197144e-01" purity="4.9851986765861511e-01" nType="0">
        <Node pos="l" depth="1" NCoef="0" IVar="7" Cut="6.8405193090438843e-01" cType="1" res="-3.2807143870741129e-03" rms="4.5109450817108154e-01" purity="4.9091631174087524e-01" nType="0">
          <Node pos="l" depth="2" NCoef="0" IVar="-1" Cut="0.0000000000000000e+00" cType="1" res="4.3151981662958860e-04" rms="4.5186284184455872e-01" purity="4.6439287066459656e-01" nType="-99"/>
          <Node pos="r" depth="2" NCoef="0" IVar="-1" Cut="0.0000000000000000e+00" cType="1" res="-1.2877371627837420e-03" rms="4.4946089386940002e-01" purity="5.3374105691909790e-01" nType="-99"/>
        </Node>
        <Node pos="r" depth="1" NCoef="0" IVar="7" Cut="7.3878639936447144e-01" cType="1" res="2.5960160419344902e-02" rms="4.4110602140426636e-01" purity="5.5939370393753052e-01" nType="0">
          <Node pos="l" depth="2" NCoef="0" IVar="-1" Cut="0.0000000000000000e+00" cType="1" res="3.8361798506230116e-03" rms="4.4194701313972473e-01" purity="5.7350176572799683e-01" nType="-99"/>
          <Node pos="r" depth="2" NCoef="0" IVar="-1" Cut="0.0000000000000000e+00" cType="1" res="-8.0675614299252629e-05" rms="4.3859007954597473e-01" purity="5.4620051383972168e-01" nType="-99"/>
        </Node>
      </Node>
    </BinaryTree>
    <BinaryTree type="DecisionTree" boostWeight="1.0000000000000000e+00" itree="701">
      <Node pos="s" depth="0" NCoef="0" IVar="1" Cut="8.6382746696472168e-01" cType="1" res="-7.4665462598204613e-03" rms="4.4841030240058899e-01" purity="4.9270272254943848e-01" nType="0">
        <Node pos="l" depth="1" NCoef="0" IVar="7" Cut="6.9129335880279541e-01" cType="1" res="-2.8660219162702560e-02" rms="4.4073617458343506e-01" purity="3.3100557327270508e-01" nType="0">
          <Node pos="l" depth="2" NCoef="0" IVar="-1" Cut="0.0000000000000000e+00" cType="1" res="-4.6991906128823757e-03" rms="4.2098775506019592e-01" purity="2.7526089549064636e-01" nType="-99"/>
          <Node pos="r" depth="2" NCoef="0" IVar="-1" Cut="0.0000000000000000e+00" cType="1" res="7.6049676863476634e-04" rms="4.6686613559722900e-01" purity="4.1712057590484619e-01" nType="-99"/>
        </Node>
        <Node pos="r" depth="1" NCoef="0" IVar="5" Cut="2.6669993530958891e-03" cType="1" res="-3.3891170751303434e-03" rms="4.4975715875625610e-01" purity="5.2381145954132080e-01" nType="0">
          <Node pos="l" depth="2" NCoef="0" IVar="-1" Cut="0.0000000000000000e+00" cType="1" res="-5.3712172666564584e-04" rms="4.4792661070823669e-01" purity="5.3385746479034424e-01" nType="-99"/>
          <Node pos="r" depth="2" NCoef="0" IVar="-1" Cut="0.0000000000000000e+00" cType="1" res="2.0671011880040169e-03" rms="4.6317362785339355e-01" purity="4.4130074977874756e-01" nType="-99"/>
        </Node>
      </Node>
    </BinaryTree>
    <BinaryTree type="DecisionTree" boostWeight="1.0000000000000000e+00" itree="702">
      <Node pos="s" depth="0" NCoef="0" IVar="5" Cut="1.5485307667404413e-03" cType="1" res="1.1987164180027321e-04" rms="4.5185974240303040e-01" purity="4.9748009443283081e-01" nType="0">
        <Node pos="l" depth="1" NCoef="0" IVar="6" Cut="1.6461967229843140e+00" cType="1" res="-7.8200018033385277e-03" rms="4.4580578804016113e-01" purity="5.5622661113739014e-01" nType="0">
          <Node pos="l" depth="2" NCoef="0" IVar="-1" Cut="0.0000000000000000e+00" cType="1" res="-8.3521369379013777e-04" rms="4.4765365123748779e-01" purity="5.6834477186203003e-01" nType="-99"/>
          <Node pos="r" depth="2" NCoef="0" IVar="-1" Cut="0.0000000000000000e+00" cType="1" res="8.1752846017479897e-04" rms="4.3588873744010925e-01" purity="4.9508300423622131e-01" nType="-99"/>
        </Node>
        <Node pos="r" depth="1" NCoef="0" IVar="5" Cut="3.0679006595164537e-03" cType="1" res="1.0565700940787792e-02" rms="4.5949405431747437e-01" purity="4.2019224166870117e-01" nType="0">
          <Node pos="l" depth="2" NCoef="0" IVar="-1" Cut="0.0000000000000000e+00" cType="1" res="1.8119779415428638e-03" rms="4.6485266089439392e-01" purity="4.4076028466224670e-01" nType="-99"/>
          <Node pos="r" depth="2" NCoef="0" IVar="-1" Cut="0.0000000000000000e+00" cType="1" res="-1.6176786739379168e-03" rms="4.4581291079521179e-01" purity="3.7522172927856445e-01" nType="-99"/>
        </Node>
      </Node>
    </BinaryTree>
    <BinaryTree type="DecisionTree" boostWeight="1.0000000000000000e+00" itree="703">
      <Node pos="s" depth="0" NCoef="0" IVar="0" Cut="7.7690891921520233e-02" cType="1" res="-3.0722820665687323e-03" rms="4.4777467846870422e-01" purity="4.9490386247634888e-01" nType="0">
        <Node pos="l" depth="1" NCoef="0" IVar="3" Cut="-1.1758466251194477e-02" cType="1" res="-3.1154949218034744e-02" rms="4.2099815607070923e-01" purity="2.5690695643424988e-01" nType="0">
          <Node pos="l" depth="2" NCoef="0" IVar="-1" Cut="0.0000000000000000e+00" cType="1" res="-1.6713095828890800e-03" rms="4.2092278599739075e-01" purity="2.5158500671386719e-01" nType="-99"/>
          <Node pos="r" depth="2" NCoef="0" IVar="-1" Cut="0.0000000000000000e+00" cType="1" res="-4.3090274557471275e-03" rms="4.2061814665794373e-01" purity="2.6157873868942261e-01" nType="-99"/>
        </Node>
        <Node pos="r" depth="1" NCoef="0" IVar="2" Cut="3.1213906860351562e+02" cType="1" res="3.6343932151794434e-04" rms="4.5082136988639832e-01" purity="5.2402120828628540e-01" nType="0">
          <Node pos="l" depth="2" NCoef="0" IVar="-1" Cut="0.0000000000000000e+00" cType="1" res="-6.2212691409513354e-04" rms="4.5451933145523071e-01" purity="4.1635182499885559e-01" nType="-99"/>
          <Node pos="r" depth="2" NCoef="0" IVar="-1" Cut="0.0000000000000000e+00" cType="1" res="6.3111673807725310e-04" rms="4.4670054316520691e-01" purity="6.3773965835571289e-01" nType="-99"/>
        </Node>
      </Node>
    </BinaryTree>
    <BinaryTree type="DecisionTree" boostWeight="1.0000000000000000e+00" itree="704">
      <Node pos="s" depth="0" NCoef="0" IVar="2" Cut="2.2332936096191406e+02" cType="1" res="-5.1148803904652596e-03" rms="4.5079454779624939e-01" purity="4.9605479836463928e-01" nType="0">
        <Node pos="l" depth="1" NCoef="0" IVar="7" Cut="5.7776588201522827e-01" cType="1" res="1.5641503036022186e-02" rms="4.2697677016258240e-01" purity="3.0078148841857910e-01" nType="0">
          <Node pos="l" depth="2" NCoef="0" IVar="-1" Cut="0.0000000000000000e+00" cType="1" res="4.3435334227979183e-03" rms="4.3289667367935181e-01" purity="3.1326696276664734e-01" nType="-99"/>
          <Node pos="r" depth="2" NCoef="0" IVar="-1" Cut="0.0000000000000000e+00" cType="1" res="-8.5802481044083834e-04" rms="4.2041712999343872e-01" purity="2.9050090909004211e-01" nType="-99"/>
        </Node>
        <Node pos="r" depth="1" NCoef="0" IVar="7" Cut="5.1872026920318604e-01" cType="1" res="-8.7405685335397720e-03" rms="4.5472985506057739e-01" purity="5.3016477823257446e-01" nType="0">
          <Node pos="l" depth="2" NCoef="0" IVar="-1" Cut="0.0000000000000000e+00" cType="1" res="-1.9558430649340153e-03" rms="4.5196223258972168e-01" purity="4.5890372991561890e-01" nType="-99"/>
          <Node pos="r" depth="2" NCoef="0" IVar="-1" Cut="0.0000000000000000e+00" cType="1" res="-1.7526322335470468e-04" rms="4.5551341772079468e-01" purity="5.5468183755874634e-01" nType="-99"/>
        </Node>
      </Node>
    </BinaryTree>
    <BinaryTree type="DecisionTree" boostWeight="1.0000000000000000e+00" itree="705">
      <Node pos="s" depth="0" NCoef="0" IVar="6" Cut="8.4323996305465698e-01" cType="1" res="3.7324677687138319e-03" rms="4.4916564226150513e-01" purity="5.0489354133605957e-01" nType="0">
        <Node pos="l" depth="1" NCoef="0" IVar="0" Cut="2.7527213096618652e+00" cType="1" res="-9.3032559379935265e-03" rms="4.4963100552558899e-01" purity="5.6616437435150146e-01" nType="0">
          <Node pos="l" depth="2" NCoef="0" IVar="-1" Cut="0.0000000000000000e+00" cType="1" res="-1.5087593346834183e-03" rms="4.6578830480575562e-01" purity="4.8305109143257141e-01" nType="-99"/>
          <Node pos="r" depth="2" NCoef="0" IVar="-1" Cut="0.0000000000000000e+00" cType="1" res="1.4007725985720754e-03" rms="4.0736475586891174e-01" purity="7.6294434070587158e-01" nType="-99"/>
        </Node>
        <Node pos="r" depth="1" NCoef="0" IVar="7" Cut="8.6956828832626343e-01" cType="1" res="7.7260360121726990e-03" rms="4.4894725084304810e-01" purity="4.8612281680107117e-01" nType="0">
          <Node pos="l" depth="2" NCoef="0" IVar="-1" Cut="0.0000000000000000e+00" cType="1" res="7.6380872633308172e-04" rms="4.4971480965614319e-01" purity="4.8062890768051147e-01" nType="-99"/>
          <Node pos="r" depth="2" NCoef="0" IVar="-1" Cut="0.0000000000000000e+00" cType="1" res="-1.3248111354187131e-03" rms="4.4067353010177612e-01" purity="5.3880834579467773e-01" nType="-99"/>
        </Node>
      </Node>
    </BinaryTree>
    <BinaryTree type="DecisionTree" boostWeight="1.0000000000000000e+00" itree="706">
      <Node pos="s" depth="0" NCoef="0" IVar="3" Cut="-1.0399179160594940e-01" cType="1" res="-1.3711240608245134e-03" rms="4.4848826527595520e-01" purity="4.9808204174041748e-01" nType="0">
        <Node pos="l" depth="1" NCoef="0" IVar="5" Cut="1.0091124568134546e-03" cType="1" res="-1.9560486078262329e-02" rms="4.3881902098655701e-01" purity="4.3456846475601196e-01" nType="0">
          <Node pos="l" depth="2" NCoef="0" IVar="-1" Cut="0.0000000000000000e+00" cType="1" res="-3.0353685724548995e-04" rms="4.4360831379890442e-01" purity="5.4736882448196411e-01" nType="-99"/>
          <Node pos="r" depth="2" NCoef="0" IVar="-1" Cut="0.0000000000000000e+00" cType="1" res="-2.6206043548882008e-03" rms="4.3448475003242493e-01" purity="3.4291648864746094e-01" nType="-99"/>
        </Node>
        <Node pos="r" depth="1" NCoef="0" IVar="5" Cut="2.4125119671225548e-03" cType="1" res="1.6355909174308181e-03" rms="4.4999581575393677e-01" purity="5.0858092308044434e-01" nType="0">
          <Node pos="l" depth="2" NCoef="0" IVar="-1" Cut="0.0000000000000000e+00" cType="1" res="4.6330396435223520e-04" rms="4.4811549782752991e-01" purity="5.4721742868423462e-01" nType="-99"/>
          <Node pos="r" depth="2" NCoef="0" IVar="-1" Cut="0.0000000000000000e+00" cType="1" res="-9.5939519815146923e-04" rms="4.5535901188850403e-01" purity="3.9081877470016479e-01" nType="-99"/>
        </Node>
      </Node>
    </BinaryTree>
    <BinaryTree type="DecisionTree" boostWeight="1.0000000000000000e+00" itree="707">
      <Node pos="s" depth="0" NCoef="0" IVar="4" Cut="1.9970577955245972e-01" cType="1" res="-7.6644925866276026e-04" rms="4.4797128438949585e-01" purity="5.0105226039886475e-01" nType="0">
        <Node pos="l" depth="1" NCoef="0" IVar="6" Cut="1.2246876955032349e+00" cType="1" res="2.2554062306880951e-02" rms="4.5450088381767273e-01" purity="4.7432488203048706e-01" nType="0">
          <Node pos="l" depth="2" NCoef="0" IVar="-1" Cut="0.0000000000000000e+00" cType="1" res="5.8571732370182872e-04" rms="4.5756354928016663e-01" purity="5.0504642724990845e-01" nType="-99"/>
          <Node pos="r" depth="2" NCoef="0" IVar="-1" Cut="0.0000000000000000e+00" cType="1" res="3.3098829444497824e-03" rms="4.4914603233337402e-01" purity="4.2909765243530273e-01" nType="-99"/>
        </Node>
        <Node pos="r" depth="1" NCoef="0" IVar="2" Cut="3.1857864379882812e+02" cType="1" res="-5.6296787224709988e-03" rms="4.4644412398338318e-01" purity="5.0662595033645630e-01" nType="0">
          <Node pos="l" depth="2" NCoef="0" IVar="-1" Cut="0.0000000000000000e+00" cType="1" res="-1.1441415408626199e-03" rms="4.4272425770759583e-01" purity="4.0468814969062805e-01" nType="-99"/>
          <Node pos="r" depth="2" NCoef="0" IVar="-1" Cut="0.0000000000000000e+00" cType="1" res="4.3094105785712600e-04" rms="4.5100218057632446e-01" purity="6.4061164855957031e-01" nType="-99"/>
        </Node>
      </Node>
    </BinaryTree>
    <BinaryTree type="DecisionTree" boostWeight="1.0000000000000000e+00" itree="708">
      <Node pos="s" depth="0" NCoef="0" IVar="4" Cut="6.6329157352447510e-01" cType="1" res="2.0689647644758224e-03" rms="4.5031398534774780e-01" purity="5.0100624561309814e-01" nType="0">
        <Node pos="l" depth="1" NCoef="0" IVar="7" Cut="5.6158322095870972e-01" cType="1" res="-9.5750828040763736e-04" rms="4.5126798748970032e-01" purity="4.9294614791870117e-01" nType="0">
          <Node pos="l" depth="2" NCoef="0" IVar="-1" Cut="0.0000000000000000e+00" cType="1" res="8.9413765817880630e-04" rms="4.5161673426628113e-01" purity="4.5682805776596069e-01" nType="-99"/>
          <Node pos="r" depth="2" NCoef="0" IVar="-1" Cut="0.0000000000000000e+00" cType="1" res="-6.4012303482741117e-04" rms="4.5086690783500671e-01" purity="5.1516920328140259e-01" nType="-99"/>
        </Node>
        <Node pos="r" depth="1" NCoef="0" IVar="-1" Cut="0.0000000000000000e+00" cType="1" res="2.0608559716492891e-03" rms="4.4067266583442688e-01" purity="5.7374191284179688e-01" nType="-99"/>
      </Node>
    </BinaryTree>
    <BinaryTree type="DecisionTree" boostWeight="1.0000000000000000e+00" itree="709">
      <Node pos="s" depth="0" NCoef="0" IVar="1" Cut="8.6768567562103271e-01" cType="1" res="4.9347272142767906e-03" rms="4.5068114995956421e-01" purity="5.0397694110870361e-01" nType="0">
        <Node pos="l" depth="1" NCoef="0" IVar="2" Cut="2.6373715209960938e+02" cType="1" res="-1.1532321572303772e-02" rms="4.4889414310455322e-01" purity="3.4511923789978027e-01" nType="0">
          <Node pos="l" depth="2" NCoef="0" IVar="-1" Cut="0.0000000000000000e+00" cType="1" res="1.7826869152486324e-03" rms="4.1148042678833008e-01" purity="2.4281445145606995e-01" nType="-99"/>
          <Node pos="r" depth="2" NCoef="0" IVar="-1" Cut="0.0000000000000000e+00" cType="1" res="-1.9459845498204231e-03" rms="4.6832984685897827e-01" purity="4.0414968132972717e-01" nType="-99"/>
        </Node>
        <Node pos="r" depth="1" NCoef="0" IVar="5" Cut="2.6243026368319988e-03" cType="1" res="8.9827254414558411e-03" rms="4.5102730393409729e-01" purity="5.4302799701690674e-01" nType="0">
          <Node pos="l" depth="2" NCoef="0" IVar="-1" Cut="0.0000000000000000e+00" cType="1" res="4.1100237285718322e-04" rms="4.4949305057525635e-01" purity="5.5079668760299683e-01" nType="-99"/>
          <Node pos="r" depth="2" NCoef="0" IVar="-1" Cut="0.0000000000000000e+00" cType="1" res="2.9334963764995337e-03" rms="4.6573704481124878e-01" purity="4.6001893281936646e-01" nType="-99"/>
        </Node>
      </Node>
    </BinaryTree>
    <BinaryTree type="DecisionTree" boostWeight="1.0000000000000000e+00" itree="710">
      <Node pos="s" depth="0" NCoef="0" IVar="6" Cut="1.4695076942443848e+00" cType="1" res="3.1334960367530584e-03" rms="4.4812613725662231e-01" purity="5.0464892387390137e-01" nType="0">
        <Node pos="l" depth="1" NCoef="0" IVar="4" Cut="1.5468913316726685e-01" cType="1" res="8.4664365276694298e-03" rms="4.5387351512908936e-01" purity="5.3346484899520874e-01" nType="0">
          <Node pos="l" depth="2" NCoef="0" IVar="-1" Cut="0.0000000000000000e+00" cType="1" res="2.5006113573908806e-03" rms="4.5897978544235229e-01" purity="5.0155591964721680e-01" nType="-99"/>
          <Node pos="r" depth="2" NCoef="0" IVar="-1" Cut="0.0000000000000000e+00" cType="1" res="3.6952312802895904e-04" rms="4.5316350460052490e-01" purity="5.3720581531524658e-01" nType="-99"/>
        </Node>
        <Node pos="r" depth="1" NCoef="0" IVar="6" Cut="1.9626282453536987e+00" cType="1" res="-1.1952530592679977e-02" rms="4.3109616637229919e-01" purity="4.2313328385353088e-01" nType="0">
          <Node pos="l" depth="2" NCoef="0" IVar="-1" Cut="0.0000000000000000e+00" cType="1" res="-1.7629291396588087e-03" rms="4.3663224577903748e-01" purity="4.1444554924964905e-01" nType="-99"/>
          <Node pos="r" depth="2" NCoef="0" IVar="-1" Cut="0.0000000000000000e+00" cType="1" res="1.5138373710215092e-03" rms="4.1245400905609131e-01" purity="4.4922399520874023e-01" nType="-99"/>
        </Node>
      </Node>
    </BinaryTree>
    <BinaryTree type="DecisionTree" boostWeight="1.0000000000000000e+00" itree="711">
      <Node pos="s" depth="0" NCoef="0" IVar="0" Cut="1.3346539735794067e+00" cType="1" res="4.9108322709798813e-03" rms="4.4888108968734741e-01" purity="5.0487637519836426e-01" nType="0">
        <Node pos="l" depth="1" NCoef="0" IVar="4" Cut="3.5754165053367615e-01" cType="1" res="-4.0793796069920063e-03" rms="4.4747313857078552e-01" purity="3.6012798547744751e-01" nType="0">
          <Node pos="l" depth="2" NCoef="0" IVar="-1" Cut="0.0000000000000000e+00" cType="1" res="-1.6809758963063359e-03" rms="4.3354055285453796e-01" purity="3.2172471284866333e-01" nType="-99"/>
          <Node pos="r" depth="2" NCoef="0" IVar="-1" Cut="0.0000000000000000e+00" cType="1" res="5.7279685279354453e-04" rms="4.5713004469871521e-01" purity="3.8842988014221191e-01" nType="-99"/>
        </Node>
        <Node pos="r" depth="1" NCoef="0" IVar="4" Cut="1.8107827007770538e-01" cType="1" res="1.1340670287609100e-02" rms="4.4977515935897827e-01" purity="6.0840100049972534e-01" nType="0">
          <Node pos="l" depth="2" NCoef="0" IVar="-1" Cut="0.0000000000000000e+00" cType="1" res="2.7928135823458433e-03" rms="4.6308255195617676e-01" purity="5.7461619377136230e-01" nType="-99"/>
          <Node pos="r" depth="2" NCoef="0" IVar="-1" Cut="0.0000000000000000e+00" cType="1" res="3.7142023211345077e-04" rms="4.4712385535240173e-01" purity="6.1439627408981323e-01" nType="-99"/>
        </Node>
      </Node>
    </BinaryTree>
    <BinaryTree type="DecisionTree" boostWeight="1.0000000000000000e+00" itree="712">
      <Node pos="s" depth="0" NCoef="0" IVar="3" Cut="-3.0960829462856054e-03" cType="1" res="-1.1161671718582511e-03" rms="4.4937932491302490e-01" purity="4.9811622500419617e-01" nType="0">
        <Node pos="l" depth="1" NCoef="0" IVar="1" Cut="8.9077925682067871e-01" cType="1" res="8.3754053339362144e-03" rms="4.4681093096733093e-01" purity="4.8285472393035889e-01" nType="0">
          <Node pos="l" depth="2" NCoef="0" IVar="-1" Cut="0.0000000000000000e+00" cType="1" res="2.1068747155368328e-03" rms="4.5270058512687683e-01" purity="3.7226170301437378e-01" nType="-99"/>
          <Node pos="r" depth="2" NCoef="0" IVar="-1" Cut="0.0000000000000000e+00" cType="1" res="-2.9534794157370925e-04" rms="4.4228386878967285e-01" purity="5.5890130996704102e-01" nType="-99"/>
        </Node>
        <Node pos="r" depth="1" NCoef="0" IVar="5" Cut="3.0970596708357334e-03" cType="1" res="-9.4692707061767578e-03" rms="4.5146247744560242e-01" purity="5.1154714822769165e-01" nType="0">
          <Node pos="l" depth="2" NCoef="0" IVar="-1" Cut="0.0000000000000000e+00" cType="1" res="-1.3803213369101286e-04" rms="4.5187008380889893e-01" purity="5.3447860479354858e-01" nType="-99"/>
          <Node pos="r" depth="2" NCoef="0" IVar="-1" Cut="0.0000000000000000e+00" cType="1" res="-4.4921175576746464e-03" rms="4.4524845480918884e-01" purity="3.5409882664680481e-01" nType="-99"/>
        </Node>
      </Node>
    </BinaryTree>
    <BinaryTree type="DecisionTree" boostWeight="1.0000000000000000e+00" itree="713">
      <Node pos="s" depth="0" NCoef="0" IVar="1" Cut="9.2554110288619995e-01" cType="1" res="-5.7451003231108189e-03" rms="4.4738793373107910e-01" purity="4.9863731861114502e-01" nType="0">
        <Node pos="l" depth="1" NCoef="0" IVar="5" Cut="3.4676017239689827e-03" cType="1" res="-1.2968700379133224e-02" rms="4.5341792702674866e-01" purity="4.0735900402069092e-01" nType="0">
          <Node pos="l" depth="2" NCoef="0" IVar="-1" Cut="0.0000000000000000e+00" cType="1" res="-1.2803269783034921e-03" rms="4.5272338390350342e-01" purity="4.0655511617660522e-01" nType="-99"/>
          <Node pos="r" depth="2" NCoef="0" IVar="-1" Cut="0.0000000000000000e+00" cType="1" res="1.2377599487081170e-03" rms="4.5714214444160461e-01" purity="4.1305300593376160e-01" nType="-99"/>
        </Node>
        <Node pos="r" depth="1" NCoef="0" IVar="5" Cut="1.5050858200993389e-04" cType="1" res="8.4349187090992928e-03" rms="4.3495941162109375e-01" purity="6.7781782150268555e-01" nType="0">
          <Node pos="l" depth="2" NCoef="0" IVar="-1" Cut="0.0000000000000000e+00" cType="1" res="-8.4467773558571935e-04" rms="4.0466398000717163e-01" purity="7.5018137693405151e-01" nType="-99"/>
          <Node pos="r" depth="2" NCoef="0" IVar="-1" Cut="0.0000000000000000e+00" cType="1" res="1.4005646808072925e-03" rms="4.5393475890159607e-01" purity="6.2865126132965088e-01" nType="-99"/>
        </Node>
      </Node>
    </BinaryTree>
    <BinaryTree type="DecisionTree" boostWeight="1.0000000000000000e+00" itree="714">
      <Node pos="s" depth="0" NCoef="0" IVar="7" Cut="3.5726317763328552e-01" cType="1" res="-1.7781089991331100e-03" rms="4.5146596431732178e-01" purity="4.9707511067390442e-01" nType="0">
        <Node pos="l" depth="1" NCoef="0" IVar="-1" Cut="0.0000000000000000e+00" cType="1" res="3.5095270723104477e-03" rms="4.6435368061065674e-01" purity="5.2289235591888428e-01" nType="-99"/>
        <Node pos="r" depth="1" NCoef="0" IVar="4" Cut="5.5484604835510254e-01" cType="1" res="-4.8113795928657055e-03" rms="4.5052465796470642e-01" purity="4.9558731913566589e-01" nType="0">
          <Node pos="l" depth="2" NCoef="0" IVar="-1" Cut="0.0000000000000000e+00" cType="1" res="6.6027154389303178e-05" rms="4.5214688777923584e-01" purity="4.9215292930603027e-01" nType="-99"/>
          <Node pos="r" depth="2" NCoef="0" IVar="-1" Cut="0.0000000000000000e+00" cType="1" res="-1.7047141445800662e-03" rms="4.4488236308097839e-01" purity="5.0642788410186768e-01" nType="-99"/>
        </Node>
      </Node>
    </BinaryTree>
    <BinaryTree type="DecisionTree" boostWeight="1.0000000000000000e+00" itree="715">
      <Node pos="s" depth="0" NCoef="0" IVar="5" Cut="2.1937438286840916e-03" cType="1" res="-1.4677201397716999e-03" rms="4.4973433017730713e-01" purity="4.9749991297721863e-01" nType="0">
        <Node pos="l" depth="1" NCoef="0" IVar="0" Cut="1.0116623640060425e+00" cType="1" res="5.6078885681927204e-03" rms="4.4824290275573730e-01" purity="5.4714095592498779e-01" nType="0">
          <Node pos="l" depth="2" NCoef="0" IVar="-1" Cut="0.0000000000000000e+00" cType="1" res="1.7741145566105843e-03" rms="4.5263826847076416e-01" purity="3.8231196999549866e-01" nType="-99"/>
          <Node pos="r" depth="2" NCoef="0" IVar="-1" Cut="0.0000000000000000e+00" cType="1" res="-1.1933580935874488e-05" rms="4.4650676846504211e-01" purity="6.0655409097671509e-01" nType="-99"/>
        </Node>
        <Node pos="r" depth="1" NCoef="0" IVar="2" Cut="3.4412615966796875e+02" cType="1" res="-1.9307937473058701e-02" rms="4.5298260450363159e-01" purity="3.7233656644821167e-01" nType="0">
          <Node pos="l" depth="2" NCoef="0" IVar="-1" Cut="0.0000000000000000e+00" cType="1" res="-4.9781781854107976e-04" rms="4.3811926245689392e-01" purity="3.2271635532379150e-01" nType="-99"/>
          <Node pos="r" depth="2" NCoef="0" IVar="-1" Cut="0.0000000000000000e+00" cType="1" res="-3.0016249511390924e-03" rms="4.8092588782310486e-01" purity="4.7417223453521729e-01" nType="-99"/>
        </Node>
      </Node>
    </BinaryTree>
    <BinaryTree type="DecisionTree" boostWeight="1.0000000000000000e+00" itree="716">
      <Node pos="s" depth="0" NCoef="0" IVar="3" Cut="1.3254716992378235e-02" cType="1" res="2.2278747055679560e-03" rms="4.4925066828727722e-01" purity="5.0099676847457886e-01" nType="0">
        <Node pos="l" depth="1" NCoef="0" IVar="6" Cut="9.1695189476013184e-01" cType="1" res="1.1942519806325436e-02" rms="4.4495469331741333e-01" purity="4.8679223656654358e-01" nType="0">
          <Node pos="l" depth="2" NCoef="0" IVar="-1" Cut="0.0000000000000000e+00" cType="1" res="2.0175541285425425e-03" rms="4.5727741718292236e-01" purity="5.6968641281127930e-01" nType="-99"/>
          <Node pos="r" depth="2" NCoef="0" IVar="-1" Cut="0.0000000000000000e+00" cType="1" res="3.2556775840930641e-04" rms="4.3922093510627747e-01" purity="4.5043352246284485e-01" nType="-99"/>
        </Node>
        <Node pos="r" depth="1" NCoef="0" IVar="6" Cut="9.2272537946701050e-01" cType="1" res="-7.9445289447903633e-03" rms="4.5348247885704041e-01" purity="5.1587057113647461e-01" nType="0">
          <Node pos="l" depth="2" NCoef="0" IVar="-1" Cut="0.0000000000000000e+00" cType="1" res="-1.6865000361576676e-03" rms="4.5579847693443298e-01" purity="5.5659264326095581e-01" nType="-99"/>
          <Node pos="r" depth="2" NCoef="0" IVar="-1" Cut="0.0000000000000000e+00" cType="1" res="-9.1484413133002818e-05" rms="4.5235988497734070e-01" purity="4.9914833903312683e-01" nType="-99"/>
        </Node>
      </Node>
    </BinaryTree>
    <BinaryTree type="DecisionTree" boostWeight="1.0000000000000000e+00" itree="717">
      <Node pos="s" depth="0" NCoef="0" IVar="7" Cut="8.2622790336608887e-01" cType="1" res="-1.9654761999845505e-03" rms="4.4577139616012573e-01" purity="4.9765557050704956e-01" nType="0">
        <Node pos="l" depth="1" NCoef="0" IVar="5" Cut="3.4841925371438265e-03" cType="1" res="-6.9005554541945457e-03" rms="4.4810479879379272e-01" purity="4.7832942008972168e-01" nType="0">
          <Node pos="l" depth="2" NCoef="0" IVar="-1" Cut="0.0000000000000000e+00" cType="1" res="-7.0911552757024765e-04" rms="4.4614261388778687e-01" purity="4.8498591780662537e-01" nType="-99"/>
          <Node pos="r" depth="2" NCoef="0" IVar="-1" Cut="0.0000000000000000e+00" cType="1" res="1.7427989514544606e-03" rms="4.6910640597343445e-01" purity="4.0125691890716553e-01" nType="-99"/>
        </Node>
        <Node pos="r" depth="1" NCoef="0" IVar="2" Cut="3.0541259765625000e+02" cType="1" res="2.1385144442319870e-02" rms="4.3380030989646912e-01" purity="5.8909827470779419e-01" nType="0">
          <Node pos="l" depth="2" NCoef="0" IVar="-1" Cut="0.0000000000000000e+00" cType="1" res="5.0417438615113497e-05" rms="4.4103080034255981e-01" purity="4.3826189637184143e-01" nType="-99"/>
          <Node pos="r" depth="2" NCoef="0" IVar="-1" Cut="0.0000000000000000e+00" cType="1" res="2.3471636231988668e-03" rms="4.2838367819786072e-01" purity="6.8918126821517944e-01" nType="-99"/>
        </Node>
      </Node>
    </BinaryTree>
    <BinaryTree type="DecisionTree" boostWeight="1.0000000000000000e+00" itree="718">
      <Node pos="s" depth="0" NCoef="0" IVar="3" Cut="2.3413610458374023e-01" cType="1" res="6.6551781492307782e-04" rms="4.5054718852043152e-01" purity="5.0059795379638672e-01" nType="0">
        <Node pos="l" depth="1" NCoef="0" IVar="0" Cut="1.9000113010406494e+00" cType="1" res="3.2715778797864914e-03" rms="4.4955193996429443e-01" purity="4.9895414710044861e-01" nType="0">
          <Node pos="l" depth="2" NCoef="0" IVar="-1" Cut="0.0000000000000000e+00" cType="1" res="7.4848911026492715e-04" rms="4.5442441105842590e-01" purity="3.9960372447967529e-01" nType="-99"/>
          <Node pos="r" depth="2" NCoef="0" IVar="-1" Cut="0.0000000000000000e+00" cType="1" res="-3.5620428388938308e-04" rms="4.4285497069358826e-01" purity="6.3088345527648926e-01" nType="-99"/>
        </Node>
        <Node pos="r" depth="1" NCoef="0" IVar="-1" Cut="0.0000000000000000e+00" cType="1" res="-2.4570298846811056e-03" rms="4.6277412772178650e-01" purity="5.2373248338699341e-01" nType="-99"/>
      </Node>
    </BinaryTree>
    <BinaryTree type="DecisionTree" boostWeight="1.0000000000000000e+00" itree="719">
      <Node pos="s" depth="0" NCoef="0" IVar="3" Cut="-1.0272488743066788e-01" cType="1" res="1.3477028114721179e-03" rms="4.5054021477699280e-01" purity="5.0248086452484131e-01" nType="0">
        <Node pos="l" depth="1" NCoef="0" IVar="4" Cut="3.0511289834976196e-01" cType="1" res="2.6791419833898544e-02" rms="4.4983696937561035e-01" purity="4.7684675455093384e-01" nType="0">
          <Node pos="l" depth="2" NCoef="0" IVar="-1" Cut="0.0000000000000000e+00" cType="1" res="4.7018309123814106e-04" rms="4.3910968303680420e-01" purity="4.3189239501953125e-01" nType="-99"/>
          <Node pos="r" depth="2" NCoef="0" IVar="-1" Cut="0.0000000000000000e+00" cType="1" res="3.3250770065933466e-03" rms="4.5879560708999634e-01" purity="5.1887482404708862e-01" nType="-99"/>
        </Node>
        <Node pos="r" depth="1" NCoef="0" IVar="3" Cut="1.2539850547909737e-02" cType="1" res="-3.1104814261198044e-03" rms="4.5051538944244385e-01" purity="5.0697237253189087e-01" nType="0">
          <Node pos="l" depth="2" NCoef="0" IVar="-1" Cut="0.0000000000000000e+00" cType="1" res="-1.0255216620862484e-03" rms="4.4571238756179810e-01" purity="4.7216901183128357e-01" nType="-99"/>
          <Node pos="r" depth="2" NCoef="0" IVar="-1" Cut="0.0000000000000000e+00" cType="1" res="3.1543837394565344e-04" rms="4.5378163456916809e-01" purity="5.3197324275970459e-01" nType="-99"/>
        </Node>
      </Node>
    </BinaryTree>
    <BinaryTree type="DecisionTree" boostWeight="1.0000000000000000e+00" itree="720">
      <Node pos="s" depth="0" NCoef="0" IVar="3" Cut="-7.3729984462261200e-02" cType="1" res="8.0724647268652916e-03" rms="4.5034873485565186e-01" purity="5.0755304098129272e-01" nType="0">
        <Node pos="l" depth="1" NCoef="0" IVar="6" Cut="1.0326697826385498e+00" cType="1" res="2.3155124858021736e-02" rms="4.4368124008178711e-01" purity="4.8781555891036987e-01" nType="0">
          <Node pos="l" depth="2" NCoef="0" IVar="-1" Cut="0.0000000000000000e+00" cType="1" res="3.3831584732979536e-04" rms="4.4476354122161865e-01" purity="5.2688544988632202e-01" nType="-99"/>
          <Node pos="r" depth="2" NCoef="0" IVar="-1" Cut="0.0000000000000000e+00" cType="1" res="2.8392176609486341e-03" rms="4.4237497448921204e-01" purity="4.5871651172637939e-01" nType="-99"/>
        </Node>
        <Node pos="r" depth="1" NCoef="0" IVar="5" Cut="3.0970543157309294e-03" cType="1" res="2.9983625281602144e-03" rms="4.5245671272277832e-01" purity="5.1419305801391602e-01" nType="0">
          <Node pos="l" depth="2" NCoef="0" IVar="-1" Cut="0.0000000000000000e+00" cType="1" res="5.2125920774415135e-04" rms="4.5193257927894592e-01" purity="5.3455758094787598e-01" nType="-99"/>
          <Node pos="r" depth="2" NCoef="0" IVar="-1" Cut="0.0000000000000000e+00" cType="1" res="-1.9108712440356612e-03" rms="4.5493936538696289e-01" purity="3.7545388936996460e-01" nType="-99"/>
        </Node>
      </Node>
    </BinaryTree>
    <BinaryTree type="DecisionTree" boostWeight="1.0000000000000000e+00" itree="721">
      <Node pos="s" depth="0" NCoef="0" IVar="4" Cut="5.4680550098419189e-01" cType="1" res="-9.6788862720131874e-04" rms="4.4986757636070251e-01" purity="4.9511399865150452e-01" nType="0">
        <Node pos="l" depth="1" NCoef="0" IVar="5" Cut="3.4841818269342184e-03" cType="1" res="3.2651438377797604e-03" rms="4.5067456364631653e-01" purity="4.8899632692337036e-01" nType="0">
          <Node pos="l" depth="2" NCoef="0" IVar="-1" Cut="0.0000000000000000e+00" cType="1" res="5.5697757488815114e-05" rms="4.4883972406387329e-01" purity="4.9537387490272522e-01" nType="-99"/>
          <Node pos="r" depth="2" NCoef="0" IVar="-1" Cut="0.0000000000000000e+00" cType="1" res="2.3291618563234806e-03" rms="4.7092005610466003e-01" purity="4.1321483254432678e-01" nType="-99"/>
        </Node>
        <Node pos="r" depth="1" NCoef="0" IVar="0" Cut="6.9406086206436157e-01" cType="1" res="-1.4257432892918587e-02" rms="4.4706425070762634e-01" purity="5.1432031393051147e-01" nType="0">
          <Node pos="l" depth="2" NCoef="0" IVar="-1" Cut="0.0000000000000000e+00" cType="1" res="9.7272748826071620e-04" rms="4.5149651169776917e-01" purity="3.6651489138603210e-01" nType="-99"/>
          <Node pos="r" depth="2" NCoef="0" IVar="-1" Cut="0.0000000000000000e+00" cType="1" res="-1.6897837631404400e-03" rms="4.4501560926437378e-01" purity="5.6914597749710083e-01" nType="-99"/>
        </Node>
      </Node>
    </BinaryTree>
    <BinaryTree type="DecisionTree" boostWeight="1.0000000000000000e+00" itree="722">
      <Node pos="s" depth="0" NCoef="0" IVar="2" Cut="3.2186395263671875e+02" cType="1" res="-3.7733709905296564e-04" rms="4.4629794359207153e-01" purity="5.0089079141616821e-01" nType="0">
        <Node pos="l" depth="1" NCoef="0" IVar="6" Cut="8.4764778614044189e-01" cType="1" res="-9.4160009175539017e-03" rms="4.4447448849678040e-01" purity="4.0226703882217407e-01" nType="0">
          <Node pos="l" depth="2" NCoef="0" IVar="-1" Cut="0.0000000000000000e+00" cType="1" res="1.8999117892235518e-03" rms="4.5425257086753845e-01" purity="4.8943415284156799e-01" nType="-99"/>
          <Node pos="r" depth="2" NCoef="0" IVar="-1" Cut="0.0000000000000000e+00" cType="1" res="-1.3591732131317258e-03" rms="4.4198393821716309e-01" purity="3.8373261690139771e-01" nType="-99"/>
        </Node>
        <Node pos="r" depth="1" NCoef="0" IVar="6" Cut="1.5437921285629272e+00" cType="1" res="1.0840893723070621e-02" rms="4.4829741120338440e-01" purity="6.2329638004302979e-01" nType="0">
          <Node pos="l" depth="2" NCoef="0" IVar="-1" Cut="0.0000000000000000e+00" cType="1" res="3.7473204429261386e-04" rms="4.4921985268592834e-01" purity="6.2140101194381714e-01" nType="-99"/>
          <Node pos="r" depth="2" NCoef="0" IVar="-1" Cut="0.0000000000000000e+00" cType="1" res="2.9233165550976992e-03" rms="4.4071358442306519e-01" purity="6.3566333055496216e-01" nType="-99"/>
        </Node>
      </Node>
    </BinaryTree>
    <BinaryTree type="DecisionTree" boostWeight="1.0000000000000000e+00" itree="723">
      <Node pos="s" depth="0" NCoef="0" IVar="1" Cut="9.3711036443710327e-01" cType="1" res="6.2529784627258778e-03" rms="4.4797638058662415e-01" purity="5.0770282745361328e-01" nType="0">
        <Node pos="l" depth="1" NCoef="0" IVar="7" Cut="7.1273922920227051e-01" cType="1" res="6.4355095673818141e-05" rms="4.5766642689704895e-01" purity="4.3105784058570862e-01" nType="0">
          <Node pos="l" depth="2" NCoef="0" IVar="-1" Cut="0.0000000000000000e+00" cType="1" res="-7.8234594548121095e-04" rms="4.5309203863143921e-01" purity="3.9320200681686401e-01" nType="-99"/>
          <Node pos="r" depth="2" NCoef="0" IVar="-1" Cut="0.0000000000000000e+00" cType="1" res="1.1874091578647494e-03" rms="4.6474659442901611e-01" purity="4.9485319852828979e-01" nType="-99"/>
        </Node>
        <Node pos="r" depth="1" NCoef="0" IVar="4" Cut="3.1109747290611267e-01" cType="1" res="2.3464623838663101e-02" rms="4.1937240958213806e-01" purity="7.2086602449417114e-01" nType="0">
          <Node pos="l" depth="2" NCoef="0" IVar="-1" Cut="0.0000000000000000e+00" cType="1" res="2.9732473194599152e-03" rms="4.2468401789665222e-01" purity="6.9828480482101440e-01" nType="-99"/>
          <Node pos="r" depth="2" NCoef="0" IVar="-1" Cut="0.0000000000000000e+00" cType="1" res="8.8581192540004849e-04" rms="4.1597750782966614e-01" purity="7.3331946134567261e-01" nType="-99"/>
        </Node>
      </Node>
    </BinaryTree>
    <BinaryTree type="DecisionTree" boostWeight="1.0000000000000000e+00" itree="724">
      <Node pos="s" depth="0" NCoef="0" IVar="5" Cut="5.1370059372857213e-04" cType="1" res="6.2855738215148449e-03" rms="4.5079737901687622e-01" purity="5.0742387771606445e-01" nType="0">
        <Node pos="l" depth="1" NCoef="0" IVar="5" Cut="3.5562322591431439e-04" cType="1" res="-7.8723346814513206e-03" rms="4.2870125174522400e-01" purity="6.4467352628707886e-01" nType="0">
          <Node pos="l" depth="2" NCoef="0" IVar="-1" Cut="0.0000000000000000e+00" cType="1" res="-1.5475806139875203e-04" rms="4.2335382103919983e-01" purity="6.7691016197204590e-01" nType="-99"/>
          <Node pos="r" depth="2" NCoef="0" IVar="-1" Cut="0.0000000000000000e+00" cType="1" res="-2.5311494246125221e-03" rms="4.5136994123458862e-01" purity="4.9732649326324463e-01" nType="-99"/>
        </Node>
        <Node pos="r" depth="1" NCoef="0" IVar="1" Cut="9.2410486936569214e-01" cType="1" res="1.2050431221723557e-02" rms="4.5936521887779236e-01" purity="4.5153817534446716e-01" nType="0">
          <Node pos="l" depth="2" NCoef="0" IVar="-1" Cut="0.0000000000000000e+00" cType="1" res="5.6408351520076394e-04" rms="4.5959156751632690e-01" purity="4.2825257778167725e-01" nType="-99"/>
          <Node pos="r" depth="2" NCoef="0" IVar="-1" Cut="0.0000000000000000e+00" cType="1" res="2.5980081409215927e-03" rms="4.5673698186874390e-01" purity="6.1259180307388306e-01" nType="-99"/>
        </Node>
      </Node>
    </BinaryTree>
    <BinaryTree type="DecisionTree" boostWeight="1.0000000000000000e+00" itree="725">
      <Node pos="s" depth="0" NCoef="0" IVar="7" Cut="4.5902460813522339e-01" cType="1" res="7.2192158550024033e-03" rms="4.5160648226737976e-01" purity="5.0724780559539795e-01" nType="0">
        <Node pos="l" depth="1" NCoef="0" IVar="7" Cut="3.5607346892356873e-01" cType="1" res="-1.7965316772460938e-02" rms="4.4741755723953247e-01" purity="4.3018719553947449e-01" nType="0">
          <Node pos="l" depth="2" NCoef="0" IVar="-1" Cut="0.0000000000000000e+00" cType="1" res="6.3938560197129846e-04" rms="4.7251641750335693e-01" purity="4.7847768664360046e-01" nType="-99"/>
          <Node pos="r" depth="2" NCoef="0" IVar="-1" Cut="0.0000000000000000e+00" cType="1" res="-2.2750101052224636e-03" rms="4.3575841188430786e-01" purity="4.0957650542259216e-01" nType="-99"/>
        </Node>
        <Node pos="r" depth="1" NCoef="0" IVar="6" Cut="1.0599809885025024e+00" cType="1" res="1.2554271146655083e-02" rms="4.5230892300605774e-01" purity="5.2357220649719238e-01" nType="0">
          <Node pos="l" depth="2" NCoef="0" IVar="-1" Cut="0.0000000000000000e+00" cType="1" res="1.6671795165166259e-03" rms="4.5640993118286133e-01" purity="5.8081859350204468e-01" nType="-99"/>
          <Node pos="r" depth="2" NCoef="0" IVar="-1" Cut="0.0000000000000000e+00" cType="1" res="2.7850281912833452e-04" rms="4.4904094934463501e-01" purity="4.8110660910606384e-01" nType="-99"/>
        </Node>
      </Node>
    </BinaryTree>
    <BinaryTree type="DecisionTree" boostWeight="1.0000000000000000e+00" itree="726">
      <Node pos="s" depth="0" NCoef="0" IVar="7" Cut="4.3935680389404297e-01" cType="1" res="5.9084343956783414e-04" rms="4.5111730694770813e-01" purity="5.0013381242752075e-01" nType="0">
        <Node pos="l" depth="1" NCoef="0" IVar="3" Cut="1.3369303941726685e-01" cType="1" res="-2.2168284282088280e-02" rms="4.4186052680015564e-01" purity="4.2367586493492126e-01" nType="0">
          <Node pos="l" depth="2" NCoef="0" IVar="-1" Cut="0.0000000000000000e+00" cType="1" res="-4.8101688735187054e-03" rms="4.0577954053878784e-01" purity="2.6517063379287720e-01" nType="-99"/>
          <Node pos="r" depth="2" NCoef="0" IVar="-1" Cut="0.0000000000000000e+00" cType="1" res="-3.9433003985323012e-04" rms="4.6039709448814392e-01" purity="5.1422703266143799e-01" nType="-99"/>
        </Node>
        <Node pos="r" depth="1" NCoef="0" IVar="6" Cut="7.5722402334213257e-01" cType="1" res="4.3247351422905922e-03" rms="4.5250862836837769e-01" purity="5.1267755031585693e-01" nType="0">
          <Node pos="l" depth="2" NCoef="0" IVar="-1" Cut="0.0000000000000000e+00" cType="1" res="-9.8186463583260775e-04" rms="4.5129558444023132e-01" purity="5.7110071182250977e-01" nType="-99"/>
          <Node pos="r" depth="2" NCoef="0" IVar="-1" Cut="0.0000000000000000e+00" cType="1" res="5.8544235071167350e-04" rms="4.5266738533973694e-01" purity="5.0057679414749146e-01" nType="-99"/>
        </Node>
      </Node>
    </BinaryTree>
    <BinaryTree type="DecisionTree" boostWeight="1.0000000000000000e+00" itree="727">
      <Node pos="s" depth="0" NCoef="0" IVar="7" Cut="7.9202049970626831e-01" cType="1" res="-4.4060400687158108e-03" rms="4.4870659708976746e-01" purity="4.9376755952835083e-01" nType="0">
        <Node pos="l" depth="1" NCoef="0" IVar="5" Cut="1.2829063052777201e-04" cType="1" res="4.1378036257810891e-04" rms="4.4946646690368652e-01" purity="4.8065131902694702e-01" nType="0">
          <Node pos="l" depth="2" NCoef="0" IVar="-1" Cut="0.0000000000000000e+00" cType="1" res="-1.7569682095199823e-03" rms="4.2051556706428528e-01" purity="6.9444221258163452e-01" nType="-99"/>
          <Node pos="r" depth="2" NCoef="0" IVar="-1" Cut="0.0000000000000000e+00" cType="1" res="2.6400724891573191e-04" rms="4.5334881544113159e-01" purity="4.5018938183784485e-01" nType="-99"/>
        </Node>
        <Node pos="r" depth="1" NCoef="0" IVar="5" Cut="1.1438834480941296e-03" cType="1" res="-2.1268291398882866e-02" rms="4.4562795758247375e-01" purity="5.3965502977371216e-01" nType="0">
          <Node pos="l" depth="2" NCoef="0" IVar="-1" Cut="0.0000000000000000e+00" cType="1" res="8.0717829405330122e-05" rms="4.3028214573860168e-01" purity="6.5468287467956543e-01" nType="-99"/>
          <Node pos="r" depth="2" NCoef="0" IVar="-1" Cut="0.0000000000000000e+00" cType="1" res="-3.1047943048179150e-03" rms="4.5957845449447632e-01" purity="4.2282745242118835e-01" nType="-99"/>
        </Node>
      </Node>
    </BinaryTree>
    <BinaryTree type="DecisionTree" boostWeight="1.0000000000000000e+00" itree="728">
      <Node pos="s" depth="0" NCoef="0" IVar="6" Cut="9.3608683347702026e-01" cType="1" res="1.0169146844418719e-04" rms="4.4850960373878479e-01" purity="4.9918410181999207e-01" nType="0">
        <Node pos="l" depth="1" NCoef="0" IVar="2" Cut="4.6550744628906250e+02" cType="1" res="1.3384715653955936e-02" rms="4.5188423991203308e-01" purity="5.7647311687469482e-01" nType="0">
          <Node pos="l" depth="2" NCoef="0" IVar="-1" Cut="0.0000000000000000e+00" cType="1" res="1.6440979670733213e-03" rms="4.5333030819892883e-01" purity="5.4855370521545410e-01" nType="-99"/>
          <Node pos="r" depth="2" NCoef="0" IVar="-1" Cut="0.0000000000000000e+00" cType="1" res="-1.4154383679851890e-03" rms="4.4571533799171448e-01" purity="6.6297101974487305e-01" nType="-99"/>
        </Node>
        <Node pos="r" depth="1" NCoef="0" IVar="1" Cut="8.5996347665786743e-01" cType="1" res="-6.0685845091938972e-03" rms="4.4679901003837585e-01" purity="4.6328157186508179e-01" nType="0">
          <Node pos="l" depth="2" NCoef="0" IVar="-1" Cut="0.0000000000000000e+00" cType="1" res="1.4090338954702020e-03" rms="4.4720333814620972e-01" purity="3.5221686959266663e-01" nType="-99"/>
          <Node pos="r" depth="2" NCoef="0" IVar="-1" Cut="0.0000000000000000e+00" cType="1" res="-6.9259630981832743e-04" rms="4.4664055109024048e-01" purity="4.7898486256599426e-01" nType="-99"/>
        </Node>
      </Node>
    </BinaryTree>
    <BinaryTree type="DecisionTree" boostWeight="1.0000000000000000e+00" itree="729">
      <Node pos="s" depth="0" NCoef="0" IVar="5" Cut="3.5925703123211861e-03" cType="1" res="3.8135072682052851e-03" rms="4.4876393675804138e-01" purity="5.0377118587493896e-01" nType="0">
        <Node pos="l" depth="1" NCoef="0" IVar="5" Cut="2.6712561957538128e-03" cType="1" res="5.6164478883147240e-03" rms="4.4844746589660645e-01" purity="5.1199817657470703e-01" nType="0">
          <Node pos="l" depth="2" NCoef="0" IVar="-1" Cut="0.0000000000000000e+00" cType="1" res="1.4365655079018325e-04" rms="4.4665491580963135e-01" purity="5.2841305732727051e-01" nType="-99"/>
          <Node pos="r" depth="2" NCoef="0" IVar="-1" Cut="0.0000000000000000e+00" cType="1" res="1.8359653186053038e-03" rms="4.5775219798088074e-01" purity="4.2085146903991699e-01" nType="-99"/>
        </Node>
        <Node pos="r" depth="1" NCoef="0" IVar="-1" Cut="0.0000000000000000e+00" cType="1" res="-1.7229350050911307e-03" rms="4.5264402031898499e-01" purity="3.7953335046768188e-01" nType="-99"/>
      </Node>
    </BinaryTree>
    <BinaryTree type="DecisionTree" boostWeight="1.0000000000000000e+00" itree="730">
      <Node pos="s" depth="0" NCoef="0" IVar="4" Cut="1.2929767370223999e-01" cType="1" res="2.7151929680258036e-03" rms="4.4943213462829590e-01" purity="5.0206190347671509e-01" nType="0">
        <Node pos="l" depth="1" NCoef="0" IVar="-1" Cut="0.0000000000000000e+00" cType="1" res="-2.1416468080133200e-03" rms="4.3784359097480774e-01" purity="4.0810176730155945e-01" nType="-99"/>
        <Node pos="r" depth="1" NCoef="0" IVar="7" Cut="6.3968586921691895e-01" cType="1" res="4.8041297122836113e-03" rms="4.5013403892517090e-01" purity="5.0845730304718018e-01" nType="0">
          <Node pos="l" depth="2" NCoef="0" IVar="-1" Cut="0.0000000000000000e+00" cType="1" res="1.1866634013131261e-03" rms="4.5393061637878418e-01" purity="4.7137847542762756e-01" nType="-99"/>
          <Node pos="r" depth="2" NCoef="0" IVar="-1" Cut="0.0000000000000000e+00" cType="1" res="-3.2469409052282572e-04" rms="4.4674912095069885e-01" purity="5.3915202617645264e-01" nType="-99"/>
        </Node>
      </Node>
    </BinaryTree>
    <BinaryTree type="DecisionTree" boostWeight="1.0000000000000000e+00" itree="731">
      <Node pos="s" depth="0" NCoef="0" IVar="5" Cut="2.5277468375861645e-03" cType="1" res="4.1069497819989920e-04" rms="4.4937518239021301e-01" purity="5.0010740756988525e-01" nType="0">
        <Node pos="l" depth="1" NCoef="0" IVar="3" Cut="-5.9232536703348160e-02" cType="1" res="-4.3513770215213299e-03" rms="4.4586491584777832e-01" purity="5.2629214525222778e-01" nType="0">
          <Node pos="l" depth="2" NCoef="0" IVar="-1" Cut="0.0000000000000000e+00" cType="1" res="-1.5347844455391169e-03" rms="4.3491727113723755e-01" purity="4.7814604640007019e-01" nType="-99"/>
          <Node pos="r" depth="2" NCoef="0" IVar="-1" Cut="0.0000000000000000e+00" cType="1" res="1.5253908350132406e-04" rms="4.5020309090614319e-01" purity="5.4641586542129517e-01" nType="-99"/>
        </Node>
        <Node pos="r" depth="1" NCoef="0" IVar="3" Cut="-3.0538452789187431e-02" cType="1" res="1.5977866947650909e-02" rms="4.6031999588012695e-01" purity="4.1450974345207214e-01" nType="0">
          <Node pos="l" depth="2" NCoef="0" IVar="-1" Cut="0.0000000000000000e+00" cType="1" res="3.5446740221232176e-03" rms="4.5617449283599854e-01" purity="4.2201337218284607e-01" nType="-99"/>
          <Node pos="r" depth="2" NCoef="0" IVar="-1" Cut="0.0000000000000000e+00" cType="1" res="-4.6344503061845899e-04" rms="4.6175330877304077e-01" purity="4.0941363573074341e-01" nType="-99"/>
        </Node>
      </Node>
    </BinaryTree>
    <BinaryTree type="DecisionTree" boostWeight="1.0000000000000000e+00" itree="732">
      <Node pos="s" depth="0" NCoef="0" IVar="6" Cut="7.5806391239166260e-01" cType="1" res="9.6832914277911186e-04" rms="4.5087969303131104e-01" purity="4.9913915991783142e-01" nType="0">
        <Node pos="l" depth="1" NCoef="0" IVar="4" Cut="2.9475542902946472e-01" cType="1" res="-1.7829108983278275e-02" rms="4.4930240511894226e-01" purity="5.6230831146240234e-01" nType="0">
          <Node pos="l" depth="2" NCoef="0" IVar="-1" Cut="0.0000000000000000e+00" cType="1" res="7.8006746480241418e-04" rms="4.4752687215805054e-01" purity="5.6562167406082153e-01" nType="-99"/>
          <Node pos="r" depth="2" NCoef="0" IVar="-1" Cut="0.0000000000000000e+00" cType="1" res="-2.6433651801198721e-03" rms="4.4944712519645691e-01" purity="5.6022673845291138e-01" nType="-99"/>
        </Node>
        <Node pos="r" depth="1" NCoef="0" IVar="6" Cut="8.3808195590972900e-01" cType="1" res="4.7363326884806156e-03" rms="4.5110097527503967e-01" purity="4.8647674918174744e-01" nType="0">
          <Node pos="l" depth="2" NCoef="0" IVar="-1" Cut="0.0000000000000000e+00" cType="1" res="3.0175726860761642e-03" rms="4.5886471867561340e-01" purity="5.9654998779296875e-01" nType="-99"/>
          <Node pos="r" depth="2" NCoef="0" IVar="-1" Cut="0.0000000000000000e+00" cType="1" res="9.4924274890217930e-05" rms="4.5026612281799316e-01" purity="4.7712391614913940e-01" nType="-99"/>
        </Node>
      </Node>
    </BinaryTree>
    <BinaryTree type="DecisionTree" boostWeight="1.0000000000000000e+00" itree="733">
      <Node pos="s" depth="0" NCoef="0" IVar="6" Cut="1.4701555967330933e+00" cType="1" res="1.5796407824382186e-03" rms="4.5082622766494751e-01" purity="5.0400876998901367e-01" nType="0">
        <Node pos="l" depth="1" NCoef="0" IVar="4" Cut="6.5854912996292114e-01" cType="1" res="6.4932252280414104e-03" rms="4.5527771115303040e-01" purity="5.3465032577514648e-01" nType="0">
          <Node pos="l" depth="2" NCoef="0" IVar="-1" Cut="0.0000000000000000e+00" cType="1" res="6.6893885377794504e-04" rms="4.5636561512947083e-01" purity="5.3377473354339600e-01" nType="-99"/>
          <Node pos="r" depth="2" NCoef="0" IVar="-1" Cut="0.0000000000000000e+00" cType="1" res="-1.6215913929045200e-03" rms="4.4380462169647217e-01" purity="5.4293823242187500e-01" nType="-99"/>
        </Node>
        <Node pos="r" depth="1" NCoef="0" IVar="5" Cut="5.1317462930455804e-04" cType="1" res="-1.2605786323547363e-02" rms="4.3741139769554138e-01" purity="4.1554713249206543e-01" nType="0">
          <Node pos="l" depth="2" NCoef="0" IVar="-1" Cut="0.0000000000000000e+00" cType="1" res="-4.2522293515503407e-03" rms="4.3259313702583313e-01" purity="5.4378581047058105e-01" nType="-99"/>
          <Node pos="r" depth="2" NCoef="0" IVar="-1" Cut="0.0000000000000000e+00" cType="1" res="1.8934943364001811e-04" rms="4.3816375732421875e-01" purity="3.6939364671707153e-01" nType="-99"/>
        </Node>
      </Node>
    </BinaryTree>
    <BinaryTree type="DecisionTree" boostWeight="1.0000000000000000e+00" itree="734">
      <Node pos="s" depth="0" NCoef="0" IVar="4" Cut="1.7502705752849579e-01" cType="1" res="-1.0189755121245980e-03" rms="4.5070031285285950e-01" purity="4.9903792142868042e-01" nType="0">
        <Node pos="l" depth="1" NCoef="0" IVar="4" Cut="1.1653392016887665e-01" cType="1" res="2.2849841043353081e-02" rms="4.5060089230537415e-01" purity="4.7925263643264771e-01" nType="0">
          <Node pos="l" depth="2" NCoef="0" IVar="-1" Cut="0.0000000000000000e+00" cType="1" res="-4.3068558443337679e-04" rms="4.4352373480796814e-01" purity="4.3376606702804565e-01" nType="-99"/>
          <Node pos="r" depth="2" NCoef="0" IVar="-1" Cut="0.0000000000000000e+00" cType="1" res="2.8765448369085789e-03" rms="4.5404836535453796e-01" purity="5.0773006677627563e-01" nType="-99"/>
        </Node>
        <Node pos="r" depth="1" NCoef="0" IVar="2" Cut="3.1888638305664062e+02" cType="1" res="-4.7848126851022243e-03" rms="4.5060053467750549e-01" purity="5.0215947628021240e-01" nType="0">
          <Node pos="l" depth="2" NCoef="0" IVar="-1" Cut="0.0000000000000000e+00" cType="1" res="1.6466293891426176e-04" rms="4.4764852523803711e-01" purity="4.1734355688095093e-01" nType="-99"/>
          <Node pos="r" depth="2" NCoef="0" IVar="-1" Cut="0.0000000000000000e+00" cType="1" res="-9.5280888490378857e-04" rms="4.5433652400970459e-01" purity="6.1507242918014526e-01" nType="-99"/>
        </Node>
      </Node>
    </BinaryTree>
    <BinaryTree type="DecisionTree" boostWeight="1.0000000000000000e+00" itree="735">
      <Node pos="s" depth="0" NCoef="0" IVar="4" Cut="5.7491034269332886e-01" cType="1" res="-3.9998395368456841e-03" rms="4.4747713208198547e-01" purity="4.9636957049369812e-01" nType="0">
        <Node pos="l" depth="1" NCoef="0" IVar="6" Cut="7.7093923091888428e-01" cType="1" res="3.5809166729450226e-04" rms="4.4936546683311462e-01" purity="4.9215736985206604e-01" nType="0">
          <Node pos="l" depth="2" NCoef="0" IVar="-1" Cut="0.0000000000000000e+00" cType="1" res="1.1143288575112820e-03" rms="4.5092654228210449e-01" purity="5.8700591325759888e-01" nType="-99"/>
          <Node pos="r" depth="2" NCoef="0" IVar="-1" Cut="0.0000000000000000e+00" cType="1" res="-2.5357768754474819e-04" rms="4.4891139864921570e-01" purity="4.6968910098075867e-01" nType="-99"/>
        </Node>
        <Node pos="r" depth="1" NCoef="0" IVar="2" Cut="2.4702638244628906e+02" cType="1" res="-2.1987861022353172e-02" rms="4.3913948535919189e-01" purity="5.1375633478164673e-01" nType="0">
          <Node pos="l" depth="2" NCoef="0" IVar="-1" Cut="0.0000000000000000e+00" cType="1" res="-4.4068098068237305e-03" rms="4.2434039711952209e-01" purity="3.1945416331291199e-01" nType="-99"/>
          <Node pos="r" depth="2" NCoef="0" IVar="-1" Cut="0.0000000000000000e+00" cType="1" res="-4.3531550909392536e-04" rms="4.4594886898994446e-01" purity="6.1614859104156494e-01" nType="-99"/>
        </Node>
      </Node>
    </BinaryTree>
    <BinaryTree type="DecisionTree" boostWeight="1.0000000000000000e+00" itree="736">
      <Node pos="s" depth="0" NCoef="0" IVar="7" Cut="8.1115937232971191e-01" cType="1" res="-3.2370621338486671e-03" rms="4.5233330130577087e-01" purity="4.9588486552238464e-01" nType="0">
        <Node pos="l" depth="1" NCoef="0" IVar="7" Cut="7.3501002788543701e-01" cType="1" res="-7.4604069814085960e-03" rms="4.5460629463195801e-01" purity="4.7546643018722534e-01" nType="0">
          <Node pos="l" depth="2" NCoef="0" IVar="-1" Cut="0.0000000000000000e+00" cType="1" res="-2.4583045160397887e-04" rms="4.5674762129783630e-01" purity="4.6480000019073486e-01" nType="-99"/>
          <Node pos="r" depth="2" NCoef="0" IVar="-1" Cut="0.0000000000000000e+00" cType="1" res="-1.9247032469138503e-03" rms="4.4393172860145569e-01" purity="5.2540308237075806e-01" nType="-99"/>
        </Node>
        <Node pos="r" depth="1" NCoef="0" IVar="2" Cut="2.8290417480468750e+02" cType="1" res="1.3781002722680569e-02" rms="4.4264796376228333e-01" purity="5.7816129922866821e-01" nType="0">
          <Node pos="l" depth="2" NCoef="0" IVar="-1" Cut="0.0000000000000000e+00" cType="1" res="-1.4661564491689205e-03" rms="4.4497683644294739e-01" purity="3.8674968481063843e-01" nType="-99"/>
          <Node pos="r" depth="2" NCoef="0" IVar="-1" Cut="0.0000000000000000e+00" cType="1" res="1.9022925989702344e-03" rms="4.4074645638465881e-01" purity="6.6733491420745850e-01" nType="-99"/>
        </Node>
      </Node>
    </BinaryTree>
    <BinaryTree type="DecisionTree" boostWeight="1.0000000000000000e+00" itree="737">
      <Node pos="s" depth="0" NCoef="0" IVar="3" Cut="1.3564611971378326e-01" cType="1" res="3.7983565125614405e-03" rms="4.5227274298667908e-01" purity="5.0142306089401245e-01" nType="0">
        <Node pos="l" depth="1" NCoef="0" IVar="7" Cut="4.4103151559829712e-01" cType="1" res="-2.5330770295113325e-03" rms="4.4987663626670837e-01" purity="4.8463827371597290e-01" nType="0">
          <Node pos="l" depth="2" NCoef="0" IVar="-1" Cut="0.0000000000000000e+00" cType="1" res="-3.8939914666116238e-03" rms="4.1705220937728882e-01" purity="2.7330461144447327e-01" nType="-99"/>
          <Node pos="r" depth="2" NCoef="0" IVar="-1" Cut="0.0000000000000000e+00" cType="1" res="1.2156136108387727e-05" rms="4.5197087526321411e-01" purity="4.9948993325233459e-01" nType="-99"/>
        </Node>
        <Node pos="r" depth="1" NCoef="0" IVar="2" Cut="3.2764343261718750e+02" cType="1" res="2.5709403678774834e-02" rms="4.5979619026184082e-01" purity="5.5950987339019775e-01" nType="0">
          <Node pos="l" depth="2" NCoef="0" IVar="-1" Cut="0.0000000000000000e+00" cType="1" res="2.6960121467709541e-03" rms="4.6446943283081055e-01" purity="5.0097644329071045e-01" nType="-99"/>
          <Node pos="r" depth="2" NCoef="0" IVar="-1" Cut="0.0000000000000000e+00" cType="1" res="1.0982535604853183e-04" rms="4.5078492164611816e-01" purity="6.5821498632431030e-01" nType="-99"/>
        </Node>
      </Node>
    </BinaryTree>
    <BinaryTree type="DecisionTree" boostWeight="1.0000000000000000e+00" itree="738">
      <Node pos="s" depth="0" NCoef="0" IVar="1" Cut="8.5610365867614746e-01" cType="1" res="3.5810921690426767e-04" rms="4.4955778121948242e-01" purity="5.0026899576187134e-01" nType="0">
        <Node pos="l" depth="1" NCoef="0" IVar="-1" Cut="0.0000000000000000e+00" cType="1" res="2.0958669483661652e-03" rms="4.5810821652412415e-01" purity="3.7618035078048706e-01" nType="-99"/>
        <Node pos="r" depth="1" NCoef="0" IVar="4" Cut="6.5994000434875488e-01" cType="1" res="-1.9385997438803315e-03" rms="4.4874235987663269e-01" purity="5.1091289520263672e-01" nType="0">
          <Node pos="l" depth="2" NCoef="0" IVar="-1" Cut="0.0000000000000000e+00" cType="1" res="6.7695546022150666e-05" rms="4.4994837045669556e-01" purity="5.0908577442169189e-01" nType="-99"/>
          <Node pos="r" depth="2" NCoef="0" IVar="-1" Cut="0.0000000000000000e+00" cType="1" res="-2.1017608232796192e-03" rms="4.3658116459846497e-01" purity="5.2774769067764282e-01" nType="-99"/>
        </Node>
      </Node>
    </BinaryTree>
    <BinaryTree type="DecisionTree" boostWeight="1.0000000000000000e+00" itree="739">
      <Node pos="s" depth="0" NCoef="0" IVar="3" Cut="-3.2550167292356491e-02" cType="1" res="-2.8270632028579712e-03" rms="4.5006150007247925e-01" purity="4.9676930904388428e-01" nType="0">
        <Node pos="l" depth="1" NCoef="0" IVar="3" Cut="-6.5975666046142578e-02" cType="1" res="-1.3417108915746212e-02" rms="4.4446042180061340e-01" purity="4.5531111955642700e-01" nType="0">
          <Node pos="l" depth="2" NCoef="0" IVar="-1" Cut="0.0000000000000000e+00" cType="1" res="-4.4244516175240278e-04" rms="4.4541010260581970e-01" purity="4.5516300201416016e-01" nType="-99"/>
          <Node pos="r" depth="2" NCoef="0" IVar="-1" Cut="0.0000000000000000e+00" cType="1" res="-2.5529856793582439e-03" rms="4.4136434793472290e-01" purity="4.5569631457328796e-01" nType="-99"/>
        </Node>
        <Node pos="r" depth="1" NCoef="0" IVar="6" Cut="7.5722402334213257e-01" cType="1" res="3.5281977616250515e-03" rms="4.5327076315879822e-01" purity="5.2164912223815918e-01" nType="0">
          <Node pos="l" depth="2" NCoef="0" IVar="-1" Cut="0.0000000000000000e+00" cType="1" res="-1.4882138930261135e-03" rms="4.5282021164894104e-01" purity="5.7167673110961914e-01" nType="-99"/>
          <Node pos="r" depth="2" NCoef="0" IVar="-1" Cut="0.0000000000000000e+00" cType="1" res="5.9187121223658323e-04" rms="4.5319956541061401e-01" purity="5.1188290119171143e-01" nType="-99"/>
        </Node>
      </Node>
    </BinaryTree>
    <BinaryTree type="DecisionTree" boostWeight="1.0000000000000000e+00" itree="740">
      <Node pos="s" depth="0" NCoef="0" IVar="7" Cut="5.6033867597579956e-01" cType="1" res="4.3071326799690723e-03" rms="4.5149409770965576e-01" purity="5.0351113080978394e-01" nType="0">
        <Node pos="l" depth="1" NCoef="0" IVar="3" Cut="1.0575339198112488e-01" cType="1" res="-7.7986419200897217e-03" rms="4.4764146208763123e-01" purity="4.3979737162590027e-01" nType="0">
          <Node pos="l" depth="2" NCoef="0" IVar="-1" Cut="0.0000000000000000e+00" cType="1" res="-1.8354131607338786e-03" rms="4.2552229762077332e-01" purity="3.1814607977867126e-01" nType="-99"/>
          <Node pos="r" depth="2" NCoef="0" IVar="-1" Cut="0.0000000000000000e+00" cType="1" res="1.1027181608369574e-04" rms="4.6274572610855103e-01" purity="5.2773809432983398e-01" nType="-99"/>
        </Node>
        <Node pos="r" depth="1" NCoef="0" IVar="2" Cut="3.6992651367187500e+02" cType="1" res="1.0189707390964031e-02" rms="4.5323768258094788e-01" purity="5.3447157144546509e-01" nType="0">
          <Node pos="l" depth="2" NCoef="0" IVar="-1" Cut="0.0000000000000000e+00" cType="1" res="1.3112389715388417e-03" rms="4.5591798424720764e-01" purity="4.7988131642341614e-01" nType="-99"/>
          <Node pos="r" depth="2" NCoef="0" IVar="-1" Cut="0.0000000000000000e+00" cType="1" res="-5.0219573313370347e-04" rms="4.4691130518913269e-01" purity="6.5188992023468018e-01" nType="-99"/>
        </Node>
      </Node>
    </BinaryTree>
    <BinaryTree type="DecisionTree" boostWeight="1.0000000000000000e+00" itree="741">
      <Node pos="s" depth="0" NCoef="0" IVar="1" Cut="8.8311517238616943e-01" cType="1" res="-3.1853690743446350e-03" rms="4.5200508832931519e-01" purity="4.9321103096008301e-01" nType="0">
        <Node pos="l" depth="1" NCoef="0" IVar="7" Cut="4.3697363138198853e-01" cType="1" res="9.0915793552994728e-03" rms="4.5800617337226868e-01" purity="3.8543131947517395e-01" nType="0">
          <Node pos="l" depth="2" NCoef="0" IVar="-1" Cut="0.0000000000000000e+00" cType="1" res="3.3889976330101490e-03" rms="4.5776084065437317e-01" purity="3.9297726750373840e-01" nType="-99"/>
          <Node pos="r" depth="2" NCoef="0" IVar="-1" Cut="0.0000000000000000e+00" cType="1" res="1.7195292457472533e-04" rms="4.5774263143539429e-01" purity="3.8397267460823059e-01" nType="-99"/>
        </Node>
        <Node pos="r" depth="1" NCoef="0" IVar="1" Cut="8.9794856309890747e-01" cType="1" res="-1.0014244355261326e-02" rms="4.4848686456680298e-01" purity="5.5316191911697388e-01" nType="0">
          <Node pos="l" depth="2" NCoef="0" IVar="-1" Cut="0.0000000000000000e+00" cType="1" res="-3.6426072474569082e-03" rms="4.4481366872787476e-01" purity="3.6648884415626526e-01" nType="-99"/>
          <Node pos="r" depth="2" NCoef="0" IVar="-1" Cut="0.0000000000000000e+00" cType="1" res="-1.2176631571492180e-04" rms="4.4884335994720459e-01" purity="5.9342521429061890e-01" nType="-99"/>
        </Node>
      </Node>
    </BinaryTree>
    <BinaryTree type="DecisionTree" boostWeight="1.0000000000000000e+00" itree="742">
      <Node pos="s" depth="0" NCoef="0" IVar="4" Cut="1.7688825726509094e-01" cType="1" res="1.7695304704830050e-03" rms="4.4900935888290405e-01" purity="5.0390404462814331e-01" nType="0">
        <Node pos="l" depth="1" NCoef="0" IVar="6" Cut="1.1843461990356445e+00" cType="1" res="-3.3529799431562424e-02" rms="4.5120546221733093e-01" purity="4.1812157630920410e-01" nType="0">
          <Node pos="l" depth="2" NCoef="0" IVar="-1" Cut="0.0000000000000000e+00" cType="1" res="-3.8074778858572245e-03" rms="4.5418658852577209e-01" purity="4.4429758191108704e-01" nType="-99"/>
          <Node pos="r" depth="2" NCoef="0" IVar="-1" Cut="0.0000000000000000e+00" cType="1" res="-7.9278188059106469e-04" rms="4.4631037116050720e-01" purity="3.8536262512207031e-01" nType="-99"/>
        </Node>
        <Node pos="r" depth="1" NCoef="0" IVar="5" Cut="2.5661224499344826e-03" cType="1" res="7.0442943833768368e-03" rms="4.4844171404838562e-01" purity="5.1672244071960449e-01" nType="0">
          <Node pos="l" depth="2" NCoef="0" IVar="-1" Cut="0.0000000000000000e+00" cType="1" res="8.7252334924414754e-04" rms="4.4619727134704590e-01" purity="5.5031907558441162e-01" nType="-99"/>
          <Node pos="r" depth="2" NCoef="0" IVar="-1" Cut="0.0000000000000000e+00" cType="1" res="-8.4336876170709729e-04" rms="4.5599216222763062e-01" purity="3.9495286345481873e-01" nType="-99"/>
        </Node>
      </Node>
    </BinaryTree>
    <BinaryTree type="DecisionTree" boostWeight="1.0000000000000000e+00" itree="743">
      <Node pos="s" depth="0" NCoef="0" IVar="6" Cut="1.0242370367050171e+00" cType="1" res="2.1687736734747887e-03" rms="4.5041480660438538e-01" purity="5.0400221347808838e-01" nType="0">
        <Node pos="l" depth="1" NCoef="0" IVar="4" Cut="3.6301389336585999e-01" cType="1" res="-1.0209032334387302e-02" rms="4.5619085431098938e-01" purity="5.4744839668273926e-01" nType="0">
          <Node pos="l" depth="2" NCoef="0" IVar="-1" Cut="0.0000000000000000e+00" cType="1" res="7.0531235542148352e-04" rms="4.5537742972373962e-01" purity="5.5078732967376709e-01" nType="-99"/>
          <Node pos="r" depth="2" NCoef="0" IVar="-1" Cut="0.0000000000000000e+00" cType="1" res="-2.1425080485641956e-03" rms="4.5609849691390991e-01" purity="5.4418814182281494e-01" nType="-99"/>
        </Node>
        <Node pos="r" depth="1" NCoef="0" IVar="6" Cut="1.1703890562057495e+00" cType="1" res="9.9187046289443970e-03" rms="4.4658571481704712e-01" purity="4.7679993510246277e-01" nType="0">
          <Node pos="l" depth="2" NCoef="0" IVar="-1" Cut="0.0000000000000000e+00" cType="1" res="2.5457944720983505e-03" rms="4.5480740070343018e-01" purity="5.5408668518066406e-01" nType="-99"/>
          <Node pos="r" depth="2" NCoef="0" IVar="-1" Cut="0.0000000000000000e+00" cType="1" res="2.0202298765070736e-04" rms="4.4411575794219971e-01" purity="4.5648661255836487e-01" nType="-99"/>
        </Node>
      </Node>
    </BinaryTree>
    <BinaryTree type="DecisionTree" boostWeight="1.0000000000000000e+00" itree="744">
      <Node pos="s" depth="0" NCoef="0" IVar="6" Cut="1.2921327352523804e+00" cType="1" res="-3.7518898025155067e-03" rms="4.5204156637191772e-01" purity="4.9604907631874084e-01" nType="0">
        <Node pos="l" depth="1" NCoef="0" IVar="7" Cut="7.9202049970626831e-01" cType="1" res="3.7343269214034081e-03" rms="4.5757544040679932e-01" purity="5.3641349077224731e-01" nType="0">
          <Node pos="l" depth="2" NCoef="0" IVar="-1" Cut="0.0000000000000000e+00" cType="1" res="7.0856121601536870e-04" rms="4.6006193757057190e-01" purity="5.2669388055801392e-01" nType="-99"/>
          <Node pos="r" depth="2" NCoef="0" IVar="-1" Cut="0.0000000000000000e+00" cType="1" res="-1.1738478206098080e-03" rms="4.4897586107254028e-01" purity="5.6730735301971436e-01" nType="-99"/>
        </Node>
        <Node pos="r" depth="1" NCoef="0" IVar="0" Cut="2.0699694156646729e+00" cType="1" res="-1.5635548159480095e-02" rms="4.4285538792610168e-01" purity="4.3197438120841980e-01" nType="0">
          <Node pos="l" depth="2" NCoef="0" IVar="-1" Cut="0.0000000000000000e+00" cType="1" res="-4.2232469422742724e-04" rms="4.3670222163200378e-01" purity="3.4836000204086304e-01" nType="-99"/>
          <Node pos="r" depth="2" NCoef="0" IVar="-1" Cut="0.0000000000000000e+00" cType="1" res="-2.3079917300492525e-03" rms="4.5244318246841431e-01" purity="5.7238036394119263e-01" nType="-99"/>
        </Node>
      </Node>
    </BinaryTree>
    <BinaryTree type="DecisionTree" boostWeight="1.0000000000000000e+00" itree="745">
      <Node pos="s" depth="0" NCoef="0" IVar="0" Cut="1.7728664875030518e+00" cType="1" res="1.0336992563679814e-03" rms="4.5061016082763672e-01" purity="5.0062662363052368e-01" nType="0">
        <Node pos="l" depth="1" NCoef="0" IVar="6" Cut="1.6540712118148804e+00" cType="1" res="8.3399387076497078e-03" rms="4.5581039786338806e-01" purity="3.9683106541633606e-01" nType="0">
          <Node pos="l" depth="2" NCoef="0" IVar="-1" Cut="0.0000000000000000e+00" cType="1" res="2.1957533317618072e-04" rms="4.6053540706634521e-01" purity="4.0674105286598206e-01" nType="-99"/>
          <Node pos="r" depth="2" NCoef="0" IVar="-1" Cut="0.0000000000000000e+00" cType="1" res="2.9992274940013885e-03" rms="4.3169403076171875e-01" purity="3.4969007968902588e-01" nType="-99"/>
        </Node>
        <Node pos="r" depth="1" NCoef="0" IVar="7" Cut="6.5626960992813110e-01" cType="1" res="-7.3899533599615097e-03" rms="4.4438999891281128e-01" purity="6.2029665708541870e-01" nType="0">
          <Node pos="l" depth="2" NCoef="0" IVar="-1" Cut="0.0000000000000000e+00" cType="1" res="-1.2864334275946021e-03" rms="4.6061500906944275e-01" purity="5.5465686321258545e-01" nType="-99"/>
          <Node pos="r" depth="2" NCoef="0" IVar="-1" Cut="0.0000000000000000e+00" cType="1" res="3.3990232623182237e-04" rms="4.2618185281753540e-01" purity="6.8982869386672974e-01" nType="-99"/>
        </Node>
      </Node>
    </BinaryTree>
    <BinaryTree type="DecisionTree" boostWeight="1.0000000000000000e+00" itree="746">
      <Node pos="s" depth="0" NCoef="0" IVar="5" Cut="1.4194996329024434e-03" cType="1" res="4.4480636715888977e-03" rms="4.5047795772552490e-01" purity="5.0263726711273193e-01" nType="0">
        <Node pos="l" depth="1" NCoef="0" IVar="1" Cut="9.6796524524688721e-01" cType="1" res="-5.6934487074613571e-03" rms="4.4222185015678406e-01" purity="5.6538188457489014e-01" nType="0">
          <Node pos="l" depth="2" NCoef="0" IVar="-1" Cut="0.0000000000000000e+00" cType="1" res="-8.1822735955938697e-04" rms="4.5632138848304749e-01" purity="5.0264358520507812e-01" nType="-99"/>
          <Node pos="r" depth="2" NCoef="0" IVar="-1" Cut="0.0000000000000000e+00" cType="1" res="1.2371118646115065e-03" rms="3.8487094640731812e-01" purity="7.9743593931198120e-01" nType="-99"/>
        </Node>
        <Node pos="r" depth="1" NCoef="0" IVar="1" Cut="8.9664179086685181e-01" cType="1" res="1.6293974593281746e-02" rms="4.5965072512626648e-01" purity="4.2934772372245789e-01" nType="0">
          <Node pos="l" depth="2" NCoef="0" IVar="-1" Cut="0.0000000000000000e+00" cType="1" res="6.7009549820795655e-04" rms="4.5919069647789001e-01" purity="4.0869104862213135e-01" nType="-99"/>
          <Node pos="r" depth="2" NCoef="0" IVar="-1" Cut="0.0000000000000000e+00" cType="1" res="3.4209459554404020e-03" rms="4.6029198169708252e-01" purity="5.3703796863555908e-01" nType="-99"/>
        </Node>
      </Node>
    </BinaryTree>
    <BinaryTree type="DecisionTree" boostWeight="1.0000000000000000e+00" itree="747">
      <Node pos="s" depth="0" NCoef="0" IVar="0" Cut="3.3307070732116699e+00" cType="1" res="-4.2884359136223793e-03" rms="4.4722801446914673e-01" purity="4.9800491333007812e-01" nType="0">
        <Node pos="l" depth="1" NCoef="0" IVar="6" Cut="1.4694288969039917e+00" cType="1" res="-8.9059034362435341e-03" rms="4.5343658328056335e-01" purity="4.4603371620178223e-01" nType="0">
          <Node pos="l" depth="2" NCoef="0" IVar="-1" Cut="0.0000000000000000e+00" cType="1" res="-3.3255160087719560e-04" rms="4.6222352981567383e-01" purity="4.7456800937652588e-01" nType="-99"/>
          <Node pos="r" depth="2" NCoef="0" IVar="-1" Cut="0.0000000000000000e+00" cType="1" res="-1.6622722614556551e-03" rms="4.2822349071502686e-01" purity="3.6783942580223083e-01" nType="-99"/>
        </Node>
        <Node pos="r" depth="1" NCoef="0" IVar="5" Cut="2.5396310957148671e-04" cType="1" res="1.6509465873241425e-02" rms="4.1748967766761780e-01" purity="7.3209232091903687e-01" nType="0">
          <Node pos="l" depth="2" NCoef="0" IVar="-1" Cut="0.0000000000000000e+00" cType="1" res="-4.4046141556464136e-04" rms="3.7112194299697876e-01" purity="8.0380445718765259e-01" nType="-99"/>
          <Node pos="r" depth="2" NCoef="0" IVar="-1" Cut="0.0000000000000000e+00" cType="1" res="1.8896068213507533e-03" rms="4.4410923123359680e-01" purity="6.8615549802780151e-01" nType="-99"/>
        </Node>
      </Node>
    </BinaryTree>
    <BinaryTree type="DecisionTree" boostWeight="1.0000000000000000e+00" itree="748">
      <Node pos="s" depth="0" NCoef="0" IVar="6" Cut="1.6475056409835815e+00" cType="1" res="5.3065139800310135e-03" rms="4.5115074515342712e-01" purity="5.0622212886810303e-01" nType="0">
        <Node pos="l" depth="1" NCoef="0" IVar="6" Cut="6.8862086534500122e-01" cType="1" res="1.0750213405117393e-03" rms="4.5336475968360901e-01" purity="5.1843637228012085e-01" nType="0">
          <Node pos="l" depth="2" NCoef="0" IVar="-1" Cut="0.0000000000000000e+00" cType="1" res="1.4581702416762710e-03" rms="4.4389161467552185e-01" purity="6.1377137899398804e-01" nType="-99"/>
          <Node pos="r" depth="2" NCoef="0" IVar="-1" Cut="0.0000000000000000e+00" cType="1" res="-1.6774704272393137e-04" rms="4.5487433671951294e-01" purity="5.0216090679168701e-01" nType="-99"/>
        </Node>
        <Node pos="r" depth="1" NCoef="0" IVar="3" Cut="1.0548384487628937e-01" cType="1" res="2.6279322803020477e-02" rms="4.3941172957420349e-01" purity="4.4568410515785217e-01" nType="0">
          <Node pos="l" depth="2" NCoef="0" IVar="-1" Cut="0.0000000000000000e+00" cType="1" res="9.1154797701165080e-04" rms="4.3095961213111877e-01" purity="4.0585741400718689e-01" nType="-99"/>
          <Node pos="r" depth="2" NCoef="0" IVar="-1" Cut="0.0000000000000000e+00" cType="1" res="3.9578322321176529e-03" rms="4.5489844679832458e-01" purity="5.2829051017761230e-01" nType="-99"/>
        </Node>
      </Node>
    </BinaryTree>
    <BinaryTree type="DecisionTree" boostWeight="1.0000000000000000e+00" itree="749">
      <Node pos="s" depth="0" NCoef="0" IVar="7" Cut="8.9147353172302246e-01" cType="1" res="6.6674558911472559e-04" rms="4.4806933403015137e-01" purity="5.0419127941131592e-01" nType="0">
        <Node pos="l" depth="1" NCoef="0" IVar="5" Cut="3.6132272798568010e-03" cType="1" res="-1.4528867322951555e-03" rms="4.4953489303588867e-01" purity="4.9510276317596436e-01" nType="0">
          <Node pos="l" depth="2" NCoef="0" IVar="-1" Cut="0.0000000000000000e+00" cType="1" res="-2.6223267195746303e-04" rms="4.4852638244628906e-01" purity="5.0025558471679688e-01" nType="-99"/>
          <Node pos="r" depth="2" NCoef="0" IVar="-1" Cut="0.0000000000000000e+00" cType="1" res="2.1584862843155861e-03" rms="4.6330994367599487e-01" purity="4.1714891791343689e-01" nType="-99"/>
        </Node>
        <Node pos="r" depth="1" NCoef="0" IVar="-1" Cut="0.0000000000000000e+00" cType="1" res="2.0064760465174913e-03" rms="4.2713901400566101e-01" purity="6.2486469745635986e-01" nType="-99"/>
      </Node>
    </BinaryTree>
    <BinaryTree type="DecisionTree" boostWeight="1.0000000000000000e+00" itree="750">
      <Node pos="s" depth="0" NCoef="0" IVar="6" Cut="6.3109678030014038e-01" cType="1" res="1.0247334139421582e-03" rms="4.5117664337158203e-01" purity="5.0046628713607788e-01" nType="0">
        <Node pos="l" depth="1" NCoef="0" IVar="-1" Cut="0.0000000000000000e+00" cType="1" res="1.9998468924313784e-03" rms="4.4595819711685181e-01" purity="6.1872541904449463e-01" nType="-99"/>
        <Node pos="r" depth="1" NCoef="0" IVar="1" Cut="8.5997194051742554e-01" cType="1" res="-1.6911092679947615e-03" rms="4.5157611370086670e-01" purity="4.8921304941177368e-01" nType="0">
          <Node pos="l" depth="2" NCoef="0" IVar="-1" Cut="0.0000000000000000e+00" cType="1" res="1.2903913157060742e-03" rms="4.5247960090637207e-01" purity="3.7537425756454468e-01" nType="-99"/>
          <Node pos="r" depth="2" NCoef="0" IVar="-1" Cut="0.0000000000000000e+00" cType="1" res="-3.1358000705949962e-04" rms="4.5138511061668396e-01" purity="5.0537949800491333e-01" nType="-99"/>
        </Node>
      </Node>
    </BinaryTree>
    <BinaryTree type="DecisionTree" boostWeight="1.0000000000000000e+00" itree="751">
      <Node pos="s" depth="0" NCoef="0" IVar="7" Cut="8.1315732002258301e-01" cType="1" res="-2.2202346008270979e-03" rms="4.5152723789215088e-01" purity="4.9790570139884949e-01" nType="0">
        <Node pos="l" depth="1" NCoef="0" IVar="7" Cut="6.1639195680618286e-01" cType="1" res="-7.0835025981068611e-03" rms="4.5331364870071411e-01" purity="4.7746664285659790e-01" nType="0">
          <Node pos="l" depth="2" NCoef="0" IVar="-1" Cut="0.0000000000000000e+00" cType="1" res="3.3638710738159716e-04" rms="4.5344355702400208e-01" purity="4.5221069455146790e-01" nType="-99"/>
          <Node pos="r" depth="2" NCoef="0" IVar="-1" Cut="0.0000000000000000e+00" cType="1" res="-1.5014333184808493e-03" rms="4.5277330279350281e-01" purity="5.0742083787918091e-01" nType="-99"/>
        </Node>
        <Node pos="r" depth="1" NCoef="0" IVar="2" Cut="2.8290417480468750e+02" cType="1" res="1.8423300236463547e-02" rms="4.4327083230018616e-01" purity="5.8466506004333496e-01" nType="0">
          <Node pos="l" depth="2" NCoef="0" IVar="-1" Cut="0.0000000000000000e+00" cType="1" res="-1.2775204377248883e-03" rms="4.5486000180244446e-01" purity="3.8592043519020081e-01" nType="-99"/>
          <Node pos="r" depth="2" NCoef="0" IVar="-1" Cut="0.0000000000000000e+00" cType="1" res="2.3039749357849360e-03" rms="4.3681174516677856e-01" purity="6.7752742767333984e-01" nType="-99"/>
        </Node>
      </Node>
    </BinaryTree>
    <BinaryTree type="DecisionTree" boostWeight="1.0000000000000000e+00" itree="752">
      <Node pos="s" depth="0" NCoef="0" IVar="4" Cut="6.6872352361679077e-01" cType="1" res="2.0879658404737711e-03" rms="4.4948115944862366e-01" purity="5.0512951612472534e-01" nType="0">
        <Node pos="l" depth="1" NCoef="0" IVar="4" Cut="5.5085521936416626e-01" cType="1" res="-1.8423696747049689e-03" rms="4.4978630542755127e-01" purity="4.9721506237983704e-01" nType="0">
          <Node pos="l" depth="2" NCoef="0" IVar="-1" Cut="0.0000000000000000e+00" cType="1" res="1.8497246492188424e-04" rms="4.4978615641593933e-01" purity="4.9578231573104858e-01" nType="-99"/>
          <Node pos="r" depth="2" NCoef="0" IVar="-1" Cut="0.0000000000000000e+00" cType="1" res="-1.9453709246590734e-03" rms="4.4899284839630127e-01" purity="5.0520879030227661e-01" nType="-99"/>
        </Node>
        <Node pos="r" depth="1" NCoef="0" IVar="-1" Cut="0.0000000000000000e+00" cType="1" res="2.6986487209796906e-03" rms="4.4492897391319275e-01" purity="5.7927775382995605e-01" nType="-99"/>
      </Node>
    </BinaryTree>
    <BinaryTree type="DecisionTree" boostWeight="1.0000000000000000e+00" itree="753">
      <Node pos="s" depth="0" NCoef="0" IVar="5" Cut="3.2260932493954897e-03" cType="1" res="-1.0696338722482324e-03" rms="4.4929865002632141e-01" purity="5.0056129693984985e-01" nType="0">
        <Node pos="l" depth="1" NCoef="0" IVar="5" Cut="2.2334349341690540e-03" cType="1" res="-5.1527847535908222e-03" rms="4.4722732901573181e-01" purity="5.1061701774597168e-01" nType="0">
          <Node pos="l" depth="2" NCoef="0" IVar="-1" Cut="0.0000000000000000e+00" cType="1" res="-6.4818782448128331e-06" rms="4.4595986604690552e-01" purity="5.4287958145141602e-01" nType="-99"/>
          <Node pos="r" depth="2" NCoef="0" IVar="-1" Cut="0.0000000000000000e+00" cType="1" res="-2.0588834304362535e-03" rms="4.5207083225250244e-01" purity="3.6925759911537170e-01" nType="-99"/>
        </Node>
        <Node pos="r" depth="1" NCoef="0" IVar="0" Cut="6.9716596603393555e-01" cType="1" res="3.0869411304593086e-02" rms="4.6394449472427368e-01" purity="4.2190366983413696e-01" nType="0">
          <Node pos="l" depth="2" NCoef="0" IVar="-1" Cut="0.0000000000000000e+00" cType="1" res="1.2990966206416488e-03" rms="4.5311617851257324e-01" purity="3.4367659687995911e-01" nType="-99"/>
          <Node pos="r" depth="2" NCoef="0" IVar="-1" Cut="0.0000000000000000e+00" cType="1" res="2.7993652038276196e-03" rms="4.7353103756904602e-01" purity="4.9592840671539307e-01" nType="-99"/>
        </Node>
      </Node>
    </BinaryTree>
    <BinaryTree type="DecisionTree" boostWeight="1.0000000000000000e+00" itree="754">
      <Node pos="s" depth="0" NCoef="0" IVar="6" Cut="7.8112572431564331e-01" cType="1" res="6.9387437542900443e-04" rms="4.4852310419082642e-01" purity="5.0133925676345825e-01" nType="0">
        <Node pos="l" depth="1" NCoef="0" IVar="1" Cut="9.1378116607666016e-01" cType="1" res="2.3977261036634445e-02" rms="4.5577201247215271e-01" purity="5.9457468986511230e-01" nType="0">
          <Node pos="l" depth="2" NCoef="0" IVar="-1" Cut="0.0000000000000000e+00" cType="1" res="3.1085433438420296e-03" rms="4.7036334872245789e-01" purity="5.2347964048385620e-01" nType="-99"/>
          <Node pos="r" depth="2" NCoef="0" IVar="-1" Cut="0.0000000000000000e+00" cType="1" res="-5.8461428852751851e-04" rms="4.3271189928054810e-01" purity="6.9309961795806885e-01" nType="-99"/>
        </Node>
        <Node pos="r" depth="1" NCoef="0" IVar="5" Cut="8.9814624516293406e-04" cType="1" res="-4.7592693008482456e-03" rms="4.4663298130035400e-01" purity="4.7950282692909241e-01" nType="0">
          <Node pos="l" depth="2" NCoef="0" IVar="-1" Cut="0.0000000000000000e+00" cType="1" res="7.3560961754992604e-04" rms="4.3844658136367798e-01" purity="6.0185110569000244e-01" nType="-99"/>
          <Node pos="r" depth="2" NCoef="0" IVar="-1" Cut="0.0000000000000000e+00" cType="1" res="-1.1358705814927816e-03" rms="4.5199763774871826e-01" purity="3.9359214901924133e-01" nType="-99"/>
        </Node>
      </Node>
    </BinaryTree>
    <BinaryTree type="DecisionTree" boostWeight="1.0000000000000000e+00" itree="755">
      <Node pos="s" depth="0" NCoef="0" IVar="4" Cut="3.6123874783515930e-01" cType="1" res="1.8681467045098543e-03" rms="4.4964525103569031e-01" purity="5.0148320198059082e-01" nType="0">
        <Node pos="l" depth="1" NCoef="0" IVar="0" Cut="2.8633072376251221e+00" cType="1" res="1.1774266138672829e-02" rms="4.5126110315322876e-01" purity="4.8525977134704590e-01" nType="0">
          <Node pos="l" depth="2" NCoef="0" IVar="-1" Cut="0.0000000000000000e+00" cType="1" res="3.5964002017863095e-04" rms="4.5571765303611755e-01" purity="4.1868695616722107e-01" nType="-99"/>
          <Node pos="r" depth="2" NCoef="0" IVar="-1" Cut="0.0000000000000000e+00" cType="1" res="2.1105164196342230e-03" rms="4.3711486458778381e-01" purity="6.8277895450592041e-01" nType="-99"/>
        </Node>
        <Node pos="r" depth="1" NCoef="0" IVar="1" Cut="9.4468033313751221e-01" cType="1" res="-6.6860066726803780e-03" rms="4.4806906580924988e-01" purity="5.1549249887466431e-01" nType="0">
          <Node pos="l" depth="2" NCoef="0" IVar="-1" Cut="0.0000000000000000e+00" cType="1" res="-1.0156458010897040e-03" rms="4.5937788486480713e-01" purity="4.3804830312728882e-01" nType="-99"/>
          <Node pos="r" depth="2" NCoef="0" IVar="-1" Cut="0.0000000000000000e+00" cType="1" res="1.2471987865865231e-03" rms="4.0977895259857178e-01" purity="7.5796538591384888e-01" nType="-99"/>
        </Node>
      </Node>
    </BinaryTree>
    <BinaryTree type="DecisionTree" boostWeight="1.0000000000000000e+00" itree="756">
      <Node pos="s" depth="0" NCoef="0" IVar="1" Cut="8.7921404838562012e-01" cType="1" res="2.4261818907689303e-04" rms="4.5065301656723022e-01" purity="4.9970147013664246e-01" nType="0">
        <Node pos="l" depth="1" NCoef="0" IVar="2" Cut="3.1356155395507812e+02" cType="1" res="-1.2985401786863804e-02" rms="4.5062255859375000e-01" purity="3.5868376493453979e-01" nType="0">
          <Node pos="l" depth="2" NCoef="0" IVar="-1" Cut="0.0000000000000000e+00" cType="1" res="2.0038407456013374e-05" rms="4.2809519171714783e-01" purity="2.8356733918190002e-01" nType="-99"/>
          <Node pos="r" depth="2" NCoef="0" IVar="-1" Cut="0.0000000000000000e+00" cType="1" res="-1.9693060312420130e-03" rms="4.7736182808876038e-01" purity="4.5477381348609924e-01" nType="-99"/>
        </Node>
        <Node pos="r" depth="1" NCoef="0" IVar="3" Cut="-8.5108168423175812e-02" cType="1" res="6.3682603649795055e-03" rms="4.5053556561470032e-01" purity="5.6500405073165894e-01" nType="0">
          <Node pos="l" depth="2" NCoef="0" IVar="-1" Cut="0.0000000000000000e+00" cType="1" res="-7.9854781506583095e-04" rms="4.4335141777992249e-01" purity="5.0541990995407104e-01" nType="-99"/>
          <Node pos="r" depth="2" NCoef="0" IVar="-1" Cut="0.0000000000000000e+00" cType="1" res="7.6518644345924258e-04" rms="4.5233142375946045e-01" purity="5.8098477125167847e-01" nType="-99"/>
        </Node>
      </Node>
    </BinaryTree>
    <BinaryTree type="DecisionTree" boostWeight="1.0000000000000000e+00" itree="757">
      <Node pos="s" depth="0" NCoef="0" IVar="4" Cut="6.8616336584091187e-01" cType="1" res="4.0924507193267345e-03" rms="4.4870874285697937e-01" purity="5.0511741638183594e-01" nType="0">
        <Node pos="l" depth="1" NCoef="0" IVar="2" Cut="3.6666488647460938e+02" cType="1" res="1.1629837099462748e-03" rms="4.4887197017669678e-01" purity="4.9976447224617004e-01" nType="0">
          <Node pos="l" depth="2" NCoef="0" IVar="-1" Cut="0.0000000000000000e+00" cType="1" res="-2.2764780442230403e-04" rms="4.4864135980606079e-01" purity="4.2959392070770264e-01" nType="-99"/>
          <Node pos="r" depth="2" NCoef="0" IVar="-1" Cut="0.0000000000000000e+00" cType="1" res="6.4250186551362276e-04" rms="4.4922187924385071e-01" purity="6.4239418506622314e-01" nType="-99"/>
        </Node>
        <Node pos="r" depth="1" NCoef="0" IVar="-1" Cut="0.0000000000000000e+00" cType="1" res="2.6456883642822504e-03" rms="4.4542399048805237e-01" purity="5.6695580482482910e-01" nType="-99"/>
      </Node>
    </BinaryTree>
    <BinaryTree type="DecisionTree" boostWeight="1.0000000000000000e+00" itree="758">
      <Node pos="s" depth="0" NCoef="0" IVar="5" Cut="3.4841797314584255e-03" cType="1" res="-7.0860012783668935e-05" rms="4.4899326562881470e-01" purity="5.0020885467529297e-01" nType="0">
        <Node pos="l" depth="1" NCoef="0" IVar="7" Cut="7.6124471426010132e-01" cType="1" res="-2.9687527567148209e-03" rms="4.4722577929496765e-01" purity="5.0633102655410767e-01" nType="0">
          <Node pos="l" depth="2" NCoef="0" IVar="-1" Cut="0.0000000000000000e+00" cType="1" res="-6.8907439708709717e-04" rms="4.4938984513282776e-01" purity="4.7355279326438904e-01" nType="-99"/>
          <Node pos="r" depth="2" NCoef="0" IVar="-1" Cut="0.0000000000000000e+00" cType="1" res="8.4614119259640574e-04" rms="4.4167569279670715e-01" purity="5.8422988653182983e-01" nType="-99"/>
        </Node>
        <Node pos="r" depth="1" NCoef="0" IVar="-1" Cut="0.0000000000000000e+00" cType="1" res="2.3050110321491957e-03" rms="4.6759980916976929e-01" purity="4.2960503697395325e-01" nType="-99"/>
      </Node>
    </BinaryTree>
    <BinaryTree type="DecisionTree" boostWeight="1.0000000000000000e+00" itree="759">
      <Node pos="s" depth="0" NCoef="0" IVar="1" Cut="8.5995531082153320e-01" cType="1" res="-2.3880306980572641e-04" rms="4.5160675048828125e-01" purity="5.0068265199661255e-01" nType="0">
        <Node pos="l" depth="1" NCoef="0" IVar="7" Cut="5.9917289018630981e-01" cType="1" res="1.6082648187875748e-02" rms="4.5888826251029968e-01" purity="3.7523525953292847e-01" nType="0">
          <Node pos="l" depth="2" NCoef="0" IVar="-1" Cut="0.0000000000000000e+00" cType="1" res="3.8633742369711399e-03" rms="4.6131268143653870e-01" purity="3.6541855335235596e-01" nType="-99"/>
          <Node pos="r" depth="2" NCoef="0" IVar="-1" Cut="0.0000000000000000e+00" cType="1" res="-7.0796732325106859e-04" rms="4.5526337623596191e-01" purity="3.8335821032524109e-01" nType="-99"/>
        </Node>
        <Node pos="r" depth="1" NCoef="0" IVar="4" Cut="3.6867603659629822e-01" cType="1" res="-2.4657032918184996e-03" rms="4.5055830478668213e-01" purity="5.1779872179031372e-01" nType="0">
          <Node pos="l" depth="2" NCoef="0" IVar="-1" Cut="0.0000000000000000e+00" cType="1" res="-7.5746315997093916e-04" rms="4.5182862877845764e-01" purity="4.8438251018524170e-01" nType="-99"/>
          <Node pos="r" depth="2" NCoef="0" IVar="-1" Cut="0.0000000000000000e+00" cType="1" res="3.2422179356217384e-04" rms="4.4931799173355103e-01" purity="5.4725342988967896e-01" nType="-99"/>
        </Node>
      </Node>
    </BinaryTree>
    <BinaryTree type="DecisionTree" boostWeight="1.0000000000000000e+00" itree="760">
      <Node pos="s" depth="0" NCoef="0" IVar="3" Cut="-1.3196559250354767e-01" cType="1" res="-3.1286308076232672e-03" rms="4.4932603836059570e-01" purity="4.9775531888008118e-01" nType="0">
        <Node pos="l" depth="1" NCoef="0" IVar="-1" Cut="0.0000000000000000e+00" cType="1" res="2.5967403780668974e-03" rms="4.3606400489807129e-01" purity="4.7028014063835144e-01" nType="-99"/>
        <Node pos="r" depth="1" NCoef="0" IVar="7" Cut="8.4734356403350830e-01" cType="1" res="-5.2868803031742573e-03" rms="4.4998010993003845e-01" purity="4.9933245778083801e-01" nType="0">
          <Node pos="l" depth="2" NCoef="0" IVar="-1" Cut="0.0000000000000000e+00" cType="1" res="-1.6127724666148424e-04" rms="4.5227333903312683e-01" purity="4.9223837256431580e-01" nType="-99"/>
          <Node pos="r" depth="2" NCoef="0" IVar="-1" Cut="0.0000000000000000e+00" cType="1" res="-1.9778115674853325e-03" rms="4.3259212374687195e-01" purity="5.5006939172744751e-01" nType="-99"/>
        </Node>
      </Node>
    </BinaryTree>
    <BinaryTree type="DecisionTree" boostWeight="1.0000000000000000e+00" itree="761">
      <Node pos="s" depth="0" NCoef="0" IVar="2" Cut="5.7258282470703125e+02" cType="1" res="-6.8461295450106263e-04" rms="4.5102229714393616e-01" purity="4.9927479028701782e-01" nType="0">
        <Node pos="l" depth="1" NCoef="0" IVar="6" Cut="1.9983452558517456e+00" cType="1" res="-2.7471738867461681e-03" rms="4.5266300439834595e-01" purity="4.8318442702293396e-01" nType="0">
          <Node pos="l" depth="2" NCoef="0" IVar="-1" Cut="0.0000000000000000e+00" cType="1" res="-3.3027937752194703e-04" rms="4.5413163304328918e-01" purity="4.8651155829429626e-01" nType="-99"/>
          <Node pos="r" depth="2" NCoef="0" IVar="-1" Cut="0.0000000000000000e+00" cType="1" res="1.8343273550271988e-03" rms="4.2947441339492798e-01" purity="4.3400105834007263e-01" nType="-99"/>
        </Node>
        <Node pos="r" depth="1" NCoef="0" IVar="-1" Cut="0.0000000000000000e+00" cType="1" res="2.0130593329668045e-03" rms="4.2550507187843323e-01" purity="7.3170161247253418e-01" nType="-99"/>
      </Node>
    </BinaryTree>
    <BinaryTree type="DecisionTree" boostWeight="1.0000000000000000e+00" itree="762">
      <Node pos="s" depth="0" NCoef="0" IVar="5" Cut="6.4525386551395059e-04" cType="1" res="-1.6014068387448788e-03" rms="4.5143592357635498e-01" purity="4.9936980009078979e-01" nType="0">
        <Node pos="l" depth="1" NCoef="0" IVar="3" Cut="1.3664300739765167e-01" cType="1" res="-1.6213232651352882e-02" rms="4.3681615591049194e-01" purity="6.1451309919357300e-01" nType="0">
          <Node pos="l" depth="2" NCoef="0" IVar="-1" Cut="0.0000000000000000e+00" cType="1" res="-1.7748473910614848e-03" rms="4.3994337320327759e-01" purity="5.9641945362091064e-01" nType="-99"/>
          <Node pos="r" depth="2" NCoef="0" IVar="-1" Cut="0.0000000000000000e+00" cType="1" res="6.9405697286128998e-04" rms="4.2467573285102844e-01" purity="6.7793893814086914e-01" nType="-99"/>
        </Node>
        <Node pos="r" depth="1" NCoef="0" IVar="4" Cut="5.6263279914855957e-01" cType="1" res="5.7222810573875904e-03" rms="4.5841309428215027e-01" purity="4.4165810942649841e-01" nType="0">
          <Node pos="l" depth="2" NCoef="0" IVar="-1" Cut="0.0000000000000000e+00" cType="1" res="7.4911990668624640e-04" rms="4.5797538757324219e-01" purity="4.4001492857933044e-01" nType="-99"/>
          <Node pos="r" depth="2" NCoef="0" IVar="-1" Cut="0.0000000000000000e+00" cType="1" res="-8.5830129683017731e-04" rms="4.5960241556167603e-01" purity="4.4777041673660278e-01" nType="-99"/>
        </Node>
      </Node>
    </BinaryTree>
    <BinaryTree type="DecisionTree" boostWeight="1.0000000000000000e+00" itree="763">
      <Node pos="s" depth="0" NCoef="0" IVar="4" Cut="1.5030814707279205e-01" cType="1" res="-1.5949326334521174e-03" rms="4.4839179515838623e-01" purity="4.9430319666862488e-01" nType="0">
        <Node pos="l" depth="1" NCoef="0" IVar="-1" Cut="0.0000000000000000e+00" cType="1" res="-2.5863822083920240e-03" rms="4.4089794158935547e-01" purity="4.0952736139297485e-01" nType="-99"/>
        <Node pos="r" depth="1" NCoef="0" IVar="6" Cut="6.3003170490264893e-01" cType="1" res="1.6849946696311235e-03" rms="4.4901800155639648e-01" purity="5.0293302536010742e-01" nType="0">
          <Node pos="l" depth="2" NCoef="0" IVar="-1" Cut="0.0000000000000000e+00" cType="1" res="1.9614535849541426e-03" rms="4.3649798631668091e-01" purity="6.2875473499298096e-01" nType="-99"/>
          <Node pos="r" depth="2" NCoef="0" IVar="-1" Cut="0.0000000000000000e+00" cType="1" res="-5.6179873354267329e-05" rms="4.5005235075950623e-01" purity="4.9155312776565552e-01" nType="-99"/>
        </Node>
      </Node>
    </BinaryTree>
    <BinaryTree type="DecisionTree" boostWeight="1.0000000000000000e+00" itree="764">
      <Node pos="s" depth="0" NCoef="0" IVar="2" Cut="2.0368734741210938e+02" cType="1" res="-1.0879210894927382e-03" rms="4.4618850946426392e-01" purity="5.0198781490325928e-01" nType="0">
        <Node pos="l" depth="1" NCoef="0" IVar="-1" Cut="0.0000000000000000e+00" cType="1" res="-3.4560298081487417e-03" rms="3.9315208792686462e-01" purity="2.2847552597522736e-01" nType="-99"/>
        <Node pos="r" depth="1" NCoef="0" IVar="4" Cut="1.2914799153804779e-01" cType="1" res="1.4486156869679689e-03" rms="4.5013168454170227e-01" purity="5.2422922849655151e-01" nType="0">
          <Node pos="l" depth="2" NCoef="0" IVar="-1" Cut="0.0000000000000000e+00" cType="1" res="-2.3009686265140772e-03" rms="4.3676060438156128e-01" purity="4.0427073836326599e-01" nType="-99"/>
          <Node pos="r" depth="2" NCoef="0" IVar="-1" Cut="0.0000000000000000e+00" cType="1" res="2.6068851002492011e-04" rms="4.5098018646240234e-01" purity="5.3273123502731323e-01" nType="-99"/>
        </Node>
      </Node>
    </BinaryTree>
    <BinaryTree type="DecisionTree" boostWeight="1.0000000000000000e+00" itree="765">
      <Node pos="s" depth="0" NCoef="0" IVar="1" Cut="9.1781920194625854e-01" cType="1" res="-6.0092941857874393e-03" rms="4.4746336340904236e-01" purity="4.9472433328628540e-01" nType="0">
        <Node pos="l" depth="1" NCoef="0" IVar="7" Cut="5.6158322095870972e-01" cType="1" res="-1.5220948494970798e-02" rms="4.5190832018852234e-01" purity="3.9346686005592346e-01" nType="0">
          <Node pos="l" depth="2" NCoef="0" IVar="-1" Cut="0.0000000000000000e+00" cType="1" res="-1.9323133165016770e-04" rms="4.4646665453910828e-01" purity="3.6809012293815613e-01" nType="-99"/>
          <Node pos="r" depth="2" NCoef="0" IVar="-1" Cut="0.0000000000000000e+00" cType="1" res="-1.6296914545819163e-03" rms="4.5481672883033752e-01" purity="4.0791076421737671e-01" nType="-99"/>
        </Node>
        <Node pos="r" depth="1" NCoef="0" IVar="5" Cut="1.4420089428313076e-04" cType="1" res="8.5383709520101547e-03" rms="4.3995952606201172e-01" purity="6.5463685989379883e-01" nType="0">
          <Node pos="l" depth="2" NCoef="0" IVar="-1" Cut="0.0000000000000000e+00" cType="1" res="-7.7348062768578529e-04" rms="4.0779000520706177e-01" purity="7.4707138538360596e-01" nType="-99"/>
          <Node pos="r" depth="2" NCoef="0" IVar="-1" Cut="0.0000000000000000e+00" cType="1" res="1.1812046868726611e-03" rms="4.5524969696998596e-01" purity="6.0737437009811401e-01" nType="-99"/>
        </Node>
      </Node>
    </BinaryTree>
    <BinaryTree type="DecisionTree" boostWeight="1.0000000000000000e+00" itree="766">
      <Node pos="s" depth="0" NCoef="0" IVar="7" Cut="8.2622790336608887e-01" cType="1" res="4.5115963439457119e-04" rms="4.5062652230262756e-01" purity="4.9928659200668335e-01" nType="0">
        <Node pos="l" depth="1" NCoef="0" IVar="5" Cut="3.2260951120406389e-03" cType="1" res="-3.7993553560227156e-03" rms="4.5155760645866394e-01" purity="4.8117369413375854e-01" nType="0">
          <Node pos="l" depth="2" NCoef="0" IVar="-1" Cut="0.0000000000000000e+00" cType="1" res="-5.1890430768253282e-05" rms="4.5113053917884827e-01" purity="4.9679741263389587e-01" nType="-99"/>
          <Node pos="r" depth="2" NCoef="0" IVar="-1" Cut="0.0000000000000000e+00" cType="1" res="-2.1596024744212627e-03" rms="4.5420145988464355e-01" purity="3.5634133219718933e-01" nType="-99"/>
        </Node>
        <Node pos="r" depth="1" NCoef="0" IVar="4" Cut="5.0724750757217407e-01" cType="1" res="2.2000290453433990e-02" rms="4.4525229930877686e-01" purity="5.9111469984054565e-01" nType="0">
          <Node pos="l" depth="2" NCoef="0" IVar="-1" Cut="0.0000000000000000e+00" cType="1" res="2.1931934170424938e-03" rms="4.4568341970443726e-01" purity="6.0993790626525879e-01" nType="-99"/>
          <Node pos="r" depth="2" NCoef="0" IVar="-1" Cut="0.0000000000000000e+00" cType="1" res="3.0243859509937465e-04" rms="4.4394794106483459e-01" purity="5.5883330106735229e-01" nType="-99"/>
        </Node>
      </Node>
    </BinaryTree>
    <BinaryTree type="DecisionTree" boostWeight="1.0000000000000000e+00" itree="767">
      <Node pos="s" depth="0" NCoef="0" IVar="3" Cut="2.3576818406581879e-01" cType="1" res="-4.8207453801296651e-04" rms="4.4994208216667175e-01" purity="5.0115776062011719e-01" nType="0">
        <Node pos="l" depth="1" NCoef="0" IVar="7" Cut="3.9961642026901245e-01" cType="1" res="-2.4463427253067493e-03" rms="4.4890260696411133e-01" purity="4.9543032050132751e-01" nType="0">
          <Node pos="l" depth="2" NCoef="0" IVar="-1" Cut="0.0000000000000000e+00" cType="1" res="-4.6170074492692947e-03" rms="4.3990364670753479e-01" purity="3.3625549077987671e-01" nType="-99"/>
          <Node pos="r" depth="2" NCoef="0" IVar="-1" Cut="0.0000000000000000e+00" cType="1" res="6.2390041421167552e-05" rms="4.4923737645149231e-01" purity="5.0518476963043213e-01" nType="-99"/>
        </Node>
        <Node pos="r" depth="1" NCoef="0" IVar="-1" Cut="0.0000000000000000e+00" cType="1" res="1.8266746774315834e-03" rms="4.6375060081481934e-01" purity="5.8376073837280273e-01" nType="-99"/>
      </Node>
    </BinaryTree>
    <BinaryTree type="DecisionTree" boostWeight="1.0000000000000000e+00" itree="768">
      <Node pos="s" depth="0" NCoef="0" IVar="6" Cut="9.2349326610565186e-01" cType="1" res="-2.7160011813975871e-04" rms="4.4845020771026611e-01" purity="5.0220340490341187e-01" nType="0">
        <Node pos="l" depth="1" NCoef="0" IVar="0" Cut="2.9595205783843994e+00" cType="1" res="-1.3086426071822643e-02" rms="4.5196622610092163e-01" purity="5.5631142854690552e-01" nType="0">
          <Node pos="l" depth="2" NCoef="0" IVar="-1" Cut="0.0000000000000000e+00" cType="1" res="-1.6085912939161062e-03" rms="4.6543458104133606e-01" purity="4.8310545086860657e-01" nType="-99"/>
          <Node pos="r" depth="2" NCoef="0" IVar="-1" Cut="0.0000000000000000e+00" cType="1" res="9.8073424305766821e-04" rms="4.1138607263565063e-01" purity="7.5807255506515503e-01" nType="-99"/>
        </Node>
        <Node pos="r" depth="1" NCoef="0" IVar="2" Cut="2.1531770324707031e+02" cType="1" res="5.3510302677750587e-03" rms="4.4678279757499695e-01" purity="4.7846296429634094e-01" nType="0">
          <Node pos="l" depth="2" NCoef="0" IVar="-1" Cut="0.0000000000000000e+00" cType="1" res="-2.3946701548993587e-03" rms="3.8859817385673523e-01" purity="2.4095062911510468e-01" nType="-99"/>
          <Node pos="r" depth="2" NCoef="0" IVar="-1" Cut="0.0000000000000000e+00" cType="1" res="6.6170969512313604e-04" rms="4.5433375239372253e-01" purity="5.1235151290893555e-01" nType="-99"/>
        </Node>
      </Node>
    </BinaryTree>
    <BinaryTree type="DecisionTree" boostWeight="1.0000000000000000e+00" itree="769">
      <Node pos="s" depth="0" NCoef="0" IVar="6" Cut="1.3134248256683350e+00" cType="1" res="8.4841344505548477e-03" rms="4.5051279664039612e-01" purity="5.0811338424682617e-01" nType="0">
        <Node pos="l" depth="1" NCoef="0" IVar="5" Cut="1.5485307667404413e-03" cType="1" res="1.6813644906505942e-03" rms="4.5548036694526672e-01" purity="5.3534901142120361e-01" nType="0">
          <Node pos="l" depth="2" NCoef="0" IVar="-1" Cut="0.0000000000000000e+00" cType="1" res="-5.2888342179358006e-04" rms="4.4273701310157776e-01" purity="5.9302473068237305e-01" nType="-99"/>
          <Node pos="r" depth="2" NCoef="0" IVar="-1" Cut="0.0000000000000000e+00" cType="1" res="9.5936068100854754e-04" rms="4.7202044725418091e-01" purity="4.5670843124389648e-01" nType="-99"/>
        </Node>
        <Node pos="r" depth="1" NCoef="0" IVar="2" Cut="2.6373715209960938e+02" cType="1" res="1.9607406109571457e-02" rms="4.4204458594322205e-01" purity="4.6358013153076172e-01" nType="0">
          <Node pos="l" depth="2" NCoef="0" IVar="-1" Cut="0.0000000000000000e+00" cType="1" res="1.0035830200649798e-04" rms="4.3327149748802185e-01" purity="3.0783501267433167e-01" nType="-99"/>
          <Node pos="r" depth="2" NCoef="0" IVar="-1" Cut="0.0000000000000000e+00" cType="1" res="2.2068349644541740e-03" rms="4.4771999120712280e-01" purity="5.7448470592498779e-01" nType="-99"/>
        </Node>
      </Node>
    </BinaryTree>
    <BinaryTree type="DecisionTree" boostWeight="1.0000000000000000e+00" itree="770">
      <Node pos="s" depth="0" NCoef="0" IVar="1" Cut="8.6377722024917603e-01" cType="1" res="1.0638048406690359e-03" rms="4.4921976327896118e-01" purity="4.9842000007629395e-01" nType="0">
        <Node pos="l" depth="1" NCoef="0" IVar="7" Cut="6.3472306728363037e-01" cType="1" res="-1.7889019101858139e-02" rms="4.4471472501754761e-01" purity="3.4547117352485657e-01" nType="0">
          <Node pos="l" depth="2" NCoef="0" IVar="-1" Cut="0.0000000000000000e+00" cType="1" res="-3.5305591300129890e-03" rms="4.2260935902595520e-01" purity="2.8773730993270874e-01" nType="-99"/>
          <Node pos="r" depth="2" NCoef="0" IVar="-1" Cut="0.0000000000000000e+00" cType="1" res="3.6387908039614558e-04" rms="4.6461123228073120e-01" purity="4.0312701463699341e-01" nType="-99"/>
        </Node>
        <Node pos="r" depth="1" NCoef="0" IVar="0" Cut="8.1600308418273926e-01" cType="1" res="4.6465238556265831e-03" rms="4.4997659325599670e-01" purity="5.2733242511749268e-01" nType="0">
          <Node pos="l" depth="2" NCoef="0" IVar="-1" Cut="0.0000000000000000e+00" cType="1" res="1.4437682693824172e-03" rms="4.5092058181762695e-01" purity="3.6849689483642578e-01" nType="-99"/>
          <Node pos="r" depth="2" NCoef="0" IVar="-1" Cut="0.0000000000000000e+00" cType="1" res="5.3095423936611041e-05" rms="4.4961857795715332e-01" purity="5.7543647289276123e-01" nType="-99"/>
        </Node>
      </Node>
    </BinaryTree>
    <BinaryTree type="DecisionTree" boostWeight="1.0000000000000000e+00" itree="771">
      <Node pos="s" depth="0" NCoef="0" IVar="4" Cut="2.0104044675827026e-01" cType="1" res="-3.0371069442480803e-03" rms="4.4940811395645142e-01" purity="4.9545839428901672e-01" nType="0">
        <Node pos="l" depth="1" NCoef="0" IVar="6" Cut="1.2246876955032349e+00" cType="1" res="1.6072185710072517e-02" rms="4.5829275250434875e-01" purity="4.6845105290412903e-01" nType="0">
          <Node pos="l" depth="2" NCoef="0" IVar="-1" Cut="0.0000000000000000e+00" cType="1" res="2.8568826382979751e-04" rms="4.6279418468475342e-01" purity="5.0002807378768921e-01" nType="-99"/>
          <Node pos="r" depth="2" NCoef="0" IVar="-1" Cut="0.0000000000000000e+00" cType="1" res="2.5494238361716270e-03" rms="4.5133551955223083e-01" purity="4.2397898435592651e-01" nType="-99"/>
        </Node>
        <Node pos="r" depth="1" NCoef="0" IVar="0" Cut="1.9871602058410645e+00" cType="1" res="-7.0308228023350239e-03" rms="4.4742590188980103e-01" purity="5.0110280513763428e-01" nType="0">
          <Node pos="l" depth="2" NCoef="0" IVar="-1" Cut="0.0000000000000000e+00" cType="1" res="-1.0792800458148122e-03" rms="4.5299297571182251e-01" purity="3.9071360230445862e-01" nType="-99"/>
          <Node pos="r" depth="2" NCoef="0" IVar="-1" Cut="0.0000000000000000e+00" cType="1" res="2.2386224009096622e-04" rms="4.3891599774360657e-01" purity="6.6325914859771729e-01" nType="-99"/>
        </Node>
      </Node>
    </BinaryTree>
    <BinaryTree type="DecisionTree" boostWeight="1.0000000000000000e+00" itree="772">
      <Node pos="s" depth="0" NCoef="0" IVar="7" Cut="7.8452628850936890e-01" cType="1" res="1.5302991960197687e-03" rms="4.5108601450920105e-01" purity="5.0072407722473145e-01" nType="0">
        <Node pos="l" depth="1" NCoef="0" IVar="3" Cut="-7.5933210551738739e-02" cType="1" res="6.4301337115466595e-03" rms="4.5187801122665405e-01" purity="4.8667228221893311e-01" nType="0">
          <Node pos="l" depth="2" NCoef="0" IVar="-1" Cut="0.0000000000000000e+00" cType="1" res="1.8147892551496625e-03" rms="4.4705778360366821e-01" purity="4.1098484396934509e-01" nType="-99"/>
          <Node pos="r" depth="2" NCoef="0" IVar="-1" Cut="0.0000000000000000e+00" cType="1" res="1.8577549781184644e-04" rms="4.5291420817375183e-01" purity="5.0440365076065063e-01" nType="-99"/>
        </Node>
        <Node pos="r" depth="1" NCoef="0" IVar="6" Cut="1.4598504304885864e+00" cType="1" res="-1.4430071227252483e-02" rms="4.4812515377998352e-01" purity="5.4649549722671509e-01" nType="0">
          <Node pos="l" depth="2" NCoef="0" IVar="-1" Cut="0.0000000000000000e+00" cType="1" res="-1.5808793250471354e-03" rms="4.5194181799888611e-01" purity="5.5167704820632935e-01" nType="-99"/>
          <Node pos="r" depth="2" NCoef="0" IVar="-1" Cut="0.0000000000000000e+00" cType="1" res="9.3984045088291168e-04" rms="4.3371745944023132e-01" purity="5.2879118919372559e-01" nType="-99"/>
        </Node>
      </Node>
    </BinaryTree>
    <BinaryTree type="DecisionTree" boostWeight="1.0000000000000000e+00" itree="773">
      <Node pos="s" depth="0" NCoef="0" IVar="6" Cut="1.2855904102325439e+00" cType="1" res="-1.4355418970808387e-03" rms="4.4945877790451050e-01" purity="4.9943581223487854e-01" nType="0">
        <Node pos="l" depth="1" NCoef="0" IVar="1" Cut="9.4086652994155884e-01" cType="1" res="5.8734654448926449e-03" rms="4.5483329892158508e-01" purity="5.4248124361038208e-01" nType="0">
          <Node pos="l" depth="2" NCoef="0" IVar="-1" Cut="0.0000000000000000e+00" cType="1" res="8.5414748173207045e-04" rms="4.6483114361763000e-01" purity="4.8322832584381104e-01" nType="-99"/>
          <Node pos="r" depth="2" NCoef="0" IVar="-1" Cut="0.0000000000000000e+00" cType="1" res="-1.1040128301829100e-03" rms="4.2197388410568237e-01" purity="7.2456324100494385e-01" nType="-99"/>
        </Node>
        <Node pos="r" depth="1" NCoef="0" IVar="2" Cut="2.6719064331054688e+02" cType="1" res="-1.2863700278103352e-02" rms="4.4068118929862976e-01" purity="4.3213114142417908e-01" nType="0">
          <Node pos="l" depth="2" NCoef="0" IVar="-1" Cut="0.0000000000000000e+00" cType="1" res="-2.9162648133933544e-03" rms="4.1837507486343384e-01" purity="2.8344836831092834e-01" nType="-99"/>
          <Node pos="r" depth="2" NCoef="0" IVar="-1" Cut="0.0000000000000000e+00" cType="1" res="5.1779825298581272e-05" rms="4.5626446604728699e-01" purity="5.4393595457077026e-01" nType="-99"/>
        </Node>
      </Node>
    </BinaryTree>
    <BinaryTree type="DecisionTree" boostWeight="1.0000000000000000e+00" itree="774">
      <Node pos="s" depth="0" NCoef="0" IVar="5" Cut="2.3095104843378067e-03" cType="1" res="3.6622898187488317e-03" rms="4.4772496819496155e-01" purity="5.0289541482925415e-01" nType="0">
        <Node pos="l" depth="1" NCoef="0" IVar="3" Cut="2.0599611103534698e-01" cType="1" res="8.0480193719267845e-03" rms="4.4625753164291382e-01" purity="5.4446715116500854e-01" nType="0">
          <Node pos="l" depth="2" NCoef="0" IVar="-1" Cut="0.0000000000000000e+00" cType="1" res="8.1099307863041759e-04" rms="4.4602358341217041e-01" purity="5.4139542579650879e-01" nType="-99"/>
          <Node pos="r" depth="2" NCoef="0" IVar="-1" Cut="0.0000000000000000e+00" cType="1" res="-1.4111325144767761e-03" rms="4.4734823703765869e-01" purity="5.7151132822036743e-01" nType="-99"/>
        </Node>
        <Node pos="r" depth="1" NCoef="0" IVar="5" Cut="2.7931430377066135e-03" cType="1" res="-8.7754679843783379e-03" rms="4.5162910223007202e-01" purity="3.8499966263771057e-01" nType="0">
          <Node pos="l" depth="2" NCoef="0" IVar="-1" Cut="0.0000000000000000e+00" cType="1" res="-3.4143261145800352e-03" rms="4.4220733642578125e-01" purity="3.5329452157020569e-01" nType="-99"/>
          <Node pos="r" depth="2" NCoef="0" IVar="-1" Cut="0.0000000000000000e+00" cType="1" res="4.7877343604341149e-04" rms="4.5479774475097656e-01" purity="3.9876782894134521e-01" nType="-99"/>
        </Node>
      </Node>
    </BinaryTree>
    <BinaryTree type="DecisionTree" boostWeight="1.0000000000000000e+00" itree="775">
      <Node pos="s" depth="0" NCoef="0" IVar="4" Cut="6.7776823043823242e-01" cType="1" res="1.2688071001321077e-04" rms="4.4890642166137695e-01" purity="5.0061476230621338e-01" nType="0">
        <Node pos="l" depth="1" NCoef="0" IVar="4" Cut="6.2652379274368286e-01" cType="1" res="-2.2899808827787638e-03" rms="4.4973585009574890e-01" purity="4.9499511718750000e-01" nType="0">
          <Node pos="l" depth="2" NCoef="0" IVar="-1" Cut="0.0000000000000000e+00" cType="1" res="7.0300302468240261e-06" rms="4.4993984699249268e-01" purity="4.9573743343353271e-01" nType="-99"/>
          <Node pos="r" depth="2" NCoef="0" IVar="-1" Cut="0.0000000000000000e+00" cType="1" res="-3.2189076300710440e-03" rms="4.4438058137893677e-01" purity="4.8252075910568237e-01" nType="-99"/>
        </Node>
        <Node pos="r" depth="1" NCoef="0" IVar="-1" Cut="0.0000000000000000e+00" cType="1" res="1.8332685576751828e-03" rms="4.3913635611534119e-01" purity="5.6055104732513428e-01" nType="-99"/>
      </Node>
    </BinaryTree>
    <BinaryTree type="DecisionTree" boostWeight="1.0000000000000000e+00" itree="776">
      <Node pos="s" depth="0" NCoef="0" IVar="6" Cut="1.9659590721130371e+00" cType="1" res="2.9522920958697796e-03" rms="4.4887056946754456e-01" purity="5.0239539146423340e-01" nType="0">
        <Node pos="l" depth="1" NCoef="0" IVar="1" Cut="9.4096505641937256e-01" cType="1" res="-3.2925544655881822e-04" rms="4.4899943470954895e-01" purity="5.0463885068893433e-01" nType="0">
          <Node pos="l" depth="2" NCoef="0" IVar="-1" Cut="0.0000000000000000e+00" cType="1" res="-5.0488515989854932e-04" rms="4.5856100320816040e-01" purity="4.2946869134902954e-01" nType="-99"/>
          <Node pos="r" depth="2" NCoef="0" IVar="-1" Cut="0.0000000000000000e+00" cType="1" res="1.4343335060402751e-03" rms="4.1791376471519470e-01" purity="7.3337888717651367e-01" nType="-99"/>
        </Node>
        <Node pos="r" depth="1" NCoef="0" IVar="-1" Cut="0.0000000000000000e+00" cType="1" res="3.6665955558419228e-03" rms="4.4466319680213928e-01" purity="4.7162991762161255e-01" nType="-99"/>
      </Node>
    </BinaryTree>
    <BinaryTree type="DecisionTree" boostWeight="1.0000000000000000e+00" itree="777">
      <Node pos="s" depth="0" NCoef="0" IVar="5" Cut="3.0970543157309294e-03" cType="1" res="-1.6376115381717682e-03" rms="4.5114225149154663e-01" purity="5.0155997276306152e-01" nType="0">
        <Node pos="l" depth="1" NCoef="0" IVar="4" Cut="6.8656641244888306e-01" cType="1" res="8.8705430971458554e-04" rms="4.5096504688262939e-01" purity="5.1976102590560913e-01" nType="0">
          <Node pos="l" depth="2" NCoef="0" IVar="-1" Cut="0.0000000000000000e+00" cType="1" res="-8.8888118625618517e-05" rms="4.5106014609336853e-01" purity="5.1522427797317505e-01" nType="-99"/>
          <Node pos="r" depth="2" NCoef="0" IVar="-1" Cut="0.0000000000000000e+00" cType="1" res="1.8871647771447897e-03" rms="4.4902485609054565e-01" purity="5.7465505599975586e-01" nType="-99"/>
        </Node>
        <Node pos="r" depth="1" NCoef="0" IVar="4" Cut="4.1638776659965515e-01" cType="1" res="-1.9068647176027298e-02" rms="4.5197919011116028e-01" purity="3.7589478492736816e-01" nType="0">
          <Node pos="l" depth="2" NCoef="0" IVar="-1" Cut="0.0000000000000000e+00" cType="1" res="6.7697634221985936e-04" rms="4.5745253562927246e-01" purity="3.8908627629280090e-01" nType="-99"/>
          <Node pos="r" depth="2" NCoef="0" IVar="-1" Cut="0.0000000000000000e+00" cType="1" res="-4.1485172696411610e-03" rms="4.4215622544288635e-01" purity="3.5888442397117615e-01" nType="-99"/>
        </Node>
      </Node>
    </BinaryTree>
    <BinaryTree type="DecisionTree" boostWeight="1.0000000000000000e+00" itree="778">
      <Node pos="s" depth="0" NCoef="0" IVar="5" Cut="2.6944284327328205e-03" cType="1" res="-6.6112014465034008e-03" rms="4.4976967573165894e-01" purity="4.9254426360130310e-01" nType="0">
        <Node pos="l" depth="1" NCoef="0" IVar="7" Cut="6.7250758409500122e-01" cType="1" res="-1.2129147537052631e-02" rms="4.4672068953514099e-01" purity="5.1379698514938354e-01" nType="0">
          <Node pos="l" depth="2" NCoef="0" IVar="-1" Cut="0.0000000000000000e+00" cType="1" res="-2.8765940805897117e-04" rms="4.5025262236595154e-01" purity="4.7647336125373840e-01" nType="-99"/>
          <Node pos="r" depth="2" NCoef="0" IVar="-1" Cut="0.0000000000000000e+00" cType="1" res="-1.5943764010444283e-03" rms="4.4231504201889038e-01" purity="5.5787360668182373e-01" nType="-99"/>
        </Node>
        <Node pos="r" depth="1" NCoef="0" IVar="1" Cut="8.6552226543426514e-01" cType="1" res="1.5465160831809044e-02" rms="4.6110665798187256e-01" purity="4.0751567482948303e-01" nType="0">
          <Node pos="l" depth="2" NCoef="0" IVar="-1" Cut="0.0000000000000000e+00" cType="1" res="-2.0857792696915567e-04" rms="4.6224284172058105e-01" purity="3.7532150745391846e-01" nType="-99"/>
          <Node pos="r" depth="2" NCoef="0" IVar="-1" Cut="0.0000000000000000e+00" cType="1" res="3.1024196650832891e-03" rms="4.5758989453315735e-01" purity="4.6121448278427124e-01" nType="-99"/>
        </Node>
      </Node>
    </BinaryTree>
    <BinaryTree type="DecisionTree" boostWeight="1.0000000000000000e+00" itree="779">
      <Node pos="s" depth="0" NCoef="0" IVar="5" Cut="3.5925742704421282e-03" cType="1" res="4.3884860351681709e-03" rms="4.4795763492584229e-01" purity="5.0504714250564575e-01" nType="0">
        <Node pos="l" depth="1" NCoef="0" IVar="1" Cut="9.6008247137069702e-01" cType="1" res="6.4315511845052242e-03" rms="4.4775292277336121e-01" purity="5.1436626911163330e-01" nType="0">
          <Node pos="l" depth="2" NCoef="0" IVar="-1" Cut="0.0000000000000000e+00" cType="1" res="2.3485050769522786e-04" rms="4.5772919058799744e-01" purity="4.6254941821098328e-01" nType="-99"/>
          <Node pos="r" depth="2" NCoef="0" IVar="-1" Cut="0.0000000000000000e+00" cType="1" res="1.7752482090145350e-03" rms="3.9077737927436829e-01" purity="7.8656619787216187e-01" nType="-99"/>
        </Node>
        <Node pos="r" depth="1" NCoef="0" IVar="-1" Cut="0.0000000000000000e+00" cType="1" res="-1.9056982127949595e-03" rms="4.4988289475440979e-01" purity="3.6866894364356995e-01" nType="-99"/>
      </Node>
    </BinaryTree>
    <BinaryTree type="DecisionTree" boostWeight="1.0000000000000000e+00" itree="780">
      <Node pos="s" depth="0" NCoef="0" IVar="7" Cut="3.9561408758163452e-01" cType="1" res="4.5029423199594021e-04" rms="4.4881251454353333e-01" purity="4.9959686398506165e-01" nType="0">
        <Node pos="l" depth="1" NCoef="0" IVar="-1" Cut="0.0000000000000000e+00" cType="1" res="-2.4198733735829592e-03" rms="4.4650676846504211e-01" purity="4.1744834184646606e-01" nType="-99"/>
        <Node pos="r" depth="1" NCoef="0" IVar="0" Cut="-7.7462270855903625e-02" cType="1" res="3.5623256117105484e-03" rms="4.4891330599784851e-01" purity="5.0755858421325684e-01" nType="0">
          <Node pos="l" depth="2" NCoef="0" IVar="-1" Cut="0.0000000000000000e+00" cType="1" res="2.9152445495128632e-03" rms="4.4036260247230530e-01" purity="3.2785999774932861e-01" nType="-99"/>
          <Node pos="r" depth="2" NCoef="0" IVar="-1" Cut="0.0000000000000000e+00" cType="1" res="7.2350681875832379e-05" rms="4.4957810640335083e-01" purity="5.2355015277862549e-01" nType="-99"/>
        </Node>
      </Node>
    </BinaryTree>
    <BinaryTree type="DecisionTree" boostWeight="1.0000000000000000e+00" itree="781">
      <Node pos="s" depth="0" NCoef="0" IVar="1" Cut="9.7548687458038330e-01" cType="1" res="1.0103194508701563e-03" rms="4.4951552152633667e-01" purity="5.0151407718658447e-01" nType="0">
        <Node pos="l" depth="1" NCoef="0" IVar="5" Cut="1.2710312148556113e-03" cType="1" res="-9.0904044918715954e-04" rms="4.5520579814910889e-01" purity="4.7251164913177490e-01" nType="0">
          <Node pos="l" depth="2" NCoef="0" IVar="-1" Cut="0.0000000000000000e+00" cType="1" res="-4.9589923582971096e-04" rms="4.5126172900199890e-01" purity="5.3282511234283447e-01" nType="-99"/>
          <Node pos="r" depth="2" NCoef="0" IVar="-1" Cut="0.0000000000000000e+00" cType="1" res="3.1120402854867280e-04" rms="4.5852687954902649e-01" purity="4.2031759023666382e-01" nType="-99"/>
        </Node>
        <Node pos="r" depth="1" NCoef="0" IVar="-1" Cut="0.0000000000000000e+00" cType="1" res="1.7479163361713290e-03" rms="3.8190278410911560e-01" purity="8.1554639339447021e-01" nType="-99"/>
      </Node>
    </BinaryTree>
    <BinaryTree type="DecisionTree" boostWeight="1.0000000000000000e+00" itree="782">
      <Node pos="s" depth="0" NCoef="0" IVar="1" Cut="8.7918454408645630e-01" cType="1" res="1.6078518237918615e-03" rms="4.5043310523033142e-01" purity="5.0080752372741699e-01" nType="0">
        <Node pos="l" depth="1" NCoef="0" IVar="1" Cut="8.5866111516952515e-01" cType="1" res="-9.2525305226445198e-03" rms="4.5067632198333740e-01" purity="3.6274850368499756e-01" nType="0">
          <Node pos="l" depth="2" NCoef="0" IVar="-1" Cut="0.0000000000000000e+00" cType="1" res="1.4981816057115793e-03" rms="4.6041411161422729e-01" purity="3.7941098213195801e-01" nType="-99"/>
          <Node pos="r" depth="2" NCoef="0" IVar="-1" Cut="0.0000000000000000e+00" cType="1" res="-1.8831326160579920e-03" rms="4.4483610987663269e-01" purity="3.5416620969772339e-01" nType="-99"/>
        </Node>
        <Node pos="r" depth="1" NCoef="0" IVar="6" Cut="1.0627852678298950e+00" cType="1" res="6.6202920861542225e-03" rms="4.5023247599601746e-01" purity="5.6452649831771851e-01" nType="0">
          <Node pos="l" depth="2" NCoef="0" IVar="-1" Cut="0.0000000000000000e+00" cType="1" res="1.2061309535056353e-03" rms="4.4479656219482422e-01" purity="6.2538617849349976e-01" nType="-99"/>
          <Node pos="r" depth="2" NCoef="0" IVar="-1" Cut="0.0000000000000000e+00" cType="1" res="-1.1687244114000350e-04" rms="4.5407995581626892e-01" purity="5.1902031898498535e-01" nType="-99"/>
        </Node>
      </Node>
    </BinaryTree>
    <BinaryTree type="DecisionTree" boostWeight="1.0000000000000000e+00" itree="783">
      <Node pos="s" depth="0" NCoef="0" IVar="7" Cut="7.3167550563812256e-01" cType="1" res="1.9173102919012308e-03" rms="4.4915342330932617e-01" purity="5.0050067901611328e-01" nType="0">
        <Node pos="l" depth="1" NCoef="0" IVar="1" Cut="9.4853365421295166e-01" cType="1" res="-3.4767407923936844e-03" rms="4.5104488730430603e-01" purity="4.6576493978500366e-01" nType="0">
          <Node pos="l" depth="2" NCoef="0" IVar="-1" Cut="0.0000000000000000e+00" cType="1" res="-5.9906422393396497e-04" rms="4.5605263113975525e-01" purity="4.0886220335960388e-01" nType="-99"/>
          <Node pos="r" depth="2" NCoef="0" IVar="-1" Cut="0.0000000000000000e+00" cType="1" res="1.1574832024052739e-03" rms="4.2849749326705933e-01" purity="7.0821052789688110e-01" nType="-99"/>
        </Node>
        <Node pos="r" depth="1" NCoef="0" IVar="4" Cut="6.4420342445373535e-01" cType="1" res="1.2174734845757484e-02" rms="4.4535425305366516e-01" purity="5.6655478477478027e-01" nType="0">
          <Node pos="l" depth="2" NCoef="0" IVar="-1" Cut="0.0000000000000000e+00" cType="1" res="1.2873653322458267e-03" rms="4.5011380314826965e-01" purity="5.7360762357711792e-01" nType="-99"/>
          <Node pos="r" depth="2" NCoef="0" IVar="-1" Cut="0.0000000000000000e+00" cType="1" res="-1.1555913370102644e-03" rms="4.2272007465362549e-01" purity="5.3560042381286621e-01" nType="-99"/>
        </Node>
      </Node>
    </BinaryTree>
    <BinaryTree type="DecisionTree" boostWeight="1.0000000000000000e+00" itree="784">
      <Node pos="s" depth="0" NCoef="0" IVar="7" Cut="4.5923069119453430e-01" cType="1" res="-3.6167383659631014e-03" rms="4.4913411140441895e-01" purity="4.9594521522521973e-01" nType="0">
        <Node pos="l" depth="1" NCoef="0" IVar="0" Cut="2.4691078662872314e+00" cType="1" res="-2.0249458029866219e-02" rms="4.4299155473709106e-01" purity="4.1899743676185608e-01" nType="0">
          <Node pos="l" depth="2" NCoef="0" IVar="-1" Cut="0.0000000000000000e+00" cType="1" res="-3.9233581628650427e-04" rms="4.3871948122978210e-01" purity="3.5828363895416260e-01" nType="-99"/>
          <Node pos="r" depth="2" NCoef="0" IVar="-1" Cut="0.0000000000000000e+00" cType="1" res="-3.8652962539345026e-03" rms="4.5049494504928589e-01" purity="5.5494290590286255e-01" nType="-99"/>
        </Node>
        <Node pos="r" depth="1" NCoef="0" IVar="6" Cut="1.5038505792617798e+00" cType="1" res="-2.2534267918672413e-04" rms="4.5030087232589722e-01" purity="5.1163476705551147e-01" nType="0">
          <Node pos="l" depth="2" NCoef="0" IVar="-1" Cut="0.0000000000000000e+00" cType="1" res="3.7614745087921619e-04" rms="4.5506930351257324e-01" purity="5.3751015663146973e-01" nType="-99"/>
          <Node pos="r" depth="2" NCoef="0" IVar="-1" Cut="0.0000000000000000e+00" cType="1" res="-1.4590907376259565e-03" rms="4.3379104137420654e-01" purity="4.2676410079002380e-01" nType="-99"/>
        </Node>
      </Node>
    </BinaryTree>
    <BinaryTree type="DecisionTree" boostWeight="1.0000000000000000e+00" itree="785">
      <Node pos="s" depth="0" NCoef="0" IVar="1" Cut="9.6795386075973511e-01" cType="1" res="-1.0909059783443809e-03" rms="4.4823908805847168e-01" purity="5.0001794099807739e-01" nType="0">
        <Node pos="l" depth="1" NCoef="0" IVar="2" Cut="4.1685095214843750e+02" cType="1" res="-4.0821144357323647e-03" rms="4.5585909485816956e-01" purity="4.5879086852073669e-01" nType="0">
          <Node pos="l" depth="2" NCoef="0" IVar="-1" Cut="0.0000000000000000e+00" cType="1" res="-6.3419074285775423e-04" rms="4.5469421148300171e-01" purity="4.1053831577301025e-01" nType="-99"/>
          <Node pos="r" depth="2" NCoef="0" IVar="-1" Cut="0.0000000000000000e+00" cType="1" res="8.4213010268285871e-04" rms="4.5992219448089600e-01" purity="6.4500504732131958e-01" nType="-99"/>
        </Node>
        <Node pos="r" depth="1" NCoef="0" IVar="-1" Cut="0.0000000000000000e+00" cType="1" res="1.6665011644363403e-03" rms="3.8684338331222534e-01" purity="8.0353814363479614e-01" nType="-99"/>
      </Node>
    </BinaryTree>
    <BinaryTree type="DecisionTree" boostWeight="1.0000000000000000e+00" itree="786">
      <Node pos="s" depth="0" NCoef="0" IVar="2" Cut="4.8421249389648438e+02" cType="1" res="1.7246995121240616e-03" rms="4.4551014900207520e-01" purity="5.0477629899978638e-01" nType="0">
        <Node pos="l" depth="1" NCoef="0" IVar="7" Cut="6.5277850627899170e-01" cType="1" res="-2.3560354020446539e-03" rms="4.4841042160987854e-01" purity="4.7487542033195496e-01" nType="0">
          <Node pos="l" depth="2" NCoef="0" IVar="-1" Cut="0.0000000000000000e+00" cType="1" res="-9.3601486878469586e-04" rms="4.4484391808509827e-01" purity="4.2665234208106995e-01" nType="-99"/>
          <Node pos="r" depth="2" NCoef="0" IVar="-1" Cut="0.0000000000000000e+00" cType="1" res="5.6864751968532801e-04" rms="4.5189204812049866e-01" purity="5.2554696798324585e-01" nType="-99"/>
        </Node>
        <Node pos="r" depth="1" NCoef="0" IVar="4" Cut="2.8272530436515808e-01" cType="1" res="2.9779480770230293e-02" rms="4.2397373914718628e-01" purity="7.1034276485443115e-01" nType="0">
          <Node pos="l" depth="2" NCoef="0" IVar="-1" Cut="0.0000000000000000e+00" cType="1" res="3.1155468896031380e-03" rms="4.3504056334495544e-01" purity="6.7455327510833740e-01" nType="-99"/>
          <Node pos="r" depth="2" NCoef="0" IVar="-1" Cut="0.0000000000000000e+00" cType="1" res="7.2866631671786308e-04" rms="4.1117104887962341e-01" purity="7.4766445159912109e-01" nType="-99"/>
        </Node>
      </Node>
    </BinaryTree>
    <BinaryTree type="DecisionTree" boostWeight="1.0000000000000000e+00" itree="787">
      <Node pos="s" depth="0" NCoef="0" IVar="0" Cut="1.0958234071731567e+00" cType="1" res="1.4403794193640351e-03" rms="4.5170050859451294e-01" purity="4.9953800439834595e-01" nType="0">
        <Node pos="l" depth="1" NCoef="0" IVar="5" Cut="2.6940426323562860e-03" cType="1" res="1.1415404267609119e-02" rms="4.5422598719596863e-01" purity="3.6752915382385254e-01" nType="0">
          <Node pos="l" depth="2" NCoef="0" IVar="-1" Cut="0.0000000000000000e+00" cType="1" res="-1.4418065256904811e-04" rms="4.4942364096641541e-01" purity="3.6347141861915588e-01" nType="-99"/>
          <Node pos="r" depth="2" NCoef="0" IVar="-1" Cut="0.0000000000000000e+00" cType="1" res="3.0612207483500242e-03" rms="4.6299007534980774e-01" purity="3.7611058354377747e-01" nType="-99"/>
        </Node>
        <Node pos="r" depth="1" NCoef="0" IVar="5" Cut="2.7099214494228363e-03" cType="1" res="-4.3432698585093021e-03" rms="4.5012849569320679e-01" purity="5.7607847452163696e-01" nType="0">
          <Node pos="l" depth="2" NCoef="0" IVar="-1" Cut="0.0000000000000000e+00" cType="1" res="9.5503557531628758e-05" rms="4.4796195626258850e-01" purity="5.9754109382629395e-01" nType="-99"/>
          <Node pos="r" depth="2" NCoef="0" IVar="-1" Cut="0.0000000000000000e+00" cType="1" res="-2.9722056351602077e-03" rms="4.6304765343666077e-01" purity="4.2554795742034912e-01" nType="-99"/>
        </Node>
      </Node>
    </BinaryTree>
    <BinaryTree type="DecisionTree" boostWeight="1.0000000000000000e+00" itree="788">
      <Node pos="s" depth="0" NCoef="0" IVar="7" Cut="7.3065149784088135e-01" cType="1" res="1.8372026970610023e-03" rms="4.4650715589523315e-01" purity="5.0291264057159424e-01" nType="0">
        <Node pos="l" depth="1" NCoef="0" IVar="3" Cut="-6.1333831399679184e-02" cType="1" res="-4.5203594490885735e-03" rms="4.4878268241882324e-01" purity="4.6379491686820984e-01" nType="0">
          <Node pos="l" depth="2" NCoef="0" IVar="-1" Cut="0.0000000000000000e+00" cType="1" res="-2.0484370179474354e-03" rms="4.3372604250907898e-01" purity="3.3634310960769653e-01" nType="-99"/>
          <Node pos="r" depth="2" NCoef="0" IVar="-1" Cut="0.0000000000000000e+00" cType="1" res="3.6938810808351263e-05" rms="4.5248767733573914e-01" purity="4.9700054526329041e-01" nType="-99"/>
        </Node>
        <Node pos="r" depth="1" NCoef="0" IVar="2" Cut="3.0862133789062500e+02" cType="1" res="1.3789376243948936e-02" rms="4.4194999337196350e-01" purity="5.7645374536514282e-01" nType="0">
          <Node pos="l" depth="2" NCoef="0" IVar="-1" Cut="0.0000000000000000e+00" cType="1" res="-1.4756461314391345e-04" rms="4.5051640272140503e-01" purity="4.4427540898323059e-01" nType="-99"/>
          <Node pos="r" depth="2" NCoef="0" IVar="-1" Cut="0.0000000000000000e+00" cType="1" res="1.7578821862116456e-03" rms="4.3466091156005859e-01" purity="6.8085300922393799e-01" nType="-99"/>
        </Node>
      </Node>
    </BinaryTree>
    <BinaryTree type="DecisionTree" boostWeight="1.0000000000000000e+00" itree="789">
      <Node pos="s" depth="0" NCoef="0" IVar="0" Cut="2.0941402912139893e+00" cType="1" res="4.8603257164359093e-03" rms="4.4967800378799438e-01" purity="5.0435209274291992e-01" nType="0">
        <Node pos="l" depth="1" NCoef="0" IVar="4" Cut="5.6858259439468384e-01" cType="1" res="1.3499767519533634e-02" rms="4.5539742708206177e-01" purity="4.1454821825027466e-01" nType="0">
          <Node pos="l" depth="2" NCoef="0" IVar="-1" Cut="0.0000000000000000e+00" cType="1" res="1.5084758633747697e-03" rms="4.5618554949760437e-01" purity="4.1515773534774780e-01" nType="-99"/>
          <Node pos="r" depth="2" NCoef="0" IVar="-1" Cut="0.0000000000000000e+00" cType="1" res="-8.1230187788605690e-04" rms="4.5156115293502808e-01" purity="4.1223207116127014e-01" nType="-99"/>
        </Node>
        <Node pos="r" depth="1" NCoef="0" IVar="0" Cut="4.4588418006896973e+00" cType="1" res="-8.7966900318861008e-03" rms="4.4013962149620056e-01" purity="6.4631181955337524e-01" nType="0">
          <Node pos="l" depth="2" NCoef="0" IVar="-1" Cut="0.0000000000000000e+00" cType="1" res="-1.0314425453543663e-03" rms="4.5420545339584351e-01" purity="6.0717362165451050e-01" nType="-99"/>
          <Node pos="r" depth="2" NCoef="0" IVar="-1" Cut="0.0000000000000000e+00" cType="1" res="1.5517944702878594e-03" rms="3.7463212013244629e-01" purity="8.0923634767532349e-01" nType="-99"/>
        </Node>
      </Node>
    </BinaryTree>
    <BinaryTree type="DecisionTree" boostWeight="1.0000000000000000e+00" itree="790">
      <Node pos="s" depth="0" NCoef="0" IVar="4" Cut="1.2929767370223999e-01" cType="1" res="-2.3660291917622089e-03" rms="4.4823208451271057e-01" purity="4.9829101562500000e-01" nType="0">
        <Node pos="l" depth="1" NCoef="0" IVar="-1" Cut="0.0000000000000000e+00" cType="1" res="-3.4576244652271271e-03" rms="4.3478631973266602e-01" purity="3.8124653697013855e-01" nType="-99"/>
        <Node pos="r" depth="1" NCoef="0" IVar="6" Cut="9.3867391347885132e-01" cType="1" res="3.3620675094425678e-04" rms="4.4896832108497620e-01" purity="5.0597178936004639e-01" nType="0">
          <Node pos="l" depth="2" NCoef="0" IVar="-1" Cut="0.0000000000000000e+00" cType="1" res="9.0151146287098527e-04" rms="4.5374488830566406e-01" purity="5.8540481328964233e-01" nType="-99"/>
          <Node pos="r" depth="2" NCoef="0" IVar="-1" Cut="0.0000000000000000e+00" cType="1" res="-3.9538214332424104e-04" rms="4.4668573141098022e-01" purity="4.7022479772567749e-01" nType="-99"/>
        </Node>
      </Node>
    </BinaryTree>
    <BinaryTree type="DecisionTree" boostWeight="1.0000000000000000e+00" itree="791">
      <Node pos="s" depth="0" NCoef="0" IVar="4" Cut="1.7851521074771881e-01" cType="1" res="-3.0946303741075099e-04" rms="4.5013535022735596e-01" purity="5.0067222118377686e-01" nType="0">
        <Node pos="l" depth="1" NCoef="0" IVar="6" Cut="1.1546816825866699e+00" cType="1" res="1.9051412120461464e-02" rms="4.5604252815246582e-01" purity="4.7582948207855225e-01" nType="0">
          <Node pos="l" depth="2" NCoef="0" IVar="-1" Cut="0.0000000000000000e+00" cType="1" res="-1.4146284956950694e-04" rms="4.5583769679069519e-01" purity="5.0096929073333740e-01" nType="-99"/>
          <Node pos="r" depth="2" NCoef="0" IVar="-1" Cut="0.0000000000000000e+00" cType="1" res="3.1643516849726439e-03" rms="4.5513069629669189e-01" purity="4.4798460602760315e-01" nType="-99"/>
        </Node>
        <Node pos="r" depth="1" NCoef="0" IVar="7" Cut="8.9773565530776978e-01" cType="1" res="-3.3966556657105684e-03" rms="4.4910910725593567e-01" purity="5.0463354587554932e-01" nType="0">
          <Node pos="l" depth="2" NCoef="0" IVar="-1" Cut="0.0000000000000000e+00" cType="1" res="-7.6456446549855173e-05" rms="4.4973057508468628e-01" purity="5.0128865242004395e-01" nType="-99"/>
          <Node pos="r" depth="2" NCoef="0" IVar="-1" Cut="0.0000000000000000e+00" cType="1" res="-2.7444399893283844e-03" rms="4.3870237469673157e-01" purity="5.5270636081695557e-01" nType="-99"/>
        </Node>
      </Node>
    </BinaryTree>
    <BinaryTree type="DecisionTree" boostWeight="1.0000000000000000e+00" itree="792">
      <Node pos="s" depth="0" NCoef="0" IVar="7" Cut="7.3189151287078857e-01" cType="1" res="-2.9225540347397327e-03" rms="4.4841513037681580e-01" purity="4.9700745940208435e-01" nType="0">
        <Node pos="l" depth="1" NCoef="0" IVar="3" Cut="-1.0429900139570236e-01" cType="1" res="-8.2323700189590454e-03" rms="4.4954514503479004e-01" purity="4.5926529169082642e-01" nType="0">
          <Node pos="l" depth="2" NCoef="0" IVar="-1" Cut="0.0000000000000000e+00" cType="1" res="-3.3434981014579535e-03" rms="4.2100515961647034e-01" purity="3.0805042386054993e-01" nType="-99"/>
          <Node pos="r" depth="2" NCoef="0" IVar="-1" Cut="0.0000000000000000e+00" cType="1" res="-3.3455376978963614e-04" rms="4.5287638902664185e-01" purity="4.7829169034957886e-01" nType="-99"/>
        </Node>
        <Node pos="r" depth="1" NCoef="0" IVar="6" Cut="1.5895646810531616e+00" cType="1" res="6.9938739761710167e-03" rms="4.4612789154052734e-01" purity="5.6749343872070312e-01" nType="0">
          <Node pos="l" depth="2" NCoef="0" IVar="-1" Cut="0.0000000000000000e+00" cType="1" res="3.0790866730967537e-05" rms="4.4719514250755310e-01" purity="5.7261335849761963e-01" nType="-99"/>
          <Node pos="r" depth="2" NCoef="0" IVar="-1" Cut="0.0000000000000000e+00" cType="1" res="2.9741167090833187e-03" rms="4.3882158398628235e-01" purity="5.4043453931808472e-01" nType="-99"/>
        </Node>
      </Node>
    </BinaryTree>
    <BinaryTree type="DecisionTree" boostWeight="1.0000000000000000e+00" itree="793">
      <Node pos="s" depth="0" NCoef="0" IVar="0" Cut="-1.5809097886085510e-01" cType="1" res="-6.9364235969260335e-04" rms="4.4803699851036072e-01" purity="4.9823108315467834e-01" nType="0">
        <Node pos="l" depth="1" NCoef="0" IVar="-1" Cut="0.0000000000000000e+00" cType="1" res="3.1656031496822834e-03" rms="4.4188955426216125e-01" purity="3.3168071508407593e-01" nType="-99"/>
        <Node pos="r" depth="1" NCoef="0" IVar="1" Cut="8.5997194051742554e-01" cType="1" res="-3.2340565230697393e-03" rms="4.4837272167205811e-01" purity="5.1030033826828003e-01" nType="0">
          <Node pos="l" depth="2" NCoef="0" IVar="-1" Cut="0.0000000000000000e+00" cType="1" res="-2.5673529598861933e-03" rms="4.4432017207145691e-01" purity="3.5499683022499084e-01" nType="-99"/>
          <Node pos="r" depth="2" NCoef="0" IVar="-1" Cut="0.0000000000000000e+00" cType="1" res="1.1213867765036412e-05" rms="4.4868448376655579e-01" purity="5.2730846405029297e-01" nType="-99"/>
        </Node>
      </Node>
    </BinaryTree>
    <BinaryTree type="DecisionTree" boostWeight="1.0000000000000000e+00" itree="794">
      <Node pos="s" depth="0" NCoef="0" IVar="6" Cut="1.6491384506225586e+00" cType="1" res="3.4170161234214902e-04" rms="4.4988656044006348e-01" purity="4.9903652071952820e-01" nType="0">
        <Node pos="l" depth="1" NCoef="0" IVar="7" Cut="7.8610920906066895e-01" cType="1" res="4.4878534972667694e-03" rms="4.5418497920036316e-01" purity="5.1831847429275513e-01" nType="0">
          <Node pos="l" depth="2" NCoef="0" IVar="-1" Cut="0.0000000000000000e+00" cType="1" res="6.8070244742557406e-04" rms="4.5929977297782898e-01" purity="5.0238335132598877e-01" nType="-99"/>
          <Node pos="r" depth="2" NCoef="0" IVar="-1" Cut="0.0000000000000000e+00" cType="1" res="-7.5248244684189558e-04" rms="4.3836116790771484e-01" purity="5.6545442342758179e-01" nType="-99"/>
        </Node>
        <Node pos="r" depth="1" NCoef="0" IVar="7" Cut="5.7665258646011353e-01" cType="1" res="-2.0950267091393471e-02" rms="4.2649707198143005e-01" purity="4.0001696348190308e-01" nType="0">
          <Node pos="l" depth="2" NCoef="0" IVar="-1" Cut="0.0000000000000000e+00" cType="1" res="-3.7386571057140827e-03" rms="4.1145730018615723e-01" purity="3.2050436735153198e-01" nType="-99"/>
          <Node pos="r" depth="2" NCoef="0" IVar="-1" Cut="0.0000000000000000e+00" cType="1" res="-3.6238384200260043e-04" rms="4.3718701601028442e-01" purity="4.6204340457916260e-01" nType="-99"/>
        </Node>
      </Node>
    </BinaryTree>
    <BinaryTree type="DecisionTree" boostWeight="1.0000000000000000e+00" itree="795">
      <Node pos="s" depth="0" NCoef="0" IVar="3" Cut="1.2502844631671906e-01" cType="1" res="5.1985215395689011e-03" rms="4.5023405551910400e-01" purity="5.0480824708938599e-01" nType="0">
        <Node pos="l" depth="1" NCoef="0" IVar="1" Cut="8.5996735095977783e-01" cType="1" res="9.8956224974244833e-04" rms="4.4672372937202454e-01" purity="4.8855799436569214e-01" nType="0">
          <Node pos="l" depth="2" NCoef="0" IVar="-1" Cut="0.0000000000000000e+00" cType="1" res="2.3894265759736300e-03" rms="4.5732107758522034e-01" purity="3.7271952629089355e-01" nType="-99"/>
          <Node pos="r" depth="2" NCoef="0" IVar="-1" Cut="0.0000000000000000e+00" cType="1" res="-2.2649207676295191e-04" rms="4.4509291648864746e-01" purity="5.0449061393737793e-01" nType="-99"/>
        </Node>
        <Node pos="r" depth="1" NCoef="0" IVar="6" Cut="8.4407740831375122e-01" cType="1" res="1.8156910315155983e-02" rms="4.6063232421875000e-01" purity="5.5483895540237427e-01" nType="0">
          <Node pos="l" depth="2" NCoef="0" IVar="-1" Cut="0.0000000000000000e+00" cType="1" res="-1.0280795395374298e-03" rms="4.6342185139656067e-01" purity="5.8175885677337646e-01" nType="-99"/>
          <Node pos="r" depth="2" NCoef="0" IVar="-1" Cut="0.0000000000000000e+00" cType="1" res="1.8589301034808159e-03" rms="4.5940828323364258e-01" purity="5.4719954729080200e-01" nType="-99"/>
        </Node>
      </Node>
    </BinaryTree>
    <BinaryTree type="DecisionTree" boostWeight="1.0000000000000000e+00" itree="796">
      <Node pos="s" depth="0" NCoef="0" IVar="4" Cut="7.1037161350250244e-01" cType="1" res="5.4014811757951975e-04" rms="4.5249772071838379e-01" purity="5.0162005424499512e-01" nType="0">
        <Node pos="l" depth="1" NCoef="0" IVar="1" Cut="8.6377978324890137e-01" cType="1" res="-1.7329474212601781e-03" rms="4.5289403200149536e-01" purity="4.9794408679008484e-01" nType="0">
          <Node pos="l" depth="2" NCoef="0" IVar="-1" Cut="0.0000000000000000e+00" cType="1" res="-1.9430200336501002e-03" rms="4.4423478841781616e-01" purity="3.3984404802322388e-01" nType="-99"/>
          <Node pos="r" depth="2" NCoef="0" IVar="-1" Cut="0.0000000000000000e+00" cType="1" res="1.7847768322099000e-04" rms="4.5434877276420593e-01" purity="5.2714675664901733e-01" nType="-99"/>
        </Node>
        <Node pos="r" depth="1" NCoef="0" IVar="-1" Cut="0.0000000000000000e+00" cType="1" res="2.6527466252446175e-03" rms="4.4443309307098389e-01" purity="5.6103920936584473e-01" nType="-99"/>
      </Node>
    </BinaryTree>
    <BinaryTree type="DecisionTree" boostWeight="1.0000000000000000e+00" itree="797">
      <Node pos="s" depth="0" NCoef="0" IVar="3" Cut="-1.1722233891487122e-01" cType="1" res="-1.0227637831121683e-03" rms="4.4780668616294861e-01" purity="5.0061309337615967e-01" nType="0">
        <Node pos="l" depth="1" NCoef="0" IVar="3" Cut="-1.3284510374069214e-01" cType="1" res="2.6167675852775574e-02" rms="4.3953147530555725e-01" purity="4.6872195601463318e-01" nType="0">
          <Node pos="l" depth="2" NCoef="0" IVar="-1" Cut="0.0000000000000000e+00" cType="1" res="2.2027946542948484e-03" rms="4.3790623545646667e-01" purity="4.6074756979942322e-01" nType="-99"/>
          <Node pos="r" depth="2" NCoef="0" IVar="-1" Cut="0.0000000000000000e+00" cType="1" res="1.7451873281970620e-03" rms="4.4115325808525085e-01" purity="4.7680464386940002e-01" nType="-99"/>
        </Node>
        <Node pos="r" depth="1" NCoef="0" IVar="3" Cut="-6.9624237716197968e-02" cType="1" res="-4.1157528758049011e-03" rms="4.4863396883010864e-01" purity="5.0424081087112427e-01" nType="0">
          <Node pos="l" depth="2" NCoef="0" IVar="-1" Cut="0.0000000000000000e+00" cType="1" res="-2.2125144023448229e-03" rms="4.3782860040664673e-01" purity="4.5085686445236206e-01" nType="-99"/>
          <Node pos="r" depth="2" NCoef="0" IVar="-1" Cut="0.0000000000000000e+00" cType="1" res="8.1701196904759854e-05" rms="4.5075884461402893e-01" purity="5.1576018333435059e-01" nType="-99"/>
        </Node>
      </Node>
    </BinaryTree>
    <BinaryTree type="DecisionTree" boostWeight="1.0000000000000000e+00" itree="798">
      <Node pos="s" depth="0" NCoef="0" IVar="6" Cut="1.6475056409835815e+00" cType="1" res="-5.1272958517074585e-03" rms="4.4966745376586914e-01" purity="4.9546155333518982e-01" nType="0">
        <Node pos="l" depth="1" NCoef="0" IVar="4" Cut="6.3880544900894165e-01" cType="1" res="-8.9907944202423096e-03" rms="4.5261046290397644e-01" purity="5.0803154706954956e-01" nType="0">
          <Node pos="l" depth="2" NCoef="0" IVar="-1" Cut="0.0000000000000000e+00" cType="1" res="-8.7583169806748629e-04" rms="4.5299226045608521e-01" purity="5.0072836875915527e-01" nType="-99"/>
          <Node pos="r" depth="2" NCoef="0" IVar="-1" Cut="0.0000000000000000e+00" cType="1" res="9.1998249990865588e-04" rms="4.4929569959640503e-01" purity="5.5970460176467896e-01" nType="-99"/>
        </Node>
        <Node pos="r" depth="1" NCoef="0" IVar="2" Cut="2.6327273559570312e+02" cType="1" res="1.3183555565774441e-02" rms="4.3498229980468750e-01" purity="4.3588665127754211e-01" nType="0">
          <Node pos="l" depth="2" NCoef="0" IVar="-1" Cut="0.0000000000000000e+00" cType="1" res="-1.5089156804606318e-03" rms="4.2253562808036804e-01" purity="2.8317239880561829e-01" nType="-99"/>
          <Node pos="r" depth="2" NCoef="0" IVar="-1" Cut="0.0000000000000000e+00" cType="1" res="2.6717456057667732e-03" rms="4.4430610537528992e-01" purity="5.7380574941635132e-01" nType="-99"/>
        </Node>
      </Node>
    </BinaryTree>
    <BinaryTree type="DecisionTree" boostWeight="1.0000000000000000e+00" itree="799">
      <Node pos="s" depth="0" NCoef="0" IVar="3" Cut="1.8082822859287262e-01" cType="1" res="-3.7691093166358769e-04" rms="4.4764453172683716e-01" purity="5.0016993284225464e-01" nType="0">
        <Node pos="l" depth="1" NCoef="0" IVar="4" Cut="6.3659238815307617e-01" cType="1" res="-4.5911106280982494e-03" rms="4.4522255659103394e-01" purity="4.8632699251174927e-01" nType="0">
          <Node pos="l" depth="2" NCoef="0" IVar="-1" Cut="0.0000000000000000e+00" cType="1" res="-6.4928177744150162e-04" rms="4.4633558392524719e-01" purity="4.7449389100074768e-01" nType="-99"/>
          <Node pos="r" depth="2" NCoef="0" IVar="-1" Cut="0.0000000000000000e+00" cType="1" res="1.4138156548142433e-03" rms="4.3778744339942932e-01" purity="5.5629032850265503e-01" nType="-99"/>
        </Node>
        <Node pos="r" depth="1" NCoef="0" IVar="3" Cut="2.4038405716419220e-01" cType="1" res="2.3901350796222687e-02" rms="4.6059980988502502e-01" purity="5.7991969585418701e-01" nType="0">
          <Node pos="l" depth="2" NCoef="0" IVar="-1" Cut="0.0000000000000000e+00" cType="1" res="2.5638348888605833e-03" rms="4.5848143100738525e-01" purity="5.9594511985778809e-01" nType="-99"/>
          <Node pos="r" depth="2" NCoef="0" IVar="-1" Cut="0.0000000000000000e+00" cType="1" res="8.0221667303703725e-05" rms="4.6285068988800049e-01" purity="5.5574578046798706e-01" nType="-99"/>
        </Node>
      </Node>
    </BinaryTree>
    <BinaryTree type="DecisionTree" boostWeight="1.0000000000000000e+00" itree="800">
      <Node pos="s" depth="0" NCoef="0" IVar="0" Cut="-1.6225537657737732e-01" cType="1" res="2.3257681168615818e-03" rms="4.5058581233024597e-01" purity="5.0194609165191650e-01" nType="0">
        <Node pos="l" depth="1" NCoef="0" IVar="-1" Cut="0.0000000000000000e+00" cType="1" res="4.4737462885677814e-03" rms="4.4985699653625488e-01" purity="3.4788346290588379e-01" nType="-99"/>
        <Node pos="r" depth="1" NCoef="0" IVar="4" Cut="2.2846761345863342e-01" cType="1" res="-1.1188581120222807e-03" rms="4.5044320821762085e-01" purity="5.1308780908584595e-01" nType="0">
          <Node pos="l" depth="2" NCoef="0" IVar="-1" Cut="0.0000000000000000e+00" cType="1" res="-1.2911040103062987e-03" rms="4.5053744316101074e-01" purity="4.5459353923797607e-01" nType="-99"/>
          <Node pos="r" depth="2" NCoef="0" IVar="-1" Cut="0.0000000000000000e+00" cType="1" res="2.3681893071625382e-04" rms="4.5031493902206421e-01" purity="5.2889043092727661e-01" nType="-99"/>
        </Node>
      </Node>
    </BinaryTree>
    <BinaryTree type="DecisionTree" boostWeight="1.0000000000000000e+00" itree="801">
      <Node pos="s" depth="0" NCoef="0" IVar="5" Cut="3.4841874148696661e-03" cType="1" res="1.9302784930914640e-03" rms="4.4942918419837952e-01" purity="5.0197607278823853e-01" nType="0">
        <Node pos="l" depth="1" NCoef="0" IVar="7" Cut="7.3189151287078857e-01" cType="1" res="-5.0841062329709530e-04" rms="4.4823721051216125e-01" purity="5.0844585895538330e-01" nType="0">
          <Node pos="l" depth="2" NCoef="0" IVar="-1" Cut="0.0000000000000000e+00" cType="1" res="-5.0302146701142192e-04" rms="4.5185676217079163e-01" purity="4.7148877382278442e-01" nType="-99"/>
          <Node pos="r" depth="2" NCoef="0" IVar="-1" Cut="0.0000000000000000e+00" cType="1" res="8.0999231431633234e-04" rms="4.4098651409149170e-01" purity="5.7909196615219116e-01" nType="-99"/>
        </Node>
        <Node pos="r" depth="1" NCoef="0" IVar="-1" Cut="0.0000000000000000e+00" cType="1" res="2.1420936100184917e-03" rms="4.6219843626022339e-01" purity="4.2624035477638245e-01" nType="-99"/>
      </Node>
    </BinaryTree>
    <BinaryTree type="DecisionTree" boostWeight="1.0000000000000000e+00" itree="802">
      <Node pos="s" depth="0" NCoef="0" IVar="3" Cut="4.0985129773616791e-02" cType="1" res="-2.9923630063422024e-04" rms="4.5263233780860901e-01" purity="4.9926429986953735e-01" nType="0">
        <Node pos="l" depth="1" NCoef="0" IVar="3" Cut="-5.6258831173181534e-03" cType="1" res="6.9478009827435017e-03" rms="4.4657045602798462e-01" purity="4.8785161972045898e-01" nType="0">
          <Node pos="l" depth="2" NCoef="0" IVar="-1" Cut="0.0000000000000000e+00" cType="1" res="1.0909267439274117e-04" rms="4.4531655311584473e-01" purity="4.7753626108169556e-01" nType="-99"/>
          <Node pos="r" depth="2" NCoef="0" IVar="-1" Cut="0.0000000000000000e+00" cType="1" res="1.9433725392445922e-03" rms="4.5058646798133850e-01" purity="5.2589017152786255e-01" nType="-99"/>
        </Node>
        <Node pos="r" depth="1" NCoef="0" IVar="6" Cut="1.3819725513458252e+00" cType="1" res="-1.0508801788091660e-02" rms="4.6084368228912354e-01" purity="5.1534241437911987e-01" nType="0">
          <Node pos="l" depth="2" NCoef="0" IVar="-1" Cut="0.0000000000000000e+00" cType="1" res="-1.5174698783084750e-03" rms="4.6823486685752869e-01" purity="5.3042000532150269e-01" nType="-99"/>
          <Node pos="r" depth="2" NCoef="0" IVar="-1" Cut="0.0000000000000000e+00" cType="1" res="7.9767598072066903e-04" rms="4.4547805190086365e-01" purity="4.8632276058197021e-01" nType="-99"/>
        </Node>
      </Node>
    </BinaryTree>
    <BinaryTree type="DecisionTree" boostWeight="1.0000000000000000e+00" itree="803">
      <Node pos="s" depth="0" NCoef="0" IVar="7" Cut="7.9136174917221069e-01" cType="1" res="1.3375973794609308e-03" rms="4.4989967346191406e-01" purity="5.0162756443023682e-01" nType="0">
        <Node pos="l" depth="1" NCoef="0" IVar="3" Cut="1.6561688482761383e-01" cType="1" res="5.5985269136726856e-03" rms="4.5073652267456055e-01" purity="4.8692384362220764e-01" nType="0">
          <Node pos="l" depth="2" NCoef="0" IVar="-1" Cut="0.0000000000000000e+00" cType="1" res="7.9746439587324858e-04" rms="4.4958910346031189e-01" purity="4.7207307815551758e-01" nType="-99"/>
          <Node pos="r" depth="2" NCoef="0" IVar="-1" Cut="0.0000000000000000e+00" cType="1" res="-8.8600703747943044e-04" rms="4.5431742072105408e-01" purity="5.3969323635101318e-01" nType="-99"/>
        </Node>
        <Node pos="r" depth="1" NCoef="0" IVar="6" Cut="1.0294784307479858e+00" cType="1" res="-1.3364523649215698e-02" rms="4.4668817520141602e-01" purity="5.5236190557479858e-01" nType="0">
          <Node pos="l" depth="2" NCoef="0" IVar="-1" Cut="0.0000000000000000e+00" cType="1" res="-2.3044073022902012e-03" rms="4.4353520870208740e-01" purity="5.7002979516983032e-01" nType="-99"/>
          <Node pos="r" depth="2" NCoef="0" IVar="-1" Cut="0.0000000000000000e+00" cType="1" res="7.3052244260907173e-05" rms="4.4851407408714294e-01" purity="5.3904151916503906e-01" nType="-99"/>
        </Node>
      </Node>
    </BinaryTree>
    <BinaryTree type="DecisionTree" boostWeight="1.0000000000000000e+00" itree="804">
      <Node pos="s" depth="0" NCoef="0" IVar="7" Cut="8.2938617467880249e-01" cType="1" res="3.6568086943589151e-04" rms="4.5092773437500000e-01" purity="4.9848091602325439e-01" nType="0">
        <Node pos="l" depth="1" NCoef="0" IVar="6" Cut="6.3003170490264893e-01" cType="1" res="-2.8817320708185434e-03" rms="4.5156848430633545e-01" purity="4.8111853003501892e-01" nType="0">
          <Node pos="l" depth="2" NCoef="0" IVar="-1" Cut="0.0000000000000000e+00" cType="1" res="1.5015675453469157e-03" rms="4.5205855369567871e-01" purity="6.0118854045867920e-01" nType="-99"/>
          <Node pos="r" depth="2" NCoef="0" IVar="-1" Cut="0.0000000000000000e+00" cType="1" res="-3.7818841519765556e-04" rms="4.5145687460899353e-01" purity="4.7038033604621887e-01" nType="-99"/>
        </Node>
        <Node pos="r" depth="1" NCoef="0" IVar="3" Cut="-4.4693451374769211e-02" cType="1" res="1.7091752961277962e-02" rms="4.4723957777023315e-01" purity="5.8790749311447144e-01" nType="0">
          <Node pos="l" depth="2" NCoef="0" IVar="-1" Cut="0.0000000000000000e+00" cType="1" res="2.2461884655058384e-03" rms="4.4291898608207703e-01" purity="6.1082476377487183e-01" nType="-99"/>
          <Node pos="r" depth="2" NCoef="0" IVar="-1" Cut="0.0000000000000000e+00" cType="1" res="-1.0091899894177914e-03" rms="4.5419883728027344e-01" purity="5.4191368818283081e-01" nType="-99"/>
        </Node>
      </Node>
    </BinaryTree>
    <BinaryTree type="DecisionTree" boostWeight="1.0000000000000000e+00" itree="805">
      <Node pos="s" depth="0" NCoef="0" IVar="3" Cut="-4.8036579042673111e-02" cType="1" res="1.3218080857768655e-03" rms="4.5029392838478088e-01" purity="4.9777674674987793e-01" nType="0">
        <Node pos="l" depth="1" NCoef="0" IVar="0" Cut="1.0268546342849731e+00" cType="1" res="9.8123513162136078e-03" rms="4.4300386309623718e-01" purity="4.7327393293380737e-01" nType="0">
          <Node pos="l" depth="2" NCoef="0" IVar="-1" Cut="0.0000000000000000e+00" cType="1" res="-7.9698505578562617e-04" rms="4.3735173344612122e-01" purity="3.0499982833862305e-01" nType="-99"/>
          <Node pos="r" depth="2" NCoef="0" IVar="-1" Cut="0.0000000000000000e+00" cType="1" res="1.3622735859826207e-03" rms="4.4570705294609070e-01" purity="5.6399768590927124e-01" nType="-99"/>
        </Node>
        <Node pos="r" depth="1" NCoef="0" IVar="4" Cut="3.8648542761802673e-01" cType="1" res="-2.8956339228898287e-03" rms="4.5381250977516174e-01" purity="5.0994789600372314e-01" nType="0">
          <Node pos="l" depth="2" NCoef="0" IVar="-1" Cut="0.0000000000000000e+00" cType="1" res="-9.1903441352769732e-04" rms="4.5464831590652466e-01" purity="4.7759917378425598e-01" nType="-99"/>
          <Node pos="r" depth="2" NCoef="0" IVar="-1" Cut="0.0000000000000000e+00" cType="1" res="4.8609348596073687e-04" rms="4.5277482271194458e-01" purity="5.4190719127655029e-01" nType="-99"/>
        </Node>
      </Node>
    </BinaryTree>
    <BinaryTree type="DecisionTree" boostWeight="1.0000000000000000e+00" itree="806">
      <Node pos="s" depth="0" NCoef="0" IVar="3" Cut="2.1621902287006378e-01" cType="1" res="6.5974402241408825e-04" rms="4.5069521665573120e-01" purity="4.9945706129074097e-01" nType="0">
        <Node pos="l" depth="1" NCoef="0" IVar="3" Cut="-1.7973210662603378e-02" cType="1" res="-1.8365111900493503e-03" rms="4.5012664794921875e-01" purity="4.9170193076133728e-01" nType="0">
          <Node pos="l" depth="2" NCoef="0" IVar="-1" Cut="0.0000000000000000e+00" cType="1" res="6.3539249822497368e-04" rms="4.4604307413101196e-01" purity="4.8214760422706604e-01" nType="-99"/>
          <Node pos="r" depth="2" NCoef="0" IVar="-1" Cut="0.0000000000000000e+00" cType="1" res="-7.9187302617356181e-04" rms="4.5350632071495056e-01" purity="5.0013947486877441e-01" nType="-99"/>
        </Node>
        <Node pos="r" depth="1" NCoef="0" IVar="-1" Cut="0.0000000000000000e+00" cType="1" res="1.7221267335116863e-03" rms="4.5569270849227905e-01" purity="5.7891166210174561e-01" nType="-99"/>
      </Node>
    </BinaryTree>
    <BinaryTree type="DecisionTree" boostWeight="1.0000000000000000e+00" itree="807">
      <Node pos="s" depth="0" NCoef="0" IVar="4" Cut="2.4544034898281097e-01" cType="1" res="4.7794715501368046e-03" rms="4.4900265336036682e-01" purity="5.0291019678115845e-01" nType="0">
        <Node pos="l" depth="1" NCoef="0" IVar="4" Cut="1.9723808765411377e-01" cType="1" res="-6.6755167208611965e-03" rms="4.4959574937820435e-01" purity="4.4986063241958618e-01" nType="0">
          <Node pos="l" depth="2" NCoef="0" IVar="-1" Cut="0.0000000000000000e+00" cType="1" res="4.2578033753670752e-04" rms="4.5162475109100342e-01" purity="4.5616725087165833e-01" nType="-99"/>
          <Node pos="r" depth="2" NCoef="0" IVar="-1" Cut="0.0000000000000000e+00" cType="1" res="-2.5608856230974197e-03" rms="4.4395774602890015e-01" purity="4.3616005778312683e-01" nType="-99"/>
        </Node>
        <Node pos="r" depth="1" NCoef="0" IVar="0" Cut="-5.6268129497766495e-02" cType="1" res="8.4756584838032722e-03" rms="4.4874873757362366e-01" purity="5.2002769708633423e-01" nType="0">
          <Node pos="l" depth="2" NCoef="0" IVar="-1" Cut="0.0000000000000000e+00" cType="1" res="-2.2723092697560787e-03" rms="4.1401016712188721e-01" purity="2.7726474404335022e-01" nType="-99"/>
          <Node pos="r" depth="2" NCoef="0" IVar="-1" Cut="0.0000000000000000e+00" cType="1" res="8.0190511653199792e-04" rms="4.5162755250930786e-01" purity="5.4187160730361938e-01" nType="-99"/>
        </Node>
      </Node>
    </BinaryTree>
    <BinaryTree type="DecisionTree" boostWeight="1.0000000000000000e+00" itree="808">
      <Node pos="s" depth="0" NCoef="0" IVar="5" Cut="2.5661656400188804e-04" cType="1" res="-3.8606510497629642e-03" rms="4.4978266954421997e-01" purity="4.9635657668113708e-01" nType="0">
        <Node pos="l" depth="1" NCoef="0" IVar="1" Cut="9.6026712656021118e-01" cType="1" res="-2.5759203359484673e-02" rms="4.1674712300300598e-01" purity="6.6989207267761230e-01" nType="0">
          <Node pos="l" depth="2" NCoef="0" IVar="-1" Cut="0.0000000000000000e+00" cType="1" res="-4.9374238587915897e-03" rms="4.3777689337730408e-01" purity="4.3816849589347839e-01" nType="-99"/>
          <Node pos="r" depth="2" NCoef="0" IVar="-1" Cut="0.0000000000000000e+00" cType="1" res="-9.4459630781784654e-04" rms="4.0786099433898926e-01" purity="7.5506573915481567e-01" nType="-99"/>
        </Node>
        <Node pos="r" depth="1" NCoef="0" IVar="1" Cut="8.5731452703475952e-01" cType="1" res="1.5661126235499978e-03" rms="4.5743870735168457e-01" purity="4.5335206389427185e-01" nType="0">
          <Node pos="l" depth="2" NCoef="0" IVar="-1" Cut="0.0000000000000000e+00" cType="1" res="2.4434607475996017e-03" rms="4.5831802487373352e-01" purity="3.9720508456230164e-01" nType="-99"/>
          <Node pos="r" depth="2" NCoef="0" IVar="-1" Cut="0.0000000000000000e+00" cType="1" res="-1.7409140127710998e-04" rms="4.5717117190361023e-01" purity="4.6065092086791992e-01" nType="-99"/>
        </Node>
      </Node>
    </BinaryTree>
    <BinaryTree type="DecisionTree" boostWeight="1.0000000000000000e+00" itree="809">
      <Node pos="s" depth="0" NCoef="0" IVar="7" Cut="8.5246813297271729e-01" cType="1" res="-1.8235394963994622e-03" rms="4.5139348506927490e-01" purity="4.9581593275070190e-01" nType="0">
        <Node pos="l" depth="1" NCoef="0" IVar="4" Cut="2.7006101608276367e-01" cType="1" res="2.0143038127571344e-03" rms="4.5217782258987427e-01" purity="4.9095830321311951e-01" nType="0">
          <Node pos="l" depth="2" NCoef="0" IVar="-1" Cut="0.0000000000000000e+00" cType="1" res="1.1206740746274590e-03" rms="4.5177373290061951e-01" purity="4.6405377984046936e-01" nType="-99"/>
          <Node pos="r" depth="2" NCoef="0" IVar="-1" Cut="0.0000000000000000e+00" cType="1" res="-2.6825928944163024e-04" rms="4.5223075151443481e-01" purity="5.0247955322265625e-01" nType="-99"/>
        </Node>
        <Node pos="r" depth="1" NCoef="0" IVar="6" Cut="1.0287380218505859e+00" cType="1" res="-2.9954588040709496e-02" rms="4.4459196925163269e-01" purity="5.3142130374908447e-01" nType="0">
          <Node pos="l" depth="2" NCoef="0" IVar="-1" Cut="0.0000000000000000e+00" cType="1" res="-3.8072548341006041e-03" rms="4.5369374752044678e-01" purity="5.3521823883056641e-01" nType="-99"/>
          <Node pos="r" depth="2" NCoef="0" IVar="-1" Cut="0.0000000000000000e+00" cType="1" res="-8.4601441631093621e-04" rms="4.3638527393341064e-01" purity="5.2841526269912720e-01" nType="-99"/>
        </Node>
      </Node>
    </BinaryTree>
    <BinaryTree type="DecisionTree" boostWeight="1.0000000000000000e+00" itree="810">
      <Node pos="s" depth="0" NCoef="0" IVar="7" Cut="4.1782721877098083e-01" cType="1" res="2.2464299108833075e-03" rms="4.4910928606987000e-01" purity="5.0239264965057373e-01" nType="0">
        <Node pos="l" depth="1" NCoef="0" IVar="4" Cut="1.7147959768772125e-01" cType="1" res="2.6986019685864449e-02" rms="4.5290204882621765e-01" purity="4.7945734858512878e-01" nType="0">
          <Node pos="l" depth="2" NCoef="0" IVar="-1" Cut="0.0000000000000000e+00" cType="1" res="7.2749640094116330e-04" rms="4.5625355839729309e-01" purity="4.5266798138618469e-01" nType="-99"/>
          <Node pos="r" depth="2" NCoef="0" IVar="-1" Cut="0.0000000000000000e+00" cType="1" res="3.4817387349903584e-03" rms="4.4746562838554382e-01" purity="5.1467823982238770e-01" nType="-99"/>
        </Node>
        <Node pos="r" depth="1" NCoef="0" IVar="5" Cut="1.9263799767941236e-03" cType="1" res="-1.0830662213265896e-03" rms="4.4849222898483276e-01" purity="5.0547933578491211e-01" nType="0">
          <Node pos="l" depth="2" NCoef="0" IVar="-1" Cut="0.0000000000000000e+00" cType="1" res="4.7305133193731308e-04" rms="4.4629818201065063e-01" purity="5.6476718187332153e-01" nType="-99"/>
          <Node pos="r" depth="2" NCoef="0" IVar="-1" Cut="0.0000000000000000e+00" cType="1" res="-1.2017585104331374e-03" rms="4.5244342088699341e-01" purity="3.8748800754547119e-01" nType="-99"/>
        </Node>
      </Node>
    </BinaryTree>
    <BinaryTree type="DecisionTree" boostWeight="1.0000000000000000e+00" itree="811">
      <Node pos="s" depth="0" NCoef="0" IVar="0" Cut="3.6505332589149475e-01" cType="1" res="1.7372521106153727e-03" rms="4.5027855038642883e-01" purity="5.0278007984161377e-01" nType="0">
        <Node pos="l" depth="1" NCoef="0" IVar="6" Cut="1.0737942457199097e+00" cType="1" res="-1.2862560339272022e-02" rms="4.3127143383026123e-01" purity="2.9957428574562073e-01" nType="0">
          <Node pos="l" depth="2" NCoef="0" IVar="-1" Cut="0.0000000000000000e+00" cType="1" res="2.7286176919005811e-04" rms="4.5729032158851624e-01" purity="3.6311143636703491e-01" nType="-99"/>
          <Node pos="r" depth="2" NCoef="0" IVar="-1" Cut="0.0000000000000000e+00" cType="1" res="-2.4109892547130585e-03" rms="4.1226714849472046e-01" purity="2.5634792447090149e-01" nType="-99"/>
        </Node>
        <Node pos="r" depth="1" NCoef="0" IVar="6" Cut="1.2146860361099243e+00" cType="1" res="4.6312347985804081e-03" rms="4.5389589667320251e-01" purity="5.4305964708328247e-01" nType="0">
          <Node pos="l" depth="2" NCoef="0" IVar="-1" Cut="0.0000000000000000e+00" cType="1" res="-2.4394250067416579e-04" rms="4.5587679743766785e-01" purity="5.7386553287506104e-01" nType="-99"/>
          <Node pos="r" depth="2" NCoef="0" IVar="-1" Cut="0.0000000000000000e+00" cType="1" res="1.0353900725021958e-03" rms="4.5130643248558044e-01" purity="5.0604587793350220e-01" nType="-99"/>
        </Node>
      </Node>
    </BinaryTree>
    <BinaryTree type="DecisionTree" boostWeight="1.0000000000000000e+00" itree="812">
      <Node pos="s" depth="0" NCoef="0" IVar="0" Cut="1.5293844044208527e-01" cType="1" res="-2.0598187111318111e-03" rms="4.4848278164863586e-01" purity="4.9908447265625000e-01" nType="0">
        <Node pos="l" depth="1" NCoef="0" IVar="7" Cut="6.1515527963638306e-01" cType="1" res="-2.3761751130223274e-02" rms="4.1740703582763672e-01" purity="2.7755457162857056e-01" nType="0">
          <Node pos="l" depth="2" NCoef="0" IVar="-1" Cut="0.0000000000000000e+00" cType="1" res="1.0730994399636984e-03" rms="4.1288462281227112e-01" purity="2.7339509129524231e-01" nType="-99"/>
          <Node pos="r" depth="2" NCoef="0" IVar="-1" Cut="0.0000000000000000e+00" cType="1" res="-4.4934246689081192e-03" rms="4.1892933845520020e-01" purity="2.8068479895591736e-01" nType="-99"/>
        </Node>
        <Node pos="r" depth="1" NCoef="0" IVar="3" Cut="1.1867914348840714e-01" cType="1" res="9.7650272073224187e-04" rms="4.5257753133773804e-01" purity="5.3007876873016357e-01" nType="0">
          <Node pos="l" depth="2" NCoef="0" IVar="-1" Cut="0.0000000000000000e+00" cType="1" res="4.4228846672922373e-04" rms="4.5018684864044189e-01" purity="5.2381098270416260e-01" nType="-99"/>
          <Node pos="r" depth="2" NCoef="0" IVar="-1" Cut="0.0000000000000000e+00" cType="1" res="-9.7514601657167077e-04" rms="4.5910489559173584e-01" purity="5.4826712608337402e-01" nType="-99"/>
        </Node>
      </Node>
    </BinaryTree>
    <BinaryTree type="DecisionTree" boostWeight="1.0000000000000000e+00" itree="813">
      <Node pos="s" depth="0" NCoef="0" IVar="5" Cut="2.6969071477651596e-03" cType="1" res="3.0823566485196352e-03" rms="4.5067670941352844e-01" purity="5.0476056337356567e-01" nType="0">
        <Node pos="l" depth="1" NCoef="0" IVar="7" Cut="5.2034920454025269e-01" cType="1" res="-8.4973515185993165e-05" rms="4.4840967655181885e-01" purity="5.2677690982818604e-01" nType="0">
          <Node pos="l" depth="2" NCoef="0" IVar="-1" Cut="0.0000000000000000e+00" cType="1" res="9.9957478232681751e-04" rms="4.5493587851524353e-01" purity="4.8014143109321594e-01" nType="-99"/>
          <Node pos="r" depth="2" NCoef="0" IVar="-1" Cut="0.0000000000000000e+00" cType="1" res="-3.5852930159308016e-04" rms="4.4593146443367004e-01" purity="5.4359179735183716e-01" nType="-99"/>
        </Node>
        <Node pos="r" depth="1" NCoef="0" IVar="1" Cut="8.6659538745880127e-01" cType="1" res="1.5820274129509926e-02" rms="4.5946061611175537e-01" purity="4.1621860861778259e-01" nType="0">
          <Node pos="l" depth="2" NCoef="0" IVar="-1" Cut="0.0000000000000000e+00" cType="1" res="2.0910592866130173e-05" rms="4.5585918426513672e-01" purity="3.8640677928924561e-01" nType="-99"/>
          <Node pos="r" depth="2" NCoef="0" IVar="-1" Cut="0.0000000000000000e+00" cType="1" res="3.0762820970267057e-03" rms="4.6485307812690735e-01" purity="4.7357290983200073e-01" nType="-99"/>
        </Node>
      </Node>
    </BinaryTree>
    <BinaryTree type="DecisionTree" boostWeight="1.0000000000000000e+00" itree="814">
      <Node pos="s" depth="0" NCoef="0" IVar="6" Cut="1.3893774747848511e+00" cType="1" res="-5.1774890162050724e-03" rms="4.4951504468917847e-01" purity="4.9626538157463074e-01" nType="0">
        <Node pos="l" depth="1" NCoef="0" IVar="7" Cut="4.5419439673423767e-01" cType="1" res="-9.7493622452020645e-03" rms="4.5407098531723022e-01" purity="5.2286362648010254e-01" nType="0">
          <Node pos="l" depth="2" NCoef="0" IVar="-1" Cut="0.0000000000000000e+00" cType="1" res="1.1661859462037683e-03" rms="4.5413905382156372e-01" purity="5.1047378778457642e-01" nType="-99"/>
          <Node pos="r" depth="2" NCoef="0" IVar="-1" Cut="0.0000000000000000e+00" cType="1" res="-1.0249455226585269e-03" rms="4.5389932394027710e-01" purity="5.2505153417587280e-01" nType="-99"/>
        </Node>
        <Node pos="r" depth="1" NCoef="0" IVar="7" Cut="6.4975297451019287e-01" cType="1" res="4.4574798084795475e-03" rms="4.3960341811180115e-01" purity="4.4021102786064148e-01" nType="0">
          <Node pos="l" depth="2" NCoef="0" IVar="-1" Cut="0.0000000000000000e+00" cType="1" res="-1.0218652896583080e-03" rms="4.3374714255332947e-01" purity="3.7946364283561707e-01" nType="-99"/>
          <Node pos="r" depth="2" NCoef="0" IVar="-1" Cut="0.0000000000000000e+00" cType="1" res="1.7270783428102732e-03" rms="4.4552305340766907e-01" purity="5.1071941852569580e-01" nType="-99"/>
        </Node>
      </Node>
    </BinaryTree>
    <BinaryTree type="DecisionTree" boostWeight="1.0000000000000000e+00" itree="815">
      <Node pos="s" depth="0" NCoef="0" IVar="1" Cut="9.7566699981689453e-01" cType="1" res="8.7416986934840679e-04" rms="4.4827044010162354e-01" purity="4.9931880831718445e-01" nType="0">
        <Node pos="l" depth="1" NCoef="0" IVar="5" Cut="5.1331514259800315e-04" cType="1" res="-1.1648026993498206e-03" rms="4.5458000898361206e-01" purity="4.7076919674873352e-01" nType="0">
          <Node pos="l" depth="2" NCoef="0" IVar="-1" Cut="0.0000000000000000e+00" cType="1" res="-1.3237195089459419e-03" rms="4.4372200965881348e-01" purity="5.6586343050003052e-01" nType="-99"/>
          <Node pos="r" depth="2" NCoef="0" IVar="-1" Cut="0.0000000000000000e+00" cType="1" res="2.6785547379404306e-04" rms="4.5756500959396362e-01" purity="4.4318008422851562e-01" nType="-99"/>
        </Node>
        <Node pos="r" depth="1" NCoef="0" IVar="-1" Cut="0.0000000000000000e+00" cType="1" res="2.0093433558940887e-03" rms="3.6716261506080627e-01" purity="8.2778328657150269e-01" nType="-99"/>
      </Node>
    </BinaryTree>
    <BinaryTree type="DecisionTree" boostWeight="1.0000000000000000e+00" itree="816">
      <Node pos="s" depth="0" NCoef="0" IVar="4" Cut="7.0923203229904175e-01" cType="1" res="4.1668089106678963e-03" rms="4.5172700285911560e-01" purity="5.0490987300872803e-01" nType="0">
        <Node pos="l" depth="1" NCoef="0" IVar="2" Cut="2.7545938110351562e+02" cType="1" res="6.0788420960307121e-03" rms="4.5227164030075073e-01" purity="5.0548249483108521e-01" nType="0">
          <Node pos="l" depth="2" NCoef="0" IVar="-1" Cut="0.0000000000000000e+00" cType="1" res="1.5793307684361935e-03" rms="4.4725275039672852e-01" purity="3.7193951010704041e-01" nType="-99"/>
          <Node pos="r" depth="2" NCoef="0" IVar="-1" Cut="0.0000000000000000e+00" cType="1" res="-8.0917736340779811e-05" rms="4.5489376783370972e-01" purity="5.8020293712615967e-01" nType="-99"/>
        </Node>
        <Node pos="r" depth="1" NCoef="0" IVar="-1" Cut="0.0000000000000000e+00" cType="1" res="-2.0339949987828732e-03" rms="4.4153603911399841e-01" purity="4.9553170800209045e-01" nType="-99"/>
      </Node>
    </BinaryTree>
    <BinaryTree type="DecisionTree" boostWeight="1.0000000000000000e+00" itree="817">
      <Node pos="s" depth="0" NCoef="0" IVar="5" Cut="2.5685757282190025e-04" cType="1" res="5.7144970633089542e-03" rms="4.4964534044265747e-01" purity="5.0543618202209473e-01" nType="0">
        <Node pos="l" depth="1" NCoef="0" IVar="4" Cut="4.8910900950431824e-01" cType="1" res="-8.9585939422249794e-03" rms="4.2073261737823486e-01" purity="6.8319207429885864e-01" nType="0">
          <Node pos="l" depth="2" NCoef="0" IVar="-1" Cut="0.0000000000000000e+00" cType="1" res="-1.8229208653792739e-03" rms="4.2991435527801514e-01" purity="6.4635378122329712e-01" nType="-99"/>
          <Node pos="r" depth="2" NCoef="0" IVar="-1" Cut="0.0000000000000000e+00" cType="1" res="1.5089054359123111e-03" rms="4.0161573886871338e-01" purity="7.5178050994873047e-01" nType="-99"/>
        </Node>
        <Node pos="r" depth="1" NCoef="0" IVar="3" Cut="-1.6723675653338432e-02" cType="1" res="9.3602454289793968e-03" rms="4.5647209882736206e-01" purity="4.6127012372016907e-01" nType="0">
          <Node pos="l" depth="2" NCoef="0" IVar="-1" Cut="0.0000000000000000e+00" cType="1" res="-2.7140458769281395e-06" rms="4.5001956820487976e-01" purity="4.2310297489166260e-01" nType="-99"/>
          <Node pos="r" depth="2" NCoef="0" IVar="-1" Cut="0.0000000000000000e+00" cType="1" res="1.1212776880711317e-03" rms="4.6109372377395630e-01" purity="4.8968979716300964e-01" nType="-99"/>
        </Node>
      </Node>
    </BinaryTree>
    <BinaryTree type="DecisionTree" boostWeight="1.0000000000000000e+00" itree="818">
      <Node pos="s" depth="0" NCoef="0" IVar="5" Cut="2.5656213983893394e-03" cType="1" res="6.2833968549966812e-03" rms="4.5288354158401489e-01" purity="5.0617164373397827e-01" nType="0">
        <Node pos="l" depth="1" NCoef="0" IVar="4" Cut="5.1290392875671387e-01" cType="1" res="6.0820102225989103e-04" rms="4.4922941923141479e-01" purity="5.3048974275588989e-01" nType="0">
          <Node pos="l" depth="2" NCoef="0" IVar="-1" Cut="0.0000000000000000e+00" cType="1" res="-4.3153227306902409e-04" rms="4.5148131251335144e-01" purity="5.1147675514221191e-01" nType="-99"/>
          <Node pos="r" depth="2" NCoef="0" IVar="-1" Cut="0.0000000000000000e+00" cType="1" res="1.1806347174569964e-03" rms="4.4329041242599487e-01" purity="5.7683360576629639e-01" nType="-99"/>
        </Node>
        <Node pos="r" depth="1" NCoef="0" IVar="1" Cut="8.6572396755218506e-01" cType="1" res="2.6149697601795197e-02" rms="4.6490356326103210e-01" purity="4.2104470729827881e-01" nType="0">
          <Node pos="l" depth="2" NCoef="0" IVar="-1" Cut="0.0000000000000000e+00" cType="1" res="3.7569011328741908e-04" rms="4.6269482374191284e-01" purity="3.8035434484481812e-01" nType="-99"/>
          <Node pos="r" depth="2" NCoef="0" IVar="-1" Cut="0.0000000000000000e+00" cType="1" res="3.6187204532325268e-03" rms="4.6634605526924133e-01" purity="4.7535938024520874e-01" nType="-99"/>
        </Node>
      </Node>
    </BinaryTree>
    <BinaryTree type="DecisionTree" boostWeight="1.0000000000000000e+00" itree="819">
      <Node pos="s" depth="0" NCoef="0" IVar="7" Cut="5.6158322095870972e-01" cType="1" res="-4.0524182841181755e-03" rms="4.5020619034767151e-01" purity="4.9443987011909485e-01" nType="0">
        <Node pos="l" depth="1" NCoef="0" IVar="1" Cut="8.9456552267074585e-01" cType="1" res="1.0175829753279686e-02" rms="4.5182856917381287e-01" purity="4.5195549726486206e-01" nType="0">
          <Node pos="l" depth="2" NCoef="0" IVar="-1" Cut="0.0000000000000000e+00" cType="1" res="1.9003606867045164e-03" rms="4.5076075196266174e-01" purity="3.7200263142585754e-01" nType="-99"/>
          <Node pos="r" depth="2" NCoef="0" IVar="-1" Cut="0.0000000000000000e+00" cType="1" res="-2.1241177455522120e-04" rms="4.5243123173713684e-01" purity="5.2676433324813843e-01" nType="-99"/>
        </Node>
        <Node pos="r" depth="1" NCoef="0" IVar="7" Cut="7.0448291301727295e-01" cType="1" res="-1.1441503651440144e-02" rms="4.4918355345726013e-01" purity="5.1650315523147583e-01" nType="0">
          <Node pos="l" depth="2" NCoef="0" IVar="-1" Cut="0.0000000000000000e+00" cType="1" res="-1.5869586495682597e-03" rms="4.5211148262023926e-01" purity="4.6631184220314026e-01" nType="-99"/>
          <Node pos="r" depth="2" NCoef="0" IVar="-1" Cut="0.0000000000000000e+00" cType="1" res="-3.4700657124631107e-04" rms="4.4712901115417480e-01" purity="5.4946899414062500e-01" nType="-99"/>
        </Node>
      </Node>
    </BinaryTree>
    <BinaryTree type="DecisionTree" boostWeight="1.0000000000000000e+00" itree="820">
      <Node pos="s" depth="0" NCoef="0" IVar="4" Cut="4.3103545904159546e-01" cType="1" res="-2.3361896164715290e-03" rms="4.5039910078048706e-01" purity="4.9911049008369446e-01" nType="0">
        <Node pos="l" depth="1" NCoef="0" IVar="7" Cut="4.5952597260475159e-01" cType="1" res="4.9905818887054920e-03" rms="4.5162731409072876e-01" purity="4.8833119869232178e-01" nType="0">
          <Node pos="l" depth="2" NCoef="0" IVar="-1" Cut="0.0000000000000000e+00" cType="1" res="-1.5390603803098202e-03" rms="4.4622340798377991e-01" purity="4.2574977874755859e-01" nType="-99"/>
          <Node pos="r" depth="2" NCoef="0" IVar="-1" Cut="0.0000000000000000e+00" cType="1" res="1.0837861336767673e-03" rms="4.5344874262809753e-01" purity="5.1433873176574707e-01" nType="-99"/>
        </Node>
        <Node pos="r" depth="1" NCoef="0" IVar="0" Cut="2.1205418109893799e+00" cType="1" res="-1.2503795325756073e-02" rms="4.4849085807800293e-01" purity="5.1406925916671753e-01" nType="0">
          <Node pos="l" depth="2" NCoef="0" IVar="-1" Cut="0.0000000000000000e+00" cType="1" res="-9.2725014837924391e-05" rms="4.5486673712730408e-01" purity="4.2684492468833923e-01" nType="-99"/>
          <Node pos="r" depth="2" NCoef="0" IVar="-1" Cut="0.0000000000000000e+00" cType="1" res="-2.3045858833938837e-03" rms="4.3653157353401184e-01" purity="6.6525715589523315e-01" nType="-99"/>
        </Node>
      </Node>
    </BinaryTree>
    <BinaryTree type="DecisionTree" boostWeight="1.0000000000000000e+00" itree="821">
      <Node pos="s" depth="0" NCoef="0" IVar="2" Cut="2.2647708129882812e+02" cType="1" res="3.2849283888936043e-03" rms="4.4693085551261902e-01" purity="5.0484406948089600e-01" nType="0">
        <Node pos="l" depth="1" NCoef="0" IVar="6" Cut="1.5003144741058350e+00" cType="1" res="-1.5910945832729340e-02" rms="4.1103282570838928e-01" purity="2.7522394061088562e-01" nType="0">
          <Node pos="l" depth="2" NCoef="0" IVar="-1" Cut="0.0000000000000000e+00" cType="1" res="1.3135462359059602e-04" rms="4.3272680044174194e-01" purity="3.1745988130569458e-01" nType="-99"/>
          <Node pos="r" depth="2" NCoef="0" IVar="-1" Cut="0.0000000000000000e+00" cType="1" res="-4.8901867121458054e-03" rms="3.7269690632820129e-01" purity="2.0871852338314056e-01" nType="-99"/>
        </Node>
        <Node pos="r" depth="1" NCoef="0" IVar="3" Cut="-6.0373372398316860e-03" cType="1" res="6.8316976539790630e-03" rms="4.5316356420516968e-01" purity="5.4727041721343994e-01" nType="0">
          <Node pos="l" depth="2" NCoef="0" IVar="-1" Cut="0.0000000000000000e+00" cType="1" res="-2.2240444377530366e-04" rms="4.4809874892234802e-01" purity="5.1280778646469116e-01" nType="-99"/>
          <Node pos="r" depth="2" NCoef="0" IVar="-1" Cut="0.0000000000000000e+00" cType="1" res="1.0056935716420412e-03" rms="4.5711055397987366e-01" purity="5.7550704479217529e-01" nType="-99"/>
        </Node>
      </Node>
    </BinaryTree>
    <BinaryTree type="DecisionTree" boostWeight="1.0000000000000000e+00" itree="822">
      <Node pos="s" depth="0" NCoef="0" IVar="7" Cut="3.5581442713737488e-01" cType="1" res="2.1082567982375622e-03" rms="4.5070257782936096e-01" purity="5.0218820571899414e-01" nType="0">
        <Node pos="l" depth="1" NCoef="0" IVar="-1" Cut="0.0000000000000000e+00" cType="1" res="3.3170622773468494e-03" rms="4.7571924328804016e-01" purity="5.1596838235855103e-01" nType="-99"/>
        <Node pos="r" depth="1" NCoef="0" IVar="3" Cut="-9.8938215523958206e-03" cType="1" res="-3.7967914249747992e-04" rms="4.4915607571601868e-01" purity="5.0143146514892578e-01" nType="0">
          <Node pos="l" depth="2" NCoef="0" IVar="-1" Cut="0.0000000000000000e+00" cType="1" res="6.9877423811703920e-04" rms="4.4541186094284058e-01" purity="4.8899462819099426e-01" nType="-99"/>
          <Node pos="r" depth="2" NCoef="0" IVar="-1" Cut="0.0000000000000000e+00" cType="1" res="-6.1740528326481581e-04" rms="4.5212039351463318e-01" purity="5.1190584897994995e-01" nType="-99"/>
        </Node>
      </Node>
    </BinaryTree>
    <BinaryTree type="DecisionTree" boostWeight="1.0000000000000000e+00" itree="823">
      <Node pos="s" depth="0" NCoef="0" IVar="4" Cut="1.8107827007770538e-01" cType="1" res="3.2172426581382751e-03" rms="4.5117133855819702e-01" purity="5.0005483627319336e-01" nType="0">
        <Node pos="l" depth="1" NCoef="0" IVar="4" Cut="1.4278665184974670e-01" cType="1" res="-2.5342602282762527e-02" rms="4.4268193840980530e-01" purity="4.2657953500747681e-01" nType="0">
          <Node pos="l" depth="2" NCoef="0" IVar="-1" Cut="0.0000000000000000e+00" cType="1" res="-3.1794045935384929e-04" rms="4.4711923599243164e-01" purity="4.3756258487701416e-01" nType="-99"/>
          <Node pos="r" depth="2" NCoef="0" IVar="-1" Cut="0.0000000000000000e+00" cType="1" res="-4.3659997172653675e-03" rms="4.3426385521888733e-01" purity="4.1048923134803772e-01" nType="-99"/>
        </Node>
        <Node pos="r" depth="1" NCoef="0" IVar="5" Cut="1.2904491741210222e-03" cType="1" res="7.6579400338232517e-03" rms="4.5231506228446960e-01" purity="5.1147937774658203e-01" nType="0">
          <Node pos="l" depth="2" NCoef="0" IVar="-1" Cut="0.0000000000000000e+00" cType="1" res="-1.3860185572411865e-04" rms="4.4263547658920288e-01" purity="5.8537930250167847e-01" nType="-99"/>
          <Node pos="r" depth="2" NCoef="0" IVar="-1" Cut="0.0000000000000000e+00" cType="1" res="1.2636091560125351e-03" rms="4.6209397912025452e-01" purity="4.3350723385810852e-01" nType="-99"/>
        </Node>
      </Node>
    </BinaryTree>
    <BinaryTree type="DecisionTree" boostWeight="1.0000000000000000e+00" itree="824">
      <Node pos="s" depth="0" NCoef="0" IVar="5" Cut="2.6969183236360550e-03" cType="1" res="-7.9451291821897030e-04" rms="4.5253956317901611e-01" purity="4.9657151103019714e-01" nType="0">
        <Node pos="l" depth="1" NCoef="0" IVar="6" Cut="1.5585432052612305e+00" cType="1" res="-5.3327595815062523e-03" rms="4.4947937130928040e-01" purity="5.1938456296920776e-01" nType="0">
          <Node pos="l" depth="2" NCoef="0" IVar="-1" Cut="0.0000000000000000e+00" cType="1" res="-7.2730355896055698e-04" rms="4.5198300480842590e-01" purity="5.3405815362930298e-01" nType="-99"/>
          <Node pos="r" depth="2" NCoef="0" IVar="-1" Cut="0.0000000000000000e+00" cType="1" res="9.5498363953083754e-04" rms="4.3968990445137024e-01" purity="4.6535539627075195e-01" nType="-99"/>
        </Node>
        <Node pos="r" depth="1" NCoef="0" IVar="7" Cut="7.1036511659622192e-01" cType="1" res="1.6747387126088142e-02" rms="4.6376129984855652e-01" purity="4.0839132666587830e-01" nType="0">
          <Node pos="l" depth="2" NCoef="0" IVar="-1" Cut="0.0000000000000000e+00" cType="1" res="8.4568622696679085e-05" rms="4.5646700263023376e-01" purity="3.6575037240982056e-01" nType="-99"/>
          <Node pos="r" depth="2" NCoef="0" IVar="-1" Cut="0.0000000000000000e+00" cType="1" res="2.8132493607699871e-03" rms="4.7447019815444946e-01" purity="4.7906389832496643e-01" nType="-99"/>
        </Node>
      </Node>
    </BinaryTree>
    <BinaryTree type="DecisionTree" boostWeight="1.0000000000000000e+00" itree="825">
      <Node pos="s" depth="0" NCoef="0" IVar="7" Cut="6.0195183753967285e-01" cType="1" res="1.9638161174952984e-03" rms="4.5100539922714233e-01" purity="5.0146299600601196e-01" nType="0">
        <Node pos="l" depth="1" NCoef="0" IVar="2" Cut="2.1122671508789062e+02" cType="1" res="1.2870757840573788e-02" rms="4.5452722907066345e-01" purity="4.6302050352096558e-01" nType="0">
          <Node pos="l" depth="2" NCoef="0" IVar="-1" Cut="0.0000000000000000e+00" cType="1" res="4.4032777659595013e-03" rms="4.1980308294296265e-01" purity="3.0616247653961182e-01" nType="-99"/>
          <Node pos="r" depth="2" NCoef="0" IVar="-1" Cut="0.0000000000000000e+00" cType="1" res="5.8462325250729918e-04" rms="4.5917001366615295e-01" purity="4.8582050204277039e-01" nType="-99"/>
        </Node>
        <Node pos="r" depth="1" NCoef="0" IVar="7" Cut="6.5162831544876099e-01" cType="1" res="-5.6418767198920250e-03" rms="4.4837620854377747e-01" purity="5.2827000617980957e-01" nType="0">
          <Node pos="l" depth="2" NCoef="0" IVar="-1" Cut="0.0000000000000000e+00" cType="1" res="-2.4321663659065962e-03" rms="4.4026011228561401e-01" purity="4.4277602434158325e-01" nType="-99"/>
          <Node pos="r" depth="2" NCoef="0" IVar="-1" Cut="0.0000000000000000e+00" cType="1" res="-5.5109649110818282e-05" rms="4.4964733719825745e-01" purity="5.4364043474197388e-01" nType="-99"/>
        </Node>
      </Node>
    </BinaryTree>
    <BinaryTree type="DecisionTree" boostWeight="1.0000000000000000e+00" itree="826">
      <Node pos="s" depth="0" NCoef="0" IVar="3" Cut="3.9615754038095474e-02" cType="1" res="-1.7763803480193019e-03" rms="4.4937166571617126e-01" purity="4.9756076931953430e-01" nType="0">
        <Node pos="l" depth="1" NCoef="0" IVar="1" Cut="8.6765718460083008e-01" cType="1" res="3.4993989393115044e-03" rms="4.4532731175422668e-01" purity="4.7937452793121338e-01" nType="0">
          <Node pos="l" depth="2" NCoef="0" IVar="-1" Cut="0.0000000000000000e+00" cType="1" res="2.4871223140507936e-03" rms="4.5223635435104370e-01" purity="3.7147185206413269e-01" nType="-99"/>
          <Node pos="r" depth="2" NCoef="0" IVar="-1" Cut="0.0000000000000000e+00" cType="1" res="-2.8292275965213776e-04" rms="4.4320428371429443e-01" purity="5.0767016410827637e-01" nType="-99"/>
        </Node>
        <Node pos="r" depth="1" NCoef="0" IVar="5" Cut="2.3227948695421219e-03" cType="1" res="-8.7998434901237488e-03" rms="4.5460498332977295e-01" purity="5.2177155017852783e-01" nType="0">
          <Node pos="l" depth="2" NCoef="0" IVar="-1" Cut="0.0000000000000000e+00" cType="1" res="-6.5116466430481523e-05" rms="4.5184206962585449e-01" purity="5.6545609235763550e-01" nType="-99"/>
          <Node pos="r" depth="2" NCoef="0" IVar="-1" Cut="0.0000000000000000e+00" cType="1" res="-2.2276102099567652e-03" rms="4.6172267198562622e-01" purity="3.9589312672615051e-01" nType="-99"/>
        </Node>
      </Node>
    </BinaryTree>
    <BinaryTree type="DecisionTree" boostWeight="1.0000000000000000e+00" itree="827">
      <Node pos="s" depth="0" NCoef="0" IVar="4" Cut="2.7357074618339539e-01" cType="1" res="9.6945546101778746e-04" rms="4.5078417658805847e-01" purity="5.0299400091171265e-01" nType="0">
        <Node pos="l" depth="1" NCoef="0" IVar="6" Cut="1.1462020874023438e+00" cType="1" res="1.2878086417913437e-02" rms="4.5297226309776306e-01" purity="4.7635030746459961e-01" nType="0">
          <Node pos="l" depth="2" NCoef="0" IVar="-1" Cut="0.0000000000000000e+00" cType="1" res="-3.2783800270408392e-04" rms="4.5245787501335144e-01" purity="5.1211410760879517e-01" nType="-99"/>
          <Node pos="r" depth="2" NCoef="0" IVar="-1" Cut="0.0000000000000000e+00" cType="1" res="2.4598974268883467e-03" rms="4.5275512337684631e-01" purity="4.3725216388702393e-01" nType="-99"/>
        </Node>
        <Node pos="r" depth="1" NCoef="0" IVar="5" Cut="1.9245924195274711e-03" cType="1" res="-4.0510948747396469e-03" rms="4.4976404309272766e-01" purity="5.1422667503356934e-01" nType="0">
          <Node pos="l" depth="2" NCoef="0" IVar="-1" Cut="0.0000000000000000e+00" cType="1" res="1.8550935783423483e-04" rms="4.4571781158447266e-01" purity="5.7455188035964966e-01" nType="-99"/>
          <Node pos="r" depth="2" NCoef="0" IVar="-1" Cut="0.0000000000000000e+00" cType="1" res="-1.2782948324456811e-03" rms="4.5756152272224426e-01" purity="3.9195615053176880e-01" nType="-99"/>
        </Node>
      </Node>
    </BinaryTree>
    <BinaryTree type="DecisionTree" boostWeight="1.0000000000000000e+00" itree="828">
      <Node pos="s" depth="0" NCoef="0" IVar="1" Cut="8.5610651969909668e-01" cType="1" res="-1.1561937863007188e-03" rms="4.4807755947113037e-01" purity="4.9884682893753052e-01" nType="0">
        <Node pos="l" depth="1" NCoef="0" IVar="-1" Cut="0.0000000000000000e+00" cType="1" res="-2.1944751497358084e-03" rms="4.4306594133377075e-01" purity="3.2680135965347290e-01" nType="-99"/>
        <Node pos="r" depth="1" NCoef="0" IVar="6" Cut="8.4707540273666382e-01" cType="1" res="9.4297190662473440e-04" rms="4.4840982556343079e-01" purity="5.1261311769485474e-01" nType="0">
          <Node pos="l" depth="2" NCoef="0" IVar="-1" Cut="0.0000000000000000e+00" cType="1" res="-1.2330992612987757e-03" rms="4.5044544339179993e-01" purity="5.6333237886428833e-01" nType="-99"/>
          <Node pos="r" depth="2" NCoef="0" IVar="-1" Cut="0.0000000000000000e+00" cType="1" res="4.7688590711914003e-04" rms="4.4763314723968506e-01" purity="4.9707120656967163e-01" nType="-99"/>
        </Node>
      </Node>
    </BinaryTree>
    <BinaryTree type="DecisionTree" boostWeight="1.0000000000000000e+00" itree="829">
      <Node pos="s" depth="0" NCoef="0" IVar="0" Cut="4.8381361365318298e-01" cType="1" res="-2.7485196478664875e-03" rms="4.4987136125564575e-01" purity="4.9493092298507690e-01" nType="0">
        <Node pos="l" depth="1" NCoef="0" IVar="1" Cut="8.8734066486358643e-01" cType="1" res="1.5548074617981911e-02" rms="4.4218423962593079e-01" purity="3.3401644229888916e-01" nType="0">
          <Node pos="l" depth="2" NCoef="0" IVar="-1" Cut="0.0000000000000000e+00" cType="1" res="4.1629438055679202e-04" rms="4.3374872207641602e-01" purity="3.0051407217979431e-01" nType="-99"/>
          <Node pos="r" depth="2" NCoef="0" IVar="-1" Cut="0.0000000000000000e+00" cType="1" res="3.5292599350214005e-03" rms="4.6282833814620972e-01" purity="4.2417535185813904e-01" nType="-99"/>
        </Node>
        <Node pos="r" depth="1" NCoef="0" IVar="2" Cut="4.5041409301757812e+02" cType="1" res="-7.3569244705140591e-03" rms="4.5167005062103271e-01" purity="5.3546077013015747e-01" nType="0">
          <Node pos="l" depth="2" NCoef="0" IVar="-1" Cut="0.0000000000000000e+00" cType="1" res="-7.4232957558706403e-04" rms="4.5482745766639709e-01" purity="5.0013756752014160e-01" nType="-99"/>
          <Node pos="r" depth="2" NCoef="0" IVar="-1" Cut="0.0000000000000000e+00" cType="1" res="5.6809803936630487e-04" rms="4.3574059009552002e-01" purity="7.0627534389495850e-01" nType="-99"/>
        </Node>
      </Node>
    </BinaryTree>
    <BinaryTree type="DecisionTree" boostWeight="1.0000000000000000e+00" itree="830">
      <Node pos="s" depth="0" NCoef="0" IVar="2" Cut="3.4764395141601562e+02" cType="1" res="-2.5483273202553391e-04" rms="4.5146787166595459e-01" purity="4.9971085786819458e-01" nType="0">
        <Node pos="l" depth="1" NCoef="0" IVar="2" Cut="2.4213986206054688e+02" cType="1" res="6.5980833023786545e-03" rms="4.4954177737236023e-01" purity="4.3387997150421143e-01" nType="0">
          <Node pos="l" depth="2" NCoef="0" IVar="-1" Cut="0.0000000000000000e+00" cType="1" res="-9.3220913549885154e-04" rms="4.2838877439498901e-01" purity="3.0292469263076782e-01" nType="-99"/>
          <Node pos="r" depth="2" NCoef="0" IVar="-1" Cut="0.0000000000000000e+00" cType="1" res="1.0792969260364771e-03" rms="4.6030786633491516e-01" purity="5.0461488962173462e-01" nType="-99"/>
        </Node>
        <Node pos="r" depth="1" NCoef="0" IVar="6" Cut="1.0489450693130493e+00" cType="1" res="-1.2255048379302025e-02" rms="4.5457223057746887e-01" purity="6.1498802900314331e-01" nType="0">
          <Node pos="l" depth="2" NCoef="0" IVar="-1" Cut="0.0000000000000000e+00" cType="1" res="-1.8857633695006371e-03" rms="4.5516008138656616e-01" purity="6.1268663406372070e-01" nType="-99"/>
          <Node pos="r" depth="2" NCoef="0" IVar="-1" Cut="0.0000000000000000e+00" cType="1" res="3.7867345963604748e-04" rms="4.5322653651237488e-01" purity="6.1769515275955200e-01" nType="-99"/>
        </Node>
      </Node>
    </BinaryTree>
    <BinaryTree type="DecisionTree" boostWeight="1.0000000000000000e+00" itree="831">
      <Node pos="s" depth="0" NCoef="0" IVar="1" Cut="8.8298803567886353e-01" cType="1" res="-1.8667925614863634e-03" rms="4.5079508423805237e-01" purity="4.9755892157554626e-01" nType="0">
        <Node pos="l" depth="1" NCoef="0" IVar="0" Cut="2.2656037807464600e+00" cType="1" res="7.3810801841318607e-03" rms="4.5349550247192383e-01" purity="3.8524314761161804e-01" nType="0">
          <Node pos="l" depth="2" NCoef="0" IVar="-1" Cut="0.0000000000000000e+00" cType="1" res="-1.0261097486363724e-04" rms="4.4936987757682800e-01" purity="3.3868163824081421e-01" nType="-99"/>
          <Node pos="r" depth="2" NCoef="0" IVar="-1" Cut="0.0000000000000000e+00" cType="1" res="2.6588358450680971e-03" rms="4.6930935978889465e-01" purity="5.8989751338958740e-01" nType="-99"/>
        </Node>
        <Node pos="r" depth="1" NCoef="0" IVar="1" Cut="8.9484357833862305e-01" cType="1" res="-7.0039900019764900e-03" rms="4.4920575618743896e-01" purity="5.5995041131973267e-01" nType="0">
          <Node pos="l" depth="2" NCoef="0" IVar="-1" Cut="0.0000000000000000e+00" cType="1" res="-2.2990556899458170e-03" rms="4.4771942496299744e-01" purity="3.8498398661613464e-01" nType="-99"/>
          <Node pos="r" depth="2" NCoef="0" IVar="-1" Cut="0.0000000000000000e+00" cType="1" res="-2.2821628954261541e-04" rms="4.4933396577835083e-01" purity="5.8850950002670288e-01" nType="-99"/>
        </Node>
      </Node>
    </BinaryTree>
    <BinaryTree type="DecisionTree" boostWeight="1.0000000000000000e+00" itree="832">
      <Node pos="s" depth="0" NCoef="0" IVar="7" Cut="8.8816642761230469e-01" cType="1" res="7.2700348682701588e-03" rms="4.4984063506126404e-01" purity="5.0702202320098877e-01" nType="0">
        <Node pos="l" depth="1" NCoef="0" IVar="6" Cut="1.2388966083526611e+00" cType="1" res="4.7923228703439236e-03" rms="4.5123159885406494e-01" purity="4.9813115596771240e-01" nType="0">
          <Node pos="l" depth="2" NCoef="0" IVar="-1" Cut="0.0000000000000000e+00" cType="1" res="7.8250851947814226e-04" rms="4.5433917641639709e-01" purity="5.4504615068435669e-01" nType="-99"/>
          <Node pos="r" depth="2" NCoef="0" IVar="-1" Cut="0.0000000000000000e+00" cType="1" res="-2.8869236120954156e-04" rms="4.4691208004951477e-01" purity="4.3558228015899658e-01" nType="-99"/>
        </Node>
        <Node pos="r" depth="1" NCoef="0" IVar="-1" Cut="0.0000000000000000e+00" cType="1" res="2.6614565867930651e-03" rms="4.3058285117149353e-01" purity="6.1974263191223145e-01" nType="-99"/>
      </Node>
    </BinaryTree>
    <BinaryTree type="DecisionTree" boostWeight="1.0000000000000000e+00" itree="833">
      <Node pos="s" depth="0" NCoef="0" IVar="3" Cut="2.4598212540149689e-01" cType="1" res="-4.3743276037275791e-03" rms="4.4843629002571106e-01" purity="4.9520739912986755e-01" nType="0">
        <Node pos="l" depth="1" NCoef="0" IVar="3" Cut="1.4258712530136108e-01" cType="1" res="-5.9958123601973057e-03" rms="4.4828316569328308e-01" purity="4.9088907241821289e-01" nType="0">
          <Node pos="l" depth="2" NCoef="0" IVar="-1" Cut="0.0000000000000000e+00" cType="1" res="-2.3748456442262977e-04" rms="4.4741737842559814e-01" purity="4.8554047942161560e-01" nType="-99"/>
          <Node pos="r" depth="2" NCoef="0" IVar="-1" Cut="0.0000000000000000e+00" cType="1" res="-1.4314544387161732e-03" rms="4.5246282219886780e-01" purity="5.1856720447540283e-01" nType="-99"/>
        </Node>
        <Node pos="r" depth="1" NCoef="0" IVar="-1" Cut="0.0000000000000000e+00" cType="1" res="1.5919595025479794e-03" rms="4.5017156004905701e-01" purity="5.7158607244491577e-01" nType="-99"/>
      </Node>
    </BinaryTree>
    <BinaryTree type="DecisionTree" boostWeight="1.0000000000000000e+00" itree="834">
      <Node pos="s" depth="0" NCoef="0" IVar="3" Cut="1.3775853812694550e-01" cType="1" res="4.4160215184092522e-03" rms="4.5354005694389343e-01" purity="5.0093036890029907e-01" nType="0">
        <Node pos="l" depth="1" NCoef="0" IVar="7" Cut="6.7558538913726807e-01" cType="1" res="8.5194353014230728e-03" rms="4.5168399810791016e-01" purity="4.9380165338516235e-01" nType="0">
          <Node pos="l" depth="2" NCoef="0" IVar="-1" Cut="0.0000000000000000e+00" cType="1" res="1.6776843694970012e-03" rms="4.5335528254508972e-01" purity="4.2801964282989502e-01" nType="-99"/>
          <Node pos="r" depth="2" NCoef="0" IVar="-1" Cut="0.0000000000000000e+00" cType="1" res="-1.4067540178075433e-04" rms="4.5007783174514771e-01" purity="5.4595685005187988e-01" nType="-99"/>
        </Node>
        <Node pos="r" depth="1" NCoef="0" IVar="4" Cut="2.6426938176155090e-01" cType="1" res="-1.0661540552973747e-02" rms="4.5998141169548035e-01" purity="5.2712422609329224e-01" nType="0">
          <Node pos="l" depth="2" NCoef="0" IVar="-1" Cut="0.0000000000000000e+00" cType="1" res="2.4807316367514431e-04" rms="4.5739811658859253e-01" purity="5.3657907247543335e-01" nType="-99"/>
          <Node pos="r" depth="2" NCoef="0" IVar="-1" Cut="0.0000000000000000e+00" cType="1" res="-1.5503988834097981e-03" rms="4.6171286702156067e-01" purity="5.1958614587783813e-01" nType="-99"/>
        </Node>
      </Node>
    </BinaryTree>
    <BinaryTree type="DecisionTree" boostWeight="1.0000000000000000e+00" itree="835">
      <Node pos="s" depth="0" NCoef="0" IVar="3" Cut="-1.5109102241694927e-02" cType="1" res="-2.1540417801588774e-03" rms="4.4989705085754395e-01" purity="4.9890229105949402e-01" nType="0">
        <Node pos="l" depth="1" NCoef="0" IVar="7" Cut="8.3198857307434082e-01" cType="1" res="-1.3122551143169403e-02" rms="4.4634658098220825e-01" purity="4.6091136336326599e-01" nType="0">
          <Node pos="l" depth="2" NCoef="0" IVar="-1" Cut="0.0000000000000000e+00" cType="1" res="-1.7855347832664847e-03" rms="4.4747579097747803e-01" purity="4.0974655747413635e-01" nType="-99"/>
          <Node pos="r" depth="2" NCoef="0" IVar="-1" Cut="0.0000000000000000e+00" cType="1" res="7.1944482624530792e-04" rms="4.4269424676895142e-01" purity="5.8603823184967041e-01" nType="-99"/>
        </Node>
        <Node pos="r" depth="1" NCoef="0" IVar="2" Cut="3.3292623901367188e+02" cType="1" res="5.9143286198377609e-03" rms="4.5232123136520386e-01" purity="5.2684819698333740e-01" nType="0">
          <Node pos="l" depth="2" NCoef="0" IVar="-1" Cut="0.0000000000000000e+00" cType="1" res="1.1424850672483444e-03" rms="4.5210772752761841e-01" purity="4.5961758494377136e-01" nType="-99"/>
          <Node pos="r" depth="2" NCoef="0" IVar="-1" Cut="0.0000000000000000e+00" cType="1" res="-6.2798359431326389e-04" rms="4.5223420858383179e-01" purity="6.3221377134323120e-01" nType="-99"/>
        </Node>
      </Node>
    </BinaryTree>
    <BinaryTree type="DecisionTree" boostWeight="1.0000000000000000e+00" itree="836">
      <Node pos="s" depth="0" NCoef="0" IVar="5" Cut="1.2906985648442060e-04" cType="1" res="-3.8969298475421965e-04" rms="4.5139074325561523e-01" purity="4.9859288334846497e-01" nType="0">
        <Node pos="l" depth="1" NCoef="0" IVar="7" Cut="6.7079412937164307e-01" cType="1" res="-2.1760823205113411e-02" rms="4.0863728523254395e-01" purity="7.1252006292343140e-01" nType="0">
          <Node pos="l" depth="2" NCoef="0" IVar="-1" Cut="0.0000000000000000e+00" cType="1" res="-3.0942731536924839e-03" rms="4.3090522289276123e-01" purity="6.4880776405334473e-01" nType="-99"/>
          <Node pos="r" depth="2" NCoef="0" IVar="-1" Cut="0.0000000000000000e+00" cType="1" res="-4.5541930012404919e-04" rms="3.8499620556831360e-01" purity="7.7459174394607544e-01" nType="-99"/>
        </Node>
        <Node pos="r" depth="1" NCoef="0" IVar="6" Cut="7.7044314146041870e-01" cType="1" res="2.7279155328869820e-03" rms="4.5721015334129333e-01" purity="4.6738529205322266e-01" nType="0">
          <Node pos="l" depth="2" NCoef="0" IVar="-1" Cut="0.0000000000000000e+00" cType="1" res="-8.7147264275699854e-04" rms="4.5689976215362549e-01" purity="5.2941048145294189e-01" nType="-99"/>
          <Node pos="r" depth="2" NCoef="0" IVar="-1" Cut="0.0000000000000000e+00" cType="1" res="4.3182651279494166e-04" rms="4.5720845460891724e-01" purity="4.5418778061866760e-01" nType="-99"/>
        </Node>
      </Node>
    </BinaryTree>
    <BinaryTree type="DecisionTree" boostWeight="1.0000000000000000e+00" itree="837">
      <Node pos="s" depth="0" NCoef="0" IVar="4" Cut="4.3337675929069519e-01" cType="1" res="3.4363328013569117e-03" rms="4.4891014695167542e-01" purity="5.0486356019973755e-01" nType="0">
        <Node pos="l" depth="1" NCoef="0" IVar="6" Cut="7.8122496604919434e-01" cType="1" res="-5.5248872376978397e-03" rms="4.4907453656196594e-01" purity="4.7811543941497803e-01" nType="0">
          <Node pos="l" depth="2" NCoef="0" IVar="-1" Cut="0.0000000000000000e+00" cType="1" res="1.0114827891811728e-03" rms="4.4922116398811340e-01" purity="5.8229446411132812e-01" nType="-99"/>
          <Node pos="r" depth="2" NCoef="0" IVar="-1" Cut="0.0000000000000000e+00" cType="1" res="-8.0943526700139046e-04" rms="4.4888085126876831e-01" purity="4.5047831535339355e-01" nType="-99"/>
        </Node>
        <Node pos="r" depth="1" NCoef="0" IVar="3" Cut="9.0904042124748230e-02" cType="1" res="1.5638148412108421e-02" rms="4.4839835166931152e-01" purity="5.4128438234329224e-01" nType="0">
          <Node pos="l" depth="2" NCoef="0" IVar="-1" Cut="0.0000000000000000e+00" cType="1" res="1.5604411019012332e-03" rms="4.4386416673660278e-01" purity="5.3921592235565186e-01" nType="-99"/>
          <Node pos="r" depth="2" NCoef="0" IVar="-1" Cut="0.0000000000000000e+00" cType="1" res="-5.2181433420628309e-04" rms="4.6422392129898071e-01" purity="5.4901266098022461e-01" nType="-99"/>
        </Node>
      </Node>
    </BinaryTree>
    <BinaryTree type="DecisionTree" boostWeight="1.0000000000000000e+00" itree="838">
      <Node pos="s" depth="0" NCoef="0" IVar="4" Cut="4.3337675929069519e-01" cType="1" res="-8.0001810565590858e-03" rms="4.5001825690269470e-01" purity="4.9334210157394409e-01" nType="0">
        <Node pos="l" depth="1" NCoef="0" IVar="3" Cut="8.5741966962814331e-02" cType="1" res="-8.9607207337394357e-04" rms="4.5202791690826416e-01" purity="4.8143532872200012e-01" nType="0">
          <Node pos="l" depth="2" NCoef="0" IVar="-1" Cut="0.0000000000000000e+00" cType="1" res="-6.2447862001135945e-04" rms="4.4647148251533508e-01" purity="4.4709485769271851e-01" nType="-99"/>
          <Node pos="r" depth="2" NCoef="0" IVar="-1" Cut="0.0000000000000000e+00" cType="1" res="7.2823761729523540e-04" rms="4.6037048101425171e-01" purity="5.3530210256576538e-01" nType="-99"/>
        </Node>
        <Node pos="r" depth="1" NCoef="0" IVar="1" Cut="8.9467972517013550e-01" cType="1" res="-1.7852673307061195e-02" rms="4.4702935218811035e-01" purity="5.0985521078109741e-01" nType="0">
          <Node pos="l" depth="2" NCoef="0" IVar="-1" Cut="0.0000000000000000e+00" cType="1" res="-2.4758698418736458e-03" rms="4.5104095339775085e-01" purity="3.6559957265853882e-01" nType="-99"/>
          <Node pos="r" depth="2" NCoef="0" IVar="-1" Cut="0.0000000000000000e+00" cType="1" res="-5.0807493971660733e-04" rms="4.4374167919158936e-01" purity="6.1619412899017334e-01" nType="-99"/>
        </Node>
      </Node>
    </BinaryTree>
    <BinaryTree type="DecisionTree" boostWeight="1.0000000000000000e+00" itree="839">
      <Node pos="s" depth="0" NCoef="0" IVar="4" Cut="2.0104044675827026e-01" cType="1" res="2.3053553886711597e-03" rms="4.4785147905349731e-01" purity="5.0285571813583374e-01" nType="0">
        <Node pos="l" depth="1" NCoef="0" IVar="3" Cut="8.4068901836872101e-02" cType="1" res="-1.4830954372882843e-02" rms="4.4281184673309326e-01" purity="4.4349992275238037e-01" nType="0">
          <Node pos="l" depth="2" NCoef="0" IVar="-1" Cut="0.0000000000000000e+00" cType="1" res="-2.7388080488890409e-03" rms="4.3373551964759827e-01" purity="3.8104975223541260e-01" nType="-99"/>
          <Node pos="r" depth="2" NCoef="0" IVar="-1" Cut="0.0000000000000000e+00" cType="1" res="5.5402866564691067e-04" rms="4.5252972841262817e-01" purity="5.1929908990859985e-01" nType="-99"/>
        </Node>
        <Node pos="r" depth="1" NCoef="0" IVar="0" Cut="1.0715575218200684e+00" cType="1" res="5.7344697415828705e-03" rms="4.4877457618713379e-01" purity="5.1473325490951538e-01" nType="0">
          <Node pos="l" depth="2" NCoef="0" IVar="-1" Cut="0.0000000000000000e+00" cType="1" res="1.4165986794978380e-03" rms="4.5223742723464966e-01" purity="3.7662792205810547e-01" nType="-99"/>
          <Node pos="r" depth="2" NCoef="0" IVar="-1" Cut="0.0000000000000000e+00" cType="1" res="-7.8098200901877135e-05" rms="4.4662061333656311e-01" purity="5.9437543153762817e-01" nType="-99"/>
        </Node>
      </Node>
    </BinaryTree>
    <BinaryTree type="DecisionTree" boostWeight="1.0000000000000000e+00" itree="840">
      <Node pos="s" depth="0" NCoef="0" IVar="2" Cut="2.2332936096191406e+02" cType="1" res="1.2027037155348808e-04" rms="4.5010727643966675e-01" purity="5.0028878450393677e-01" nType="0">
        <Node pos="l" depth="1" NCoef="0" IVar="3" Cut="7.2973527014255524e-02" cType="1" res="1.7035277560353279e-02" rms="4.2464298009872437e-01" purity="3.0546116828918457e-01" nType="0">
          <Node pos="l" depth="2" NCoef="0" IVar="-1" Cut="0.0000000000000000e+00" cType="1" res="2.3990254703676328e-05" rms="4.0558710694313049e-01" purity="2.5648811459541321e-01" nType="-99"/>
          <Node pos="r" depth="2" NCoef="0" IVar="-1" Cut="0.0000000000000000e+00" cType="1" res="3.4544996451586485e-03" rms="4.5164903998374939e-01" purity="3.8223829865455627e-01" nType="-99"/>
        </Node>
        <Node pos="r" depth="1" NCoef="0" IVar="1" Cut="9.3315231800079346e-01" cType="1" res="-2.7358951047062874e-03" rms="4.5420402288436890e-01" purity="5.3318613767623901e-01" nType="0">
          <Node pos="l" depth="2" NCoef="0" IVar="-1" Cut="0.0000000000000000e+00" cType="1" res="-5.6900276103988290e-04" rms="4.6755748987197876e-01" purity="4.5204457640647888e-01" nType="-99"/>
          <Node pos="r" depth="2" NCoef="0" IVar="-1" Cut="0.0000000000000000e+00" cType="1" res="7.2854873724281788e-04" rms="4.2097002267837524e-01" purity="7.2336095571517944e-01" nType="-99"/>
        </Node>
      </Node>
    </BinaryTree>
    <BinaryTree type="DecisionTree" boostWeight="1.0000000000000000e+00" itree="841">
      <Node pos="s" depth="0" NCoef="0" IVar="6" Cut="1.5585432052612305e+00" cType="1" res="-1.8758540973067284e-03" rms="4.4775035977363586e-01" purity="4.9816751480102539e-01" nType="0">
        <Node pos="l" depth="1" NCoef="0" IVar="0" Cut="1.4123690128326416e+00" cType="1" res="1.9985160324722528e-03" rms="4.5330300927162170e-01" purity="5.2305829524993896e-01" nType="0">
          <Node pos="l" depth="2" NCoef="0" IVar="-1" Cut="0.0000000000000000e+00" cType="1" res="8.4395293379202485e-04" rms="4.5928400754928589e-01" purity="4.0359044075012207e-01" nType="-99"/>
          <Node pos="r" depth="2" NCoef="0" IVar="-1" Cut="0.0000000000000000e+00" cType="1" res="-3.4923772909678519e-04" rms="4.4838780164718628e-01" purity="6.1749273538589478e-01" nType="-99"/>
        </Node>
        <Node pos="r" depth="1" NCoef="0" IVar="1" Cut="9.2141187191009521e-01" cType="1" res="-1.6410931944847107e-02" rms="4.2596089839935303e-01" purity="4.0478733181953430e-01" nType="0">
          <Node pos="l" depth="2" NCoef="0" IVar="-1" Cut="0.0000000000000000e+00" cType="1" res="-2.6427039410918951e-03" rms="4.2028760910034180e-01" purity="3.0675214529037476e-01" nType="-99"/>
          <Node pos="r" depth="2" NCoef="0" IVar="-1" Cut="0.0000000000000000e+00" cType="1" res="7.9795729834586382e-04" rms="4.3579909205436707e-01" purity="6.0119277238845825e-01" nType="-99"/>
        </Node>
      </Node>
    </BinaryTree>
    <BinaryTree type="DecisionTree" boostWeight="1.0000000000000000e+00" itree="842">
      <Node pos="s" depth="0" NCoef="0" IVar="4" Cut="4.0362983942031860e-01" cType="1" res="4.1982904076576233e-03" rms="4.4857525825500488e-01" purity="5.0333756208419800e-01" nType="0">
        <Node pos="l" depth="1" NCoef="0" IVar="2" Cut="4.9201309204101562e+02" cType="1" res="-3.2092118635773659e-03" rms="4.4773015379905701e-01" purity="4.7834110260009766e-01" nType="0">
          <Node pos="l" depth="2" NCoef="0" IVar="-1" Cut="0.0000000000000000e+00" cType="1" res="-6.3860364025458694e-04" rms="4.4973698258399963e-01" purity="4.3846082687377930e-01" nType="-99"/>
          <Node pos="r" depth="2" NCoef="0" IVar="-1" Cut="0.0000000000000000e+00" cType="1" res="1.6421695472672582e-03" rms="4.3610674142837524e-01" purity="6.8538618087768555e-01" nType="-99"/>
        </Node>
        <Node pos="r" depth="1" NCoef="0" IVar="1" Cut="8.6761695146560669e-01" cType="1" res="1.2401944026350975e-02" rms="4.4936683773994446e-01" purity="5.3102070093154907e-01" nType="0">
          <Node pos="l" depth="2" NCoef="0" IVar="-1" Cut="0.0000000000000000e+00" cType="1" res="2.5696947705000639e-03" rms="4.6175327897071838e-01" purity="4.1109925508499146e-01" nType="-99"/>
          <Node pos="r" depth="2" NCoef="0" IVar="-1" Cut="0.0000000000000000e+00" cType="1" res="4.7277609701268375e-04" rms="4.4601297378540039e-01" purity="5.6117999553680420e-01" nType="-99"/>
        </Node>
      </Node>
    </BinaryTree>
    <BinaryTree type="DecisionTree" boostWeight="1.0000000000000000e+00" itree="843">
      <Node pos="s" depth="0" NCoef="0" IVar="5" Cut="2.0547914318740368e-03" cType="1" res="-5.5717141367495060e-04" rms="4.4933715462684631e-01" purity="5.0023120641708374e-01" nType="0">
        <Node pos="l" depth="1" NCoef="0" IVar="4" Cut="4.4045388698577881e-01" cType="1" res="6.3014058396220207e-03" rms="4.4798436760902405e-01" purity="5.5244976282119751e-01" nType="0">
          <Node pos="l" depth="2" NCoef="0" IVar="-1" Cut="0.0000000000000000e+00" cType="1" res="9.8064332269132137e-04" rms="4.4966560602188110e-01" purity="5.3941708803176880e-01" nType="-99"/>
          <Node pos="r" depth="2" NCoef="0" IVar="-1" Cut="0.0000000000000000e+00" cType="1" res="-3.5683059832081199e-04" rms="4.4522723555564880e-01" purity="5.7191979885101318e-01" nType="-99"/>
        </Node>
        <Node pos="r" depth="1" NCoef="0" IVar="0" Cut="2.3802776336669922e+00" cType="1" res="-1.5710854902863503e-02" rms="4.5194283127784729e-01" purity="3.8485687971115112e-01" nType="0">
          <Node pos="l" depth="2" NCoef="0" IVar="-1" Cut="0.0000000000000000e+00" cType="1" res="-1.8517409916967154e-03" rms="4.4773250818252563e-01" purity="3.3705303072929382e-01" nType="-99"/>
          <Node pos="r" depth="2" NCoef="0" IVar="-1" Cut="0.0000000000000000e+00" cType="1" res="1.0665801819413900e-03" rms="4.6767023205757141e-01" purity="5.8517074584960938e-01" nType="-99"/>
        </Node>
      </Node>
    </BinaryTree>
    <BinaryTree type="DecisionTree" boostWeight="1.0000000000000000e+00" itree="844">
      <Node pos="s" depth="0" NCoef="0" IVar="7" Cut="7.8610920906066895e-01" cType="1" res="-3.3464687876403332e-03" rms="4.4932016730308533e-01" purity="4.9696218967437744e-01" nType="0">
        <Node pos="l" depth="1" NCoef="0" IVar="0" Cut="2.4863566458225250e-01" cType="1" res="4.4474800233729184e-04" rms="4.5096248388290405e-01" purity="4.8098444938659668e-01" nType="0">
          <Node pos="l" depth="2" NCoef="0" IVar="-1" Cut="0.0000000000000000e+00" cType="1" res="-1.8830595072358847e-03" rms="4.2017865180969238e-01" purity="2.7126213908195496e-01" nType="-99"/>
          <Node pos="r" depth="2" NCoef="0" IVar="-1" Cut="0.0000000000000000e+00" cType="1" res="2.5904955691657960e-04" rms="4.5571130514144897e-01" purity="5.1523625850677490e-01" nType="-99"/>
        </Node>
        <Node pos="r" depth="1" NCoef="0" IVar="0" Cut="7.8189623355865479e-01" cType="1" res="-1.5888545662164688e-02" rms="4.4361293315887451e-01" purity="5.4981982707977295e-01" nType="0">
          <Node pos="l" depth="2" NCoef="0" IVar="-1" Cut="0.0000000000000000e+00" cType="1" res="-3.5462195519357920e-03" rms="4.4565829634666443e-01" purity="3.4420940279960632e-01" nType="-99"/>
          <Node pos="r" depth="2" NCoef="0" IVar="-1" Cut="0.0000000000000000e+00" cType="1" res="-3.5146411391906440e-04" rms="4.4236057996749878e-01" purity="6.2816202640533447e-01" nType="-99"/>
        </Node>
      </Node>
    </BinaryTree>
    <BinaryTree type="DecisionTree" boostWeight="1.0000000000000000e+00" itree="845">
      <Node pos="s" depth="0" NCoef="0" IVar="6" Cut="2.0037205219268799e+00" cType="1" res="3.2024325337260962e-03" rms="4.4916856288909912e-01" purity="5.0262612104415894e-01" nType="0">
        <Node pos="l" depth="1" NCoef="0" IVar="6" Cut="8.9398354291915894e-01" cType="1" res="5.0917249172925949e-03" rms="4.5148617029190063e-01" purity="5.0819575786590576e-01" nType="0">
          <Node pos="l" depth="2" NCoef="0" IVar="-1" Cut="0.0000000000000000e+00" cType="1" res="1.1833811877295375e-03" rms="4.5357835292816162e-01" purity="5.8133214712142944e-01" nType="-99"/>
          <Node pos="r" depth="2" NCoef="0" IVar="-1" Cut="0.0000000000000000e+00" cType="1" res="7.2346861088590231e-06" rms="4.5052397251129150e-01" purity="4.7796642780303955e-01" nType="-99"/>
        </Node>
        <Node pos="r" depth="1" NCoef="0" IVar="-1" Cut="0.0000000000000000e+00" cType="1" res="-2.4427673779428005e-03" rms="4.0541326999664307e-01" purity="4.0589129924774170e-01" nType="-99"/>
      </Node>
    </BinaryTree>
    <BinaryTree type="DecisionTree" boostWeight="1.0000000000000000e+00" itree="846">
      <Node pos="s" depth="0" NCoef="0" IVar="4" Cut="1.2959522008895874e-01" cType="1" res="3.1153506133705378e-03" rms="4.4910541176795959e-01" purity="5.0092238187789917e-01" nType="0">
        <Node pos="l" depth="1" NCoef="0" IVar="-1" Cut="0.0000000000000000e+00" cType="1" res="3.1500407494604588e-03" rms="4.5070242881774902e-01" purity="4.7316667437553406e-01" nType="-99"/>
        <Node pos="r" depth="1" NCoef="0" IVar="7" Cut="5.6199318170547485e-01" cType="1" res="8.7776970758568496e-05" rms="4.4883900880813599e-01" purity="5.0299632549285889e-01" nType="0">
          <Node pos="l" depth="2" NCoef="0" IVar="-1" Cut="0.0000000000000000e+00" cType="1" res="9.9465774837881327e-04" rms="4.4966131448745728e-01" purity="4.6417751908302307e-01" nType="-99"/>
          <Node pos="r" depth="2" NCoef="0" IVar="-1" Cut="0.0000000000000000e+00" cType="1" res="-4.1773336124606431e-04" rms="4.4834741950035095e-01" purity="5.2027916908264160e-01" nType="-99"/>
        </Node>
      </Node>
    </BinaryTree>
    <BinaryTree type="DecisionTree" boostWeight="1.0000000000000000e+00" itree="847">
      <Node pos="s" depth="0" NCoef="0" IVar="0" Cut="1.8059591054916382e+00" cType="1" res="6.8745150929316878e-04" rms="4.5103520154953003e-01" purity="5.0093972682952881e-01" nType="0">
        <Node pos="l" depth="1" NCoef="0" IVar="6" Cut="1.5415104627609253e+00" cType="1" res="1.1427024379372597e-02" rms="4.5514741539955139e-01" purity="4.0202412009239197e-01" nType="0">
          <Node pos="l" depth="2" NCoef="0" IVar="-1" Cut="0.0000000000000000e+00" cType="1" res="1.3126668054610491e-03" rms="4.6465876698493958e-01" purity="4.3068075180053711e-01" nType="-99"/>
          <Node pos="r" depth="2" NCoef="0" IVar="-1" Cut="0.0000000000000000e+00" cType="1" res="-9.0978632215410471e-04" rms="4.2108479142189026e-01" purity="3.0621969699859619e-01" nType="-99"/>
        </Node>
        <Node pos="r" depth="1" NCoef="0" IVar="1" Cut="9.6025609970092773e-01" cType="1" res="-1.2241086922585964e-02" rms="4.4569137692451477e-01" purity="6.2001663446426392e-01" nType="0">
          <Node pos="l" depth="2" NCoef="0" IVar="-1" Cut="0.0000000000000000e+00" cType="1" res="-1.2783500133082271e-03" rms="4.6489650011062622e-01" purity="5.5412191152572632e-01" nType="-99"/>
          <Node pos="r" depth="2" NCoef="0" IVar="-1" Cut="0.0000000000000000e+00" cType="1" res="5.4885214194655418e-04" rms="3.9305195212364197e-01" purity="7.8443187475204468e-01" nType="-99"/>
        </Node>
      </Node>
    </BinaryTree>
    <BinaryTree type="DecisionTree" boostWeight="1.0000000000000000e+00" itree="848">
      <Node pos="s" depth="0" NCoef="0" IVar="6" Cut="9.3519866466522217e-01" cType="1" res="-3.0180206522345543e-04" rms="4.5048674941062927e-01" purity="5.0109755992889404e-01" nType="0">
        <Node pos="l" depth="1" NCoef="0" IVar="2" Cut="3.7015579223632812e+02" cType="1" res="1.1671326123178005e-02" rms="4.5244440436363220e-01" purity="5.7954180240631104e-01" nType="0">
          <Node pos="l" depth="2" NCoef="0" IVar="-1" Cut="0.0000000000000000e+00" cType="1" res="2.1511353552341461e-03" rms="4.5377197861671448e-01" purity="5.2920830249786377e-01" nType="-99"/>
          <Node pos="r" depth="2" NCoef="0" IVar="-1" Cut="0.0000000000000000e+00" cType="1" res="-9.2836009571328759e-04" rms="4.4950446486473083e-01" purity="6.4346700906753540e-01" nType="-99"/>
        </Node>
        <Node pos="r" depth="1" NCoef="0" IVar="7" Cut="8.2465714216232300e-01" cType="1" res="-5.8706025592982769e-03" rms="4.4946464896202087e-01" purity="4.6461257338523865e-01" nType="0">
          <Node pos="l" depth="2" NCoef="0" IVar="-1" Cut="0.0000000000000000e+00" cType="1" res="-1.6852738917805254e-04" rms="4.5062252879142761e-01" purity="4.5547595620155334e-01" nType="-99"/>
          <Node pos="r" depth="2" NCoef="0" IVar="-1" Cut="0.0000000000000000e+00" cType="1" res="-1.8629403784871101e-03" rms="4.4267231225967407e-01" purity="5.1377940177917480e-01" nType="-99"/>
        </Node>
      </Node>
    </BinaryTree>
    <BinaryTree type="DecisionTree" boostWeight="1.0000000000000000e+00" itree="849">
      <Node pos="s" depth="0" NCoef="0" IVar="3" Cut="1.8249811232089996e-01" cType="1" res="2.9983043204993010e-03" rms="4.4995987415313721e-01" purity="5.0244688987731934e-01" nType="0">
        <Node pos="l" depth="1" NCoef="0" IVar="5" Cut="2.1832110360264778e-03" cType="1" res="-4.1400961345061660e-04" rms="4.4898059964179993e-01" purity="4.9078115820884705e-01" nType="0">
          <Node pos="l" depth="2" NCoef="0" IVar="-1" Cut="0.0000000000000000e+00" cType="1" res="-4.3363752774894238e-04" rms="4.4567599892616272e-01" purity="5.3003555536270142e-01" nType="-99"/>
          <Node pos="r" depth="2" NCoef="0" IVar="-1" Cut="0.0000000000000000e+00" cType="1" res="9.4342732336372137e-04" rms="4.5656052231788635e-01" purity="3.9636778831481934e-01" nType="-99"/>
        </Node>
        <Node pos="r" depth="1" NCoef="0" IVar="2" Cut="2.7593792724609375e+02" cType="1" res="2.3465400561690331e-02" rms="4.5525297522544861e-01" purity="5.7241815328598022e-01" nType="0">
          <Node pos="l" depth="2" NCoef="0" IVar="-1" Cut="0.0000000000000000e+00" cType="1" res="-4.4419048936106265e-04" rms="4.6079781651496887e-01" purity="4.1866058111190796e-01" nType="-99"/>
          <Node pos="r" depth="2" NCoef="0" IVar="-1" Cut="0.0000000000000000e+00" cType="1" res="2.7791340835392475e-03" rms="4.5039573311805725e-01" purity="6.7562317848205566e-01" nType="-99"/>
        </Node>
      </Node>
    </BinaryTree>
    <BinaryTree type="DecisionTree" boostWeight="1.0000000000000000e+00" itree="850">
      <Node pos="s" depth="0" NCoef="0" IVar="3" Cut="5.6747067719697952e-02" cType="1" res="1.6615883214399219e-04" rms="4.4796019792556763e-01" purity="4.9948069453239441e-01" nType="0">
        <Node pos="l" depth="1" NCoef="0" IVar="2" Cut="4.4809332275390625e+02" cType="1" res="-6.1527760699391365e-03" rms="4.4397237896919250e-01" purity="4.7252741456031799e-01" nType="0">
          <Node pos="l" depth="2" NCoef="0" IVar="-1" Cut="0.0000000000000000e+00" cType="1" res="-8.0896803410723805e-04" rms="4.4423568248748779e-01" purity="4.3170389533042908e-01" nType="-99"/>
          <Node pos="r" depth="2" NCoef="0" IVar="-1" Cut="0.0000000000000000e+00" cType="1" res="9.5044489717110991e-04" rms="4.4216576218605042e-01" purity="6.6499388217926025e-01" nType="-99"/>
        </Node>
        <Node pos="r" depth="1" NCoef="0" IVar="0" Cut="9.8140931129455566e-01" cType="1" res="1.0142508894205093e-02" rms="4.5400586724281311e-01" purity="5.4203474521636963e-01" nType="0">
          <Node pos="l" depth="2" NCoef="0" IVar="-1" Cut="0.0000000000000000e+00" cType="1" res="-6.9461332168430090e-04" rms="4.6006479859352112e-01" purity="3.6310902237892151e-01" nType="-99"/>
          <Node pos="r" depth="2" NCoef="0" IVar="-1" Cut="0.0000000000000000e+00" cType="1" res="1.2108832597732544e-03" rms="4.5104774832725525e-01" purity="6.2115257978439331e-01" nType="-99"/>
        </Node>
      </Node>
    </BinaryTree>
    <BinaryTree type="DecisionTree" boostWeight="1.0000000000000000e+00" itree="851">
      <Node pos="s" depth="0" NCoef="0" IVar="1" Cut="8.5995459556579590e-01" cType="1" res="2.6197256520390511e-03" rms="4.5011210441589355e-01" purity="5.0182485580444336e-01" nType="0">
        <Node pos="l" depth="1" NCoef="0" IVar="4" Cut="4.0459439158439636e-01" cType="1" res="-2.3590331897139549e-02" rms="4.4694587588310242e-01" purity="3.3285999298095703e-01" nType="0">
          <Node pos="l" depth="2" NCoef="0" IVar="-1" Cut="0.0000000000000000e+00" cType="1" res="1.2074013648089021e-04" rms="4.4956287741661072e-01" purity="3.4992098808288574e-01" nType="-99"/>
          <Node pos="r" depth="2" NCoef="0" IVar="-1" Cut="0.0000000000000000e+00" cType="1" res="-4.5288382098078728e-03" rms="4.4143065810203552e-01" purity="3.1082648038864136e-01" nType="-99"/>
        </Node>
        <Node pos="r" depth="1" NCoef="0" IVar="4" Cut="2.6891651749610901e-01" cType="1" res="6.0996240936219692e-03" rms="4.5041614770889282e-01" purity="5.2425819635391235e-01" nType="0">
          <Node pos="l" depth="2" NCoef="0" IVar="-1" Cut="0.0000000000000000e+00" cType="1" res="1.2495805276557803e-03" rms="4.5289248228073120e-01" purity="5.0098228454589844e-01" nType="-99"/>
          <Node pos="r" depth="2" NCoef="0" IVar="-1" Cut="0.0000000000000000e+00" cType="1" res="1.1220852320548147e-04" rms="4.4934266805648804e-01" purity="5.3355753421783447e-01" nType="-99"/>
        </Node>
      </Node>
    </BinaryTree>
    <BinaryTree type="DecisionTree" boostWeight="1.0000000000000000e+00" itree="852">
      <Node pos="s" depth="0" NCoef="0" IVar="1" Cut="8.9082324504852295e-01" cType="1" res="2.4313095491379499e-03" rms="4.5157355070114136e-01" purity="5.0233072042465210e-01" nType="0">
        <Node pos="l" depth="1" NCoef="0" IVar="1" Cut="8.7776255607604980e-01" cType="1" res="1.4009322971105576e-02" rms="4.5611095428466797e-01" purity="3.9433982968330383e-01" nType="0">
          <Node pos="l" depth="2" NCoef="0" IVar="-1" Cut="0.0000000000000000e+00" cType="1" res="4.1581116965971887e-04" rms="4.5352697372436523e-01" purity="3.7566503882408142e-01" nType="-99"/>
          <Node pos="r" depth="2" NCoef="0" IVar="-1" Cut="0.0000000000000000e+00" cType="1" res="2.5882618501782417e-03" rms="4.6204981207847595e-01" purity="4.4314786791801453e-01" nType="-99"/>
        </Node>
        <Node pos="r" depth="1" NCoef="0" IVar="4" Cut="2.6507416367530823e-01" cType="1" res="-5.9527647681534290e-03" rms="4.4807246327400208e-01" purity="5.8053094148635864e-01" nType="0">
          <Node pos="l" depth="2" NCoef="0" IVar="-1" Cut="0.0000000000000000e+00" cType="1" res="7.1656837826594710e-04" rms="4.5142978429794312e-01" purity="5.5855071544647217e-01" nType="-99"/>
          <Node pos="r" depth="2" NCoef="0" IVar="-1" Cut="0.0000000000000000e+00" cType="1" res="-8.6394604295492172e-04" rms="4.4664451479911804e-01" purity="5.8882296085357666e-01" nType="-99"/>
        </Node>
      </Node>
    </BinaryTree>
    <BinaryTree type="DecisionTree" boostWeight="1.0000000000000000e+00" itree="853">
      <Node pos="s" depth="0" NCoef="0" IVar="2" Cut="2.6743341064453125e+02" cType="1" res="2.2218925878405571e-03" rms="4.5201417803764343e-01" purity="4.9948048591613770e-01" nType="0">
        <Node pos="l" depth="1" NCoef="0" IVar="2" Cut="2.4654428100585938e+02" cType="1" res="9.8010487854480743e-03" rms="4.3754419684410095e-01" purity="3.5872784256935120e-01" nType="0">
          <Node pos="l" depth="2" NCoef="0" IVar="-1" Cut="0.0000000000000000e+00" cType="1" res="-1.0560602822806686e-04" rms="4.2839384078979492e-01" purity="3.2228165864944458e-01" nType="-99"/>
          <Node pos="r" depth="2" NCoef="0" IVar="-1" Cut="0.0000000000000000e+00" cType="1" res="2.8416365385055542e-03" rms="4.5970973372459412e-01" purity="4.5560926198959351e-01" nType="-99"/>
        </Node>
        <Node pos="r" depth="1" NCoef="0" IVar="6" Cut="1.7193837165832520e+00" cType="1" res="-1.6184983542189002e-03" rms="4.5912435650825500e-01" purity="5.7080042362213135e-01" nType="0">
          <Node pos="l" depth="2" NCoef="0" IVar="-1" Cut="0.0000000000000000e+00" cType="1" res="-4.0272649493999779e-04" rms="4.6001288294792175e-01" purity="5.7010692358016968e-01" nType="-99"/>
          <Node pos="r" depth="2" NCoef="0" IVar="-1" Cut="0.0000000000000000e+00" cType="1" res="2.4127643555402756e-03" rms="4.4949814677238464e-01" purity="5.7688069343566895e-01" nType="-99"/>
        </Node>
      </Node>
    </BinaryTree>
    <BinaryTree type="DecisionTree" boostWeight="1.0000000000000000e+00" itree="854">
      <Node pos="s" depth="0" NCoef="0" IVar="7" Cut="6.5542078018188477e-01" cType="1" res="4.9829860217869282e-03" rms="4.5063975453376770e-01" purity="5.0242817401885986e-01" nType="0">
        <Node pos="l" depth="1" NCoef="0" IVar="6" Cut="1.4695076942443848e+00" cType="1" res="1.2692339718341827e-02" rms="4.5016911625862122e-01" purity="4.6524721384048462e-01" nType="0">
          <Node pos="l" depth="2" NCoef="0" IVar="-1" Cut="0.0000000000000000e+00" cType="1" res="1.5684583922848105e-03" rms="4.5806220173835754e-01" purity="5.0346392393112183e-01" nType="-99"/>
          <Node pos="r" depth="2" NCoef="0" IVar="-1" Cut="0.0000000000000000e+00" cType="1" res="-9.2820700956508517e-04" rms="4.2904612421989441e-01" purity="3.7040427327156067e-01" nType="-99"/>
        </Node>
        <Node pos="r" depth="1" NCoef="0" IVar="6" Cut="1.2418067455291748e+00" cType="1" res="-3.2121108379215002e-03" rms="4.5099502801895142e-01" purity="5.4195189476013184e-01" nType="0">
          <Node pos="l" depth="2" NCoef="0" IVar="-1" Cut="0.0000000000000000e+00" cType="1" res="-9.4787153648212552e-04" rms="4.5788177847862244e-01" purity="5.5606830120086670e-01" nType="-99"/>
          <Node pos="r" depth="2" NCoef="0" IVar="-1" Cut="0.0000000000000000e+00" cType="1" res="8.5291842697188258e-04" rms="4.4029596447944641e-01" purity="5.2130454778671265e-01" nType="-99"/>
        </Node>
      </Node>
    </BinaryTree>
    <BinaryTree type="DecisionTree" boostWeight="1.0000000000000000e+00" itree="855">
      <Node pos="s" depth="0" NCoef="0" IVar="3" Cut="7.9366140067577362e-02" cType="1" res="-4.6767974272370338e-03" rms="4.5010125637054443e-01" purity="4.9354699254035950e-01" nType="0">
        <Node pos="l" depth="1" NCoef="0" IVar="6" Cut="1.8048901557922363e+00" cType="1" res="3.8924550171941519e-03" rms="4.4553565979003906e-01" purity="4.8646974563598633e-01" nType="0">
          <Node pos="l" depth="2" NCoef="0" IVar="-1" Cut="0.0000000000000000e+00" cType="1" res="5.4140167776495218e-04" rms="4.4877335429191589e-01" purity="5.0083357095718384e-01" nType="-99"/>
          <Node pos="r" depth="2" NCoef="0" IVar="-1" Cut="0.0000000000000000e+00" cType="1" res="-2.4262007791548967e-03" rms="4.1435927152633667e-01" purity="3.5894462466239929e-01" nType="-99"/>
        </Node>
        <Node pos="r" depth="1" NCoef="0" IVar="1" Cut="9.2140597105026245e-01" cType="1" res="-2.2284066304564476e-02" rms="4.5883783698081970e-01" purity="5.0808870792388916e-01" nType="0">
          <Node pos="l" depth="2" NCoef="0" IVar="-1" Cut="0.0000000000000000e+00" cType="1" res="-1.0353288380429149e-03" rms="4.6505689620971680e-01" purity="4.3771979212760925e-01" nType="-99"/>
          <Node pos="r" depth="2" NCoef="0" IVar="-1" Cut="0.0000000000000000e+00" cType="1" res="-2.6803680229932070e-03" rms="4.4569167494773865e-01" purity="6.4975136518478394e-01" nType="-99"/>
        </Node>
      </Node>
    </BinaryTree>
    <BinaryTree type="DecisionTree" boostWeight="1.0000000000000000e+00" itree="856">
      <Node pos="s" depth="0" NCoef="0" IVar="3" Cut="2.7752166613936424e-02" cType="1" res="2.3846428375691175e-03" rms="4.4933193922042847e-01" purity="5.0326436758041382e-01" nType="0">
        <Node pos="l" depth="1" NCoef="0" IVar="2" Cut="3.8665783691406250e+02" cType="1" res="-5.1943855360150337e-03" rms="4.4349849224090576e-01" purity="4.7329840064048767e-01" nType="0">
          <Node pos="l" depth="2" NCoef="0" IVar="-1" Cut="0.0000000000000000e+00" cType="1" res="-9.9135260097682476e-04" rms="4.4041204452514648e-01" purity="4.0776839852333069e-01" nType="-99"/>
          <Node pos="r" depth="2" NCoef="0" IVar="-1" Cut="0.0000000000000000e+00" cType="1" res="8.7519607041031122e-04" rms="4.5052924752235413e-01" purity="6.3553631305694580e-01" nType="-99"/>
        </Node>
        <Node pos="r" depth="1" NCoef="0" IVar="5" Cut="2.5129652931354940e-04" cType="1" res="1.1451059952378273e-02" rms="4.5604681968688965e-01" purity="5.3911119699478149e-01" nType="0">
          <Node pos="l" depth="2" NCoef="0" IVar="-1" Cut="0.0000000000000000e+00" cType="1" res="-1.4053618069738150e-03" rms="4.1688811779022217e-01" purity="7.0541477203369141e-01" nType="-99"/>
          <Node pos="r" depth="2" NCoef="0" IVar="-1" Cut="0.0000000000000000e+00" cType="1" res="1.2313795741647482e-03" rms="4.6446350216865540e-01" purity="5.0022858381271362e-01" nType="-99"/>
        </Node>
      </Node>
    </BinaryTree>
    <BinaryTree type="DecisionTree" boostWeight="1.0000000000000000e+00" itree="857">
      <Node pos="s" depth="0" NCoef="0" IVar="1" Cut="8.5997194051742554e-01" cType="1" res="-6.0558994300663471e-03" rms="4.4737237691879272e-01" purity="4.9510836601257324e-01" nType="0">
        <Node pos="l" depth="1" NCoef="0" IVar="3" Cut="-2.4495492689311504e-03" cType="1" res="-3.3794719725847244e-02" rms="4.3969500064849854e-01" purity="3.2327902317047119e-01" nType="0">
          <Node pos="l" depth="2" NCoef="0" IVar="-1" Cut="0.0000000000000000e+00" cType="1" res="-1.0205517755821347e-03" rms="4.3408811092376709e-01" purity="3.2458168268203735e-01" nType="-99"/>
          <Node pos="r" depth="2" NCoef="0" IVar="-1" Cut="0.0000000000000000e+00" cType="1" res="-4.1003664955496788e-03" rms="4.4368562102317810e-01" purity="3.2214030623435974e-01" nType="-99"/>
        </Node>
        <Node pos="r" depth="1" NCoef="0" IVar="7" Cut="3.9806446433067322e-01" cType="1" res="-2.3434886243194342e-03" rms="4.4825968146324158e-01" purity="5.1810503005981445e-01" nType="0">
          <Node pos="l" depth="2" NCoef="0" IVar="-1" Cut="0.0000000000000000e+00" cType="1" res="-2.2512052673846483e-03" rms="4.3210223317146301e-01" purity="4.4042488932609558e-01" nType="-99"/>
          <Node pos="r" depth="2" NCoef="0" IVar="-1" Cut="0.0000000000000000e+00" cType="1" res="1.5847756003495306e-05" rms="4.4966685771942139e-01" purity="5.2542227506637573e-01" nType="-99"/>
        </Node>
      </Node>
    </BinaryTree>
    <BinaryTree type="DecisionTree" boostWeight="1.0000000000000000e+00" itree="858">
      <Node pos="s" depth="0" NCoef="0" IVar="0" Cut="2.1854941844940186e+00" cType="1" res="-1.8039097776636481e-03" rms="4.5112499594688416e-01" purity="5.0068372488021851e-01" nType="0">
        <Node pos="l" depth="1" NCoef="0" IVar="1" Cut="8.5602670907974243e-01" cType="1" res="4.8362198285758495e-03" rms="4.5497521758079529e-01" purity="4.1674342751502991e-01" nType="0">
          <Node pos="l" depth="2" NCoef="0" IVar="-1" Cut="0.0000000000000000e+00" cType="1" res="-2.1852487698197365e-03" rms="4.3638584017753601e-01" purity="2.9711085557937622e-01" nType="-99"/>
          <Node pos="r" depth="2" NCoef="0" IVar="-1" Cut="0.0000000000000000e+00" cType="1" res="6.1622681096196175e-04" rms="4.5688554644584656e-01" purity="4.3015632033348083e-01" nType="-99"/>
        </Node>
        <Node pos="r" depth="1" NCoef="0" IVar="6" Cut="8.4976178407669067e-01" cType="1" res="-1.3140420429408550e-02" rms="4.4424524903297424e-01" purity="6.4399266242980957e-01" nType="0">
          <Node pos="l" depth="2" NCoef="0" IVar="-1" Cut="0.0000000000000000e+00" cType="1" res="9.2482689069584012e-04" rms="4.2670366168022156e-01" purity="7.2813814878463745e-01" nType="-99"/>
          <Node pos="r" depth="2" NCoef="0" IVar="-1" Cut="0.0000000000000000e+00" cType="1" res="-1.5262991655617952e-03" rms="4.4986537098884583e-01" purity="6.1450564861297607e-01" nType="-99"/>
        </Node>
      </Node>
    </BinaryTree>
    <BinaryTree type="DecisionTree" boostWeight="1.0000000000000000e+00" itree="859">
      <Node pos="s" depth="0" NCoef="0" IVar="1" Cut="8.5611510276794434e-01" cType="1" res="4.4674871605820954e-04" rms="4.5029440522193909e-01" purity="5.0045537948608398e-01" nType="0">
        <Node pos="l" depth="1" NCoef="0" IVar="-1" Cut="0.0000000000000000e+00" cType="1" res="-2.5806808844208717e-03" rms="4.4595780968666077e-01" purity="3.2081076502799988e-01" nType="-99"/>
        <Node pos="r" depth="1" NCoef="0" IVar="4" Cut="2.9347077012062073e-01" cType="1" res="3.0108643695712090e-03" rms="4.5053899288177490e-01" purity="5.1475930213928223e-01" nType="0">
          <Node pos="l" depth="2" NCoef="0" IVar="-1" Cut="0.0000000000000000e+00" cType="1" res="-6.1163777718320489e-04" rms="4.5213806629180908e-01" purity="4.7113108634948730e-01" nType="-99"/>
          <Node pos="r" depth="2" NCoef="0" IVar="-1" Cut="0.0000000000000000e+00" cType="1" res="6.1294180341064930e-04" rms="4.4965422153472900e-01" purity="5.3600138425827026e-01" nType="-99"/>
        </Node>
      </Node>
    </BinaryTree>
    <BinaryTree type="DecisionTree" boostWeight="1.0000000000000000e+00" itree="860">
      <Node pos="s" depth="0" NCoef="0" IVar="4" Cut="3.9156106114387512e-01" cType="1" res="8.9788489276543260e-04" rms="4.4852149486541748e-01" purity="5.0280702114105225e-01" nType="0">
        <Node pos="l" depth="1" NCoef="0" IVar="0" Cut="9.9637883901596069e-01" cType="1" res="-9.2670144513249397e-03" rms="4.4993749260902405e-01" purity="4.6777820587158203e-01" nType="0">
          <Node pos="l" depth="2" NCoef="0" IVar="-1" Cut="0.0000000000000000e+00" cType="1" res="7.1267387829720974e-04" rms="4.4442167878150940e-01" purity="3.4081408381462097e-01" nType="-99"/>
          <Node pos="r" depth="2" NCoef="0" IVar="-1" Cut="0.0000000000000000e+00" cType="1" res="-1.2375254882499576e-03" rms="4.5238998532295227e-01" purity="5.3060370683670044e-01" nType="-99"/>
        </Node>
        <Node pos="r" depth="1" NCoef="0" IVar="5" Cut="2.5661458494141698e-04" cType="1" res="1.1244216933846474e-02" rms="4.4683820009231567e-01" purity="5.3846102952957153e-01" nType="0">
          <Node pos="l" depth="2" NCoef="0" IVar="-1" Cut="0.0000000000000000e+00" cType="1" res="-1.0311981895938516e-03" rms="3.9332395792007446e-01" purity="7.1984964609146118e-01" nType="-99"/>
          <Node pos="r" depth="2" NCoef="0" IVar="-1" Cut="0.0000000000000000e+00" cType="1" res="1.2065897462889552e-03" rms="4.5970657467842102e-01" purity="4.9064368009567261e-01" nType="-99"/>
        </Node>
      </Node>
    </BinaryTree>
    <BinaryTree type="DecisionTree" boostWeight="1.0000000000000000e+00" itree="861">
      <Node pos="s" depth="0" NCoef="0" IVar="0" Cut="7.6742702722549438e-01" cType="1" res="8.6186139378696680e-04" rms="4.5147964358329773e-01" purity="5.0228339433670044e-01" nType="0">
        <Node pos="l" depth="1" NCoef="0" IVar="1" Cut="8.9711284637451172e-01" cType="1" res="1.4504704624414444e-02" rms="4.4834041595458984e-01" purity="3.5041984915733337e-01" nType="0">
          <Node pos="l" depth="2" NCoef="0" IVar="-1" Cut="0.0000000000000000e+00" cType="1" res="5.3115200717002153e-04" rms="4.4238787889480591e-01" purity="3.1886243820190430e-01" nType="-99"/>
          <Node pos="r" depth="2" NCoef="0" IVar="-1" Cut="0.0000000000000000e+00" cType="1" res="3.2399746123701334e-03" rms="4.6721935272216797e-01" purity="4.5987620949745178e-01" nType="-99"/>
        </Node>
        <Node pos="r" depth="1" NCoef="0" IVar="5" Cut="2.7099181897938251e-03" cType="1" res="-4.3139001354575157e-03" rms="4.5255729556083679e-01" purity="5.5989670753479004e-01" nType="0">
          <Node pos="l" depth="2" NCoef="0" IVar="-1" Cut="0.0000000000000000e+00" cType="1" res="1.1301189260848332e-05" rms="4.5114991068840027e-01" purity="5.8057731389999390e-01" nType="-99"/>
          <Node pos="r" depth="2" NCoef="0" IVar="-1" Cut="0.0000000000000000e+00" cType="1" res="-2.2410431411117315e-03" rms="4.6063488721847534e-01" purity="4.2366147041320801e-01" nType="-99"/>
        </Node>
      </Node>
    </BinaryTree>
    <BinaryTree type="DecisionTree" boostWeight="1.0000000000000000e+00" itree="862">
      <Node pos="s" depth="0" NCoef="0" IVar="4" Cut="4.3022444844245911e-01" cType="1" res="-8.5522641893476248e-04" rms="4.5050397515296936e-01" purity="4.9873909354209900e-01" nType="0">
        <Node pos="l" depth="1" NCoef="0" IVar="2" Cut="2.6911004638671875e+02" cType="1" res="7.5912247411906719e-03" rms="4.5356041193008423e-01" purity="4.8706158995628357e-01" nType="0">
          <Node pos="l" depth="2" NCoef="0" IVar="-1" Cut="0.0000000000000000e+00" cType="1" res="2.2773523814976215e-03" rms="4.3708041310310364e-01" purity="3.4772267937660217e-01" nType="-99"/>
          <Node pos="r" depth="2" NCoef="0" IVar="-1" Cut="0.0000000000000000e+00" cType="1" res="-1.8931370505015366e-05" rms="4.6004551649093628e-01" purity="5.4530209302902222e-01" nType="-99"/>
        </Node>
        <Node pos="r" depth="1" NCoef="0" IVar="7" Cut="8.4183812141418457e-01" cType="1" res="-1.2333671562373638e-02" rms="4.4606050848960876e-01" purity="5.1460844278335571e-01" nType="0">
          <Node pos="l" depth="2" NCoef="0" IVar="-1" Cut="0.0000000000000000e+00" cType="1" res="-1.3056448660790920e-03" rms="4.4817209243774414e-01" purity="5.0411087274551392e-01" nType="-99"/>
          <Node pos="r" depth="2" NCoef="0" IVar="-1" Cut="0.0000000000000000e+00" cType="1" res="9.5647125272080302e-04" rms="4.3476784229278564e-01" purity="5.6547331809997559e-01" nType="-99"/>
        </Node>
      </Node>
    </BinaryTree>
    <BinaryTree type="DecisionTree" boostWeight="1.0000000000000000e+00" itree="863">
      <Node pos="s" depth="0" NCoef="0" IVar="3" Cut="2.4521392583847046e-01" cType="1" res="-4.5206811046227813e-04" rms="4.4861438870429993e-01" purity="4.9828314781188965e-01" nType="0">
        <Node pos="l" depth="1" NCoef="0" IVar="4" Cut="3.8639265298843384e-01" cType="1" res="-2.5742901489138603e-03" rms="4.4795694947242737e-01" purity="4.9313905835151672e-01" nType="0">
          <Node pos="l" depth="2" NCoef="0" IVar="-1" Cut="0.0000000000000000e+00" cType="1" res="-9.4519363483414054e-04" rms="4.4873681664466858e-01" purity="4.5572397112846375e-01" nType="-99"/>
          <Node pos="r" depth="2" NCoef="0" IVar="-1" Cut="0.0000000000000000e+00" cType="1" res="4.5553024392575026e-04" rms="4.4707617163658142e-01" purity="5.2621680498123169e-01" nType="-99"/>
        </Node>
        <Node pos="r" depth="1" NCoef="0" IVar="-1" Cut="0.0000000000000000e+00" cType="1" res="2.4628806859254837e-03" rms="4.5850875973701477e-01" purity="5.8973222970962524e-01" nType="-99"/>
      </Node>
    </BinaryTree>
    <BinaryTree type="DecisionTree" boostWeight="1.0000000000000000e+00" itree="864">
      <Node pos="s" depth="0" NCoef="0" IVar="5" Cut="7.7427620999515057e-04" cType="1" res="-3.8696390110999346e-03" rms="4.5218515396118164e-01" purity="4.9462279677391052e-01" nType="0">
        <Node pos="l" depth="1" NCoef="0" IVar="3" Cut="-8.8429719209671021e-02" cType="1" res="-1.4053468592464924e-02" rms="4.3635717034339905e-01" purity="6.0460376739501953e-01" nType="0">
          <Node pos="l" depth="2" NCoef="0" IVar="-1" Cut="0.0000000000000000e+00" cType="1" res="-3.0108189675956964e-03" rms="4.3500092625617981e-01" purity="5.3586763143539429e-01" nType="-99"/>
          <Node pos="r" depth="2" NCoef="0" IVar="-1" Cut="0.0000000000000000e+00" cType="1" res="-6.1983679188415408e-04" rms="4.3647438287734985e-01" purity="6.2052416801452637e-01" nType="-99"/>
        </Node>
        <Node pos="r" depth="1" NCoef="0" IVar="2" Cut="3.7793994140625000e+02" cType="1" res="2.1475795656442642e-03" rms="4.6117642521858215e-01" purity="4.2963942885398865e-01" nType="0">
          <Node pos="l" depth="2" NCoef="0" IVar="-1" Cut="0.0000000000000000e+00" cType="1" res="5.6348246289417148e-04" rms="4.5624941587448120e-01" purity="3.7836587429046631e-01" nType="-99"/>
          <Node pos="r" depth="2" NCoef="0" IVar="-1" Cut="0.0000000000000000e+00" cType="1" res="-7.8466045670211315e-04" rms="4.7409620881080627e-01" purity="5.6996285915374756e-01" nType="-99"/>
        </Node>
      </Node>
    </BinaryTree>
    <BinaryTree type="DecisionTree" boostWeight="1.0000000000000000e+00" itree="865">
      <Node pos="s" depth="0" NCoef="0" IVar="7" Cut="4.3756324052810669e-01" cType="1" res="-1.0042855283245444e-03" rms="4.5046290755271912e-01" purity="4.9815034866333008e-01" nType="0">
        <Node pos="l" depth="1" NCoef="0" IVar="2" Cut="2.6782507324218750e+02" cType="1" res="2.1216612309217453e-02" rms="4.5377245545387268e-01" purity="4.6897697448730469e-01" nType="0">
          <Node pos="l" depth="2" NCoef="0" IVar="-1" Cut="0.0000000000000000e+00" cType="1" res="3.7751712370663881e-03" rms="4.4999712705612183e-01" purity="3.7663748860359192e-01" nType="-99"/>
          <Node pos="r" depth="2" NCoef="0" IVar="-1" Cut="0.0000000000000000e+00" cType="1" res="4.0037740836851299e-04" rms="4.5551523566246033e-01" purity="5.2830934524536133e-01" nType="-99"/>
        </Node>
        <Node pos="r" depth="1" NCoef="0" IVar="7" Cut="8.1957203149795532e-01" cType="1" res="-4.7245654277503490e-03" rms="4.4979915022850037e-01" purity="5.0303465127944946e-01" nType="0">
          <Node pos="l" depth="2" NCoef="0" IVar="-1" Cut="0.0000000000000000e+00" cType="1" res="-6.0874281916767359e-04" rms="4.5278146862983704e-01" purity="4.8123085498809814e-01" nType="-99"/>
          <Node pos="r" depth="2" NCoef="0" IVar="-1" Cut="0.0000000000000000e+00" cType="1" res="5.8579031610861421e-04" rms="4.3846371769905090e-01" purity="5.8282446861267090e-01" nType="-99"/>
        </Node>
      </Node>
    </BinaryTree>
    <BinaryTree type="DecisionTree" boostWeight="1.0000000000000000e+00" itree="866">
      <Node pos="s" depth="0" NCoef="0" IVar="7" Cut="3.6049538850784302e-01" cType="1" res="1.5130063984543085e-03" rms="4.5232626795768738e-01" purity="4.9831700325012207e-01" nType="0">
        <Node pos="l" depth="1" NCoef="0" IVar="-1" Cut="0.0000000000000000e+00" cType="1" res="2.6482795365154743e-03" rms="4.7329503297805786e-01" purity="4.9646496772766113e-01" nType="-99"/>
        <Node pos="r" depth="1" NCoef="0" IVar="3" Cut="2.1659730374813080e-01" cType="1" res="-6.2945147510617971e-04" rms="4.5097059011459351e-01" purity="4.9842596054077148e-01" nType="0">
          <Node pos="l" depth="2" NCoef="0" IVar="-1" Cut="0.0000000000000000e+00" cType="1" res="1.1198649008292705e-04" rms="4.4997465610504150e-01" purity="4.9670252203941345e-01" nType="-99"/>
          <Node pos="r" depth="2" NCoef="0" IVar="-1" Cut="0.0000000000000000e+00" cType="1" res="-2.4711803998798132e-03" rms="4.6525982022285461e-01" purity="5.2601361274719238e-01" nType="-99"/>
        </Node>
      </Node>
    </BinaryTree>
    <BinaryTree type="DecisionTree" boostWeight="1.0000000000000000e+00" itree="867">
      <Node pos="s" depth="0" NCoef="0" IVar="1" Cut="8.9082324504852295e-01" cType="1" res="5.1287175156176090e-03" rms="4.5149850845336914e-01" purity="5.0456565618515015e-01" nType="0">
        <Node pos="l" depth="1" NCoef="0" IVar="5" Cut="2.3229510989040136e-03" cType="1" res="1.4593249186873436e-02" rms="4.5603027939796448e-01" purity="3.9831933379173279e-01" nType="0">
          <Node pos="l" depth="2" NCoef="0" IVar="-1" Cut="0.0000000000000000e+00" cType="1" res="2.9988784808665514e-03" rms="4.5721203088760376e-01" purity="3.9440923929214478e-01" nType="-99"/>
          <Node pos="r" depth="2" NCoef="0" IVar="-1" Cut="0.0000000000000000e+00" cType="1" res="3.3057571272365749e-05" rms="4.5474034547805786e-01" purity="4.0062171220779419e-01" nType="-99"/>
        </Node>
        <Node pos="r" depth="1" NCoef="0" IVar="6" Cut="9.8667955398559570e-01" cType="1" res="-1.7631729133427143e-03" rms="4.4804391264915466e-01" purity="5.8193218708038330e-01" nType="0">
          <Node pos="l" depth="2" NCoef="0" IVar="-1" Cut="0.0000000000000000e+00" cType="1" res="1.3230559416115284e-03" rms="4.4244119524955750e-01" purity="6.5571379661560059e-01" nType="-99"/>
          <Node pos="r" depth="2" NCoef="0" IVar="-1" Cut="0.0000000000000000e+00" cType="1" res="-1.0427226079627872e-03" rms="4.5087212324142456e-01" purity="5.3792828321456909e-01" nType="-99"/>
        </Node>
      </Node>
    </BinaryTree>
    <BinaryTree type="DecisionTree" boostWeight="1.0000000000000000e+00" itree="868">
      <Node pos="s" depth="0" NCoef="0" IVar="7" Cut="8.5075455904006958e-01" cType="1" res="2.6746597141027451e-03" rms="4.4966733455657959e-01" purity="5.0300246477127075e-01" nType="0">
        <Node pos="l" depth="1" NCoef="0" IVar="3" Cut="5.5412329733371735e-02" cType="1" res="6.9314306601881981e-03" rms="4.5115152001380920e-01" purity="4.9559587240219116e-01" nType="0">
          <Node pos="l" depth="2" NCoef="0" IVar="-1" Cut="0.0000000000000000e+00" cType="1" res="1.0811551474034786e-03" rms="4.4904264807701111e-01" purity="4.6987834572792053e-01" nType="-99"/>
          <Node pos="r" depth="2" NCoef="0" IVar="-1" Cut="0.0000000000000000e+00" cType="1" res="-1.8582251504994929e-04" rms="4.5365470647811890e-01" purity="5.2850222587585449e-01" nType="-99"/>
        </Node>
        <Node pos="r" depth="1" NCoef="0" IVar="0" Cut="1.7335174083709717e+00" cType="1" res="-2.5824286043643951e-02" rms="4.3853855133056641e-01" purity="5.5258917808532715e-01" nType="0">
          <Node pos="l" depth="2" NCoef="0" IVar="-1" Cut="0.0000000000000000e+00" cType="1" res="-3.2487802673131227e-03" rms="4.5886623859405518e-01" purity="4.1680067777633667e-01" nType="-99"/>
          <Node pos="r" depth="2" NCoef="0" IVar="-1" Cut="0.0000000000000000e+00" cType="1" res="-4.3220448424108326e-04" rms="4.1425424814224243e-01" purity="7.0122301578521729e-01" nType="-99"/>
        </Node>
      </Node>
    </BinaryTree>
    <BinaryTree type="DecisionTree" boostWeight="1.0000000000000000e+00" itree="869">
      <Node pos="s" depth="0" NCoef="0" IVar="1" Cut="8.9854055643081665e-01" cType="1" res="5.0004590302705765e-03" rms="4.5144277811050415e-01" purity="5.0322443246841431e-01" nType="0">
        <Node pos="l" depth="1" NCoef="0" IVar="6" Cut="1.1133658885955811e+00" cType="1" res="1.6227083280682564e-02" rms="4.5585039258003235e-01" purity="4.0224471688270569e-01" nType="0">
          <Node pos="l" depth="2" NCoef="0" IVar="-1" Cut="0.0000000000000000e+00" cType="1" res="3.5088948789052665e-04" rms="4.6802070736885071e-01" purity="4.4118428230285645e-01" nType="-99"/>
          <Node pos="r" depth="2" NCoef="0" IVar="-1" Cut="0.0000000000000000e+00" cType="1" res="1.9639830570667982e-03" rms="4.4583275914192200e-01" purity="3.7156704068183899e-01" nType="-99"/>
        </Node>
        <Node pos="r" depth="1" NCoef="0" IVar="1" Cut="9.2425316572189331e-01" cType="1" res="-5.1773334853351116e-03" rms="4.4716590642929077e-01" purity="5.9477025270462036e-01" nType="0">
          <Node pos="l" depth="2" NCoef="0" IVar="-1" Cut="0.0000000000000000e+00" cType="1" res="-1.9036041339859366e-03" rms="4.6272981166839600e-01" purity="4.5807600021362305e-01" nType="-99"/>
          <Node pos="r" depth="2" NCoef="0" IVar="-1" Cut="0.0000000000000000e+00" cType="1" res="4.8711922136135399e-04" rms="4.3782991170883179e-01" purity="6.7059147357940674e-01" nType="-99"/>
        </Node>
      </Node>
    </BinaryTree>
    <BinaryTree type="DecisionTree" boostWeight="1.0000000000000000e+00" itree="870">
      <Node pos="s" depth="0" NCoef="0" IVar="2" Cut="2.2022993469238281e+02" cType="1" res="8.2312861923128366e-04" rms="4.4877800345420837e-01" purity="5.0067436695098877e-01" nType="0">
        <Node pos="l" depth="1" NCoef="0" IVar="0" Cut="1.0856261253356934e+00" cType="1" res="-1.3866386376321316e-02" rms="4.1636294126510620e-01" purity="2.6438665390014648e-01" nType="0">
          <Node pos="l" depth="2" NCoef="0" IVar="-1" Cut="0.0000000000000000e+00" cType="1" res="1.3415426947176456e-03" rms="3.8921120762825012e-01" purity="1.9037777185440063e-01" nType="-99"/>
          <Node pos="r" depth="2" NCoef="0" IVar="-1" Cut="0.0000000000000000e+00" cType="1" res="-2.7093840762972832e-03" rms="4.3606844544410706e-01" purity="3.2397940754890442e-01" nType="-99"/>
        </Node>
        <Node pos="r" depth="1" NCoef="0" IVar="6" Cut="1.8256494998931885e+00" cType="1" res="3.1322643626481295e-03" rms="4.5361962914466858e-01" purity="5.3781789541244507e-01" nType="0">
          <Node pos="l" depth="2" NCoef="0" IVar="-1" Cut="0.0000000000000000e+00" cType="1" res="5.0905924581456929e-05" rms="4.5420017838478088e-01" purity="5.4081630706787109e-01" nType="-99"/>
          <Node pos="r" depth="2" NCoef="0" IVar="-1" Cut="0.0000000000000000e+00" cType="1" res="1.8091865349560976e-03" rms="4.4743949174880981e-01" purity="5.0939387083053589e-01" nType="-99"/>
        </Node>
      </Node>
    </BinaryTree>
    <BinaryTree type="DecisionTree" boostWeight="1.0000000000000000e+00" itree="871">
      <Node pos="s" depth="0" NCoef="0" IVar="0" Cut="4.5373263359069824e+00" cType="1" res="-7.7052419073879719e-03" rms="4.4952097535133362e-01" purity="4.9072295427322388e-01" nType="0">
        <Node pos="l" depth="1" NCoef="0" IVar="0" Cut="-2.2607080638408661e-01" cType="1" res="-9.6346242353320122e-03" rms="4.5428910851478577e-01" purity="4.6699050068855286e-01" nType="0">
          <Node pos="l" depth="2" NCoef="0" IVar="-1" Cut="0.0000000000000000e+00" cType="1" res="-4.4579016976058483e-03" rms="4.0666598081588745e-01" purity="2.5691786408424377e-01" nType="-99"/>
          <Node pos="r" depth="2" NCoef="0" IVar="-1" Cut="0.0000000000000000e+00" cType="1" res="-5.1843782421201468e-04" rms="4.5709511637687683e-01" purity="4.8057126998901367e-01" nType="-99"/>
        </Node>
        <Node pos="r" depth="1" NCoef="0" IVar="-1" Cut="0.0000000000000000e+00" cType="1" res="1.3658996904268861e-03" rms="3.8069260120391846e-01" purity="8.0161947011947632e-01" nType="-99"/>
      </Node>
    </BinaryTree>
    <BinaryTree type="DecisionTree" boostWeight="1.0000000000000000e+00" itree="872">
      <Node pos="s" depth="0" NCoef="0" IVar="5" Cut="2.5685757282190025e-04" cType="1" res="5.5396561510860920e-03" rms="4.4954192638397217e-01" purity="5.0319284200668335e-01" nType="0">
        <Node pos="l" depth="1" NCoef="0" IVar="4" Cut="3.5000377893447876e-01" cType="1" res="-8.4598744288086891e-03" rms="4.1457471251487732e-01" purity="6.8609172105789185e-01" nType="0">
          <Node pos="l" depth="2" NCoef="0" IVar="-1" Cut="0.0000000000000000e+00" cType="1" res="7.6992582762613893e-04" rms="4.2282453179359436e-01" purity="6.6329377889633179e-01" nType="-99"/>
          <Node pos="r" depth="2" NCoef="0" IVar="-1" Cut="0.0000000000000000e+00" cType="1" res="-1.7790555721148849e-03" rms="4.0819787979125977e-01" purity="7.0200455188751221e-01" nType="-99"/>
        </Node>
        <Node pos="r" depth="1" NCoef="0" IVar="0" Cut="3.1511006355285645e+00" cType="1" res="8.8114021345973015e-03" rms="4.5726686716079712e-01" purity="4.6044859290122986e-01" nType="0">
          <Node pos="l" depth="2" NCoef="0" IVar="-1" Cut="0.0000000000000000e+00" cType="1" res="3.9768998976796865e-04" rms="4.6068239212036133e-01" purity="4.1901665925979614e-01" nType="-99"/>
          <Node pos="r" depth="2" NCoef="0" IVar="-1" Cut="0.0000000000000000e+00" cType="1" res="1.6438964521512389e-03" rms="4.3840593099594116e-01" purity="6.7877423763275146e-01" nType="-99"/>
        </Node>
      </Node>
    </BinaryTree>
    <BinaryTree type="DecisionTree" boostWeight="1.0000000000000000e+00" itree="873">
      <Node pos="s" depth="0" NCoef="0" IVar="4" Cut="4.3602213263511658e-01" cType="1" res="3.0577389989048243e-03" rms="4.5089551806449890e-01" purity="5.0146400928497314e-01" nType="0">
        <Node pos="l" depth="1" NCoef="0" IVar="2" Cut="2.7586105346679688e+02" cType="1" res="-6.0011469759047031e-03" rms="4.5358252525329590e-01" purity="4.7269442677497864e-01" nType="0">
          <Node pos="l" depth="2" NCoef="0" IVar="-1" Cut="0.0000000000000000e+00" cType="1" res="1.2146806111559272e-03" rms="4.3950510025024414e-01" purity="3.4652599692344666e-01" nType="-99"/>
          <Node pos="r" depth="2" NCoef="0" IVar="-1" Cut="0.0000000000000000e+00" cType="1" res="-1.0789679363369942e-03" rms="4.5983472466468811e-01" purity="5.3289794921875000e-01" nType="-99"/>
        </Node>
        <Node pos="r" depth="1" NCoef="0" IVar="7" Cut="7.5083845853805542e-01" cType="1" res="1.5405503101646900e-02" rms="4.4691136479377747e-01" purity="5.4067862033843994e-01" nType="0">
          <Node pos="l" depth="2" NCoef="0" IVar="-1" Cut="0.0000000000000000e+00" cType="1" res="5.2409252384677529e-04" rms="4.5245045423507690e-01" purity="5.1333999633789062e-01" nType="-99"/>
          <Node pos="r" depth="2" NCoef="0" IVar="-1" Cut="0.0000000000000000e+00" cType="1" res="1.8670146819204092e-03" rms="4.3898153305053711e-01" purity="5.7806164026260376e-01" nType="-99"/>
        </Node>
      </Node>
    </BinaryTree>
    <BinaryTree type="DecisionTree" boostWeight="1.0000000000000000e+00" itree="874">
      <Node pos="s" depth="0" NCoef="0" IVar="4" Cut="2.6808935403823853e-01" cType="1" res="6.4441392896696925e-04" rms="4.5041620731353760e-01" purity="4.9997475743293762e-01" nType="0">
        <Node pos="l" depth="1" NCoef="0" IVar="1" Cut="8.8296478986740112e-01" cType="1" res="-1.3434492982923985e-02" rms="4.4904804229736328e-01" purity="4.4931772351264954e-01" nType="0">
          <Node pos="l" depth="2" NCoef="0" IVar="-1" Cut="0.0000000000000000e+00" cType="1" res="-2.8050325345247984e-03" rms="4.3751990795135498e-01" purity="3.2569798827171326e-01" nType="-99"/>
          <Node pos="r" depth="2" NCoef="0" IVar="-1" Cut="0.0000000000000000e+00" cType="1" res="-7.9718200140632689e-05" rms="4.5527568459510803e-01" purity="5.2236831188201904e-01" nType="-99"/>
        </Node>
        <Node pos="r" depth="1" NCoef="0" IVar="7" Cut="8.0746454000473022e-01" cType="1" res="6.1664995737373829e-03" rms="4.5083168148994446e-01" purity="5.1984363794326782e-01" nType="0">
          <Node pos="l" depth="2" NCoef="0" IVar="-1" Cut="0.0000000000000000e+00" cType="1" res="7.2204144089482725e-05" rms="4.5287951827049255e-01" purity="4.9975296854972839e-01" nType="-99"/>
          <Node pos="r" depth="2" NCoef="0" IVar="-1" Cut="0.0000000000000000e+00" cType="1" res="1.6152557218447328e-03" rms="4.4358569383621216e-01" purity="5.8609497547149658e-01" nType="-99"/>
        </Node>
      </Node>
    </BinaryTree>
    <BinaryTree type="DecisionTree" boostWeight="1.0000000000000000e+00" itree="875">
      <Node pos="s" depth="0" NCoef="0" IVar="0" Cut="1.5177779197692871e+00" cType="1" res="-4.0492052212357521e-03" rms="4.4764620065689087e-01" purity="4.9540740251541138e-01" nType="0">
        <Node pos="l" depth="1" NCoef="0" IVar="3" Cut="5.6667602621018887e-03" cType="1" res="-1.2945305556058884e-02" rms="4.4733598828315735e-01" purity="3.6441761255264282e-01" nType="0">
          <Node pos="l" depth="2" NCoef="0" IVar="-1" Cut="0.0000000000000000e+00" cType="1" res="-5.5392312788171694e-05" rms="4.3877580761909485e-01" purity="3.5458856821060181e-01" nType="-99"/>
          <Node pos="r" depth="2" NCoef="0" IVar="-1" Cut="0.0000000000000000e+00" cType="1" res="-1.9470229744911194e-03" rms="4.5530787110328674e-01" purity="3.7412548065185547e-01" nType="-99"/>
        </Node>
        <Node pos="r" depth="1" NCoef="0" IVar="1" Cut="8.6769288778305054e-01" cType="1" res="3.9337379857897758e-03" rms="4.4777393341064453e-01" purity="6.1295151710510254e-01" nType="0">
          <Node pos="l" depth="2" NCoef="0" IVar="-1" Cut="0.0000000000000000e+00" cType="1" res="2.5125236716121435e-03" rms="4.7270423173904419e-01" purity="5.2178853750228882e-01" nType="-99"/>
          <Node pos="r" depth="2" NCoef="0" IVar="-1" Cut="0.0000000000000000e+00" cType="1" res="-4.0164461097447202e-05" rms="4.4439104199409485e-01" purity="6.2420147657394409e-01" nType="-99"/>
        </Node>
      </Node>
    </BinaryTree>
    <BinaryTree type="DecisionTree" boostWeight="1.0000000000000000e+00" itree="876">
      <Node pos="s" depth="0" NCoef="0" IVar="4" Cut="2.0477294921875000e-01" cType="1" res="1.0673771612346172e-03" rms="4.5004352927207947e-01" purity="5.0077718496322632e-01" nType="0">
        <Node pos="l" depth="1" NCoef="0" IVar="6" Cut="1.2293319702148438e+00" cType="1" res="1.9564917311072350e-02" rms="4.5475834608078003e-01" purity="4.7483500838279724e-01" nType="0">
          <Node pos="l" depth="2" NCoef="0" IVar="-1" Cut="0.0000000000000000e+00" cType="1" res="2.6437180349603295e-04" rms="4.5501723885536194e-01" purity="5.0384843349456787e-01" nType="-99"/>
          <Node pos="r" depth="2" NCoef="0" IVar="-1" Cut="0.0000000000000000e+00" cType="1" res="3.2271137461066246e-03" rms="4.5345985889434814e-01" purity="4.3386137485504150e-01" nType="-99"/>
        </Node>
        <Node pos="r" depth="1" NCoef="0" IVar="3" Cut="1.3831238448619843e-01" cType="1" res="-3.0174099374562502e-03" rms="4.4889295101165771e-01" purity="5.0650590658187866e-01" nType="0">
          <Node pos="l" depth="2" NCoef="0" IVar="-1" Cut="0.0000000000000000e+00" cType="1" res="1.1406208795960993e-04" rms="4.4819155335426331e-01" purity="5.0221955776214600e-01" nType="-99"/>
          <Node pos="r" depth="2" NCoef="0" IVar="-1" Cut="0.0000000000000000e+00" cType="1" res="-1.6465040389448404e-03" rms="4.5143479108810425e-01" purity="5.2555394172668457e-01" nType="-99"/>
        </Node>
      </Node>
    </BinaryTree>
    <BinaryTree type="DecisionTree" boostWeight="1.0000000000000000e+00" itree="877">
      <Node pos="s" depth="0" NCoef="0" IVar="5" Cut="3.7422669120132923e-03" cType="1" res="-3.5600785631686449e-03" rms="4.4770231842994690e-01" purity="4.9872377514839172e-01" nType="0">
        <Node pos="l" depth="1" NCoef="0" IVar="2" Cut="2.2332936096191406e+02" cType="1" res="-6.5416581928730011e-03" rms="4.4656163454055786e-01" purity="5.0166487693786621e-01" nType="0">
          <Node pos="l" depth="2" NCoef="0" IVar="-1" Cut="0.0000000000000000e+00" cType="1" res="1.6496301395818591e-03" rms="4.2133429646492004e-01" purity="3.0762010812759399e-01" nType="-99"/>
          <Node pos="r" depth="2" NCoef="0" IVar="-1" Cut="0.0000000000000000e+00" cType="1" res="-7.5708067743107677e-04" rms="4.5061665773391724e-01" purity="5.3494620323181152e-01" nType="-99"/>
        </Node>
        <Node pos="r" depth="1" NCoef="0" IVar="-1" Cut="0.0000000000000000e+00" cType="1" res="3.4125684760510921e-03" rms="4.6468073129653931e-01" purity="4.4505900144577026e-01" nType="-99"/>
      </Node>
    </BinaryTree>
    <BinaryTree type="DecisionTree" boostWeight="1.0000000000000000e+00" itree="878">
      <Node pos="s" depth="0" NCoef="0" IVar="4" Cut="1.2929767370223999e-01" cType="1" res="-4.1853231377899647e-03" rms="4.5012104511260986e-01" purity="4.9605232477188110e-01" nType="0">
        <Node pos="l" depth="1" NCoef="0" IVar="-1" Cut="0.0000000000000000e+00" cType="1" res="-3.4447351936250925e-03" rms="4.3841421604156494e-01" purity="3.8850855827331543e-01" nType="-99"/>
        <Node pos="r" depth="1" NCoef="0" IVar="2" Cut="3.4827755737304688e+02" cType="1" res="-1.3499361230060458e-03" rms="4.5078715682029724e-01" purity="5.0353431701660156e-01" nType="0">
          <Node pos="l" depth="2" NCoef="0" IVar="-1" Cut="0.0000000000000000e+00" cType="1" res="3.4991005668416619e-04" rms="4.5115423202514648e-01" purity="4.3692022562026978e-01" nType="-99"/>
          <Node pos="r" depth="2" NCoef="0" IVar="-1" Cut="0.0000000000000000e+00" cType="1" res="-8.7732711108401418e-04" rms="4.4986072182655334e-01" purity="6.3102555274963379e-01" nType="-99"/>
        </Node>
      </Node>
    </BinaryTree>
    <BinaryTree type="DecisionTree" boostWeight="1.0000000000000000e+00" itree="879">
      <Node pos="s" depth="0" NCoef="0" IVar="1" Cut="8.9082354307174683e-01" cType="1" res="3.3921923022717237e-03" rms="4.5188120007514954e-01" purity="5.0594693422317505e-01" nType="0">
        <Node pos="l" depth="1" NCoef="0" IVar="3" Cut="-2.1228909492492676e-02" cType="1" res="1.2723608873784542e-02" rms="4.5773306488990784e-01" purity="3.9526799321174622e-01" nType="0">
          <Node pos="l" depth="2" NCoef="0" IVar="-1" Cut="0.0000000000000000e+00" cType="1" res="2.9975005891174078e-03" rms="4.5633170008659363e-01" purity="3.9127400517463684e-01" nType="-99"/>
          <Node pos="r" depth="2" NCoef="0" IVar="-1" Cut="0.0000000000000000e+00" cType="1" res="-4.2028474854305387e-04" rms="4.5781934261322021e-01" purity="3.9809188246726990e-01" nType="-99"/>
        </Node>
        <Node pos="r" depth="1" NCoef="0" IVar="1" Cut="9.0467482805252075e-01" cType="1" res="-3.2045743428170681e-03" rms="4.4758078455924988e-01" purity="5.8419048786163330e-01" nType="0">
          <Node pos="l" depth="2" NCoef="0" IVar="-1" Cut="0.0000000000000000e+00" cType="1" res="-1.9735011737793684e-03" rms="4.6083918213844299e-01" purity="4.2162719368934631e-01" nType="-99"/>
          <Node pos="r" depth="2" NCoef="0" IVar="-1" Cut="0.0000000000000000e+00" cType="1" res="1.3831791875418276e-04" rms="4.4447430968284607e-01" purity="6.1957848072052002e-01" nType="-99"/>
        </Node>
      </Node>
    </BinaryTree>
    <BinaryTree type="DecisionTree" boostWeight="1.0000000000000000e+00" itree="880">
      <Node pos="s" depth="0" NCoef="0" IVar="0" Cut="1.6776486635208130e+00" cType="1" res="-2.1710680448450148e-04" rms="4.5208638906478882e-01" purity="4.9716120958328247e-01" nType="0">
        <Node pos="l" depth="1" NCoef="0" IVar="6" Cut="1.1613677740097046e+00" cType="1" res="6.3415123149752617e-03" rms="4.5524150133132935e-01" purity="3.8999935984611511e-01" nType="0">
          <Node pos="l" depth="2" NCoef="0" IVar="-1" Cut="0.0000000000000000e+00" cType="1" res="-5.4470839677378535e-04" rms="4.6445792913436890e-01" purity="4.1750463843345642e-01" nType="-99"/>
          <Node pos="r" depth="2" NCoef="0" IVar="-1" Cut="0.0000000000000000e+00" cType="1" res="1.5483743045479059e-03" rms="4.4630214571952820e-01" purity="3.6491772532463074e-01" nType="-99"/>
        </Node>
        <Node pos="r" depth="1" NCoef="0" IVar="7" Cut="7.5168609619140625e-01" cType="1" res="-7.1878279559314251e-03" rms="4.4860363006591797e-01" purity="6.1105644702911377e-01" nType="0">
          <Node pos="l" depth="2" NCoef="0" IVar="-1" Cut="0.0000000000000000e+00" cType="1" res="-9.0222107246518135e-04" rms="4.5642995834350586e-01" purity="5.7519698143005371e-01" nType="-99"/>
          <Node pos="r" depth="2" NCoef="0" IVar="-1" Cut="0.0000000000000000e+00" cType="1" res="4.9575068987905979e-04" rms="4.2923858761787415e-01" purity="6.9560706615447998e-01" nType="-99"/>
        </Node>
      </Node>
    </BinaryTree>
    <BinaryTree type="DecisionTree" boostWeight="1.0000000000000000e+00" itree="881">
      <Node pos="s" depth="0" NCoef="0" IVar="3" Cut="2.0395886898040771e-01" cType="1" res="-8.1525426357984543e-03" rms="4.5004013180732727e-01" purity="4.9158382415771484e-01" nType="0">
        <Node pos="l" depth="1" NCoef="0" IVar="5" Cut="3.3353068865835667e-03" cType="1" res="-4.5385397970676422e-03" rms="4.4878453016281128e-01" purity="4.8902019858360291e-01" nType="0">
          <Node pos="l" depth="2" NCoef="0" IVar="-1" Cut="0.0000000000000000e+00" cType="1" res="-5.9504446107894182e-04" rms="4.4748803973197937e-01" purity="4.9656695127487183e-01" nType="-99"/>
          <Node pos="r" depth="2" NCoef="0" IVar="-1" Cut="0.0000000000000000e+00" cType="1" res="1.9882810302078724e-03" rms="4.5927608013153076e-01" purity="4.1950315237045288e-01" nType="-99"/>
        </Node>
        <Node pos="r" depth="1" NCoef="0" IVar="7" Cut="4.0537312626838684e-01" cType="1" res="-3.9864163845777512e-02" rms="4.5969423651695251e-01" purity="5.1407837867736816e-01" nType="0">
          <Node pos="l" depth="2" NCoef="0" IVar="-1" Cut="0.0000000000000000e+00" cType="1" res="-2.0181883592158556e-03" rms="4.5823666453361511e-01" purity="5.1039415597915649e-01" nType="-99"/>
          <Node pos="r" depth="2" NCoef="0" IVar="-1" Cut="0.0000000000000000e+00" cType="1" res="-3.5527036525309086e-03" rms="4.6090722084045410e-01" purity="5.1779335737228394e-01" nType="-99"/>
        </Node>
      </Node>
    </BinaryTree>
    <BinaryTree type="DecisionTree" boostWeight="1.0000000000000000e+00" itree="882">
      <Node pos="s" depth="0" NCoef="0" IVar="6" Cut="9.9149817228317261e-01" cType="1" res="-1.3616598444059491e-03" rms="4.5088985562324524e-01" purity="4.9639779329299927e-01" nType="0">
        <Node pos="l" depth="1" NCoef="0" IVar="1" Cut="8.8698333501815796e-01" cType="1" res="-1.3070791959762573e-02" rms="4.5356521010398865e-01" purity="5.4290670156478882e-01" nType="0">
          <Node pos="l" depth="2" NCoef="0" IVar="-1" Cut="0.0000000000000000e+00" cType="1" res="-2.3881664965301752e-03" rms="4.5293462276458740e-01" purity="3.9958038926124573e-01" nType="-99"/>
          <Node pos="r" depth="2" NCoef="0" IVar="-1" Cut="0.0000000000000000e+00" cType="1" res="-1.3710324128624052e-04" rms="4.5352452993392944e-01" purity="6.2102371454238892e-01" nType="-99"/>
        </Node>
        <Node pos="r" depth="1" NCoef="0" IVar="7" Cut="4.1673883795738220e-01" cType="1" res="5.1660696044564247e-03" rms="4.4925901293754578e-01" purity="4.7046959400177002e-01" nType="0">
          <Node pos="l" depth="2" NCoef="0" IVar="-1" Cut="0.0000000000000000e+00" cType="1" res="2.5187665596604347e-03" rms="4.4627711176872253e-01" purity="4.5508557558059692e-01" nType="-99"/>
          <Node pos="r" depth="2" NCoef="0" IVar="-1" Cut="0.0000000000000000e+00" cType="1" res="9.0116991486866027e-05" rms="4.4952407479286194e-01" purity="4.7258350253105164e-01" nType="-99"/>
        </Node>
      </Node>
    </BinaryTree>
    <BinaryTree type="DecisionTree" boostWeight="1.0000000000000000e+00" itree="883">
      <Node pos="s" depth="0" NCoef="0" IVar="3" Cut="1.4993070065975189e-01" cType="1" res="-1.9543457310646772e-03" rms="4.5080956816673279e-01" purity="4.9835765361785889e-01" nType="0">
        <Node pos="l" depth="1" NCoef="0" IVar="7" Cut="8.7223434448242188e-01" cType="1" res="2.6447752024978399e-03" rms="4.4915941357612610e-01" purity="4.9253651499748230e-01" nType="0">
          <Node pos="l" depth="2" NCoef="0" IVar="-1" Cut="0.0000000000000000e+00" cType="1" res="-6.6662796598393470e-05" rms="4.4940918684005737e-01" purity="4.7818064689636230e-01" nType="-99"/>
          <Node pos="r" depth="2" NCoef="0" IVar="-1" Cut="0.0000000000000000e+00" cType="1" res="1.9707803148776293e-03" rms="4.4646188616752625e-01" purity="5.9784966707229614e-01" nType="-99"/>
        </Node>
        <Node pos="r" depth="1" NCoef="0" IVar="1" Cut="8.7520039081573486e-01" cType="1" res="-2.1100940182805061e-02" rms="4.5711833238601685e-01" purity="5.2259159088134766e-01" nType="0">
          <Node pos="l" depth="2" NCoef="0" IVar="-1" Cut="0.0000000000000000e+00" cType="1" res="-2.9922823887318373e-03" rms="4.6306216716766357e-01" purity="3.7809431552886963e-01" nType="-99"/>
          <Node pos="r" depth="2" NCoef="0" IVar="-1" Cut="0.0000000000000000e+00" cType="1" res="-8.6861546151340008e-04" rms="4.5441168546676636e-01" purity="5.8106303215026855e-01" nType="-99"/>
        </Node>
      </Node>
    </BinaryTree>
    <BinaryTree type="DecisionTree" boostWeight="1.0000000000000000e+00" itree="884">
      <Node pos="s" depth="0" NCoef="0" IVar="7" Cut="3.5822257399559021e-01" cType="1" res="1.2716498458757997e-03" rms="4.5257082581520081e-01" purity="4.9812313914299011e-01" nType="0">
        <Node pos="l" depth="1" NCoef="0" IVar="-1" Cut="0.0000000000000000e+00" cType="1" res="2.3123582359403372e-03" rms="4.7679716348648071e-01" purity="4.9619331955909729e-01" nType="-99"/>
        <Node pos="r" depth="1" NCoef="0" IVar="3" Cut="-3.0141117051243782e-02" cType="1" res="-5.1678961608558893e-04" rms="4.5108658075332642e-01" purity="4.9823299050331116e-01" nType="0">
          <Node pos="l" depth="2" NCoef="0" IVar="-1" Cut="0.0000000000000000e+00" cType="1" res="7.2444125544279814e-04" rms="4.4671559333801270e-01" purity="4.8082357645034790e-01" nType="-99"/>
          <Node pos="r" depth="2" NCoef="0" IVar="-1" Cut="0.0000000000000000e+00" cType="1" res="-5.3409807151183486e-04" rms="4.5389917492866516e-01" purity="5.1005899906158447e-01" nType="-99"/>
        </Node>
      </Node>
    </BinaryTree>
    <BinaryTree type="DecisionTree" boostWeight="1.0000000000000000e+00" itree="885">
      <Node pos="s" depth="0" NCoef="0" IVar="4" Cut="6.6829729080200195e-01" cType="1" res="3.1608296558260918e-03" rms="4.5164355635643005e-01" purity="5.0331950187683105e-01" nType="0">
        <Node pos="l" depth="1" NCoef="0" IVar="0" Cut="2.3400276899337769e-01" cType="1" res="1.3102144293952733e-04" rms="4.5190086960792542e-01" purity="4.9654495716094971e-01" nType="0">
          <Node pos="l" depth="2" NCoef="0" IVar="-1" Cut="0.0000000000000000e+00" cType="1" res="1.9080723868682981e-03" rms="4.3795359134674072e-01" purity="3.2633203268051147e-01" nType="-99"/>
          <Node pos="r" depth="2" NCoef="0" IVar="-1" Cut="0.0000000000000000e+00" cType="1" res="-2.3999645782168955e-04" rms="4.5413762331008911e-01" purity="5.2553850412368774e-01" nType="-99"/>
        </Node>
        <Node pos="r" depth="1" NCoef="0" IVar="-1" Cut="0.0000000000000000e+00" cType="1" res="2.2376778069883585e-03" rms="4.4813179969787598e-01" purity="5.6825160980224609e-01" nType="-99"/>
      </Node>
    </BinaryTree>
    <BinaryTree type="DecisionTree" boostWeight="1.0000000000000000e+00" itree="886">
      <Node pos="s" depth="0" NCoef="0" IVar="3" Cut="7.9431280493736267e-02" cType="1" res="2.6323907077312469e-03" rms="4.4800952076911926e-01" purity="5.0193744897842407e-01" nType="0">
        <Node pos="l" depth="1" NCoef="0" IVar="5" Cut="2.4400628171861172e-03" cType="1" res="-4.9650636501610279e-03" rms="4.4293481111526489e-01" purity="4.8039099574089050e-01" nType="0">
          <Node pos="l" depth="2" NCoef="0" IVar="-1" Cut="0.0000000000000000e+00" cType="1" res="6.1509592342190444e-05" rms="4.4089856743812561e-01" purity="5.1916873455047607e-01" nType="-99"/>
          <Node pos="r" depth="2" NCoef="0" IVar="-1" Cut="0.0000000000000000e+00" cType="1" res="-1.7907100263983011e-03" rms="4.4883456826210022e-01" purity="3.5745042562484741e-01" nType="-99"/>
        </Node>
        <Node pos="r" depth="1" NCoef="0" IVar="5" Cut="2.7700441423803568e-03" cType="1" res="1.7496541142463684e-02" rms="4.5741051435470581e-01" purity="5.4409241676330566e-01" nType="0">
          <Node pos="l" depth="2" NCoef="0" IVar="-1" Cut="0.0000000000000000e+00" cType="1" res="4.9699156079441309e-04" rms="4.5150643587112427e-01" purity="5.5829536914825439e-01" nType="-99"/>
          <Node pos="r" depth="2" NCoef="0" IVar="-1" Cut="0.0000000000000000e+00" cType="1" res="3.8694597315043211e-03" rms="4.7821781039237976e-01" purity="4.8678177595138550e-01" nType="-99"/>
        </Node>
      </Node>
    </BinaryTree>
    <BinaryTree type="DecisionTree" boostWeight="1.0000000000000000e+00" itree="887">
      <Node pos="s" depth="0" NCoef="0" IVar="1" Cut="9.6795386075973511e-01" cType="1" res="6.1250631697475910e-03" rms="4.4939261674880981e-01" purity="5.0568729639053345e-01" nType="0">
        <Node pos="l" depth="1" NCoef="0" IVar="1" Cut="8.6066019535064697e-01" cType="1" res="3.2886445987969637e-03" rms="4.5751151442527771e-01" purity="4.6573704481124878e-01" nType="0">
          <Node pos="l" depth="2" NCoef="0" IVar="-1" Cut="0.0000000000000000e+00" cType="1" res="1.8358165398240089e-03" rms="4.5709383487701416e-01" purity="3.8889753818511963e-01" nType="-99"/>
          <Node pos="r" depth="2" NCoef="0" IVar="-1" Cut="0.0000000000000000e+00" cType="1" res="-2.6569958208710887e-05" rms="4.5748433470726013e-01" purity="4.7903978824615479e-01" nType="-99"/>
        </Node>
        <Node pos="r" depth="1" NCoef="0" IVar="-1" Cut="0.0000000000000000e+00" cType="1" res="2.1387424785643816e-03" rms="3.8224822282791138e-01" purity="8.0586916208267212e-01" nType="-99"/>
      </Node>
    </BinaryTree>
    <BinaryTree type="DecisionTree" boostWeight="1.0000000000000000e+00" itree="888">
      <Node pos="s" depth="0" NCoef="0" IVar="0" Cut="3.0759280920028687e-01" cType="1" res="-2.7470651548355818e-03" rms="4.4955855607986450e-01" purity="4.9611362814903259e-01" nType="0">
        <Node pos="l" depth="1" NCoef="0" IVar="2" Cut="2.5227774047851562e+02" cType="1" res="2.0546087995171547e-02" rms="4.4112557172775269e-01" purity="3.2797649502754211e-01" nType="0">
          <Node pos="l" depth="2" NCoef="0" IVar="-1" Cut="0.0000000000000000e+00" cType="1" res="-1.1842002859339118e-03" rms="3.7088051438331604e-01" purity="1.6764943301677704e-01" nType="-99"/>
          <Node pos="r" depth="2" NCoef="0" IVar="-1" Cut="0.0000000000000000e+00" cType="1" res="2.5690658949315548e-03" rms="4.6916723251342773e-01" purity="4.0127998590469360e-01" nType="-99"/>
        </Node>
        <Node pos="r" depth="1" NCoef="0" IVar="3" Cut="-9.6639171242713928e-02" cType="1" res="-7.2511667385697365e-03" rms="4.5103225111961365e-01" purity="5.2862554788589478e-01" nType="0">
          <Node pos="l" depth="2" NCoef="0" IVar="-1" Cut="0.0000000000000000e+00" cType="1" res="-2.4994800332933664e-03" rms="4.3542116880416870e-01" purity="4.5281052589416504e-01" nType="-99"/>
          <Node pos="r" depth="2" NCoef="0" IVar="-1" Cut="0.0000000000000000e+00" cType="1" res="-1.5929788060020655e-04" rms="4.5384818315505981e-01" purity="5.4341244697570801e-01" nType="-99"/>
        </Node>
      </Node>
    </BinaryTree>
    <BinaryTree type="DecisionTree" boostWeight="1.0000000000000000e+00" itree="889">
      <Node pos="s" depth="0" NCoef="0" IVar="2" Cut="2.0327479553222656e+02" cType="1" res="5.4319860646501184e-04" rms="4.4799551367759705e-01" purity="5.0268256664276123e-01" nType="0">
        <Node pos="l" depth="1" NCoef="0" IVar="-1" Cut="0.0000000000000000e+00" cType="1" res="-2.8349186759442091e-03" rms="3.8882562518119812e-01" purity="2.3325876891613007e-01" nType="-99"/>
        <Node pos="r" depth="1" NCoef="0" IVar="6" Cut="7.5806391239166260e-01" cType="1" res="2.8011624235659838e-03" rms="4.5252764225006104e-01" purity="5.2524900436401367e-01" nType="0">
          <Node pos="l" depth="2" NCoef="0" IVar="-1" Cut="0.0000000000000000e+00" cType="1" res="-9.5038622384890914e-04" rms="4.5020943880081177e-01" purity="5.8186990022659302e-01" nType="-99"/>
          <Node pos="r" depth="2" NCoef="0" IVar="-1" Cut="0.0000000000000000e+00" cType="1" res="4.3476815335452557e-04" rms="4.5292323827743530e-01" purity="5.1376092433929443e-01" nType="-99"/>
        </Node>
      </Node>
    </BinaryTree>
    <BinaryTree type="DecisionTree" boostWeight="1.0000000000000000e+00" itree="890">
      <Node pos="s" depth="0" NCoef="0" IVar="7" Cut="8.9189922809600830e-01" cType="1" res="-2.9493775218725204e-04" rms="4.4945868849754333e-01" purity="4.9753466248512268e-01" nType="0">
        <Node pos="l" depth="1" NCoef="0" IVar="1" Cut="8.5995757579803467e-01" cType="1" res="1.8944231560453773e-03" rms="4.5098686218261719e-01" purity="4.9285349249839783e-01" nType="0">
          <Node pos="l" depth="2" NCoef="0" IVar="-1" Cut="0.0000000000000000e+00" cType="1" res="1.5479128342121840e-03" rms="4.5295083522796631e-01" purity="3.7525466084480286e-01" nType="-99"/>
          <Node pos="r" depth="2" NCoef="0" IVar="-1" Cut="0.0000000000000000e+00" cType="1" res="-4.5521293941419572e-05" rms="4.5065903663635254e-01" purity="5.0891673564910889e-01" nType="-99"/>
        </Node>
        <Node pos="r" depth="1" NCoef="0" IVar="-1" Cut="0.0000000000000000e+00" cType="1" res="-2.2260560654103756e-03" rms="4.2639735341072083e-01" purity="5.6284677982330322e-01" nType="-99"/>
      </Node>
    </BinaryTree>
    <BinaryTree type="DecisionTree" boostWeight="1.0000000000000000e+00" itree="891">
      <Node pos="s" depth="0" NCoef="0" IVar="6" Cut="1.6475056409835815e+00" cType="1" res="-4.1187508031725883e-03" rms="4.5079839229583740e-01" purity="4.9684444069862366e-01" nType="0">
        <Node pos="l" depth="1" NCoef="0" IVar="7" Cut="5.8156311511993408e-01" cType="1" res="-7.5860335491597652e-03" rms="4.5400750637054443e-01" purity="5.0804865360260010e-01" nType="0">
          <Node pos="l" depth="2" NCoef="0" IVar="-1" Cut="0.0000000000000000e+00" cType="1" res="5.0318980356678367e-04" rms="4.5472732186317444e-01" purity="4.7845733165740967e-01" nType="-99"/>
          <Node pos="r" depth="2" NCoef="0" IVar="-1" Cut="0.0000000000000000e+00" cType="1" res="-1.1404824908822775e-03" rms="4.5337727665901184e-01" purity="5.2516490221023560e-01" nType="-99"/>
        </Node>
        <Node pos="r" depth="1" NCoef="0" IVar="6" Cut="1.9899721145629883e+00" cType="1" res="1.3077002950012684e-02" rms="4.3412378430366516e-01" purity="4.4127780199050903e-01" nType="0">
          <Node pos="l" depth="2" NCoef="0" IVar="-1" Cut="0.0000000000000000e+00" cType="1" res="2.3619283456355333e-03" rms="4.4545865058898926e-01" purity="4.5535692572593689e-01" nType="-99"/>
          <Node pos="r" depth="2" NCoef="0" IVar="-1" Cut="0.0000000000000000e+00" cType="1" res="-1.5479964204132557e-03" rms="4.1031983494758606e-01" purity="4.1515913605690002e-01" nType="-99"/>
        </Node>
      </Node>
    </BinaryTree>
    <BinaryTree type="DecisionTree" boostWeight="1.0000000000000000e+00" itree="892">
      <Node pos="s" depth="0" NCoef="0" IVar="2" Cut="2.0004200744628906e+02" cType="1" res="2.1890369243919849e-03" rms="4.4907596707344055e-01" purity="5.0091177225112915e-01" nType="0">
        <Node pos="l" depth="1" NCoef="0" IVar="-1" Cut="0.0000000000000000e+00" cType="1" res="-3.2325040083378553e-03" rms="3.8913035392761230e-01" purity="2.2508344054222107e-01" nType="-99"/>
        <Node pos="r" depth="1" NCoef="0" IVar="3" Cut="2.5570370256900787e-02" cType="1" res="4.4303145259618759e-03" rms="4.5290955901145935e-01" purity="5.2031314373016357e-01" nType="0">
          <Node pos="l" depth="2" NCoef="0" IVar="-1" Cut="0.0000000000000000e+00" cType="1" res="8.7992177577689290e-04" rms="4.5007732510566711e-01" purity="5.0331842899322510e-01" nType="-99"/>
          <Node pos="r" depth="2" NCoef="0" IVar="-1" Cut="0.0000000000000000e+00" cType="1" res="-3.2369140535593033e-04" rms="4.5607024431228638e-01" purity="5.4041922092437744e-01" nType="-99"/>
        </Node>
      </Node>
    </BinaryTree>
    <BinaryTree type="DecisionTree" boostWeight="1.0000000000000000e+00" itree="893">
      <Node pos="s" depth="0" NCoef="0" IVar="4" Cut="3.4393090009689331e-01" cType="1" res="-2.7891821227967739e-03" rms="4.4916576147079468e-01" purity="4.9862885475158691e-01" nType="0">
        <Node pos="l" depth="1" NCoef="0" IVar="5" Cut="3.0769808217883110e-03" cType="1" res="-1.8408451229333878e-02" rms="4.4852346181869507e-01" purity="4.5445370674133301e-01" nType="0">
          <Node pos="l" depth="2" NCoef="0" IVar="-1" Cut="0.0000000000000000e+00" cType="1" res="-8.5375568596646190e-04" rms="4.5070570707321167e-01" purity="4.7521415352821350e-01" nType="-99"/>
          <Node pos="r" depth="2" NCoef="0" IVar="-1" Cut="0.0000000000000000e+00" cType="1" res="-5.1164226606488228e-03" rms="4.3064963817596436e-01" purity="3.1404700875282288e-01" nType="-99"/>
        </Node>
        <Node pos="r" depth="1" NCoef="0" IVar="2" Cut="3.6666488647460938e+02" cType="1" res="8.4227509796619415e-03" rms="4.4929161667823792e-01" purity="5.3033900260925293e-01" nType="0">
          <Node pos="l" depth="2" NCoef="0" IVar="-1" Cut="0.0000000000000000e+00" cType="1" res="1.1352371657267213e-03" rms="4.5152190327644348e-01" purity="4.8236221075057983e-01" nType="-99"/>
          <Node pos="r" depth="2" NCoef="0" IVar="-1" Cut="0.0000000000000000e+00" cType="1" res="-9.9976570345461369e-04" rms="4.4154286384582520e-01" purity="6.7890328168869019e-01" nType="-99"/>
        </Node>
      </Node>
    </BinaryTree>
    <BinaryTree type="DecisionTree" boostWeight="1.0000000000000000e+00" itree="894">
      <Node pos="s" depth="0" NCoef="0" IVar="4" Cut="1.5136568248271942e-01" cType="1" res="-1.5067406930029392e-03" rms="4.5011979341506958e-01" purity="5.0127941370010376e-01" nType="0">
        <Node pos="l" depth="1" NCoef="0" IVar="-1" Cut="0.0000000000000000e+00" cType="1" res="2.2272474598139524e-03" rms="4.5069953799247742e-01" purity="4.7964149713516235e-01" nType="-99"/>
        <Node pos="r" depth="1" NCoef="0" IVar="5" Cut="5.1372370216995478e-04" cType="1" res="-4.9043931066989899e-03" rms="4.4992434978485107e-01" purity="5.0356882810592651e-01" nType="0">
          <Node pos="l" depth="2" NCoef="0" IVar="-1" Cut="0.0000000000000000e+00" cType="1" res="-1.5530433738604188e-03" rms="4.2847469449043274e-01" purity="6.3991832733154297e-01" nType="-99"/>
          <Node pos="r" depth="2" NCoef="0" IVar="-1" Cut="0.0000000000000000e+00" cType="1" res="1.0849162936210632e-04" rms="4.5844250917434692e-01" purity="4.4655764102935791e-01" nType="-99"/>
        </Node>
      </Node>
    </BinaryTree>
    <BinaryTree type="DecisionTree" boostWeight="1.0000000000000000e+00" itree="895">
      <Node pos="s" depth="0" NCoef="0" IVar="4" Cut="2.4660927057266235e-01" cType="1" res="-2.5997103657573462e-03" rms="4.4899871945381165e-01" purity="4.9731197953224182e-01" nType="0">
        <Node pos="l" depth="1" NCoef="0" IVar="6" Cut="1.1372110843658447e+00" cType="1" res="-1.9462367519736290e-02" rms="4.4540065526962280e-01" purity="4.4477123022079468e-01" nType="0">
          <Node pos="l" depth="2" NCoef="0" IVar="-1" Cut="0.0000000000000000e+00" cType="1" res="-2.9837389010936022e-03" rms="4.4583356380462646e-01" purity="4.7867920994758606e-01" nType="-99"/>
          <Node pos="r" depth="2" NCoef="0" IVar="-1" Cut="0.0000000000000000e+00" cType="1" res="3.5230835783295333e-04" rms="4.4369512796401978e-01" purity="4.0729859471321106e-01" nType="-99"/>
        </Node>
        <Node pos="r" depth="1" NCoef="0" IVar="4" Cut="3.3386498689651489e-01" cType="1" res="2.8598236385732889e-03" rms="4.5002207159996033e-01" purity="5.1432281732559204e-01" nType="0">
          <Node pos="l" depth="2" NCoef="0" IVar="-1" Cut="0.0000000000000000e+00" cType="1" res="1.5504861949011683e-03" rms="4.4736802577972412e-01" purity="5.0464588403701782e-01" nType="-99"/>
          <Node pos="r" depth="2" NCoef="0" IVar="-1" Cut="0.0000000000000000e+00" cType="1" res="-1.7952958296518773e-04" rms="4.5062381029129028e-01" purity="5.1705378293991089e-01" nType="-99"/>
        </Node>
      </Node>
    </BinaryTree>
    <BinaryTree type="DecisionTree" boostWeight="1.0000000000000000e+00" itree="896">
      <Node pos="s" depth="0" NCoef="0" IVar="2" Cut="5.0586917114257812e+02" cType="1" res="1.6484690422657877e-04" rms="4.5359089970588684e-01" purity="4.9854177236557007e-01" nType="0">
        <Node pos="l" depth="1" NCoef="0" IVar="7" Cut="8.6690711975097656e-01" cType="1" res="2.9556888621300459e-03" rms="4.5365965366363525e-01" purity="4.8016852140426636e-01" nType="0">
          <Node pos="l" depth="2" NCoef="0" IVar="-1" Cut="0.0000000000000000e+00" cType="1" res="4.0018858271650970e-04" rms="4.5490431785583496e-01" purity="4.7490641474723816e-01" nType="-99"/>
          <Node pos="r" depth="2" NCoef="0" IVar="-1" Cut="0.0000000000000000e+00" cType="1" res="-1.4545161975547671e-03" rms="4.4126692414283752e-01" purity="5.2892690896987915e-01" nType="-99"/>
        </Node>
        <Node pos="r" depth="1" NCoef="0" IVar="-1" Cut="0.0000000000000000e+00" cType="1" res="-1.6921309288591146e-03" rms="4.5226445794105530e-01" purity="6.5853637456893921e-01" nType="-99"/>
      </Node>
    </BinaryTree>
    <BinaryTree type="DecisionTree" boostWeight="1.0000000000000000e+00" itree="897">
      <Node pos="s" depth="0" NCoef="0" IVar="1" Cut="9.1010618209838867e-01" cType="1" res="3.9935070089995861e-03" rms="4.5041948556900024e-01" purity="5.0429147481918335e-01" nType="0">
        <Node pos="l" depth="1" NCoef="0" IVar="3" Cut="-8.5324384272098541e-02" cType="1" res="-3.9683408103883266e-03" rms="4.5775285363197327e-01" purity="3.9372184872627258e-01" nType="0">
          <Node pos="l" depth="2" NCoef="0" IVar="-1" Cut="0.0000000000000000e+00" cType="1" res="1.6397498548030853e-03" rms="4.5302668213844299e-01" purity="3.8140019774436951e-01" nType="-99"/>
          <Node pos="r" depth="2" NCoef="0" IVar="-1" Cut="0.0000000000000000e+00" cType="1" res="-7.8968238085508347e-04" rms="4.5881092548370361e-01" purity="3.9711263775825500e-01" nType="-99"/>
        </Node>
        <Node pos="r" depth="1" NCoef="0" IVar="7" Cut="8.5217380523681641e-01" cType="1" res="1.3872166164219379e-02" rms="4.4095137715339661e-01" purity="6.4148068428039551e-01" nType="0">
          <Node pos="l" depth="2" NCoef="0" IVar="-1" Cut="0.0000000000000000e+00" cType="1" res="6.2251067720353603e-04" rms="4.4632968306541443e-01" purity="6.2453073263168335e-01" nType="-99"/>
          <Node pos="r" depth="2" NCoef="0" IVar="-1" Cut="0.0000000000000000e+00" cType="1" res="2.9945285059511662e-03" rms="4.0602356195449829e-01" purity="7.4299484491348267e-01" nType="-99"/>
        </Node>
      </Node>
    </BinaryTree>
    <BinaryTree type="DecisionTree" boostWeight="1.0000000000000000e+00" itree="898">
      <Node pos="s" depth="0" NCoef="0" IVar="7" Cut="6.4170789718627930e-01" cType="1" res="4.2353771277703345e-04" rms="4.5108598470687866e-01" purity="5.0177645683288574e-01" nType="0">
        <Node pos="l" depth="1" NCoef="0" IVar="0" Cut="8.7153899669647217e-01" cType="1" res="9.6588358283042908e-03" rms="4.5185104012489319e-01" purity="4.6246048808097839e-01" nType="0">
          <Node pos="l" depth="2" NCoef="0" IVar="-1" Cut="0.0000000000000000e+00" cType="1" res="2.3466080892831087e-03" rms="4.4033715128898621e-01" purity="3.2808518409729004e-01" nType="-99"/>
          <Node pos="r" depth="2" NCoef="0" IVar="-1" Cut="0.0000000000000000e+00" cType="1" res="2.0366314856801182e-04" rms="4.5630922913551331e-01" purity="5.1743924617767334e-01" nType="-99"/>
        </Node>
        <Node pos="r" depth="1" NCoef="0" IVar="4" Cut="6.4679396152496338e-01" cType="1" res="-8.2342661917209625e-03" rms="4.5019558072090149e-01" purity="5.3863400220870972e-01" nType="0">
          <Node pos="l" depth="2" NCoef="0" IVar="-1" Cut="0.0000000000000000e+00" cType="1" res="-1.0503203375265002e-03" rms="4.5212504267692566e-01" purity="5.3110522031784058e-01" nType="-99"/>
          <Node pos="r" depth="2" NCoef="0" IVar="-1" Cut="0.0000000000000000e+00" cType="1" res="1.2109159724786878e-03" rms="4.4174152612686157e-01" purity="5.6775414943695068e-01" nType="-99"/>
        </Node>
      </Node>
    </BinaryTree>
    <BinaryTree type="DecisionTree" boostWeight="1.0000000000000000e+00" itree="899">
      <Node pos="s" depth="0" NCoef="0" IVar="1" Cut="9.2553347349166870e-01" cType="1" res="-5.6626833975315094e-03" rms="4.4855850934982300e-01" purity="4.9401035904884338e-01" nType="0">
        <Node pos="l" depth="1" NCoef="0" IVar="5" Cut="1.4195296680554748e-03" cType="1" res="-9.7143258899450302e-03" rms="4.5362225174903870e-01" purity="4.0683236718177795e-01" nType="0">
          <Node pos="l" depth="2" NCoef="0" IVar="-1" Cut="0.0000000000000000e+00" cType="1" res="-2.2261971607804298e-03" rms="4.4853404164314270e-01" purity="3.9313328266143799e-01" nType="-99"/>
          <Node pos="r" depth="2" NCoef="0" IVar="-1" Cut="0.0000000000000000e+00" cType="1" res="-5.5070893722586334e-05" rms="4.5569166541099548e-01" purity="4.1320157051086426e-01" nType="-99"/>
        </Node>
        <Node pos="r" depth="1" NCoef="0" IVar="4" Cut="3.4694099426269531e-01" cType="1" res="2.4223667569458485e-03" rms="4.3816703557968140e-01" purity="6.6797399520874023e-01" nType="0">
          <Node pos="l" depth="2" NCoef="0" IVar="-1" Cut="0.0000000000000000e+00" cType="1" res="-6.2195537611842155e-04" rms="4.5105928182601929e-01" purity="6.2117767333984375e-01" nType="-99"/>
          <Node pos="r" depth="2" NCoef="0" IVar="-1" Cut="0.0000000000000000e+00" cType="1" res="7.3864904697984457e-04" rms="4.2882716655731201e-01" purity="7.0041626691818237e-01" nType="-99"/>
        </Node>
      </Node>
    </BinaryTree>
    <BinaryTree type="DecisionTree" boostWeight="1.0000000000000000e+00" itree="900">
      <Node pos="s" depth="0" NCoef="0" IVar="6" Cut="1.2921327352523804e+00" cType="1" res="3.3975657424889505e-04" rms="4.4928589463233948e-01" purity="4.9895712733268738e-01" nType="0">
        <Node pos="l" depth="1" NCoef="0" IVar="7" Cut="7.3255956172943115e-01" cType="1" res="5.6637027300894260e-03" rms="4.5564156770706177e-01" purity="5.4030388593673706e-01" nType="0">
          <Node pos="l" depth="2" NCoef="0" IVar="-1" Cut="0.0000000000000000e+00" cType="1" res="9.4721309142187238e-04" rms="4.5868304371833801e-01" purity="5.2024120092391968e-01" nType="-99"/>
          <Node pos="r" depth="2" NCoef="0" IVar="-1" Cut="0.0000000000000000e+00" cType="1" res="-6.1286054551601410e-04" rms="4.4979205727577209e-01" purity="5.7619875669479370e-01" nType="-99"/>
        </Node>
        <Node pos="r" depth="1" NCoef="0" IVar="0" Cut="2.9979932308197021e+00" cType="1" res="-8.0605046823620796e-03" rms="4.3893936276435852e-01" purity="4.3371918797492981e-01" nType="0">
          <Node pos="l" depth="2" NCoef="0" IVar="-1" Cut="0.0000000000000000e+00" cType="1" res="-1.2266874546185136e-03" rms="4.3777850270271301e-01" purity="3.7019973993301392e-01" nType="-99"/>
          <Node pos="r" depth="2" NCoef="0" IVar="-1" Cut="0.0000000000000000e+00" cType="1" res="1.1885514250025153e-03" rms="4.4226032495498657e-01" purity="6.6978496313095093e-01" nType="-99"/>
        </Node>
      </Node>
    </BinaryTree>
    <BinaryTree type="DecisionTree" boostWeight="1.0000000000000000e+00" itree="901">
      <Node pos="s" depth="0" NCoef="0" IVar="5" Cut="1.2821162817999721e-04" cType="1" res="6.8630212917923927e-03" rms="4.5124226808547974e-01" purity="5.0540965795516968e-01" nType="0">
        <Node pos="l" depth="1" NCoef="0" IVar="5" Cut="4.2738400225061923e-05" cType="1" res="-1.8183141946792603e-02" rms="4.0857374668121338e-01" purity="7.1503394842147827e-01" nType="0">
          <Node pos="l" depth="2" NCoef="0" IVar="-1" Cut="0.0000000000000000e+00" cType="1" res="4.8237456940114498e-04" rms="3.9005514979362488e-01" purity="7.7473688125610352e-01" nType="-99"/>
          <Node pos="r" depth="2" NCoef="0" IVar="-1" Cut="0.0000000000000000e+00" cType="1" res="-3.5476444754749537e-03" rms="4.2630389332771301e-01" purity="6.4996439218521118e-01" nType="-99"/>
        </Node>
        <Node pos="r" depth="1" NCoef="0" IVar="5" Cut="2.5017072912305593e-03" cType="1" res="1.0596535168588161e-02" rms="4.5714429020881653e-01" purity="4.7416198253631592e-01" nType="0">
          <Node pos="l" depth="2" NCoef="0" IVar="-1" Cut="0.0000000000000000e+00" cType="1" res="1.1902006808668375e-03" rms="4.5752391219139099e-01" purity="5.0271314382553101e-01" nType="-99"/>
          <Node pos="r" depth="2" NCoef="0" IVar="-1" Cut="0.0000000000000000e+00" cType="1" res="-5.2831502398476005e-04" rms="4.5560216903686523e-01" purity="3.9407253265380859e-01" nType="-99"/>
        </Node>
      </Node>
    </BinaryTree>
    <BinaryTree type="DecisionTree" boostWeight="1.0000000000000000e+00" itree="902">
      <Node pos="s" depth="0" NCoef="0" IVar="3" Cut="-7.1883447468280792e-02" cType="1" res="1.2436836259439588e-03" rms="4.4945484399795532e-01" purity="5.0033289194107056e-01" nType="0">
        <Node pos="l" depth="1" NCoef="0" IVar="6" Cut="1.4336082935333252e+00" cType="1" res="1.5799716114997864e-02" rms="4.4326791167259216e-01" purity="4.8001301288604736e-01" nType="0">
          <Node pos="l" depth="2" NCoef="0" IVar="-1" Cut="0.0000000000000000e+00" cType="1" res="1.6856777947396040e-03" rms="4.5225325226783752e-01" purity="5.1604247093200684e-01" nType="-99"/>
          <Node pos="r" depth="2" NCoef="0" IVar="-1" Cut="0.0000000000000000e+00" cType="1" res="-5.5093585979193449e-04" rms="4.1574749350547791e-01" purity="3.7716290354728699e-01" nType="-99"/>
        </Node>
        <Node pos="r" depth="1" NCoef="0" IVar="1" Cut="8.5612076520919800e-01" cType="1" res="-3.8390827830880880e-03" rms="4.5148476958274841e-01" purity="5.0742834806442261e-01" nType="0">
          <Node pos="l" depth="2" NCoef="0" IVar="-1" Cut="0.0000000000000000e+00" cType="1" res="-3.0841354746371508e-03" rms="4.4514703750610352e-01" purity="3.3113059401512146e-01" nType="-99"/>
          <Node pos="r" depth="2" NCoef="0" IVar="-1" Cut="0.0000000000000000e+00" cType="1" res="-6.7222281359136105e-05" rms="4.5187306404113770e-01" purity="5.2177017927169800e-01" nType="-99"/>
        </Node>
      </Node>
    </BinaryTree>
    <BinaryTree type="DecisionTree" boostWeight="1.0000000000000000e+00" itree="903">
      <Node pos="s" depth="0" NCoef="0" IVar="7" Cut="4.9996346235275269e-01" cType="1" res="1.2270921142771840e-03" rms="4.5191100239753723e-01" purity="5.0100970268249512e-01" nType="0">
        <Node pos="l" depth="1" NCoef="0" IVar="5" Cut="1.1273310519754887e-03" cType="1" res="1.7805801704525948e-02" rms="4.5313376188278198e-01" purity="4.5667499303817749e-01" nType="0">
          <Node pos="l" depth="2" NCoef="0" IVar="-1" Cut="0.0000000000000000e+00" cType="1" res="-2.2048026949050836e-05" rms="4.4820198416709900e-01" purity="5.1798260211944580e-01" nType="-99"/>
          <Node pos="r" depth="2" NCoef="0" IVar="-1" Cut="0.0000000000000000e+00" cType="1" res="2.4119364097714424e-03" rms="4.5661422610282898e-01" purity="4.0622800588607788e-01" nType="-99"/>
        </Node>
        <Node pos="r" depth="1" NCoef="0" IVar="7" Cut="5.7524687051773071e-01" cType="1" res="-3.8426294922828674e-03" rms="4.5141488313674927e-01" purity="5.1456713676452637e-01" nType="0">
          <Node pos="l" depth="2" NCoef="0" IVar="-1" Cut="0.0000000000000000e+00" cType="1" res="-1.5637889737263322e-03" rms="4.5308372378349304e-01" purity="4.2875468730926514e-01" nType="-99"/>
          <Node pos="r" depth="2" NCoef="0" IVar="-1" Cut="0.0000000000000000e+00" cType="1" res="-4.2296494939364493e-05" rms="4.5101776719093323e-01" purity="5.3126043081283569e-01" nType="-99"/>
        </Node>
      </Node>
    </BinaryTree>
    <BinaryTree type="DecisionTree" boostWeight="1.0000000000000000e+00" itree="904">
      <Node pos="s" depth="0" NCoef="0" IVar="6" Cut="1.2373962402343750e+00" cType="1" res="3.8233255036175251e-03" rms="4.4927003979682922e-01" purity="5.0021255016326904e-01" nType="0">
        <Node pos="l" depth="1" NCoef="0" IVar="7" Cut="6.5623903274536133e-01" cType="1" res="1.2325123883783817e-02" rms="4.5483350753784180e-01" purity="5.4925358295440674e-01" nType="0">
          <Node pos="l" depth="2" NCoef="0" IVar="-1" Cut="0.0000000000000000e+00" cType="1" res="1.6112393932417035e-03" rms="4.6223732829093933e-01" purity="5.2302259206771851e-01" nType="-99"/>
          <Node pos="r" depth="2" NCoef="0" IVar="-1" Cut="0.0000000000000000e+00" cType="1" res="1.0750084038591012e-04" rms="4.4726407527923584e-01" purity="5.7472294569015503e-01" nType="-99"/>
        </Node>
        <Node pos="r" depth="1" NCoef="0" IVar="2" Cut="3.5044943237304688e+02" cType="1" res="-7.3653399012982845e-03" rms="4.4159218668937683e-01" purity="4.3567281961441040e-01" nType="0">
          <Node pos="l" depth="2" NCoef="0" IVar="-1" Cut="0.0000000000000000e+00" cType="1" res="-1.2167097302153707e-03" rms="4.3927285075187683e-01" purity="3.7919870018959045e-01" nType="-99"/>
          <Node pos="r" depth="2" NCoef="0" IVar="-1" Cut="0.0000000000000000e+00" cType="1" res="1.2139936443418264e-03" rms="4.4835799932479858e-01" purity="6.2555062770843506e-01" nType="-99"/>
        </Node>
      </Node>
    </BinaryTree>
    <BinaryTree type="DecisionTree" boostWeight="1.0000000000000000e+00" itree="905">
      <Node pos="s" depth="0" NCoef="0" IVar="5" Cut="3.4841797314584255e-03" cType="1" res="-6.8483164068311453e-04" rms="4.4899964332580566e-01" purity="4.9857178330421448e-01" nType="0">
        <Node pos="l" depth="1" NCoef="0" IVar="6" Cut="1.1132754087448120e+00" cType="1" res="1.3914583250880241e-03" rms="4.4833850860595703e-01" purity="5.0933116674423218e-01" nType="0">
          <Node pos="l" depth="2" NCoef="0" IVar="-1" Cut="0.0000000000000000e+00" cType="1" res="5.1487988093867898e-04" rms="4.5191219449043274e-01" purity="5.6092214584350586e-01" nType="-99"/>
          <Node pos="r" depth="2" NCoef="0" IVar="-1" Cut="0.0000000000000000e+00" cType="1" res="-2.8648722218349576e-04" rms="4.4514930248260498e-01" purity="4.6457237005233765e-01" nType="-99"/>
        </Node>
        <Node pos="r" depth="1" NCoef="0" IVar="-1" Cut="0.0000000000000000e+00" cType="1" res="-1.9112174632027745e-03" rms="4.5616078376770020e-01" purity="3.6867344379425049e-01" nType="-99"/>
      </Node>
    </BinaryTree>
    <BinaryTree type="DecisionTree" boostWeight="1.0000000000000000e+00" itree="906">
      <Node pos="s" depth="0" NCoef="0" IVar="5" Cut="2.6969080790877342e-03" cType="1" res="3.6740410723723471e-04" rms="4.4937092065811157e-01" purity="4.9960198998451233e-01" nType="0">
        <Node pos="l" depth="1" NCoef="0" IVar="2" Cut="2.7456134033203125e+02" cType="1" res="-4.5586260966956615e-03" rms="4.4700548052787781e-01" purity="5.2083563804626465e-01" nType="0">
          <Node pos="l" depth="2" NCoef="0" IVar="-1" Cut="0.0000000000000000e+00" cType="1" res="3.8183425203897059e-04" rms="4.4259676337242126e-01" purity="3.8905936479568481e-01" nType="-99"/>
          <Node pos="r" depth="2" NCoef="0" IVar="-1" Cut="0.0000000000000000e+00" cType="1" res="-6.7887175828218460e-04" rms="4.4938454031944275e-01" purity="5.9504961967468262e-01" nType="-99"/>
        </Node>
        <Node pos="r" depth="1" NCoef="0" IVar="7" Cut="5.4116046428680420e-01" cType="1" res="1.9674118608236313e-02" rms="4.5801377296447754e-01" purity="4.1638022661209106e-01" nType="0">
          <Node pos="l" depth="2" NCoef="0" IVar="-1" Cut="0.0000000000000000e+00" cType="1" res="-1.1972857173532248e-03" rms="4.4185742735862732e-01" purity="3.3353778719902039e-01" nType="-99"/>
          <Node pos="r" depth="2" NCoef="0" IVar="-1" Cut="0.0000000000000000e+00" cType="1" res="2.3699174635112286e-03" rms="4.6415722370147705e-01" purity="4.5301243662834167e-01" nType="-99"/>
        </Node>
      </Node>
    </BinaryTree>
    <BinaryTree type="DecisionTree" boostWeight="1.0000000000000000e+00" itree="907">
      <Node pos="s" depth="0" NCoef="0" IVar="3" Cut="9.0161515399813652e-03" cType="1" res="1.8759253434836864e-03" rms="4.4857376813888550e-01" purity="5.0164151191711426e-01" nType="0">
        <Node pos="l" depth="1" NCoef="0" IVar="6" Cut="9.2034155130386353e-01" cType="1" res="-6.4331241883337498e-03" rms="4.4282197952270508e-01" purity="4.6885803341865540e-01" nType="0">
          <Node pos="l" depth="2" NCoef="0" IVar="-1" Cut="0.0000000000000000e+00" cType="1" res="8.3723018178716302e-04" rms="4.4693565368652344e-01" purity="5.5676919221878052e-01" nType="-99"/>
          <Node pos="r" depth="2" NCoef="0" IVar="-1" Cut="0.0000000000000000e+00" cType="1" res="-1.1529125040397048e-03" rms="4.4069993495941162e-01" purity="4.2919477820396423e-01" nType="-99"/>
        </Node>
        <Node pos="r" depth="1" NCoef="0" IVar="6" Cut="7.7276104688644409e-01" cType="1" res="9.9605768918991089e-03" rms="4.5395433902740479e-01" purity="5.3353971242904663e-01" nType="0">
          <Node pos="l" depth="2" NCoef="0" IVar="-1" Cut="0.0000000000000000e+00" cType="1" res="-9.8710600286722183e-04" rms="4.4919535517692566e-01" purity="5.8273649215698242e-01" nType="-99"/>
          <Node pos="r" depth="2" NCoef="0" IVar="-1" Cut="0.0000000000000000e+00" cType="1" res="1.0533692548051476e-03" rms="4.5478281378746033e-01" purity="5.2319872379302979e-01" nType="-99"/>
        </Node>
      </Node>
    </BinaryTree>
    <BinaryTree type="DecisionTree" boostWeight="1.0000000000000000e+00" itree="908">
      <Node pos="s" depth="0" NCoef="0" IVar="4" Cut="6.0589677095413208e-01" cType="1" res="1.0945060057565570e-03" rms="4.4696015119552612e-01" purity="5.0128072500228882e-01" nType="0">
        <Node pos="l" depth="1" NCoef="0" IVar="4" Cut="3.3108264207839966e-01" cType="1" res="-2.3031746968626976e-03" rms="4.4860592484474182e-01" purity="4.8947283625602722e-01" nType="0">
          <Node pos="l" depth="2" NCoef="0" IVar="-1" Cut="0.0000000000000000e+00" cType="1" res="4.4235240784473717e-04" rms="4.5124876499176025e-01" purity="4.7472918033599854e-01" nType="-99"/>
          <Node pos="r" depth="2" NCoef="0" IVar="-1" Cut="0.0000000000000000e+00" cType="1" res="-7.2181515861302614e-04" rms="4.4603931903839111e-01" purity="5.0294959545135498e-01" nType="-99"/>
        </Node>
        <Node pos="r" depth="1" NCoef="0" IVar="2" Cut="2.6200711059570312e+02" cType="1" res="1.8641345202922821e-02" rms="4.3794307112693787e-01" purity="5.6226080656051636e-01" nType="0">
          <Node pos="l" depth="2" NCoef="0" IVar="-1" Cut="0.0000000000000000e+00" cType="1" res="-1.2016302207484841e-04" rms="4.4640949368476868e-01" purity="3.8524931669235229e-01" nType="-99"/>
          <Node pos="r" depth="2" NCoef="0" IVar="-1" Cut="0.0000000000000000e+00" cType="1" res="2.1498808637261391e-03" rms="4.3152144551277161e-01" purity="6.8322974443435669e-01" nType="-99"/>
        </Node>
      </Node>
    </BinaryTree>
    <BinaryTree type="DecisionTree" boostWeight="1.0000000000000000e+00" itree="909">
      <Node pos="s" depth="0" NCoef="0" IVar="1" Cut="8.5992890596389771e-01" cType="1" res="3.8187555037438869e-04" rms="4.5067301392555237e-01" purity="4.9818536639213562e-01" nType="0">
        <Node pos="l" depth="1" NCoef="0" IVar="7" Cut="5.7863509654998779e-01" cType="1" res="1.9808385521173477e-02" rms="4.5621386170387268e-01" purity="3.8400772213935852e-01" nType="0">
          <Node pos="l" depth="2" NCoef="0" IVar="-1" Cut="0.0000000000000000e+00" cType="1" res="3.9267679676413536e-03" rms="4.5648446679115295e-01" purity="3.8003557920455933e-01" nType="-99"/>
          <Node pos="r" depth="2" NCoef="0" IVar="-1" Cut="0.0000000000000000e+00" cType="1" res="-8.6398125858977437e-05" rms="4.5484462380409241e-01" purity="3.8676255941390991e-01" nType="-99"/>
        </Node>
        <Node pos="r" depth="1" NCoef="0" IVar="1" Cut="8.6703425645828247e-01" cType="1" res="-2.3623693268746138e-03" rms="4.4981718063354492e-01" purity="5.1431447267532349e-01" nType="0">
          <Node pos="l" depth="2" NCoef="0" IVar="-1" Cut="0.0000000000000000e+00" cType="1" res="-3.1556752510368824e-03" rms="4.4336992502212524e-01" purity="3.2138451933860779e-01" nType="-99"/>
          <Node pos="r" depth="2" NCoef="0" IVar="-1" Cut="0.0000000000000000e+00" cType="1" res="6.8092282162979245e-05" rms="4.5025742053985596e-01" purity="5.3198242187500000e-01" nType="-99"/>
        </Node>
      </Node>
    </BinaryTree>
    <BinaryTree type="DecisionTree" boostWeight="1.0000000000000000e+00" itree="910">
      <Node pos="s" depth="0" NCoef="0" IVar="4" Cut="5.5083703994750977e-01" cType="1" res="-1.3090275460854173e-03" rms="4.5084211230278015e-01" purity="4.9583983421325684e-01" nType="0">
        <Node pos="l" depth="1" NCoef="0" IVar="6" Cut="1.0243303775787354e+00" cType="1" res="2.9256034176796675e-03" rms="4.5317980647087097e-01" purity="4.9059465527534485e-01" nType="0">
          <Node pos="l" depth="2" NCoef="0" IVar="-1" Cut="0.0000000000000000e+00" cType="1" res="-6.8083015503361821e-04" rms="4.5757350325584412e-01" purity="5.3616285324096680e-01" nType="-99"/>
          <Node pos="r" depth="2" NCoef="0" IVar="-1" Cut="0.0000000000000000e+00" cType="1" res="8.3169766003265977e-04" rms="4.5009484887123108e-01" purity="4.6083328127861023e-01" nType="-99"/>
        </Node>
        <Node pos="r" depth="1" NCoef="0" IVar="3" Cut="4.8047930002212524e-02" cType="1" res="-1.5610203146934509e-02" rms="4.4255676865577698e-01" purity="5.1355361938476562e-01" nType="0">
          <Node pos="l" depth="2" NCoef="0" IVar="-1" Cut="0.0000000000000000e+00" cType="1" res="-1.5508958313148469e-04" rms="4.3852064013481140e-01" purity="5.1450270414352417e-01" nType="-99"/>
          <Node pos="r" depth="2" NCoef="0" IVar="-1" Cut="0.0000000000000000e+00" cType="1" res="-3.4213268663734198e-03" rms="4.5004180073738098e-01" purity="5.1141428947448730e-01" nType="-99"/>
        </Node>
      </Node>
    </BinaryTree>
    <BinaryTree type="DecisionTree" boostWeight="1.0000000000000000e+00" itree="911">
      <Node pos="s" depth="0" NCoef="0" IVar="4" Cut="6.4003229141235352e-01" cType="1" res="-1.1589874338824302e-04" rms="4.5250594615936279e-01" purity="5.0052064657211304e-01" nType="0">
        <Node pos="l" depth="1" NCoef="0" IVar="2" Cut="3.3640823364257812e+02" cType="1" res="3.6059808917343616e-03" rms="4.5355847477912903e-01" purity="4.9871924519538879e-01" nType="0">
          <Node pos="l" depth="2" NCoef="0" IVar="-1" Cut="0.0000000000000000e+00" cType="1" res="8.1445166142657399e-04" rms="4.5198914408683777e-01" purity="4.2126229405403137e-01" nType="-99"/>
          <Node pos="r" depth="2" NCoef="0" IVar="-1" Cut="0.0000000000000000e+00" cType="1" res="-4.2121324804611504e-04" rms="4.5553579926490784e-01" purity="6.0578542947769165e-01" nType="-99"/>
        </Node>
        <Node pos="r" depth="1" NCoef="0" IVar="5" Cut="1.5188466059044003e-03" cType="1" res="-2.8472786769270897e-02" rms="4.4338026642799377e-01" purity="5.1424586772918701e-01" nType="0">
          <Node pos="l" depth="2" NCoef="0" IVar="-1" Cut="0.0000000000000000e+00" cType="1" res="-3.2498419750481844e-03" rms="4.3424102663993835e-01" purity="5.7671302556991577e-01" nType="-99"/>
          <Node pos="r" depth="2" NCoef="0" IVar="-1" Cut="0.0000000000000000e+00" cType="1" res="-7.6971773523837328e-04" rms="4.5377284288406372e-01" purity="4.3724802136421204e-01" nType="-99"/>
        </Node>
      </Node>
    </BinaryTree>
    <BinaryTree type="DecisionTree" boostWeight="1.0000000000000000e+00" itree="912">
      <Node pos="s" depth="0" NCoef="0" IVar="4" Cut="7.1002286672592163e-01" cType="1" res="-4.6272883191704750e-03" rms="4.5052844285964966e-01" purity="4.9633213877677917e-01" nType="0">
        <Node pos="l" depth="1" NCoef="0" IVar="4" Cut="2.6158633828163147e-01" cType="1" res="-6.8163033574819565e-03" rms="4.5116093754768372e-01" purity="4.9210366606712341e-01" nType="0">
          <Node pos="l" depth="2" NCoef="0" IVar="-1" Cut="0.0000000000000000e+00" cType="1" res="6.0517579549923539e-04" rms="4.4775050878524780e-01" purity="4.7022044658660889e-01" nType="-99"/>
          <Node pos="r" depth="2" NCoef="0" IVar="-1" Cut="0.0000000000000000e+00" cType="1" res="-9.3867117539048195e-04" rms="4.5239061117172241e-01" purity="5.0096040964126587e-01" nType="-99"/>
        </Node>
        <Node pos="r" depth="1" NCoef="0" IVar="-1" Cut="0.0000000000000000e+00" cType="1" res="2.2342018783092499e-03" rms="4.3862739205360413e-01" purity="5.6487739086151123e-01" nType="-99"/>
      </Node>
    </BinaryTree>
    <BinaryTree type="DecisionTree" boostWeight="1.0000000000000000e+00" itree="913">
      <Node pos="s" depth="0" NCoef="0" IVar="7" Cut="7.7233731746673584e-01" cType="1" res="-2.9849454294890165e-03" rms="4.4922149181365967e-01" purity="4.9791747331619263e-01" nType="0">
        <Node pos="l" depth="1" NCoef="0" IVar="6" Cut="1.4695076942443848e+00" cType="1" res="3.8632953073829412e-03" rms="4.5137244462966919e-01" purity="4.8374328017234802e-01" nType="0">
          <Node pos="l" depth="2" NCoef="0" IVar="-1" Cut="0.0000000000000000e+00" cType="1" res="7.3219765909016132e-04" rms="4.5799869298934937e-01" purity="5.1892679929733276e-01" nType="-99"/>
          <Node pos="r" depth="2" NCoef="0" IVar="-1" Cut="0.0000000000000000e+00" cType="1" res="-1.0574425105005503e-03" rms="4.3315869569778442e-01" purity="3.9201000332832336e-01" nType="-99"/>
        </Node>
        <Node pos="r" depth="1" NCoef="0" IVar="1" Cut="8.9452803134918213e-01" cType="1" res="-2.2763805463910103e-02" rms="4.4235566258430481e-01" purity="5.3885489702224731e-01" nType="0">
          <Node pos="l" depth="2" NCoef="0" IVar="-1" Cut="0.0000000000000000e+00" cType="1" res="-2.9140065889805555e-03" rms="4.5692482590675354e-01" purity="3.9254692196846008e-01" nType="-99"/>
          <Node pos="r" depth="2" NCoef="0" IVar="-1" Cut="0.0000000000000000e+00" cType="1" res="-7.6782651012763381e-04" rms="4.3159621953964233e-01" purity="6.3994377851486206e-01" nType="-99"/>
        </Node>
      </Node>
    </BinaryTree>
    <BinaryTree type="DecisionTree" boostWeight="1.0000000000000000e+00" itree="914">
      <Node pos="s" depth="0" NCoef="0" IVar="0" Cut="5.3495901823043823e-01" cType="1" res="-3.1484200153499842e-03" rms="4.5243623852729797e-01" purity="4.9527850747108459e-01" nType="0">
        <Node pos="l" depth="1" NCoef="0" IVar="2" Cut="3.1558599853515625e+02" cType="1" res="2.0036596804857254e-02" rms="4.4162413477897644e-01" purity="3.4394553303718567e-01" nType="0">
          <Node pos="l" depth="2" NCoef="0" IVar="-1" Cut="0.0000000000000000e+00" cType="1" res="6.7718305217567831e-05" rms="4.1109010577201843e-01" purity="2.4254797399044037e-01" nType="-99"/>
          <Node pos="r" depth="2" NCoef="0" IVar="-1" Cut="0.0000000000000000e+00" cType="1" res="3.1178963836282492e-03" rms="4.7949025034904480e-01" purity="4.8463696241378784e-01" nType="-99"/>
        </Node>
        <Node pos="r" depth="1" NCoef="0" IVar="3" Cut="-3.0234482139348984e-02" cType="1" res="-9.3878339976072311e-03" rms="4.5510041713714600e-01" purity="5.3600442409515381e-01" nType="0">
          <Node pos="l" depth="2" NCoef="0" IVar="-1" Cut="0.0000000000000000e+00" cType="1" res="7.6165503060110495e-07" rms="4.5131069421768188e-01" purity="5.1459723711013794e-01" nType="-99"/>
          <Node pos="r" depth="2" NCoef="0" IVar="-1" Cut="0.0000000000000000e+00" cType="1" res="-1.0587687138468027e-03" rms="4.5738932490348816e-01" purity="5.4959172010421753e-01" nType="-99"/>
        </Node>
      </Node>
    </BinaryTree>
    <BinaryTree type="DecisionTree" boostWeight="1.0000000000000000e+00" itree="915">
      <Node pos="s" depth="0" NCoef="0" IVar="4" Cut="5.9958469867706299e-01" cType="1" res="-6.9055217318236828e-04" rms="4.4860196113586426e-01" purity="4.9999037384986877e-01" nType="0">
        <Node pos="l" depth="1" NCoef="0" IVar="6" Cut="1.8262014389038086e+00" cType="1" res="-4.7463285736739635e-03" rms="4.4969362020492554e-01" purity="4.8740562796592712e-01" nType="0">
          <Node pos="l" depth="2" NCoef="0" IVar="-1" Cut="0.0000000000000000e+00" cType="1" res="-5.8129423996433616e-04" rms="4.5147436857223511e-01" purity="4.9282768368721008e-01" nType="-99"/>
          <Node pos="r" depth="2" NCoef="0" IVar="-1" Cut="0.0000000000000000e+00" cType="1" res="1.8472218653187156e-03" rms="4.3330308794975281e-01" purity="4.4147488474845886e-01" nType="-99"/>
        </Node>
        <Node pos="r" depth="1" NCoef="0" IVar="6" Cut="1.1392081975936890e+00" cType="1" res="1.9166182726621628e-02" rms="4.4268244504928589e-01" purity="5.6160408258438110e-01" nType="0">
          <Node pos="l" depth="2" NCoef="0" IVar="-1" Cut="0.0000000000000000e+00" cType="1" res="-5.1944260485470295e-04" rms="4.4646957516670227e-01" purity="5.7809084653854370e-01" nType="-99"/>
          <Node pos="r" depth="2" NCoef="0" IVar="-1" Cut="0.0000000000000000e+00" cType="1" res="2.8564615640789270e-03" rms="4.3861958384513855e-01" purity="5.4880380630493164e-01" nType="-99"/>
        </Node>
      </Node>
    </BinaryTree>
    <BinaryTree type="DecisionTree" boostWeight="1.0000000000000000e+00" itree="916">
      <Node pos="s" depth="0" NCoef="0" IVar="3" Cut="-1.3214129209518433e-01" cType="1" res="3.5738945007324219e-04" rms="4.5179483294487000e-01" purity="4.9954435229301453e-01" nType="0">
        <Node pos="l" depth="1" NCoef="0" IVar="-1" Cut="0.0000000000000000e+00" cType="1" res="2.6959779206663370e-03" rms="4.4045346975326538e-01" purity="4.5434334874153137e-01" nType="-99"/>
        <Node pos="r" depth="1" NCoef="0" IVar="6" Cut="6.1997783184051514e-01" cType="1" res="-1.5483024762943387e-03" rms="4.5234140753746033e-01" purity="5.0205957889556885e-01" nType="0">
          <Node pos="l" depth="2" NCoef="0" IVar="-1" Cut="0.0000000000000000e+00" cType="1" res="1.8440857529640198e-03" rms="4.4877314567565918e-01" purity="6.1669194698333740e-01" nType="-99"/>
          <Node pos="r" depth="2" NCoef="0" IVar="-1" Cut="0.0000000000000000e+00" cType="1" res="-2.7486099861562252e-04" rms="4.5254769921302795e-01" purity="4.9292975664138794e-01" nType="-99"/>
        </Node>
      </Node>
    </BinaryTree>
    <BinaryTree type="DecisionTree" boostWeight="1.0000000000000000e+00" itree="917">
      <Node pos="s" depth="0" NCoef="0" IVar="4" Cut="5.1133400201797485e-01" cType="1" res="3.0256845057010651e-03" rms="4.4945994019508362e-01" purity="5.0069093704223633e-01" nType="0">
        <Node pos="l" depth="1" NCoef="0" IVar="6" Cut="9.3318867683410645e-01" cType="1" res="-2.7521916199475527e-03" rms="4.5024889707565308e-01" purity="4.8145708441734314e-01" nType="0">
          <Node pos="l" depth="2" NCoef="0" IVar="-1" Cut="0.0000000000000000e+00" cType="1" res="8.7371986592188478e-04" rms="4.5578384399414062e-01" purity="5.6714308261871338e-01" nType="-99"/>
          <Node pos="r" depth="2" NCoef="0" IVar="-1" Cut="0.0000000000000000e+00" cType="1" res="-7.6093617826700211e-04" rms="4.4739112257957458e-01" purity="4.4051611423492432e-01" nType="-99"/>
        </Node>
        <Node pos="r" depth="1" NCoef="0" IVar="6" Cut="8.9187687635421753e-01" cType="1" res="1.6710579395294189e-02" rms="4.4728809595108032e-01" purity="5.4624623060226440e-01" nType="0">
          <Node pos="l" depth="2" NCoef="0" IVar="-1" Cut="0.0000000000000000e+00" cType="1" res="-8.0024189082905650e-04" rms="4.4738033413887024e-01" purity="5.7656878232955933e-01" nType="-99"/>
          <Node pos="r" depth="2" NCoef="0" IVar="-1" Cut="0.0000000000000000e+00" cType="1" res="1.8535864073783159e-03" rms="4.4687458872795105e-01" purity="5.3633713722229004e-01" nType="-99"/>
        </Node>
      </Node>
    </BinaryTree>
    <BinaryTree type="DecisionTree" boostWeight="1.0000000000000000e+00" itree="918">
      <Node pos="s" depth="0" NCoef="0" IVar="0" Cut="1.6230604648590088e+00" cType="1" res="-1.8907931007561274e-05" rms="4.5148158073425293e-01" purity="4.9934020638465881e-01" nType="0">
        <Node pos="l" depth="1" NCoef="0" IVar="0" Cut="4.6815550327301025e-01" cType="1" res="-7.8802071511745453e-03" rms="4.5586895942687988e-01" purity="3.7206941843032837e-01" nType="0">
          <Node pos="l" depth="2" NCoef="0" IVar="-1" Cut="0.0000000000000000e+00" cType="1" res="8.2389567978680134e-04" rms="4.4685584306716919e-01" purity="3.2931655645370483e-01" nType="-99"/>
          <Node pos="r" depth="2" NCoef="0" IVar="-1" Cut="0.0000000000000000e+00" cType="1" res="-1.4454812044277787e-03" rms="4.6143126487731934e-01" purity="4.0062671899795532e-01" nType="-99"/>
        </Node>
        <Node pos="r" depth="1" NCoef="0" IVar="7" Cut="7.3280519247055054e-01" cType="1" res="7.6954509131610394e-03" rms="4.4699999690055847e-01" purity="6.2423217296600342e-01" nType="0">
          <Node pos="l" depth="2" NCoef="0" IVar="-1" Cut="0.0000000000000000e+00" cType="1" res="9.9924358073621988e-04" rms="4.5453929901123047e-01" purity="5.9693777561187744e-01" nType="-99"/>
          <Node pos="r" depth="2" NCoef="0" IVar="-1" Cut="0.0000000000000000e+00" cType="1" res="-5.0091248704120517e-04" rms="4.3118798732757568e-01" purity="6.7865514755249023e-01" nType="-99"/>
        </Node>
      </Node>
    </BinaryTree>
    <BinaryTree type="DecisionTree" boostWeight="1.0000000000000000e+00" itree="919">
      <Node pos="s" depth="0" NCoef="0" IVar="5" Cut="2.5809177896007895e-04" cType="1" res="-3.8694343529641628e-03" rms="4.5193257927894592e-01" purity="4.9591389298439026e-01" nType="0">
        <Node pos="l" depth="1" NCoef="0" IVar="1" Cut="9.6420335769653320e-01" cType="1" res="-1.9941113889217377e-02" rms="4.1956427693367004e-01" purity="6.7692708969116211e-01" nType="0">
          <Node pos="l" depth="2" NCoef="0" IVar="-1" Cut="0.0000000000000000e+00" cType="1" res="-3.2517563086003065e-03" rms="4.4769260287284851e-01" purity="4.8805961012840271e-01" nType="-99"/>
          <Node pos="r" depth="2" NCoef="0" IVar="-1" Cut="0.0000000000000000e+00" cType="1" res="-7.5425743125379086e-04" rms="4.0529721975326538e-01" purity="7.6535803079605103e-01" nType="-99"/>
        </Node>
        <Node pos="r" depth="1" NCoef="0" IVar="0" Cut="-2.2804668545722961e-01" cType="1" res="6.4599771576467901e-05" rms="4.5942282676696777e-01" purity="4.5160534977912903e-01" nType="0">
          <Node pos="l" depth="2" NCoef="0" IVar="-1" Cut="0.0000000000000000e+00" cType="1" res="3.5972129553556442e-03" rms="4.4605314731597900e-01" purity="3.5766837000846863e-01" nType="-99"/>
          <Node pos="r" depth="2" NCoef="0" IVar="-1" Cut="0.0000000000000000e+00" cType="1" res="-2.2147457639221102e-04" rms="4.6026977896690369e-01" purity="4.5876303315162659e-01" nType="-99"/>
        </Node>
      </Node>
    </BinaryTree>
    <BinaryTree type="DecisionTree" boostWeight="1.0000000000000000e+00" itree="920">
      <Node pos="s" depth="0" NCoef="0" IVar="6" Cut="1.7695348262786865e+00" cType="1" res="-3.6363489925861359e-03" rms="4.4873321056365967e-01" purity="4.9636161327362061e-01" nType="0">
        <Node pos="l" depth="1" NCoef="0" IVar="0" Cut="4.0584588050842285e+00" cType="1" res="-5.6657701497897506e-04" rms="4.5161265134811401e-01" purity="5.1039576530456543e-01" nType="0">
          <Node pos="l" depth="2" NCoef="0" IVar="-1" Cut="0.0000000000000000e+00" cType="1" res="-2.4774536723271012e-04" rms="4.5852652192115784e-01" purity="4.7621411085128784e-01" nType="-99"/>
          <Node pos="r" depth="2" NCoef="0" IVar="-1" Cut="0.0000000000000000e+00" cType="1" res="1.7509565223008394e-03" rms="3.8891395926475525e-01" purity="7.9312545061111450e-01" nType="-99"/>
        </Node>
        <Node pos="r" depth="1" NCoef="0" IVar="5" Cut="1.4105549780651927e-03" cType="1" res="-2.6286968961358070e-02" rms="4.2620417475700378e-01" purity="3.9280921220779419e-01" nType="0">
          <Node pos="l" depth="2" NCoef="0" IVar="-1" Cut="0.0000000000000000e+00" cType="1" res="-8.8170170783996582e-04" rms="4.3561288714408875e-01" purity="4.8484852910041809e-01" nType="-99"/>
          <Node pos="r" depth="2" NCoef="0" IVar="-1" Cut="0.0000000000000000e+00" cType="1" res="-3.8424960803240538e-03" rms="4.1428518295288086e-01" purity="2.8536665439605713e-01" nType="-99"/>
        </Node>
      </Node>
    </BinaryTree>
    <BinaryTree type="DecisionTree" boostWeight="1.0000000000000000e+00" itree="921">
      <Node pos="s" depth="0" NCoef="0" IVar="7" Cut="8.3239209651947021e-01" cType="1" res="-5.8733853511512280e-03" rms="4.4919884204864502e-01" purity="4.9380069971084595e-01" nType="0">
        <Node pos="l" depth="1" NCoef="0" IVar="3" Cut="2.0740438997745514e-01" cType="1" res="-9.8860301077365875e-03" rms="4.5026451349258423e-01" purity="4.7605288028717041e-01" nType="0">
          <Node pos="l" depth="2" NCoef="0" IVar="-1" Cut="0.0000000000000000e+00" cType="1" res="-9.9751807283610106e-04" rms="4.4925799965858459e-01" purity="4.6168100833892822e-01" nType="-99"/>
          <Node pos="r" depth="2" NCoef="0" IVar="-1" Cut="0.0000000000000000e+00" cType="1" res="9.9624437279999256e-04" rms="4.5666244626045227e-01" purity="5.7940417528152466e-01" nType="-99"/>
        </Node>
        <Node pos="r" depth="1" NCoef="0" IVar="2" Cut="3.6235412597656250e+02" cType="1" res="1.5889506787061691e-02" rms="4.4274145364761353e-01" purity="5.9005725383758545e-01" nType="0">
          <Node pos="l" depth="2" NCoef="0" IVar="-1" Cut="0.0000000000000000e+00" cType="1" res="3.7508161040022969e-04" rms="4.4889876246452332e-01" purity="5.1081126928329468e-01" nType="-99"/>
          <Node pos="r" depth="2" NCoef="0" IVar="-1" Cut="0.0000000000000000e+00" cType="1" res="2.1482130978256464e-03" rms="4.3272328376770020e-01" purity="7.1052151918411255e-01" nType="-99"/>
        </Node>
      </Node>
    </BinaryTree>
    <BinaryTree type="DecisionTree" boostWeight="1.0000000000000000e+00" itree="922">
      <Node pos="s" depth="0" NCoef="0" IVar="3" Cut="-1.7536958679556847e-02" cType="1" res="-3.0122185125946999e-04" rms="4.5090055465698242e-01" purity="4.9888113141059875e-01" nType="0">
        <Node pos="l" depth="1" NCoef="0" IVar="3" Cut="-7.4277147650718689e-02" cType="1" res="-9.4722034409642220e-03" rms="4.4586461782455444e-01" purity="4.6254774928092957e-01" nType="0">
          <Node pos="l" depth="2" NCoef="0" IVar="-1" Cut="0.0000000000000000e+00" cType="1" res="-3.8674170355079696e-05" rms="4.4642505049705505e-01" purity="4.6291726827621460e-01" nType="-99"/>
          <Node pos="r" depth="2" NCoef="0" IVar="-1" Cut="0.0000000000000000e+00" cType="1" res="-1.7041765386238694e-03" rms="4.4470897316932678e-01" purity="4.6200343966484070e-01" nType="-99"/>
        </Node>
        <Node pos="r" depth="1" NCoef="0" IVar="6" Cut="1.3815042972564697e+00" cType="1" res="6.3024032860994339e-03" rms="4.5437753200531006e-01" purity="5.2504318952560425e-01" nType="0">
          <Node pos="l" depth="2" NCoef="0" IVar="-1" Cut="0.0000000000000000e+00" cType="1" res="-1.9170218729414046e-04" rms="4.5799285173416138e-01" purity="5.4792928695678711e-01" nType="-99"/>
          <Node pos="r" depth="2" NCoef="0" IVar="-1" Cut="0.0000000000000000e+00" cType="1" res="1.7297086305916309e-03" rms="4.4699794054031372e-01" purity="4.8198521137237549e-01" nType="-99"/>
        </Node>
      </Node>
    </BinaryTree>
    <BinaryTree type="DecisionTree" boostWeight="1.0000000000000000e+00" itree="923">
      <Node pos="s" depth="0" NCoef="0" IVar="7" Cut="5.4073500633239746e-01" cType="1" res="1.1497024446725845e-02" rms="4.5095995068550110e-01" purity="5.0968378782272339e-01" nType="0">
        <Node pos="l" depth="1" NCoef="0" IVar="4" Cut="3.1664326786994934e-01" cType="1" res="-3.2382446806877851e-03" rms="4.4736820459365845e-01" purity="4.4254991412162781e-01" nType="0">
          <Node pos="l" depth="2" NCoef="0" IVar="-1" Cut="0.0000000000000000e+00" cType="1" res="-1.0268472833558917e-03" rms="4.4309914112091064e-01" purity="4.2964753508567810e-01" nType="-99"/>
          <Node pos="r" depth="2" NCoef="0" IVar="-1" Cut="0.0000000000000000e+00" cType="1" res="2.0364751107990742e-03" rms="4.5852023363113403e-01" purity="4.8116141557693481e-01" nType="-99"/>
        </Node>
        <Node pos="r" depth="1" NCoef="0" IVar="4" Cut="4.4912102818489075e-01" cType="1" res="1.7779871821403503e-02" rms="4.5233678817749023e-01" purity="5.3830844163894653e-01" nType="0">
          <Node pos="l" depth="2" NCoef="0" IVar="-1" Cut="0.0000000000000000e+00" cType="1" res="2.0561725832521915e-03" rms="4.5339143276214600e-01" purity="5.4595577716827393e-01" nType="-99"/>
          <Node pos="r" depth="2" NCoef="0" IVar="-1" Cut="0.0000000000000000e+00" cType="1" res="5.1199598237872124e-04" rms="4.5113179087638855e-01" purity="5.3154081106185913e-01" nType="-99"/>
        </Node>
      </Node>
    </BinaryTree>
    <BinaryTree type="DecisionTree" boostWeight="1.0000000000000000e+00" itree="924">
      <Node pos="s" depth="0" NCoef="0" IVar="3" Cut="2.0230850577354431e-01" cType="1" res="-2.8688553720712662e-03" rms="4.4848710298538208e-01" purity="4.9498057365417480e-01" nType="0">
        <Node pos="l" depth="1" NCoef="0" IVar="1" Cut="9.6778738498687744e-01" cType="1" res="-5.8635147288441658e-03" rms="4.4651809334754944e-01" purity="4.8518389463424683e-01" nType="0">
          <Node pos="l" depth="2" NCoef="0" IVar="-1" Cut="0.0000000000000000e+00" cType="1" res="-7.0393353234976530e-04" rms="4.5396569371223450e-01" purity="4.4172698259353638e-01" nType="-99"/>
          <Node pos="r" depth="2" NCoef="0" IVar="-1" Cut="0.0000000000000000e+00" cType="1" res="1.6498841578140855e-03" rms="3.8821709156036377e-01" purity="7.9521071910858154e-01" nType="-99"/>
        </Node>
        <Node pos="r" depth="1" NCoef="0" IVar="1" Cut="8.9423751831054688e-01" cType="1" res="2.0563775673508644e-02" rms="4.6293726563453674e-01" purity="5.7163757085800171e-01" nType="0">
          <Node pos="l" depth="2" NCoef="0" IVar="-1" Cut="0.0000000000000000e+00" cType="1" res="1.9940193742513657e-03" rms="4.8557859659194946e-01" purity="4.8965772986412048e-01" nType="-99"/>
          <Node pos="r" depth="2" NCoef="0" IVar="-1" Cut="0.0000000000000000e+00" cType="1" res="7.1267003659158945e-04" rms="4.4020020961761475e-01" purity="6.4924108982086182e-01" nType="-99"/>
        </Node>
      </Node>
    </BinaryTree>
    <BinaryTree type="DecisionTree" boostWeight="1.0000000000000000e+00" itree="925">
      <Node pos="s" depth="0" NCoef="0" IVar="2" Cut="3.4764395141601562e+02" cType="1" res="3.7990610580891371e-03" rms="4.5086887478828430e-01" purity="5.0308692455291748e-01" nType="0">
        <Node pos="l" depth="1" NCoef="0" IVar="3" Cut="-9.7198605537414551e-02" cType="1" res="1.0226337239146233e-02" rms="4.4969132542610168e-01" purity="4.3902391195297241e-01" nType="0">
          <Node pos="l" depth="2" NCoef="0" IVar="-1" Cut="0.0000000000000000e+00" cType="1" res="-1.7091388581320643e-03" rms="4.2778977751731873e-01" purity="3.3383780717849731e-01" nType="-99"/>
          <Node pos="r" depth="2" NCoef="0" IVar="-1" Cut="0.0000000000000000e+00" cType="1" res="1.1050790781155229e-03" rms="4.5296385884284973e-01" purity="4.5610341429710388e-01" nType="-99"/>
        </Node>
        <Node pos="r" depth="1" NCoef="0" IVar="6" Cut="1.2162679433822632e+00" cType="1" res="-7.7542713843286037e-03" rms="4.5274856686592102e-01" purity="6.1824321746826172e-01" nType="0">
          <Node pos="l" depth="2" NCoef="0" IVar="-1" Cut="0.0000000000000000e+00" cType="1" res="-1.4836676418781281e-03" rms="4.5324108004570007e-01" purity="6.0976082086563110e-01" nType="-99"/>
          <Node pos="r" depth="2" NCoef="0" IVar="-1" Cut="0.0000000000000000e+00" cType="1" res="1.4063307316973805e-03" rms="4.5035934448242188e-01" purity="6.3581472635269165e-01" nType="-99"/>
        </Node>
      </Node>
    </BinaryTree>
    <BinaryTree type="DecisionTree" boostWeight="1.0000000000000000e+00" itree="926">
      <Node pos="s" depth="0" NCoef="0" IVar="4" Cut="7.0154458284378052e-01" cType="1" res="2.2426617797464132e-03" rms="4.5100679993629456e-01" purity="4.9939733743667603e-01" nType="0">
        <Node pos="l" depth="1" NCoef="0" IVar="4" Cut="1.5346798300743103e-01" cType="1" res="4.2260116897523403e-03" rms="4.5186612010002136e-01" purity="4.9896323680877686e-01" nType="0">
          <Node pos="l" depth="2" NCoef="0" IVar="-1" Cut="0.0000000000000000e+00" cType="1" res="-1.5139660099521279e-03" rms="4.5208284258842468e-01" purity="4.2217236757278442e-01" nType="-99"/>
          <Node pos="r" depth="2" NCoef="0" IVar="-1" Cut="0.0000000000000000e+00" cType="1" res="5.0812953850254416e-04" rms="4.5175486803054810e-01" purity="5.0800049304962158e-01" nType="-99"/>
        </Node>
        <Node pos="r" depth="1" NCoef="0" IVar="-1" Cut="0.0000000000000000e+00" cType="1" res="-2.0856976043432951e-03" rms="4.3640664219856262e-01" purity="5.0608944892883301e-01" nType="-99"/>
      </Node>
    </BinaryTree>
    <BinaryTree type="DecisionTree" boostWeight="1.0000000000000000e+00" itree="927">
      <Node pos="s" depth="0" NCoef="0" IVar="7" Cut="5.0003564357757568e-01" cType="1" res="3.1713196076452732e-03" rms="4.5099815726280212e-01" purity="4.9946975708007812e-01" nType="0">
        <Node pos="l" depth="1" NCoef="0" IVar="7" Cut="4.1602438688278198e-01" cType="1" res="-1.8506262451410294e-02" rms="4.4626396894454956e-01" purity="4.1455861926078796e-01" nType="0">
          <Node pos="l" depth="2" NCoef="0" IVar="-1" Cut="0.0000000000000000e+00" cType="1" res="1.1805385292973369e-04" rms="4.5168241858482361e-01" purity="4.4190698862075806e-01" nType="-99"/>
          <Node pos="r" depth="2" NCoef="0" IVar="-1" Cut="0.0000000000000000e+00" cType="1" res="-3.0338999349623919e-03" rms="4.4001889228820801e-01" purity="3.8782876729965210e-01" nType="-99"/>
        </Node>
        <Node pos="r" depth="1" NCoef="0" IVar="2" Cut="2.0493075561523438e+02" cType="1" res="9.5904627814888954e-03" rms="4.5219114422798157e-01" purity="5.2461355924606323e-01" nType="0">
          <Node pos="l" depth="2" NCoef="0" IVar="-1" Cut="0.0000000000000000e+00" cType="1" res="4.6968404203653336e-03" rms="4.3752518296241760e-01" purity="3.0863317847251892e-01" nType="-99"/>
          <Node pos="r" depth="2" NCoef="0" IVar="-1" Cut="0.0000000000000000e+00" cType="1" res="4.4943240936845541e-04" rms="4.5323428511619568e-01" purity="5.4237735271453857e-01" nType="-99"/>
        </Node>
      </Node>
    </BinaryTree>
    <BinaryTree type="DecisionTree" boostWeight="1.0000000000000000e+00" itree="928">
      <Node pos="s" depth="0" NCoef="0" IVar="6" Cut="1.6475056409835815e+00" cType="1" res="2.0753252319991589e-03" rms="4.4981184601783752e-01" purity="5.0026077032089233e-01" nType="0">
        <Node pos="l" depth="1" NCoef="0" IVar="6" Cut="1.5194038152694702e+00" cType="1" res="-1.9016811856999993e-03" rms="4.5245337486267090e-01" purity="5.1211452484130859e-01" nType="0">
          <Node pos="l" depth="2" NCoef="0" IVar="-1" Cut="0.0000000000000000e+00" cType="1" res="2.5420393285457976e-05" rms="4.5359757542610168e-01" purity="5.2221190929412842e-01" nType="-99"/>
          <Node pos="r" depth="2" NCoef="0" IVar="-1" Cut="0.0000000000000000e+00" cType="1" res="-2.2011650726199150e-03" rms="4.3828025460243225e-01" purity="3.9627921581268311e-01" nType="-99"/>
        </Node>
        <Node pos="r" depth="1" NCoef="0" IVar="4" Cut="2.7324122190475464e-01" cType="1" res="2.1330520510673523e-02" rms="4.3628427386283875e-01" purity="4.4286930561065674e-01" nType="0">
          <Node pos="l" depth="2" NCoef="0" IVar="-1" Cut="0.0000000000000000e+00" cType="1" res="5.7142232544720173e-03" rms="4.4453361630439758e-01" purity="4.4502824544906616e-01" nType="-99"/>
          <Node pos="r" depth="2" NCoef="0" IVar="-1" Cut="0.0000000000000000e+00" cType="1" res="-4.7322773752966896e-05" rms="4.3082612752914429e-01" purity="4.4193705916404724e-01" nType="-99"/>
        </Node>
      </Node>
    </BinaryTree>
    <BinaryTree type="DecisionTree" boostWeight="1.0000000000000000e+00" itree="929">
      <Node pos="s" depth="0" NCoef="0" IVar="6" Cut="1.2862383127212524e+00" cType="1" res="1.5265973343048245e-04" rms="4.4679367542266846e-01" purity="4.9980384111404419e-01" nType="0">
        <Node pos="l" depth="1" NCoef="0" IVar="7" Cut="5.3348302841186523e-01" cType="1" res="8.6532123386859894e-03" rms="4.5511704683303833e-01" purity="5.4495805501937866e-01" nType="0">
          <Node pos="l" depth="2" NCoef="0" IVar="-1" Cut="0.0000000000000000e+00" cType="1" res="2.0246382337063551e-03" rms="4.6115529537200928e-01" purity="5.2239918708801270e-01" nType="-99"/>
          <Node pos="r" depth="2" NCoef="0" IVar="-1" Cut="0.0000000000000000e+00" cType="1" res="6.2266175518743694e-05" rms="4.5260405540466309e-01" purity="5.5335402488708496e-01" nType="-99"/>
        </Node>
        <Node pos="r" depth="1" NCoef="0" IVar="0" Cut="1.5930010378360748e-01" cType="1" res="-1.2571348808705807e-02" rms="4.3372550606727600e-01" purity="4.3221494555473328e-01" nType="0">
          <Node pos="l" depth="2" NCoef="0" IVar="-1" Cut="0.0000000000000000e+00" cType="1" res="-8.4069613367319107e-03" rms="3.7071469426155090e-01" purity="1.7776991426944733e-01" nType="-99"/>
          <Node pos="r" depth="2" NCoef="0" IVar="-1" Cut="0.0000000000000000e+00" cType="1" res="-2.9151121270842850e-04" rms="4.4170445203781128e-01" purity="4.7016638517379761e-01" nType="-99"/>
        </Node>
      </Node>
    </BinaryTree>
    <BinaryTree type="DecisionTree" boostWeight="1.0000000000000000e+00" itree="930">
      <Node pos="s" depth="0" NCoef="0" IVar="6" Cut="1.8169124126434326e+00" cType="1" res="6.3246008940041065e-03" rms="4.5094540715217590e-01" purity="5.0378066301345825e-01" nType="0">
        <Node pos="l" depth="1" NCoef="0" IVar="7" Cut="6.3298088312149048e-01" cType="1" res="3.8808819372206926e-03" rms="4.5293113589286804e-01" purity="5.1027214527130127e-01" nType="0">
          <Node pos="l" depth="2" NCoef="0" IVar="-1" Cut="0.0000000000000000e+00" cType="1" res="9.9823728669434786e-04" rms="4.5304679870605469e-01" purity="4.7858858108520508e-01" nType="-99"/>
          <Node pos="r" depth="2" NCoef="0" IVar="-1" Cut="0.0000000000000000e+00" cType="1" res="-3.1090716947801411e-04" rms="4.5266771316528320e-01" purity="5.3696900606155396e-01" nType="-99"/>
        </Node>
        <Node pos="r" depth="1" NCoef="0" IVar="7" Cut="5.9276449680328369e-01" cType="1" res="2.6757895946502686e-02" rms="4.3344727158546448e-01" purity="4.4950160384178162e-01" nType="0">
          <Node pos="l" depth="2" NCoef="0" IVar="-1" Cut="0.0000000000000000e+00" cType="1" res="-7.2467133577447385e-05" rms="4.2707815766334534e-01" purity="3.6714571714401245e-01" nType="-99"/>
          <Node pos="r" depth="2" NCoef="0" IVar="-1" Cut="0.0000000000000000e+00" cType="1" res="3.7296179216355085e-03" rms="4.3766534328460693e-01" purity="5.2473133802413940e-01" nType="-99"/>
        </Node>
      </Node>
    </BinaryTree>
    <BinaryTree type="DecisionTree" boostWeight="1.0000000000000000e+00" itree="931">
      <Node pos="s" depth="0" NCoef="0" IVar="7" Cut="3.7558820843696594e-01" cType="1" res="-2.5576532352715731e-03" rms="4.4906499981880188e-01" purity="4.9746692180633545e-01" nType="0">
        <Node pos="l" depth="1" NCoef="0" IVar="-1" Cut="0.0000000000000000e+00" cType="1" res="2.2386575583368540e-03" rms="4.5188015699386597e-01" purity="5.0564324855804443e-01" nType="-99"/>
        <Node pos="r" depth="1" NCoef="0" IVar="0" Cut="7.7690891921520233e-02" cType="1" res="-5.0385794602334499e-03" rms="4.4875860214233398e-01" purity="4.9687328934669495e-01" nType="0">
          <Node pos="l" depth="2" NCoef="0" IVar="-1" Cut="0.0000000000000000e+00" cType="1" res="1.5880668070167303e-03" rms="4.4234320521354675e-01" purity="3.2288470864295959e-01" nType="-99"/>
          <Node pos="r" depth="2" NCoef="0" IVar="-1" Cut="0.0000000000000000e+00" cType="1" res="-5.6193768978118896e-04" rms="4.4948276877403259e-01" purity="5.1887512207031250e-01" nType="-99"/>
        </Node>
      </Node>
    </BinaryTree>
    <BinaryTree type="DecisionTree" boostWeight="1.0000000000000000e+00" itree="932">
      <Node pos="s" depth="0" NCoef="0" IVar="4" Cut="5.7491034269332886e-01" cType="1" res="3.1348832999356091e-04" rms="4.5017719268798828e-01" purity="4.9949830770492554e-01" nType="0">
        <Node pos="l" depth="1" NCoef="0" IVar="2" Cut="2.6911004638671875e+02" cType="1" res="4.4036633335053921e-03" rms="4.5210781693458557e-01" purity="4.9593636393547058e-01" nType="0">
          <Node pos="l" depth="2" NCoef="0" IVar="-1" Cut="0.0000000000000000e+00" cType="1" res="1.3029534602537751e-03" rms="4.3788513541221619e-01" purity="3.5519480705261230e-01" nType="-99"/>
          <Node pos="r" depth="2" NCoef="0" IVar="-1" Cut="0.0000000000000000e+00" cType="1" res="-4.1669081838335842e-05" rms="4.5839935541152954e-01" purity="5.6052064895629883e-01" nType="-99"/>
        </Node>
        <Node pos="r" depth="1" NCoef="0" IVar="6" Cut="1.0009341239929199e+00" cType="1" res="-1.6173843294382095e-02" rms="4.4192588329315186e-01" purity="5.1385617256164551e-01" nType="0">
          <Node pos="l" depth="2" NCoef="0" IVar="-1" Cut="0.0000000000000000e+00" cType="1" res="-3.2613072544336319e-03" rms="4.3884786963462830e-01" purity="5.3948235511779785e-01" nType="-99"/>
          <Node pos="r" depth="2" NCoef="0" IVar="-1" Cut="0.0000000000000000e+00" cType="1" res="-2.2180420637596399e-04" rms="4.4274622201919556e-01" purity="5.0185531377792358e-01" nType="-99"/>
        </Node>
      </Node>
    </BinaryTree>
    <BinaryTree type="DecisionTree" boostWeight="1.0000000000000000e+00" itree="933">
      <Node pos="s" depth="0" NCoef="0" IVar="4" Cut="2.2031010687351227e-01" cType="1" res="-5.6806327775120735e-03" rms="4.5067858695983887e-01" purity="4.9307256937026978e-01" nType="0">
        <Node pos="l" depth="1" NCoef="0" IVar="6" Cut="1.0774931907653809e+00" cType="1" res="-3.0500225722789764e-02" rms="4.4718164205551147e-01" purity="4.2839112877845764e-01" nType="0">
          <Node pos="l" depth="2" NCoef="0" IVar="-1" Cut="0.0000000000000000e+00" cType="1" res="-3.5236047115176916e-03" rms="4.5438390970230103e-01" purity="4.6284779906272888e-01" nType="-99"/>
          <Node pos="r" depth="2" NCoef="0" IVar="-1" Cut="0.0000000000000000e+00" cType="1" res="-1.1679001618176699e-03" rms="4.4013926386833191e-01" purity="3.9801770448684692e-01" nType="-99"/>
        </Node>
        <Node pos="r" depth="1" NCoef="0" IVar="0" Cut="8.0148851871490479e-01" cType="1" res="6.0217070858925581e-04" rms="4.5134308934211731e-01" purity="5.0944596529006958e-01" nType="0">
          <Node pos="l" depth="2" NCoef="0" IVar="-1" Cut="0.0000000000000000e+00" cType="1" res="1.5015567187219858e-03" rms="4.4880780577659607e-01" purity="3.6695381999015808e-01" nType="-99"/>
          <Node pos="r" depth="2" NCoef="0" IVar="-1" Cut="0.0000000000000000e+00" cType="1" res="-4.5834406046196818e-04" rms="4.5216986536979675e-01" purity="5.6756407022476196e-01" nType="-99"/>
        </Node>
      </Node>
    </BinaryTree>
    <BinaryTree type="DecisionTree" boostWeight="1.0000000000000000e+00" itree="934">
      <Node pos="s" depth="0" NCoef="0" IVar="4" Cut="1.3096567988395691e-01" cType="1" res="3.5381040652282536e-04" rms="4.4670808315277100e-01" purity="5.0202697515487671e-01" nType="0">
        <Node pos="l" depth="1" NCoef="0" IVar="-1" Cut="0.0000000000000000e+00" cType="1" res="-2.5694097857922316e-03" rms="4.3528071045875549e-01" purity="4.0747275948524475e-01" nType="-99"/>
        <Node pos="r" depth="1" NCoef="0" IVar="2" Cut="3.2186395263671875e+02" cType="1" res="2.7735424228012562e-03" rms="4.4741272926330566e-01" purity="5.0876367092132568e-01" nType="0">
          <Node pos="l" depth="2" NCoef="0" IVar="-1" Cut="0.0000000000000000e+00" cType="1" res="-3.2717967405915260e-04" rms="4.4437503814697266e-01" purity="4.0996313095092773e-01" nType="-99"/>
          <Node pos="r" depth="2" NCoef="0" IVar="-1" Cut="0.0000000000000000e+00" cType="1" res="7.7278725802898407e-04" rms="4.5108991861343384e-01" purity="6.3440704345703125e-01" nType="-99"/>
        </Node>
      </Node>
    </BinaryTree>
    <BinaryTree type="DecisionTree" boostWeight="1.0000000000000000e+00" itree="935">
      <Node pos="s" depth="0" NCoef="0" IVar="6" Cut="6.2550741434097290e-01" cType="1" res="-2.6684547774493694e-03" rms="4.4919466972351074e-01" purity="4.9634584784507751e-01" nType="0">
        <Node pos="l" depth="1" NCoef="0" IVar="-1" Cut="0.0000000000000000e+00" cType="1" res="-1.8847279716283083e-03" rms="4.4509580731391907e-01" purity="5.6192988157272339e-01" nType="-99"/>
        <Node pos="r" depth="1" NCoef="0" IVar="3" Cut="2.1411153674125671e-01" cType="1" res="-7.0836517261341214e-04" rms="4.4947496056556702e-01" purity="4.9093684554100037e-01" nType="0">
          <Node pos="l" depth="2" NCoef="0" IVar="-1" Cut="0.0000000000000000e+00" cType="1" res="-2.1385060972534120e-04" rms="4.4896319508552551e-01" purity="4.8137864470481873e-01" nType="-99"/>
          <Node pos="r" depth="2" NCoef="0" IVar="-1" Cut="0.0000000000000000e+00" cType="1" res="1.3093294110149145e-03" rms="4.5374315977096558e-01" purity="5.8086895942687988e-01" nType="-99"/>
        </Node>
      </Node>
    </BinaryTree>
    <BinaryTree type="DecisionTree" boostWeight="1.0000000000000000e+00" itree="936">
      <Node pos="s" depth="0" NCoef="0" IVar="1" Cut="8.7536716461181641e-01" cType="1" res="-4.4558695517480373e-03" rms="4.4950938224792480e-01" purity="4.9503839015960693e-01" nType="0">
        <Node pos="l" depth="1" NCoef="0" IVar="2" Cut="3.1881140136718750e+02" cType="1" res="-1.9573971629142761e-02" rms="4.4839227199554443e-01" purity="3.4958937764167786e-01" nType="0">
          <Node pos="l" depth="2" NCoef="0" IVar="-1" Cut="0.0000000000000000e+00" cType="1" res="-8.9753943029791117e-04" rms="4.2951449751853943e-01" purity="2.8001779317855835e-01" nType="-99"/>
          <Node pos="r" depth="2" NCoef="0" IVar="-1" Cut="0.0000000000000000e+00" cType="1" res="-2.1749527659267187e-03" rms="4.7324472665786743e-01" purity="4.4699978828430176e-01" nType="-99"/>
        </Node>
        <Node pos="r" depth="1" NCoef="0" IVar="7" Cut="7.9398947954177856e-01" cType="1" res="1.3735040556639433e-03" rms="4.4980368018150330e-01" purity="5.5112195014953613e-01" nType="0">
          <Node pos="l" depth="2" NCoef="0" IVar="-1" Cut="0.0000000000000000e+00" cType="1" res="5.0165015272796154e-04" rms="4.5370557904243469e-01" purity="5.3934007883071899e-01" nType="-99"/>
          <Node pos="r" depth="2" NCoef="0" IVar="-1" Cut="0.0000000000000000e+00" cType="1" res="-1.3114564353600144e-03" rms="4.3546482920646667e-01" purity="5.9188038110733032e-01" nType="-99"/>
        </Node>
      </Node>
    </BinaryTree>
    <BinaryTree type="DecisionTree" boostWeight="1.0000000000000000e+00" itree="937">
      <Node pos="s" depth="0" NCoef="0" IVar="1" Cut="8.8696670532226562e-01" cType="1" res="-1.7865512054413557e-03" rms="4.4962421059608459e-01" purity="4.9462255835533142e-01" nType="0">
        <Node pos="l" depth="1" NCoef="0" IVar="0" Cut="2.4681024551391602e+00" cType="1" res="8.7867705151438713e-03" rms="4.5053842663764954e-01" purity="3.8583111763000488e-01" nType="0">
          <Node pos="l" depth="2" NCoef="0" IVar="-1" Cut="0.0000000000000000e+00" cType="1" res="4.2896799641312100e-06" rms="4.4758197665214539e-01" purity="3.4306216239929199e-01" nType="-99"/>
          <Node pos="r" depth="2" NCoef="0" IVar="-1" Cut="0.0000000000000000e+00" cType="1" res="3.0639425385743380e-03" rms="4.6260026097297668e-01" purity="6.0028338432312012e-01" nType="-99"/>
        </Node>
        <Node pos="r" depth="1" NCoef="0" IVar="3" Cut="-5.9232536703348160e-02" cType="1" res="-8.4232734516263008e-03" rms="4.4892221689224243e-01" purity="5.6290942430496216e-01" nType="0">
          <Node pos="l" depth="2" NCoef="0" IVar="-1" Cut="0.0000000000000000e+00" cType="1" res="5.4326636018231511e-04" rms="4.3910056352615356e-01" purity="5.4455530643463135e-01" nType="-99"/>
          <Node pos="r" depth="2" NCoef="0" IVar="-1" Cut="0.0000000000000000e+00" cType="1" res="-1.0821946198120713e-03" rms="4.5292213559150696e-01" purity="5.7082754373550415e-01" nType="-99"/>
        </Node>
      </Node>
    </BinaryTree>
    <BinaryTree type="DecisionTree" boostWeight="1.0000000000000000e+00" itree="938">
      <Node pos="s" depth="0" NCoef="0" IVar="7" Cut="6.5271300077438354e-01" cType="1" res="4.7821982298046350e-04" rms="4.4811421632766724e-01" purity="4.9981388449668884e-01" nType="0">
        <Node pos="l" depth="1" NCoef="0" IVar="3" Cut="1.3796232640743256e-01" cType="1" res="-6.1750505119562149e-03" rms="4.4723722338676453e-01" purity="4.4723469018936157e-01" nType="0">
          <Node pos="l" depth="2" NCoef="0" IVar="-1" Cut="0.0000000000000000e+00" cType="1" res="-1.0687822941690683e-03" rms="4.4308656454086304e-01" purity="3.8098356127738953e-01" nType="-99"/>
          <Node pos="r" depth="2" NCoef="0" IVar="-1" Cut="0.0000000000000000e+00" cType="1" res="2.7371186297386885e-04" rms="4.5301318168640137e-01" purity="5.4360920190811157e-01" nType="-99"/>
        </Node>
        <Node pos="r" depth="1" NCoef="0" IVar="7" Cut="6.8722873926162720e-01" cType="1" res="7.2765881195664406e-03" rms="4.4890674948692322e-01" purity="5.5353969335556030e-01" nType="0">
          <Node pos="l" depth="2" NCoef="0" IVar="-1" Cut="0.0000000000000000e+00" cType="1" res="1.9923546351492405e-03" rms="4.5570653676986694e-01" purity="5.3522497415542603e-01" nType="-99"/>
          <Node pos="r" depth="2" NCoef="0" IVar="-1" Cut="0.0000000000000000e+00" cType="1" res="2.6061397511512041e-04" rms="4.4767543673515320e-01" purity="5.5656266212463379e-01" nType="-99"/>
        </Node>
      </Node>
    </BinaryTree>
    <BinaryTree type="DecisionTree" boostWeight="1.0000000000000000e+00" itree="939">
      <Node pos="s" depth="0" NCoef="0" IVar="7" Cut="3.9710035920143127e-01" cType="1" res="2.1983922924846411e-03" rms="4.4946423172950745e-01" purity="4.9962922930717468e-01" nType="0">
        <Node pos="l" depth="1" NCoef="0" IVar="-1" Cut="0.0000000000000000e+00" cType="1" res="-1.4338850742205977e-03" rms="4.4124215841293335e-01" purity="4.4200164079666138e-01" nType="-99"/>
        <Node pos="r" depth="1" NCoef="0" IVar="1" Cut="8.7154495716094971e-01" cType="1" res="4.2999507859349251e-03" rms="4.5021805167198181e-01" purity="5.0535082817077637e-01" nType="0">
          <Node pos="l" depth="2" NCoef="0" IVar="-1" Cut="0.0000000000000000e+00" cType="1" res="1.3058099430054426e-03" rms="4.5643860101699829e-01" purity="3.8491743803024292e-01" nType="-99"/>
          <Node pos="r" depth="2" NCoef="0" IVar="-1" Cut="0.0000000000000000e+00" cType="1" res="2.8024312541674590e-06" rms="4.4807732105255127e-01" purity="5.4484492540359497e-01" nType="-99"/>
        </Node>
      </Node>
    </BinaryTree>
    <BinaryTree type="DecisionTree" boostWeight="1.0000000000000000e+00" itree="940">
      <Node pos="s" depth="0" NCoef="0" IVar="4" Cut="1.9965757429599762e-01" cType="1" res="-1.1814387980848551e-03" rms="4.4980424642562866e-01" purity="4.9778625369071960e-01" nType="0">
        <Node pos="l" depth="1" NCoef="0" IVar="6" Cut="1.0560755729675293e+00" cType="1" res="1.6606695950031281e-02" rms="4.5422199368476868e-01" purity="4.7587192058563232e-01" nType="0">
          <Node pos="l" depth="2" NCoef="0" IVar="-1" Cut="0.0000000000000000e+00" cType="1" res="-2.6180632994510233e-04" rms="4.5372998714447021e-01" purity="5.0821411609649658e-01" nType="-99"/>
          <Node pos="r" depth="2" NCoef="0" IVar="-1" Cut="0.0000000000000000e+00" cType="1" res="2.4642834905534983e-03" rms="4.5396232604980469e-01" purity="4.5020988583564758e-01" nType="-99"/>
        </Node>
        <Node pos="r" depth="1" NCoef="0" IVar="3" Cut="-1.2168306857347488e-01" cType="1" res="-4.8733144067227840e-03" rms="4.4879356026649475e-01" purity="5.0233447551727295e-01" nType="0">
          <Node pos="l" depth="2" NCoef="0" IVar="-1" Cut="0.0000000000000000e+00" cType="1" res="-3.1405317131429911e-03" rms="4.4286346435546875e-01" purity="4.1411647200584412e-01" nType="-99"/>
          <Node pos="r" depth="2" NCoef="0" IVar="-1" Cut="0.0000000000000000e+00" cType="1" res="-1.8975777493324131e-04" rms="4.4909125566482544e-01" purity="5.0814539194107056e-01" nType="-99"/>
        </Node>
      </Node>
    </BinaryTree>
    <BinaryTree type="DecisionTree" boostWeight="1.0000000000000000e+00" itree="941">
      <Node pos="s" depth="0" NCoef="0" IVar="3" Cut="-1.1797869205474854e-01" cType="1" res="8.6319055408239365e-03" rms="4.4916263222694397e-01" purity="5.0742590427398682e-01" nType="0">
        <Node pos="l" depth="1" NCoef="0" IVar="-1" Cut="0.0000000000000000e+00" cType="1" res="-2.2308172192424536e-03" rms="4.2831256985664368e-01" purity="4.1275203227996826e-01" nType="-99"/>
        <Node pos="r" depth="1" NCoef="0" IVar="1" Cut="8.5997742414474487e-01" cType="1" res="1.2282589450478554e-02" rms="4.5105612277984619e-01" purity="5.1699763536453247e-01" nType="0">
          <Node pos="l" depth="2" NCoef="0" IVar="-1" Cut="0.0000000000000000e+00" cType="1" res="2.8786782640963793e-03" rms="4.6133947372436523e-01" purity="3.9824497699737549e-01" nType="-99"/>
          <Node pos="r" depth="2" NCoef="0" IVar="-1" Cut="0.0000000000000000e+00" cType="1" res="6.0605449834838510e-04" rms="4.4946327805519104e-01" purity="5.3373020887374878e-01" nType="-99"/>
        </Node>
      </Node>
    </BinaryTree>
    <BinaryTree type="DecisionTree" boostWeight="1.0000000000000000e+00" itree="942">
      <Node pos="s" depth="0" NCoef="0" IVar="1" Cut="9.5252776145935059e-01" cType="1" res="3.0119484290480614e-03" rms="4.5268100500106812e-01" purity="5.0181663036346436e-01" nType="0">
        <Node pos="l" depth="1" NCoef="0" IVar="1" Cut="9.3917000293731689e-01" cType="1" res="7.1799308061599731e-03" rms="4.5972591638565063e-01" purity="4.5107930898666382e-01" nType="0">
          <Node pos="l" depth="2" NCoef="0" IVar="-1" Cut="0.0000000000000000e+00" cType="1" res="3.3237491152249277e-04" rms="4.5889282226562500e-01" purity="4.3610513210296631e-01" nType="-99"/>
          <Node pos="r" depth="2" NCoef="0" IVar="-1" Cut="0.0000000000000000e+00" cType="1" res="2.3911348544061184e-03" rms="4.6849817037582397e-01" purity="6.3048690557479858e-01" nType="-99"/>
        </Node>
        <Node pos="r" depth="1" NCoef="0" IVar="6" Cut="1.2189350128173828e+00" cType="1" res="-1.4946953393518925e-02" rms="4.2050760984420776e-01" purity="7.2043263912200928e-01" nType="0">
          <Node pos="l" depth="2" NCoef="0" IVar="-1" Cut="0.0000000000000000e+00" cType="1" res="-2.5403988547623158e-03" rms="4.1638749837875366e-01" purity="7.3191142082214355e-01" nType="-99"/>
          <Node pos="r" depth="2" NCoef="0" IVar="-1" Cut="0.0000000000000000e+00" cType="1" res="5.6234397925436497e-04" rms="4.2488318681716919e-01" purity="7.0513790845870972e-01" nType="-99"/>
        </Node>
      </Node>
    </BinaryTree>
    <BinaryTree type="DecisionTree" boostWeight="1.0000000000000000e+00" itree="943">
      <Node pos="s" depth="0" NCoef="0" IVar="2" Cut="4.1725082397460938e+02" cType="1" res="-1.1290265247225761e-03" rms="4.5109933614730835e-01" purity="4.9742043018341064e-01" nType="0">
        <Node pos="l" depth="1" NCoef="0" IVar="1" Cut="8.8687771558761597e-01" cType="1" res="-5.7252589613199234e-03" rms="4.5352494716644287e-01" purity="4.5040634274482727e-01" nType="0">
          <Node pos="l" depth="2" NCoef="0" IVar="-1" Cut="0.0000000000000000e+00" cType="1" res="6.2794896075502038e-04" rms="4.4991895556449890e-01" purity="3.4847366809844971e-01" nType="-99"/>
          <Node pos="r" depth="2" NCoef="0" IVar="-1" Cut="0.0000000000000000e+00" cType="1" res="-1.0323825990781188e-03" rms="4.5561060309410095e-01" purity="5.1591932773590088e-01" nType="-99"/>
        </Node>
        <Node pos="r" depth="1" NCoef="0" IVar="3" Cut="-5.9612907469272614e-02" cType="1" res="1.6559034585952759e-02" rms="4.4119384884834290e-01" purity="6.7834877967834473e-01" nType="0">
          <Node pos="l" depth="2" NCoef="0" IVar="-1" Cut="0.0000000000000000e+00" cType="1" res="2.5314358063042164e-03" rms="4.4877290725708008e-01" purity="6.6305506229400635e-01" nType="-99"/>
          <Node pos="r" depth="2" NCoef="0" IVar="-1" Cut="0.0000000000000000e+00" cType="1" res="2.3042094835545868e-04" rms="4.3611630797386169e-01" purity="6.8738770484924316e-01" nType="-99"/>
        </Node>
      </Node>
    </BinaryTree>
    <BinaryTree type="DecisionTree" boostWeight="1.0000000000000000e+00" itree="944">
      <Node pos="s" depth="0" NCoef="0" IVar="3" Cut="1.7272667586803436e-01" cType="1" res="2.8445052448660135e-03" rms="4.4914010167121887e-01" purity="5.0069767236709595e-01" nType="0">
        <Node pos="l" depth="1" NCoef="0" IVar="6" Cut="9.6179234981536865e-01" cType="1" res="7.0127719081938267e-03" rms="4.4676801562309265e-01" purity="4.9577334523200989e-01" nType="0">
          <Node pos="l" depth="2" NCoef="0" IVar="-1" Cut="0.0000000000000000e+00" cType="1" res="-5.3772219689562917e-04" rms="4.5020875334739685e-01" purity="5.4478025436401367e-01" nType="-99"/>
          <Node pos="r" depth="2" NCoef="0" IVar="-1" Cut="0.0000000000000000e+00" cType="1" res="1.0625276481732726e-03" rms="4.4485640525817871e-01" purity="4.7125446796417236e-01" nType="-99"/>
        </Node>
        <Node pos="r" depth="1" NCoef="0" IVar="6" Cut="1.0147818326950073e+00" cType="1" res="-1.9869014620780945e-02" rms="4.6119037270545959e-01" purity="5.2753120660781860e-01" nType="0">
          <Node pos="l" depth="2" NCoef="0" IVar="-1" Cut="0.0000000000000000e+00" cType="1" res="7.7552476432174444e-04" rms="4.5853438973426819e-01" purity="6.1432558298110962e-01" nType="-99"/>
          <Node pos="r" depth="2" NCoef="0" IVar="-1" Cut="0.0000000000000000e+00" cType="1" res="-2.8276450466364622e-03" rms="4.6175205707550049e-01" purity="4.7250810265541077e-01" nType="-99"/>
        </Node>
      </Node>
    </BinaryTree>
    <BinaryTree type="DecisionTree" boostWeight="1.0000000000000000e+00" itree="945">
      <Node pos="s" depth="0" NCoef="0" IVar="1" Cut="9.4867134094238281e-01" cType="1" res="5.1568332128226757e-03" rms="4.4714191555976868e-01" purity="5.0567650794982910e-01" nType="0">
        <Node pos="l" depth="1" NCoef="0" IVar="4" Cut="1.3439641892910004e-01" cType="1" res="-3.0823374981991947e-04" rms="4.5762449502944946e-01" purity="4.4155183434486389e-01" nType="0">
          <Node pos="l" depth="2" NCoef="0" IVar="-1" Cut="0.0000000000000000e+00" cType="1" res="1.7646240303292871e-03" rms="4.5992991328239441e-01" purity="4.2197102308273315e-01" nType="-99"/>
          <Node pos="r" depth="2" NCoef="0" IVar="-1" Cut="0.0000000000000000e+00" cType="1" res="-1.7297553131356835e-04" rms="4.5736464858055115e-01" purity="4.4323250651359558e-01" nType="-99"/>
        </Node>
        <Node pos="r" depth="1" NCoef="0" IVar="5" Cut="9.6807838417589664e-05" cType="1" res="2.5871526449918747e-02" rms="4.0428274869918823e-01" purity="7.4873369932174683e-01" nType="0">
          <Node pos="l" depth="2" NCoef="0" IVar="-1" Cut="0.0000000000000000e+00" cType="1" res="1.0468510445207357e-03" rms="3.8217586278915405e-01" purity="7.9528433084487915e-01" nType="-99"/>
          <Node pos="r" depth="2" NCoef="0" IVar="-1" Cut="0.0000000000000000e+00" cType="1" res="2.5297945830971003e-03" rms="4.2302018404006958e-01" purity="7.0646446943283081e-01" nType="-99"/>
        </Node>
      </Node>
    </BinaryTree>
    <BinaryTree type="DecisionTree" boostWeight="1.0000000000000000e+00" itree="946">
      <Node pos="s" depth="0" NCoef="0" IVar="7" Cut="6.4322906732559204e-01" cType="1" res="-5.2803298458456993e-03" rms="4.4980189204216003e-01" purity="4.9608045816421509e-01" nType="0">
        <Node pos="l" depth="1" NCoef="0" IVar="4" Cut="4.8202413320541382e-01" cType="1" res="2.8310224879533052e-03" rms="4.5109996199607849e-01" purity="4.6351751685142517e-01" nType="0">
          <Node pos="l" depth="2" NCoef="0" IVar="-1" Cut="0.0000000000000000e+00" cType="1" res="-2.6304111815989017e-04" rms="4.4891706109046936e-01" purity="4.5529979467391968e-01" nType="-99"/>
          <Node pos="r" depth="2" NCoef="0" IVar="-1" Cut="0.0000000000000000e+00" cType="1" res="2.7237585745751858e-03" rms="4.6123921871185303e-01" purity="5.0814604759216309e-01" nType="-99"/>
        </Node>
        <Node pos="r" depth="1" NCoef="0" IVar="1" Cut="9.4868147373199463e-01" cType="1" res="-1.3249446637928486e-02" rms="4.4838002324104309e-01" purity="5.2807247638702393e-01" nType="0">
          <Node pos="l" depth="2" NCoef="0" IVar="-1" Cut="0.0000000000000000e+00" cType="1" res="-1.3404681812971830e-03" rms="4.6152931451797485e-01" purity="4.5632442831993103e-01" nType="-99"/>
          <Node pos="r" depth="2" NCoef="0" IVar="-1" Cut="0.0000000000000000e+00" cType="1" res="5.2444031462073326e-04" rms="4.0020078420639038e-01" purity="7.7015447616577148e-01" nType="-99"/>
        </Node>
      </Node>
    </BinaryTree>
    <BinaryTree type="DecisionTree" boostWeight="1.0000000000000000e+00" itree="947">
      <Node pos="s" depth="0" NCoef="0" IVar="6" Cut="1.1437656879425049e+00" cType="1" res="-2.3113817442208529e-03" rms="4.4911959767341614e-01" purity="4.9709627032279968e-01" nType="0">
        <Node pos="l" depth="1" NCoef="0" IVar="4" Cut="4.2745938897132874e-01" cType="1" res="8.1354537978768349e-03" rms="4.5283842086791992e-01" purity="5.5281168222427368e-01" nType="0">
          <Node pos="l" depth="2" NCoef="0" IVar="-1" Cut="0.0000000000000000e+00" cType="1" res="1.1781461071223021e-03" rms="4.5609986782073975e-01" purity="5.4584461450576782e-01" nType="-99"/>
          <Node pos="r" depth="2" NCoef="0" IVar="-1" Cut="0.0000000000000000e+00" cType="1" res="-3.3837137743830681e-04" rms="4.4776892662048340e-01" purity="5.6286948919296265e-01" nType="-99"/>
        </Node>
        <Node pos="r" depth="1" NCoef="0" IVar="6" Cut="1.2536703348159790e+00" cType="1" res="-1.2230374850332737e-02" rms="4.4533318281173706e-01" purity="4.4419598579406738e-01" nType="0">
          <Node pos="l" depth="2" NCoef="0" IVar="-1" Cut="0.0000000000000000e+00" cType="1" res="-3.1997808255255222e-03" rms="4.5996531844139099e-01" purity="4.4175016880035400e-01" nType="-99"/>
          <Node pos="r" depth="2" NCoef="0" IVar="-1" Cut="0.0000000000000000e+00" cType="1" res="-4.7449456178583205e-04" rms="4.4214761257171631e-01" purity="4.4467708468437195e-01" nType="-99"/>
        </Node>
      </Node>
    </BinaryTree>
    <BinaryTree type="DecisionTree" boostWeight="1.0000000000000000e+00" itree="948">
      <Node pos="s" depth="0" NCoef="0" IVar="6" Cut="7.5851410627365112e-01" cType="1" res="5.7872938923537731e-03" rms="4.5147719979286194e-01" purity="5.0634247064590454e-01" nType="0">
        <Node pos="l" depth="1" NCoef="0" IVar="0" Cut="1.4279308319091797e+00" cType="1" res="-1.1264618486166000e-02" rms="4.4627663493156433e-01" purity="5.6727457046508789e-01" nType="0">
          <Node pos="l" depth="2" NCoef="0" IVar="-1" Cut="0.0000000000000000e+00" cType="1" res="-3.9927186444401741e-03" rms="4.5845109224319458e-01" purity="3.8797590136528015e-01" nType="-99"/>
          <Node pos="r" depth="2" NCoef="0" IVar="-1" Cut="0.0000000000000000e+00" cType="1" res="1.1271999683231115e-03" rms="4.3567854166030884e-01" purity="6.8782079219818115e-01" nType="-99"/>
        </Node>
        <Node pos="r" depth="1" NCoef="0" IVar="3" Cut="-1.0354382544755936e-01" cType="1" res="9.1429930180311203e-03" rms="4.5241793990135193e-01" purity="4.9435147643089294e-01" nType="0">
          <Node pos="l" depth="2" NCoef="0" IVar="-1" Cut="0.0000000000000000e+00" cType="1" res="-1.4573064399883151e-03" rms="4.4152706861495972e-01" purity="4.0453359484672546e-01" nType="-99"/>
          <Node pos="r" depth="2" NCoef="0" IVar="-1" Cut="0.0000000000000000e+00" cType="1" res="9.6068659331649542e-04" rms="4.5395129919052124e-01" purity="5.0842630863189697e-01" nType="-99"/>
        </Node>
      </Node>
    </BinaryTree>
    <BinaryTree type="DecisionTree" boostWeight="1.0000000000000000e+00" itree="949">
      <Node pos="s" depth="0" NCoef="0" IVar="1" Cut="8.5610574483871460e-01" cType="1" res="-2.8123147785663605e-03" rms="4.4758227467536926e-01" purity="4.9790281057357788e-01" nType="0">
        <Node pos="l" depth="1" NCoef="0" IVar="-1" Cut="0.0000000000000000e+00" cType="1" res="-2.5478182360529900e-03" rms="4.4132626056671143e-01" purity="3.2843881845474243e-01" nType="-99"/>
        <Node pos="r" depth="1" NCoef="0" IVar="5" Cut="2.5482885539531708e-03" cType="1" res="-3.7002310273237526e-04" rms="4.4801348447799683e-01" purity="5.1203233003616333e-01" nType="0">
          <Node pos="l" depth="2" NCoef="0" IVar="-1" Cut="0.0000000000000000e+00" cType="1" res="-3.5187904722988605e-04" rms="4.4516623020172119e-01" purity="5.2982527017593384e-01" nType="-99"/>
          <Node pos="r" depth="2" NCoef="0" IVar="-1" Cut="0.0000000000000000e+00" cType="1" res="1.3898598263040185e-03" rms="4.6005514264106750e-01" purity="4.3201261758804321e-01" nType="-99"/>
        </Node>
      </Node>
    </BinaryTree>
    <BinaryTree type="DecisionTree" boostWeight="1.0000000000000000e+00" itree="950">
      <Node pos="s" depth="0" NCoef="0" IVar="1" Cut="9.0616744756698608e-01" cType="1" res="-1.5142093179747462e-03" rms="4.4761919975280762e-01" purity="4.9896135926246643e-01" nType="0">
        <Node pos="l" depth="1" NCoef="0" IVar="7" Cut="7.9014247655868530e-01" cType="1" res="-1.1116567999124527e-02" rms="4.5196047425270081e-01" purity="3.8490569591522217e-01" nType="0">
          <Node pos="l" depth="2" NCoef="0" IVar="-1" Cut="0.0000000000000000e+00" cType="1" res="-3.1680561369284987e-04" rms="4.5095536112785339e-01" purity="3.7605467438697815e-01" nType="-99"/>
          <Node pos="r" depth="2" NCoef="0" IVar="-1" Cut="0.0000000000000000e+00" cType="1" res="-2.6379420887678862e-03" rms="4.5472183823585510e-01" purity="4.1750526428222656e-01" nType="-99"/>
        </Node>
        <Node pos="r" depth="1" NCoef="0" IVar="5" Cut="1.1651787208393216e-03" cType="1" res="9.2585384845733643e-03" rms="4.4245010614395142e-01" purity="6.2691879272460938e-01" nType="0">
          <Node pos="l" depth="2" NCoef="0" IVar="-1" Cut="0.0000000000000000e+00" cType="1" res="1.6541600052732974e-04" rms="4.3982467055320740e-01" purity="6.3455182313919067e-01" nType="-99"/>
          <Node pos="r" depth="2" NCoef="0" IVar="-1" Cut="0.0000000000000000e+00" cType="1" res="3.6350870504975319e-03" rms="4.5740029215812683e-01" purity="5.7386374473571777e-01" nType="-99"/>
        </Node>
      </Node>
    </BinaryTree>
    <BinaryTree type="DecisionTree" boostWeight="1.0000000000000000e+00" itree="951">
      <Node pos="s" depth="0" NCoef="0" IVar="4" Cut="2.0104044675827026e-01" cType="1" res="1.3947061961516738e-03" rms="4.5059031248092651e-01" purity="5.0316649675369263e-01" nType="0">
        <Node pos="l" depth="1" NCoef="0" IVar="1" Cut="8.9403849840164185e-01" cType="1" res="1.9025076180696487e-02" rms="4.5349738001823425e-01" purity="4.7807136178016663e-01" nType="0">
          <Node pos="l" depth="2" NCoef="0" IVar="-1" Cut="0.0000000000000000e+00" cType="1" res="2.8460642788559198e-03" rms="4.6043181419372559e-01" purity="4.1343116760253906e-01" nType="-99"/>
          <Node pos="r" depth="2" NCoef="0" IVar="-1" Cut="0.0000000000000000e+00" cType="1" res="1.2201782737975009e-05" rms="4.4590285420417786e-01" purity="5.4035097360610962e-01" nType="-99"/>
        </Node>
        <Node pos="r" depth="1" NCoef="0" IVar="7" Cut="7.6987189054489136e-01" cType="1" res="-2.3278708104044199e-03" rms="4.4988578557968140e-01" purity="5.0846529006958008e-01" nType="0">
          <Node pos="l" depth="2" NCoef="0" IVar="-1" Cut="0.0000000000000000e+00" cType="1" res="2.5840982561931014e-04" rms="4.5188188552856445e-01" purity="4.9293905496597290e-01" nType="-99"/>
          <Node pos="r" depth="2" NCoef="0" IVar="-1" Cut="0.0000000000000000e+00" cType="1" res="-1.1712227715179324e-03" rms="4.4478130340576172e-01" purity="5.4545044898986816e-01" nType="-99"/>
        </Node>
      </Node>
    </BinaryTree>
    <BinaryTree type="DecisionTree" boostWeight="1.0000000000000000e+00" itree="952">
      <Node pos="s" depth="0" NCoef="0" IVar="7" Cut="4.5697274804115295e-01" cType="1" res="7.6546403579413891e-04" rms="4.4894477725028992e-01" purity="5.0320148468017578e-01" nType="0">
        <Node pos="l" depth="1" NCoef="0" IVar="7" Cut="3.6578682065010071e-01" cType="1" res="-2.1741816774010658e-02" rms="4.4346767663955688e-01" purity="4.2364111542701721e-01" nType="0">
          <Node pos="l" depth="2" NCoef="0" IVar="-1" Cut="0.0000000000000000e+00" cType="1" res="1.0782638564705849e-03" rms="4.6576121449470520e-01" purity="4.8566836118698120e-01" nType="-99"/>
          <Node pos="r" depth="2" NCoef="0" IVar="-1" Cut="0.0000000000000000e+00" cType="1" res="-3.3760962542146444e-03" rms="4.2891329526901245e-01" purity="3.8846877217292786e-01" nType="-99"/>
        </Node>
        <Node pos="r" depth="1" NCoef="0" IVar="1" Cut="9.2542475461959839e-01" cType="1" res="5.3330627270042896e-03" rms="4.4991073012351990e-01" purity="5.1934736967086792e-01" nType="0">
          <Node pos="l" depth="2" NCoef="0" IVar="-1" Cut="0.0000000000000000e+00" cType="1" res="-5.0113689212594181e-05" rms="4.5933520793914795e-01" purity="4.2649975419044495e-01" nType="-99"/>
          <Node pos="r" depth="2" NCoef="0" IVar="-1" Cut="0.0000000000000000e+00" cType="1" res="1.1885911226272583e-03" rms="4.3114268779754639e-01" purity="6.9633299112319946e-01" nType="-99"/>
        </Node>
      </Node>
    </BinaryTree>
    <BinaryTree type="DecisionTree" boostWeight="1.0000000000000000e+00" itree="953">
      <Node pos="s" depth="0" NCoef="0" IVar="7" Cut="6.3596117496490479e-01" cType="1" res="6.1506745405495167e-03" rms="4.4794169068336487e-01" purity="5.0714302062988281e-01" nType="0">
        <Node pos="l" depth="1" NCoef="0" IVar="4" Cut="2.8866031765937805e-01" cType="1" res="-3.7373989471234381e-04" rms="4.4895294308662415e-01" purity="4.5306256413459778e-01" nType="0">
          <Node pos="l" depth="2" NCoef="0" IVar="-1" Cut="0.0000000000000000e+00" cType="1" res="6.1409012414515018e-04" rms="4.4733205437660217e-01" purity="4.5042565464973450e-01" nType="-99"/>
          <Node pos="r" depth="2" NCoef="0" IVar="-1" Cut="0.0000000000000000e+00" cType="1" res="-7.0187292294576764e-04" rms="4.5045486092567444e-01" purity="4.5580387115478516e-01" nType="-99"/>
        </Node>
        <Node pos="r" depth="1" NCoef="0" IVar="7" Cut="6.8112558126449585e-01" cType="1" res="1.1890997178852558e-02" rms="4.4697129726409912e-01" purity="5.5472415685653687e-01" nType="0">
          <Node pos="l" depth="2" NCoef="0" IVar="-1" Cut="0.0000000000000000e+00" cType="1" res="2.6780832558870316e-03" rms="4.5376610755920410e-01" purity="5.3655260801315308e-01" nType="-99"/>
          <Node pos="r" depth="2" NCoef="0" IVar="-1" Cut="0.0000000000000000e+00" cType="1" res="4.5776460319757462e-04" rms="4.4540795683860779e-01" purity="5.5834728479385376e-01" nType="-99"/>
        </Node>
      </Node>
    </BinaryTree>
    <BinaryTree type="DecisionTree" boostWeight="1.0000000000000000e+00" itree="954">
      <Node pos="s" depth="0" NCoef="0" IVar="5" Cut="5.1369873108342290e-04" cType="1" res="2.5263165589421988e-03" rms="4.5159220695495605e-01" purity="5.0154840946197510e-01" nType="0">
        <Node pos="l" depth="1" NCoef="0" IVar="1" Cut="9.7553968429565430e-01" cType="1" res="-1.1129895225167274e-02" rms="4.2757391929626465e-01" purity="6.3619917631149292e-01" nType="0">
          <Node pos="l" depth="2" NCoef="0" IVar="-1" Cut="0.0000000000000000e+00" cType="1" res="-1.4117520768195391e-03" rms="4.4172361493110657e-01" purity="5.7006162405014038e-01" nType="-99"/>
          <Node pos="r" depth="2" NCoef="0" IVar="-1" Cut="0.0000000000000000e+00" cType="1" res="8.7810360128059983e-04" rms="3.8705810904502869e-01" purity="8.1015318632125854e-01" nType="-99"/>
        </Node>
        <Node pos="r" depth="1" NCoef="0" IVar="6" Cut="1.9660116434097290e+00" cType="1" res="8.0005358904600143e-03" rms="4.6075522899627686e-01" purity="4.4757246971130371e-01" nType="0">
          <Node pos="l" depth="2" NCoef="0" IVar="-1" Cut="0.0000000000000000e+00" cType="1" res="3.6344557884149253e-04" rms="4.6225163340568542e-01" purity="4.5006915926933289e-01" nType="-99"/>
          <Node pos="r" depth="2" NCoef="0" IVar="-1" Cut="0.0000000000000000e+00" cType="1" res="3.4875166602432728e-03" rms="4.3894883990287781e-01" purity="4.1484934091567993e-01" nType="-99"/>
        </Node>
      </Node>
    </BinaryTree>
    <BinaryTree type="DecisionTree" boostWeight="1.0000000000000000e+00" itree="955">
      <Node pos="s" depth="0" NCoef="0" IVar="2" Cut="2.6679980468750000e+02" cType="1" res="-1.5509305521845818e-03" rms="4.5038926601409912e-01" purity="5.0017613172531128e-01" nType="0">
        <Node pos="l" depth="1" NCoef="0" IVar="6" Cut="1.4339298009872437e+00" cType="1" res="1.0815711691975594e-02" rms="4.3799281120300293e-01" purity="3.6051663756370544e-01" nType="0">
          <Node pos="l" depth="2" NCoef="0" IVar="-1" Cut="0.0000000000000000e+00" cType="1" res="2.0447229035198689e-03" rms="4.5050680637359619e-01" purity="4.0890046954154968e-01" nType="-99"/>
          <Node pos="r" depth="2" NCoef="0" IVar="-1" Cut="0.0000000000000000e+00" cType="1" res="-1.1561524588614702e-03" rms="4.1772487759590149e-01" purity="2.8893890976905823e-01" nType="-99"/>
        </Node>
        <Node pos="r" depth="1" NCoef="0" IVar="4" Cut="2.6700428128242493e-01" cType="1" res="-7.8021688386797905e-03" rms="4.5640000700950623e-01" purity="5.7077288627624512e-01" nType="0">
          <Node pos="l" depth="2" NCoef="0" IVar="-1" Cut="0.0000000000000000e+00" cType="1" res="5.2231509471312165e-04" rms="4.5649984478950500e-01" purity="5.2398419380187988e-01" nType="-99"/>
          <Node pos="r" depth="2" NCoef="0" IVar="-1" Cut="0.0000000000000000e+00" cType="1" res="-1.0167530272156000e-03" rms="4.5617839694023132e-01" purity="5.9232014417648315e-01" nType="-99"/>
        </Node>
      </Node>
    </BinaryTree>
    <BinaryTree type="DecisionTree" boostWeight="1.0000000000000000e+00" itree="956">
      <Node pos="s" depth="0" NCoef="0" IVar="6" Cut="1.4695076942443848e+00" cType="1" res="2.9734252020716667e-03" rms="4.4922536611557007e-01" purity="5.0102883577346802e-01" nType="0">
        <Node pos="l" depth="1" NCoef="0" IVar="2" Cut="3.4856173706054688e+02" cType="1" res="8.0141890794038773e-03" rms="4.5616850256919861e-01" purity="5.3001892566680908e-01" nType="0">
          <Node pos="l" depth="2" NCoef="0" IVar="-1" Cut="0.0000000000000000e+00" cType="1" res="1.1686887592077255e-03" rms="4.5790496468544006e-01" purity="4.6630752086639404e-01" nType="-99"/>
          <Node pos="r" depth="2" NCoef="0" IVar="-1" Cut="0.0000000000000000e+00" cType="1" res="-2.6170007186010480e-04" rms="4.5341059565544128e-01" purity="6.2110781669616699e-01" nType="-99"/>
        </Node>
        <Node pos="r" depth="1" NCoef="0" IVar="2" Cut="2.9668746948242188e+02" cType="1" res="-1.0622271336615086e-02" rms="4.2964527010917664e-01" purity="4.2283818125724792e-01" nType="0">
          <Node pos="l" depth="2" NCoef="0" IVar="-1" Cut="0.0000000000000000e+00" cType="1" res="-2.7809890452772379e-03" rms="4.1974556446075439e-01" purity="3.0886980891227722e-01" nType="-99"/>
          <Node pos="r" depth="2" NCoef="0" IVar="-1" Cut="0.0000000000000000e+00" cType="1" res="1.3805236667394638e-03" rms="4.4253399968147278e-01" purity="5.9711349010467529e-01" nType="-99"/>
        </Node>
      </Node>
    </BinaryTree>
    <BinaryTree type="DecisionTree" boostWeight="1.0000000000000000e+00" itree="957">
      <Node pos="s" depth="0" NCoef="0" IVar="3" Cut="-1.0392584651708603e-01" cType="1" res="-9.8588096443563700e-04" rms="4.4792297482490540e-01" purity="4.9770888686180115e-01" nType="0">
        <Node pos="l" depth="1" NCoef="0" IVar="4" Cut="2.3676681518554688e-01" cType="1" res="2.2211933508515358e-02" rms="4.4609406590461731e-01" purity="4.6625450253486633e-01" nType="0">
          <Node pos="l" depth="2" NCoef="0" IVar="-1" Cut="0.0000000000000000e+00" cType="1" res="3.1347558833658695e-03" rms="4.4189614057540894e-01" purity="4.5311644673347473e-01" nType="-99"/>
          <Node pos="r" depth="2" NCoef="0" IVar="-1" Cut="0.0000000000000000e+00" cType="1" res="9.4482634449377656e-04" rms="4.4798216223716736e-01" purity="4.7315499186515808e-01" nType="-99"/>
        </Node>
        <Node pos="r" depth="1" NCoef="0" IVar="4" Cut="3.9248812198638916e-01" cType="1" res="-4.9979500472545624e-03" rms="4.4811671972274780e-01" purity="5.0314891338348389e-01" nType="0">
          <Node pos="l" depth="2" NCoef="0" IVar="-1" Cut="0.0000000000000000e+00" cType="1" res="-1.1024066479876637e-03" rms="4.4862782955169678e-01" purity="4.7041335701942444e-01" nType="-99"/>
          <Node pos="r" depth="2" NCoef="0" IVar="-1" Cut="0.0000000000000000e+00" cType="1" res="3.1690279138274491e-04" rms="4.4743338227272034e-01" purity="5.3374445438385010e-01" nType="-99"/>
        </Node>
      </Node>
    </BinaryTree>
    <BinaryTree type="DecisionTree" boostWeight="1.0000000000000000e+00" itree="958">
      <Node pos="s" depth="0" NCoef="0" IVar="6" Cut="1.3803905248641968e+00" cType="1" res="1.4765721280127764e-03" rms="4.4934949278831482e-01" purity="5.0072401762008667e-01" nType="0">
        <Node pos="l" depth="1" NCoef="0" IVar="6" Cut="9.0319210290908813e-01" cType="1" res="-3.2603354193270206e-03" rms="4.5431393384933472e-01" purity="5.2752655744552612e-01" nType="0">
          <Node pos="l" depth="2" NCoef="0" IVar="-1" Cut="0.0000000000000000e+00" cType="1" res="6.4206536626443267e-04" rms="4.5842465758323669e-01" purity="5.6911468505859375e-01" nType="-99"/>
          <Node pos="r" depth="2" NCoef="0" IVar="-1" Cut="0.0000000000000000e+00" cType="1" res="-8.9564506197348237e-04" rms="4.5105409622192383e-01" purity="4.9703601002693176e-01" nType="-99"/>
        </Node>
        <Node pos="r" depth="1" NCoef="0" IVar="3" Cut="-1.5991607680916786e-02" cType="1" res="1.1130207218229771e-02" rms="4.3890020251274109e-01" purity="4.4610136747360229e-01" nType="0">
          <Node pos="l" depth="2" NCoef="0" IVar="-1" Cut="0.0000000000000000e+00" cType="1" res="-6.7223416408523917e-04" rms="4.3019360303878784e-01" purity="3.8665506243705750e-01" nType="-99"/>
          <Node pos="r" depth="2" NCoef="0" IVar="-1" Cut="0.0000000000000000e+00" cType="1" res="1.7159437993541360e-03" rms="4.4396433234214783e-01" purity="4.8427703976631165e-01" nType="-99"/>
        </Node>
      </Node>
    </BinaryTree>
    <BinaryTree type="DecisionTree" boostWeight="1.0000000000000000e+00" itree="959">
      <Node pos="s" depth="0" NCoef="0" IVar="3" Cut="-2.7346087619662285e-02" cType="1" res="-4.4448813423514366e-03" rms="4.4910952448844910e-01" purity="4.9530759453773499e-01" nType="0">
        <Node pos="l" depth="1" NCoef="0" IVar="1" Cut="9.2157858610153198e-01" cType="1" res="-1.2764346785843372e-02" rms="4.3997341394424438e-01" purity="4.5653057098388672e-01" nType="0">
          <Node pos="l" depth="2" NCoef="0" IVar="-1" Cut="0.0000000000000000e+00" cType="1" res="-1.8070859368890524e-03" rms="4.4072088599205017e-01" purity="3.5271930694580078e-01" nType="-99"/>
          <Node pos="r" depth="2" NCoef="0" IVar="-1" Cut="0.0000000000000000e+00" cType="1" res="2.9438475030474365e-04" rms="4.3816483020782471e-01" purity="6.3558149337768555e-01" nType="-99"/>
        </Node>
        <Node pos="r" depth="1" NCoef="0" IVar="1" Cut="8.6768662929534912e-01" cType="1" res="8.1075896741822362e-04" rms="4.5470800995826721e-01" purity="5.1980417966842651e-01" nType="0">
          <Node pos="l" depth="2" NCoef="0" IVar="-1" Cut="0.0000000000000000e+00" cType="1" res="-1.1776279425248504e-03" rms="4.5177152752876282e-01" purity="3.7405633926391602e-01" nType="-99"/>
          <Node pos="r" depth="2" NCoef="0" IVar="-1" Cut="0.0000000000000000e+00" cType="1" res="3.5452641895972192e-04" rms="4.5535480976104736e-01" purity="5.5699700117111206e-01" nType="-99"/>
        </Node>
      </Node>
    </BinaryTree>
    <BinaryTree type="DecisionTree" boostWeight="1.0000000000000000e+00" itree="960">
      <Node pos="s" depth="0" NCoef="0" IVar="0" Cut="4.2060680389404297e+00" cType="1" res="2.6521636173129082e-03" rms="4.4945311546325684e-01" purity="5.0302082300186157e-01" nType="0">
        <Node pos="l" depth="1" NCoef="0" IVar="4" Cut="6.8523317575454712e-01" cType="1" res="5.8811134658753872e-04" rms="4.5527595281600952e-01" purity="4.7318089008331299e-01" nType="0">
          <Node pos="l" depth="2" NCoef="0" IVar="-1" Cut="0.0000000000000000e+00" cType="1" res="1.6806799976620823e-04" rms="4.5560038089752197e-01" purity="4.7136801481246948e-01" nType="-99"/>
          <Node pos="r" depth="2" NCoef="0" IVar="-1" Cut="0.0000000000000000e+00" cType="1" res="-1.4703175984323025e-03" rms="4.5082756876945496e-01" purity="4.9496552348136902e-01" nType="-99"/>
        </Node>
        <Node pos="r" depth="1" NCoef="0" IVar="-1" Cut="0.0000000000000000e+00" cType="1" res="1.7518327804282308e-03" rms="3.8690879940986633e-01" purity="7.9674273729324341e-01" nType="-99"/>
      </Node>
    </BinaryTree>
    <BinaryTree type="DecisionTree" boostWeight="1.0000000000000000e+00" itree="961">
      <Node pos="s" depth="0" NCoef="0" IVar="3" Cut="2.3552301526069641e-01" cType="1" res="4.6006604097783566e-03" rms="4.5124232769012451e-01" purity="5.0223350524902344e-01" nType="0">
        <Node pos="l" depth="1" NCoef="0" IVar="6" Cut="1.8460128307342529e+00" cType="1" res="6.5558818168938160e-03" rms="4.5048388838768005e-01" purity="4.9956879019737244e-01" nType="0">
          <Node pos="l" depth="2" NCoef="0" IVar="-1" Cut="0.0000000000000000e+00" cType="1" res="2.5644068955443799e-04" rms="4.5225340127944946e-01" purity="5.0524514913558960e-01" nType="-99"/>
          <Node pos="r" depth="2" NCoef="0" IVar="-1" Cut="0.0000000000000000e+00" cType="1" res="2.7220495976507664e-03" rms="4.3218004703521729e-01" purity="4.4534882903099060e-01" nType="-99"/>
        </Node>
        <Node pos="r" depth="1" NCoef="0" IVar="-1" Cut="0.0000000000000000e+00" cType="1" res="-1.6147984424605966e-03" rms="4.6113145351409912e-01" purity="5.4070997238159180e-01" nType="-99"/>
      </Node>
    </BinaryTree>
    <BinaryTree type="DecisionTree" boostWeight="1.0000000000000000e+00" itree="962">
      <Node pos="s" depth="0" NCoef="0" IVar="3" Cut="-1.5740184113383293e-02" cType="1" res="-7.2364923544228077e-03" rms="4.4965180754661560e-01" purity="4.9132952094078064e-01" nType="0">
        <Node pos="l" depth="1" NCoef="0" IVar="1" Cut="8.5992902517318726e-01" cType="1" res="2.9429516289383173e-03" rms="4.4540527462959290e-01" purity="4.7203189134597778e-01" nType="0">
          <Node pos="l" depth="2" NCoef="0" IVar="-1" Cut="0.0000000000000000e+00" cType="1" res="2.7040215209126472e-03" rms="4.4447290897369385e-01" purity="3.6965909600257874e-01" nType="-99"/>
          <Node pos="r" depth="2" NCoef="0" IVar="-1" Cut="0.0000000000000000e+00" cType="1" res="-1.1591624206630513e-04" rms="4.4535636901855469e-01" purity="4.8661693930625916e-01" nType="-99"/>
        </Node>
        <Node pos="r" depth="1" NCoef="0" IVar="2" Cut="3.5727285766601562e+02" cType="1" res="-1.4833739958703518e-02" rms="4.5264601707458496e-01" purity="5.0573205947875977e-01" nType="0">
          <Node pos="l" depth="2" NCoef="0" IVar="-1" Cut="0.0000000000000000e+00" cType="1" res="-5.0744292093440890e-04" rms="4.5269304513931274e-01" purity="4.5397454500198364e-01" nType="-99"/>
          <Node pos="r" depth="2" NCoef="0" IVar="-1" Cut="0.0000000000000000e+00" cType="1" res="-2.2330686915665865e-03" rms="4.5205563306808472e-01" purity="6.2030529975891113e-01" nType="-99"/>
        </Node>
      </Node>
    </BinaryTree>
    <BinaryTree type="DecisionTree" boostWeight="1.0000000000000000e+00" itree="963">
      <Node pos="s" depth="0" NCoef="0" IVar="0" Cut="1.0943862199783325e+00" cType="1" res="-1.5001366846263409e-03" rms="4.4927051663398743e-01" purity="4.9942457675933838e-01" nType="0">
        <Node pos="l" depth="1" NCoef="0" IVar="1" Cut="8.5932332277297974e-01" cType="1" res="1.1205926537513733e-02" rms="4.4920384883880615e-01" purity="3.6590820550918579e-01" nType="0">
          <Node pos="l" depth="2" NCoef="0" IVar="-1" Cut="0.0000000000000000e+00" cType="1" res="3.0255371239036322e-03" rms="4.5108050107955933e-01" purity="3.4260481595993042e-01" nType="-99"/>
          <Node pos="r" depth="2" NCoef="0" IVar="-1" Cut="0.0000000000000000e+00" cType="1" res="3.9388425648212433e-04" rms="4.4850295782089233e-01" purity="3.7185168266296387e-01" nType="-99"/>
        </Node>
        <Node pos="r" depth="1" NCoef="0" IVar="1" Cut="9.3307214975357056e-01" cType="1" res="-8.7013682350516319e-03" rms="4.4914874434471130e-01" purity="5.7509577274322510e-01" nType="0">
          <Node pos="l" depth="2" NCoef="0" IVar="-1" Cut="0.0000000000000000e+00" cType="1" res="-1.3012734707444906e-03" rms="4.6513155102729797e-01" purity="4.7766220569610596e-01" nType="-99"/>
          <Node pos="r" depth="2" NCoef="0" IVar="-1" Cut="0.0000000000000000e+00" cType="1" res="4.0823491872288287e-04" rms="4.2680177092552185e-01" purity="7.0318788290023804e-01" nType="-99"/>
        </Node>
      </Node>
    </BinaryTree>
    <BinaryTree type="DecisionTree" boostWeight="1.0000000000000000e+00" itree="964">
      <Node pos="s" depth="0" NCoef="0" IVar="7" Cut="5.1965403556823730e-01" cType="1" res="-1.2046528718201444e-04" rms="4.4965180754661560e-01" purity="4.9903210997581482e-01" nType="0">
        <Node pos="l" depth="1" NCoef="0" IVar="3" Cut="1.1201260611414909e-02" cType="1" res="-1.3970848172903061e-02" rms="4.4565486907958984e-01" purity="4.3098649382591248e-01" nType="0">
          <Node pos="l" depth="2" NCoef="0" IVar="-1" Cut="0.0000000000000000e+00" cType="1" res="-4.5042056590318680e-03" rms="4.0531492233276367e-01" purity="2.3934991657733917e-01" nType="-99"/>
          <Node pos="r" depth="2" NCoef="0" IVar="-1" Cut="0.0000000000000000e+00" cType="1" res="-3.3099183929152787e-04" rms="4.5676964521408081e-01" purity="4.8904502391815186e-01" nType="-99"/>
        </Node>
        <Node pos="r" depth="1" NCoef="0" IVar="4" Cut="5.7676583528518677e-01" cType="1" res="4.8131700605154037e-03" rms="4.5096427202224731e-01" purity="5.2327060699462891e-01" nType="0">
          <Node pos="l" depth="2" NCoef="0" IVar="-1" Cut="0.0000000000000000e+00" cType="1" res="7.7242060797289014e-04" rms="4.5251050591468811e-01" purity="5.2458769083023071e-01" nType="-99"/>
          <Node pos="r" depth="2" NCoef="0" IVar="-1" Cut="0.0000000000000000e+00" cType="1" res="-9.1309956042096019e-04" rms="4.4612833857536316e-01" purity="5.1956075429916382e-01" nType="-99"/>
        </Node>
      </Node>
    </BinaryTree>
    <BinaryTree type="DecisionTree" boostWeight="1.0000000000000000e+00" itree="965">
      <Node pos="s" depth="0" NCoef="0" IVar="6" Cut="1.4701555967330933e+00" cType="1" res="1.7330216942355037e-03" rms="4.5059835910797119e-01" purity="4.9955588579177856e-01" nType="0">
        <Node pos="l" depth="1" NCoef="0" IVar="7" Cut="7.9272335767745972e-01" cType="1" res="8.5775684565305710e-03" rms="4.5795607566833496e-01" purity="5.3133475780487061e-01" nType="0">
          <Node pos="l" depth="2" NCoef="0" IVar="-1" Cut="0.0000000000000000e+00" cType="1" res="1.1655390262603760e-03" rms="4.6111527085304260e-01" purity="5.2395570278167725e-01" nType="-99"/>
          <Node pos="r" depth="2" NCoef="0" IVar="-1" Cut="0.0000000000000000e+00" cType="1" res="-1.2873180676251650e-03" rms="4.4641262292861938e-01" purity="5.5550056695938110e-01" nType="-99"/>
        </Node>
        <Node pos="r" depth="1" NCoef="0" IVar="7" Cut="7.4099552631378174e-01" cType="1" res="-1.6900159418582916e-02" rms="4.2937812209129333e-01" purity="4.1304308176040649e-01" nType="0">
          <Node pos="l" depth="2" NCoef="0" IVar="-1" Cut="0.0000000000000000e+00" cType="1" res="-2.5980111677199602e-03" rms="4.2615801095962524e-01" purity="3.6918017268180847e-01" nType="-99"/>
          <Node pos="r" depth="2" NCoef="0" IVar="-1" Cut="0.0000000000000000e+00" cType="1" res="1.3973172754049301e-03" rms="4.3523901700973511e-01" purity="5.2301079034805298e-01" nType="-99"/>
        </Node>
      </Node>
    </BinaryTree>
    <BinaryTree type="DecisionTree" boostWeight="1.0000000000000000e+00" itree="966">
      <Node pos="s" depth="0" NCoef="0" IVar="6" Cut="1.8455662727355957e+00" cType="1" res="-1.3568218564614654e-03" rms="4.5098936557769775e-01" purity="4.9507039785385132e-01" nType="0">
        <Node pos="l" depth="1" NCoef="0" IVar="3" Cut="-8.8227435946464539e-02" cType="1" res="-4.7072269953787327e-03" rms="4.5277476310729980e-01" purity="4.9995532631874084e-01" nType="0">
          <Node pos="l" depth="2" NCoef="0" IVar="-1" Cut="0.0000000000000000e+00" cType="1" res="8.2699413178488612e-04" rms="4.4709950685501099e-01" purity="4.7349163889884949e-01" nType="-99"/>
          <Node pos="r" depth="2" NCoef="0" IVar="-1" Cut="0.0000000000000000e+00" cType="1" res="-6.4031593501567841e-04" rms="4.5417934656143188e-01" purity="5.0699216127395630e-01" nType="-99"/>
        </Node>
        <Node pos="r" depth="1" NCoef="0" IVar="-1" Cut="0.0000000000000000e+00" cType="1" res="2.3340480402112007e-03" rms="4.3259292840957642e-01" purity="4.4917955994606018e-01" nType="-99"/>
      </Node>
    </BinaryTree>
    <BinaryTree type="DecisionTree" boostWeight="1.0000000000000000e+00" itree="967">
      <Node pos="s" depth="0" NCoef="0" IVar="3" Cut="-7.5403831899166107e-02" cType="1" res="8.7230689823627472e-03" rms="4.4992631673812866e-01" purity="5.0988614559173584e-01" nType="0">
        <Node pos="l" depth="1" NCoef="0" IVar="5" Cut="2.4047663901001215e-03" cType="1" res="-6.7663234658539295e-03" rms="4.4185945391654968e-01" purity="4.5918276906013489e-01" nType="0">
          <Node pos="l" depth="2" NCoef="0" IVar="-1" Cut="0.0000000000000000e+00" cType="1" res="-1.3623893028125167e-03" rms="4.3576958775520325e-01" purity="4.8513528704643250e-01" nType="-99"/>
          <Node pos="r" depth="2" NCoef="0" IVar="-1" Cut="0.0000000000000000e+00" cType="1" res="1.9199023954570293e-03" rms="4.5759174227714539e-01" purity="3.8383311033248901e-01" nType="-99"/>
        </Node>
        <Node pos="r" depth="1" NCoef="0" IVar="3" Cut="-4.2926803231239319e-02" cType="1" res="1.3693688437342644e-02" rms="4.5237213373184204e-01" purity="5.2615708112716675e-01" nType="0">
          <Node pos="l" depth="2" NCoef="0" IVar="-1" Cut="0.0000000000000000e+00" cType="1" res="2.6429989375174046e-03" rms="4.3688616156578064e-01" purity="5.3329265117645264e-01" nType="-99"/>
          <Node pos="r" depth="2" NCoef="0" IVar="-1" Cut="0.0000000000000000e+00" cType="1" res="6.8993499735370278e-04" rms="4.5477482676506042e-01" purity="5.2497327327728271e-01" nType="-99"/>
        </Node>
      </Node>
    </BinaryTree>
    <BinaryTree type="DecisionTree" boostWeight="1.0000000000000000e+00" itree="968">
      <Node pos="s" depth="0" NCoef="0" IVar="4" Cut="6.6829729080200195e-01" cType="1" res="2.3755340371280909e-03" rms="4.4804126024246216e-01" purity="5.0214827060699463e-01" nType="0">
        <Node pos="l" depth="1" NCoef="0" IVar="3" Cut="7.2450935840606689e-03" cType="1" res="-8.3628902211785316e-04" rms="4.4820332527160645e-01" purity="4.9544188380241394e-01" nType="0">
          <Node pos="l" depth="2" NCoef="0" IVar="-1" Cut="0.0000000000000000e+00" cType="1" res="-8.4157689707353711e-04" rms="4.4148716330528259e-01" purity="4.5471063256263733e-01" nType="-99"/>
          <Node pos="r" depth="2" NCoef="0" IVar="-1" Cut="0.0000000000000000e+00" cType="1" res="5.8579613687470555e-04" rms="4.5405545830726624e-01" purity="5.3266340494155884e-01" nType="-99"/>
        </Node>
        <Node pos="r" depth="1" NCoef="0" IVar="-1" Cut="0.0000000000000000e+00" cType="1" res="2.3210353683680296e-03" rms="4.4528329372406006e-01" purity="5.6690263748168945e-01" nType="-99"/>
      </Node>
    </BinaryTree>
    <BinaryTree type="DecisionTree" boostWeight="1.0000000000000000e+00" itree="969">
      <Node pos="s" depth="0" NCoef="0" IVar="1" Cut="9.5639491081237793e-01" cType="1" res="-2.3826549295336008e-03" rms="4.4836333394050598e-01" purity="4.9605739116668701e-01" nType="0">
        <Node pos="l" depth="1" NCoef="0" IVar="3" Cut="2.3198580741882324e-01" cType="1" res="-6.7752087488770485e-03" rms="4.5706453919410706e-01" purity="4.3922132253646851e-01" nType="0">
          <Node pos="l" depth="2" NCoef="0" IVar="-1" Cut="0.0000000000000000e+00" cType="1" res="-3.4316538949497044e-04" rms="4.5557343959808350e-01" purity="4.3639633059501648e-01" nType="-99"/>
          <Node pos="r" depth="2" NCoef="0" IVar="-1" Cut="0.0000000000000000e+00" cType="1" res="-2.3368643596768379e-03" rms="4.7631311416625977e-01" purity="4.7832137346267700e-01" nType="-99"/>
        </Node>
        <Node pos="r" depth="1" NCoef="0" IVar="0" Cut="2.3537399768829346e+00" cType="1" res="1.8488524481654167e-02" rms="4.0381750464439392e-01" purity="7.6611328125000000e-01" nType="0">
          <Node pos="l" depth="2" NCoef="0" IVar="-1" Cut="0.0000000000000000e+00" cType="1" res="2.9168094042688608e-03" rms="4.2807167768478394e-01" purity="7.1429514884948730e-01" nType="-99"/>
          <Node pos="r" depth="2" NCoef="0" IVar="-1" Cut="0.0000000000000000e+00" cType="1" res="5.4313457803800702e-04" rms="3.9059087634086609e-01" purity="7.9205048084259033e-01" nType="-99"/>
        </Node>
      </Node>
    </BinaryTree>
    <BinaryTree type="DecisionTree" boostWeight="1.0000000000000000e+00" itree="970">
      <Node pos="s" depth="0" NCoef="0" IVar="1" Cut="9.3710285425186157e-01" cType="1" res="-1.1034744093194604e-03" rms="4.4626030325889587e-01" purity="4.9976795911788940e-01" nType="0">
        <Node pos="l" depth="1" NCoef="0" IVar="7" Cut="6.9237369298934937e-01" cType="1" res="-6.1238291673362255e-03" rms="4.5333990454673767e-01" purity="4.2196086049079895e-01" nType="0">
          <Node pos="l" depth="2" NCoef="0" IVar="-1" Cut="0.0000000000000000e+00" cType="1" res="-1.2146402150392532e-03" rms="4.4717854261398315e-01" purity="3.8068997859954834e-01" nType="-99"/>
          <Node pos="r" depth="2" NCoef="0" IVar="-1" Cut="0.0000000000000000e+00" cType="1" res="5.4379861103370786e-04" rms="4.6173098683357239e-01" purity="4.8157936334609985e-01" nType="-99"/>
        </Node>
        <Node pos="r" depth="1" NCoef="0" IVar="0" Cut="2.1534862518310547e+00" cType="1" res="1.2611321173608303e-02" rms="4.2601966857910156e-01" purity="7.1232426166534424e-01" nType="0">
          <Node pos="l" depth="2" NCoef="0" IVar="-1" Cut="0.0000000000000000e+00" cType="1" res="2.4427629541605711e-03" rms="4.4928568601608276e-01" purity="6.4078503847122192e-01" nType="-99"/>
          <Node pos="r" depth="2" NCoef="0" IVar="-1" Cut="0.0000000000000000e+00" cType="1" res="1.1089250619988889e-04" rms="4.1402897238731384e-01" purity="7.4636483192443848e-01" nType="-99"/>
        </Node>
      </Node>
    </BinaryTree>
    <BinaryTree type="DecisionTree" boostWeight="1.0000000000000000e+00" itree="971">
      <Node pos="s" depth="0" NCoef="0" IVar="7" Cut="3.9829161763191223e-01" cType="1" res="-1.7068571178242564e-03" rms="4.4874951243400574e-01" purity="4.9963700771331787e-01" nType="0">
        <Node pos="l" depth="1" NCoef="0" IVar="-1" Cut="0.0000000000000000e+00" cType="1" res="-1.7896424978971481e-03" rms="4.5172208547592163e-01" purity="4.2835584282875061e-01" nType="-99"/>
        <Node pos="r" depth="1" NCoef="0" IVar="7" Cut="4.4386160373687744e-01" cType="1" res="3.9619483868591487e-04" rms="4.4840905070304871e-01" purity="5.0641459226608276e-01" nType="0">
          <Node pos="l" depth="2" NCoef="0" IVar="-1" Cut="0.0000000000000000e+00" cType="1" res="2.3890479933470488e-03" rms="4.5042088627815247e-01" purity="4.7205811738967896e-01" nType="-99"/>
          <Node pos="r" depth="2" NCoef="0" IVar="-1" Cut="0.0000000000000000e+00" cType="1" res="-1.3378918811213225e-04" rms="4.4818219542503357e-01" purity="5.0881332159042358e-01" nType="-99"/>
        </Node>
      </Node>
    </BinaryTree>
    <BinaryTree type="DecisionTree" boostWeight="1.0000000000000000e+00" itree="972">
      <Node pos="s" depth="0" NCoef="0" IVar="3" Cut="1.0601893067359924e-01" cType="1" res="5.3032478317618370e-03" rms="4.5103326439857483e-01" purity="5.0495743751525879e-01" nType="0">
        <Node pos="l" depth="1" NCoef="0" IVar="3" Cut="6.6535629332065582e-02" cType="1" res="-1.0570387821644545e-03" rms="4.4747540354728699e-01" purity="4.8542952537536621e-01" nType="0">
          <Node pos="l" depth="2" NCoef="0" IVar="-1" Cut="0.0000000000000000e+00" cType="1" res="2.5837167049758136e-04" rms="4.4642531871795654e-01" purity="4.8623859882354736e-01" nType="-99"/>
          <Node pos="r" depth="2" NCoef="0" IVar="-1" Cut="0.0000000000000000e+00" cType="1" res="-2.6286330539733171e-03" rms="4.5393884181976318e-01" purity="4.7923114895820618e-01" nType="-99"/>
        </Node>
        <Node pos="r" depth="1" NCoef="0" IVar="6" Cut="1.5599362850189209e+00" cType="1" res="2.1793331950902939e-02" rms="4.5971983671188354e-01" purity="5.5558681488037109e-01" nType="0">
          <Node pos="l" depth="2" NCoef="0" IVar="-1" Cut="0.0000000000000000e+00" cType="1" res="8.1240368308499455e-04" rms="4.6146994829177856e-01" purity="5.6275343894958496e-01" nType="-99"/>
          <Node pos="r" depth="2" NCoef="0" IVar="-1" Cut="0.0000000000000000e+00" cType="1" res="3.6626805085688829e-03" rms="4.5250639319419861e-01" purity="5.3212517499923706e-01" nType="-99"/>
        </Node>
      </Node>
    </BinaryTree>
    <BinaryTree type="DecisionTree" boostWeight="1.0000000000000000e+00" itree="973">
      <Node pos="s" depth="0" NCoef="0" IVar="7" Cut="8.8739413022994995e-01" cType="1" res="-1.9450440595392138e-04" rms="4.4780033826828003e-01" purity="5.0039696693420410e-01" nType="0">
        <Node pos="l" depth="1" NCoef="0" IVar="1" Cut="9.2553859949111938e-01" cType="1" res="-4.2823902331292629e-03" rms="4.4914731383323669e-01" purity="4.8926314711570740e-01" nType="0">
          <Node pos="l" depth="2" NCoef="0" IVar="-1" Cut="0.0000000000000000e+00" cType="1" res="-7.6733675086870790e-04" rms="4.5440280437469482e-01" purity="4.0025204420089722e-01" nType="-99"/>
          <Node pos="r" depth="2" NCoef="0" IVar="-1" Cut="0.0000000000000000e+00" cType="1" res="5.5377517128363252e-04" rms="4.3810403347015381e-01" purity="6.6879111528396606e-01" nType="-99"/>
        </Node>
        <Node pos="r" depth="1" NCoef="0" IVar="-1" Cut="0.0000000000000000e+00" cType="1" res="3.3213037531822920e-03" rms="4.2811980843544006e-01" purity="6.3491839170455933e-01" nType="-99"/>
      </Node>
    </BinaryTree>
    <BinaryTree type="DecisionTree" boostWeight="1.0000000000000000e+00" itree="974">
      <Node pos="s" depth="0" NCoef="0" IVar="7" Cut="4.3828481435775757e-01" cType="1" res="-6.1215891037136316e-04" rms="4.5108148455619812e-01" purity="4.9714982509613037e-01" nType="0">
        <Node pos="l" depth="1" NCoef="0" IVar="0" Cut="1.8059591054916382e+00" cType="1" res="-1.8795905634760857e-02" rms="4.4639202952384949e-01" purity="4.3246826529502869e-01" nType="0">
          <Node pos="l" depth="2" NCoef="0" IVar="-1" Cut="0.0000000000000000e+00" cType="1" res="-2.5300076231360435e-04" rms="4.4312211871147156e-01" purity="3.4979909658432007e-01" nType="-99"/>
          <Node pos="r" depth="2" NCoef="0" IVar="-1" Cut="0.0000000000000000e+00" cType="1" res="-2.6007944252341986e-03" rms="4.4951665401458740e-01" purity="5.3012895584106445e-01" nType="-99"/>
        </Node>
        <Node pos="r" depth="1" NCoef="0" IVar="7" Cut="5.2283167839050293e-01" cType="1" res="2.4503674358129501e-03" rms="4.5179450511932373e-01" purity="5.0804352760314941e-01" nType="0">
          <Node pos="l" depth="2" NCoef="0" IVar="-1" Cut="0.0000000000000000e+00" cType="1" res="1.5585193177685142e-03" rms="4.5961278676986694e-01" purity="4.5401096343994141e-01" nType="-99"/>
          <Node pos="r" depth="2" NCoef="0" IVar="-1" Cut="0.0000000000000000e+00" cType="1" res="-5.7009354350157082e-05" rms="4.5033630728721619e-01" purity="5.1748257875442505e-01" nType="-99"/>
        </Node>
      </Node>
    </BinaryTree>
    <BinaryTree type="DecisionTree" boostWeight="1.0000000000000000e+00" itree="975">
      <Node pos="s" depth="0" NCoef="0" IVar="1" Cut="8.5997241735458374e-01" cType="1" res="1.5502993483096361e-03" rms="4.4878292083740234e-01" purity="5.0272703170776367e-01" nType="0">
        <Node pos="l" depth="1" NCoef="0" IVar="5" Cut="3.3420391846448183e-03" cType="1" res="3.0539985746145248e-02" rms="4.5655438303947449e-01" purity="3.9478117227554321e-01" nType="0">
          <Node pos="l" depth="2" NCoef="0" IVar="-1" Cut="0.0000000000000000e+00" cType="1" res="1.0358736617490649e-03" rms="4.4743454456329346e-01" purity="3.4532174468040466e-01" nType="-99"/>
          <Node pos="r" depth="2" NCoef="0" IVar="-1" Cut="0.0000000000000000e+00" cType="1" res="3.2185250893235207e-03" rms="4.6373695135116577e-01" purity="4.3751150369644165e-01" nType="-99"/>
        </Node>
        <Node pos="r" depth="1" NCoef="0" IVar="3" Cut="1.8525713682174683e-01" cType="1" res="-2.4868363980203867e-03" rms="4.4754102826118469e-01" purity="5.1775962114334106e-01" nType="0">
          <Node pos="l" depth="2" NCoef="0" IVar="-1" Cut="0.0000000000000000e+00" cType="1" res="-4.6323525020852685e-04" rms="4.4724491238594055e-01" purity="5.0532120466232300e-01" nType="-99"/>
          <Node pos="r" depth="2" NCoef="0" IVar="-1" Cut="0.0000000000000000e+00" cType="1" res="1.4770255656912923e-03" rms="4.4864454865455627e-01" purity="5.9679424762725830e-01" nType="-99"/>
        </Node>
      </Node>
    </BinaryTree>
    <BinaryTree type="DecisionTree" boostWeight="1.0000000000000000e+00" itree="976">
      <Node pos="s" depth="0" NCoef="0" IVar="5" Cut="2.3116362281143665e-03" cType="1" res="6.8574012257158756e-03" rms="4.5177820324897766e-01" purity="5.0845235586166382e-01" nType="0">
        <Node pos="l" depth="1" NCoef="0" IVar="0" Cut="2.9780409336090088e+00" cType="1" res="1.1666893027722836e-02" rms="4.4857442378997803e-01" purity="5.4963892698287964e-01" nType="0">
          <Node pos="l" depth="2" NCoef="0" IVar="-1" Cut="0.0000000000000000e+00" cType="1" res="1.1660220334306359e-03" rms="4.5616289973258972e-01" purity="4.9280595779418945e-01" nType="-99"/>
          <Node pos="r" depth="2" NCoef="0" IVar="-1" Cut="0.0000000000000000e+00" cType="1" res="-1.0445475345477462e-04" rms="4.2581754922866821e-01" purity="7.1243256330490112e-01" nType="-99"/>
        </Node>
        <Node pos="r" depth="1" NCoef="0" IVar="4" Cut="4.9708893895149231e-01" cType="1" res="-6.8122916854918003e-03" rms="4.6048822999000549e-01" purity="3.9139065146446228e-01" nType="0">
          <Node pos="l" depth="2" NCoef="0" IVar="-1" Cut="0.0000000000000000e+00" cType="1" res="4.0350627386942506e-04" rms="4.6075516939163208e-01" purity="3.9822241663932800e-01" nType="-99"/>
          <Node pos="r" depth="2" NCoef="0" IVar="-1" Cut="0.0000000000000000e+00" cType="1" res="-2.6664168108254671e-03" rms="4.5853176712989807e-01" purity="3.7523317337036133e-01" nType="-99"/>
        </Node>
      </Node>
    </BinaryTree>
    <BinaryTree type="DecisionTree" boostWeight="1.0000000000000000e+00" itree="977">
      <Node pos="s" depth="0" NCoef="0" IVar="6" Cut="1.2886602878570557e+00" cType="1" res="2.7835597284138203e-03" rms="4.4686383008956909e-01" purity="5.0363844633102417e-01" nType="0">
        <Node pos="l" depth="1" NCoef="0" IVar="6" Cut="1.1520550251007080e+00" cType="1" res="1.2121899984776974e-02" rms="4.5169478654861450e-01" purity="5.4841500520706177e-01" nType="0">
          <Node pos="l" depth="2" NCoef="0" IVar="-1" Cut="0.0000000000000000e+00" cType="1" res="4.5849068555980921e-04" rms="4.4906124472618103e-01" purity="5.5423450469970703e-01" nType="-99"/>
          <Node pos="r" depth="2" NCoef="0" IVar="-1" Cut="0.0000000000000000e+00" cType="1" res="2.5762519799172878e-03" rms="4.6259772777557373e-01" purity="5.2211040258407593e-01" nType="-99"/>
        </Node>
        <Node pos="r" depth="1" NCoef="0" IVar="3" Cut="1.6579349339008331e-01" cType="1" res="-1.1875429190695286e-02" rms="4.3877246975898743e-01" purity="4.3334990739822388e-01" nType="0">
          <Node pos="l" depth="2" NCoef="0" IVar="-1" Cut="0.0000000000000000e+00" cType="1" res="-3.0099620926193893e-04" rms="4.3589788675308228e-01" purity="4.3027138710021973e-01" nType="-99"/>
          <Node pos="r" depth="2" NCoef="0" IVar="-1" Cut="0.0000000000000000e+00" cType="1" res="-3.8633630611002445e-03" rms="4.5074555277824402e-01" purity="4.4879600405693054e-01" nType="-99"/>
        </Node>
      </Node>
    </BinaryTree>
    <BinaryTree type="DecisionTree" boostWeight="1.0000000000000000e+00" itree="978">
      <Node pos="s" depth="0" NCoef="0" IVar="1" Cut="8.9461421966552734e-01" cType="1" res="-4.4300886802375317e-03" rms="4.4946488738059998e-01" purity="4.9707207083702087e-01" nType="0">
        <Node pos="l" depth="1" NCoef="0" IVar="0" Cut="5.0194358825683594e-01" cType="1" res="-1.7003521323204041e-02" rms="4.4972556829452515e-01" purity="3.6825421452522278e-01" nType="0">
          <Node pos="l" depth="2" NCoef="0" IVar="-1" Cut="0.0000000000000000e+00" cType="1" res="5.5537535808980465e-04" rms="4.3741825222969055e-01" purity="3.1044766306877136e-01" nType="-99"/>
          <Node pos="r" depth="2" NCoef="0" IVar="-1" Cut="0.0000000000000000e+00" cType="1" res="-2.1950157824903727e-03" rms="4.5655596256256104e-01" purity="4.0386489033699036e-01" nType="-99"/>
        </Node>
        <Node pos="r" depth="1" NCoef="0" IVar="5" Cut="1.2816449161618948e-03" cType="1" res="5.3913607262074947e-03" rms="4.4901630282402039e-01" purity="5.9769511222839355e-01" nType="0">
          <Node pos="l" depth="2" NCoef="0" IVar="-1" Cut="0.0000000000000000e+00" cType="1" res="-7.4027171649504453e-05" rms="4.4607791304588318e-01" purity="6.1484771966934204e-01" nType="-99"/>
          <Node pos="r" depth="2" NCoef="0" IVar="-1" Cut="0.0000000000000000e+00" cType="1" res="2.2450662218034267e-03" rms="4.6089842915534973e-01" purity="5.2051472663879395e-01" nType="-99"/>
        </Node>
      </Node>
    </BinaryTree>
    <BinaryTree type="DecisionTree" boostWeight="1.0000000000000000e+00" itree="979">
      <Node pos="s" depth="0" NCoef="0" IVar="3" Cut="-7.0802591741085052e-02" cType="1" res="-2.5861440226435661e-03" rms="4.4851839542388916e-01" purity="5.0002473592758179e-01" nType="0">
        <Node pos="l" depth="1" NCoef="0" IVar="2" Cut="3.4803479003906250e+02" cType="1" res="1.2480266392230988e-02" rms="4.4301879405975342e-01" purity="4.7936385869979858e-01" nType="0">
          <Node pos="l" depth="2" NCoef="0" IVar="-1" Cut="0.0000000000000000e+00" cType="1" res="-8.0881589383352548e-05" rms="4.3633946776390076e-01" purity="3.7408259510993958e-01" nType="-99"/>
          <Node pos="r" depth="2" NCoef="0" IVar="-1" Cut="0.0000000000000000e+00" cType="1" res="1.9943360239267349e-03" rms="4.5090082287788391e-01" purity="6.1523407697677612e-01" nType="-99"/>
        </Node>
        <Node pos="r" depth="1" NCoef="0" IVar="7" Cut="7.9273813962936401e-01" cType="1" res="-7.8339399769902229e-03" rms="4.5029985904693604e-01" purity="5.0722116231918335e-01" nType="0">
          <Node pos="l" depth="2" NCoef="0" IVar="-1" Cut="0.0000000000000000e+00" cType="1" res="-2.3984409926924855e-04" rms="4.5171794295310974e-01" purity="5.0351357460021973e-01" nType="-99"/>
          <Node pos="r" depth="2" NCoef="0" IVar="-1" Cut="0.0000000000000000e+00" cType="1" res="-2.2516814060509205e-03" rms="4.4212976098060608e-01" purity="5.2647608518600464e-01" nType="-99"/>
        </Node>
      </Node>
    </BinaryTree>
    <BinaryTree type="DecisionTree" boostWeight="1.0000000000000000e+00" itree="980">
      <Node pos="s" depth="0" NCoef="0" IVar="0" Cut="2.5199859142303467e+00" cType="1" res="-1.1373169254511595e-03" rms="4.5094692707061768e-01" purity="4.9591252207756042e-01" nType="0">
        <Node pos="l" depth="1" NCoef="0" IVar="1" Cut="8.9461940526962280e-01" cType="1" res="3.8377735763788223e-03" rms="4.5429760217666626e-01" purity="4.2696103453636169e-01" nType="0">
          <Node pos="l" depth="2" NCoef="0" IVar="-1" Cut="0.0000000000000000e+00" cType="1" res="-4.7466412070207298e-04" rms="4.4797599315643311e-01" purity="3.4101629257202148e-01" nType="-99"/>
          <Node pos="r" depth="2" NCoef="0" IVar="-1" Cut="0.0000000000000000e+00" cType="1" res="1.0206889128312469e-03" rms="4.6100193262100220e-01" purity="5.2282214164733887e-01" nType="-99"/>
        </Node>
        <Node pos="r" depth="1" NCoef="0" IVar="3" Cut="7.2480186820030212e-02" cType="1" res="-1.3005170039832592e-02" rms="4.4262596964836121e-01" purity="6.6039329767227173e-01" nType="0">
          <Node pos="l" depth="2" NCoef="0" IVar="-1" Cut="0.0000000000000000e+00" cType="1" res="-1.4686602298752405e-05" rms="4.4083133339881897e-01" purity="6.6183090209960938e-01" nType="-99"/>
          <Node pos="r" depth="2" NCoef="0" IVar="-1" Cut="0.0000000000000000e+00" cType="1" res="-2.5113346055150032e-03" rms="4.4494050741195679e-01" purity="6.5776240825653076e-01" nType="-99"/>
        </Node>
      </Node>
    </BinaryTree>
    <BinaryTree type="DecisionTree" boostWeight="1.0000000000000000e+00" itree="981">
      <Node pos="s" depth="0" NCoef="0" IVar="4" Cut="1.4960497617721558e-01" cType="1" res="-9.2097918968647718e-04" rms="4.5265406370162964e-01" purity="4.9813288450241089e-01" nType="0">
        <Node pos="l" depth="1" NCoef="0" IVar="-1" Cut="0.0000000000000000e+00" cType="1" res="1.9441642798483372e-03" rms="4.6060723066329956e-01" purity="4.7036054730415344e-01" nType="-99"/>
        <Node pos="r" depth="1" NCoef="0" IVar="1" Cut="8.5610413551330566e-01" cType="1" res="-3.8354704156517982e-03" rms="4.5171418786048889e-01" purity="5.0104016065597534e-01" nType="0">
          <Node pos="l" depth="2" NCoef="0" IVar="-1" Cut="0.0000000000000000e+00" cType="1" res="2.0384807139635086e-03" rms="4.6138709783554077e-01" purity="3.8791218400001526e-01" nType="-99"/>
          <Node pos="r" depth="2" NCoef="0" IVar="-1" Cut="0.0000000000000000e+00" cType="1" res="-4.7737400745972991e-04" rms="4.5074191689491272e-01" purity="5.1105189323425293e-01" nType="-99"/>
        </Node>
      </Node>
    </BinaryTree>
    <BinaryTree type="DecisionTree" boostWeight="1.0000000000000000e+00" itree="982">
      <Node pos="s" depth="0" NCoef="0" IVar="6" Cut="1.0242370367050171e+00" cType="1" res="5.6120811495929956e-04" rms="4.5070889592170715e-01" purity="5.0121361017227173e-01" nType="0">
        <Node pos="l" depth="1" NCoef="0" IVar="4" Cut="1.9774343073368073e-01" cType="1" res="-1.2926444411277771e-02" rms="4.4975420832633972e-01" purity="5.4349851608276367e-01" nType="0">
          <Node pos="l" depth="2" NCoef="0" IVar="-1" Cut="0.0000000000000000e+00" cType="1" res="-3.0687556136399508e-03" rms="4.4728520512580872e-01" purity="4.7516509890556335e-01" nType="-99"/>
          <Node pos="r" depth="2" NCoef="0" IVar="-1" Cut="0.0000000000000000e+00" cType="1" res="-4.5767813571728766e-04" rms="4.5003160834312439e-01" purity="5.5823290348052979e-01" nType="-99"/>
        </Node>
        <Node pos="r" depth="1" NCoef="0" IVar="0" Cut="1.8562493324279785e+00" cType="1" res="8.9363129809498787e-03" rms="4.5109775662422180e-01" purity="4.7495692968368530e-01" nType="0">
          <Node pos="l" depth="2" NCoef="0" IVar="-1" Cut="0.0000000000000000e+00" cType="1" res="1.6539668431505561e-03" rms="4.5193701982498169e-01" purity="3.8372996449470520e-01" nType="-99"/>
          <Node pos="r" depth="2" NCoef="0" IVar="-1" Cut="0.0000000000000000e+00" cType="1" res="-4.7546444693580270e-04" rms="4.4946771860122681e-01" purity="5.9775942564010620e-01" nType="-99"/>
        </Node>
      </Node>
    </BinaryTree>
    <BinaryTree type="DecisionTree" boostWeight="1.0000000000000000e+00" itree="983">
      <Node pos="s" depth="0" NCoef="0" IVar="7" Cut="5.1569175720214844e-01" cType="1" res="-3.6249742843210697e-03" rms="4.5162001252174377e-01" purity="4.9137720465660095e-01" nType="0">
        <Node pos="l" depth="1" NCoef="0" IVar="1" Cut="8.7138146162033081e-01" cType="1" res="-2.2067403420805931e-02" rms="4.5308101177215576e-01" purity="4.1440322995185852e-01" nType="0">
          <Node pos="l" depth="2" NCoef="0" IVar="-1" Cut="0.0000000000000000e+00" cType="1" res="8.0029154196381569e-04" rms="4.4904977083206177e-01" purity="3.4191772341728210e-01" nType="-99"/>
          <Node pos="r" depth="2" NCoef="0" IVar="-1" Cut="0.0000000000000000e+00" cType="1" res="-2.6238183490931988e-03" rms="4.5401933789253235e-01" purity="4.4203898310661316e-01" nType="-99"/>
        </Node>
        <Node pos="r" depth="1" NCoef="0" IVar="7" Cut="5.6408601999282837e-01" cType="1" res="2.8640122618526220e-03" rms="4.5092549920082092e-01" purity="5.1846063137054443e-01" nType="0">
          <Node pos="l" depth="2" NCoef="0" IVar="-1" Cut="0.0000000000000000e+00" cType="1" res="2.2203156258910894e-03" rms="4.5103564858436584e-01" purity="4.8447057604789734e-01" nType="-99"/>
          <Node pos="r" depth="2" NCoef="0" IVar="-1" Cut="0.0000000000000000e+00" cType="1" res="-4.7397956222994253e-05" rms="4.5078843832015991e-01" purity="5.2275890111923218e-01" nType="-99"/>
        </Node>
      </Node>
    </BinaryTree>
    <BinaryTree type="DecisionTree" boostWeight="1.0000000000000000e+00" itree="984">
      <Node pos="s" depth="0" NCoef="0" IVar="4" Cut="2.0104044675827026e-01" cType="1" res="1.9119599601253867e-03" rms="4.4869691133499146e-01" purity="5.0083565711975098e-01" nType="0">
        <Node pos="l" depth="1" NCoef="0" IVar="4" Cut="1.6191841661930084e-01" cType="1" res="1.9069904461503029e-02" rms="4.5134672522544861e-01" purity="4.7016787528991699e-01" nType="0">
          <Node pos="l" depth="2" NCoef="0" IVar="-1" Cut="0.0000000000000000e+00" cType="1" res="-2.9357972380239516e-05" rms="4.5178237557411194e-01" purity="4.4264513254165649e-01" nType="-99"/>
          <Node pos="r" depth="2" NCoef="0" IVar="-1" Cut="0.0000000000000000e+00" cType="1" res="3.8278123829513788e-03" rms="4.4844394922256470e-01" purity="5.1962488889694214e-01" nType="-99"/>
        </Node>
        <Node pos="r" depth="1" NCoef="0" IVar="1" Cut="8.7921893596649170e-01" cType="1" res="-1.7079282552003860e-03" rms="4.4805195927619934e-01" purity="5.0730580091476440e-01" nType="0">
          <Node pos="l" depth="2" NCoef="0" IVar="-1" Cut="0.0000000000000000e+00" cType="1" res="-1.2026703916490078e-03" rms="4.4873696565628052e-01" purity="3.5861453413963318e-01" nType="-99"/>
          <Node pos="r" depth="2" NCoef="0" IVar="-1" Cut="0.0000000000000000e+00" cType="1" res="3.0958949355408549e-04" rms="4.4761338829994202e-01" purity="5.7279545068740845e-01" nType="-99"/>
        </Node>
      </Node>
    </BinaryTree>
    <BinaryTree type="DecisionTree" boostWeight="1.0000000000000000e+00" itree="985">
      <Node pos="s" depth="0" NCoef="0" IVar="6" Cut="1.0643757581710815e+00" cType="1" res="4.1068405844271183e-03" rms="4.4830596446990967e-01" purity="5.0540542602539062e-01" nType="0">
        <Node pos="l" depth="1" NCoef="0" IVar="2" Cut="4.2044451904296875e+02" cType="1" res="1.4463698491454124e-02" rms="4.5480179786682129e-01" purity="5.6773912906646729e-01" nType="0">
          <Node pos="l" depth="2" NCoef="0" IVar="-1" Cut="0.0000000000000000e+00" cType="1" res="1.7000527586787939e-03" rms="4.5895004272460938e-01" purity="5.2853477001190186e-01" nType="-99"/>
          <Node pos="r" depth="2" NCoef="0" IVar="-1" Cut="0.0000000000000000e+00" cType="1" res="-6.5607420401647687e-04" rms="4.4426384568214417e-01" purity="6.5722674131393433e-01" nType="-99"/>
        </Node>
        <Node pos="r" depth="1" NCoef="0" IVar="2" Cut="3.8330545043945312e+02" cType="1" res="-3.4002633765339851e-03" rms="4.4338685274124146e-01" purity="4.6022325754165649e-01" nType="0">
          <Node pos="l" depth="2" NCoef="0" IVar="-1" Cut="0.0000000000000000e+00" cType="1" res="-9.1094680828973651e-04" rms="4.4306388497352600e-01" purity="4.1236117482185364e-01" nType="-99"/>
          <Node pos="r" depth="2" NCoef="0" IVar="-1" Cut="0.0000000000000000e+00" cType="1" res="2.1366539876908064e-03" rms="4.4298896193504333e-01" purity="6.6476100683212280e-01" nType="-99"/>
        </Node>
      </Node>
    </BinaryTree>
    <BinaryTree type="DecisionTree" boostWeight="1.0000000000000000e+00" itree="986">
      <Node pos="s" depth="0" NCoef="0" IVar="4" Cut="2.4656417965888977e-01" cType="1" res="2.6867023552767932e-04" rms="4.4951716065406799e-01" purity="4.9995914101600647e-01" nType="0">
        <Node pos="l" depth="1" NCoef="0" IVar="5" Cut="7.5545674189925194e-04" cType="1" res="-1.6230555251240730e-02" rms="4.4496384263038635e-01" purity="4.4161468744277954e-01" nType="0">
          <Node pos="l" depth="2" NCoef="0" IVar="-1" Cut="0.0000000000000000e+00" cType="1" res="1.2005805037915707e-03" rms="4.4607755541801453e-01" purity="5.6996768712997437e-01" nType="-99"/>
          <Node pos="r" depth="2" NCoef="0" IVar="-1" Cut="0.0000000000000000e+00" cType="1" res="-2.7268605772405863e-03" rms="4.4320800900459290e-01" purity="3.6772403120994568e-01" nType="-99"/>
        </Node>
        <Node pos="r" depth="1" NCoef="0" IVar="4" Cut="3.1633931398391724e-01" cType="1" res="5.6448597460985184e-03" rms="4.5086053013801575e-01" purity="5.1897037029266357e-01" nType="0">
          <Node pos="l" depth="2" NCoef="0" IVar="-1" Cut="0.0000000000000000e+00" cType="1" res="1.9361883169040084e-03" rms="4.5248365402221680e-01" purity="5.1110726594924927e-01" nType="-99"/>
          <Node pos="r" depth="2" NCoef="0" IVar="-1" Cut="0.0000000000000000e+00" cType="1" res="8.3850529335904866e-05" rms="4.5039355754852295e-01" purity="5.2060031890869141e-01" nType="-99"/>
        </Node>
      </Node>
    </BinaryTree>
    <BinaryTree type="DecisionTree" boostWeight="1.0000000000000000e+00" itree="987">
      <Node pos="s" depth="0" NCoef="0" IVar="1" Cut="9.2167812585830688e-01" cType="1" res="-4.3029049411416054e-03" rms="4.4772338867187500e-01" purity="4.9551540613174438e-01" nType="0">
        <Node pos="l" depth="1" NCoef="0" IVar="0" Cut="2.4420115947723389e+00" cType="1" res="-1.0603894479572773e-02" rms="4.5230668783187866e-01" purity="4.0103611350059509e-01" nType="0">
          <Node pos="l" depth="2" NCoef="0" IVar="-1" Cut="0.0000000000000000e+00" cType="1" res="-1.2981992913410068e-03" rms="4.4913390278816223e-01" purity="3.5331043601036072e-01" nType="-99"/>
          <Node pos="r" depth="2" NCoef="0" IVar="-1" Cut="0.0000000000000000e+00" cType="1" res="7.2269520023837686e-04" rms="4.6340307593345642e-01" purity="5.8110588788986206e-01" nType="-99"/>
        </Node>
        <Node pos="r" depth="1" NCoef="0" IVar="4" Cut="2.6848196983337402e-01" cType="1" res="6.9825104437768459e-03" rms="4.3916910886764526e-01" purity="6.6473293304443359e-01" nType="0">
          <Node pos="l" depth="2" NCoef="0" IVar="-1" Cut="0.0000000000000000e+00" cType="1" res="1.8994411220774055e-03" rms="4.4344532489776611e-01" purity="6.3946437835693359e-01" nType="-99"/>
          <Node pos="r" depth="2" NCoef="0" IVar="-1" Cut="0.0000000000000000e+00" cType="1" res="-6.1182494391687214e-05" rms="4.3731603026390076e-01" purity="6.7408448457717896e-01" nType="-99"/>
        </Node>
      </Node>
    </BinaryTree>
    <BinaryTree type="DecisionTree" boostWeight="1.0000000000000000e+00" itree="988">
      <Node pos="s" depth="0" NCoef="0" IVar="7" Cut="3.7767574191093445e-01" cType="1" res="1.1058414820581675e-03" rms="4.5068329572677612e-01" purity="4.9970278143882751e-01" nType="0">
        <Node pos="l" depth="1" NCoef="0" IVar="-1" Cut="0.0000000000000000e+00" cType="1" res="2.2098345216363668e-03" rms="4.5488372445106506e-01" purity="4.9447059631347656e-01" nType="-99"/>
        <Node pos="r" depth="1" NCoef="0" IVar="4" Cut="6.5653365850448608e-01" cType="1" res="-1.2469006469473243e-03" rms="4.5026445388793945e-01" purity="5.0011831521987915e-01" nType="0">
          <Node pos="l" depth="2" NCoef="0" IVar="-1" Cut="0.0000000000000000e+00" cType="1" res="-3.0426494777202606e-04" rms="4.5122691988945007e-01" purity="4.9169427156448364e-01" nType="-99"/>
          <Node pos="r" depth="2" NCoef="0" IVar="-1" Cut="0.0000000000000000e+00" cType="1" res="1.5020305290818214e-03" rms="4.4211795926094055e-01" purity="5.6516665220260620e-01" nType="-99"/>
        </Node>
      </Node>
    </BinaryTree>
    <BinaryTree type="DecisionTree" boostWeight="1.0000000000000000e+00" itree="989">
      <Node pos="s" depth="0" NCoef="0" IVar="1" Cut="9.0625828504562378e-01" cType="1" res="-2.9845102690160275e-03" rms="4.5011016726493835e-01" purity="4.9531343579292297e-01" nType="0">
        <Node pos="l" depth="1" NCoef="0" IVar="1" Cut="8.6620527505874634e-01" cType="1" res="3.7723556160926819e-03" rms="4.5425194501876831e-01" purity="3.9823740720748901e-01" nType="0">
          <Node pos="l" depth="2" NCoef="0" IVar="-1" Cut="0.0000000000000000e+00" cType="1" res="-1.0006361408159137e-03" rms="4.4736230373382568e-01" purity="3.4629869461059570e-01" nType="-99"/>
          <Node pos="r" depth="2" NCoef="0" IVar="-1" Cut="0.0000000000000000e+00" cType="1" res="8.7491585873067379e-04" rms="4.5749118924140930e-01" purity="4.2466688156127930e-01" nType="-99"/>
        </Node>
        <Node pos="r" depth="1" NCoef="0" IVar="1" Cut="9.6085345745086670e-01" cType="1" res="-1.0825453326106071e-02" rms="4.4512706995010376e-01" purity="6.0796439647674561e-01" nType="0">
          <Node pos="l" depth="2" NCoef="0" IVar="-1" Cut="0.0000000000000000e+00" cType="1" res="-1.3531415024772286e-03" rms="4.6488729119300842e-01" purity="5.3324872255325317e-01" nType="-99"/>
          <Node pos="r" depth="2" NCoef="0" IVar="-1" Cut="0.0000000000000000e+00" cType="1" res="6.7352387122809887e-04" rms="3.9838635921478271e-01" purity="7.6947987079620361e-01" nType="-99"/>
        </Node>
      </Node>
    </BinaryTree>
    <BinaryTree type="DecisionTree" boostWeight="1.0000000000000000e+00" itree="990">
      <Node pos="s" depth="0" NCoef="0" IVar="2" Cut="3.4458129882812500e+02" cType="1" res="2.1583160851150751e-03" rms="4.5026478171348572e-01" purity="5.0217896699905396e-01" nType="0">
        <Node pos="l" depth="1" NCoef="0" IVar="4" Cut="3.2132557034492493e-01" cType="1" res="9.6088014543056488e-03" rms="4.4955915212631226e-01" purity="4.3763369321823120e-01" nType="0">
          <Node pos="l" depth="2" NCoef="0" IVar="-1" Cut="0.0000000000000000e+00" cType="1" res="-8.6310465121641755e-04" rms="4.4417840242385864e-01" purity="3.6723777651786804e-01" nType="-99"/>
          <Node pos="r" depth="2" NCoef="0" IVar="-1" Cut="0.0000000000000000e+00" cType="1" res="1.3829623349010944e-03" rms="4.5169731974601746e-01" purity="4.6985098719596863e-01" nType="-99"/>
        </Node>
        <Node pos="r" depth="1" NCoef="0" IVar="6" Cut="1.1209424734115601e+00" cType="1" res="-1.0755487717688084e-02" rms="4.5119383931159973e-01" purity="6.1405438184738159e-01" nType="0">
          <Node pos="l" depth="2" NCoef="0" IVar="-1" Cut="0.0000000000000000e+00" cType="1" res="-1.7627481138333678e-03" rms="4.4983783364295959e-01" purity="6.1127138137817383e-01" nType="-99"/>
          <Node pos="r" depth="2" NCoef="0" IVar="-1" Cut="0.0000000000000000e+00" cType="1" res="7.7680585673078895e-04" rms="4.5233801007270813e-01" purity="6.1829388141632080e-01" nType="-99"/>
        </Node>
      </Node>
    </BinaryTree>
    <BinaryTree type="DecisionTree" boostWeight="1.0000000000000000e+00" itree="991">
      <Node pos="s" depth="0" NCoef="0" IVar="5" Cut="2.3227883502840996e-03" cType="1" res="3.9574475958943367e-03" rms="4.4921860098838806e-01" purity="5.0347489118576050e-01" nType="0">
        <Node pos="l" depth="1" NCoef="0" IVar="2" Cut="2.1122671508789062e+02" cType="1" res="8.7767895311117172e-03" rms="4.4825181365013123e-01" purity="5.4612767696380615e-01" nType="0">
          <Node pos="l" depth="2" NCoef="0" IVar="-1" Cut="0.0000000000000000e+00" cType="1" res="3.5777774173766375e-03" rms="4.4207742810249329e-01" purity="3.4280875325202942e-01" nType="-99"/>
          <Node pos="r" depth="2" NCoef="0" IVar="-1" Cut="0.0000000000000000e+00" cType="1" res="3.9009470492601395e-04" rms="4.4879552721977234e-01" purity="5.6818419694900513e-01" nType="-99"/>
        </Node>
        <Node pos="r" depth="1" NCoef="0" IVar="6" Cut="1.4476348161697388e+00" cType="1" res="-9.4882864505052567e-03" rms="4.5163315534591675e-01" purity="3.8447564840316772e-01" nType="0">
          <Node pos="l" depth="2" NCoef="0" IVar="-1" Cut="0.0000000000000000e+00" cType="1" res="2.0391966972965747e-04" rms="4.6466538310050964e-01" purity="4.2445996403694153e-01" nType="-99"/>
          <Node pos="r" depth="2" NCoef="0" IVar="-1" Cut="0.0000000000000000e+00" cType="1" res="-3.3840422984212637e-03" rms="4.1780343651771545e-01" purity="2.9009431600570679e-01" nType="-99"/>
        </Node>
      </Node>
    </BinaryTree>
    <BinaryTree type="DecisionTree" boostWeight="1.0000000000000000e+00" itree="992">
      <Node pos="s" depth="0" NCoef="0" IVar="7" Cut="7.7327382564544678e-01" cType="1" res="7.3290651198476553e-04" rms="4.4885781407356262e-01" purity="4.9963539838790894e-01" nType="0">
        <Node pos="l" depth="1" NCoef="0" IVar="5" Cut="1.5393836656585336e-03" cType="1" res="5.9938775375485420e-03" rms="4.5154726505279541e-01" purity="4.8315697908401489e-01" nType="0">
          <Node pos="l" depth="2" NCoef="0" IVar="-1" Cut="0.0000000000000000e+00" cType="1" res="-2.6883537066169083e-04" rms="4.4642496109008789e-01" purity="5.3833484649658203e-01" nType="-99"/>
          <Node pos="r" depth="2" NCoef="0" IVar="-1" Cut="0.0000000000000000e+00" cType="1" res="1.3316626427695155e-03" rms="4.5770823955535889e-01" purity="4.1268762946128845e-01" nType="-99"/>
        </Node>
        <Node pos="r" depth="1" NCoef="0" IVar="2" Cut="3.5926638793945312e+02" cType="1" res="-1.4373387210071087e-02" rms="4.4069522619247437e-01" purity="5.4695135354995728e-01" nType="0">
          <Node pos="l" depth="2" NCoef="0" IVar="-1" Cut="0.0000000000000000e+00" cType="1" res="-2.6726725045591593e-03" rms="4.4519045948982239e-01" purity="4.4529265165328979e-01" nType="-99"/>
          <Node pos="r" depth="2" NCoef="0" IVar="-1" Cut="0.0000000000000000e+00" cType="1" res="1.1614699615165591e-03" rms="4.3211567401885986e-01" purity="6.9548904895782471e-01" nType="-99"/>
        </Node>
      </Node>
    </BinaryTree>
    <BinaryTree type="DecisionTree" boostWeight="1.0000000000000000e+00" itree="993">
      <Node pos="s" depth="0" NCoef="0" IVar="3" Cut="-3.3193837851285934e-02" cType="1" res="-2.7173975831829011e-04" rms="4.4983422756195068e-01" purity="4.9925678968429565e-01" nType="0">
        <Node pos="l" depth="1" NCoef="0" IVar="6" Cut="1.4329354763031006e+00" cType="1" res="8.4317149594426155e-03" rms="4.4390428066253662e-01" purity="4.8211416602134705e-01" nType="0">
          <Node pos="l" depth="2" NCoef="0" IVar="-1" Cut="0.0000000000000000e+00" cType="1" res="1.0542446980252862e-03" rms="4.5069193840026855e-01" purity="5.1544940471649170e-01" nType="-99"/>
          <Node pos="r" depth="2" NCoef="0" IVar="-1" Cut="0.0000000000000000e+00" cType="1" res="-7.3377817170694470e-04" rms="4.2423701286315918e-01" purity="3.9057642221450806e-01" nType="-99"/>
        </Node>
        <Node pos="r" depth="1" NCoef="0" IVar="5" Cut="1.0152807226404548e-03" cType="1" res="-5.7107247412204742e-03" rms="4.5341578125953674e-01" purity="5.0996959209442139e-01" nType="0">
          <Node pos="l" depth="2" NCoef="0" IVar="-1" Cut="0.0000000000000000e+00" cType="1" res="-1.3296457473188639e-03" rms="4.3856608867645264e-01" purity="5.9572523832321167e-01" nType="-99"/>
          <Node pos="r" depth="2" NCoef="0" IVar="-1" Cut="0.0000000000000000e+00" cType="1" res="2.7110212249681354e-04" rms="4.6438017487525940e-01" purity="4.4344806671142578e-01" nType="-99"/>
        </Node>
      </Node>
    </BinaryTree>
    <BinaryTree type="DecisionTree" boostWeight="1.0000000000000000e+00" itree="994">
      <Node pos="s" depth="0" NCoef="0" IVar="5" Cut="3.3390354365110397e-03" cType="1" res="-4.6335542574524879e-03" rms="4.4953167438507080e-01" purity="4.9403879046440125e-01" nType="0">
        <Node pos="l" depth="1" NCoef="0" IVar="3" Cut="-4.8036579042673111e-02" cType="1" res="-7.5226821936666965e-03" rms="4.4797092676162720e-01" purity="5.0261026620864868e-01" nType="0">
          <Node pos="l" depth="2" NCoef="0" IVar="-1" Cut="0.0000000000000000e+00" cType="1" res="-1.8448990304023027e-03" rms="4.3886837363243103e-01" purity="4.5710650086402893e-01" nType="-99"/>
          <Node pos="r" depth="2" NCoef="0" IVar="-1" Cut="0.0000000000000000e+00" cType="1" res="5.4682241170667112e-05" rms="4.5225521922111511e-01" purity="5.2550750970840454e-01" nType="-99"/>
        </Node>
        <Node pos="r" depth="1" NCoef="0" IVar="-1" Cut="0.0000000000000000e+00" cType="1" res="1.5235751634463668e-03" rms="4.6258684992790222e-01" purity="4.1653686761856079e-01" nType="-99"/>
      </Node>
    </BinaryTree>
    <BinaryTree type="DecisionTree" boostWeight="1.0000000000000000e+00" itree="995">
      <Node pos="s" depth="0" NCoef="0" IVar="4" Cut="5.0385290384292603e-01" cType="1" res="-1.3368995860219002e-03" rms="4.4853553175926208e-01" purity="4.9607637524604797e-01" nType="0">
        <Node pos="l" depth="1" NCoef="0" IVar="5" Cut="5.0676619866862893e-04" cType="1" res="-7.0665148086845875e-03" rms="4.4817179441452026e-01" purity="4.7738531231880188e-01" nType="0">
          <Node pos="l" depth="2" NCoef="0" IVar="-1" Cut="0.0000000000000000e+00" cType="1" res="-1.7352749127894640e-03" rms="4.3071866035461426e-01" purity="6.0756760835647583e-01" nType="-99"/>
          <Node pos="r" depth="2" NCoef="0" IVar="-1" Cut="0.0000000000000000e+00" cType="1" res="-8.0656449426896870e-05" rms="4.5447733998298645e-01" purity="4.2798823118209839e-01" nType="-99"/>
        </Node>
        <Node pos="r" depth="1" NCoef="0" IVar="4" Cut="5.6892973184585571e-01" cType="1" res="1.1712239123880863e-02" rms="4.4909003376960754e-01" purity="5.3864514827728271e-01" nType="0">
          <Node pos="l" depth="2" NCoef="0" IVar="-1" Cut="0.0000000000000000e+00" cType="1" res="2.2519412450492382e-03" rms="4.5753371715545654e-01" purity="5.4045957326889038e-01" nType="-99"/>
          <Node pos="r" depth="2" NCoef="0" IVar="-1" Cut="0.0000000000000000e+00" cType="1" res="1.5567957598250359e-04" rms="4.4473540782928467e-01" purity="5.3779029846191406e-01" nType="-99"/>
        </Node>
      </Node>
    </BinaryTree>
    <BinaryTree type="DecisionTree" boostWeight="1.0000000000000000e+00" itree="996">
      <Node pos="s" depth="0" NCoef="0" IVar="4" Cut="2.2601810097694397e-01" cType="1" res="8.0743217840790749e-03" rms="4.5055761933326721e-01" purity="5.0639373064041138e-01" nType="0">
        <Node pos="l" depth="1" NCoef="0" IVar="3" Cut="1.8710236251354218e-01" cType="1" res="-4.4958204962313175e-03" rms="4.4871777296066284e-01" purity="4.4766819477081299e-01" nType="0">
          <Node pos="l" depth="2" NCoef="0" IVar="-1" Cut="0.0000000000000000e+00" cType="1" res="-1.0981408413499594e-03" rms="4.3922749161720276e-01" purity="4.0723988413810730e-01" nType="-99"/>
          <Node pos="r" depth="2" NCoef="0" IVar="-1" Cut="0.0000000000000000e+00" cType="1" res="1.4191069640219212e-03" rms="4.7271147370338440e-01" purity="5.5827766656875610e-01" nType="-99"/>
        </Node>
        <Node pos="r" depth="1" NCoef="0" IVar="7" Cut="7.9364532232284546e-01" cType="1" res="1.1378823779523373e-02" rms="4.5098188519477844e-01" purity="5.2183181047439575e-01" nType="0">
          <Node pos="l" depth="2" NCoef="0" IVar="-1" Cut="0.0000000000000000e+00" cType="1" res="1.1145562166348100e-03" rms="4.5265462994575500e-01" purity="5.1055252552032471e-01" nType="-99"/>
          <Node pos="r" depth="2" NCoef="0" IVar="-1" Cut="0.0000000000000000e+00" cType="1" res="-6.5057269239332527e-05" rms="4.4571837782859802e-01" purity="5.5554652214050293e-01" nType="-99"/>
        </Node>
      </Node>
    </BinaryTree>
    <BinaryTree type="DecisionTree" boostWeight="1.0000000000000000e+00" itree="997">
      <Node pos="s" depth="0" NCoef="0" IVar="6" Cut="1.6174719333648682e+00" cType="1" res="2.4041205178946257e-03" rms="4.4993817806243896e-01" purity="4.9841850996017456e-01" nType="0">
        <Node pos="l" depth="1" NCoef="0" IVar="3" Cut="-1.2469886988401413e-01" cType="1" res="-1.9977195188403130e-03" rms="4.5324438810348511e-01" purity="5.1144868135452271e-01" nType="0">
          <Node pos="l" depth="2" NCoef="0" IVar="-1" Cut="0.0000000000000000e+00" cType="1" res="2.2153446916490793e-03" rms="4.4371503591537476e-01" purity="4.8290914297103882e-01" nType="-99"/>
          <Node pos="r" depth="2" NCoef="0" IVar="-1" Cut="0.0000000000000000e+00" cType="1" res="-3.3590348903089762e-04" rms="4.5393753051757812e-01" purity="5.1386642456054688e-01" nType="-99"/>
        </Node>
        <Node pos="r" depth="1" NCoef="0" IVar="2" Cut="2.9342584228515625e+02" cType="1" res="2.1745616570115089e-02" rms="4.3458518385887146e-01" purity="4.4116461277008057e-01" nType="0">
          <Node pos="l" depth="2" NCoef="0" IVar="-1" Cut="0.0000000000000000e+00" cType="1" res="-5.4242071928456426e-04" rms="4.3318116664886475e-01" purity="3.1977829337120056e-01" nType="-99"/>
          <Node pos="r" depth="2" NCoef="0" IVar="-1" Cut="0.0000000000000000e+00" cType="1" res="4.3233227916061878e-03" rms="4.3303185701370239e-01" purity="6.3922685384750366e-01" nType="-99"/>
        </Node>
      </Node>
    </BinaryTree>
    <BinaryTree type="DecisionTree" boostWeight="1.0000000000000000e+00" itree="998">
      <Node pos="s" depth="0" NCoef="0" IVar="7" Cut="8.2400435209274292e-01" cType="1" res="-1.9563748501241207e-03" rms="4.4990193843841553e-01" purity="4.9804094433784485e-01" nType="0">
        <Node pos="l" depth="1" NCoef="0" IVar="2" Cut="3.4764395141601562e+02" cType="1" res="-5.7007092982530594e-03" rms="4.5219773054122925e-01" purity="4.8063048720359802e-01" nType="0">
          <Node pos="l" depth="2" NCoef="0" IVar="-1" Cut="0.0000000000000000e+00" cType="1" res="7.0194975705817342e-05" rms="4.4894218444824219e-01" purity="4.2235377430915833e-01" nType="-99"/>
          <Node pos="r" depth="2" NCoef="0" IVar="-1" Cut="0.0000000000000000e+00" cType="1" res="-1.2734492775052786e-03" rms="4.5815730094909668e-01" purity="5.9334385395050049e-01" nType="-99"/>
        </Node>
        <Node pos="r" depth="1" NCoef="0" IVar="2" Cut="2.9024737548828125e+02" cType="1" res="1.6146076843142509e-02" rms="4.3818205595016479e-01" purity="5.8221417665481567e-01" nType="0">
          <Node pos="l" depth="2" NCoef="0" IVar="-1" Cut="0.0000000000000000e+00" cType="1" res="-6.7621882772073150e-04" rms="4.4024088978767395e-01" purity="4.0775790810585022e-01" nType="-99"/>
          <Node pos="r" depth="2" NCoef="0" IVar="-1" Cut="0.0000000000000000e+00" cType="1" res="1.9130927976220846e-03" rms="4.3655717372894287e-01" purity="6.7215430736541748e-01" nType="-99"/>
        </Node>
      </Node>
    </BinaryTree>
    <BinaryTree type="DecisionTree" boostWeight="1.0000000000000000e+00" itree="999">
      <Node pos="s" depth="0" NCoef="0" IVar="7" Cut="8.7130177021026611e-01" cType="1" res="-3.1704690773040056e-03" rms="4.4986751675605774e-01" purity="4.9614232778549194e-01" nType="0">
        <Node pos="l" depth="1" NCoef="0" IVar="7" Cut="8.2098293304443359e-01" cType="1" res="-1.1022863909602165e-03" rms="4.5066380500793457e-01" purity="4.9072709679603577e-01" nType="0">
          <Node pos="l" depth="2" NCoef="0" IVar="-1" Cut="0.0000000000000000e+00" cType="1" res="-2.3603002773597836e-04" rms="4.5130726695060730e-01" purity="4.8124653100967407e-01" nType="-99"/>
          <Node pos="r" depth="2" NCoef="0" IVar="-1" Cut="0.0000000000000000e+00" cType="1" res="1.3958000345155597e-03" rms="4.4347006082534790e-01" purity="5.8736658096313477e-01" nType="-99"/>
        </Node>
        <Node pos="r" depth="1" NCoef="0" IVar="-1" Cut="0.0000000000000000e+00" cType="1" res="-1.6614336054772139e-03" rms="4.4168153405189514e-01" purity="5.4798579216003418e-01" nType="-99"/>
      </Node>
    </BinaryTree>
    <BinaryTree type="DecisionTree" boostWeight="1.0000000000000000e+00" itree="1000">
      <Node pos="s" depth="0" NCoef="0" IVar="2" Cut="5.5735107421875000e+02" cType="1" res="2.0987992174923420e-03" rms="4.5256140828132629e-01" purity="5.0100237131118774e-01" nType="0">
        <Node pos="l" depth="1" NCoef="0" IVar="7" Cut="4.1785699129104614e-01" cType="1" res="4.2655449360609055e-03" rms="4.5267006754875183e-01" purity="4.8862370848655701e-01" nType="0">
          <Node pos="l" depth="2" NCoef="0" IVar="-1" Cut="0.0000000000000000e+00" cType="1" res="1.7873548204079270e-03" rms="4.5855486392974854e-01" purity="4.6852156519889832e-01" nType="-99"/>
          <Node pos="r" depth="2" NCoef="0" IVar="-1" Cut="0.0000000000000000e+00" cType="1" res="1.1233417171752080e-04" rms="4.5180973410606384e-01" purity="4.9130666255950928e-01" nType="-99"/>
        </Node>
        <Node pos="r" depth="1" NCoef="0" IVar="-1" Cut="0.0000000000000000e+00" cType="1" res="-1.9701339770108461e-03" rms="4.5001107454299927e-01" purity="6.7106294631958008e-01" nType="-99"/>
      </Node>
    </BinaryTree>
    <BinaryTree type="DecisionTree" boostWeight="1.0000000000000000e+00" itree="1001">
      <Node pos="s" depth="0" NCoef="0" IVar="6" Cut="1.3140727281570435e+00" cType="1" res="3.4127759281545877e-03" rms="4.4969353079795837e-01" purity="5.0155687332153320e-01" nType="0">
        <Node pos="l" depth="1" NCoef="0" IVar="5" Cut="1.9246216397732496e-03" cType="1" res="1.0317064821720123e-02" rms="4.5419692993164062e-01" purity="5.4267007112503052e-01" nType="0">
          <Node pos="l" depth="2" NCoef="0" IVar="-1" Cut="0.0000000000000000e+00" cType="1" res="1.2391299242153764e-03" rms="4.4650638103485107e-01" purity="5.9930115938186646e-01" nType="-99"/>
          <Node pos="r" depth="2" NCoef="0" IVar="-1" Cut="0.0000000000000000e+00" cType="1" res="-3.1303771538659930e-04" rms="4.6888196468353271e-01" purity="4.2914292216300964e-01" nType="-99"/>
        </Node>
        <Node pos="r" depth="1" NCoef="0" IVar="3" Cut="-8.5675470530986786e-02" cType="1" res="-8.2506909966468811e-03" rms="4.4173660874366760e-01" purity="4.3210411071777344e-01" nType="0">
          <Node pos="l" depth="2" NCoef="0" IVar="-1" Cut="0.0000000000000000e+00" cType="1" res="-3.5573460627347231e-03" rms="4.2232117056846619e-01" purity="3.3029595017433167e-01" nType="-99"/>
          <Node pos="r" depth="2" NCoef="0" IVar="-1" Cut="0.0000000000000000e+00" cType="1" res="-6.8642657424788922e-05" rms="4.4573909044265747e-01" purity="4.5541709661483765e-01" nType="-99"/>
        </Node>
      </Node>
    </BinaryTree>
    <BinaryTree type="DecisionTree" boostWeight="1.0000000000000000e+00" itree="1002">
      <Node pos="s" depth="0" NCoef="0" IVar="3" Cut="-1.3168381154537201e-01" cType="1" res="1.0545073309913278e-03" rms="4.4926556944847107e-01" purity="4.9973583221435547e-01" nType="0">
        <Node pos="l" depth="1" NCoef="0" IVar="-1" Cut="0.0000000000000000e+00" cType="1" res="3.0796902719885111e-03" rms="4.4327330589294434e-01" purity="4.6523159742355347e-01" nType="-99"/>
        <Node pos="r" depth="1" NCoef="0" IVar="0" Cut="4.1347050666809082e+00" cType="1" res="-1.1487570591270924e-03" rms="4.4949620962142944e-01" purity="5.0166469812393188e-01" nType="0">
          <Node pos="l" depth="2" NCoef="0" IVar="-1" Cut="0.0000000000000000e+00" cType="1" res="-2.3581291316077113e-04" rms="4.5554533600807190e-01" purity="4.7015699744224548e-01" nType="-99"/>
          <Node pos="r" depth="2" NCoef="0" IVar="-1" Cut="0.0000000000000000e+00" cType="1" res="1.3991409214213490e-03" rms="3.8960483670234680e-01" purity="7.8845977783203125e-01" nType="-99"/>
        </Node>
      </Node>
    </BinaryTree>
    <BinaryTree type="DecisionTree" boostWeight="1.0000000000000000e+00" itree="1003">
      <Node pos="s" depth="0" NCoef="0" IVar="7" Cut="4.3722271919250488e-01" cType="1" res="7.3864380829036236e-03" rms="4.5086982846260071e-01" purity="5.0643509626388550e-01" nType="0">
        <Node pos="l" depth="1" NCoef="0" IVar="1" Cut="8.9039069414138794e-01" cType="1" res="-1.5360863879323006e-02" rms="4.4831430912017822e-01" purity="4.2690527439117432e-01" nType="0">
          <Node pos="l" depth="2" NCoef="0" IVar="-1" Cut="0.0000000000000000e+00" cType="1" res="5.0932145677506924e-04" rms="4.5122972130775452e-01" purity="3.6225914955139160e-01" nType="-99"/>
          <Node pos="r" depth="2" NCoef="0" IVar="-1" Cut="0.0000000000000000e+00" cType="1" res="-2.6082131080329418e-03" rms="4.4464924931526184e-01" purity="4.8666906356811523e-01" nType="-99"/>
        </Node>
        <Node pos="r" depth="1" NCoef="0" IVar="4" Cut="5.7852399349212646e-01" cType="1" res="1.0988743975758553e-02" rms="4.5116800069808960e-01" purity="5.1902961730957031e-01" nType="0">
          <Node pos="l" depth="2" NCoef="0" IVar="-1" Cut="0.0000000000000000e+00" cType="1" res="1.0390386451035738e-03" rms="4.5301732420921326e-01" purity="5.1487797498703003e-01" nType="-99"/>
          <Node pos="r" depth="2" NCoef="0" IVar="-1" Cut="0.0000000000000000e+00" cType="1" res="-1.1110780178569257e-04" rms="4.4449511170387268e-01" purity="5.3336751461029053e-01" nType="-99"/>
        </Node>
      </Node>
    </BinaryTree>
    <BinaryTree type="DecisionTree" boostWeight="1.0000000000000000e+00" itree="1004">
      <Node pos="s" depth="0" NCoef="0" IVar="1" Cut="9.4096601009368896e-01" cType="1" res="-6.2271568458527327e-04" rms="4.4904240965843201e-01" purity="4.9879014492034912e-01" nType="0">
        <Node pos="l" depth="1" NCoef="0" IVar="5" Cut="5.1375816110521555e-04" cType="1" res="-5.4091494530439377e-03" rms="4.5765346288681030e-01" purity="4.2595058679580688e-01" nType="0">
          <Node pos="l" depth="2" NCoef="0" IVar="-1" Cut="0.0000000000000000e+00" cType="1" res="-4.0231863968074322e-03" rms="4.3801170587539673e-01" purity="3.5372003912925720e-01" nType="-99"/>
          <Node pos="r" depth="2" NCoef="0" IVar="-1" Cut="0.0000000000000000e+00" cType="1" res="-9.6405827207490802e-05" rms="4.5922297239303589e-01" purity="4.3265900015830994e-01" nType="-99"/>
        </Node>
        <Node pos="r" depth="1" NCoef="0" IVar="0" Cut="1.9724128246307373e+00" cType="1" res="1.3974460773169994e-02" rms="4.2136123776435852e-01" purity="7.2092878818511963e-01" nType="0">
          <Node pos="l" depth="2" NCoef="0" IVar="-1" Cut="0.0000000000000000e+00" cType="1" res="3.1449566595256329e-03" rms="4.4865927100181580e-01" purity="6.4777863025665283e-01" nType="-99"/>
          <Node pos="r" depth="2" NCoef="0" IVar="-1" Cut="0.0000000000000000e+00" cType="1" res="1.8506463675294071e-04" rms="4.1080677509307861e-01" purity="7.4640792608261108e-01" nType="-99"/>
        </Node>
      </Node>
    </BinaryTree>
    <BinaryTree type="DecisionTree" boostWeight="1.0000000000000000e+00" itree="1005">
      <Node pos="s" depth="0" NCoef="0" IVar="3" Cut="-4.9681253731250763e-03" cType="1" res="2.1681205835193396e-03" rms="4.5007735490798950e-01" purity="4.9984163045883179e-01" nType="0">
        <Node pos="l" depth="1" NCoef="0" IVar="1" Cut="8.6767280101776123e-01" cType="1" res="-9.7245452925562859e-03" rms="4.4429552555084229e-01" purity="4.6172723174095154e-01" nType="0">
          <Node pos="l" depth="2" NCoef="0" IVar="-1" Cut="0.0000000000000000e+00" cType="1" res="1.1427958961576223e-03" rms="4.4680142402648926e-01" purity="3.5445401072502136e-01" nType="-99"/>
          <Node pos="r" depth="2" NCoef="0" IVar="-1" Cut="0.0000000000000000e+00" cType="1" res="-1.2233426095917821e-03" rms="4.4340017437934875e-01" purity="4.9053594470024109e-01" nType="-99"/>
        </Node>
        <Node pos="r" depth="1" NCoef="0" IVar="4" Cut="1.5858659148216248e-01" cType="1" res="1.2175884097814560e-02" rms="4.5464488863945007e-01" purity="5.3191512823104858e-01" nType="0">
          <Node pos="l" depth="2" NCoef="0" IVar="-1" Cut="0.0000000000000000e+00" cType="1" res="3.5498288925737143e-03" rms="4.5883879065513611e-01" purity="5.4903209209442139e-01" nType="-99"/>
          <Node pos="r" depth="2" NCoef="0" IVar="-1" Cut="0.0000000000000000e+00" cType="1" res="4.5410168240778148e-04" rms="4.5376655459403992e-01" purity="5.2955329418182373e-01" nType="-99"/>
        </Node>
      </Node>
    </BinaryTree>
    <BinaryTree type="DecisionTree" boostWeight="1.0000000000000000e+00" itree="1006">
      <Node pos="s" depth="0" NCoef="0" IVar="4" Cut="3.3640241622924805e-01" cType="1" res="1.7992429202422500e-03" rms="4.4873303174972534e-01" purity="5.0206607580184937e-01" nType="0">
        <Node pos="l" depth="1" NCoef="0" IVar="7" Cut="3.7680959701538086e-01" cType="1" res="-7.1455803699791431e-03" rms="4.5111602544784546e-01" purity="4.6174877882003784e-01" nType="0">
          <Node pos="l" depth="2" NCoef="0" IVar="-1" Cut="0.0000000000000000e+00" cType="1" res="1.9866039510816336e-03" rms="4.6060201525688171e-01" purity="4.8512104153633118e-01" nType="-99"/>
          <Node pos="r" depth="2" NCoef="0" IVar="-1" Cut="0.0000000000000000e+00" cType="1" res="-1.0699877748265862e-03" rms="4.4879636168479919e-01" purity="4.5693361759185791e-01" nType="-99"/>
        </Node>
        <Node pos="r" depth="1" NCoef="0" IVar="3" Cut="4.7302845865488052e-02" cType="1" res="7.8978696838021278e-03" rms="4.4699835777282715e-01" purity="5.2955466508865356e-01" nType="0">
          <Node pos="l" depth="2" NCoef="0" IVar="-1" Cut="0.0000000000000000e+00" cType="1" res="9.9720316939055920e-04" rms="4.4223329424858093e-01" purity="5.2216327190399170e-01" nType="-99"/>
          <Node pos="r" depth="2" NCoef="0" IVar="-1" Cut="0.0000000000000000e+00" cType="1" res="-1.8902862211689353e-04" rms="4.5540857315063477e-01" purity="5.4309582710266113e-01" nType="-99"/>
        </Node>
      </Node>
    </BinaryTree>
    <BinaryTree type="DecisionTree" boostWeight="1.0000000000000000e+00" itree="1007">
      <Node pos="s" depth="0" NCoef="0" IVar="1" Cut="9.7181046009063721e-01" cType="1" res="-1.2925724731758237e-03" rms="4.5035707950592041e-01" purity="4.9768537282943726e-01" nType="0">
        <Node pos="l" depth="1" NCoef="0" IVar="0" Cut="9.7218942642211914e-01" cType="1" res="8.7695504771545529e-04" rms="4.5585641264915466e-01" purity="4.6880128979682922e-01" nType="0">
          <Node pos="l" depth="2" NCoef="0" IVar="-1" Cut="0.0000000000000000e+00" cType="1" res="-8.7915721815079451e-04" rms="4.4731846451759338e-01" purity="3.3530586957931519e-01" nType="-99"/>
          <Node pos="r" depth="2" NCoef="0" IVar="-1" Cut="0.0000000000000000e+00" cType="1" res="4.6978556201793253e-04" rms="4.6041536331176758e-01" purity="5.4301667213439941e-01" nType="-99"/>
        </Node>
        <Node pos="r" depth="1" NCoef="0" IVar="-1" Cut="0.0000000000000000e+00" cType="1" res="-1.8955703126266599e-03" rms="3.9296782016754150e-01" purity="7.7540767192840576e-01" nType="-99"/>
      </Node>
    </BinaryTree>
    <BinaryTree type="DecisionTree" boostWeight="1.0000000000000000e+00" itree="1008">
      <Node pos="s" depth="0" NCoef="0" IVar="0" Cut="7.8267760574817657e-02" cType="1" res="5.4090912453830242e-04" rms="4.5201924443244934e-01" purity="5.0067085027694702e-01" nType="0">
        <Node pos="l" depth="1" NCoef="0" IVar="5" Cut="2.3084683343768120e-03" cType="1" res="2.6511441916227341e-02" rms="4.4609445333480835e-01" purity="3.2432335615158081e-01" nType="0">
          <Node pos="l" depth="2" NCoef="0" IVar="-1" Cut="0.0000000000000000e+00" cType="1" res="6.0129485791549087e-04" rms="4.3552649021148682e-01" purity="2.9356464743614197e-01" nType="-99"/>
          <Node pos="r" depth="2" NCoef="0" IVar="-1" Cut="0.0000000000000000e+00" cType="1" res="3.7747810129076242e-03" rms="4.5428484678268433e-01" purity="3.5089370608329773e-01" nType="-99"/>
        </Node>
        <Node pos="r" depth="1" NCoef="0" IVar="6" Cut="1.3831342458724976e+00" cType="1" res="-2.7229622937738895e-03" rms="4.5265296101570129e-01" purity="5.2283346652984619e-01" nType="0">
          <Node pos="l" depth="2" NCoef="0" IVar="-1" Cut="0.0000000000000000e+00" cType="1" res="-4.8278216854669154e-04" rms="4.5572397112846375e-01" purity="5.4741013050079346e-01" nType="-99"/>
          <Node pos="r" depth="2" NCoef="0" IVar="-1" Cut="0.0000000000000000e+00" cType="1" res="4.6139687765389681e-04" rms="4.4598039984703064e-01" purity="4.7103980183601379e-01" nType="-99"/>
        </Node>
      </Node>
    </BinaryTree>
    <BinaryTree type="DecisionTree" boostWeight="1.0000000000000000e+00" itree="1009">
      <Node pos="s" depth="0" NCoef="0" IVar="3" Cut="2.1624673902988434e-01" cType="1" res="-2.1243523806333542e-03" rms="4.4924411177635193e-01" purity="4.9588164687156677e-01" nType="0">
        <Node pos="l" depth="1" NCoef="0" IVar="7" Cut="6.1659073829650879e-01" cType="1" res="1.6232446068897843e-03" rms="4.4877523183822632e-01" purity="4.9233019351959229e-01" nType="0">
          <Node pos="l" depth="2" NCoef="0" IVar="-1" Cut="0.0000000000000000e+00" cType="1" res="7.6830154284834862e-04" rms="4.4557735323905945e-01" purity="4.2993146181106567e-01" nType="-99"/>
          <Node pos="r" depth="2" NCoef="0" IVar="-1" Cut="0.0000000000000000e+00" cType="1" res="-2.6230493676848710e-04" rms="4.5068538188934326e-01" purity="5.3141182661056519e-01" nType="-99"/>
        </Node>
        <Node pos="r" depth="1" NCoef="0" IVar="-1" Cut="0.0000000000000000e+00" cType="1" res="-2.8171886224299669e-03" rms="4.5223841071128845e-01" purity="5.3236895799636841e-01" nType="-99"/>
      </Node>
    </BinaryTree>
    <BinaryTree type="DecisionTree" boostWeight="1.0000000000000000e+00" itree="1010">
      <Node pos="s" depth="0" NCoef="0" IVar="5" Cut="6.4212275901809335e-04" cType="1" res="3.5573320928961039e-03" rms="4.5006746053695679e-01" purity="5.0277113914489746e-01" nType="0">
        <Node pos="l" depth="1" NCoef="0" IVar="1" Cut="9.6034377813339233e-01" cType="1" res="-1.1601772159337997e-02" rms="4.3115380406379700e-01" purity="6.1829072237014771e-01" nType="0">
          <Node pos="l" depth="2" NCoef="0" IVar="-1" Cut="0.0000000000000000e+00" cType="1" res="-1.9405297935009003e-03" rms="4.5643347501754761e-01" purity="4.9517154693603516e-01" nType="-99"/>
          <Node pos="r" depth="2" NCoef="0" IVar="-1" Cut="0.0000000000000000e+00" cType="1" res="5.9824151685461402e-04" rms="3.9636915922164917e-01" purity="7.7259814739227295e-01" nType="-99"/>
        </Node>
        <Node pos="r" depth="1" NCoef="0" IVar="0" Cut="8.1147664785385132e-01" cType="1" res="1.1042102240025997e-02" rms="4.5893418788909912e-01" purity="4.4573360681533813e-01" nType="0">
          <Node pos="l" depth="2" NCoef="0" IVar="-1" Cut="0.0000000000000000e+00" cType="1" res="-3.2141205156221986e-04" rms="4.4580978155136108e-01" purity="3.3585584163665771e-01" nType="-99"/>
          <Node pos="r" depth="2" NCoef="0" IVar="-1" Cut="0.0000000000000000e+00" cType="1" res="1.2695109471678734e-03" rms="4.6609264612197876e-01" purity="5.0885343551635742e-01" nType="-99"/>
        </Node>
      </Node>
    </BinaryTree>
    <BinaryTree type="DecisionTree" boostWeight="1.0000000000000000e+00" itree="1011">
      <Node pos="s" depth="0" NCoef="0" IVar="4" Cut="6.7734199762344360e-01" cType="1" res="9.4710979610681534e-03" rms="4.5214655995368958e-01" purity="5.0742435455322266e-01" nType="0">
        <Node pos="l" depth="1" NCoef="0" IVar="3" Cut="3.6037337034940720e-02" cType="1" res="5.7277549058198929e-03" rms="4.5211413502693176e-01" purity="4.9994367361068726e-01" nType="0">
          <Node pos="l" depth="2" NCoef="0" IVar="-1" Cut="0.0000000000000000e+00" cType="1" res="-4.1921430965885520e-04" rms="4.4653335213661194e-01" purity="4.6426060795783997e-01" nType="-99"/>
          <Node pos="r" depth="2" NCoef="0" IVar="-1" Cut="0.0000000000000000e+00" cType="1" res="1.3321790611371398e-03" rms="4.5843827724456787e-01" purity="5.4334700107574463e-01" nType="-99"/>
        </Node>
        <Node pos="r" depth="1" NCoef="0" IVar="-1" Cut="0.0000000000000000e+00" cType="1" res="3.2389836851507425e-03" rms="4.5079895853996277e-01" purity="5.8133906126022339e-01" nType="-99"/>
      </Node>
    </BinaryTree>
    <BinaryTree type="DecisionTree" boostWeight="1.0000000000000000e+00" itree="1012">
      <Node pos="s" depth="0" NCoef="0" IVar="2" Cut="2.2196496582031250e+02" cType="1" res="5.0795027054846287e-03" rms="4.4914606213569641e-01" purity="5.0482904911041260e-01" nType="0">
        <Node pos="l" depth="1" NCoef="0" IVar="3" Cut="2.0567376166582108e-02" cType="1" res="-1.5484614297747612e-02" rms="4.0777742862701416e-01" purity="2.7329999208450317e-01" nType="0">
          <Node pos="l" depth="2" NCoef="0" IVar="-1" Cut="0.0000000000000000e+00" cType="1" res="-4.0964912623167038e-03" rms="3.8335987925529480e-01" purity="2.1742102503776550e-01" nType="-99"/>
          <Node pos="r" depth="2" NCoef="0" IVar="-1" Cut="0.0000000000000000e+00" cType="1" res="4.1641629650257528e-04" rms="4.2870473861694336e-01" purity="3.2638770341873169e-01" nType="-99"/>
        </Node>
        <Node pos="r" depth="1" NCoef="0" IVar="5" Cut="2.3116508964449167e-03" cType="1" res="8.3716399967670441e-03" rms="4.5533376932144165e-01" purity="5.4189479351043701e-01" nType="0">
          <Node pos="l" depth="2" NCoef="0" IVar="-1" Cut="0.0000000000000000e+00" cType="1" res="9.1829482698813081e-04" rms="4.5134335756301880e-01" purity="5.8264046907424927e-01" nType="-99"/>
          <Node pos="r" depth="2" NCoef="0" IVar="-1" Cut="0.0000000000000000e+00" cType="1" res="-3.4967029932886362e-04" rms="4.6611925959587097e-01" purity="4.2718267440795898e-01" nType="-99"/>
        </Node>
      </Node>
    </BinaryTree>
    <BinaryTree type="DecisionTree" boostWeight="1.0000000000000000e+00" itree="1013">
      <Node pos="s" depth="0" NCoef="0" IVar="7" Cut="8.0652064085006714e-01" cType="1" res="-8.5442718118429184e-03" rms="4.4864803552627563e-01" purity="4.9312606453895569e-01" nType="0">
        <Node pos="l" depth="1" NCoef="0" IVar="3" Cut="2.4296593666076660e-01" cType="1" res="-1.2942892499268055e-02" rms="4.5058238506317139e-01" purity="4.7271305322647095e-01" nType="0">
          <Node pos="l" depth="2" NCoef="0" IVar="-1" Cut="0.0000000000000000e+00" cType="1" res="-8.2620931789278984e-04" rms="4.5052546262741089e-01" purity="4.6904176473617554e-01" nType="-99"/>
          <Node pos="r" depth="2" NCoef="0" IVar="-1" Cut="0.0000000000000000e+00" cType="1" res="-2.6428152341395617e-03" rms="4.5066106319427490e-01" purity="5.2386283874511719e-01" nType="-99"/>
        </Node>
        <Node pos="r" depth="1" NCoef="0" IVar="0" Cut="1.7468297481536865e+00" cType="1" res="9.1960979625582695e-03" rms="4.4031456112861633e-01" purity="5.7545524835586548e-01" nType="0">
          <Node pos="l" depth="2" NCoef="0" IVar="-1" Cut="0.0000000000000000e+00" cType="1" res="-4.5048014726489782e-04" rms="4.6260818839073181e-01" purity="4.3995624780654907e-01" nType="-99"/>
          <Node pos="r" depth="2" NCoef="0" IVar="-1" Cut="0.0000000000000000e+00" cType="1" res="1.8029531929641962e-03" rms="4.1326045989990234e-01" purity="7.2710317373275757e-01" nType="-99"/>
        </Node>
      </Node>
    </BinaryTree>
    <BinaryTree type="DecisionTree" boostWeight="1.0000000000000000e+00" itree="1014">
      <Node pos="s" depth="0" NCoef="0" IVar="5" Cut="5.1372050074860454e-04" cType="1" res="-8.7179674301296473e-04" rms="4.5224493741989136e-01" purity="4.9599793553352356e-01" nType="0">
        <Node pos="l" depth="1" NCoef="0" IVar="3" Cut="-7.9851441085338593e-02" cType="1" res="-1.5661031007766724e-02" rms="4.2791247367858887e-01" purity="6.3000750541687012e-01" nType="0">
          <Node pos="l" depth="2" NCoef="0" IVar="-1" Cut="0.0000000000000000e+00" cType="1" res="-3.6720954813063145e-03" rms="4.3872028589248657e-01" purity="5.5677616596221924e-01" nType="-99"/>
          <Node pos="r" depth="2" NCoef="0" IVar="-1" Cut="0.0000000000000000e+00" cType="1" res="-5.0798145821318030e-04" rms="4.2430099844932556e-01" purity="6.5129554271697998e-01" nType="-99"/>
        </Node>
        <Node pos="r" depth="1" NCoef="0" IVar="3" Cut="-6.0005281120538712e-02" cType="1" res="5.0473092123866081e-03" rms="4.6149152517318726e-01" purity="4.4236320257186890e-01" nType="0">
          <Node pos="l" depth="2" NCoef="0" IVar="-1" Cut="0.0000000000000000e+00" cType="1" res="1.5373653732240200e-03" rms="4.5315149426460266e-01" purity="4.2259946465492249e-01" nType="-99"/>
          <Node pos="r" depth="2" NCoef="0" IVar="-1" Cut="0.0000000000000000e+00" cType="1" res="-1.0352486424380913e-04" rms="4.6481788158416748e-01" purity="4.5071852207183838e-01" nType="-99"/>
        </Node>
      </Node>
    </BinaryTree>
    <BinaryTree type="DecisionTree" boostWeight="1.0000000000000000e+00" itree="1015">
      <Node pos="s" depth="0" NCoef="0" IVar="5" Cut="1.9356652628630400e-03" cType="1" res="-5.8247591368854046e-04" rms="4.4817379117012024e-01" purity="5.0171172618865967e-01" nType="0">
        <Node pos="l" depth="1" NCoef="0" IVar="4" Cut="5.7057499885559082e-01" cType="1" res="4.9809184856712818e-03" rms="4.4352376461029053e-01" purity="5.5742770433425903e-01" nType="0">
          <Node pos="l" depth="2" NCoef="0" IVar="-1" Cut="0.0000000000000000e+00" cType="1" res="7.2936597280204296e-04" rms="4.4488152861595154e-01" purity="5.5218499898910522e-01" nType="-99"/>
          <Node pos="r" depth="2" NCoef="0" IVar="-1" Cut="0.0000000000000000e+00" cType="1" res="-1.1164481984451413e-03" rms="4.3774765729904175e-01" purity="5.7736212015151978e-01" nType="-99"/>
        </Node>
        <Node pos="r" depth="1" NCoef="0" IVar="7" Cut="7.7380925416946411e-01" cType="1" res="-1.1644183658063412e-02" rms="4.5707786083221436e-01" purity="3.9093151688575745e-01" nType="0">
          <Node pos="l" depth="2" NCoef="0" IVar="-1" Cut="0.0000000000000000e+00" cType="1" res="-1.0611896868795156e-04" rms="4.5721763372421265e-01" purity="3.8698145747184753e-01" nType="-99"/>
          <Node pos="r" depth="2" NCoef="0" IVar="-1" Cut="0.0000000000000000e+00" cType="1" res="-3.1181562226265669e-03" rms="4.5513960719108582e-01" purity="4.0338963270187378e-01" nType="-99"/>
        </Node>
      </Node>
    </BinaryTree>
    <BinaryTree type="DecisionTree" boostWeight="1.0000000000000000e+00" itree="1016">
      <Node pos="s" depth="0" NCoef="0" IVar="6" Cut="1.9167765378952026e+00" cType="1" res="7.4285344453528523e-04" rms="4.4934546947479248e-01" purity="5.0253397226333618e-01" nType="0">
        <Node pos="l" depth="1" NCoef="0" IVar="6" Cut="1.6840953826904297e+00" cType="1" res="3.2953536137938499e-03" rms="4.5223641395568848e-01" purity="5.1135778427124023e-01" nType="0">
          <Node pos="l" depth="2" NCoef="0" IVar="-1" Cut="0.0000000000000000e+00" cType="1" res="5.0044567615259439e-05" rms="4.5311465859413147e-01" purity="5.1648658514022827e-01" nType="-99"/>
          <Node pos="r" depth="2" NCoef="0" IVar="-1" Cut="0.0000000000000000e+00" cType="1" res="2.4873521178960800e-03" rms="4.4138693809509277e-01" purity="4.5460259914398193e-01" nType="-99"/>
        </Node>
        <Node pos="r" depth="1" NCoef="0" IVar="-1" Cut="0.0000000000000000e+00" cType="1" res="-2.6132876519113779e-03" rms="4.0996760129928589e-01" purity="3.9173388481140137e-01" nType="-99"/>
      </Node>
    </BinaryTree>
    <BinaryTree type="DecisionTree" boostWeight="1.0000000000000000e+00" itree="1017">
      <Node pos="s" depth="0" NCoef="0" IVar="1" Cut="9.5639431476593018e-01" cType="1" res="2.4153762497007847e-03" rms="4.4937551021575928e-01" purity="5.0183981657028198e-01" nType="0">
        <Node pos="l" depth="1" NCoef="0" IVar="2" Cut="2.3798503112792969e+02" cType="1" res="6.3948608003556728e-03" rms="4.5567926764488220e-01" purity="4.5482486486434937e-01" nType="0">
          <Node pos="l" depth="2" NCoef="0" IVar="-1" Cut="0.0000000000000000e+00" cType="1" res="-8.4297481225803494e-04" rms="4.1698607802391052e-01" purity="2.6269486546516418e-01" nType="-99"/>
          <Node pos="r" depth="2" NCoef="0" IVar="-1" Cut="0.0000000000000000e+00" cType="1" res="7.0775515632703900e-04" rms="4.6585381031036377e-01" purity="5.0864279270172119e-01" nType="-99"/>
        </Node>
        <Node pos="r" depth="1" NCoef="0" IVar="2" Cut="3.2161666870117188e+02" cType="1" res="-1.7400752753019333e-02" rms="4.1600123047828674e-01" purity="7.3595422506332397e-01" nType="0">
          <Node pos="l" depth="2" NCoef="0" IVar="-1" Cut="0.0000000000000000e+00" cType="1" res="-2.3111377377063036e-03" rms="4.4496324658393860e-01" purity="6.6480702161788940e-01" nType="-99"/>
          <Node pos="r" depth="2" NCoef="0" IVar="-1" Cut="0.0000000000000000e+00" cType="1" res="-3.1092195422388613e-04" rms="3.8612386584281921e-01" purity="8.0322682857513428e-01" nType="-99"/>
        </Node>
      </Node>
    </BinaryTree>
    <BinaryTree type="DecisionTree" boostWeight="1.0000000000000000e+00" itree="1018">
      <Node pos="s" depth="0" NCoef="0" IVar="0" Cut="4.4536671638488770e+00" cType="1" res="3.8292643148452044e-04" rms="4.4694539904594421e-01" purity="5.0377506017684937e-01" nType="0">
        <Node pos="l" depth="1" NCoef="0" IVar="3" Cut="-4.4735085219144821e-02" cType="1" res="-1.7970805056393147e-03" rms="4.5298376679420471e-01" purity="4.7760257124900818e-01" nType="0">
          <Node pos="l" depth="2" NCoef="0" IVar="-1" Cut="0.0000000000000000e+00" cType="1" res="-8.4873352898284793e-04" rms="4.4347181916236877e-01" purity="4.3688386678695679e-01" nType="-99"/>
          <Node pos="r" depth="2" NCoef="0" IVar="-1" Cut="0.0000000000000000e+00" cType="1" res="2.1918665152043104e-04" rms="4.5784035325050354e-01" purity="4.9906244874000549e-01" nType="-99"/>
        </Node>
        <Node pos="r" depth="1" NCoef="0" IVar="-1" Cut="0.0000000000000000e+00" cType="1" res="2.1059177815914154e-03" rms="3.6536094546318054e-01" purity="8.1935620307922363e-01" nType="-99"/>
      </Node>
    </BinaryTree>
    <BinaryTree type="DecisionTree" boostWeight="1.0000000000000000e+00" itree="1019">
      <Node pos="s" depth="0" NCoef="0" IVar="1" Cut="8.9082324504852295e-01" cType="1" res="8.1353029236197472e-03" rms="4.5326948165893555e-01" purity="5.0694489479064941e-01" nType="0">
        <Node pos="l" depth="1" NCoef="0" IVar="6" Cut="1.7390872240066528e+00" cType="1" res="1.8809324130415916e-02" rms="4.5908892154693604e-01" purity="4.0080851316452026e-01" nType="0">
          <Node pos="l" depth="2" NCoef="0" IVar="-1" Cut="0.0000000000000000e+00" cType="1" res="1.8722206586971879e-03" rms="4.6673965454101562e-01" purity="4.1806989908218384e-01" nType="-99"/>
          <Node pos="r" depth="2" NCoef="0" IVar="-1" Cut="0.0000000000000000e+00" cType="1" res="-2.3888621944934130e-03" rms="4.0416467189788818e-01" purity="2.9107186198234558e-01" nType="-99"/>
        </Node>
        <Node pos="r" depth="1" NCoef="0" IVar="3" Cut="-3.1906068325042725e-02" cType="1" res="5.8321130927652121e-04" rms="4.4895330071449280e-01" purity="5.8203852176666260e-01" nType="0">
          <Node pos="l" depth="2" NCoef="0" IVar="-1" Cut="0.0000000000000000e+00" cType="1" res="-1.0527345584705472e-03" rms="4.4715195894241333e-01" purity="5.3229695558547974e-01" nType="-99"/>
          <Node pos="r" depth="2" NCoef="0" IVar="-1" Cut="0.0000000000000000e+00" cType="1" res="6.7238957853987813e-04" rms="4.4980132579803467e-01" purity="6.1236351728439331e-01" nType="-99"/>
        </Node>
      </Node>
    </BinaryTree>
    <BinaryTree type="DecisionTree" boostWeight="1.0000000000000000e+00" itree="1020">
      <Node pos="s" depth="0" NCoef="0" IVar="6" Cut="1.3804723024368286e+00" cType="1" res="-7.4471399420872331e-04" rms="4.5047712326049805e-01" purity="5.0051331520080566e-01" nType="0">
        <Node pos="l" depth="1" NCoef="0" IVar="2" Cut="2.9975994873046875e+02" cType="1" res="-8.0655906349420547e-03" rms="4.5596566796302795e-01" purity="5.2274167537689209e-01" nType="0">
          <Node pos="l" depth="2" NCoef="0" IVar="-1" Cut="0.0000000000000000e+00" cType="1" res="3.8352631963789463e-04" rms="4.5442759990692139e-01" purity="4.1921696066856384e-01" nType="-99"/>
          <Node pos="r" depth="2" NCoef="0" IVar="-1" Cut="0.0000000000000000e+00" cType="1" res="-1.1468797456473112e-03" rms="4.5677876472473145e-01" purity="5.9175473451614380e-01" nType="-99"/>
        </Node>
        <Node pos="r" depth="1" NCoef="0" IVar="2" Cut="3.0579998779296875e+02" cType="1" res="1.4004648663103580e-02" rms="4.3884041905403137e-01" purity="4.5572990179061890e-01" nType="0">
          <Node pos="l" depth="2" NCoef="0" IVar="-1" Cut="0.0000000000000000e+00" cType="1" res="-2.9192378860898316e-04" rms="4.3698972463607788e-01" purity="3.4769093990325928e-01" nType="-99"/>
          <Node pos="r" depth="2" NCoef="0" IVar="-1" Cut="0.0000000000000000e+00" cType="1" res="2.7647630777209997e-03" rms="4.4036683440208435e-01" purity="6.3189029693603516e-01" nType="-99"/>
        </Node>
      </Node>
    </BinaryTree>
    <BinaryTree type="DecisionTree" boostWeight="1.0000000000000000e+00" itree="1021">
      <Node pos="s" depth="0" NCoef="0" IVar="7" Cut="8.5022681951522827e-01" cType="1" res="-7.7304692240431905e-04" rms="4.4674599170684814e-01" purity="5.0010138750076294e-01" nType="0">
        <Node pos="l" depth="1" NCoef="0" IVar="1" Cut="9.4095814228057861e-01" cType="1" res="-4.4421241618692875e-03" rms="4.4880831241607666e-01" purity="4.8520126938819885e-01" nType="0">
          <Node pos="l" depth="2" NCoef="0" IVar="-1" Cut="0.0000000000000000e+00" cType="1" res="-6.1839330010116100e-04" rms="4.5588296651840210e-01" purity="4.1633787751197815e-01" nType="-99"/>
          <Node pos="r" depth="2" NCoef="0" IVar="-1" Cut="0.0000000000000000e+00" cType="1" res="6.0343521181493998e-04" rms="4.2485508322715759e-01" purity="7.0804727077484131e-01" nType="-99"/>
        </Node>
        <Node pos="r" depth="1" NCoef="0" IVar="2" Cut="3.5206805419921875e+02" cType="1" res="2.3646129295229912e-02" rms="4.3197697401046753e-01" purity="5.9926730394363403e-01" nType="0">
          <Node pos="l" depth="2" NCoef="0" IVar="-1" Cut="0.0000000000000000e+00" cType="1" res="4.2928828042931855e-04" rms="4.4056275486946106e-01" purity="4.9421557784080505e-01" nType="-99"/>
          <Node pos="r" depth="2" NCoef="0" IVar="-1" Cut="0.0000000000000000e+00" cType="1" res="2.9447313863784075e-03" rms="4.2093846201896667e-01" purity="7.2047305107116699e-01" nType="-99"/>
        </Node>
      </Node>
    </BinaryTree>
    <BinaryTree type="DecisionTree" boostWeight="1.0000000000000000e+00" itree="1022">
      <Node pos="s" depth="0" NCoef="0" IVar="4" Cut="3.3602061867713928e-01" cType="1" res="-1.2681592488661408e-03" rms="4.4925901293754578e-01" purity="4.9726039171218872e-01" nType="0">
        <Node pos="l" depth="1" NCoef="0" IVar="2" Cut="3.4406323242187500e+02" cType="1" res="7.2274450212717056e-03" rms="4.5468139648437500e-01" purity="4.7751289606094360e-01" nType="0">
          <Node pos="l" depth="2" NCoef="0" IVar="-1" Cut="0.0000000000000000e+00" cType="1" res="1.2656059116125107e-03" rms="4.4878089427947998e-01" purity="3.9704439043998718e-01" nType="-99"/>
          <Node pos="r" depth="2" NCoef="0" IVar="-1" Cut="0.0000000000000000e+00" cType="1" res="-1.9381764286663383e-04" rms="4.6108207106590271e-01" purity="5.6889790296554565e-01" nType="-99"/>
        </Node>
        <Node pos="r" depth="1" NCoef="0" IVar="2" Cut="4.2934814453125000e+02" cType="1" res="-7.0753102190792561e-03" rms="4.4542136788368225e-01" purity="5.1075875759124756e-01" nType="0">
          <Node pos="l" depth="2" NCoef="0" IVar="-1" Cut="0.0000000000000000e+00" cType="1" res="-8.5053994553163648e-04" rms="4.4937387108802795e-01" purity="4.7533458471298218e-01" nType="-99"/>
          <Node pos="r" depth="2" NCoef="0" IVar="-1" Cut="0.0000000000000000e+00" cType="1" res="1.6507323598489165e-03" rms="4.1699361801147461e-01" purity="7.4565428495407104e-01" nType="-99"/>
        </Node>
      </Node>
    </BinaryTree>
    <BinaryTree type="DecisionTree" boostWeight="1.0000000000000000e+00" itree="1023">
      <Node pos="s" depth="0" NCoef="0" IVar="5" Cut="2.0647044293582439e-03" cType="1" res="-1.5572337433695793e-03" rms="4.4619879126548767e-01" purity="4.9866834282875061e-01" nType="0">
        <Node pos="l" depth="1" NCoef="0" IVar="1" Cut="9.1383856534957886e-01" cType="1" res="5.0923945382237434e-03" rms="4.4479671120643616e-01" purity="5.5090904235839844e-01" nType="0">
          <Node pos="l" depth="2" NCoef="0" IVar="-1" Cut="0.0000000000000000e+00" cType="1" res="1.1928309686481953e-03" rms="4.5526751875877380e-01" purity="4.2679947614669800e-01" nType="-99"/>
          <Node pos="r" depth="2" NCoef="0" IVar="-1" Cut="0.0000000000000000e+00" cType="1" res="-1.6181559476535767e-04" rms="4.3752443790435791e-01" purity="6.3361918926239014e-01" nType="-99"/>
        </Node>
        <Node pos="r" depth="1" NCoef="0" IVar="5" Cut="3.5108719021081924e-03" cType="1" res="-1.6497075557708740e-02" rms="4.4897389411926270e-01" purity="3.8129821419715881e-01" nType="0">
          <Node pos="l" depth="2" NCoef="0" IVar="-1" Cut="0.0000000000000000e+00" cType="1" res="-2.0475669298321009e-03" rms="4.4565704464912415e-01" purity="3.7017488479614258e-01" nType="-99"/>
          <Node pos="r" depth="2" NCoef="0" IVar="-1" Cut="0.0000000000000000e+00" cType="1" res="1.2839733390137553e-03" rms="4.5770469307899475e-01" purity="4.1691642999649048e-01" nType="-99"/>
        </Node>
      </Node>
    </BinaryTree>
    <BinaryTree type="DecisionTree" boostWeight="1.0000000000000000e+00" itree="1024">
      <Node pos="s" depth="0" NCoef="0" IVar="4" Cut="5.0455045700073242e-01" cType="1" res="2.3068282753229141e-03" rms="4.4995108246803284e-01" purity="5.0234317779541016e-01" nType="0">
        <Node pos="l" depth="1" NCoef="0" IVar="4" Cut="4.2877200245857239e-01" cType="1" res="-3.8174970541149378e-03" rms="4.5190042257308960e-01" purity="4.8516836762428284e-01" nType="0">
          <Node pos="l" depth="2" NCoef="0" IVar="-1" Cut="0.0000000000000000e+00" cType="1" res="5.3481981012737378e-05" rms="4.5088693499565125e-01" purity="4.8178637027740479e-01" nType="-99"/>
          <Node pos="r" depth="2" NCoef="0" IVar="-1" Cut="0.0000000000000000e+00" cType="1" res="-1.7824958777055144e-03" rms="4.5591437816619873e-01" purity="5.0057595968246460e-01" nType="-99"/>
        </Node>
        <Node pos="r" depth="1" NCoef="0" IVar="4" Cut="5.6950902938842773e-01" cType="1" res="1.6108043491840363e-02" rms="4.4521823525428772e-01" purity="5.4104673862457275e-01" nType="0">
          <Node pos="l" depth="2" NCoef="0" IVar="-1" Cut="0.0000000000000000e+00" cType="1" res="2.4928352795541286e-03" rms="4.4670331478118896e-01" purity="5.4367488622665405e-01" nType="-99"/>
          <Node pos="r" depth="2" NCoef="0" IVar="-1" Cut="0.0000000000000000e+00" cType="1" res="5.2854546811431646e-04" rms="4.4426289200782776e-01" purity="5.3984534740447998e-01" nType="-99"/>
        </Node>
      </Node>
    </BinaryTree>
    <BinaryTree type="DecisionTree" boostWeight="1.0000000000000000e+00" itree="1025">
      <Node pos="s" depth="0" NCoef="0" IVar="6" Cut="1.6475785970687866e+00" cType="1" res="-2.9295210260897875e-03" rms="4.5020347833633423e-01" purity="4.9709084630012512e-01" nType="0">
        <Node pos="l" depth="1" NCoef="0" IVar="2" Cut="2.2159768676757812e+02" cType="1" res="-6.0082324780523777e-03" rms="4.5399940013885498e-01" purity="5.0905799865722656e-01" nType="0">
          <Node pos="l" depth="2" NCoef="0" IVar="-1" Cut="0.0000000000000000e+00" cType="1" res="1.5180396148934960e-03" rms="4.3422377109527588e-01" purity="3.1724002957344055e-01" nType="-99"/>
          <Node pos="r" depth="2" NCoef="0" IVar="-1" Cut="0.0000000000000000e+00" cType="1" res="-6.2816089484840631e-04" rms="4.5647990703582764e-01" purity="5.3458130359649658e-01" nType="-99"/>
        </Node>
        <Node pos="r" depth="1" NCoef="0" IVar="2" Cut="3.0051605224609375e+02" cType="1" res="1.2144865468144417e-02" rms="4.3081784248352051e-01" purity="4.3849548697471619e-01" nType="0">
          <Node pos="l" depth="2" NCoef="0" IVar="-1" Cut="0.0000000000000000e+00" cType="1" res="-1.3720625429414213e-04" rms="4.3263345956802368e-01" purity="3.4096553921699524e-01" nType="-99"/>
          <Node pos="r" depth="2" NCoef="0" IVar="-1" Cut="0.0000000000000000e+00" cType="1" res="2.5654695928096771e-03" rms="4.2605260014533997e-01" purity="6.2639850378036499e-01" nType="-99"/>
        </Node>
      </Node>
    </BinaryTree>
    <BinaryTree type="DecisionTree" boostWeight="1.0000000000000000e+00" itree="1026">
      <Node pos="s" depth="0" NCoef="0" IVar="5" Cut="3.3551361411809921e-03" cType="1" res="1.5486757038161159e-03" rms="4.4938987493515015e-01" purity="5.0239408016204834e-01" nType="0">
        <Node pos="l" depth="1" NCoef="0" IVar="4" Cut="2.9063951969146729e-01" cType="1" res="-1.0014035506173968e-03" rms="4.4736433029174805e-01" purity="5.1147586107254028e-01" nType="0">
          <Node pos="l" depth="2" NCoef="0" IVar="-1" Cut="0.0000000000000000e+00" cType="1" res="8.0407789209857583e-04" rms="4.5172908902168274e-01" purity="4.8788973689079285e-01" nType="-99"/>
          <Node pos="r" depth="2" NCoef="0" IVar="-1" Cut="0.0000000000000000e+00" cType="1" res="-5.0521711818873882e-04" rms="4.4510546326637268e-01" purity="5.2295517921447754e-01" nType="-99"/>
        </Node>
        <Node pos="r" depth="1" NCoef="0" IVar="-1" Cut="0.0000000000000000e+00" cType="1" res="1.7797112232074142e-03" rms="4.6712866425514221e-01" purity="4.1799744963645935e-01" nType="-99"/>
      </Node>
    </BinaryTree>
    <BinaryTree type="DecisionTree" boostWeight="1.0000000000000000e+00" itree="1027">
      <Node pos="s" depth="0" NCoef="0" IVar="7" Cut="3.6094710230827332e-01" cType="1" res="-5.0300657749176025e-03" rms="4.5173126459121704e-01" purity="4.9447146058082581e-01" nType="0">
        <Node pos="l" depth="1" NCoef="0" IVar="-1" Cut="0.0000000000000000e+00" cType="1" res="-2.8663729317486286e-03" rms="4.5940226316452026e-01" purity="4.3507871031761169e-01" nType="-99"/>
        <Node pos="r" depth="1" NCoef="0" IVar="5" Cut="2.9487640131264925e-03" cType="1" res="-2.9840806964784861e-03" rms="4.5118054747581482e-01" purity="4.9807497859001160e-01" nType="0">
          <Node pos="l" depth="2" NCoef="0" IVar="-1" Cut="0.0000000000000000e+00" cType="1" res="1.0693268995964900e-04" rms="4.5206108689308167e-01" purity="5.2209258079528809e-01" nType="-99"/>
          <Node pos="r" depth="2" NCoef="0" IVar="-1" Cut="0.0000000000000000e+00" cType="1" res="-2.0313449203968048e-03" rms="4.4560712575912476e-01" purity="3.6800011992454529e-01" nType="-99"/>
        </Node>
      </Node>
    </BinaryTree>
    <BinaryTree type="DecisionTree" boostWeight="1.0000000000000000e+00" itree="1028">
      <Node pos="s" depth="0" NCoef="0" IVar="4" Cut="4.3337675929069519e-01" cType="1" res="-2.0117417443543673e-03" rms="4.5185321569442749e-01" purity="4.9827232956886292e-01" nType="0">
        <Node pos="l" depth="1" NCoef="0" IVar="5" Cut="2.4125205818563700e-03" cType="1" res="5.5179568007588387e-03" rms="4.5217868685722351e-01" purity="4.8658820986747742e-01" nType="0">
          <Node pos="l" depth="2" NCoef="0" IVar="-1" Cut="0.0000000000000000e+00" cType="1" res="-1.0027843381976709e-04" rms="4.5015534758567810e-01" purity="5.1072037220001221e-01" nType="-99"/>
          <Node pos="r" depth="2" NCoef="0" IVar="-1" Cut="0.0000000000000000e+00" cType="1" res="1.8349597230553627e-03" rms="4.5746362209320068e-01" purity="4.1580760478973389e-01" nType="-99"/>
        </Node>
        <Node pos="r" depth="1" NCoef="0" IVar="5" Cut="1.4110981719568372e-03" cType="1" res="-1.2841056101024151e-02" rms="4.5116442441940308e-01" purity="5.1507657766342163e-01" nType="0">
          <Node pos="l" depth="2" NCoef="0" IVar="-1" Cut="0.0000000000000000e+00" cType="1" res="-1.8976880237460136e-03" rms="4.4034895300865173e-01" purity="5.8694076538085938e-01" nType="-99"/>
          <Node pos="r" depth="2" NCoef="0" IVar="-1" Cut="0.0000000000000000e+00" cType="1" res="1.0679862316465005e-04" rms="4.6303132176399231e-01" purity="4.3136352300643921e-01" nType="-99"/>
        </Node>
      </Node>
    </BinaryTree>
    <BinaryTree type="DecisionTree" boostWeight="1.0000000000000000e+00" itree="1029">
      <Node pos="s" depth="0" NCoef="0" IVar="4" Cut="6.5497171878814697e-01" cType="1" res="1.5096386196091771e-03" rms="4.4859895110130310e-01" purity="5.0210803747177124e-01" nType="0">
        <Node pos="l" depth="1" NCoef="0" IVar="5" Cut="3.2106058206409216e-03" cType="1" res="-1.3296005781739950e-03" rms="4.4863298535346985e-01" purity="4.9440166354179382e-01" nType="0">
          <Node pos="l" depth="2" NCoef="0" IVar="-1" Cut="0.0000000000000000e+00" cType="1" res="1.0066993854707107e-04" rms="4.4705742597579956e-01" purity="5.1060831546783447e-01" nType="-99"/>
          <Node pos="r" depth="2" NCoef="0" IVar="-1" Cut="0.0000000000000000e+00" cType="1" res="-1.6030735569074750e-03" rms="4.5979753136634827e-01" purity="3.7251958250999451e-01" nType="-99"/>
        </Node>
        <Node pos="r" depth="1" NCoef="0" IVar="-1" Cut="0.0000000000000000e+00" cType="1" res="1.8141804030165076e-03" rms="4.4756942987442017e-01" purity="5.6813865900039673e-01" nType="-99"/>
      </Node>
    </BinaryTree>
    <BinaryTree type="DecisionTree" boostWeight="1.0000000000000000e+00" itree="1030">
      <Node pos="s" depth="0" NCoef="0" IVar="0" Cut="-1.9580373167991638e-01" cType="1" res="-2.4991522077471018e-03" rms="4.4796323776245117e-01" purity="4.9744457006454468e-01" nType="0">
        <Node pos="l" depth="1" NCoef="0" IVar="-1" Cut="0.0000000000000000e+00" cType="1" res="-4.1324053891003132e-03" rms="4.0877836942672729e-01" purity="2.6322630047798157e-01" nType="-99"/>
        <Node pos="r" depth="1" NCoef="0" IVar="6" Cut="9.2272537946701050e-01" cType="1" res="6.0702303017023951e-05" rms="4.5020589232444763e-01" purity="5.1226586103439331e-01" nType="0">
          <Node pos="l" depth="2" NCoef="0" IVar="-1" Cut="0.0000000000000000e+00" cType="1" res="-7.8733440022915602e-04" rms="4.4735574722290039e-01" purity="5.7085847854614258e-01" nType="-99"/>
          <Node pos="r" depth="2" NCoef="0" IVar="-1" Cut="0.0000000000000000e+00" cType="1" res="3.5942558315582573e-04" rms="4.5134997367858887e-01" purity="4.8682302236557007e-01" nType="-99"/>
        </Node>
      </Node>
    </BinaryTree>
    <BinaryTree type="DecisionTree" boostWeight="1.0000000000000000e+00" itree="1031">
      <Node pos="s" depth="0" NCoef="0" IVar="3" Cut="8.2660041749477386e-02" cType="1" res="6.2946523539721966e-03" rms="4.4980832934379578e-01" purity="5.0336629152297974e-01" nType="0">
        <Node pos="l" depth="1" NCoef="0" IVar="7" Cut="4.6217846870422363e-01" cType="1" res="1.3754057697951794e-02" rms="4.4627875089645386e-01" purity="4.9438950419425964e-01" nType="0">
          <Node pos="l" depth="2" NCoef="0" IVar="-1" Cut="0.0000000000000000e+00" cType="1" res="-2.5691974442452192e-03" rms="4.1167607903480530e-01" purity="2.6061713695526123e-01" nType="-99"/>
          <Node pos="r" depth="2" NCoef="0" IVar="-1" Cut="0.0000000000000000e+00" cType="1" res="1.2277442729100585e-03" rms="4.4887959957122803e-01" purity="5.1387429237365723e-01" nType="-99"/>
        </Node>
        <Node pos="r" depth="1" NCoef="0" IVar="4" Cut="1.7669232189655304e-01" cType="1" res="-9.0682813897728920e-03" rms="4.5660799741744995e-01" purity="5.2185428142547607e-01" nType="0">
          <Node pos="l" depth="2" NCoef="0" IVar="-1" Cut="0.0000000000000000e+00" cType="1" res="1.9595411140471697e-03" rms="4.5762369036674500e-01" purity="5.4045706987380981e-01" nType="-99"/>
          <Node pos="r" depth="2" NCoef="0" IVar="-1" Cut="0.0000000000000000e+00" cType="1" res="-1.2536664726212621e-03" rms="4.5594179630279541e-01" purity="5.1772111654281616e-01" nType="-99"/>
        </Node>
      </Node>
    </BinaryTree>
    <BinaryTree type="DecisionTree" boostWeight="1.0000000000000000e+00" itree="1032">
      <Node pos="s" depth="0" NCoef="0" IVar="1" Cut="8.5611444711685181e-01" cType="1" res="1.3185925781726837e-03" rms="4.4851443171501160e-01" purity="5.0107556581497192e-01" nType="0">
        <Node pos="l" depth="1" NCoef="0" IVar="-1" Cut="0.0000000000000000e+00" cType="1" res="-2.5965303648263216e-03" rms="4.4011127948760986e-01" purity="3.2865256071090698e-01" nType="-99"/>
        <Node pos="r" depth="1" NCoef="0" IVar="4" Cut="4.3159535527229309e-01" cType="1" res="4.0674675256013870e-03" rms="4.4907432794570923e-01" purity="5.1501327753067017e-01" nType="0">
          <Node pos="l" depth="2" NCoef="0" IVar="-1" Cut="0.0000000000000000e+00" cType="1" res="-2.7629535179585218e-04" rms="4.5154216885566711e-01" purity="4.8871338367462158e-01" nType="-99"/>
          <Node pos="r" depth="2" NCoef="0" IVar="-1" Cut="0.0000000000000000e+00" cType="1" res="1.0233004577457905e-03" rms="4.4557914137840271e-01" purity="5.4976481199264526e-01" nType="-99"/>
        </Node>
      </Node>
    </BinaryTree>
    <BinaryTree type="DecisionTree" boostWeight="1.0000000000000000e+00" itree="1033">
      <Node pos="s" depth="0" NCoef="0" IVar="2" Cut="3.1213906860351562e+02" cType="1" res="-1.5788805903866887e-03" rms="4.4613799452781677e-01" purity="4.9981090426445007e-01" nType="0">
        <Node pos="l" depth="1" NCoef="0" IVar="7" Cut="7.6919674873352051e-01" cType="1" res="-9.4854952767491341e-03" rms="4.4283849000930786e-01" purity="3.9212787151336670e-01" nType="0">
          <Node pos="l" depth="2" NCoef="0" IVar="-1" Cut="0.0000000000000000e+00" cType="1" res="-5.6448290706612170e-05" rms="4.4305300712585449e-01" purity="3.8927355408668518e-01" nType="-99"/>
          <Node pos="r" depth="2" NCoef="0" IVar="-1" Cut="0.0000000000000000e+00" cType="1" res="-2.9950665775686502e-03" rms="4.4083395600318909e-01" purity="4.0173694491386414e-01" nType="-99"/>
        </Node>
        <Node pos="r" depth="1" NCoef="0" IVar="6" Cut="1.0092201232910156e+00" cType="1" res="6.9568553008139133e-03" rms="4.4951674342155457e-01" purity="6.1606216430664062e-01" nType="0">
          <Node pos="l" depth="2" NCoef="0" IVar="-1" Cut="0.0000000000000000e+00" cType="1" res="-8.3649466978386045e-04" rms="4.5421707630157471e-01" purity="6.1431574821472168e-01" nType="-99"/>
          <Node pos="r" depth="2" NCoef="0" IVar="-1" Cut="0.0000000000000000e+00" cType="1" res="1.5573942800983787e-03" rms="4.4475114345550537e-01" purity="6.1757063865661621e-01" nType="-99"/>
        </Node>
      </Node>
    </BinaryTree>
    <BinaryTree type="DecisionTree" boostWeight="1.0000000000000000e+00" itree="1034">
      <Node pos="s" depth="0" NCoef="0" IVar="0" Cut="4.1114082336425781e+00" cType="1" res="1.7434359760954976e-03" rms="4.4840824604034424e-01" purity="5.0153458118438721e-01" nType="0">
        <Node pos="l" depth="1" NCoef="0" IVar="3" Cut="1.1979996226727962e-02" cType="1" res="-8.5671531269326806e-04" rms="4.5422497391700745e-01" purity="4.7025159001350403e-01" nType="0">
          <Node pos="l" depth="2" NCoef="0" IVar="-1" Cut="0.0000000000000000e+00" cType="1" res="-6.1882875161245465e-04" rms="4.4758504629135132e-01" purity="4.3427279591560364e-01" nType="-99"/>
          <Node pos="r" depth="2" NCoef="0" IVar="-1" Cut="0.0000000000000000e+00" cType="1" res="4.3499440653249621e-04" rms="4.6050393581390381e-01" purity="5.0539094209671021e-01" nType="-99"/>
        </Node>
        <Node pos="r" depth="1" NCoef="0" IVar="-1" Cut="0.0000000000000000e+00" cType="1" res="1.8943307222798467e-03" rms="3.9039781689643860e-01" purity="7.8771990537643433e-01" nType="-99"/>
      </Node>
    </BinaryTree>
    <BinaryTree type="DecisionTree" boostWeight="1.0000000000000000e+00" itree="1035">
      <Node pos="s" depth="0" NCoef="0" IVar="7" Cut="3.9749139547348022e-01" cType="1" res="-6.5531507134437561e-03" rms="4.4808533787727356e-01" purity="4.9431455135345459e-01" nType="0">
        <Node pos="l" depth="1" NCoef="0" IVar="-1" Cut="0.0000000000000000e+00" cType="1" res="-2.5768303312361240e-03" rms="4.4583317637443542e-01" purity="4.2191058397293091e-01" nType="-99"/>
        <Node pos="r" depth="1" NCoef="0" IVar="7" Cut="5.3404760360717773e-01" cType="1" res="-3.8683367893099785e-03" rms="4.4822016358375549e-01" purity="5.0152355432510376e-01" nType="0">
          <Node pos="l" depth="2" NCoef="0" IVar="-1" Cut="0.0000000000000000e+00" cType="1" res="9.3608745373785496e-04" rms="4.5220988988876343e-01" purity="4.5521721243858337e-01" nType="-99"/>
          <Node pos="r" depth="2" NCoef="0" IVar="-1" Cut="0.0000000000000000e+00" cType="1" res="-6.2240136321634054e-04" rms="4.4694888591766357e-01" purity="5.1491332054138184e-01" nType="-99"/>
        </Node>
      </Node>
    </BinaryTree>
    <BinaryTree type="DecisionTree" boostWeight="1.0000000000000000e+00" itree="1036">
      <Node pos="s" depth="0" NCoef="0" IVar="4" Cut="5.7012224197387695e-01" cType="1" res="3.8389267865568399e-03" rms="4.4862580299377441e-01" purity="5.0327754020690918e-01" nType="0">
        <Node pos="l" depth="1" NCoef="0" IVar="5" Cut="2.9510431922972202e-03" cType="1" res="9.7217252478003502e-03" rms="4.5116963982582092e-01" purity="5.0092035531997681e-01" nType="0">
          <Node pos="l" depth="2" NCoef="0" IVar="-1" Cut="0.0000000000000000e+00" cType="1" res="4.3323557474650443e-04" rms="4.4905838370323181e-01" purity="5.1639986038208008e-01" nType="-99"/>
          <Node pos="r" depth="2" NCoef="0" IVar="-1" Cut="0.0000000000000000e+00" cType="1" res="2.1519900765269995e-03" rms="4.6200931072235107e-01" purity="4.1629499197006226e-01" nType="-99"/>
        </Node>
        <Node pos="r" depth="1" NCoef="0" IVar="1" Cut="9.3276154994964600e-01" cType="1" res="-1.9345609471201897e-02" rms="4.3768739700317383e-01" purity="5.1256728172302246e-01" nType="0">
          <Node pos="l" depth="2" NCoef="0" IVar="-1" Cut="0.0000000000000000e+00" cType="1" res="-2.5165432598441839e-03" rms="4.5222872495651245e-01" purity="4.0732631087303162e-01" nType="-99"/>
          <Node pos="r" depth="2" NCoef="0" IVar="-1" Cut="0.0000000000000000e+00" cType="1" res="1.0005409130826592e-03" rms="4.0262401103973389e-01" purity="7.3957544565200806e-01" nType="-99"/>
        </Node>
      </Node>
    </BinaryTree>
    <BinaryTree type="DecisionTree" boostWeight="1.0000000000000000e+00" itree="1037">
      <Node pos="s" depth="0" NCoef="0" IVar="4" Cut="3.8256168365478516e-01" cType="1" res="-2.5887158699333668e-03" rms="4.5029610395431519e-01" purity="4.9781781435012817e-01" nType="0">
        <Node pos="l" depth="1" NCoef="0" IVar="6" Cut="9.9276298284530640e-01" cType="1" res="-1.3075852766633034e-02" rms="4.5064294338226318e-01" purity="4.6231374144554138e-01" nType="0">
          <Node pos="l" depth="2" NCoef="0" IVar="-1" Cut="0.0000000000000000e+00" cType="1" res="8.3637045463547111e-05" rms="4.5871272683143616e-01" purity="5.3732323646545410e-01" nType="-99"/>
          <Node pos="r" depth="2" NCoef="0" IVar="-1" Cut="0.0000000000000000e+00" cType="1" res="-1.6826271312311292e-03" rms="4.4541856646537781e-01" purity="4.1651350259780884e-01" nType="-99"/>
        </Node>
        <Node pos="r" depth="1" NCoef="0" IVar="5" Cut="1.0273947846144438e-03" cType="1" res="7.4801882728934288e-03" rms="4.4973284006118774e-01" purity="5.3190594911575317e-01" nType="0">
          <Node pos="l" depth="2" NCoef="0" IVar="-1" Cut="0.0000000000000000e+00" cType="1" res="-5.0621631089597940e-04" rms="4.3199688196182251e-01" purity="6.2351679801940918e-01" nType="-99"/>
          <Node pos="r" depth="2" NCoef="0" IVar="-1" Cut="0.0000000000000000e+00" cType="1" res="1.3130629668012261e-03" rms="4.6320375800132751e-01" purity="4.5813417434692383e-01" nType="-99"/>
        </Node>
      </Node>
    </BinaryTree>
    <BinaryTree type="DecisionTree" boostWeight="1.0000000000000000e+00" itree="1038">
      <Node pos="s" depth="0" NCoef="0" IVar="6" Cut="6.6808354854583740e-01" cType="1" res="9.1398530639708042e-04" rms="4.4695889949798584e-01" purity="5.0090986490249634e-01" nType="0">
        <Node pos="l" depth="1" NCoef="0" IVar="3" Cut="-1.0689274407923222e-02" cType="1" res="3.1705424189567566e-02" rms="4.4327029585838318e-01" purity="6.1757528781890869e-01" nType="0">
          <Node pos="l" depth="2" NCoef="0" IVar="-1" Cut="0.0000000000000000e+00" cType="1" res="3.2226555049419403e-03" rms="4.4139835238456726e-01" purity="6.1635243892669678e-01" nType="-99"/>
          <Node pos="r" depth="2" NCoef="0" IVar="-1" Cut="0.0000000000000000e+00" cType="1" res="1.1292822891846299e-03" rms="4.4455564022064209e-01" purity="6.1874961853027344e-01" nType="-99"/>
        </Node>
        <Node pos="r" depth="1" NCoef="0" IVar="3" Cut="-1.0272488743066788e-01" cType="1" res="-3.0928943306207657e-03" rms="4.4728082418441772e-01" purity="4.8572826385498047e-01" nType="0">
          <Node pos="l" depth="2" NCoef="0" IVar="-1" Cut="0.0000000000000000e+00" cType="1" res="1.2189897242933512e-03" rms="4.4279965758323669e-01" purity="4.5240488648414612e-01" nType="-99"/>
          <Node pos="r" depth="2" NCoef="0" IVar="-1" Cut="0.0000000000000000e+00" cType="1" res="-4.6499236486852169e-04" rms="4.4797477126121521e-01" purity="4.9153116345405579e-01" nType="-99"/>
        </Node>
      </Node>
    </BinaryTree>
    <BinaryTree type="DecisionTree" boostWeight="1.0000000000000000e+00" itree="1039">
      <Node pos="s" depth="0" NCoef="0" IVar="7" Cut="8.2622790336608887e-01" cType="1" res="-7.5144588481634855e-04" rms="4.4799607992172241e-01" purity="4.9903222918510437e-01" nType="0">
        <Node pos="l" depth="1" NCoef="0" IVar="5" Cut="3.0970543157309294e-03" cType="1" res="-4.4627636671066284e-03" rms="4.4974467158317566e-01" purity="4.8171171545982361e-01" nType="0">
          <Node pos="l" depth="2" NCoef="0" IVar="-1" Cut="0.0000000000000000e+00" cType="1" res="-6.7701941588893533e-05" rms="4.5037972927093506e-01" purity="5.0065875053405762e-01" nType="-99"/>
          <Node pos="r" depth="2" NCoef="0" IVar="-1" Cut="0.0000000000000000e+00" cType="1" res="-2.1460445132106543e-03" rms="4.4470486044883728e-01" purity="3.5389858484268188e-01" nType="-99"/>
        </Node>
        <Node pos="r" depth="1" NCoef="0" IVar="2" Cut="3.4982611083984375e+02" cType="1" res="1.8164109438657761e-02" rms="4.3848809599876404e-01" purity="5.8730977773666382e-01" nType="0">
          <Node pos="l" depth="2" NCoef="0" IVar="-1" Cut="0.0000000000000000e+00" cType="1" res="4.2874802602455020e-04" rms="4.5075136423110962e-01" purity="4.8638886213302612e-01" nType="-99"/>
          <Node pos="r" depth="2" NCoef="0" IVar="-1" Cut="0.0000000000000000e+00" cType="1" res="2.1971478126943111e-03" rms="4.2256826162338257e-01" purity="7.1041995286941528e-01" nType="-99"/>
        </Node>
      </Node>
    </BinaryTree>
    <BinaryTree type="DecisionTree" boostWeight="1.0000000000000000e+00" itree="1040">
      <Node pos="s" depth="0" NCoef="0" IVar="4" Cut="1.2710367143154144e-01" cType="1" res="-2.2487966343760490e-03" rms="4.4891262054443359e-01" purity="4.9853467941284180e-01" nType="0">
        <Node pos="l" depth="1" NCoef="0" IVar="-1" Cut="0.0000000000000000e+00" cType="1" res="-2.9380370397120714e-03" rms="4.3527773022651672e-01" purity="3.8861224055290222e-01" nType="-99"/>
        <Node pos="r" depth="1" NCoef="0" IVar="7" Cut="5.0613754987716675e-01" cType="1" res="-2.9401831852737814e-05" rms="4.4966500997543335e-01" purity="5.0545698404312134e-01" nType="0">
          <Node pos="l" depth="2" NCoef="0" IVar="-1" Cut="0.0000000000000000e+00" cType="1" res="1.2008451158180833e-03" rms="4.5033589005470276e-01" purity="4.7036257386207581e-01" nType="-99"/>
          <Node pos="r" depth="2" NCoef="0" IVar="-1" Cut="0.0000000000000000e+00" cType="1" res="-3.1554597080685198e-04" rms="4.4938582181930542e-01" purity="5.1481723785400391e-01" nType="-99"/>
        </Node>
      </Node>
    </BinaryTree>
    <BinaryTree type="DecisionTree" boostWeight="1.0000000000000000e+00" itree="1041">
      <Node pos="s" depth="0" NCoef="0" IVar="5" Cut="1.0323571041226387e-03" cType="1" res="4.3291426263749599e-03" rms="4.5094755291938782e-01" purity="5.0311070680618286e-01" nType="0">
        <Node pos="l" depth="1" NCoef="0" IVar="3" Cut="1.9532495737075806e-01" cType="1" res="-4.3943421915173531e-03" rms="4.3624272942543030e-01" purity="5.9120965003967285e-01" nType="0">
          <Node pos="l" depth="2" NCoef="0" IVar="-1" Cut="0.0000000000000000e+00" cType="1" res="-1.8460830688127317e-05" rms="4.3470716476440430e-01" purity="5.9067749977111816e-01" nType="-99"/>
          <Node pos="r" depth="2" NCoef="0" IVar="-1" Cut="0.0000000000000000e+00" cType="1" res="-2.5763222947716713e-03" rms="4.4616344571113586e-01" purity="5.9510946273803711e-01" nType="-99"/>
        </Node>
        <Node pos="r" depth="1" NCoef="0" IVar="0" Cut="2.1772356033325195e+00" cType="1" res="1.1318487115204334e-02" rms="4.6227309107780457e-01" purity="4.3252494931221008e-01" nType="0">
          <Node pos="l" depth="2" NCoef="0" IVar="-1" Cut="0.0000000000000000e+00" cType="1" res="1.3817893341183662e-03" rms="4.6104395389556885e-01" purity="3.9130571484565735e-01" nType="-99"/>
          <Node pos="r" depth="2" NCoef="0" IVar="-1" Cut="0.0000000000000000e+00" cType="1" res="-6.9165724562481046e-04" rms="4.6539574861526489e-01" purity="5.6173408031463623e-01" nType="-99"/>
        </Node>
      </Node>
    </BinaryTree>
    <BinaryTree type="DecisionTree" boostWeight="1.0000000000000000e+00" itree="1042">
      <Node pos="s" depth="0" NCoef="0" IVar="3" Cut="7.6895006000995636e-02" cType="1" res="-5.8661829680204391e-03" rms="4.4883948564529419e-01" purity="4.9568715691566467e-01" nType="0">
        <Node pos="l" depth="1" NCoef="0" IVar="4" Cut="2.7357074618339539e-01" cType="1" res="3.3830152824521065e-04" rms="4.4412493705749512e-01" purity="4.8554399609565735e-01" nType="0">
          <Node pos="l" depth="2" NCoef="0" IVar="-1" Cut="0.0000000000000000e+00" cType="1" res="1.4621735317632556e-03" rms="4.4377177953720093e-01" purity="4.4768059253692627e-01" nType="-99"/>
          <Node pos="r" depth="2" NCoef="0" IVar="-1" Cut="0.0000000000000000e+00" cType="1" res="-4.3335038935765624e-04" rms="4.4406524300575256e-01" purity="4.9799308180809021e-01" nType="-99"/>
        </Node>
        <Node pos="r" depth="1" NCoef="0" IVar="6" Cut="1.4505347013473511e+00" cType="1" res="-1.8501978367567062e-02" rms="4.5803120732307434e-01" purity="5.1634436845779419e-01" nType="0">
          <Node pos="l" depth="2" NCoef="0" IVar="-1" Cut="0.0000000000000000e+00" cType="1" res="-2.1264299284666777e-03" rms="4.5879411697387695e-01" purity="5.3183579444885254e-01" nType="-99"/>
          <Node pos="r" depth="2" NCoef="0" IVar="-1" Cut="0.0000000000000000e+00" cType="1" res="6.9571775384247303e-04" rms="4.5497953891754150e-01" purity="4.7984907031059265e-01" nType="-99"/>
        </Node>
      </Node>
    </BinaryTree>
    <BinaryTree type="DecisionTree" boostWeight="1.0000000000000000e+00" itree="1043">
      <Node pos="s" depth="0" NCoef="0" IVar="6" Cut="8.5715723037719727e-01" cType="1" res="1.4641383895650506e-03" rms="4.5128193497657776e-01" purity="5.0302797555923462e-01" nType="0">
        <Node pos="l" depth="1" NCoef="0" IVar="5" Cut="2.1832110360264778e-03" cType="1" res="-1.5463693067431450e-02" rms="4.5371165871620178e-01" purity="5.5692654848098755e-01" nType="0">
          <Node pos="l" depth="2" NCoef="0" IVar="-1" Cut="0.0000000000000000e+00" cType="1" res="-3.1145103275775909e-04" rms="4.4877973198890686e-01" purity="6.0359305143356323e-01" nType="-99"/>
          <Node pos="r" depth="2" NCoef="0" IVar="-1" Cut="0.0000000000000000e+00" cType="1" res="-3.2543931156396866e-03" rms="4.6614995598793030e-01" purity="4.2268002033233643e-01" nType="-99"/>
        </Node>
        <Node pos="r" depth="1" NCoef="0" IVar="1" Cut="8.8312357664108276e-01" cType="1" res="6.9979024119675159e-03" rms="4.5034685730934143e-01" purity="4.8540830612182617e-01" nType="0">
          <Node pos="l" depth="2" NCoef="0" IVar="-1" Cut="0.0000000000000000e+00" cType="1" res="1.5493495156988502e-03" rms="4.5327982306480408e-01" purity="3.7857663631439209e-01" nType="-99"/>
          <Node pos="r" depth="2" NCoef="0" IVar="-1" Cut="0.0000000000000000e+00" cType="1" res="-3.5315806599101052e-05" rms="4.4850152730941772e-01" purity="5.4601269960403442e-01" nType="-99"/>
        </Node>
      </Node>
    </BinaryTree>
    <BinaryTree type="DecisionTree" boostWeight="1.0000000000000000e+00" itree="1044">
      <Node pos="s" depth="0" NCoef="0" IVar="0" Cut="-1.9970978796482086e-01" cType="1" res="1.9180747913196683e-03" rms="4.4915950298309326e-01" purity="5.0210559368133545e-01" nType="0">
        <Node pos="l" depth="1" NCoef="0" IVar="-1" Cut="0.0000000000000000e+00" cType="1" res="3.5136069636791945e-03" rms="4.4435283541679382e-01" purity="3.4411808848381042e-01" nType="-99"/>
        <Node pos="r" depth="1" NCoef="0" IVar="0" Cut="1.9927190244197845e-01" cType="1" res="-6.8551045842468739e-04" rms="4.4936841726303101e-01" purity="5.1290708780288696e-01" nType="0">
          <Node pos="l" depth="2" NCoef="0" IVar="-1" Cut="0.0000000000000000e+00" cType="1" res="-2.5540208443999290e-03" rms="4.2216035723686218e-01" purity="2.7765378355979919e-01" nType="-99"/>
          <Node pos="r" depth="2" NCoef="0" IVar="-1" Cut="0.0000000000000000e+00" cType="1" res="1.0877104068640620e-04" rms="4.5152825117111206e-01" purity="5.3284692764282227e-01" nType="-99"/>
        </Node>
      </Node>
    </BinaryTree>
    <BinaryTree type="DecisionTree" boostWeight="1.0000000000000000e+00" itree="1045">
      <Node pos="s" depth="0" NCoef="0" IVar="0" Cut="2.7187633514404297e-01" cType="1" res="-2.8855120763182640e-03" rms="4.4967097043991089e-01" purity="4.9452522397041321e-01" nType="0">
        <Node pos="l" depth="1" NCoef="0" IVar="5" Cut="2.0555704832077026e-03" cType="1" res="1.3672537170350552e-02" rms="4.3993088603019714e-01" purity="3.1727167963981628e-01" nType="0">
          <Node pos="l" depth="2" NCoef="0" IVar="-1" Cut="0.0000000000000000e+00" cType="1" res="3.6674854345619678e-03" rms="4.3999359011650085e-01" purity="3.3161050081253052e-01" nType="-99"/>
          <Node pos="r" depth="2" NCoef="0" IVar="-1" Cut="0.0000000000000000e+00" cType="1" res="-5.2613246953114867e-04" rms="4.3887168169021606e-01" purity="3.0638620257377625e-01" nType="-99"/>
        </Node>
        <Node pos="r" depth="1" NCoef="0" IVar="5" Cut="3.4841818269342184e-03" cType="1" res="-5.8626891113817692e-03" rms="4.5133551955223083e-01" purity="5.2639579772949219e-01" nType="0">
          <Node pos="l" depth="2" NCoef="0" IVar="-1" Cut="0.0000000000000000e+00" cType="1" res="-5.5705633712932467e-04" rms="4.4983121752738953e-01" purity="5.3126704692840576e-01" nType="-99"/>
          <Node pos="r" depth="2" NCoef="0" IVar="-1" Cut="0.0000000000000000e+00" cType="1" res="1.5579460887238383e-03" rms="4.7232937812805176e-01" purity="4.5335170626640320e-01" nType="-99"/>
        </Node>
      </Node>
    </BinaryTree>
    <BinaryTree type="DecisionTree" boostWeight="1.0000000000000000e+00" itree="1046">
      <Node pos="s" depth="0" NCoef="0" IVar="5" Cut="3.4841797314584255e-03" cType="1" res="1.2101026950404048e-03" rms="4.4877085089683533e-01" purity="5.0069576501846313e-01" nType="0">
        <Node pos="l" depth="1" NCoef="0" IVar="6" Cut="6.3259041309356689e-01" cType="1" res="3.9066728204488754e-03" rms="4.4865578413009644e-01" purity="5.1169824600219727e-01" nType="0">
          <Node pos="l" depth="2" NCoef="0" IVar="-1" Cut="0.0000000000000000e+00" cType="1" res="-2.0562172867357731e-03" rms="4.4536730647087097e-01" purity="5.6909132003784180e-01" nType="-99"/>
          <Node pos="r" depth="2" NCoef="0" IVar="-1" Cut="0.0000000000000000e+00" cType="1" res="4.8437592340633273e-04" rms="4.4882833957672119e-01" purity="5.0676482915878296e-01" nType="-99"/>
        </Node>
        <Node pos="r" depth="1" NCoef="0" IVar="-1" Cut="0.0000000000000000e+00" cType="1" res="-2.3131256457418203e-03" rms="4.4887712597846985e-01" purity="3.6733931303024292e-01" nType="-99"/>
      </Node>
    </BinaryTree>
    <BinaryTree type="DecisionTree" boostWeight="1.0000000000000000e+00" itree="1047">
      <Node pos="s" depth="0" NCoef="0" IVar="1" Cut="9.4096618890762329e-01" cType="1" res="1.7189087811857462e-03" rms="4.4842240214347839e-01" purity="4.9916705489158630e-01" nType="0">
        <Node pos="l" depth="1" NCoef="0" IVar="7" Cut="3.9806446433067322e-01" cType="1" res="-1.9509071717038751e-03" rms="4.5693308115005493e-01" purity="4.3018656969070435e-01" nType="0">
          <Node pos="l" depth="2" NCoef="0" IVar="-1" Cut="0.0000000000000000e+00" cType="1" res="-2.3907334543764591e-03" rms="4.4534984230995178e-01" purity="3.7330070137977600e-01" nType="-99"/>
          <Node pos="r" depth="2" NCoef="0" IVar="-1" Cut="0.0000000000000000e+00" cType="1" res="8.8373570179101080e-05" rms="4.5805585384368896e-01" purity="4.3634378910064697e-01" nType="-99"/>
        </Node>
        <Node pos="r" depth="1" NCoef="0" IVar="5" Cut="2.4294458853546530e-04" cType="1" res="1.3306398876011372e-02" rms="4.2021015286445618e-01" purity="7.1697390079498291e-01" nType="0">
          <Node pos="l" depth="2" NCoef="0" IVar="-1" Cut="0.0000000000000000e+00" cType="1" res="4.6016910346224904e-04" rms="4.0406093001365662e-01" purity="7.4879372119903564e-01" nType="-99"/>
          <Node pos="r" depth="2" NCoef="0" IVar="-1" Cut="0.0000000000000000e+00" cType="1" res="1.8341130344197154e-03" rms="4.5150777697563171e-01" purity="6.5094041824340820e-01" nType="-99"/>
        </Node>
      </Node>
    </BinaryTree>
    <BinaryTree type="DecisionTree" boostWeight="1.0000000000000000e+00" itree="1048">
      <Node pos="s" depth="0" NCoef="0" IVar="2" Cut="5.1520642089843750e+02" cType="1" res="5.3536554332822561e-04" rms="4.4798311591148376e-01" purity="5.0025612115859985e-01" nType="0">
        <Node pos="l" depth="1" NCoef="0" IVar="1" Cut="8.6766165494918823e-01" cType="1" res="-2.2432608529925346e-03" rms="4.4976717233657837e-01" purity="4.7608822584152222e-01" nType="0">
          <Node pos="l" depth="2" NCoef="0" IVar="-1" Cut="0.0000000000000000e+00" cType="1" res="-1.6308284830302000e-03" rms="4.4014361500740051e-01" purity="3.2083189487457275e-01" nType="-99"/>
          <Node pos="r" depth="2" NCoef="0" IVar="-1" Cut="0.0000000000000000e+00" cType="1" res="1.6049345140345395e-04" rms="4.5202538371086121e-01" purity="5.1483964920043945e-01" nType="-99"/>
        </Node>
        <Node pos="r" depth="1" NCoef="0" IVar="-1" Cut="0.0000000000000000e+00" cType="1" res="1.7164460150524974e-03" rms="4.3121644854545593e-01" purity="7.1267241239547729e-01" nType="-99"/>
      </Node>
    </BinaryTree>
    <BinaryTree type="DecisionTree" boostWeight="1.0000000000000000e+00" itree="1049">
      <Node pos="s" depth="0" NCoef="0" IVar="7" Cut="4.1793382167816162e-01" cType="1" res="-2.6163398288190365e-03" rms="4.4727382063865662e-01" purity="4.9867990612983704e-01" nType="0">
        <Node pos="l" depth="1" NCoef="0" IVar="3" Cut="1.9672554731369019e-01" cType="1" res="1.1698650196194649e-02" rms="4.5305582880973816e-01" purity="4.5744177699089050e-01" nType="0">
          <Node pos="l" depth="2" NCoef="0" IVar="-1" Cut="0.0000000000000000e+00" cType="1" res="2.7241129428148270e-03" rms="4.4571855664253235e-01" purity="3.8435563445091248e-01" nType="-99"/>
          <Node pos="r" depth="2" NCoef="0" IVar="-1" Cut="0.0000000000000000e+00" cType="1" res="-5.6159042287617922e-04" rms="4.5884558558464050e-01" purity="5.2528178691864014e-01" nType="-99"/>
        </Node>
        <Node pos="r" depth="1" NCoef="0" IVar="3" Cut="1.3726326823234558e-01" cType="1" res="-4.4728145003318787e-03" rms="4.4648486375808716e-01" purity="5.0402790307998657e-01" nType="0">
          <Node pos="l" depth="2" NCoef="0" IVar="-1" Cut="0.0000000000000000e+00" cType="1" res="-1.0788204235723242e-04" rms="4.4527307152748108e-01" purity="4.9945759773254395e-01" nType="-99"/>
          <Node pos="r" depth="2" NCoef="0" IVar="-1" Cut="0.0000000000000000e+00" cType="1" res="-1.4233973342925310e-03" rms="4.5251607894897461e-01" purity="5.2823126316070557e-01" nType="-99"/>
        </Node>
      </Node>
    </BinaryTree>
    <BinaryTree type="DecisionTree" boostWeight="1.0000000000000000e+00" itree="1050">
      <Node pos="s" depth="0" NCoef="0" IVar="6" Cut="6.3003170490264893e-01" cType="1" res="-4.9432244850322604e-04" rms="4.4592323899269104e-01" purity="5.0085604190826416e-01" nType="0">
        <Node pos="l" depth="1" NCoef="0" IVar="-1" Cut="0.0000000000000000e+00" cType="1" res="2.6171060744673014e-03" rms="4.3876183032989502e-01" purity="6.2888479232788086e-01" nType="-99"/>
        <Node pos="r" depth="1" NCoef="0" IVar="7" Cut="7.2428423166275024e-01" cType="1" res="-4.1767107322812080e-03" rms="4.4640326499938965e-01" purity="4.8897382616996765e-01" nType="0">
          <Node pos="l" depth="2" NCoef="0" IVar="-1" Cut="0.0000000000000000e+00" cType="1" res="-7.0891244104132056e-04" rms="4.4566762447357178e-01" purity="4.5399487018585205e-01" nType="-99"/>
          <Node pos="r" depth="2" NCoef="0" IVar="-1" Cut="0.0000000000000000e+00" cType="1" res="3.9658785681240261e-04" rms="4.4756963849067688e-01" purity="5.5247646570205688e-01" nType="-99"/>
        </Node>
      </Node>
    </BinaryTree>
    <BinaryTree type="DecisionTree" boostWeight="1.0000000000000000e+00" itree="1051">
      <Node pos="s" depth="0" NCoef="0" IVar="5" Cut="3.7180068902671337e-03" cType="1" res="-3.1547655817121267e-03" rms="4.5081156492233276e-01" purity="4.9613469839096069e-01" nType="0">
        <Node pos="l" depth="1" NCoef="0" IVar="5" Cut="8.5780030349269509e-04" cType="1" res="-6.0828346759080887e-03" rms="4.5032894611358643e-01" purity="4.9903097748756409e-01" nType="0">
          <Node pos="l" depth="2" NCoef="0" IVar="-1" Cut="0.0000000000000000e+00" cType="1" res="-1.1776749743148685e-03" rms="4.4069653749465942e-01" purity="5.9395128488540649e-01" nType="-99"/>
          <Node pos="r" depth="2" NCoef="0" IVar="-1" Cut="0.0000000000000000e+00" cType="1" res="5.4164342145668343e-05" rms="4.5687219500541687e-01" purity="4.3213090300559998e-01" nType="-99"/>
        </Node>
        <Node pos="r" depth="1" NCoef="0" IVar="-1" Cut="0.0000000000000000e+00" cType="1" res="3.1697733793407679e-03" rms="4.5606836676597595e-01" purity="4.4694861769676208e-01" nType="-99"/>
      </Node>
    </BinaryTree>
    <BinaryTree type="DecisionTree" boostWeight="1.0000000000000000e+00" itree="1052">
      <Node pos="s" depth="0" NCoef="0" IVar="7" Cut="3.7721970677375793e-01" cType="1" res="1.8007972976192832e-03" rms="4.4936141371726990e-01" purity="5.0089031457901001e-01" nType="0">
        <Node pos="l" depth="1" NCoef="0" IVar="-1" Cut="0.0000000000000000e+00" cType="1" res="1.9954377785325050e-03" rms="4.5990601181983948e-01" purity="4.8790520429611206e-01" nType="-99"/>
        <Node pos="r" depth="1" NCoef="0" IVar="1" Cut="9.7567778825759888e-01" cType="1" res="-1.4187392662279308e-04" rms="4.4850295782089233e-01" purity="5.0186073780059814e-01" nType="0">
          <Node pos="l" depth="2" NCoef="0" IVar="-1" Cut="0.0000000000000000e+00" cType="1" res="-1.6929370758589357e-04" rms="4.5461297035217285e-01" purity="4.7269901633262634e-01" nType="-99"/>
          <Node pos="r" depth="2" NCoef="0" IVar="-1" Cut="0.0000000000000000e+00" cType="1" res="2.0603197626769543e-03" rms="3.7254008650779724e-01" purity="8.2793527841567993e-01" nType="-99"/>
        </Node>
      </Node>
    </BinaryTree>
    <BinaryTree type="DecisionTree" boostWeight="1.0000000000000000e+00" itree="1053">
      <Node pos="s" depth="0" NCoef="0" IVar="7" Cut="4.3500486016273499e-01" cType="1" res="1.5734981279820204e-03" rms="4.4705563783645630e-01" purity="5.0248461961746216e-01" nType="0">
        <Node pos="l" depth="1" NCoef="0" IVar="3" Cut="1.5322935581207275e-01" cType="1" res="-2.0869895815849304e-02" rms="4.3938133120536804e-01" purity="4.2900648713111877e-01" nType="0">
          <Node pos="l" depth="2" NCoef="0" IVar="-1" Cut="0.0000000000000000e+00" cType="1" res="-4.6308725140988827e-03" rms="4.0068748593330383e-01" purity="2.6994636654853821e-01" nType="-99"/>
          <Node pos="r" depth="2" NCoef="0" IVar="-1" Cut="0.0000000000000000e+00" cType="1" res="-2.0823703380301595e-04" rms="4.6077248454093933e-01" purity="5.2729713916778564e-01" nType="-99"/>
        </Node>
        <Node pos="r" depth="1" NCoef="0" IVar="3" Cut="-1.1924165487289429e-01" cType="1" res="5.0420830957591534e-03" rms="4.4812968373298645e-01" purity="5.1384055614471436e-01" nType="0">
          <Node pos="l" depth="2" NCoef="0" IVar="-1" Cut="0.0000000000000000e+00" cType="1" res="-2.0926860161125660e-03" rms="4.3285244703292847e-01" purity="4.4495621323585510e-01" nType="-99"/>
          <Node pos="r" depth="2" NCoef="0" IVar="-1" Cut="0.0000000000000000e+00" cType="1" res="5.9873075224459171e-04" rms="4.4956684112548828e-01" purity="5.2105569839477539e-01" nType="-99"/>
        </Node>
      </Node>
    </BinaryTree>
    <BinaryTree type="DecisionTree" boostWeight="1.0000000000000000e+00" itree="1054">
      <Node pos="s" depth="0" NCoef="0" IVar="6" Cut="1.9976817369461060e+00" cType="1" res="1.6217115335166454e-03" rms="4.4815981388092041e-01" purity="5.0089758634567261e-01" nType="0">
        <Node pos="l" depth="1" NCoef="0" IVar="6" Cut="1.6697430610656738e+00" cType="1" res="3.0754541512578726e-03" rms="4.5029282569885254e-01" purity="5.0671106576919556e-01" nType="0">
          <Node pos="l" depth="2" NCoef="0" IVar="-1" Cut="0.0000000000000000e+00" cType="1" res="7.2676390118431300e-05" rms="4.5158550143241882e-01" purity="5.1524645090103149e-01" nType="-99"/>
          <Node pos="r" depth="2" NCoef="0" IVar="-1" Cut="0.0000000000000000e+00" cType="1" res="1.6338007990270853e-03" rms="4.3878859281539917e-01" purity="4.3431285023689270e-01" nType="-99"/>
        </Node>
        <Node pos="r" depth="1" NCoef="0" IVar="-1" Cut="0.0000000000000000e+00" cType="1" res="-1.8485869513824582e-03" rms="4.1020640730857849e-01" purity="4.0396043658256531e-01" nType="-99"/>
      </Node>
    </BinaryTree>
    <BinaryTree type="DecisionTree" boostWeight="1.0000000000000000e+00" itree="1055">
      <Node pos="s" depth="0" NCoef="0" IVar="1" Cut="9.7566735744476318e-01" cType="1" res="-3.0557479476556182e-04" rms="4.4762569665908813e-01" purity="5.0035035610198975e-01" nType="0">
        <Node pos="l" depth="1" NCoef="0" IVar="6" Cut="1.3900772333145142e+00" cType="1" res="-2.7668739203363657e-03" rms="4.5492532849311829e-01" purity="4.6981862187385559e-01" nType="0">
          <Node pos="l" depth="2" NCoef="0" IVar="-1" Cut="0.0000000000000000e+00" cType="1" res="-5.4812012240290642e-04" rms="4.6077236533164978e-01" purity="4.9554595351219177e-01" nType="-99"/>
          <Node pos="r" depth="2" NCoef="0" IVar="-1" Cut="0.0000000000000000e+00" cType="1" res="6.0363049851730466e-04" rms="4.4241195917129517e-01" purity="4.1666340827941895e-01" nType="-99"/>
        </Node>
        <Node pos="r" depth="1" NCoef="0" IVar="-1" Cut="0.0000000000000000e+00" cType="1" res="2.2499137558043003e-03" rms="3.5600170493125916e-01" purity="8.3783751726150513e-01" nType="-99"/>
      </Node>
    </BinaryTree>
    <BinaryTree type="DecisionTree" boostWeight="1.0000000000000000e+00" itree="1056">
      <Node pos="s" depth="0" NCoef="0" IVar="4" Cut="3.2067444920539856e-01" cType="1" res="-1.3341688318178058e-03" rms="4.4772836565971375e-01" purity="4.9761438369750977e-01" nType="0">
        <Node pos="l" depth="1" NCoef="0" IVar="7" Cut="7.9206460714340210e-01" cType="1" res="-1.4362084679305553e-02" rms="4.4956380128860474e-01" purity="4.5424398779869080e-01" nType="0">
          <Node pos="l" depth="2" NCoef="0" IVar="-1" Cut="0.0000000000000000e+00" cType="1" res="-6.6271529067307711e-04" rms="4.4840735197067261e-01" purity="4.3886211514472961e-01" nType="-99"/>
          <Node pos="r" depth="2" NCoef="0" IVar="-1" Cut="0.0000000000000000e+00" cType="1" res="-3.2877121120691299e-03" rms="4.5490226149559021e-01" purity="5.4355299472808838e-01" nType="-99"/>
        </Node>
        <Node pos="r" depth="1" NCoef="0" IVar="4" Cut="5.6933969259262085e-01" cType="1" res="6.3927792944014072e-03" rms="4.4645664095878601e-01" purity="5.2333766222000122e-01" nType="0">
          <Node pos="l" depth="2" NCoef="0" IVar="-1" Cut="0.0000000000000000e+00" cType="1" res="1.0173954069614410e-03" rms="4.4679394364356995e-01" purity="5.2512609958648682e-01" nType="-99"/>
          <Node pos="r" depth="2" NCoef="0" IVar="-1" Cut="0.0000000000000000e+00" cType="1" res="-7.0896331453695893e-04" rms="4.4534161686897278e-01" purity="5.1973903179168701e-01" nType="-99"/>
        </Node>
      </Node>
    </BinaryTree>
    <BinaryTree type="DecisionTree" boostWeight="1.0000000000000000e+00" itree="1057">
      <Node pos="s" depth="0" NCoef="0" IVar="3" Cut="1.2221363931894302e-01" cType="1" res="2.4474514648318291e-03" rms="4.4923231005668640e-01" purity="5.0195270776748657e-01" nType="0">
        <Node pos="l" depth="1" NCoef="0" IVar="5" Cut="5.1322841318324208e-04" cType="1" res="7.7809100039303303e-03" rms="4.4698771834373474e-01" purity="4.9563959240913391e-01" nType="0">
          <Node pos="l" depth="2" NCoef="0" IVar="-1" Cut="0.0000000000000000e+00" cType="1" res="-6.8512797588482499e-04" rms="4.2180502414703369e-01" purity="6.3520151376724243e-01" nType="-99"/>
          <Node pos="r" depth="2" NCoef="0" IVar="-1" Cut="0.0000000000000000e+00" cType="1" res="1.0708405170589685e-03" rms="4.5682722330093384e-01" purity="4.3786019086837769e-01" nType="-99"/>
        </Node>
        <Node pos="r" depth="1" NCoef="0" IVar="0" Cut="2.6678485870361328e+00" cType="1" res="-1.4256183989346027e-02" rms="4.5578688383102417e-01" purity="5.2172458171844482e-01" nType="0">
          <Node pos="l" depth="2" NCoef="0" IVar="-1" Cut="0.0000000000000000e+00" cType="1" res="-1.9046954112127423e-03" rms="4.6531671285629272e-01" purity="4.4145685434341431e-01" nType="-99"/>
          <Node pos="r" depth="2" NCoef="0" IVar="-1" Cut="0.0000000000000000e+00" cType="1" res="1.1481480905786157e-03" rms="4.2965605854988098e-01" purity="7.2074824571609497e-01" nType="-99"/>
        </Node>
      </Node>
    </BinaryTree>
    <BinaryTree type="DecisionTree" boostWeight="1.0000000000000000e+00" itree="1058">
      <Node pos="s" depth="0" NCoef="0" IVar="0" Cut="2.0020015537738800e-01" cType="1" res="-2.9993497300893068e-03" rms="4.4961294531822205e-01" purity="4.9580904841423035e-01" nType="0">
        <Node pos="l" depth="1" NCoef="0" IVar="0" Cut="-2.3690882325172424e-01" cType="1" res="-2.7555486187338829e-02" rms="4.2223498225212097e-01" purity="2.7636665105819702e-01" nType="0">
          <Node pos="l" depth="2" NCoef="0" IVar="-1" Cut="0.0000000000000000e+00" cType="1" res="5.2511772082652897e-05" rms="4.3322476744651794e-01" purity="3.0486100912094116e-01" nType="-99"/>
          <Node pos="r" depth="2" NCoef="0" IVar="-1" Cut="0.0000000000000000e+00" cType="1" res="-4.7374302521348000e-03" rms="4.1261774301528931e-01" purity="2.5514698028564453e-01" nType="-99"/>
        </Node>
        <Node pos="r" depth="1" NCoef="0" IVar="2" Cut="3.6112322998046875e+02" cType="1" res="7.2801968781277537e-04" rms="4.5350798964500427e-01" purity="5.2911818027496338e-01" nType="0">
          <Node pos="l" depth="2" NCoef="0" IVar="-1" Cut="0.0000000000000000e+00" cType="1" res="3.9543941966257989e-04" rms="4.5552882552146912e-01" purity="4.7371718287467957e-01" nType="-99"/>
          <Node pos="r" depth="2" NCoef="0" IVar="-1" Cut="0.0000000000000000e+00" cType="1" res="-6.2895816517993808e-04" rms="4.4911894202232361e-01" purity="6.4412271976470947e-01" nType="-99"/>
        </Node>
      </Node>
    </BinaryTree>
    <BinaryTree type="DecisionTree" boostWeight="1.0000000000000000e+00" itree="1059">
      <Node pos="s" depth="0" NCoef="0" IVar="7" Cut="6.9237369298934937e-01" cType="1" res="2.6374899316579103e-03" rms="4.5090696215629578e-01" purity="5.0229543447494507e-01" nType="0">
        <Node pos="l" depth="1" NCoef="0" IVar="7" Cut="4.8525881767272949e-01" cType="1" res="1.1334078386425972e-02" rms="4.5445790886878967e-01" purity="4.7308710217475891e-01" nType="0">
          <Node pos="l" depth="2" NCoef="0" IVar="-1" Cut="0.0000000000000000e+00" cType="1" res="-2.7080479776486754e-04" rms="4.4755646586418152e-01" purity="4.3486058712005615e-01" nType="-99"/>
          <Node pos="r" depth="2" NCoef="0" IVar="-1" Cut="0.0000000000000000e+00" cType="1" res="1.4052146580070257e-03" rms="4.5806464552879333e-01" purity="4.9448961019515991e-01" nType="-99"/>
        </Node>
        <Node pos="r" depth="1" NCoef="0" IVar="0" Cut="3.5562241077423096e+00" cType="1" res="-9.5540927723050117e-03" rms="4.4559568166732788e-01" purity="5.4324209690093994e-01" nType="0">
          <Node pos="l" depth="2" NCoef="0" IVar="-1" Cut="0.0000000000000000e+00" cType="1" res="-9.8031165543943644e-04" rms="4.5559996366500854e-01" purity="4.9364650249481201e-01" nType="-99"/>
          <Node pos="r" depth="2" NCoef="0" IVar="-1" Cut="0.0000000000000000e+00" cType="1" res="9.1122934827581048e-04" rms="3.9066442847251892e-01" purity="7.9291051626205444e-01" nType="-99"/>
        </Node>
      </Node>
    </BinaryTree>
    <BinaryTree type="DecisionTree" boostWeight="1.0000000000000000e+00" itree="1060">
      <Node pos="s" depth="0" NCoef="0" IVar="1" Cut="9.0625256299972534e-01" cType="1" res="-7.7311554923653603e-03" rms="4.4503340125083923e-01" purity="4.9203398823738098e-01" nType="0">
        <Node pos="l" depth="1" NCoef="0" IVar="3" Cut="-6.0835056938230991e-03" cType="1" res="-1.8886266276240349e-02" rms="4.4801580905914307e-01" purity="3.7677401304244995e-01" nType="0">
          <Node pos="l" depth="2" NCoef="0" IVar="-1" Cut="0.0000000000000000e+00" cType="1" res="-2.6714354753494263e-03" rms="4.3265089392662048e-01" purity="3.3293125033378601e-01" nType="-99"/>
          <Node pos="r" depth="2" NCoef="0" IVar="-1" Cut="0.0000000000000000e+00" cType="1" res="-5.2565970690920949e-04" rms="4.6000733971595764e-01" purity="4.1299766302108765e-01" nType="-99"/>
        </Node>
        <Node pos="r" depth="1" NCoef="0" IVar="3" Cut="-1.0328688472509384e-01" cType="1" res="5.0085140392184258e-03" rms="4.4125789403915405e-01" purity="6.2366640567779541e-01" nType="0">
          <Node pos="l" depth="2" NCoef="0" IVar="-1" Cut="0.0000000000000000e+00" cType="1" res="2.9048339929431677e-03" rms="4.4325363636016846e-01" purity="6.0973095893859863e-01" nType="-99"/>
          <Node pos="r" depth="2" NCoef="0" IVar="-1" Cut="0.0000000000000000e+00" cType="1" res="-1.1727977107511833e-04" rms="4.4056838750839233e-01" purity="6.2614721059799194e-01" nType="-99"/>
        </Node>
      </Node>
    </BinaryTree>
    <BinaryTree type="DecisionTree" boostWeight="1.0000000000000000e+00" itree="1061">
      <Node pos="s" depth="0" NCoef="0" IVar="5" Cut="3.3551361411809921e-03" cType="1" res="2.5995055329985917e-04" rms="4.4814324378967285e-01" purity="5.0090426206588745e-01" nType="0">
        <Node pos="l" depth="1" NCoef="0" IVar="5" Cut="1.7204991308972239e-03" cType="1" res="-2.6237007696181536e-03" rms="4.4584274291992188e-01" purity="5.0917118787765503e-01" nType="0">
          <Node pos="l" depth="2" NCoef="0" IVar="-1" Cut="0.0000000000000000e+00" cType="1" res="2.5187461869791150e-04" rms="4.4391575455665588e-01" purity="5.6457722187042236e-01" nType="-99"/>
          <Node pos="r" depth="2" NCoef="0" IVar="-1" Cut="0.0000000000000000e+00" cType="1" res="-1.1838219361379743e-03" rms="4.4973757863044739e-01" purity="3.8805833458900452e-01" nType="-99"/>
        </Node>
        <Node pos="r" depth="1" NCoef="0" IVar="-1" Cut="0.0000000000000000e+00" cType="1" res="1.9818197470158339e-03" rms="4.6888929605484009e-01" purity="4.2098420858383179e-01" nType="-99"/>
      </Node>
    </BinaryTree>
    <BinaryTree type="DecisionTree" boostWeight="1.0000000000000000e+00" itree="1062">
      <Node pos="s" depth="0" NCoef="0" IVar="6" Cut="1.6475056409835815e+00" cType="1" res="-6.7992997355759144e-04" rms="4.4878196716308594e-01" purity="4.9780789017677307e-01" nType="0">
        <Node pos="l" depth="1" NCoef="0" IVar="1" Cut="9.6796512603759766e-01" cType="1" res="-4.8998622223734856e-03" rms="4.5126864314079285e-01" purity="5.0949865579605103e-01" nType="0">
          <Node pos="l" depth="2" NCoef="0" IVar="-1" Cut="0.0000000000000000e+00" cType="1" res="-5.1789259305223823e-04" rms="4.6085029840469360e-01" purity="4.6682223677635193e-01" nType="-99"/>
          <Node pos="r" depth="2" NCoef="0" IVar="-1" Cut="0.0000000000000000e+00" cType="1" res="9.8438526038080454e-04" rms="3.7757742404937744e-01" purity="8.0614089965820312e-01" nType="-99"/>
        </Node>
        <Node pos="r" depth="1" NCoef="0" IVar="3" Cut="3.8987509906291962e-02" cType="1" res="1.9226478412747383e-02" rms="4.3631082773208618e-01" purity="4.4265991449356079e-01" nType="0">
          <Node pos="l" depth="2" NCoef="0" IVar="-1" Cut="0.0000000000000000e+00" cType="1" res="-2.5154477043543011e-05" rms="4.2792180180549622e-01" purity="3.8091334700584412e-01" nType="-99"/>
          <Node pos="r" depth="2" NCoef="0" IVar="-1" Cut="0.0000000000000000e+00" cType="1" res="2.8793173842132092e-03" rms="4.4424223899841309e-01" purity="5.0944513082504272e-01" nType="-99"/>
        </Node>
      </Node>
    </BinaryTree>
    <BinaryTree type="DecisionTree" boostWeight="1.0000000000000000e+00" itree="1063">
      <Node pos="s" depth="0" NCoef="0" IVar="1" Cut="9.1782510280609131e-01" cType="1" res="2.0033160690218210e-03" rms="4.5086374878883362e-01" purity="5.0196975469589233e-01" nType="0">
        <Node pos="l" depth="1" NCoef="0" IVar="7" Cut="7.4528628587722778e-01" cType="1" res="9.5891682431101799e-03" rms="4.5751821994781494e-01" purity="4.1682752966880798e-01" nType="0">
          <Node pos="l" depth="2" NCoef="0" IVar="-1" Cut="0.0000000000000000e+00" cType="1" res="1.3610017485916615e-03" rms="4.5627149939537048e-01" purity="4.0663483738899231e-01" nType="-99"/>
          <Node pos="r" depth="2" NCoef="0" IVar="-1" Cut="0.0000000000000000e+00" cType="1" res="-8.8104617316275835e-04" rms="4.5989626646041870e-01" purity="4.4246125221252441e-01" nType="-99"/>
        </Node>
        <Node pos="r" depth="1" NCoef="0" IVar="1" Cut="9.2820912599563599e-01" cType="1" res="-1.0247061029076576e-02" rms="4.3962866067886353e-01" purity="6.3946574926376343e-01" nType="0">
          <Node pos="l" depth="2" NCoef="0" IVar="-1" Cut="0.0000000000000000e+00" cType="1" res="-2.8559372294694185e-03" rms="4.7003164887428284e-01" purity="4.7737884521484375e-01" nType="-99"/>
          <Node pos="r" depth="2" NCoef="0" IVar="-1" Cut="0.0000000000000000e+00" cType="1" res="-2.8311603819020092e-04" rms="4.3275627493858337e-01" purity="6.7324340343475342e-01" nType="-99"/>
        </Node>
      </Node>
    </BinaryTree>
    <BinaryTree type="DecisionTree" boostWeight="1.0000000000000000e+00" itree="1064">
      <Node pos="s" depth="0" NCoef="0" IVar="3" Cut="8.0636873841285706e-02" cType="1" res="1.3901557540521026e-03" rms="4.4740095734596252e-01" purity="4.9969783425331116e-01" nType="0">
        <Node pos="l" depth="1" NCoef="0" IVar="4" Cut="6.7866641283035278e-01" cType="1" res="-5.2365884184837341e-03" rms="4.4487276673316956e-01" purity="4.7453784942626953e-01" nType="0">
          <Node pos="l" depth="2" NCoef="0" IVar="-1" Cut="0.0000000000000000e+00" cType="1" res="-6.5132329473271966e-04" rms="4.4606146216392517e-01" purity="4.6430087089538574e-01" nType="-99"/>
          <Node pos="r" depth="2" NCoef="0" IVar="-1" Cut="0.0000000000000000e+00" cType="1" res="1.6212803311645985e-03" rms="4.3374800682067871e-01" purity="5.6033158302307129e-01" nType="-99"/>
        </Node>
        <Node pos="r" depth="1" NCoef="0" IVar="7" Cut="4.3127712607383728e-01" cType="1" res="1.4532926492393017e-02" rms="4.5208600163459778e-01" purity="5.4959744215011597e-01" nType="0">
          <Node pos="l" depth="2" NCoef="0" IVar="-1" Cut="0.0000000000000000e+00" cType="1" res="2.3131344933062792e-03" rms="4.5339480042457581e-01" purity="5.4593789577484131e-01" nType="-99"/>
          <Node pos="r" depth="2" NCoef="0" IVar="-1" Cut="0.0000000000000000e+00" cType="1" res="4.2521444265730679e-04" rms="4.5127072930335999e-01" purity="5.5113452672958374e-01" nType="-99"/>
        </Node>
      </Node>
    </BinaryTree>
    <BinaryTree type="DecisionTree" boostWeight="1.0000000000000000e+00" itree="1065">
      <Node pos="s" depth="0" NCoef="0" IVar="3" Cut="1.5501675009727478e-01" cType="1" res="5.4052793420851231e-03" rms="4.4666919112205505e-01" purity="5.0506305694580078e-01" nType="0">
        <Node pos="l" depth="1" NCoef="0" IVar="7" Cut="4.8113951086997986e-01" cType="1" res="1.8302154494449496e-03" rms="4.4508564472198486e-01" purity="4.9067309498786926e-01" nType="0">
          <Node pos="l" depth="2" NCoef="0" IVar="-1" Cut="0.0000000000000000e+00" cType="1" res="-2.2560856305062771e-03" rms="4.2600756883621216e-01" purity="2.9965254664421082e-01" nType="-99"/>
          <Node pos="r" depth="2" NCoef="0" IVar="-1" Cut="0.0000000000000000e+00" cType="1" res="3.6697002360597253e-04" rms="4.4725954532623291e-01" purity="5.1408565044403076e-01" nType="-99"/>
        </Node>
        <Node pos="r" depth="1" NCoef="0" IVar="0" Cut="1.0871917009353638e+00" cType="1" res="2.0844697952270508e-02" rms="4.5312073826789856e-01" purity="5.6720781326293945e-01" nType="0">
          <Node pos="l" depth="2" NCoef="0" IVar="-1" Cut="0.0000000000000000e+00" cType="1" res="-7.1356969419866800e-04" rms="4.5928859710693359e-01" purity="3.9607763290405273e-01" nType="-99"/>
          <Node pos="r" depth="2" NCoef="0" IVar="-1" Cut="0.0000000000000000e+00" cType="1" res="2.2851382382214069e-03" rms="4.4930624961853027e-01" purity="6.5127021074295044e-01" nType="-99"/>
        </Node>
      </Node>
    </BinaryTree>
    <BinaryTree type="DecisionTree" boostWeight="1.0000000000000000e+00" itree="1066">
      <Node pos="s" depth="0" NCoef="0" IVar="0" Cut="1.8360514640808105e+00" cType="1" res="-2.9831645078957081e-03" rms="4.4876727461814880e-01" purity="4.9524116516113281e-01" nType="0">
        <Node pos="l" depth="1" NCoef="0" IVar="5" Cut="3.0970585066825151e-03" cType="1" res="-9.6914991736412048e-03" rms="4.5011982321739197e-01" purity="3.8067945837974548e-01" nType="0">
          <Node pos="l" depth="2" NCoef="0" IVar="-1" Cut="0.0000000000000000e+00" cType="1" res="-3.7431032978929579e-04" rms="4.5206794142723083e-01" purity="3.9496687054634094e-01" nType="-99"/>
          <Node pos="r" depth="2" NCoef="0" IVar="-1" Cut="0.0000000000000000e+00" cType="1" res="-2.4856305681169033e-03" rms="4.4080445170402527e-01" purity="3.1782999634742737e-01" nType="-99"/>
        </Node>
        <Node pos="r" depth="1" NCoef="0" IVar="5" Cut="2.6664459146559238e-03" cType="1" res="5.1797856576740742e-03" rms="4.4698014855384827e-01" purity="6.3464409112930298e-01" nType="0">
          <Node pos="l" depth="2" NCoef="0" IVar="-1" Cut="0.0000000000000000e+00" cType="1" res="1.0572403698461130e-04" rms="4.4376984238624573e-01" purity="6.4440840482711792e-01" nType="-99"/>
          <Node pos="r" depth="2" NCoef="0" IVar="-1" Cut="0.0000000000000000e+00" cType="1" res="1.8176503945142031e-03" rms="4.6819505095481873e-01" purity="5.6578457355499268e-01" nType="-99"/>
        </Node>
      </Node>
    </BinaryTree>
    <BinaryTree type="DecisionTree" boostWeight="1.0000000000000000e+00" itree="1067">
      <Node pos="s" depth="0" NCoef="0" IVar="7" Cut="5.2076035737991333e-01" cType="1" res="9.1207679361104965e-03" rms="4.4914951920509338e-01" purity="5.0697594881057739e-01" nType="0">
        <Node pos="l" depth="1" NCoef="0" IVar="7" Cut="4.3700435757637024e-01" cType="1" res="2.8282692655920982e-02" rms="4.4869875907897949e-01" purity="4.7463136911392212e-01" nType="0">
          <Node pos="l" depth="2" NCoef="0" IVar="-1" Cut="0.0000000000000000e+00" cType="1" res="9.3063834356144071e-04" rms="4.4131356477737427e-01" purity="4.6490070223808289e-01" nType="-99"/>
          <Node pos="r" depth="2" NCoef="0" IVar="-1" Cut="0.0000000000000000e+00" cType="1" res="3.2487814314663410e-03" rms="4.5586729049682617e-01" purity="4.8502826690673828e-01" nType="-99"/>
        </Node>
        <Node pos="r" depth="1" NCoef="0" IVar="3" Cut="9.7470767796039581e-02" cType="1" res="1.9949492998421192e-03" rms="4.4910854101181030e-01" purity="5.1900404691696167e-01" nType="0">
          <Node pos="l" depth="2" NCoef="0" IVar="-1" Cut="0.0000000000000000e+00" cType="1" res="5.3208711324259639e-04" rms="4.4791665673255920e-01" purity="5.1638752222061157e-01" nType="-99"/>
          <Node pos="r" depth="2" NCoef="0" IVar="-1" Cut="0.0000000000000000e+00" cType="1" res="-1.7025129636749625e-03" rms="4.5388489961624146e-01" purity="5.3156268596649170e-01" nType="-99"/>
        </Node>
      </Node>
    </BinaryTree>
    <BinaryTree type="DecisionTree" boostWeight="1.0000000000000000e+00" itree="1068">
      <Node pos="s" depth="0" NCoef="0" IVar="6" Cut="7.6204055547714233e-01" cType="1" res="-3.0782802496105433e-03" rms="4.5163121819496155e-01" purity="4.9278864264488220e-01" nType="0">
        <Node pos="l" depth="1" NCoef="0" IVar="0" Cut="1.3346539735794067e+00" cType="1" res="-2.6400042697787285e-02" rms="4.5207718014717102e-01" purity="5.5044269561767578e-01" nType="0">
          <Node pos="l" depth="2" NCoef="0" IVar="-1" Cut="0.0000000000000000e+00" cType="1" res="-4.2120441794395447e-03" rms="4.6174237132072449e-01" purity="3.7387707829475403e-01" nType="-99"/>
          <Node pos="r" depth="2" NCoef="0" IVar="-1" Cut="0.0000000000000000e+00" cType="1" res="-6.2189553864300251e-04" rms="4.4504594802856445e-01" purity="6.6089504957199097e-01" nType="-99"/>
        </Node>
        <Node pos="r" depth="1" NCoef="0" IVar="3" Cut="2.2009696066379547e-01" cType="1" res="1.5494271647185087e-03" rms="4.5139941573143005e-01" purity="4.8134845495223999e-01" nType="0">
          <Node pos="l" depth="2" NCoef="0" IVar="-1" Cut="0.0000000000000000e+00" cType="1" res="3.1873583793640137e-04" rms="4.5054385066032410e-01" purity="4.7799721360206604e-01" nType="-99"/>
          <Node pos="r" depth="2" NCoef="0" IVar="-1" Cut="0.0000000000000000e+00" cType="1" res="-2.0196239929646254e-03" rms="4.5962768793106079e-01" purity="5.1835781335830688e-01" nType="-99"/>
        </Node>
      </Node>
    </BinaryTree>
    <BinaryTree type="DecisionTree" boostWeight="1.0000000000000000e+00" itree="1069">
      <Node pos="s" depth="0" NCoef="0" IVar="0" Cut="1.9018808603286743e+00" cType="1" res="1.3072560541331768e-03" rms="4.5340925455093384e-01" purity="4.9868765473365784e-01" nType="0">
        <Node pos="l" depth="1" NCoef="0" IVar="5" Cut="3.4841874148696661e-03" cType="1" res="1.1427051387727261e-02" rms="4.5751598477363586e-01" purity="4.0588235855102539e-01" nType="0">
          <Node pos="l" depth="2" NCoef="0" IVar="-1" Cut="0.0000000000000000e+00" cType="1" res="1.1923687998205423e-03" rms="4.5859622955322266e-01" purity="4.1503310203552246e-01" nType="-99"/>
          <Node pos="r" depth="2" NCoef="0" IVar="-1" Cut="0.0000000000000000e+00" cType="1" res="-1.9893604330718517e-03" rms="4.4645825028419495e-01" purity="3.2741796970367432e-01" nType="-99"/>
        </Node>
        <Node pos="r" depth="1" NCoef="0" IVar="5" Cut="1.6453878488391638e-03" cType="1" res="-1.2561227194964886e-02" rms="4.4734838604927063e-01" purity="6.2587082386016846e-01" nType="0">
          <Node pos="l" depth="2" NCoef="0" IVar="-1" Cut="0.0000000000000000e+00" cType="1" res="-1.6877002781257033e-03" rms="4.3954005837440491e-01" purity="6.4780700206756592e-01" nType="-99"/>
          <Node pos="r" depth="2" NCoef="0" IVar="-1" Cut="0.0000000000000000e+00" cType="1" res="1.2824608711525798e-03" rms="4.6855464577674866e-01" purity="5.5955803394317627e-01" nType="-99"/>
        </Node>
      </Node>
    </BinaryTree>
    <BinaryTree type="DecisionTree" boostWeight="1.0000000000000000e+00" itree="1070">
      <Node pos="s" depth="0" NCoef="0" IVar="0" Cut="1.0671789646148682e+00" cType="1" res="-3.5814114380627871e-04" rms="4.4636714458465576e-01" purity="5.0110024213790894e-01" nType="0">
        <Node pos="l" depth="1" NCoef="0" IVar="7" Cut="4.9884614348411560e-01" cType="1" res="-1.5912106260657310e-02" rms="4.3938523530960083e-01" purity="3.3591252565383911e-01" nType="0">
          <Node pos="l" depth="2" NCoef="0" IVar="-1" Cut="0.0000000000000000e+00" cType="1" res="-4.1052093729376793e-03" rms="4.0987533330917358e-01" purity="2.5593250989913940e-01" nType="-99"/>
          <Node pos="r" depth="2" NCoef="0" IVar="-1" Cut="0.0000000000000000e+00" cType="1" res="-7.1679532993584871e-04" rms="4.4682475924491882e-01" purity="3.5769432783126831e-01" nType="-99"/>
        </Node>
        <Node pos="r" depth="1" NCoef="0" IVar="0" Cut="1.9378832578659058e+00" cType="1" res="7.9703172668814659e-03" rms="4.4984009861946106e-01" purity="5.8955097198486328e-01" nType="0">
          <Node pos="l" depth="2" NCoef="0" IVar="-1" Cut="0.0000000000000000e+00" cType="1" res="1.4753084396943450e-03" rms="4.6549814939498901e-01" purity="4.8714664578437805e-01" nType="-99"/>
          <Node pos="r" depth="2" NCoef="0" IVar="-1" Cut="0.0000000000000000e+00" cType="1" res="4.6476754505420104e-05" rms="4.4110375642776489e-01" purity="6.4407438039779663e-01" nType="-99"/>
        </Node>
      </Node>
    </BinaryTree>
    <BinaryTree type="DecisionTree" boostWeight="1.0000000000000000e+00" itree="1071">
      <Node pos="s" depth="0" NCoef="0" IVar="5" Cut="3.6822375841438770e-03" cType="1" res="1.2596633750945330e-03" rms="4.4991773366928101e-01" purity="4.9984863400459290e-01" nType="0">
        <Node pos="l" depth="1" NCoef="0" IVar="5" Cut="2.9266369529068470e-03" cType="1" res="-8.3666731370612979e-04" rms="4.4943803548812866e-01" purity="5.0388002395629883e-01" nType="0">
          <Node pos="l" depth="2" NCoef="0" IVar="-1" Cut="0.0000000000000000e+00" cType="1" res="1.6964685346465558e-04" rms="4.4837805628776550e-01" purity="5.2222293615341187e-01" nType="-99"/>
          <Node pos="r" depth="2" NCoef="0" IVar="-1" Cut="0.0000000000000000e+00" cType="1" res="-2.0121694542467594e-03" rms="4.5707798004150391e-01" purity="3.5623615980148315e-01" nType="-99"/>
        </Node>
        <Node pos="r" depth="1" NCoef="0" IVar="-1" Cut="0.0000000000000000e+00" cType="1" res="2.3414122406393290e-03" rms="4.5616847276687622e-01" purity="4.3596041202545166e-01" nType="-99"/>
      </Node>
    </BinaryTree>
    <BinaryTree type="DecisionTree" boostWeight="1.0000000000000000e+00" itree="1072">
      <Node pos="s" depth="0" NCoef="0" IVar="7" Cut="8.8816642761230469e-01" cType="1" res="1.7676010029390454e-03" rms="4.4944673776626587e-01" purity="5.0144529342651367e-01" nType="0">
        <Node pos="l" depth="1" NCoef="0" IVar="5" Cut="1.9356578122824430e-03" cType="1" res="3.7689579185098410e-03" rms="4.5072674751281738e-01" purity="4.9747881293296814e-01" nType="0">
          <Node pos="l" depth="2" NCoef="0" IVar="-1" Cut="0.0000000000000000e+00" cType="1" res="-1.6716367099434137e-04" rms="4.4682773947715759e-01" purity="5.4102647304534912e-01" nType="-99"/>
          <Node pos="r" depth="2" NCoef="0" IVar="-1" Cut="0.0000000000000000e+00" cType="1" res="1.0953041492030025e-03" rms="4.5781728625297546e-01" purity="4.1478937864303589e-01" nType="-99"/>
        </Node>
        <Node pos="r" depth="1" NCoef="0" IVar="-1" Cut="0.0000000000000000e+00" cType="1" res="-1.8576255533844233e-03" rms="4.3074873089790344e-01" purity="5.5536520481109619e-01" nType="-99"/>
      </Node>
    </BinaryTree>
    <BinaryTree type="DecisionTree" boostWeight="1.0000000000000000e+00" itree="1073">
      <Node pos="s" depth="0" NCoef="0" IVar="2" Cut="5.8098834228515625e+02" cType="1" res="-2.6529880706220865e-03" rms="4.4999191164970398e-01" purity="4.9713152647018433e-01" nType="0">
        <Node pos="l" depth="1" NCoef="0" IVar="5" Cut="2.1812056656926870e-03" cType="1" res="-4.9966494552791119e-03" rms="4.5165523886680603e-01" purity="4.8085749149322510e-01" nType="0">
          <Node pos="l" depth="2" NCoef="0" IVar="-1" Cut="0.0000000000000000e+00" cType="1" res="-7.2742928750813007e-04" rms="4.4841262698173523e-01" purity="5.1877582073211670e-01" nType="-99"/>
          <Node pos="r" depth="2" NCoef="0" IVar="-1" Cut="0.0000000000000000e+00" cType="1" res="5.1708862883970141e-04" rms="4.5920744538307190e-01" purity="3.8881975412368774e-01" nType="-99"/>
        </Node>
        <Node pos="r" depth="1" NCoef="0" IVar="-1" Cut="0.0000000000000000e+00" cType="1" res="2.2656563669443130e-03" rms="4.2253312468528748e-01" purity="7.4264609813690186e-01" nType="-99"/>
      </Node>
    </BinaryTree>
    <BinaryTree type="DecisionTree" boostWeight="1.0000000000000000e+00" itree="1074">
      <Node pos="s" depth="0" NCoef="0" IVar="0" Cut="1.1300727128982544e+00" cType="1" res="-1.4798438642174006e-03" rms="4.5136788487434387e-01" purity="4.9728327989578247e-01" nType="0">
        <Node pos="l" depth="1" NCoef="0" IVar="1" Cut="8.9571785926818848e-01" cType="1" res="1.1526723392307758e-02" rms="4.5333185791969299e-01" purity="3.6758470535278320e-01" nType="0">
          <Node pos="l" depth="2" NCoef="0" IVar="-1" Cut="0.0000000000000000e+00" cType="1" res="3.7634349428117275e-04" rms="4.4409313797950745e-01" purity="3.2665848731994629e-01" nType="-99"/>
          <Node pos="r" depth="2" NCoef="0" IVar="-1" Cut="0.0000000000000000e+00" cType="1" res="2.0265774801373482e-03" rms="4.7272971272468567e-01" purity="4.5801383256912231e-01" nType="-99"/>
        </Node>
        <Node pos="r" depth="1" NCoef="0" IVar="1" Cut="8.7922704219818115e-01" cType="1" res="-9.2803332954645157e-03" rms="4.5000562071800232e-01" purity="5.7506799697875977e-01" nType="0">
          <Node pos="l" depth="2" NCoef="0" IVar="-1" Cut="0.0000000000000000e+00" cType="1" res="-1.9967062398791313e-03" rms="4.6460971236228943e-01" purity="4.2755222320556641e-01" nType="-99"/>
          <Node pos="r" depth="2" NCoef="0" IVar="-1" Cut="0.0000000000000000e+00" cType="1" res="-2.9189599445089698e-04" rms="4.4621726870536804e-01" purity="6.1113619804382324e-01" nType="-99"/>
        </Node>
      </Node>
    </BinaryTree>
    <BinaryTree type="DecisionTree" boostWeight="1.0000000000000000e+00" itree="1075">
      <Node pos="s" depth="0" NCoef="0" IVar="4" Cut="1.5468913316726685e-01" cType="1" res="-9.0417126193642616e-04" rms="4.4848892092704773e-01" purity="4.9771082401275635e-01" nType="0">
        <Node pos="l" depth="1" NCoef="0" IVar="-1" Cut="0.0000000000000000e+00" cType="1" res="1.8176431767642498e-03" rms="4.5384484529495239e-01" purity="4.5476254820823669e-01" nType="-99"/>
        <Node pos="r" depth="1" NCoef="0" IVar="7" Cut="4.4502136111259460e-01" cType="1" res="-3.6389632150530815e-03" rms="4.4782394170761108e-01" purity="5.0232201814651489e-01" nType="0">
          <Node pos="l" depth="2" NCoef="0" IVar="-1" Cut="0.0000000000000000e+00" cType="1" res="-2.1388584282249212e-03" rms="4.4234713912010193e-01" purity="4.2870566248893738e-01" nType="-99"/>
          <Node pos="r" depth="2" NCoef="0" IVar="-1" Cut="0.0000000000000000e+00" cType="1" res="-7.9172510595526546e-05" rms="4.4832333922386169e-01" purity="5.1010012626647949e-01" nType="-99"/>
        </Node>
      </Node>
    </BinaryTree>
    <BinaryTree type="DecisionTree" boostWeight="1.0000000000000000e+00" itree="1076">
      <Node pos="s" depth="0" NCoef="0" IVar="7" Cut="4.7957772016525269e-01" cType="1" res="5.8191292919218540e-03" rms="4.4919350743293762e-01" purity="5.0545847415924072e-01" nType="0">
        <Node pos="l" depth="1" NCoef="0" IVar="3" Cut="4.0025599300861359e-02" cType="1" res="2.7543600648641586e-02" rms="4.4793310761451721e-01" purity="4.7084355354309082e-01" nType="0">
          <Node pos="l" depth="2" NCoef="0" IVar="-1" Cut="0.0000000000000000e+00" cType="1" res="-6.4859667327255011e-04" rms="4.1698113083839417e-01" purity="2.6220452785491943e-01" nType="-99"/>
          <Node pos="r" depth="2" NCoef="0" IVar="-1" Cut="0.0000000000000000e+00" cType="1" res="2.6379167102277279e-03" rms="4.5750701427459717e-01" purity="5.4257506132125854e-01" nType="-99"/>
        </Node>
        <Node pos="r" depth="1" NCoef="0" IVar="7" Cut="7.5400972366333008e-01" cType="1" res="-9.3066599220037460e-05" rms="4.4935414195060730e-01" purity="5.1487880945205688e-01" nType="0">
          <Node pos="l" depth="2" NCoef="0" IVar="-1" Cut="0.0000000000000000e+00" cType="1" res="-6.2393519328907132e-04" rms="4.5347344875335693e-01" purity="4.7875192761421204e-01" nType="-99"/>
          <Node pos="r" depth="2" NCoef="0" IVar="-1" Cut="0.0000000000000000e+00" cType="1" res="9.6861919155344367e-04" rms="4.4215756654739380e-01" purity="5.7423186302185059e-01" nType="-99"/>
        </Node>
      </Node>
    </BinaryTree>
    <BinaryTree type="DecisionTree" boostWeight="1.0000000000000000e+00" itree="1077">
      <Node pos="s" depth="0" NCoef="0" IVar="4" Cut="4.3337675929069519e-01" cType="1" res="4.7582850675098598e-04" rms="4.5084482431411743e-01" purity="4.9800193309783936e-01" nType="0">
        <Node pos="l" depth="1" NCoef="0" IVar="6" Cut="9.2215859889984131e-01" cType="1" res="6.9309119135141373e-03" rms="4.5110109448432922e-01" purity="4.8660942912101746e-01" nType="0">
          <Node pos="l" depth="2" NCoef="0" IVar="-1" Cut="0.0000000000000000e+00" cType="1" res="1.6711435746401548e-03" rms="4.5250764489173889e-01" purity="5.7321488857269287e-01" nType="-99"/>
          <Node pos="r" depth="2" NCoef="0" IVar="-1" Cut="0.0000000000000000e+00" cType="1" res="-1.0758114513009787e-04" rms="4.5019012689590454e-01" purity="4.4550117850303650e-01" nType="-99"/>
        </Node>
        <Node pos="r" depth="1" NCoef="0" IVar="7" Cut="5.8845686912536621e-01" cType="1" res="-8.5011897608637810e-03" rms="4.5033439993858337e-01" purity="5.1384538412094116e-01" nType="0">
          <Node pos="l" depth="2" NCoef="0" IVar="-1" Cut="0.0000000000000000e+00" cType="1" res="1.8457196420058608e-03" rms="4.6386775374412537e-01" purity="4.8347711563110352e-01" nType="-99"/>
          <Node pos="r" depth="2" NCoef="0" IVar="-1" Cut="0.0000000000000000e+00" cType="1" res="-1.0121266823261976e-03" rms="4.4788044691085815e-01" purity="5.1873338222503662e-01" nType="-99"/>
        </Node>
      </Node>
    </BinaryTree>
    <BinaryTree type="DecisionTree" boostWeight="1.0000000000000000e+00" itree="1078">
      <Node pos="s" depth="0" NCoef="0" IVar="7" Cut="5.9692585468292236e-01" cType="1" res="9.2627835692837834e-04" rms="4.5245477557182312e-01" purity="4.9773159623146057e-01" nType="0">
        <Node pos="l" depth="1" NCoef="0" IVar="0" Cut="2.9550044536590576e+00" cType="1" res="1.2054616585373878e-02" rms="4.5559936761856079e-01" purity="4.5709156990051270e-01" nType="0">
          <Node pos="l" depth="2" NCoef="0" IVar="-1" Cut="0.0000000000000000e+00" cType="1" res="1.6246559098362923e-03" rms="4.5458731055259705e-01" purity="4.1123118996620178e-01" nType="-99"/>
          <Node pos="r" depth="2" NCoef="0" IVar="-1" Cut="0.0000000000000000e+00" cType="1" res="-1.3401556061580777e-03" rms="4.5767179131507874e-01" purity="6.1660712957382202e-01" nType="-99"/>
        </Node>
        <Node pos="r" depth="1" NCoef="0" IVar="5" Cut="2.1812084596604109e-03" cType="1" res="-6.7236688919365406e-03" rms="4.5012080669403076e-01" purity="5.2566879987716675e-01" nType="0">
          <Node pos="l" depth="2" NCoef="0" IVar="-1" Cut="0.0000000000000000e+00" cType="1" res="-9.5824286108836532e-04" rms="4.4387352466583252e-01" purity="5.6352376937866211e-01" nType="-99"/>
          <Node pos="r" depth="2" NCoef="0" IVar="-1" Cut="0.0000000000000000e+00" cType="1" res="6.7269371356815100e-04" rms="4.6518206596374512e-01" purity="4.2969346046447754e-01" nType="-99"/>
        </Node>
      </Node>
    </BinaryTree>
    <BinaryTree type="DecisionTree" boostWeight="1.0000000000000000e+00" itree="1079">
      <Node pos="s" depth="0" NCoef="0" IVar="1" Cut="9.1010588407516479e-01" cType="1" res="6.3851433806121349e-03" rms="4.4838172197341919e-01" purity="5.0726580619812012e-01" nType="0">
        <Node pos="l" depth="1" NCoef="0" IVar="7" Cut="8.6804836988449097e-01" cType="1" res="-3.8855193997733295e-04" rms="4.5456105470657349e-01" purity="4.0032726526260376e-01" nType="0">
          <Node pos="l" depth="2" NCoef="0" IVar="-1" Cut="0.0000000000000000e+00" cType="1" res="3.5360551555640996e-04" rms="4.5546311140060425e-01" purity="3.9854782819747925e-01" nType="-99"/>
          <Node pos="r" depth="2" NCoef="0" IVar="-1" Cut="0.0000000000000000e+00" cType="1" res="-3.6936823744326830e-03" rms="4.4237756729125977e-01" purity="4.1783919930458069e-01" nType="-99"/>
        </Node>
        <Node pos="r" depth="1" NCoef="0" IVar="5" Cut="8.1016123294830322e-04" cType="1" res="1.4841795898973942e-02" rms="4.4039925932884216e-01" purity="6.4077377319335938e-01" nType="0">
          <Node pos="l" depth="2" NCoef="0" IVar="-1" Cut="0.0000000000000000e+00" cType="1" res="2.6867262204177678e-04" rms="4.3344742059707642e-01" purity="6.6048055887222290e-01" nType="-99"/>
          <Node pos="r" depth="2" NCoef="0" IVar="-1" Cut="0.0000000000000000e+00" cType="1" res="3.2075541093945503e-03" rms="4.6004635095596313e-01" purity="5.7804334163665771e-01" nType="-99"/>
        </Node>
      </Node>
    </BinaryTree>
    <BinaryTree type="DecisionTree" boostWeight="1.0000000000000000e+00" itree="1080">
      <Node pos="s" depth="0" NCoef="0" IVar="4" Cut="4.3919122219085693e-01" cType="1" res="-3.9263656362891197e-03" rms="4.5094379782676697e-01" purity="4.9548006057739258e-01" nType="0">
        <Node pos="l" depth="1" NCoef="0" IVar="5" Cut="1.5385032165795565e-03" cType="1" res="2.4210235569626093e-03" rms="4.5003664493560791e-01" purity="4.8362299799919128e-01" nType="0">
          <Node pos="l" depth="2" NCoef="0" IVar="-1" Cut="0.0000000000000000e+00" cType="1" res="8.2988094072788954e-04" rms="4.4666165113449097e-01" purity="5.5546158552169800e-01" nType="-99"/>
          <Node pos="r" depth="2" NCoef="0" IVar="-1" Cut="0.0000000000000000e+00" cType="1" res="-7.3004915611818433e-04" rms="4.5420983433723450e-01" purity="3.8785448670387268e-01" nType="-99"/>
        </Node>
        <Node pos="r" depth="1" NCoef="0" IVar="5" Cut="1.4114070218056440e-03" cType="1" res="-1.3232039287686348e-02" rms="4.5210939645767212e-01" purity="5.1286333799362183e-01" nType="0">
          <Node pos="l" depth="2" NCoef="0" IVar="-1" Cut="0.0000000000000000e+00" cType="1" res="-2.3827685508877039e-03" rms="4.4214180111885071e-01" purity="5.7617950439453125e-01" nType="-99"/>
          <Node pos="r" depth="2" NCoef="0" IVar="-1" Cut="0.0000000000000000e+00" cType="1" res="5.1969673950225115e-04" rms="4.6237164735794067e-01" purity="4.4052243232727051e-01" nType="-99"/>
        </Node>
      </Node>
    </BinaryTree>
    <BinaryTree type="DecisionTree" boostWeight="1.0000000000000000e+00" itree="1081">
      <Node pos="s" depth="0" NCoef="0" IVar="2" Cut="2.2712829589843750e+02" cType="1" res="-1.5823151916265488e-03" rms="4.5076107978820801e-01" purity="4.9620208144187927e-01" nType="0">
        <Node pos="l" depth="1" NCoef="0" IVar="3" Cut="-5.5620670318603516e-03" cType="1" res="2.3375913500785828e-02" rms="4.3065169453620911e-01" purity="3.1649357080459595e-01" nType="0">
          <Node pos="l" depth="2" NCoef="0" IVar="-1" Cut="0.0000000000000000e+00" cType="1" res="4.5245881192386150e-03" rms="4.3031084537506104e-01" purity="2.9850399494171143e-01" nType="-99"/>
          <Node pos="r" depth="2" NCoef="0" IVar="-1" Cut="0.0000000000000000e+00" cType="1" res="5.0600914983078837e-04" rms="4.3016922473907471e-01" purity="3.3177900314331055e-01" nType="-99"/>
        </Node>
        <Node pos="r" depth="1" NCoef="0" IVar="7" Cut="8.1179189682006836e-01" cType="1" res="-6.5154503099620342e-03" rms="4.5446833968162537e-01" purity="5.3172254562377930e-01" nType="0">
          <Node pos="l" depth="2" NCoef="0" IVar="-1" Cut="0.0000000000000000e+00" cType="1" res="-9.0127333533018827e-04" rms="4.5752677321434021e-01" purity="5.1035803556442261e-01" nType="-99"/>
          <Node pos="r" depth="2" NCoef="0" IVar="-1" Cut="0.0000000000000000e+00" cType="1" res="1.2159440666437149e-03" rms="4.4149547815322876e-01" purity="6.1503756046295166e-01" nType="-99"/>
        </Node>
      </Node>
    </BinaryTree>
    <BinaryTree type="DecisionTree" boostWeight="1.0000000000000000e+00" itree="1082">
      <Node pos="s" depth="0" NCoef="0" IVar="6" Cut="7.5722402334213257e-01" cType="1" res="1.5884375898167491e-03" rms="4.4925102591514587e-01" purity="5.0211334228515625e-01" nType="0">
        <Node pos="l" depth="1" NCoef="0" IVar="6" Cut="6.2024104595184326e-01" cType="1" res="-1.6066586598753929e-02" rms="4.4834581017494202e-01" purity="5.5817478895187378e-01" nType="0">
          <Node pos="l" depth="2" NCoef="0" IVar="-1" Cut="0.0000000000000000e+00" cType="1" res="3.0993489781394601e-04" rms="4.4626691937446594e-01" purity="5.9503442049026489e-01" nType="-99"/>
          <Node pos="r" depth="2" NCoef="0" IVar="-1" Cut="0.0000000000000000e+00" cType="1" res="-2.4142537731677294e-03" rms="4.4938549399375916e-01" purity="5.2625167369842529e-01" nType="-99"/>
        </Node>
        <Node pos="r" depth="1" NCoef="0" IVar="3" Cut="5.1298148930072784e-02" cType="1" res="5.0624446012079716e-03" rms="4.4934728741645813e-01" purity="4.9108201265335083e-01" nType="0">
          <Node pos="l" depth="2" NCoef="0" IVar="-1" Cut="0.0000000000000000e+00" cType="1" res="-1.8881715368479490e-04" rms="4.4308075308799744e-01" purity="4.6153405308723450e-01" nType="-99"/>
          <Node pos="r" depth="2" NCoef="0" IVar="-1" Cut="0.0000000000000000e+00" cType="1" res="1.1025952408090234e-03" rms="4.5804065465927124e-01" purity="5.3382825851440430e-01" nType="-99"/>
        </Node>
      </Node>
    </BinaryTree>
    <BinaryTree type="DecisionTree" boostWeight="1.0000000000000000e+00" itree="1083">
      <Node pos="s" depth="0" NCoef="0" IVar="4" Cut="1.5280230343341827e-01" cType="1" res="3.3175246790051460e-03" rms="4.4877314567565918e-01" purity="5.0288903713226318e-01" nType="0">
        <Node pos="l" depth="1" NCoef="0" IVar="-1" Cut="0.0000000000000000e+00" cType="1" res="-1.7192086670547724e-03" rms="4.4855234026908875e-01" purity="4.1892215609550476e-01" nType="-99"/>
        <Node pos="r" depth="1" NCoef="0" IVar="3" Cut="-9.7679078578948975e-02" cType="1" res="6.0521662235260010e-03" rms="4.4870918989181519e-01" purity="5.1175332069396973e-01" nType="0">
          <Node pos="l" depth="2" NCoef="0" IVar="-1" Cut="0.0000000000000000e+00" cType="1" res="-9.9457765463739634e-04" rms="4.4228556752204895e-01" purity="4.4879329204559326e-01" nType="-99"/>
          <Node pos="r" depth="2" NCoef="0" IVar="-1" Cut="0.0000000000000000e+00" cType="1" res="6.7667872644960880e-04" rms="4.4978880882263184e-01" purity="5.2328741550445557e-01" nType="-99"/>
        </Node>
      </Node>
    </BinaryTree>
    <BinaryTree type="DecisionTree" boostWeight="1.0000000000000000e+00" itree="1084">
      <Node pos="s" depth="0" NCoef="0" IVar="3" Cut="-7.1178995072841644e-02" cType="1" res="-2.5096326135098934e-03" rms="4.4582569599151611e-01" purity="4.9978458881378174e-01" nType="0">
        <Node pos="l" depth="1" NCoef="0" IVar="4" Cut="2.4304598569869995e-01" cType="1" res="-1.5988001599907875e-02" rms="4.3679040670394897e-01" purity="4.4513022899627686e-01" nType="0">
          <Node pos="l" depth="2" NCoef="0" IVar="-1" Cut="0.0000000000000000e+00" cType="1" res="1.6846311045810580e-03" rms="4.3717291951179504e-01" purity="4.4059690833091736e-01" nType="-99"/>
          <Node pos="r" depth="2" NCoef="0" IVar="-1" Cut="0.0000000000000000e+00" cType="1" res="-2.3558984976261854e-03" rms="4.3576818704605103e-01" purity="4.4690728187561035e-01" nType="-99"/>
        </Node>
        <Node pos="r" depth="1" NCoef="0" IVar="1" Cut="8.6762124300003052e-01" cType="1" res="2.1307729184627533e-03" rms="4.4880068302154541e-01" purity="5.1860135793685913e-01" nType="0">
          <Node pos="l" depth="2" NCoef="0" IVar="-1" Cut="0.0000000000000000e+00" cType="1" res="-1.6313506057485938e-03" rms="4.4838517904281616e-01" purity="3.5531088709831238e-01" nType="-99"/>
          <Node pos="r" depth="2" NCoef="0" IVar="-1" Cut="0.0000000000000000e+00" cType="1" res="5.5001553846523166e-04" rms="4.4871562719345093e-01" purity="5.5844950675964355e-01" nType="-99"/>
        </Node>
      </Node>
    </BinaryTree>
    <BinaryTree type="DecisionTree" boostWeight="1.0000000000000000e+00" itree="1085">
      <Node pos="s" depth="0" NCoef="0" IVar="3" Cut="7.8026294708251953e-02" cType="1" res="5.1942183636128902e-03" rms="4.5187118649482727e-01" purity="5.0292104482650757e-01" nType="0">
        <Node pos="l" depth="1" NCoef="0" IVar="0" Cut="1.8169574737548828e+00" cType="1" res="1.1294484138488770e-02" rms="4.4869551062583923e-01" purity="4.9021995067596436e-01" nType="0">
          <Node pos="l" depth="2" NCoef="0" IVar="-1" Cut="0.0000000000000000e+00" cType="1" res="1.5523332403972745e-03" rms="4.5196223258972168e-01" purity="3.9256799221038818e-01" nType="-99"/>
          <Node pos="r" depth="2" NCoef="0" IVar="-1" Cut="0.0000000000000000e+00" cType="1" res="3.6951896618120372e-05" rms="4.4422948360443115e-01" purity="6.1575490236282349e-01" nType="-99"/>
        </Node>
        <Node pos="r" depth="1" NCoef="0" IVar="5" Cut="2.8389678336679935e-03" cType="1" res="-6.4502698369324207e-03" rms="4.5764625072479248e-01" purity="5.2716565132141113e-01" nType="0">
          <Node pos="l" depth="2" NCoef="0" IVar="-1" Cut="0.0000000000000000e+00" cType="1" res="-9.2240306548774242e-04" rms="4.5356824994087219e-01" purity="5.4336535930633545e-01" nType="-99"/>
          <Node pos="r" depth="2" NCoef="0" IVar="-1" Cut="0.0000000000000000e+00" cType="1" res="1.5911866212263703e-03" rms="4.7458571195602417e-01" purity="4.5338603854179382e-01" nType="-99"/>
        </Node>
      </Node>
    </BinaryTree>
    <BinaryTree type="DecisionTree" boostWeight="1.0000000000000000e+00" itree="1086">
      <Node pos="s" depth="0" NCoef="0" IVar="1" Cut="9.0231972932815552e-01" cType="1" res="2.1628690883517265e-03" rms="4.4979563355445862e-01" purity="5.0047373771667480e-01" nType="0">
        <Node pos="l" depth="1" NCoef="0" IVar="0" Cut="2.2700338363647461e+00" cType="1" res="1.4597799628973007e-02" rms="4.5272818207740784e-01" purity="4.0542539954185486e-01" nType="0">
          <Node pos="l" depth="2" NCoef="0" IVar="-1" Cut="0.0000000000000000e+00" cType="1" res="3.9790821028873324e-04" rms="4.4970896840095520e-01" purity="3.5383915901184082e-01" nType="-99"/>
          <Node pos="r" depth="2" NCoef="0" IVar="-1" Cut="0.0000000000000000e+00" cType="1" res="3.0653446447104216e-03" rms="4.6250581741333008e-01" purity="6.0811632871627808e-01" nType="-99"/>
        </Node>
        <Node pos="r" depth="1" NCoef="0" IVar="6" Cut="9.0581154823303223e-01" cType="1" res="-1.0877666994929314e-02" rms="4.4632756710052490e-01" purity="6.0015112161636353e-01" nType="0">
          <Node pos="l" depth="2" NCoef="0" IVar="-1" Cut="0.0000000000000000e+00" cType="1" res="6.4396637026220560e-04" rms="4.4055655598640442e-01" purity="6.7837232351303101e-01" nType="-99"/>
          <Node pos="r" depth="2" NCoef="0" IVar="-1" Cut="0.0000000000000000e+00" cType="1" res="-1.3954100431874394e-03" rms="4.4849845767021179e-01" purity="5.6671726703643799e-01" nType="-99"/>
        </Node>
      </Node>
    </BinaryTree>
    <BinaryTree type="DecisionTree" boostWeight="1.0000000000000000e+00" itree="1087">
      <Node pos="s" depth="0" NCoef="0" IVar="2" Cut="2.0394361877441406e+02" cType="1" res="-7.1181915700435638e-03" rms="4.4806888699531555e-01" purity="4.9314039945602417e-01" nType="0">
        <Node pos="l" depth="1" NCoef="0" IVar="-1" Cut="0.0000000000000000e+00" cType="1" res="-3.5045093391090631e-03" rms="3.9278513193130493e-01" purity="2.2307179868221283e-01" nType="-99"/>
        <Node pos="r" depth="1" NCoef="0" IVar="5" Cut="2.9510410968214273e-03" cType="1" res="-5.0031733699142933e-03" rms="4.5234394073486328e-01" purity="5.1583892107009888e-01" nType="0">
          <Node pos="l" depth="2" NCoef="0" IVar="-1" Cut="0.0000000000000000e+00" cType="1" res="-9.6091178420465440e-05" rms="4.5160618424415588e-01" purity="5.3870856761932373e-01" nType="-99"/>
          <Node pos="r" depth="2" NCoef="0" IVar="-1" Cut="0.0000000000000000e+00" cType="1" res="-1.7638031858950853e-03" rms="4.5582041144371033e-01" purity="3.9166405797004700e-01" nType="-99"/>
        </Node>
      </Node>
    </BinaryTree>
    <BinaryTree type="DecisionTree" boostWeight="1.0000000000000000e+00" itree="1088">
      <Node pos="s" depth="0" NCoef="0" IVar="7" Cut="5.7980585098266602e-01" cType="1" res="1.1239676969125867e-03" rms="4.4800630211830139e-01" purity="5.0098496675491333e-01" nType="0">
        <Node pos="l" depth="1" NCoef="0" IVar="1" Cut="9.3288534879684448e-01" cType="1" res="-1.1739072389900684e-02" rms="4.4681563973426819e-01" purity="4.3617144227027893e-01" nType="0">
          <Node pos="l" depth="2" NCoef="0" IVar="-1" Cut="0.0000000000000000e+00" cType="1" res="-1.5311004826799035e-03" rms="4.4457978010177612e-01" purity="3.6487057805061340e-01" nType="-99"/>
          <Node pos="r" depth="2" NCoef="0" IVar="-1" Cut="0.0000000000000000e+00" cType="1" res="6.7870266502723098e-04" rms="4.5230743288993835e-01" purity="6.3527017831802368e-01" nType="-99"/>
        </Node>
        <Node pos="r" depth="1" NCoef="0" IVar="6" Cut="1.1368159055709839e+00" cType="1" res="8.6004082113504410e-03" rms="4.4852742552757263e-01" purity="5.3865677118301392e-01" nType="0">
          <Node pos="l" depth="2" NCoef="0" IVar="-1" Cut="0.0000000000000000e+00" cType="1" res="1.3850156683474779e-03" rms="4.5408672094345093e-01" purity="5.8152896165847778e-01" nType="-99"/>
          <Node pos="r" depth="2" NCoef="0" IVar="-1" Cut="0.0000000000000000e+00" cType="1" res="-2.6629460626281798e-04" rms="4.4236534833908081e-01" purity="4.9426645040512085e-01" nType="-99"/>
        </Node>
      </Node>
    </BinaryTree>
    <BinaryTree type="DecisionTree" boostWeight="1.0000000000000000e+00" itree="1089">
      <Node pos="s" depth="0" NCoef="0" IVar="0" Cut="2.3527438640594482e+00" cType="1" res="1.1389467399567366e-03" rms="4.4816094636917114e-01" purity="4.9927654862403870e-01" nType="0">
        <Node pos="l" depth="1" NCoef="0" IVar="5" Cut="3.8527467404492199e-04" cType="1" res="-5.3168521262705326e-03" rms="4.5361050963401794e-01" purity="4.1112187504768372e-01" nType="0">
          <Node pos="l" depth="2" NCoef="0" IVar="-1" Cut="0.0000000000000000e+00" cType="1" res="1.8804620485752821e-03" rms="4.5021900534629822e-01" purity="5.6912827491760254e-01" nType="-99"/>
          <Node pos="r" depth="2" NCoef="0" IVar="-1" Cut="0.0000000000000000e+00" cType="1" res="-8.5116579430177808e-04" rms="4.5402058959007263e-01" purity="3.8075268268585205e-01" nType="-99"/>
        </Node>
        <Node pos="r" depth="1" NCoef="0" IVar="7" Cut="6.1915791034698486e-01" cType="1" res="1.4099059626460075e-02" rms="4.3672779202461243e-01" purity="6.7624837160110474e-01" nType="0">
          <Node pos="l" depth="2" NCoef="0" IVar="-1" Cut="0.0000000000000000e+00" cType="1" res="-1.2899895955342799e-04" rms="4.5417073369026184e-01" purity="6.0717856884002686e-01" nType="-99"/>
          <Node pos="r" depth="2" NCoef="0" IVar="-1" Cut="0.0000000000000000e+00" cType="1" res="1.7996061360463500e-03" rms="4.2195466160774231e-01" purity="7.3100185394287109e-01" nType="-99"/>
        </Node>
      </Node>
    </BinaryTree>
    <BinaryTree type="DecisionTree" boostWeight="1.0000000000000000e+00" itree="1090">
      <Node pos="s" depth="0" NCoef="0" IVar="3" Cut="-1.5175044536590576e-02" cType="1" res="-1.9765926990658045e-03" rms="4.5054686069488525e-01" purity="4.9707430601119995e-01" nType="0">
        <Node pos="l" depth="1" NCoef="0" IVar="4" Cut="5.8298355340957642e-01" cType="1" res="9.3164360150694847e-03" rms="4.4422391057014465e-01" purity="4.8231282830238342e-01" nType="0">
          <Node pos="l" depth="2" NCoef="0" IVar="-1" Cut="0.0000000000000000e+00" cType="1" res="1.5114695997908711e-04" rms="4.4490203261375427e-01" purity="4.6532481908798218e-01" nType="-99"/>
          <Node pos="r" depth="2" NCoef="0" IVar="-1" Cut="0.0000000000000000e+00" cType="1" res="2.6706801727414131e-03" rms="4.4044569134712219e-01" purity="5.4803037643432617e-01" nType="-99"/>
        </Node>
        <Node pos="r" depth="1" NCoef="0" IVar="4" Cut="6.3931792974472046e-01" cType="1" res="-1.0548079386353493e-02" rms="4.5510035753250122e-01" purity="5.0827836990356445e-01" nType="0">
          <Node pos="l" depth="2" NCoef="0" IVar="-1" Cut="0.0000000000000000e+00" cType="1" res="-4.9768557073548436e-04" rms="4.5605015754699707e-01" purity="5.0685608386993408e-01" nType="-99"/>
          <Node pos="r" depth="2" NCoef="0" IVar="-1" Cut="0.0000000000000000e+00" cType="1" res="-2.8299516998231411e-03" rms="4.4650471210479736e-01" purity="5.1957541704177856e-01" nType="-99"/>
        </Node>
      </Node>
    </BinaryTree>
    <BinaryTree type="DecisionTree" boostWeight="1.0000000000000000e+00" itree="1091">
      <Node pos="s" depth="0" NCoef="0" IVar="1" Cut="8.9468574523925781e-01" cType="1" res="-9.8090688697993755e-04" rms="4.4867631793022156e-01" purity="4.9718976020812988e-01" nType="0">
        <Node pos="l" depth="1" NCoef="0" IVar="7" Cut="8.4019744396209717e-01" cType="1" res="-1.1125021614134312e-02" rms="4.4827324151992798e-01" purity="3.7169390916824341e-01" nType="0">
          <Node pos="l" depth="2" NCoef="0" IVar="-1" Cut="0.0000000000000000e+00" cType="1" res="-4.5359655632637441e-04" rms="4.4763547182083130e-01" purity="3.6870309710502625e-01" nType="-99"/>
          <Node pos="r" depth="2" NCoef="0" IVar="-1" Cut="0.0000000000000000e+00" cType="1" res="-3.4078708849847317e-03" rms="4.5098760724067688e-01" purity="3.9214596152305603e-01" nType="-99"/>
        </Node>
        <Node pos="r" depth="1" NCoef="0" IVar="5" Cut="4.8826876445673406e-04" cType="1" res="6.8784900940954685e-03" rms="4.4883075356483459e-01" purity="5.9442067146301270e-01" nType="0">
          <Node pos="l" depth="2" NCoef="0" IVar="-1" Cut="0.0000000000000000e+00" cType="1" res="-4.0777950198389590e-04" rms="4.3115222454071045e-01" purity="6.6528892517089844e-01" nType="-99"/>
          <Node pos="r" depth="2" NCoef="0" IVar="-1" Cut="0.0000000000000000e+00" cType="1" res="1.1589369969442487e-03" rms="4.6312162280082703e-01" purity="5.3394567966461182e-01" nType="-99"/>
        </Node>
      </Node>
    </BinaryTree>
    <BinaryTree type="DecisionTree" boostWeight="1.0000000000000000e+00" itree="1092">
      <Node pos="s" depth="0" NCoef="0" IVar="3" Cut="-1.1722233891487122e-01" cType="1" res="-7.3462753789499402e-04" rms="4.4851022958755493e-01" purity="4.9657431244850159e-01" nType="0">
        <Node pos="l" depth="1" NCoef="0" IVar="-1" Cut="0.0000000000000000e+00" cType="1" res="-2.7427363675087690e-03" rms="4.2528119683265686e-01" purity="4.0014582872390747e-01" nType="-99"/>
        <Node pos="r" depth="1" NCoef="0" IVar="1" Cut="8.5997241735458374e-01" cType="1" res="2.6682636234909296e-03" rms="4.5070829987525940e-01" purity="5.0655120611190796e-01" nType="0">
          <Node pos="l" depth="2" NCoef="0" IVar="-1" Cut="0.0000000000000000e+00" cType="1" res="1.9322036532685161e-03" rms="4.5645493268966675e-01" purity="3.9088553190231323e-01" nType="-99"/>
          <Node pos="r" depth="2" NCoef="0" IVar="-1" Cut="0.0000000000000000e+00" cType="1" res="-3.5326083889231086e-05" rms="4.4981944561004639e-01" purity="5.2247768640518188e-01" nType="-99"/>
        </Node>
      </Node>
    </BinaryTree>
    <BinaryTree type="DecisionTree" boostWeight="1.0000000000000000e+00" itree="1093">
      <Node pos="s" depth="0" NCoef="0" IVar="4" Cut="2.7357074618339539e-01" cType="1" res="5.4990304633975029e-03" rms="4.5096772909164429e-01" purity="5.0660544633865356e-01" nType="0">
        <Node pos="l" depth="1" NCoef="0" IVar="4" Cut="1.5285074710845947e-01" cType="1" res="2.1302243694663048e-02" rms="4.5188766717910767e-01" purity="4.8847118020057678e-01" nType="0">
          <Node pos="l" depth="2" NCoef="0" IVar="-1" Cut="0.0000000000000000e+00" cType="1" res="5.3422269411385059e-04" rms="4.5267182588577271e-01" purity="4.5077151060104370e-01" nType="-99"/>
          <Node pos="r" depth="2" NCoef="0" IVar="-1" Cut="0.0000000000000000e+00" cType="1" res="1.9892782438546419e-03" rms="4.5136433839797974e-01" purity="5.0626641511917114e-01" nType="-99"/>
        </Node>
        <Node pos="r" depth="1" NCoef="0" IVar="7" Cut="7.2428220510482788e-01" cType="1" res="-1.1420453665778041e-03" rms="4.5041513442993164e-01" purity="5.1422613859176636e-01" nType="0">
          <Node pos="l" depth="2" NCoef="0" IVar="-1" Cut="0.0000000000000000e+00" cType="1" res="-7.8316533472388983e-04" rms="4.5291095972061157e-01" purity="4.7577726840972900e-01" nType="-99"/>
          <Node pos="r" depth="2" NCoef="0" IVar="-1" Cut="0.0000000000000000e+00" cType="1" res="7.6052860822528601e-04" rms="4.4696855545043945e-01" purity="5.6260913610458374e-01" nType="-99"/>
        </Node>
      </Node>
    </BinaryTree>
    <BinaryTree type="DecisionTree" boostWeight="1.0000000000000000e+00" itree="1094">
      <Node pos="s" depth="0" NCoef="0" IVar="7" Cut="3.5822257399559021e-01" cType="1" res="7.0966430939733982e-03" rms="4.4898489117622375e-01" purity="5.0708800554275513e-01" nType="0">
        <Node pos="l" depth="1" NCoef="0" IVar="-1" Cut="0.0000000000000000e+00" cType="1" res="2.1925875917077065e-03" rms="4.6676698327064514e-01" purity="4.9554616212844849e-01" nType="-99"/>
        <Node pos="r" depth="1" NCoef="0" IVar="2" Cut="2.0714974975585938e+02" cType="1" res="5.7231620885431767e-03" rms="4.4789767265319824e-01" purity="5.0775468349456787e-01" nType="0">
          <Node pos="l" depth="2" NCoef="0" IVar="-1" Cut="0.0000000000000000e+00" cType="1" res="2.3234332911670208e-03" rms="4.1615805029869080e-01" purity="2.9509484767913818e-01" nType="-99"/>
          <Node pos="r" depth="2" NCoef="0" IVar="-1" Cut="0.0000000000000000e+00" cType="1" res="2.8214260237291455e-04" rms="4.5080462098121643e-01" purity="5.2827447652816772e-01" nType="-99"/>
        </Node>
      </Node>
    </BinaryTree>
    <BinaryTree type="DecisionTree" boostWeight="1.0000000000000000e+00" itree="1095">
      <Node pos="s" depth="0" NCoef="0" IVar="3" Cut="2.7752166613936424e-02" cType="1" res="4.9917178694158792e-04" rms="4.4899317622184753e-01" purity="4.9751269817352295e-01" nType="0">
        <Node pos="l" depth="1" NCoef="0" IVar="0" Cut="8.0148851871490479e-01" cType="1" res="-6.1709419824182987e-03" rms="4.4238591194152832e-01" purity="4.6692845225334167e-01" nType="0">
          <Node pos="l" depth="2" NCoef="0" IVar="-1" Cut="0.0000000000000000e+00" cType="1" res="9.9995499476790428e-04" rms="4.3575686216354370e-01" purity="3.2679972052574158e-01" nType="-99"/>
          <Node pos="r" depth="2" NCoef="0" IVar="-1" Cut="0.0000000000000000e+00" cType="1" res="-9.7477942472323775e-04" rms="4.4500526785850525e-01" purity="5.2734076976776123e-01" nType="-99"/>
        </Node>
        <Node pos="r" depth="1" NCoef="0" IVar="6" Cut="1.5599362850189209e+00" cType="1" res="8.2338955253362656e-03" rms="4.5641326904296875e-01" purity="5.3297847509384155e-01" nType="0">
          <Node pos="l" depth="2" NCoef="0" IVar="-1" Cut="0.0000000000000000e+00" cType="1" res="9.7533781081438065e-04" rms="4.6068206429481506e-01" purity="5.5658996105194092e-01" nType="-99"/>
          <Node pos="r" depth="2" NCoef="0" IVar="-1" Cut="0.0000000000000000e+00" cType="1" res="-1.0144693078473210e-03" rms="4.4052818417549133e-01" purity="4.5069903135299683e-01" nType="-99"/>
        </Node>
      </Node>
    </BinaryTree>
    <BinaryTree type="DecisionTree" boostWeight="1.0000000000000000e+00" itree="1096">
      <Node pos="s" depth="0" NCoef="0" IVar="5" Cut="8.9797086548060179e-04" cType="1" res="-4.6626827679574490e-03" rms="4.4971200823783875e-01" purity="4.9578723311424255e-01" nType="0">
        <Node pos="l" depth="1" NCoef="0" IVar="1" Cut="9.2157644033432007e-01" cType="1" res="-1.4765398576855659e-02" rms="4.3581193685531616e-01" purity="5.9362268447875977e-01" nType="0">
          <Node pos="l" depth="2" NCoef="0" IVar="-1" Cut="0.0000000000000000e+00" cType="1" res="-3.9296671748161316e-03" rms="4.3460437655448914e-01" purity="3.2040256261825562e-01" nType="-99"/>
          <Node pos="r" depth="2" NCoef="0" IVar="-1" Cut="0.0000000000000000e+00" cType="1" res="-5.1276560407131910e-04" rms="4.3576157093048096e-01" purity="6.6043776273727417e-01" nType="-99"/>
        </Node>
        <Node pos="r" depth="1" NCoef="0" IVar="5" Cut="3.0031672213226557e-03" cType="1" res="2.4569581728428602e-03" rms="4.5912158489227295e-01" purity="4.2684012651443481e-01" nType="0">
          <Node pos="l" depth="2" NCoef="0" IVar="-1" Cut="0.0000000000000000e+00" cType="1" res="5.6555820629000664e-04" rms="4.6133890748023987e-01" purity="4.4184651970863342e-01" nType="-99"/>
          <Node pos="r" depth="2" NCoef="0" IVar="-1" Cut="0.0000000000000000e+00" cType="1" res="-1.0695994133129716e-03" rms="4.5168766379356384e-01" purity="3.7986311316490173e-01" nType="-99"/>
        </Node>
      </Node>
    </BinaryTree>
    <BinaryTree type="DecisionTree" boostWeight="1.0000000000000000e+00" itree="1097">
      <Node pos="s" depth="0" NCoef="0" IVar="3" Cut="-1.0410310328006744e-01" cType="1" res="8.8229408720508218e-04" rms="4.4940656423568726e-01" purity="4.9974223971366882e-01" nType="0">
        <Node pos="l" depth="1" NCoef="0" IVar="1" Cut="8.9051276445388794e-01" cType="1" res="2.5600597262382507e-02" rms="4.4689220190048218e-01" purity="4.7337090969085693e-01" nType="0">
          <Node pos="l" depth="2" NCoef="0" IVar="-1" Cut="0.0000000000000000e+00" cType="1" res="3.7467135116457939e-03" rms="4.4783785939216614e-01" purity="3.7557512521743774e-01" nType="-99"/>
          <Node pos="r" depth="2" NCoef="0" IVar="-1" Cut="0.0000000000000000e+00" cType="1" res="7.6893885852769017e-04" rms="4.4561222195625305e-01" purity="5.4477244615554810e-01" nType="-99"/>
        </Node>
        <Node pos="r" depth="1" NCoef="0" IVar="1" Cut="8.9467972517013550e-01" cType="1" res="-3.3616146538406610e-03" rms="4.4970017671585083e-01" purity="5.0426995754241943e-01" nType="0">
          <Node pos="l" depth="2" NCoef="0" IVar="-1" Cut="0.0000000000000000e+00" cType="1" res="-8.7573711061850190e-04" rms="4.5225489139556885e-01" purity="3.7849029898643494e-01" nType="-99"/>
          <Node pos="r" depth="2" NCoef="0" IVar="-1" Cut="0.0000000000000000e+00" cType="1" res="2.2050875122658908e-04" rms="4.4758909940719604e-01" purity="6.0240960121154785e-01" nType="-99"/>
        </Node>
      </Node>
    </BinaryTree>
    <BinaryTree type="DecisionTree" boostWeight="1.0000000000000000e+00" itree="1098">
      <Node pos="s" depth="0" NCoef="0" IVar="6" Cut="7.0045405626296997e-01" cType="1" res="3.0538411810994148e-03" rms="4.4938096404075623e-01" purity="5.0166392326354980e-01" nType="0">
        <Node pos="l" depth="1" NCoef="0" IVar="5" Cut="1.0274339001625776e-03" cType="1" res="2.4910815060138702e-02" rms="4.5196849107742310e-01" purity="6.0229307413101196e-01" nType="0">
          <Node pos="l" depth="2" NCoef="0" IVar="-1" Cut="0.0000000000000000e+00" cType="1" res="1.5686832193750888e-04" rms="4.2999029159545898e-01" purity="6.6697859764099121e-01" nType="-99"/>
          <Node pos="r" depth="2" NCoef="0" IVar="-1" Cut="0.0000000000000000e+00" cType="1" res="2.8539211489260197e-03" rms="4.6920132637023926e-01" purity="5.4654365777969360e-01" nType="-99"/>
        </Node>
        <Node pos="r" depth="1" NCoef="0" IVar="3" Cut="-8.8227435946464539e-02" cType="1" res="-1.5596319281030446e-04" rms="4.4891008734703064e-01" purity="4.8688602447509766e-01" nType="0">
          <Node pos="l" depth="2" NCoef="0" IVar="-1" Cut="0.0000000000000000e+00" cType="1" res="-1.0348208015784621e-03" rms="4.4031658768653870e-01" purity="4.2286577820777893e-01" nType="-99"/>
          <Node pos="r" depth="2" NCoef="0" IVar="-1" Cut="0.0000000000000000e+00" cType="1" res="2.0402022346388549e-04" rms="4.5082461833953857e-01" purity="5.0171750783920288e-01" nType="-99"/>
        </Node>
      </Node>
    </BinaryTree>
    <BinaryTree type="DecisionTree" boostWeight="1.0000000000000000e+00" itree="1099">
      <Node pos="s" depth="0" NCoef="0" IVar="4" Cut="6.0646104812622070e-01" cType="1" res="2.5810126680880785e-03" rms="4.4820046424865723e-01" purity="5.0432455539703369e-01" nType="0">
        <Node pos="l" depth="1" NCoef="0" IVar="4" Cut="1.9496087729930878e-01" cType="1" res="7.0066698826849461e-03" rms="4.4945794343948364e-01" purity="5.0174915790557861e-01" nType="0">
          <Node pos="l" depth="2" NCoef="0" IVar="-1" Cut="0.0000000000000000e+00" cType="1" res="1.7359129851683974e-03" rms="4.4802641868591309e-01" purity="4.8182696104049683e-01" nType="-99"/>
          <Node pos="r" depth="2" NCoef="0" IVar="-1" Cut="0.0000000000000000e+00" cType="1" res="2.0138292165938765e-04" rms="4.4970703125000000e-01" purity="5.0661814212799072e-01" nType="-99"/>
        </Node>
        <Node pos="r" depth="1" NCoef="0" IVar="0" Cut="1.5863914489746094e+00" cType="1" res="-2.0928401499986649e-02" rms="4.4071608781814575e-01" purity="5.1800483465194702e-01" nType="0">
          <Node pos="l" depth="2" NCoef="0" IVar="-1" Cut="0.0000000000000000e+00" cType="1" res="-3.0916440300643444e-03" rms="4.4650503993034363e-01" purity="3.6615425348281860e-01" nType="-99"/>
          <Node pos="r" depth="2" NCoef="0" IVar="-1" Cut="0.0000000000000000e+00" cType="1" res="-1.4702296175528318e-04" rms="4.3386104702949524e-01" purity="6.7465555667877197e-01" nType="-99"/>
        </Node>
      </Node>
    </BinaryTree>
    <BinaryTree type="DecisionTree" boostWeight="1.0000000000000000e+00" itree="1100">
      <Node pos="s" depth="0" NCoef="0" IVar="0" Cut="2.1825604438781738e+00" cType="1" res="-6.4725545234978199e-03" rms="4.4745495915412903e-01" purity="4.9324521422386169e-01" nType="0">
        <Node pos="l" depth="1" NCoef="0" IVar="1" Cut="9.4041162729263306e-01" cType="1" res="-1.2925229966640472e-02" rms="4.5157837867736816e-01" purity="3.9319637417793274e-01" nType="0">
          <Node pos="l" depth="2" NCoef="0" IVar="-1" Cut="0.0000000000000000e+00" cType="1" res="-1.3703835429623723e-03" rms="4.5180943608283997e-01" purity="3.5849079489707947e-01" nType="-99"/>
          <Node pos="r" depth="2" NCoef="0" IVar="-1" Cut="0.0000000000000000e+00" cType="1" res="1.2662804219871759e-03" rms="4.4873228669166565e-01" purity="6.3159751892089844e-01" nType="-99"/>
        </Node>
        <Node pos="r" depth="1" NCoef="0" IVar="4" Cut="5.0400048494338989e-01" cType="1" res="4.2172078974545002e-03" rms="4.4033098220825195e-01" purity="6.5899014472961426e-01" nType="0">
          <Node pos="l" depth="2" NCoef="0" IVar="-1" Cut="0.0000000000000000e+00" cType="1" res="1.0632221819832921e-03" rms="4.4112592935562134e-01" purity="6.5136277675628662e-01" nType="-99"/>
          <Node pos="r" depth="2" NCoef="0" IVar="-1" Cut="0.0000000000000000e+00" cType="1" res="-1.9299221457913518e-03" rms="4.3677270412445068e-01" purity="6.7854291200637817e-01" nType="-99"/>
        </Node>
      </Node>
    </BinaryTree>
    <BinaryTree type="DecisionTree" boostWeight="1.0000000000000000e+00" itree="1101">
      <Node pos="s" depth="0" NCoef="0" IVar="6" Cut="1.2380682229995728e+00" cType="1" res="6.1052688397467136e-03" rms="4.4935709238052368e-01" purity="5.0910955667495728e-01" nType="0">
        <Node pos="l" depth="1" NCoef="0" IVar="0" Cut="3.3343858718872070e+00" cType="1" res="1.3401156291365623e-02" rms="4.5453318953514099e-01" purity="5.5449908971786499e-01" nType="0">
          <Node pos="l" depth="2" NCoef="0" IVar="-1" Cut="0.0000000000000000e+00" cType="1" res="1.3344336766749620e-03" rms="4.6457317471504211e-01" purity="5.0856733322143555e-01" nType="-99"/>
          <Node pos="r" depth="2" NCoef="0" IVar="-1" Cut="0.0000000000000000e+00" cType="1" res="-8.8381394743919373e-04" rms="4.0952426195144653e-01" purity="7.4414551258087158e-01" nType="-99"/>
        </Node>
        <Node pos="r" depth="1" NCoef="0" IVar="5" Cut="3.2051922753453255e-03" cType="1" res="-3.5905065014958382e-03" rms="4.4219842553138733e-01" purity="4.4878965616226196e-01" nType="0">
          <Node pos="l" depth="2" NCoef="0" IVar="-1" Cut="0.0000000000000000e+00" cType="1" res="-6.3901185058057308e-04" rms="4.3993180990219116e-01" purity="4.5849174261093140e-01" nType="-99"/>
          <Node pos="r" depth="2" NCoef="0" IVar="-1" Cut="0.0000000000000000e+00" cType="1" res="2.3673423565924168e-03" rms="4.5669209957122803e-01" purity="3.7910586595535278e-01" nType="-99"/>
        </Node>
      </Node>
    </BinaryTree>
    <BinaryTree type="DecisionTree" boostWeight="1.0000000000000000e+00" itree="1102">
      <Node pos="s" depth="0" NCoef="0" IVar="5" Cut="3.6132254172116518e-03" cType="1" res="5.8895093388855457e-04" rms="4.4930067658424377e-01" purity="5.0201314687728882e-01" nType="0">
        <Node pos="l" depth="1" NCoef="0" IVar="4" Cut="2.4232839047908783e-01" cType="1" res="2.5934367440640926e-03" rms="4.4923272728919983e-01" purity="5.1113492250442505e-01" nType="0">
          <Node pos="l" depth="2" NCoef="0" IVar="-1" Cut="0.0000000000000000e+00" cType="1" res="-7.0308690192177892e-04" rms="4.4720461964607239e-01" purity="4.5605048537254333e-01" nType="-99"/>
          <Node pos="r" depth="2" NCoef="0" IVar="-1" Cut="0.0000000000000000e+00" cType="1" res="4.4920123764313757e-04" rms="4.4978299736976624e-01" purity="5.2786576747894287e-01" nType="-99"/>
        </Node>
        <Node pos="r" depth="1" NCoef="0" IVar="-1" Cut="0.0000000000000000e+00" cType="1" res="-2.4023568257689476e-03" rms="4.4915926456451416e-01" purity="3.5469955205917358e-01" nType="-99"/>
      </Node>
    </BinaryTree>
    <BinaryTree type="DecisionTree" boostWeight="1.0000000000000000e+00" itree="1103">
      <Node pos="s" depth="0" NCoef="0" IVar="2" Cut="4.2934814453125000e+02" cType="1" res="5.4224948398768902e-03" rms="4.4952645897865295e-01" purity="5.0328034162521362e-01" nType="0">
        <Node pos="l" depth="1" NCoef="0" IVar="0" Cut="1.3163642883300781e+00" cType="1" res="1.3168877921998501e-03" rms="4.5162808895111084e-01" purity="4.6143919229507446e-01" nType="0">
          <Node pos="l" depth="2" NCoef="0" IVar="-1" Cut="0.0000000000000000e+00" cType="1" res="7.7740394044667482e-04" rms="4.4771850109100342e-01" purity="3.3878952264785767e-01" nType="-99"/>
          <Node pos="r" depth="2" NCoef="0" IVar="-1" Cut="0.0000000000000000e+00" cType="1" res="-3.2214476959779859e-04" rms="4.5452919602394104e-01" purity="5.5612009763717651e-01" nType="-99"/>
        </Node>
        <Node pos="r" depth="1" NCoef="0" IVar="6" Cut="1.0667372941970825e+00" cType="1" res="2.2964993491768837e-02" rms="4.4000229239463806e-01" purity="6.8205970525741577e-01" nType="0">
          <Node pos="l" depth="2" NCoef="0" IVar="-1" Cut="0.0000000000000000e+00" cType="1" res="3.7780596176162362e-04" rms="4.4444757699966431e-01" purity="6.6807860136032104e-01" nType="-99"/>
          <Node pos="r" depth="2" NCoef="0" IVar="-1" Cut="0.0000000000000000e+00" cType="1" res="3.5359710454940796e-03" rms="4.3031406402587891e-01" purity="7.0678532123565674e-01" nType="-99"/>
        </Node>
      </Node>
    </BinaryTree>
    <BinaryTree type="DecisionTree" boostWeight="1.0000000000000000e+00" itree="1104">
      <Node pos="s" depth="0" NCoef="0" IVar="3" Cut="-1.2509872019290924e-01" cType="1" res="7.7663748525083065e-03" rms="4.4882309436798096e-01" purity="5.0976675748825073e-01" nType="0">
        <Node pos="l" depth="1" NCoef="0" IVar="-1" Cut="0.0000000000000000e+00" cType="1" res="2.5662360712885857e-03" rms="4.4616755843162537e-01" purity="4.6346545219421387e-01" nType="-99"/>
        <Node pos="r" depth="1" NCoef="0" IVar="1" Cut="9.1781920194625854e-01" cType="1" res="5.8281128294765949e-03" rms="4.4896450638771057e-01" purity="5.1327848434448242e-01" nType="0">
          <Node pos="l" depth="2" NCoef="0" IVar="-1" Cut="0.0000000000000000e+00" cType="1" res="1.4544833675245172e-06" rms="4.5649620890617371e-01" purity="4.1535714268684387e-01" nType="-99"/>
          <Node pos="r" depth="2" NCoef="0" IVar="-1" Cut="0.0000000000000000e+00" cType="1" res="1.0241358540952206e-03" rms="4.3710374832153320e-01" purity="6.6232132911682129e-01" nType="-99"/>
        </Node>
      </Node>
    </BinaryTree>
    <BinaryTree type="DecisionTree" boostWeight="1.0000000000000000e+00" itree="1105">
      <Node pos="s" depth="0" NCoef="0" IVar="3" Cut="1.9362466037273407e-01" cType="1" res="-2.1760626696050167e-03" rms="4.5115125179290771e-01" purity="4.9833691120147705e-01" nType="0">
        <Node pos="l" depth="1" NCoef="0" IVar="1" Cut="8.9467972517013550e-01" cType="1" res="9.9549384322017431e-04" rms="4.4932872056961060e-01" purity="4.9357551336288452e-01" nType="0">
          <Node pos="l" depth="2" NCoef="0" IVar="-1" Cut="0.0000000000000000e+00" cType="1" res="-7.5853243470191956e-04" rms="4.4930863380432129e-01" purity="3.6316409707069397e-01" nType="-99"/>
          <Node pos="r" depth="2" NCoef="0" IVar="-1" Cut="0.0000000000000000e+00" cType="1" res="6.4522458706051111e-04" rms="4.4917103648185730e-01" purity="5.9350508451461792e-01" nType="-99"/>
        </Node>
        <Node pos="r" depth="1" NCoef="0" IVar="4" Cut="2.7111372351646423e-01" cType="1" res="-2.5961494073271751e-02" rms="4.6390116214752197e-01" purity="5.3404617309570312e-01" nType="0">
          <Node pos="l" depth="2" NCoef="0" IVar="-1" Cut="0.0000000000000000e+00" cType="1" res="-6.6613929811865091e-04" rms="4.6165761351585388e-01" purity="5.4573959112167358e-01" nType="-99"/>
          <Node pos="r" depth="2" NCoef="0" IVar="-1" Cut="0.0000000000000000e+00" cType="1" res="-3.2427802216261625e-03" rms="4.6593669056892395e-01" purity="5.1918148994445801e-01" nType="-99"/>
        </Node>
      </Node>
    </BinaryTree>
    <BinaryTree type="DecisionTree" boostWeight="1.0000000000000000e+00" itree="1106">
      <Node pos="s" depth="0" NCoef="0" IVar="7" Cut="8.9080661535263062e-01" cType="1" res="3.4343739971518517e-03" rms="4.5105794072151184e-01" purity="5.0425589084625244e-01" nType="0">
        <Node pos="l" depth="1" NCoef="0" IVar="7" Cut="5.3003048896789551e-01" cType="1" res="-4.5701424824073911e-05" rms="4.5261469483375549e-01" purity="4.9395987391471863e-01" nType="0">
          <Node pos="l" depth="2" NCoef="0" IVar="-1" Cut="0.0000000000000000e+00" cType="1" res="1.0050964774563909e-03" rms="4.5462214946746826e-01" purity="4.5586588978767395e-01" nType="-99"/>
          <Node pos="r" depth="2" NCoef="0" IVar="-1" Cut="0.0000000000000000e+00" cType="1" res="-4.2591095552779734e-04" rms="4.5160788297653198e-01" purity="5.1061052083969116e-01" nType="-99"/>
        </Node>
        <Node pos="r" depth="1" NCoef="0" IVar="-1" Cut="0.0000000000000000e+00" cType="1" res="3.3790622837841511e-03" rms="4.2740395665168762e-01" purity="6.3980370759963989e-01" nType="-99"/>
      </Node>
    </BinaryTree>
    <BinaryTree type="DecisionTree" boostWeight="1.0000000000000000e+00" itree="1107">
      <Node pos="s" depth="0" NCoef="0" IVar="2" Cut="4.8912057495117188e+02" cType="1" res="-1.6735593089833856e-03" rms="4.5007929205894470e-01" purity="4.9963879585266113e-01" nType="0">
        <Node pos="l" depth="1" NCoef="0" IVar="3" Cut="5.4271969944238663e-02" cType="1" res="1.5295443590730429e-03" rms="4.5037642121315002e-01" purity="4.7742396593093872e-01" nType="0">
          <Node pos="l" depth="2" NCoef="0" IVar="-1" Cut="0.0000000000000000e+00" cType="1" res="-4.4853365398012102e-04" rms="4.4558364152908325e-01" purity="4.4769981503486633e-01" nType="-99"/>
          <Node pos="r" depth="2" NCoef="0" IVar="-1" Cut="0.0000000000000000e+00" cType="1" res="8.4999232785776258e-04" rms="4.5711761713027954e-01" purity="5.2115106582641602e-01" nType="-99"/>
        </Node>
        <Node pos="r" depth="1" NCoef="0" IVar="5" Cut="1.2246421538293362e-03" cType="1" res="-2.5191331282258034e-02" rms="4.4718968868255615e-01" purity="6.6274452209472656e-01" nType="0">
          <Node pos="l" depth="2" NCoef="0" IVar="-1" Cut="0.0000000000000000e+00" cType="1" res="-1.0442356579005718e-03" rms="4.2349311709403992e-01" purity="7.3152863979339600e-01" nType="-99"/>
          <Node pos="r" depth="2" NCoef="0" IVar="-1" Cut="0.0000000000000000e+00" cType="1" res="-2.5702975690364838e-03" rms="4.7389727830886841e-01" purity="5.7948958873748779e-01" nType="-99"/>
        </Node>
      </Node>
    </BinaryTree>
    <BinaryTree type="DecisionTree" boostWeight="1.0000000000000000e+00" itree="1108">
      <Node pos="s" depth="0" NCoef="0" IVar="2" Cut="5.8345550537109375e+02" cType="1" res="-1.0578281944617629e-03" rms="4.4939363002777100e-01" purity="4.9820989370346069e-01" nType="0">
        <Node pos="l" depth="1" NCoef="0" IVar="5" Cut="3.2260932493954897e-03" cType="1" res="-3.3694419544190168e-03" rms="4.5100736618041992e-01" purity="4.8146659135818481e-01" nType="0">
          <Node pos="l" depth="2" NCoef="0" IVar="-1" Cut="0.0000000000000000e+00" cType="1" res="-4.2448673048056662e-04" rms="4.4886714220046997e-01" purity="4.9377411603927612e-01" nType="-99"/>
          <Node pos="r" depth="2" NCoef="0" IVar="-1" Cut="0.0000000000000000e+00" cType="1" res="1.0519579518586397e-03" rms="4.6594151854515076e-01" purity="3.9162167906761169e-01" nType="-99"/>
        </Node>
        <Node pos="r" depth="1" NCoef="0" IVar="-1" Cut="0.0000000000000000e+00" cType="1" res="2.1854108199477196e-03" rms="4.2430838942527771e-01" purity="7.3732531070709229e-01" nType="-99"/>
      </Node>
    </BinaryTree>
    <BinaryTree type="DecisionTree" boostWeight="1.0000000000000000e+00" itree="1109">
      <Node pos="s" depth="0" NCoef="0" IVar="7" Cut="3.5746872425079346e-01" cType="1" res="-6.8531080614775419e-04" rms="4.4871497154235840e-01" purity="5.0124460458755493e-01" nType="0">
        <Node pos="l" depth="1" NCoef="0" IVar="-1" Cut="0.0000000000000000e+00" cType="1" res="2.2786925546824932e-03" rms="4.6856582164764404e-01" purity="4.9690988659858704e-01" nType="-99"/>
        <Node pos="r" depth="1" NCoef="0" IVar="4" Cut="6.1928063631057739e-01" cType="1" res="-2.5699273683130741e-03" rms="4.4747999310493469e-01" purity="5.0149238109588623e-01" nType="0">
          <Node pos="l" depth="2" NCoef="0" IVar="-1" Cut="0.0000000000000000e+00" cType="1" res="-4.2642652988433838e-04" rms="4.4795042276382446e-01" purity="4.9070525169372559e-01" nType="-99"/>
          <Node pos="r" depth="2" NCoef="0" IVar="-1" Cut="0.0000000000000000e+00" cType="1" res="1.0668780887499452e-03" rms="4.4455218315124512e-01" purity="5.5912375450134277e-01" nType="-99"/>
        </Node>
      </Node>
    </BinaryTree>
    <BinaryTree type="DecisionTree" boostWeight="1.0000000000000000e+00" itree="1110">
      <Node pos="s" depth="0" NCoef="0" IVar="4" Cut="4.6378132700920105e-01" cType="1" res="-1.2170604895800352e-03" rms="4.5062172412872314e-01" purity="5.0096446275711060e-01" nType="0">
        <Node pos="l" depth="1" NCoef="0" IVar="6" Cut="6.9308310747146606e-01" cType="1" res="-1.0789428837597370e-02" rms="4.5132991671562195e-01" purity="4.7499141097068787e-01" nType="0">
          <Node pos="l" depth="2" NCoef="0" IVar="-1" Cut="0.0000000000000000e+00" cType="1" res="-2.8913228306919336e-03" rms="4.6141457557678223e-01" purity="5.2777117490768433e-01" nType="-99"/>
          <Node pos="r" depth="2" NCoef="0" IVar="-1" Cut="0.0000000000000000e+00" cType="1" res="-4.8010505270212889e-04" rms="4.4970449805259705e-01" purity="4.6742033958435059e-01" nType="-99"/>
        </Node>
        <Node pos="r" depth="1" NCoef="0" IVar="5" Cut="1.1374815367162228e-03" cType="1" res="1.4843925833702087e-02" rms="4.4897267222404480e-01" purity="5.4454326629638672e-01" nType="0">
          <Node pos="l" depth="2" NCoef="0" IVar="-1" Cut="0.0000000000000000e+00" cType="1" res="-1.6172051255125552e-04" rms="4.3208104372024536e-01" purity="6.2587362527847290e-01" nType="-99"/>
          <Node pos="r" depth="2" NCoef="0" IVar="-1" Cut="0.0000000000000000e+00" cType="1" res="2.0533867646008730e-03" rms="4.6289560198783875e-01" purity="4.7252404689788818e-01" nType="-99"/>
        </Node>
      </Node>
    </BinaryTree>
    <BinaryTree type="DecisionTree" boostWeight="1.0000000000000000e+00" itree="1111">
      <Node pos="s" depth="0" NCoef="0" IVar="1" Cut="8.7535989284515381e-01" cType="1" res="3.0312726739794016e-03" rms="4.4754338264465332e-01" purity="5.0093740224838257e-01" nType="0">
        <Node pos="l" depth="1" NCoef="0" IVar="5" Cut="2.1859994158148766e-03" cType="1" res="-1.2716253288090229e-02" rms="4.4326978921890259e-01" purity="3.5315564274787903e-01" nType="0">
          <Node pos="l" depth="2" NCoef="0" IVar="-1" Cut="0.0000000000000000e+00" cType="1" res="5.4409180302172899e-04" rms="4.4230708479881287e-01" purity="3.0821987986564636e-01" nType="-99"/>
          <Node pos="r" depth="2" NCoef="0" IVar="-1" Cut="0.0000000000000000e+00" cType="1" res="-1.4218540163710713e-03" rms="4.4340586662292480e-01" purity="3.6740991473197937e-01" nType="-99"/>
        </Node>
        <Node pos="r" depth="1" NCoef="0" IVar="7" Cut="4.1939595341682434e-01" cType="1" res="9.0500954538583755e-03" rms="4.4902017712593079e-01" purity="5.5742067098617554e-01" nType="0">
          <Node pos="l" depth="2" NCoef="0" IVar="-1" Cut="0.0000000000000000e+00" cType="1" res="-1.4617204433307052e-03" rms="4.5085310935974121e-01" purity="4.7474944591522217e-01" nType="-99"/>
          <Node pos="r" depth="2" NCoef="0" IVar="-1" Cut="0.0000000000000000e+00" cType="1" res="8.9133699657395482e-04" rms="4.4866317510604858e-01" purity="5.6761956214904785e-01" nType="-99"/>
        </Node>
      </Node>
    </BinaryTree>
    <BinaryTree type="DecisionTree" boostWeight="1.0000000000000000e+00" itree="1112">
      <Node pos="s" depth="0" NCoef="0" IVar="3" Cut="1.9165767729282379e-01" cType="1" res="-2.7901369612663984e-03" rms="4.4704955816268921e-01" purity="4.9790009856224060e-01" nType="0">
        <Node pos="l" depth="1" NCoef="0" IVar="4" Cut="7.1528136730194092e-01" cType="1" res="-6.5930467098951340e-03" rms="4.4619068503379822e-01" purity="4.8448061943054199e-01" nType="0">
          <Node pos="l" depth="2" NCoef="0" IVar="-1" Cut="0.0000000000000000e+00" cType="1" res="-7.1431230753660202e-04" rms="4.4723799824714661e-01" purity="4.7879344224929810e-01" nType="-99"/>
          <Node pos="r" depth="2" NCoef="0" IVar="-1" Cut="0.0000000000000000e+00" cType="1" res="2.7175340801477432e-03" rms="4.2739999294281006e-01" purity="5.7070481777191162e-01" nType="-99"/>
        </Node>
        <Node pos="r" depth="1" NCoef="0" IVar="1" Cut="8.9037710428237915e-01" cType="1" res="2.3443248122930527e-02" rms="4.5205909013748169e-01" purity="5.9047073125839233e-01" nType="0">
          <Node pos="l" depth="2" NCoef="0" IVar="-1" Cut="0.0000000000000000e+00" cType="1" res="1.8777421792037785e-04" rms="4.7101616859436035e-01" purity="4.6370100975036621e-01" nType="-99"/>
          <Node pos="r" depth="2" NCoef="0" IVar="-1" Cut="0.0000000000000000e+00" cType="1" res="2.5334751699119806e-03" rms="4.3771710991859436e-01" purity="6.7927163839340210e-01" nType="-99"/>
        </Node>
      </Node>
    </BinaryTree>
    <BinaryTree type="DecisionTree" boostWeight="1.0000000000000000e+00" itree="1113">
      <Node pos="s" depth="0" NCoef="0" IVar="5" Cut="3.6132233217358589e-03" cType="1" res="2.1991087123751640e-03" rms="4.5022830367088318e-01" purity="5.0024825334548950e-01" nType="0">
        <Node pos="l" depth="1" NCoef="0" IVar="0" Cut="8.1600308418273926e-01" cType="1" res="-1.7197478155139834e-04" rms="4.4961902499198914e-01" purity="5.0447386503219604e-01" nType="0">
          <Node pos="l" depth="2" NCoef="0" IVar="-1" Cut="0.0000000000000000e+00" cType="1" res="9.2314404901117086e-04" rms="4.4843417406082153e-01" purity="3.5029342770576477e-01" nType="-99"/>
          <Node pos="r" depth="2" NCoef="0" IVar="-1" Cut="0.0000000000000000e+00" cType="1" res="-2.9847479891031981e-04" rms="4.4999423623085022e-01" purity="5.6250947713851929e-01" nType="-99"/>
        </Node>
        <Node pos="r" depth="1" NCoef="0" IVar="-1" Cut="0.0000000000000000e+00" cType="1" res="2.5027412921190262e-03" rms="4.5763602852821350e-01" purity="4.3854337930679321e-01" nType="-99"/>
      </Node>
    </BinaryTree>
    <BinaryTree type="DecisionTree" boostWeight="1.0000000000000000e+00" itree="1114">
      <Node pos="s" depth="0" NCoef="0" IVar="5" Cut="3.4841797314584255e-03" cType="1" res="-7.2288414230570197e-04" rms="4.4814559817314148e-01" purity="5.0038236379623413e-01" nType="0">
        <Node pos="l" depth="1" NCoef="0" IVar="1" Cut="8.8311308622360229e-01" cType="1" res="2.1164410281926394e-03" rms="4.4848281145095825e-01" purity="5.1150858402252197e-01" nType="0">
          <Node pos="l" depth="2" NCoef="0" IVar="-1" Cut="0.0000000000000000e+00" cType="1" res="1.3908331748098135e-03" rms="4.5432651042938232e-01" purity="3.8697496056556702e-01" nType="-99"/>
          <Node pos="r" depth="2" NCoef="0" IVar="-1" Cut="0.0000000000000000e+00" cType="1" res="-3.3643026836216450e-04" rms="4.4580334424972534e-01" purity="5.6437665224075317e-01" nType="-99"/>
        </Node>
        <Node pos="r" depth="1" NCoef="0" IVar="-1" Cut="0.0000000000000000e+00" cType="1" res="-2.7259178459644318e-03" rms="4.4230639934539795e-01" purity="3.6000657081604004e-01" nType="-99"/>
      </Node>
    </BinaryTree>
    <BinaryTree type="DecisionTree" boostWeight="1.0000000000000000e+00" itree="1115">
      <Node pos="s" depth="0" NCoef="0" IVar="1" Cut="8.8691329956054688e-01" cType="1" res="3.9147711358964443e-03" rms="4.5115157961845398e-01" purity="5.0205701589584351e-01" nType="0">
        <Node pos="l" depth="1" NCoef="0" IVar="1" Cut="8.7506330013275146e-01" cType="1" res="1.3478302396833897e-02" rms="4.5356017351150513e-01" purity="3.9304637908935547e-01" nType="0">
          <Node pos="l" depth="2" NCoef="0" IVar="-1" Cut="0.0000000000000000e+00" cType="1" res="3.0359244556166232e-04" rms="4.5215234160423279e-01" purity="3.7138330936431885e-01" nType="-99"/>
          <Node pos="r" depth="2" NCoef="0" IVar="-1" Cut="0.0000000000000000e+00" cType="1" res="2.6406857650727034e-03" rms="4.5621475577354431e-01" purity="4.4764360785484314e-01" nType="-99"/>
        </Node>
        <Node pos="r" depth="1" NCoef="0" IVar="0" Cut="6.5323448181152344e-01" cType="1" res="-2.0297290757298470e-03" rms="4.4954541325569153e-01" purity="5.6981575489044189e-01" nType="0">
          <Node pos="l" depth="2" NCoef="0" IVar="-1" Cut="0.0000000000000000e+00" cType="1" res="2.1901093423366547e-03" rms="4.6105536818504333e-01" purity="4.2377963662147522e-01" nType="-99"/>
          <Node pos="r" depth="2" NCoef="0" IVar="-1" Cut="0.0000000000000000e+00" cType="1" res="-4.3488549999892712e-04" rms="4.4777670502662659e-01" purity="5.8996319770812988e-01" nType="-99"/>
        </Node>
      </Node>
    </BinaryTree>
    <BinaryTree type="DecisionTree" boostWeight="1.0000000000000000e+00" itree="1116">
      <Node pos="s" depth="0" NCoef="0" IVar="5" Cut="3.2260951120406389e-03" cType="1" res="-1.5700776129961014e-03" rms="4.5029190182685852e-01" purity="4.9827295541763306e-01" nType="0">
        <Node pos="l" depth="1" NCoef="0" IVar="1" Cut="8.7533986568450928e-01" cType="1" res="-4.6799909323453903e-03" rms="4.4913193583488464e-01" purity="5.0885921716690063e-01" nType="0">
          <Node pos="l" depth="2" NCoef="0" IVar="-1" Cut="0.0000000000000000e+00" cType="1" res="-2.3143186699599028e-03" rms="4.3738591670989990e-01" purity="3.2175558805465698e-01" nType="-99"/>
          <Node pos="r" depth="2" NCoef="0" IVar="-1" Cut="0.0000000000000000e+00" cType="1" res="5.3248430049279705e-05" rms="4.5163595676422119e-01" purity="5.5220234394073486e-01" nType="-99"/>
        </Node>
        <Node pos="r" depth="1" NCoef="0" IVar="1" Cut="8.5835200548171997e-01" cType="1" res="2.2037360817193985e-02" rms="4.5831403136253357e-01" purity="4.1791161894798279e-01" nType="0">
          <Node pos="l" depth="2" NCoef="0" IVar="-1" Cut="0.0000000000000000e+00" cType="1" res="2.3778632748872042e-03" rms="4.6607211232185364e-01" purity="4.2209926247596741e-01" nType="-99"/>
          <Node pos="r" depth="2" NCoef="0" IVar="-1" Cut="0.0000000000000000e+00" cType="1" res="5.1693519344553351e-04" rms="4.4774526357650757e-01" purity="4.1254371404647827e-01" nType="-99"/>
        </Node>
      </Node>
    </BinaryTree>
    <BinaryTree type="DecisionTree" boostWeight="1.0000000000000000e+00" itree="1117">
      <Node pos="s" depth="0" NCoef="0" IVar="7" Cut="8.9157897233963013e-01" cType="1" res="-6.8897115997970104e-03" rms="4.5078685879707336e-01" purity="4.9033349752426147e-01" nType="0">
        <Node pos="l" depth="1" NCoef="0" IVar="7" Cut="4.9597507715225220e-01" cType="1" res="-9.1536771506071091e-03" rms="4.5142471790313721e-01" purity="4.8226961493492126e-01" nType="0">
          <Node pos="l" depth="2" NCoef="0" IVar="-1" Cut="0.0000000000000000e+00" cType="1" res="5.9343996690586209e-04" rms="4.5169818401336670e-01" purity="4.5071738958358765e-01" nType="-99"/>
          <Node pos="r" depth="2" NCoef="0" IVar="-1" Cut="0.0000000000000000e+00" cType="1" res="-1.0726244654506445e-03" rms="4.5119604468345642e-01" purity="4.9256056547164917e-01" nType="-99"/>
        </Node>
        <Node pos="r" depth="1" NCoef="0" IVar="-1" Cut="0.0000000000000000e+00" cType="1" res="1.7798178596422076e-03" rms="4.4018191099166870e-01" purity="6.0673004388809204e-01" nType="-99"/>
      </Node>
    </BinaryTree>
    <BinaryTree type="DecisionTree" boostWeight="1.0000000000000000e+00" itree="1118">
      <Node pos="s" depth="0" NCoef="0" IVar="4" Cut="1.2815336883068085e-01" cType="1" res="3.9606387726962566e-03" rms="4.5019239187240601e-01" purity="5.0496482849121094e-01" nType="0">
        <Node pos="l" depth="1" NCoef="0" IVar="-1" Cut="0.0000000000000000e+00" cType="1" res="-2.3513925261795521e-03" rms="4.4029337167739868e-01" purity="3.9952936768531799e-01" nType="-99"/>
        <Node pos="r" depth="1" NCoef="0" IVar="6" Cut="1.7330714464187622e+00" cType="1" res="6.2098377384245396e-03" rms="4.5074474811553955e-01" purity="5.1189786195755005e-01" nType="0">
          <Node pos="l" depth="2" NCoef="0" IVar="-1" Cut="0.0000000000000000e+00" cType="1" res="6.7731511080637574e-04" rms="4.5355570316314697e-01" purity="5.2776414155960083e-01" nType="-99"/>
          <Node pos="r" depth="2" NCoef="0" IVar="-1" Cut="0.0000000000000000e+00" cType="1" res="-1.3402936747297645e-03" rms="4.3051126599311829e-01" purity="4.0431627631187439e-01" nType="-99"/>
        </Node>
      </Node>
    </BinaryTree>
    <BinaryTree type="DecisionTree" boostWeight="1.0000000000000000e+00" itree="1119">
      <Node pos="s" depth="0" NCoef="0" IVar="4" Cut="4.5686879754066467e-01" cType="1" res="4.3858974240720272e-03" rms="4.4964537024497986e-01" purity="5.0312793254852295e-01" nType="0">
        <Node pos="l" depth="1" NCoef="0" IVar="1" Cut="8.5997670888900757e-01" cType="1" res="-1.3541911030188203e-03" rms="4.4871518015861511e-01" purity="4.8335775732994080e-01" nType="0">
          <Node pos="l" depth="2" NCoef="0" IVar="-1" Cut="0.0000000000000000e+00" cType="1" res="2.3784022778272629e-03" rms="4.5089948177337646e-01" purity="3.8463625311851501e-01" nType="-99"/>
          <Node pos="r" depth="2" NCoef="0" IVar="-1" Cut="0.0000000000000000e+00" cType="1" res="-4.3043209007009864e-04" rms="4.4822067022323608e-01" purity="4.9715456366539001e-01" nType="-99"/>
        </Node>
        <Node pos="r" depth="1" NCoef="0" IVar="5" Cut="1.1368803679943085e-03" cType="1" res="1.3779317960143089e-02" rms="4.5100584626197815e-01" purity="5.3548097610473633e-01" nType="0">
          <Node pos="l" depth="2" NCoef="0" IVar="-1" Cut="0.0000000000000000e+00" cType="1" res="-3.1808751373318955e-05" rms="4.3620508909225464e-01" purity="6.2295186519622803e-01" nType="-99"/>
          <Node pos="r" depth="2" NCoef="0" IVar="-1" Cut="0.0000000000000000e+00" cType="1" res="1.7958136741071939e-03" rms="4.6294614672660828e-01" purity="4.6065509319305420e-01" nType="-99"/>
        </Node>
      </Node>
    </BinaryTree>
    <BinaryTree type="DecisionTree" boostWeight="1.0000000000000000e+00" itree="1120">
      <Node pos="s" depth="0" NCoef="0" IVar="3" Cut="4.9864087253808975e-02" cType="1" res="-3.1763848382979631e-03" rms="4.4866588711738586e-01" purity="4.9863100051879883e-01" nType="0">
        <Node pos="l" depth="1" NCoef="0" IVar="4" Cut="4.0967622399330139e-01" cType="1" res="2.9729334637522697e-03" rms="4.4411483407020569e-01" purity="4.8478609323501587e-01" nType="0">
          <Node pos="l" depth="2" NCoef="0" IVar="-1" Cut="0.0000000000000000e+00" cType="1" res="-8.3512067794799805e-04" rms="4.4499456882476807e-01" purity="4.3433856964111328e-01" nType="-99"/>
          <Node pos="r" depth="2" NCoef="0" IVar="-1" Cut="0.0000000000000000e+00" cType="1" res="1.1068423045799136e-03" rms="4.4295442104339600e-01" purity="5.3017282485961914e-01" nType="-99"/>
        </Node>
        <Node pos="r" depth="1" NCoef="0" IVar="1" Cut="8.6384052038192749e-01" cType="1" res="-1.2347301468253136e-02" rms="4.5521441102027893e-01" purity="5.1927894353866577e-01" nType="0">
          <Node pos="l" depth="2" NCoef="0" IVar="-1" Cut="0.0000000000000000e+00" cType="1" res="-3.5002389922738075e-03" rms="4.5580747723579407e-01" purity="3.4394198656082153e-01" nType="-99"/>
          <Node pos="r" depth="2" NCoef="0" IVar="-1" Cut="0.0000000000000000e+00" cType="1" res="-4.2087299516424537e-04" rms="4.5483171939849854e-01" purity="5.5222195386886597e-01" nType="-99"/>
        </Node>
      </Node>
    </BinaryTree>
    <BinaryTree type="DecisionTree" boostWeight="1.0000000000000000e+00" itree="1121">
      <Node pos="s" depth="0" NCoef="0" IVar="6" Cut="6.6951549053192139e-01" cType="1" res="-7.7055455185472965e-03" rms="4.4893446564674377e-01" purity="4.9268648028373718e-01" nType="0">
        <Node pos="l" depth="1" NCoef="0" IVar="1" Cut="9.0213221311569214e-01" cType="1" res="1.6329297795891762e-02" rms="4.5423266291618347e-01" purity="6.0611957311630249e-01" nType="0">
          <Node pos="l" depth="2" NCoef="0" IVar="-1" Cut="0.0000000000000000e+00" cType="1" res="2.9051217716187239e-03" rms="4.6908080577850342e-01" purity="5.2188831567764282e-01" nType="-99"/>
          <Node pos="r" depth="2" NCoef="0" IVar="-1" Cut="0.0000000000000000e+00" cType="1" res="-6.4543233020231128e-04" rms="4.3908718228340149e-01" purity="6.8089449405670166e-01" nType="-99"/>
        </Node>
        <Node pos="r" depth="1" NCoef="0" IVar="6" Cut="8.3414208889007568e-01" cType="1" res="-1.0720515623688698e-02" rms="4.4817447662353516e-01" purity="4.7845724225044250e-01" nType="0">
          <Node pos="l" depth="2" NCoef="0" IVar="-1" Cut="0.0000000000000000e+00" cType="1" res="-2.8476873412728310e-03" rms="4.5602589845657349e-01" purity="5.1665061712265015e-01" nType="-99"/>
          <Node pos="r" depth="2" NCoef="0" IVar="-1" Cut="0.0000000000000000e+00" cType="1" res="-4.7116557834669948e-04" rms="4.4679871201515198e-01" purity="4.7260674834251404e-01" nType="-99"/>
        </Node>
      </Node>
    </BinaryTree>
    <BinaryTree type="DecisionTree" boostWeight="1.0000000000000000e+00" itree="1122">
      <Node pos="s" depth="0" NCoef="0" IVar="2" Cut="3.5438037109375000e+02" cType="1" res="1.5461973380297422e-03" rms="4.5005604624748230e-01" purity="5.0025796890258789e-01" nType="0">
        <Node pos="l" depth="1" NCoef="0" IVar="7" Cut="8.4816700220108032e-01" cType="1" res="-5.2128410898149014e-03" rms="4.5018202066421509e-01" purity="4.2589339613914490e-01" nType="0">
          <Node pos="l" depth="2" NCoef="0" IVar="-1" Cut="0.0000000000000000e+00" cType="1" res="-5.5809283367125317e-05" rms="4.5182543992996216e-01" purity="4.2234688997268677e-01" nType="-99"/>
          <Node pos="r" depth="2" NCoef="0" IVar="-1" Cut="0.0000000000000000e+00" cType="1" res="-3.0703174415975809e-03" rms="4.3487557768821716e-01" purity="4.5473757386207581e-01" nType="-99"/>
        </Node>
        <Node pos="r" depth="1" NCoef="0" IVar="3" Cut="-4.5277412980794907e-02" cType="1" res="1.4205068349838257e-02" rms="4.4954672455787659e-01" purity="6.3953399658203125e-01" nType="0">
          <Node pos="l" depth="2" NCoef="0" IVar="-1" Cut="0.0000000000000000e+00" cType="1" res="2.3737126030027866e-03" rms="4.4879916310310364e-01" purity="6.3025683164596558e-01" nType="-99"/>
          <Node pos="r" depth="2" NCoef="0" IVar="-1" Cut="0.0000000000000000e+00" cType="1" res="1.6017253074096516e-05" rms="4.4946986436843872e-01" purity="6.4547854661941528e-01" nType="-99"/>
        </Node>
      </Node>
    </BinaryTree>
    <BinaryTree type="DecisionTree" boostWeight="1.0000000000000000e+00" itree="1123">
      <Node pos="s" depth="0" NCoef="0" IVar="6" Cut="1.4695076942443848e+00" cType="1" res="2.7775862254202366e-03" rms="4.4871458411216736e-01" purity="5.0180858373641968e-01" nType="0">
        <Node pos="l" depth="1" NCoef="0" IVar="1" Cut="8.8692557811737061e-01" cType="1" res="7.7457912266254425e-03" rms="4.5315808057785034e-01" purity="5.3190010786056519e-01" nType="0">
          <Node pos="l" depth="2" NCoef="0" IVar="-1" Cut="0.0000000000000000e+00" cType="1" res="-2.2412689577322453e-04" rms="4.5991364121437073e-01" purity="3.9938613772392273e-01" nType="-99"/>
          <Node pos="r" depth="2" NCoef="0" IVar="-1" Cut="0.0000000000000000e+00" cType="1" res="9.7470573382452130e-04" rms="4.4900318980216980e-01" purity="6.1005568504333496e-01" nType="-99"/>
        </Node>
        <Node pos="r" depth="1" NCoef="0" IVar="3" Cut="5.7097412645816803e-02" cType="1" res="-1.0969460010528564e-02" rms="4.3588852882385254e-01" purity="4.1854536533355713e-01" nType="0">
          <Node pos="l" depth="2" NCoef="0" IVar="-1" Cut="0.0000000000000000e+00" cType="1" res="-2.1271950099617243e-03" rms="4.2536211013793945e-01" purity="3.7807914614677429e-01" nType="-99"/>
          <Node pos="r" depth="2" NCoef="0" IVar="-1" Cut="0.0000000000000000e+00" cType="1" res="6.4534641569480300e-04" rms="4.4958367943763733e-01" purity="4.7569009661674500e-01" nType="-99"/>
        </Node>
      </Node>
    </BinaryTree>
    <BinaryTree type="DecisionTree" boostWeight="1.0000000000000000e+00" itree="1124">
      <Node pos="s" depth="0" NCoef="0" IVar="4" Cut="5.5891150236129761e-01" cType="1" res="4.3243434629403055e-04" rms="4.4607716798782349e-01" purity="5.0356662273406982e-01" nType="0">
        <Node pos="l" depth="1" NCoef="0" IVar="3" Cut="2.4296593666076660e-01" cType="1" res="-4.7092009335756302e-03" rms="4.4777423143386841e-01" purity="4.8942357301712036e-01" nType="0">
          <Node pos="l" depth="2" NCoef="0" IVar="-1" Cut="0.0000000000000000e+00" cType="1" res="-1.5175652515608817e-04" rms="4.4660231471061707e-01" purity="4.8703706264495850e-01" nType="-99"/>
          <Node pos="r" depth="2" NCoef="0" IVar="-1" Cut="0.0000000000000000e+00" cType="1" res="-2.6513109914958477e-03" rms="4.6106299757957458e-01" purity="5.1969194412231445e-01" nType="-99"/>
        </Node>
        <Node pos="r" depth="1" NCoef="0" IVar="1" Cut="8.7509900331497192e-01" cType="1" res="1.7900306731462479e-02" rms="4.3981403112411499e-01" purity="5.5161547660827637e-01" nType="0">
          <Node pos="l" depth="2" NCoef="0" IVar="-1" Cut="0.0000000000000000e+00" cType="1" res="-1.0387569200247526e-03" rms="4.5113050937652588e-01" purity="3.6917814612388611e-01" nType="-99"/>
          <Node pos="r" depth="2" NCoef="0" IVar="-1" Cut="0.0000000000000000e+00" cType="1" res="2.0051691681146622e-03" rms="4.3545877933502197e-01" purity="6.1255961656570435e-01" nType="-99"/>
        </Node>
      </Node>
    </BinaryTree>
    <BinaryTree type="DecisionTree" boostWeight="1.0000000000000000e+00" itree="1125">
      <Node pos="s" depth="0" NCoef="0" IVar="3" Cut="-1.0272488743066788e-01" cType="1" res="4.0697040967643261e-03" rms="4.5032051205635071e-01" purity="5.0255882740020752e-01" nType="0">
        <Node pos="l" depth="1" NCoef="0" IVar="0" Cut="1.1653636693954468e+00" cType="1" res="2.0435601472854614e-02" rms="4.3915507197380066e-01" purity="4.7269359230995178e-01" nType="0">
          <Node pos="l" depth="2" NCoef="0" IVar="-1" Cut="0.0000000000000000e+00" cType="1" res="-4.5672125997953117e-04" rms="4.3362814188003540e-01" purity="3.1789061427116394e-01" nType="-99"/>
          <Node pos="r" depth="2" NCoef="0" IVar="-1" Cut="0.0000000000000000e+00" cType="1" res="2.4540044832974672e-03" rms="4.4181364774703979e-01" purity="5.6877189874649048e-01" nType="-99"/>
        </Node>
        <Node pos="r" depth="1" NCoef="0" IVar="3" Cut="-6.8132415413856506e-02" cType="1" res="1.1905841529369354e-03" rms="4.5219498872756958e-01" purity="5.0781273841857910e-01" nType="0">
          <Node pos="l" depth="2" NCoef="0" IVar="-1" Cut="0.0000000000000000e+00" cType="1" res="-1.3762010494247079e-03" rms="4.4812649488449097e-01" purity="4.5643758773803711e-01" nType="-99"/>
          <Node pos="r" depth="2" NCoef="0" IVar="-1" Cut="0.0000000000000000e+00" cType="1" res="3.0708068516105413e-04" rms="4.5277637243270874e-01" purity="5.1616936922073364e-01" nType="-99"/>
        </Node>
      </Node>
    </BinaryTree>
    <BinaryTree type="DecisionTree" boostWeight="1.0000000000000000e+00" itree="1126">
      <Node pos="s" depth="0" NCoef="0" IVar="1" Cut="8.7146556377410889e-01" cType="1" res="-1.8966533243656158e-03" rms="4.5202857255935669e-01" purity="4.9585089087486267e-01" nType="0">
        <Node pos="l" depth="1" NCoef="0" IVar="2" Cut="2.6373715209960938e+02" cType="1" res="1.3996674679219723e-02" rms="4.5446348190307617e-01" purity="3.8220921158790588e-01" nType="0">
          <Node pos="l" depth="2" NCoef="0" IVar="-1" Cut="0.0000000000000000e+00" cType="1" res="3.9632972329854965e-03" rms="4.2768815159797668e-01" purity="2.8125321865081787e-01" nType="-99"/>
          <Node pos="r" depth="2" NCoef="0" IVar="-1" Cut="0.0000000000000000e+00" cType="1" res="-8.8847416918724775e-05" rms="4.6806934475898743e-01" purity="4.3865376710891724e-01" nType="-99"/>
        </Node>
        <Node pos="r" depth="1" NCoef="0" IVar="7" Cut="7.0389550924301147e-01" cType="1" res="-6.9840382784605026e-03" rms="4.5112809538841248e-01" purity="5.3222715854644775e-01" nType="0">
          <Node pos="l" depth="2" NCoef="0" IVar="-1" Cut="0.0000000000000000e+00" cType="1" res="1.0081859045385499e-06" rms="4.5554384589195251e-01" purity="5.0457328557968140e-01" nType="-99"/>
          <Node pos="r" depth="2" NCoef="0" IVar="-1" Cut="0.0000000000000000e+00" cType="1" res="-1.2550115352496505e-03" rms="4.4423010945320129e-01" purity="5.7362276315689087e-01" nType="-99"/>
        </Node>
      </Node>
    </BinaryTree>
    <BinaryTree type="DecisionTree" boostWeight="1.0000000000000000e+00" itree="1127">
      <Node pos="s" depth="0" NCoef="0" IVar="3" Cut="2.1795862913131714e-01" cType="1" res="5.2186152897775173e-03" rms="4.5122557878494263e-01" purity="5.0263255834579468e-01" nType="0">
        <Node pos="l" depth="1" NCoef="0" IVar="5" Cut="1.4126866590231657e-03" cType="1" res="7.9577332362532616e-03" rms="4.5068693161010742e-01" purity="5.0019168853759766e-01" nType="0">
          <Node pos="l" depth="2" NCoef="0" IVar="-1" Cut="0.0000000000000000e+00" cType="1" res="4.9260721425525844e-05" rms="4.4085639715194702e-01" purity="5.6991392374038696e-01" nType="-99"/>
          <Node pos="r" depth="2" NCoef="0" IVar="-1" Cut="0.0000000000000000e+00" cType="1" res="1.1928038438782096e-03" rms="4.6176487207412720e-01" purity="4.1871035099029541e-01" nType="-99"/>
        </Node>
        <Node pos="r" depth="1" NCoef="0" IVar="-1" Cut="0.0000000000000000e+00" cType="1" res="-1.7667567590251565e-03" rms="4.5612940192222595e-01" purity="5.3023433685302734e-01" nType="-99"/>
      </Node>
    </BinaryTree>
    <BinaryTree type="DecisionTree" boostWeight="1.0000000000000000e+00" itree="1128">
      <Node pos="s" depth="0" NCoef="0" IVar="7" Cut="8.6902004480361938e-01" cType="1" res="1.2389594921842217e-03" rms="4.5109984278678894e-01" purity="5.0187236070632935e-01" nType="0">
        <Node pos="l" depth="1" NCoef="0" IVar="5" Cut="1.8066175980493426e-03" cType="1" res="4.0476419962942600e-03" rms="4.5241427421569824e-01" purity="4.9676969647407532e-01" nType="0">
          <Node pos="l" depth="2" NCoef="0" IVar="-1" Cut="0.0000000000000000e+00" cType="1" res="7.1768841007724404e-04" rms="4.5006254315376282e-01" purity="5.5769258737564087e-01" nType="-99"/>
          <Node pos="r" depth="2" NCoef="0" IVar="-1" Cut="0.0000000000000000e+00" cType="1" res="-4.4532501487992704e-04" rms="4.5620733499526978e-01" purity="3.9318746328353882e-01" nType="-99"/>
        </Node>
        <Node pos="r" depth="1" NCoef="0" IVar="-1" Cut="0.0000000000000000e+00" cType="1" res="-1.8822557758539915e-03" rms="4.3729034066200256e-01" purity="5.5110180377960205e-01" nType="-99"/>
      </Node>
    </BinaryTree>
    <BinaryTree type="DecisionTree" boostWeight="1.0000000000000000e+00" itree="1129">
      <Node pos="s" depth="0" NCoef="0" IVar="0" Cut="1.0344543457031250e+00" cType="1" res="4.9198319902643561e-04" rms="4.4922631978988647e-01" purity="5.0068861246109009e-01" nType="0">
        <Node pos="l" depth="1" NCoef="0" IVar="4" Cut="3.1277728080749512e-01" cType="1" res="-1.3605183921754360e-02" rms="4.4524616003036499e-01" purity="3.3687710762023926e-01" nType="0">
          <Node pos="l" depth="2" NCoef="0" IVar="-1" Cut="0.0000000000000000e+00" cType="1" res="-3.1503878999501467e-03" rms="4.3028345704078674e-01" purity="2.9614192247390747e-01" nType="-99"/>
          <Node pos="r" depth="2" NCoef="0" IVar="-1" Cut="0.0000000000000000e+00" cType="1" res="-1.9846722716465592e-04" rms="4.5252954959869385e-01" purity="3.5833197832107544e-01" nType="-99"/>
        </Node>
        <Node pos="r" depth="1" NCoef="0" IVar="5" Cut="2.6603969745337963e-03" cType="1" res="7.5292158871889114e-03" rms="4.5103523135185242e-01" purity="5.8246248960494995e-01" nType="0">
          <Node pos="l" depth="2" NCoef="0" IVar="-1" Cut="0.0000000000000000e+00" cType="1" res="1.9718302064575255e-04" rms="4.4798827171325684e-01" purity="5.9502297639846802e-01" nType="-99"/>
          <Node pos="r" depth="2" NCoef="0" IVar="-1" Cut="0.0000000000000000e+00" cType="1" res="2.2048044484108686e-03" rms="4.6793982386589050e-01" purity="5.0704342126846313e-01" nType="-99"/>
        </Node>
      </Node>
    </BinaryTree>
    <BinaryTree type="DecisionTree" boostWeight="1.0000000000000000e+00" itree="1130">
      <Node pos="s" depth="0" NCoef="0" IVar="6" Cut="2.0037205219268799e+00" cType="1" res="-9.1660633916035295e-04" rms="4.5099243521690369e-01" purity="4.9834051728248596e-01" nType="0">
        <Node pos="l" depth="1" NCoef="0" IVar="2" Cut="2.7611059570312500e+02" cType="1" res="8.5561338346451521e-04" rms="4.5307812094688416e-01" purity="5.0574296712875366e-01" nType="0">
          <Node pos="l" depth="2" NCoef="0" IVar="-1" Cut="0.0000000000000000e+00" cType="1" res="1.0619801469147205e-03" rms="4.4659274816513062e-01" purity="3.8028243184089661e-01" nType="-99"/>
          <Node pos="r" depth="2" NCoef="0" IVar="-1" Cut="0.0000000000000000e+00" cType="1" res="-4.1490184958092868e-04" rms="4.5660108327865601e-01" purity="5.7752305269241333e-01" nType="-99"/>
        </Node>
        <Node pos="r" depth="1" NCoef="0" IVar="-1" Cut="0.0000000000000000e+00" cType="1" res="-2.5779788848012686e-03" rms="4.1310402750968933e-01" purity="3.7352702021598816e-01" nType="-99"/>
      </Node>
    </BinaryTree>
    <BinaryTree type="DecisionTree" boostWeight="1.0000000000000000e+00" itree="1131">
      <Node pos="s" depth="0" NCoef="0" IVar="7" Cut="8.3086460828781128e-01" cType="1" res="-3.0125933699309826e-03" rms="4.5020407438278198e-01" purity="4.9740794301033020e-01" nType="0">
        <Node pos="l" depth="1" NCoef="0" IVar="4" Cut="5.2115744352340698e-01" cType="1" res="-6.9188196212053299e-03" rms="4.5276996493339539e-01" purity="4.7927293181419373e-01" nType="0">
          <Node pos="l" depth="2" NCoef="0" IVar="-1" Cut="0.0000000000000000e+00" cType="1" res="-1.2266733392607421e-04" rms="4.5298007130622864e-01" purity="4.7135224938392639e-01" nType="-99"/>
          <Node pos="r" depth="2" NCoef="0" IVar="-1" Cut="0.0000000000000000e+00" cType="1" res="-1.6174500342458487e-03" rms="4.5182031393051147e-01" purity="5.0217485427856445e-01" nType="-99"/>
        </Node>
        <Node pos="r" depth="1" NCoef="0" IVar="1" Cut="9.1706752777099609e-01" cType="1" res="1.7089365050196648e-02" rms="4.3620848655700684e-01" purity="5.9073323011398315e-01" nType="0">
          <Node pos="l" depth="2" NCoef="0" IVar="-1" Cut="0.0000000000000000e+00" cType="1" res="3.2409309642389417e-04" rms="4.6442630887031555e-01" purity="4.7151973843574524e-01" nType="-99"/>
          <Node pos="r" depth="2" NCoef="0" IVar="-1" Cut="0.0000000000000000e+00" cType="1" res="2.4848885368555784e-03" rms="3.9362356066703796e-01" purity="7.5415945053100586e-01" nType="-99"/>
        </Node>
      </Node>
    </BinaryTree>
    <BinaryTree type="DecisionTree" boostWeight="1.0000000000000000e+00" itree="1132">
      <Node pos="s" depth="0" NCoef="0" IVar="7" Cut="8.2622790336608887e-01" cType="1" res="-4.7286143526434898e-03" rms="4.4665175676345825e-01" purity="4.9766239523887634e-01" nType="0">
        <Node pos="l" depth="1" NCoef="0" IVar="0" Cut="7.6872184872627258e-02" cType="1" res="-9.1619882732629776e-03" rms="4.4785359501838684e-01" purity="4.7760555148124695e-01" nType="0">
          <Node pos="l" depth="2" NCoef="0" IVar="-1" Cut="0.0000000000000000e+00" cType="1" res="1.4550177147611976e-03" rms="4.3357551097869873e-01" purity="3.0243951082229614e-01" nType="-99"/>
          <Node pos="r" depth="2" NCoef="0" IVar="-1" Cut="0.0000000000000000e+00" cType="1" res="-8.6810783250257373e-04" rms="4.4944983720779419e-01" purity="4.9866631627082825e-01" nType="-99"/>
        </Node>
        <Node pos="r" depth="1" NCoef="0" IVar="6" Cut="1.2911916971206665e+00" cType="1" res="1.6845311969518661e-02" rms="4.4011953473091125e-01" purity="5.9526437520980835e-01" nType="0">
          <Node pos="l" depth="2" NCoef="0" IVar="-1" Cut="0.0000000000000000e+00" cType="1" res="1.5812150377314538e-04" rms="4.4483116269111633e-01" purity="5.9448963403701782e-01" nType="-99"/>
          <Node pos="r" depth="2" NCoef="0" IVar="-1" Cut="0.0000000000000000e+00" cType="1" res="3.1160456128418446e-03" rms="4.2975056171417236e-01" purity="5.9672552347183228e-01" nType="-99"/>
        </Node>
      </Node>
    </BinaryTree>
    <BinaryTree type="DecisionTree" boostWeight="1.0000000000000000e+00" itree="1133">
      <Node pos="s" depth="0" NCoef="0" IVar="2" Cut="3.6666488647460938e+02" cType="1" res="1.2528279330581427e-04" rms="4.4794663786888123e-01" purity="5.0311595201492310e-01" nType="0">
        <Node pos="l" depth="1" NCoef="0" IVar="6" Cut="1.0255099534988403e+00" cType="1" res="-5.1514692604541779e-03" rms="4.4740825891494751e-01" purity="4.3804016709327698e-01" nType="0">
          <Node pos="l" depth="2" NCoef="0" IVar="-1" Cut="0.0000000000000000e+00" cType="1" res="7.9662195639684796e-04" rms="4.5621287822723389e-01" purity="4.9377220869064331e-01" nType="-99"/>
          <Node pos="r" depth="2" NCoef="0" IVar="-1" Cut="0.0000000000000000e+00" cType="1" res="-9.8863092716783285e-04" rms="4.4307872653007507e-01" purity="4.1230162978172302e-01" nType="-99"/>
        </Node>
        <Node pos="r" depth="1" NCoef="0" IVar="6" Cut="1.3627104759216309e+00" cType="1" res="1.1698304675519466e-02" rms="4.4890800118446350e-01" purity="6.4584082365036011e-01" nType="0">
          <Node pos="l" depth="2" NCoef="0" IVar="-1" Cut="0.0000000000000000e+00" cType="1" res="1.7029333685059100e-04" rms="4.5265144109725952e-01" purity="6.3837134838104248e-01" nType="-99"/>
          <Node pos="r" depth="2" NCoef="0" IVar="-1" Cut="0.0000000000000000e+00" cType="1" res="3.0015655793249607e-03" rms="4.3325766921043396e-01" purity="6.7321413755416870e-01" nType="-99"/>
        </Node>
      </Node>
    </BinaryTree>
    <BinaryTree type="DecisionTree" boostWeight="1.0000000000000000e+00" itree="1134">
      <Node pos="s" depth="0" NCoef="0" IVar="0" Cut="1.6554640531539917e+00" cType="1" res="4.5662838965654373e-03" rms="4.4785079360008240e-01" purity="5.0716269016265869e-01" nType="0">
        <Node pos="l" depth="1" NCoef="0" IVar="3" Cut="1.8767103552818298e-02" cType="1" res="-2.4755937047302723e-03" rms="4.5380806922912598e-01" purity="3.8158434629440308e-01" nType="0">
          <Node pos="l" depth="2" NCoef="0" IVar="-1" Cut="0.0000000000000000e+00" cType="1" res="4.7841592459008098e-04" rms="4.4664466381072998e-01" purity="3.6933395266532898e-01" nType="-99"/>
          <Node pos="r" depth="2" NCoef="0" IVar="-1" Cut="0.0000000000000000e+00" cType="1" res="-9.1300363419577479e-04" rms="4.6180793642997742e-01" purity="3.9582839608192444e-01" nType="-99"/>
        </Node>
        <Node pos="r" depth="1" NCoef="0" IVar="5" Cut="5.1322841318324208e-04" cType="1" res="1.1679866351187229e-02" rms="4.4163730740547180e-01" purity="6.3401967287063599e-01" nType="0">
          <Node pos="l" depth="2" NCoef="0" IVar="-1" Cut="0.0000000000000000e+00" cType="1" res="-1.8444616216584109e-05" rms="4.1527441143989563e-01" purity="7.1519911289215088e-01" nType="-99"/>
          <Node pos="r" depth="2" NCoef="0" IVar="-1" Cut="0.0000000000000000e+00" cType="1" res="1.3104713289067149e-03" rms="4.6112132072448730e-01" purity="5.7009273767471313e-01" nType="-99"/>
        </Node>
      </Node>
    </BinaryTree>
    <BinaryTree type="DecisionTree" boostWeight="1.0000000000000000e+00" itree="1135">
      <Node pos="s" depth="0" NCoef="0" IVar="1" Cut="8.7921476364135742e-01" cType="1" res="-1.4409661525860429e-03" rms="4.4717621803283691e-01" purity="5.0000280141830444e-01" nType="0">
        <Node pos="l" depth="1" NCoef="0" IVar="0" Cut="1.3254071474075317e+00" cType="1" res="-1.4150883071124554e-02" rms="4.4887650012969971e-01" purity="3.5495871305465698e-01" nType="0">
          <Node pos="l" depth="2" NCoef="0" IVar="-1" Cut="0.0000000000000000e+00" cType="1" res="-3.3310614526271820e-05" rms="4.4024538993835449e-01" purity="3.1661626696586609e-01" nType="-99"/>
          <Node pos="r" depth="2" NCoef="0" IVar="-1" Cut="0.0000000000000000e+00" cType="1" res="-2.6969453319907188e-03" rms="4.6390661597251892e-01" purity="4.2883867025375366e-01" nType="-99"/>
        </Node>
        <Node pos="r" depth="1" NCoef="0" IVar="3" Cut="2.7752166613936424e-02" cType="1" res="4.2949100024998188e-03" rms="4.4628825783729553e-01" purity="5.6545990705490112e-01" nType="0">
          <Node pos="l" depth="2" NCoef="0" IVar="-1" Cut="0.0000000000000000e+00" cType="1" res="-3.6127874045632780e-04" rms="4.4219461083412170e-01" purity="5.3073722124099731e-01" nType="-99"/>
          <Node pos="r" depth="2" NCoef="0" IVar="-1" Cut="0.0000000000000000e+00" cType="1" res="1.0234620422124863e-03" rms="4.5079115033149719e-01" purity="6.0607808828353882e-01" nType="-99"/>
        </Node>
      </Node>
    </BinaryTree>
    <BinaryTree type="DecisionTree" boostWeight="1.0000000000000000e+00" itree="1136">
      <Node pos="s" depth="0" NCoef="0" IVar="0" Cut="-2.4064704775810242e-01" cType="1" res="2.4131073150783777e-03" rms="4.5031949877738953e-01" purity="5.0331771373748779e-01" nType="0">
        <Node pos="l" depth="1" NCoef="0" IVar="-1" Cut="0.0000000000000000e+00" cType="1" res="-3.5675021354109049e-03" rms="4.1252455115318298e-01" purity="2.6571375131607056e-01" nType="-99"/>
        <Node pos="r" depth="1" NCoef="0" IVar="0" Cut="3.4696048498153687e-01" cType="1" res="4.6399361453950405e-03" rms="4.5224714279174805e-01" purity="5.1667284965515137e-01" nType="0">
          <Node pos="l" depth="2" NCoef="0" IVar="-1" Cut="0.0000000000000000e+00" cType="1" res="2.3694562260061502e-03" rms="4.4737157225608826e-01" purity="3.4448996186256409e-01" nType="-99"/>
          <Node pos="r" depth="2" NCoef="0" IVar="-1" Cut="0.0000000000000000e+00" cType="1" res="1.0720403952291235e-04" rms="4.5282807946205139e-01" purity="5.4042768478393555e-01" nType="-99"/>
        </Node>
      </Node>
    </BinaryTree>
    <BinaryTree type="DecisionTree" boostWeight="1.0000000000000000e+00" itree="1137">
      <Node pos="s" depth="0" NCoef="0" IVar="7" Cut="8.4831458330154419e-01" cType="1" res="-2.9199442360550165e-03" rms="4.4840919971466064e-01" purity="4.9578112363815308e-01" nType="0">
        <Node pos="l" depth="1" NCoef="0" IVar="2" Cut="3.6666488647460938e+02" cType="1" res="-5.0480258651077747e-03" rms="4.5011851191520691e-01" purity="4.8203402757644653e-01" nType="0">
          <Node pos="l" depth="2" NCoef="0" IVar="-1" Cut="0.0000000000000000e+00" cType="1" res="-1.5581003026454709e-05" rms="4.4788599014282227e-01" purity="4.3097779154777527e-01" nType="-99"/>
          <Node pos="r" depth="2" NCoef="0" IVar="-1" Cut="0.0000000000000000e+00" cType="1" res="-1.1350137647241354e-03" rms="4.5518630743026733e-01" purity="6.0368710756301880e-01" nType="-99"/>
        </Node>
        <Node pos="r" depth="1" NCoef="0" IVar="3" Cut="-7.5540408492088318e-02" cType="1" res="1.0637357831001282e-02" rms="4.3711966276168823e-01" purity="5.8335918188095093e-01" nType="0">
          <Node pos="l" depth="2" NCoef="0" IVar="-1" Cut="0.0000000000000000e+00" cType="1" res="2.0263991318643093e-03" rms="4.3790808320045471e-01" purity="6.1801147460937500e-01" nType="-99"/>
          <Node pos="r" depth="2" NCoef="0" IVar="-1" Cut="0.0000000000000000e+00" cType="1" res="-5.1824451657012105e-04" rms="4.3561139702796936e-01" purity="5.4963892698287964e-01" nType="-99"/>
        </Node>
      </Node>
    </BinaryTree>
    <BinaryTree type="DecisionTree" boostWeight="1.0000000000000000e+00" itree="1138">
      <Node pos="s" depth="0" NCoef="0" IVar="3" Cut="-1.6723675653338432e-02" cType="1" res="-4.7476950567215681e-04" rms="4.5074361562728882e-01" purity="4.9647822976112366e-01" nType="0">
        <Node pos="l" depth="1" NCoef="0" IVar="4" Cut="5.4725641012191772e-01" cType="1" res="8.9631592854857445e-03" rms="4.4813984632492065e-01" purity="4.7634011507034302e-01" nType="0">
          <Node pos="l" depth="2" NCoef="0" IVar="-1" Cut="0.0000000000000000e+00" cType="1" res="-4.6536347326764371e-06" rms="4.4744175672531128e-01" purity="4.5774161815643311e-01" nType="-99"/>
          <Node pos="r" depth="2" NCoef="0" IVar="-1" Cut="0.0000000000000000e+00" cType="1" res="2.6020733639597893e-03" rms="4.4913935661315918e-01" purity="5.3164798021316528e-01" nType="-99"/>
        </Node>
        <Node pos="r" depth="1" NCoef="0" IVar="4" Cut="2.7074587345123291e-01" cType="1" res="-7.5818342156708241e-03" rms="4.5256456732749939e-01" purity="5.1164287328720093e-01" nType="0">
          <Node pos="l" depth="2" NCoef="0" IVar="-1" Cut="0.0000000000000000e+00" cType="1" res="1.1331051355227828e-03" rms="4.5804974436759949e-01" purity="5.0816357135772705e-01" nType="-99"/>
          <Node pos="r" depth="2" NCoef="0" IVar="-1" Cut="0.0000000000000000e+00" cType="1" res="-1.3528139097616076e-03" rms="4.4956558942794800e-01" purity="5.1325803995132446e-01" nType="-99"/>
        </Node>
      </Node>
    </BinaryTree>
    <BinaryTree type="DecisionTree" boostWeight="1.0000000000000000e+00" itree="1139">
      <Node pos="s" depth="0" NCoef="0" IVar="6" Cut="8.4616029262542725e-01" cType="1" res="-1.5689753927290440e-03" rms="4.4862657785415649e-01" purity="4.9700477719306946e-01" nType="0">
        <Node pos="l" depth="1" NCoef="0" IVar="2" Cut="3.4827755737304688e+02" cType="1" res="1.9060332328081131e-02" rms="4.4806593656539917e-01" purity="5.8581960201263428e-01" nType="0">
          <Node pos="l" depth="2" NCoef="0" IVar="-1" Cut="0.0000000000000000e+00" cType="1" res="2.7558631263673306e-03" rms="4.5024529099464417e-01" purity="5.2881228923797607e-01" nType="-99"/>
          <Node pos="r" depth="2" NCoef="0" IVar="-1" Cut="0.0000000000000000e+00" cType="1" res="-1.1613804963417351e-04" rms="4.4494161009788513e-01" purity="6.4170783758163452e-01" nType="-99"/>
        </Node>
        <Node pos="r" depth="1" NCoef="0" IVar="6" Cut="1.9329211711883545e+00" cType="1" res="-8.0609405413269997e-03" rms="4.4860666990280151e-01" purity="4.6905511617660522e-01" nType="0">
          <Node pos="l" depth="2" NCoef="0" IVar="-1" Cut="0.0000000000000000e+00" cType="1" res="-8.7296450510621071e-04" rms="4.4953614473342896e-01" purity="4.7172909975051880e-01" nType="-99"/>
          <Node pos="r" depth="2" NCoef="0" IVar="-1" Cut="0.0000000000000000e+00" cType="1" res="2.0625789184123278e-03" rms="4.3856430053710938e-01" purity="4.4464999437332153e-01" nType="-99"/>
        </Node>
      </Node>
    </BinaryTree>
    <BinaryTree type="DecisionTree" boostWeight="1.0000000000000000e+00" itree="1140">
      <Node pos="s" depth="0" NCoef="0" IVar="7" Cut="8.6700540781021118e-01" cType="1" res="1.2968670343980193e-03" rms="4.4883963465690613e-01" purity="4.9943688511848450e-01" nType="0">
        <Node pos="l" depth="1" NCoef="0" IVar="3" Cut="-2.0730078220367432e-02" cType="1" res="4.1747489012777805e-03" rms="4.5042997598648071e-01" purity="4.9356737732887268e-01" nType="0">
          <Node pos="l" depth="2" NCoef="0" IVar="-1" Cut="0.0000000000000000e+00" cType="1" res="1.0658012470230460e-03" rms="4.4766879081726074e-01" purity="4.5460870862007141e-01" nType="-99"/>
          <Node pos="r" depth="2" NCoef="0" IVar="-1" Cut="0.0000000000000000e+00" cType="1" res="-1.1764094961108640e-04" rms="4.5194387435913086e-01" purity="5.1647394895553589e-01" nType="-99"/>
        </Node>
        <Node pos="r" depth="1" NCoef="0" IVar="-1" Cut="0.0000000000000000e+00" cType="1" res="-1.8152334960177541e-03" rms="4.3316102027893066e-01" purity="5.5304569005966187e-01" nType="-99"/>
      </Node>
    </BinaryTree>
    <BinaryTree type="DecisionTree" boostWeight="1.0000000000000000e+00" itree="1141">
      <Node pos="s" depth="0" NCoef="0" IVar="7" Cut="7.3114037513732910e-01" cType="1" res="2.7706183027476072e-03" rms="4.4865840673446655e-01" purity="5.0592088699340820e-01" nType="0">
        <Node pos="l" depth="1" NCoef="0" IVar="6" Cut="7.0915174484252930e-01" cType="1" res="-4.3362244032323360e-03" rms="4.5173436403274536e-01" purity="4.6679419279098511e-01" nType="0">
          <Node pos="l" depth="2" NCoef="0" IVar="-1" Cut="0.0000000000000000e+00" cType="1" res="-2.0419179927557707e-03" rms="4.5856356620788574e-01" purity="5.2501970529556274e-01" nType="-99"/>
          <Node pos="r" depth="2" NCoef="0" IVar="-1" Cut="0.0000000000000000e+00" cType="1" res="-7.2059563535731286e-05" rms="4.5068216323852539e-01" purity="4.5877560973167419e-01" nType="-99"/>
        </Node>
        <Node pos="r" depth="1" NCoef="0" IVar="2" Cut="2.6377569580078125e+02" cType="1" res="1.5767617151141167e-02" rms="4.4268277287483215e-01" purity="5.7747578620910645e-01" nType="0">
          <Node pos="l" depth="2" NCoef="0" IVar="-1" Cut="0.0000000000000000e+00" cType="1" res="-1.1683481279760599e-03" rms="4.3870544433593750e-01" purity="3.6408886313438416e-01" nType="-99"/>
          <Node pos="r" depth="2" NCoef="0" IVar="-1" Cut="0.0000000000000000e+00" cType="1" res="1.7364446539431810e-03" rms="4.4356709718704224e-01" purity="6.5028154850006104e-01" nType="-99"/>
        </Node>
      </Node>
    </BinaryTree>
    <BinaryTree type="DecisionTree" boostWeight="1.0000000000000000e+00" itree="1142">
      <Node pos="s" depth="0" NCoef="0" IVar="6" Cut="6.2906283140182495e-01" cType="1" res="1.0553749278187752e-02" rms="4.4912514090538025e-01" purity="5.1062226295471191e-01" nType="0">
        <Node pos="l" depth="1" NCoef="0" IVar="-1" Cut="0.0000000000000000e+00" cType="1" res="-1.7020222730934620e-03" rms="4.4575035572052002e-01" purity="5.7137215137481689e-01" nType="-99"/>
        <Node pos="r" depth="1" NCoef="0" IVar="7" Cut="6.5447312593460083e-01" cType="1" res="1.3404645957052708e-02" rms="4.4928574562072754e-01" purity="5.0558459758758545e-01" nType="0">
          <Node pos="l" depth="2" NCoef="0" IVar="-1" Cut="0.0000000000000000e+00" cType="1" res="3.7716267979703844e-04" rms="4.4970130920410156e-01" purity="4.5091980695724487e-01" nType="-99"/>
          <Node pos="r" depth="2" NCoef="0" IVar="-1" Cut="0.0000000000000000e+00" cType="1" res="1.5338544035330415e-03" rms="4.4868364930152893e-01" purity="5.6270366907119751e-01" nType="-99"/>
        </Node>
      </Node>
    </BinaryTree>
    <BinaryTree type="DecisionTree" boostWeight="1.0000000000000000e+00" itree="1143">
      <Node pos="s" depth="0" NCoef="0" IVar="7" Cut="4.3880620598793030e-01" cType="1" res="1.7260410822927952e-03" rms="4.4874960184097290e-01" purity="5.0319629907608032e-01" nType="0">
        <Node pos="l" depth="1" NCoef="0" IVar="6" Cut="1.1494008302688599e+00" cType="1" res="-1.8690591678023338e-02" rms="4.4206520915031433e-01" purity="4.2448887228965759e-01" nType="0">
          <Node pos="l" depth="2" NCoef="0" IVar="-1" Cut="0.0000000000000000e+00" cType="1" res="-2.5884439237415791e-03" rms="4.4882977008819580e-01" purity="4.7189861536026001e-01" nType="-99"/>
          <Node pos="r" depth="2" NCoef="0" IVar="-1" Cut="0.0000000000000000e+00" cType="1" res="-3.6243733484297991e-04" rms="4.3580585718154907e-01" purity="3.8474979996681213e-01" nType="-99"/>
        </Node>
        <Node pos="r" depth="1" NCoef="0" IVar="6" Cut="1.9152128696441650e+00" cType="1" res="5.0438609905540943e-03" rms="4.4973891973495483e-01" purity="5.1598668098449707e-01" nType="0">
          <Node pos="l" depth="2" NCoef="0" IVar="-1" Cut="0.0000000000000000e+00" cType="1" res="2.0666191994678229e-04" rms="4.5081391930580139e-01" purity="5.1942610740661621e-01" nType="-99"/>
          <Node pos="r" depth="2" NCoef="0" IVar="-1" Cut="0.0000000000000000e+00" cType="1" res="2.5784838944673538e-03" rms="4.3452599644660950e-01" purity="4.7120398283004761e-01" nType="-99"/>
        </Node>
      </Node>
    </BinaryTree>
    <BinaryTree type="DecisionTree" boostWeight="1.0000000000000000e+00" itree="1144">
      <Node pos="s" depth="0" NCoef="0" IVar="5" Cut="1.9356565317139030e-03" cType="1" res="-1.4605624601244926e-03" rms="4.5076569914817810e-01" purity="4.9684509634971619e-01" nType="0">
        <Node pos="l" depth="1" NCoef="0" IVar="6" Cut="1.5420863628387451e+00" cType="1" res="-6.8313879892230034e-03" rms="4.4708105921745300e-01" purity="5.4196399450302124e-01" nType="0">
          <Node pos="l" depth="2" NCoef="0" IVar="-1" Cut="0.0000000000000000e+00" cType="1" res="-8.6512760026380420e-04" rms="4.4848987460136414e-01" purity="5.5816966295242310e-01" nType="-99"/>
          <Node pos="r" depth="2" NCoef="0" IVar="-1" Cut="0.0000000000000000e+00" cType="1" res="9.5053017139434814e-04" rms="4.4129991531372070e-01" purity="4.8197320103645325e-01" nType="-99"/>
        </Node>
        <Node pos="r" depth="1" NCoef="0" IVar="3" Cut="1.6023422777652740e-01" cType="1" res="9.0350164100527763e-03" rms="4.5769873261451721e-01" purity="4.0867441892623901e-01" nType="0">
          <Node pos="l" depth="2" NCoef="0" IVar="-1" Cut="0.0000000000000000e+00" cType="1" res="2.5466465740464628e-04" rms="4.5464926958084106e-01" purity="3.9062857627868652e-01" nType="-99"/>
          <Node pos="r" depth="2" NCoef="0" IVar="-1" Cut="0.0000000000000000e+00" cType="1" res="2.2310551721602678e-03" rms="4.7066691517829895e-01" purity="4.9209779500961304e-01" nType="-99"/>
        </Node>
      </Node>
    </BinaryTree>
    <BinaryTree type="DecisionTree" boostWeight="1.0000000000000000e+00" itree="1145">
      <Node pos="s" depth="0" NCoef="0" IVar="2" Cut="2.0004200744628906e+02" cType="1" res="3.3276190515607595e-03" rms="4.5071145892143250e-01" purity="5.0064390897750854e-01" nType="0">
        <Node pos="l" depth="1" NCoef="0" IVar="-1" Cut="0.0000000000000000e+00" cType="1" res="2.9329196549952030e-03" rms="4.1590568423271179e-01" purity="2.9569700360298157e-01" nType="-99"/>
        <Node pos="r" depth="1" NCoef="0" IVar="6" Cut="1.0599809885025024e+00" cType="1" res="1.4194936957210302e-03" rms="4.5309558510780334e-01" purity="5.1564753055572510e-01" nType="0">
          <Node pos="l" depth="2" NCoef="0" IVar="-1" Cut="0.0000000000000000e+00" cType="1" res="-4.5518475235439837e-04" rms="4.5737037062644958e-01" purity="5.5487680435180664e-01" nType="-99"/>
          <Node pos="r" depth="2" NCoef="0" IVar="-1" Cut="0.0000000000000000e+00" cType="1" res="5.2173930453136563e-04" rms="4.4993340969085693e-01" purity="4.8765957355499268e-01" nType="-99"/>
        </Node>
      </Node>
    </BinaryTree>
    <BinaryTree type="DecisionTree" boostWeight="1.0000000000000000e+00" itree="1146">
      <Node pos="s" depth="0" NCoef="0" IVar="7" Cut="8.9034974575042725e-01" cType="1" res="4.4909552671015263e-03" rms="4.5015460252761841e-01" purity="5.0624376535415649e-01" nType="0">
        <Node pos="l" depth="1" NCoef="0" IVar="0" Cut="9.4141566753387451e-01" cType="1" res="1.7907960573211312e-03" rms="4.5169800519943237e-01" purity="4.9681696295738220e-01" nType="0">
          <Node pos="l" depth="2" NCoef="0" IVar="-1" Cut="0.0000000000000000e+00" cType="1" res="-7.1075861342251301e-04" rms="4.4396191835403442e-01" purity="3.3233299851417542e-01" nType="-99"/>
          <Node pos="r" depth="2" NCoef="0" IVar="-1" Cut="0.0000000000000000e+00" cType="1" res="4.4145210995338857e-04" rms="4.5516073703765869e-01" purity="5.7302045822143555e-01" nType="-99"/>
        </Node>
        <Node pos="r" depth="1" NCoef="0" IVar="-1" Cut="0.0000000000000000e+00" cType="1" res="2.6702650357037783e-03" rms="4.2865926027297974e-01" purity="6.2563329935073853e-01" nType="-99"/>
      </Node>
    </BinaryTree>
    <BinaryTree type="DecisionTree" boostWeight="1.0000000000000000e+00" itree="1147">
      <Node pos="s" depth="0" NCoef="0" IVar="6" Cut="1.5584672689437866e+00" cType="1" res="-6.2110568396747112e-03" rms="4.4837778806686401e-01" purity="4.9394029378890991e-01" nType="0">
        <Node pos="l" depth="1" NCoef="0" IVar="3" Cut="6.5364718437194824e-02" cType="1" res="-1.1132268235087395e-02" rms="4.5171684026718140e-01" purity="5.1099479198455811e-01" nType="0">
          <Node pos="l" depth="2" NCoef="0" IVar="-1" Cut="0.0000000000000000e+00" cType="1" res="-2.2984792303759605e-04" rms="4.4789442420005798e-01" purity="5.0308156013488770e-01" nType="-99"/>
          <Node pos="r" depth="2" NCoef="0" IVar="-1" Cut="0.0000000000000000e+00" cType="1" res="-1.8133057747036219e-03" rms="4.5839068293571472e-01" purity="5.2575170993804932e-01" nType="-99"/>
        </Node>
        <Node pos="r" depth="1" NCoef="0" IVar="6" Cut="1.7959250211715698e+00" cType="1" res="1.1765140108764172e-02" rms="4.3549129366874695e-01" purity="4.3164381384849548e-01" nType="0">
          <Node pos="l" depth="2" NCoef="0" IVar="-1" Cut="0.0000000000000000e+00" cType="1" res="2.3944815620779991e-03" rms="4.3959417939186096e-01" purity="4.5549821853637695e-01" nType="-99"/>
          <Node pos="r" depth="2" NCoef="0" IVar="-1" Cut="0.0000000000000000e+00" cType="1" res="-5.1488820463418961e-04" rms="4.3086570501327515e-01" purity="4.0951630473136902e-01" nType="-99"/>
        </Node>
      </Node>
    </BinaryTree>
    <BinaryTree type="DecisionTree" boostWeight="1.0000000000000000e+00" itree="1148">
      <Node pos="s" depth="0" NCoef="0" IVar="0" Cut="-2.0122576504945755e-02" cType="1" res="-2.9658155981451273e-03" rms="4.5059123635292053e-01" purity="4.9591520428657532e-01" nType="0">
        <Node pos="l" depth="1" NCoef="0" IVar="-1" Cut="0.0000000000000000e+00" cType="1" res="2.0329963881522417e-03" rms="4.3990203738212585e-01" purity="3.2376644015312195e-01" nType="-99"/>
        <Node pos="r" depth="1" NCoef="0" IVar="0" Cut="4.2221107482910156e+00" cType="1" res="-5.6298109702765942e-03" rms="4.5160725712776184e-01" purity="5.1385372877120972e-01" nType="0">
          <Node pos="l" depth="2" NCoef="0" IVar="-1" Cut="0.0000000000000000e+00" cType="1" res="-5.4603430908173323e-04" rms="4.5760944485664368e-01" purity="4.8262077569961548e-01" nType="-99"/>
          <Node pos="r" depth="2" NCoef="0" IVar="-1" Cut="0.0000000000000000e+00" cType="1" res="9.5993810100480914e-04" rms="3.9485731720924377e-01" purity="7.8666591644287109e-01" nType="-99"/>
        </Node>
      </Node>
    </BinaryTree>
    <BinaryTree type="DecisionTree" boostWeight="1.0000000000000000e+00" itree="1149">
      <Node pos="s" depth="0" NCoef="0" IVar="1" Cut="9.2525172233581543e-01" cType="1" res="-2.1339789964258671e-03" rms="4.4859436154365540e-01" purity="4.9847164750099182e-01" nType="0">
        <Node pos="l" depth="1" NCoef="0" IVar="6" Cut="1.0242370367050171e+00" cType="1" res="-7.9923933371901512e-03" rms="4.5426538586616516e-01" purity="4.0890428423881531e-01" nType="0">
          <Node pos="l" depth="2" NCoef="0" IVar="-1" Cut="0.0000000000000000e+00" cType="1" res="-1.3864055508747697e-03" rms="4.6148440241813660e-01" purity="4.5123496651649475e-01" nType="-99"/>
          <Node pos="r" depth="2" NCoef="0" IVar="-1" Cut="0.0000000000000000e+00" cType="1" res="-6.3064151618164033e-05" rms="4.4970652461051941e-01" purity="3.8339117169380188e-01" nType="-99"/>
        </Node>
        <Node pos="r" depth="1" NCoef="0" IVar="2" Cut="2.3403852844238281e+02" cType="1" res="9.3620652332901955e-03" rms="4.3702411651611328e-01" purity="6.7423099279403687e-01" nType="0">
          <Node pos="l" depth="2" NCoef="0" IVar="-1" Cut="0.0000000000000000e+00" cType="1" res="2.9958791565150023e-03" rms="4.7399023175239563e-01" purity="5.1778554916381836e-01" nType="-99"/>
          <Node pos="r" depth="2" NCoef="0" IVar="-1" Cut="0.0000000000000000e+00" cType="1" res="1.9094115123152733e-04" rms="4.2912286520004272e-01" purity="7.0475071668624878e-01" nType="-99"/>
        </Node>
      </Node>
    </BinaryTree>
    <BinaryTree type="DecisionTree" boostWeight="1.0000000000000000e+00" itree="1150">
      <Node pos="s" depth="0" NCoef="0" IVar="2" Cut="2.0004200744628906e+02" cType="1" res="6.9867330603301525e-04" rms="4.4789576530456543e-01" purity="4.9846881628036499e-01" nType="0">
        <Node pos="l" depth="1" NCoef="0" IVar="-1" Cut="0.0000000000000000e+00" cType="1" res="-4.6928534284234047e-03" rms="3.8417696952819824e-01" purity="2.1597440540790558e-01" nType="-99"/>
        <Node pos="r" depth="1" NCoef="0" IVar="0" Cut="8.3390372991561890e-01" cType="1" res="3.7498974706977606e-03" rms="4.5177525281906128e-01" purity="5.1783865690231323e-01" nType="0">
          <Node pos="l" depth="2" NCoef="0" IVar="-1" Cut="0.0000000000000000e+00" cType="1" res="1.2599673354998231e-03" rms="4.5331275463104248e-01" purity="3.7173265218734741e-01" nType="-99"/>
          <Node pos="r" depth="2" NCoef="0" IVar="-1" Cut="0.0000000000000000e+00" cType="1" res="-7.8733537520747632e-05" rms="4.5104944705963135e-01" purity="5.7793873548507690e-01" nType="-99"/>
        </Node>
      </Node>
    </BinaryTree>
    <BinaryTree type="DecisionTree" boostWeight="1.0000000000000000e+00" itree="1151">
      <Node pos="s" depth="0" NCoef="0" IVar="4" Cut="1.7846545577049255e-01" cType="1" res="-1.5947083011269569e-03" rms="4.4877058267593384e-01" purity="4.9904093146324158e-01" nType="0">
        <Node pos="l" depth="1" NCoef="0" IVar="2" Cut="3.2288955688476562e+02" cType="1" res="2.3406479507684708e-02" rms="4.5868727564811707e-01" purity="4.7829437255859375e-01" nType="0">
          <Node pos="l" depth="2" NCoef="0" IVar="-1" Cut="0.0000000000000000e+00" cType="1" res="4.5261667110025883e-03" rms="4.5932331681251526e-01" purity="4.0821909904479980e-01" nType="-99"/>
          <Node pos="r" depth="2" NCoef="0" IVar="-1" Cut="0.0000000000000000e+00" cType="1" res="-2.7395055440138094e-05" rms="4.5673754811286926e-01" purity="5.2736675739288330e-01" nType="-99"/>
        </Node>
        <Node pos="r" depth="1" NCoef="0" IVar="4" Cut="5.4915708303451538e-01" cType="1" res="-5.5869780480861664e-03" rms="4.4703724980354309e-01" purity="5.0235384702682495e-01" nType="0">
          <Node pos="l" depth="2" NCoef="0" IVar="-1" Cut="0.0000000000000000e+00" cType="1" res="-7.8199960989877582e-04" rms="4.4780370593070984e-01" purity="4.8934078216552734e-01" nType="-99"/>
          <Node pos="r" depth="2" NCoef="0" IVar="-1" Cut="0.0000000000000000e+00" cType="1" res="5.6495075114071369e-04" rms="4.4472643733024597e-01" purity="5.3671365976333618e-01" nType="-99"/>
        </Node>
      </Node>
    </BinaryTree>
    <BinaryTree type="DecisionTree" boostWeight="1.0000000000000000e+00" itree="1152">
      <Node pos="s" depth="0" NCoef="0" IVar="5" Cut="2.6969080790877342e-03" cType="1" res="1.0441484628245234e-03" rms="4.5024064183235168e-01" purity="5.0050604343414307e-01" nType="0">
        <Node pos="l" depth="1" NCoef="0" IVar="5" Cut="1.8670400604605675e-03" cType="1" res="-4.7919442877173424e-03" rms="4.4714385271072388e-01" purity="5.2060538530349731e-01" nType="0">
          <Node pos="l" depth="2" NCoef="0" IVar="-1" Cut="0.0000000000000000e+00" cType="1" res="-7.7769989729858935e-05" rms="4.4690275192260742e-01" purity="5.5219608545303345e-01" nType="-99"/>
          <Node pos="r" depth="2" NCoef="0" IVar="-1" Cut="0.0000000000000000e+00" cType="1" res="-1.5511217061430216e-03" rms="4.4782507419586182e-01" purity="3.8550364971160889e-01" nType="-99"/>
        </Node>
        <Node pos="r" depth="1" NCoef="0" IVar="5" Cut="3.6453045904636383e-03" cType="1" res="2.4088004603981972e-02" rms="4.6154534816741943e-01" purity="4.2114332318305969e-01" nType="0">
          <Node pos="l" depth="2" NCoef="0" IVar="-1" Cut="0.0000000000000000e+00" cType="1" res="2.3879939690232277e-03" rms="4.6247461438179016e-01" purity="4.2939054965972900e-01" nType="-99"/>
          <Node pos="r" depth="2" NCoef="0" IVar="-1" Cut="0.0000000000000000e+00" cType="1" res="-6.1939972511027008e-06" rms="4.5830756425857544e-01" purity="4.0038120746612549e-01" nType="-99"/>
        </Node>
      </Node>
    </BinaryTree>
    <BinaryTree type="DecisionTree" boostWeight="1.0000000000000000e+00" itree="1153">
      <Node pos="s" depth="0" NCoef="0" IVar="1" Cut="9.4095832109451294e-01" cType="1" res="-5.6108981370925903e-03" rms="4.4750884175300598e-01" purity="4.9418219923973083e-01" nType="0">
        <Node pos="l" depth="1" NCoef="0" IVar="4" Cut="6.8276464939117432e-01" cType="1" res="-1.0695026256144047e-02" rms="4.5516413450241089e-01" purity="4.2149856686592102e-01" nType="0">
          <Node pos="l" depth="2" NCoef="0" IVar="-1" Cut="0.0000000000000000e+00" cType="1" res="-1.0124776745215058e-03" rms="4.5467215776443481e-01" purity="4.1664123535156250e-01" nType="-99"/>
          <Node pos="r" depth="2" NCoef="0" IVar="-1" Cut="0.0000000000000000e+00" cType="1" res="1.7849152209237218e-03" rms="4.5943450927734375e-01" purity="4.7969606518745422e-01" nType="-99"/>
        </Node>
        <Node pos="r" depth="1" NCoef="0" IVar="0" Cut="2.6135215759277344e+00" cType="1" res="1.0052190162241459e-02" rms="4.2267039418220520e-01" purity="7.1810477972030640e-01" nType="0">
          <Node pos="l" depth="2" NCoef="0" IVar="-1" Cut="0.0000000000000000e+00" cType="1" res="1.6852729022502899e-03" rms="4.4177818298339844e-01" purity="6.7131960391998291e-01" nType="-99"/>
          <Node pos="r" depth="2" NCoef="0" IVar="-1" Cut="0.0000000000000000e+00" cType="1" res="-1.7448439029976726e-04" rms="4.0518653392791748e-01" purity="7.5816768407821655e-01" nType="-99"/>
        </Node>
      </Node>
    </BinaryTree>
    <BinaryTree type="DecisionTree" boostWeight="1.0000000000000000e+00" itree="1154">
      <Node pos="s" depth="0" NCoef="0" IVar="7" Cut="7.3391205072402954e-01" cType="1" res="7.3950149817392230e-04" rms="4.4976156949996948e-01" purity="5.0078910589218140e-01" nType="0">
        <Node pos="l" depth="1" NCoef="0" IVar="5" Cut="1.2669009447563440e-04" cType="1" res="-4.9304338172078133e-03" rms="4.5197030901908875e-01" purity="4.6392744779586792e-01" nType="0">
          <Node pos="l" depth="2" NCoef="0" IVar="-1" Cut="0.0000000000000000e+00" cType="1" res="-2.2286139428615570e-03" rms="4.2785513401031494e-01" purity="6.7109119892120361e-01" nType="-99"/>
          <Node pos="r" depth="2" NCoef="0" IVar="-1" Cut="0.0000000000000000e+00" cType="1" res="-1.4399646897800267e-04" rms="4.5489075779914856e-01" purity="4.3731522560119629e-01" nType="-99"/>
        </Node>
        <Node pos="r" depth="1" NCoef="0" IVar="4" Cut="2.9610991477966309e-01" cType="1" res="1.1658797971904278e-02" rms="4.4527372717857361e-01" purity="5.7177811861038208e-01" nType="0">
          <Node pos="l" depth="2" NCoef="0" IVar="-1" Cut="0.0000000000000000e+00" cType="1" res="-8.9220155496150255e-04" rms="4.4552385807037354e-01" purity="5.6547415256500244e-01" nType="-99"/>
          <Node pos="r" depth="2" NCoef="0" IVar="-1" Cut="0.0000000000000000e+00" cType="1" res="1.2004279997199774e-03" rms="4.4503745436668396e-01" purity="5.7316887378692627e-01" nType="-99"/>
        </Node>
      </Node>
    </BinaryTree>
    <BinaryTree type="DecisionTree" boostWeight="1.0000000000000000e+00" itree="1155">
      <Node pos="s" depth="0" NCoef="0" IVar="1" Cut="9.1774094104766846e-01" cType="1" res="-9.4065302982926369e-04" rms="4.4796442985534668e-01" purity="4.9852252006530762e-01" nType="0">
        <Node pos="l" depth="1" NCoef="0" IVar="4" Cut="6.3315534591674805e-01" cType="1" res="-8.7921991944313049e-03" rms="4.5425254106521606e-01" purity="3.9807048439979553e-01" nType="0">
          <Node pos="l" depth="2" NCoef="0" IVar="-1" Cut="0.0000000000000000e+00" cType="1" res="-3.8937613135203719e-04" rms="4.5470809936523438e-01" purity="3.9855426549911499e-01" nType="-99"/>
          <Node pos="r" depth="2" NCoef="0" IVar="-1" Cut="0.0000000000000000e+00" cType="1" res="-2.4959363508969545e-03" rms="4.5018994808197021e-01" purity="3.9463183283805847e-01" nType="-99"/>
        </Node>
        <Node pos="r" depth="1" NCoef="0" IVar="5" Cut="1.4699401799589396e-04" cType="1" res="1.1249081231653690e-02" rms="4.3774417042732239e-01" purity="6.5447694063186646e-01" nType="0">
          <Node pos="l" depth="2" NCoef="0" IVar="-1" Cut="0.0000000000000000e+00" cType="1" res="-8.4587524179369211e-04" rms="4.0208896994590759e-01" purity="7.4350875616073608e-01" nType="-99"/>
          <Node pos="r" depth="2" NCoef="0" IVar="-1" Cut="0.0000000000000000e+00" cType="1" res="1.4561550924554467e-03" rms="4.5410215854644775e-01" purity="6.1004650592803955e-01" nType="-99"/>
        </Node>
      </Node>
    </BinaryTree>
    <BinaryTree type="DecisionTree" boostWeight="1.0000000000000000e+00" itree="1156">
      <Node pos="s" depth="0" NCoef="0" IVar="7" Cut="3.5822257399559021e-01" cType="1" res="3.6929738707840443e-03" rms="4.4856074452400208e-01" purity="5.0749588012695312e-01" nType="0">
        <Node pos="l" depth="1" NCoef="0" IVar="-1" Cut="0.0000000000000000e+00" cType="1" res="-2.5554692838340998e-03" rms="4.5322054624557495e-01" purity="4.4502589106559753e-01" nType="-99"/>
        <Node pos="r" depth="1" NCoef="0" IVar="4" Cut="2.0423516631126404e-01" cType="1" res="5.7373875752091408e-03" rms="4.4822007417678833e-01" purity="5.1080161333084106e-01" nType="0">
          <Node pos="l" depth="2" NCoef="0" IVar="-1" Cut="0.0000000000000000e+00" cType="1" res="1.7592322546988726e-03" rms="4.4900900125503540e-01" purity="4.7601965069770813e-01" nType="-99"/>
          <Node pos="r" depth="2" NCoef="0" IVar="-1" Cut="0.0000000000000000e+00" cType="1" res="2.0171463256701827e-04" rms="4.4802433252334595e-01" purity="5.1632833480834961e-01" nType="-99"/>
        </Node>
      </Node>
    </BinaryTree>
    <BinaryTree type="DecisionTree" boostWeight="1.0000000000000000e+00" itree="1157">
      <Node pos="s" depth="0" NCoef="0" IVar="4" Cut="2.2031010687351227e-01" cType="1" res="5.1738275215029716e-04" rms="4.4824942946434021e-01" purity="5.0197947025299072e-01" nType="0">
        <Node pos="l" depth="1" NCoef="0" IVar="3" Cut="-8.8944464921951294e-02" cType="1" res="-1.4596807770431042e-02" rms="4.4479295611381531e-01" purity="4.4245743751525879e-01" nType="0">
          <Node pos="l" depth="2" NCoef="0" IVar="-1" Cut="0.0000000000000000e+00" cType="1" res="2.0426749251782894e-03" rms="4.3543079495429993e-01" purity="4.3913996219635010e-01" nType="-99"/>
          <Node pos="r" depth="2" NCoef="0" IVar="-1" Cut="0.0000000000000000e+00" cType="1" res="-2.1077976562082767e-03" rms="4.4712740182876587e-01" purity="4.4360443949699402e-01" nType="-99"/>
        </Node>
        <Node pos="r" depth="1" NCoef="0" IVar="5" Cut="1.2843371951021254e-04" cType="1" res="4.3057017028331757e-03" rms="4.4903188943862915e-01" purity="5.1689839363098145e-01" nType="0">
          <Node pos="l" depth="2" NCoef="0" IVar="-1" Cut="0.0000000000000000e+00" cType="1" res="-1.9688303582370281e-03" rms="4.0721979737281799e-01" purity="7.2474169731140137e-01" nType="-99"/>
          <Node pos="r" depth="2" NCoef="0" IVar="-1" Cut="0.0000000000000000e+00" cType="1" res="6.0846994165331125e-04" rms="4.5507639646530151e-01" purity="4.8435911536216736e-01" nType="-99"/>
        </Node>
      </Node>
    </BinaryTree>
    <BinaryTree type="DecisionTree" boostWeight="1.0000000000000000e+00" itree="1158">
      <Node pos="s" depth="0" NCoef="0" IVar="6" Cut="1.2780801057815552e+00" cType="1" res="-2.0074117928743362e-03" rms="4.4949617981910706e-01" purity="4.9542039632797241e-01" nType="0">
        <Node pos="l" depth="1" NCoef="0" IVar="2" Cut="3.8740139770507812e+02" cType="1" res="5.6005939841270447e-03" rms="4.5519888401031494e-01" purity="5.3829050064086914e-01" nType="0">
          <Node pos="l" depth="2" NCoef="0" IVar="-1" Cut="0.0000000000000000e+00" cType="1" res="1.0778452269732952e-03" rms="4.5676216483116150e-01" purity="4.9514192342758179e-01" nType="-99"/>
          <Node pos="r" depth="2" NCoef="0" IVar="-1" Cut="0.0000000000000000e+00" cType="1" res="-9.7156286938115954e-04" rms="4.5133674144744873e-01" purity="6.2646383047103882e-01" nType="-99"/>
        </Node>
        <Node pos="r" depth="1" NCoef="0" IVar="4" Cut="2.0581433176994324e-01" cType="1" res="-1.3325237669050694e-02" rms="4.4063326716423035e-01" purity="4.3164581060409546e-01" nType="0">
          <Node pos="l" depth="2" NCoef="0" IVar="-1" Cut="0.0000000000000000e+00" cType="1" res="1.7100507393479347e-03" rms="4.4185656309127808e-01" purity="4.1266196966171265e-01" nType="-99"/>
          <Node pos="r" depth="2" NCoef="0" IVar="-1" Cut="0.0000000000000000e+00" cType="1" res="-1.5780505491420627e-03" rms="4.4005379080772400e-01" purity="4.3547150492668152e-01" nType="-99"/>
        </Node>
      </Node>
    </BinaryTree>
    <BinaryTree type="DecisionTree" boostWeight="1.0000000000000000e+00" itree="1159">
      <Node pos="s" depth="0" NCoef="0" IVar="5" Cut="3.6132237873971462e-03" cType="1" res="1.5094940317794681e-03" rms="4.5178139209747314e-01" purity="5.0000661611557007e-01" nType="0">
        <Node pos="l" depth="1" NCoef="0" IVar="0" Cut="1.1419061571359634e-01" cType="1" res="3.8794993888586760e-03" rms="4.5179763436317444e-01" purity="5.0862550735473633e-01" nType="0">
          <Node pos="l" depth="2" NCoef="0" IVar="-1" Cut="0.0000000000000000e+00" cType="1" res="2.8457872103899717e-03" rms="4.4570389389991760e-01" purity="3.3512717485427856e-01" nType="-99"/>
          <Node pos="r" depth="2" NCoef="0" IVar="-1" Cut="0.0000000000000000e+00" cType="1" res="4.5668595703318715e-05" rms="4.5239350199699402e-01" purity="5.2888572216033936e-01" nType="-99"/>
        </Node>
        <Node pos="r" depth="1" NCoef="0" IVar="-1" Cut="0.0000000000000000e+00" cType="1" res="-2.5591871235519648e-03" rms="4.4996708631515503e-01" purity="3.6765927076339722e-01" nType="-99"/>
      </Node>
    </BinaryTree>
    <BinaryTree type="DecisionTree" boostWeight="1.0000000000000000e+00" itree="1160">
      <Node pos="s" depth="0" NCoef="0" IVar="0" Cut="3.9063659310340881e-01" cType="1" res="-2.7944290195591748e-04" rms="4.4568058848381042e-01" purity="5.0318729877471924e-01" nType="0">
        <Node pos="l" depth="1" NCoef="0" IVar="4" Cut="3.8262206315994263e-01" cType="1" res="-3.2181642949581146e-02" rms="4.2321076989173889e-01" purity="2.8343617916107178e-01" nType="0">
          <Node pos="l" depth="2" NCoef="0" IVar="-1" Cut="0.0000000000000000e+00" cType="1" res="-1.8556757131591439e-03" rms="4.1906842589378357e-01" purity="2.8195992112159729e-01" nType="-99"/>
          <Node pos="r" depth="2" NCoef="0" IVar="-1" Cut="0.0000000000000000e+00" cType="1" res="-3.9306269027292728e-03" rms="4.2659920454025269e-01" purity="2.8477174043655396e-01" nType="-99"/>
        </Node>
        <Node pos="r" depth="1" NCoef="0" IVar="6" Cut="8.4751272201538086e-01" cType="1" res="6.3444068655371666e-03" rms="4.4992190599441528e-01" purity="5.4881417751312256e-01" nType="0">
          <Node pos="l" depth="2" NCoef="0" IVar="-1" Cut="0.0000000000000000e+00" cType="1" res="1.6721086576581001e-03" rms="4.4353291392326355e-01" purity="6.3576251268386841e-01" nType="-99"/>
          <Node pos="r" depth="2" NCoef="0" IVar="-1" Cut="0.0000000000000000e+00" cType="1" res="1.0253170330543071e-05" rms="4.5182272791862488e-01" purity="5.2033340930938721e-01" nType="-99"/>
        </Node>
      </Node>
    </BinaryTree>
    <BinaryTree type="DecisionTree" boostWeight="1.0000000000000000e+00" itree="1161">
      <Node pos="s" depth="0" NCoef="0" IVar="6" Cut="8.2571101188659668e-01" cType="1" res="2.1767055150121450e-03" rms="4.4980877637863159e-01" purity="4.9961051344871521e-01" nType="0">
        <Node pos="l" depth="1" NCoef="0" IVar="0" Cut="2.7527213096618652e+00" cType="1" res="-1.2208933942019939e-02" rms="4.4756197929382324e-01" purity="5.5717480182647705e-01" nType="0">
          <Node pos="l" depth="2" NCoef="0" IVar="-1" Cut="0.0000000000000000e+00" cType="1" res="-2.0306871738284826e-03" rms="4.6074771881103516e-01" purity="4.6511989831924438e-01" nType="-99"/>
          <Node pos="r" depth="2" NCoef="0" IVar="-1" Cut="0.0000000000000000e+00" cType="1" res="1.7657839925959706e-03" rms="4.1355064511299133e-01" purity="7.6647073030471802e-01" nType="-99"/>
        </Node>
        <Node pos="r" depth="1" NCoef="0" IVar="7" Cut="8.6230510473251343e-01" cType="1" res="6.2743481248617172e-03" rms="4.5036262273788452e-01" purity="4.8321372270584106e-01" nType="0">
          <Node pos="l" depth="2" NCoef="0" IVar="-1" Cut="0.0000000000000000e+00" cType="1" res="6.7723321262747049e-04" rms="4.5093756914138794e-01" purity="4.7672733664512634e-01" nType="-99"/>
          <Node pos="r" depth="2" NCoef="0" IVar="-1" Cut="0.0000000000000000e+00" cType="1" res="-1.5309972222894430e-03" rms="4.4415137171745300e-01" purity="5.4247879981994629e-01" nType="-99"/>
        </Node>
      </Node>
    </BinaryTree>
    <BinaryTree type="DecisionTree" boostWeight="1.0000000000000000e+00" itree="1162">
      <Node pos="s" depth="0" NCoef="0" IVar="4" Cut="6.3021558523178101e-01" cType="1" res="-1.7748131649568677e-03" rms="4.4841682910919189e-01" purity="4.9706521630287170e-01" nType="0">
        <Node pos="l" depth="1" NCoef="0" IVar="6" Cut="1.9671347141265869e+00" cType="1" res="1.2236637994647026e-03" rms="4.4977021217346191e-01" purity="4.9380743503570557e-01" nType="0">
          <Node pos="l" depth="2" NCoef="0" IVar="-1" Cut="0.0000000000000000e+00" cType="1" res="-8.9020992163568735e-05" rms="4.5046666264533997e-01" purity="4.9725517630577087e-01" nType="-99"/>
          <Node pos="r" depth="2" NCoef="0" IVar="-1" Cut="0.0000000000000000e+00" cType="1" res="2.7301616501063108e-03" rms="4.3845352530479431e-01" purity="4.4550132751464844e-01" nType="-99"/>
        </Node>
        <Node pos="r" depth="1" NCoef="0" IVar="2" Cut="2.7940667724609375e+02" cType="1" res="-2.2053150460124016e-02" rms="4.3861693143844604e-01" purity="5.1909726858139038e-01" nType="0">
          <Node pos="l" depth="2" NCoef="0" IVar="-1" Cut="0.0000000000000000e+00" cType="1" res="-4.0161316283047199e-03" rms="4.3722757697105408e-01" purity="3.6561203002929688e-01" nType="-99"/>
          <Node pos="r" depth="2" NCoef="0" IVar="-1" Cut="0.0000000000000000e+00" cType="1" res="5.1916018128395081e-04" rms="4.3810027837753296e-01" purity="6.7915278673171997e-01" nType="-99"/>
        </Node>
      </Node>
    </BinaryTree>
    <BinaryTree type="DecisionTree" boostWeight="1.0000000000000000e+00" itree="1163">
      <Node pos="s" depth="0" NCoef="0" IVar="1" Cut="8.5609054565429688e-01" cType="1" res="7.2965823346748948e-04" rms="4.4936400651931763e-01" purity="5.0008893013000488e-01" nType="0">
        <Node pos="l" depth="1" NCoef="0" IVar="-1" Cut="0.0000000000000000e+00" cType="1" res="2.2449546959251165e-03" rms="4.6432575583457947e-01" purity="3.8696852326393127e-01" nType="-99"/>
        <Node pos="r" depth="1" NCoef="0" IVar="3" Cut="2.1760559082031250e-01" cType="1" res="-1.7263391055166721e-03" rms="4.4797661900520325e-01" purity="5.0975680351257324e-01" nType="0">
          <Node pos="l" depth="2" NCoef="0" IVar="-1" Cut="0.0000000000000000e+00" cType="1" res="6.2908628024160862e-05" rms="4.4665020704269409e-01" purity="5.0708812475204468e-01" nType="-99"/>
          <Node pos="r" depth="2" NCoef="0" IVar="-1" Cut="0.0000000000000000e+00" cType="1" res="-2.0103994756937027e-03" rms="4.6089100837707520e-01" purity="5.3800553083419800e-01" nType="-99"/>
        </Node>
      </Node>
    </BinaryTree>
    <BinaryTree type="DecisionTree" boostWeight="1.0000000000000000e+00" itree="1164">
      <Node pos="s" depth="0" NCoef="0" IVar="3" Cut="2.2006610035896301e-01" cType="1" res="3.2789628021419048e-03" rms="4.4964429736137390e-01" purity="5.0520372390747070e-01" nType="0">
        <Node pos="l" depth="1" NCoef="0" IVar="3" Cut="1.3343153893947601e-01" cType="1" res="1.0624099522829056e-03" rms="4.4881322979927063e-01" purity="4.9822637438774109e-01" nType="0">
          <Node pos="l" depth="2" NCoef="0" IVar="-1" Cut="0.0000000000000000e+00" cType="1" res="3.4385640174150467e-04" rms="4.4799527525901794e-01" purity="4.9535354971885681e-01" nType="-99"/>
          <Node pos="r" depth="2" NCoef="0" IVar="-1" Cut="0.0000000000000000e+00" cType="1" res="-1.2808004394173622e-03" rms="4.5265126228332520e-01" purity="5.1350975036621094e-01" nType="-99"/>
        </Node>
        <Node pos="r" depth="1" NCoef="0" IVar="-1" Cut="0.0000000000000000e+00" cType="1" res="1.8068021163344383e-03" rms="4.5789280533790588e-01" purity="5.8108597993850708e-01" nType="-99"/>
      </Node>
    </BinaryTree>
    <BinaryTree type="DecisionTree" boostWeight="1.0000000000000000e+00" itree="1165">
      <Node pos="s" depth="0" NCoef="0" IVar="2" Cut="2.7417053222656250e+02" cType="1" res="-7.1949171833693981e-03" rms="4.4520318508148193e-01" purity="4.9260348081588745e-01" nType="0">
        <Node pos="l" depth="1" NCoef="0" IVar="6" Cut="1.1145085096359253e+00" cType="1" res="-1.8051765859127045e-02" rms="4.3179106712341309e-01" purity="3.4235176444053650e-01" nType="0">
          <Node pos="l" depth="2" NCoef="0" IVar="-1" Cut="0.0000000000000000e+00" cType="1" res="4.1093753679888323e-05" rms="4.3959644436836243e-01" purity="4.0306302905082703e-01" nType="-99"/>
          <Node pos="r" depth="2" NCoef="0" IVar="-1" Cut="0.0000000000000000e+00" cType="1" res="-2.5706305168569088e-03" rms="4.2686325311660767e-01" purity="3.0738326907157898e-01" nType="-99"/>
        </Node>
        <Node pos="r" depth="1" NCoef="0" IVar="6" Cut="1.4380214214324951e+00" cType="1" res="-8.9987704996019602e-04" rms="4.5267868041992188e-01" purity="5.7972276210784912e-01" nType="0">
          <Node pos="l" depth="2" NCoef="0" IVar="-1" Cut="0.0000000000000000e+00" cType="1" res="-4.9273890908807516e-04" rms="4.5407906174659729e-01" purity="5.8382248878479004e-01" nType="-99"/>
          <Node pos="r" depth="2" NCoef="0" IVar="-1" Cut="0.0000000000000000e+00" cType="1" res="1.4091790653765202e-03" rms="4.4717195630073547e-01" purity="5.6569683551788330e-01" nType="-99"/>
        </Node>
      </Node>
    </BinaryTree>
    <BinaryTree type="DecisionTree" boostWeight="1.0000000000000000e+00" itree="1166">
      <Node pos="s" depth="0" NCoef="0" IVar="5" Cut="1.0274006053805351e-03" cType="1" res="-4.0529374964535236e-03" rms="4.5044019818305969e-01" purity="4.9291270971298218e-01" nType="0">
        <Node pos="l" depth="1" NCoef="0" IVar="7" Cut="5.2034920454025269e-01" cType="1" res="-1.3389753177762032e-02" rms="4.4234579801559448e-01" purity="5.8079504966735840e-01" nType="0">
          <Node pos="l" depth="2" NCoef="0" IVar="-1" Cut="0.0000000000000000e+00" cType="1" res="7.1054452564567327e-04" rms="4.5164042711257935e-01" purity="5.3657883405685425e-01" nType="-99"/>
          <Node pos="r" depth="2" NCoef="0" IVar="-1" Cut="0.0000000000000000e+00" cType="1" res="-1.5931909438222647e-03" rms="4.3877416849136353e-01" purity="5.9620517492294312e-01" nType="-99"/>
        </Node>
        <Node pos="r" depth="1" NCoef="0" IVar="1" Cut="8.9260858297348022e-01" cType="1" res="3.3495754469186068e-03" rms="4.5662009716033936e-01" purity="4.2323696613311768e-01" nType="0">
          <Node pos="l" depth="2" NCoef="0" IVar="-1" Cut="0.0000000000000000e+00" cType="1" res="-3.7106266245245934e-04" rms="4.5396283268928528e-01" purity="3.8405871391296387e-01" nType="-99"/>
          <Node pos="r" depth="2" NCoef="0" IVar="-1" Cut="0.0000000000000000e+00" cType="1" res="1.4538590330630541e-03" rms="4.6190923452377319e-01" purity="5.0979679822921753e-01" nType="-99"/>
        </Node>
      </Node>
    </BinaryTree>
    <BinaryTree type="DecisionTree" boostWeight="1.0000000000000000e+00" itree="1167">
      <Node pos="s" depth="0" NCoef="0" IVar="4" Cut="3.4489971399307251e-01" cType="1" res="-5.9954947791993618e-03" rms="4.4866684079170227e-01" purity="4.9408763647079468e-01" nType="0">
        <Node pos="l" depth="1" NCoef="0" IVar="7" Cut="7.9202049970626831e-01" cType="1" res="4.8283734358847141e-03" rms="4.5346593856811523e-01" purity="4.7969967126846313e-01" nType="0">
          <Node pos="l" depth="2" NCoef="0" IVar="-1" Cut="0.0000000000000000e+00" cType="1" res="7.0870190393179655e-04" rms="4.5212292671203613e-01" purity="4.6643957495689392e-01" nType="-99"/>
          <Node pos="r" depth="2" NCoef="0" IVar="-1" Cut="0.0000000000000000e+00" cType="1" res="-1.6459410544484854e-03" rms="4.6008518338203430e-01" purity="5.5592608451843262e-01" nType="-99"/>
        </Node>
        <Node pos="r" depth="1" NCoef="0" IVar="7" Cut="8.2163995504379272e-01" cType="1" res="-1.4161729253828526e-02" rms="4.4483754038810730e-01" purity="5.0494277477264404e-01" nType="0">
          <Node pos="l" depth="2" NCoef="0" IVar="-1" Cut="0.0000000000000000e+00" cType="1" res="-1.5006784815341234e-03" rms="4.4832658767700195e-01" purity="4.8675936460494995e-01" nType="-99"/>
          <Node pos="r" depth="2" NCoef="0" IVar="-1" Cut="0.0000000000000000e+00" cType="1" res="5.4091220954433084e-04" rms="4.3154579401016235e-01" purity="5.6938427686691284e-01" nType="-99"/>
        </Node>
      </Node>
    </BinaryTree>
    <BinaryTree type="DecisionTree" boostWeight="1.0000000000000000e+00" itree="1168">
      <Node pos="s" depth="0" NCoef="0" IVar="3" Cut="2.3413610458374023e-01" cType="1" res="-1.5373388305306435e-03" rms="4.4849213957786560e-01" purity="4.9595853686332703e-01" nType="0">
        <Node pos="l" depth="1" NCoef="0" IVar="6" Cut="1.2125532627105713e+00" cType="1" res="3.7917864392511547e-04" rms="4.4726487994194031e-01" purity="4.9463239312171936e-01" nType="0">
          <Node pos="l" depth="2" NCoef="0" IVar="-1" Cut="0.0000000000000000e+00" cType="1" res="4.6728146844543517e-04" rms="4.5359095931053162e-01" purity="5.4033887386322021e-01" nType="-99"/>
          <Node pos="r" depth="2" NCoef="0" IVar="-1" Cut="0.0000000000000000e+00" cType="1" res="-5.6706945179030299e-04" rms="4.3940141797065735e-01" purity="4.3957448005676270e-01" nType="-99"/>
        </Node>
        <Node pos="r" depth="1" NCoef="0" IVar="-1" Cut="0.0000000000000000e+00" cType="1" res="-2.1127790678292513e-03" rms="4.6560704708099365e-01" purity="5.1589918136596680e-01" nType="-99"/>
      </Node>
    </BinaryTree>
    <BinaryTree type="DecisionTree" boostWeight="1.0000000000000000e+00" itree="1169">
      <Node pos="s" depth="0" NCoef="0" IVar="3" Cut="-1.3171978294849396e-01" cType="1" res="5.5367113091051579e-03" rms="4.5102798938751221e-01" purity="5.0364315509796143e-01" nType="0">
        <Node pos="l" depth="1" NCoef="0" IVar="-1" Cut="0.0000000000000000e+00" cType="1" res="3.3073679078370333e-03" rms="4.4582486152648926e-01" purity="4.7418242692947388e-01" nType="-99"/>
        <Node pos="r" depth="1" NCoef="0" IVar="5" Cut="2.8227353468537331e-03" cType="1" res="3.4472281113266945e-03" rms="4.5121943950653076e-01" purity="5.0526261329650879e-01" nType="0">
          <Node pos="l" depth="2" NCoef="0" IVar="-1" Cut="0.0000000000000000e+00" cType="1" res="-3.6989084037486464e-05" rms="4.4939148426055908e-01" purity="5.2380067110061646e-01" nType="-99"/>
          <Node pos="r" depth="2" NCoef="0" IVar="-1" Cut="0.0000000000000000e+00" cType="1" res="1.5319377416744828e-03" rms="4.5912799239158630e-01" purity="4.1961228847503662e-01" nType="-99"/>
        </Node>
      </Node>
    </BinaryTree>
    <BinaryTree type="DecisionTree" boostWeight="1.0000000000000000e+00" itree="1170">
      <Node pos="s" depth="0" NCoef="0" IVar="3" Cut="-1.5529632568359375e-02" cType="1" res="-1.4710979303345084e-03" rms="4.4954967498779297e-01" purity="4.9875259399414062e-01" nType="0">
        <Node pos="l" depth="1" NCoef="0" IVar="1" Cut="8.5991209745407104e-01" cType="1" res="8.8258050382137299e-03" rms="4.4515943527221680e-01" purity="4.8068183660507202e-01" nType="0">
          <Node pos="l" depth="2" NCoef="0" IVar="-1" Cut="0.0000000000000000e+00" cType="1" res="3.4872926771640778e-03" rms="4.5097789168357849e-01" purity="3.8920959830284119e-01" nType="-99"/>
          <Node pos="r" depth="2" NCoef="0" IVar="-1" Cut="0.0000000000000000e+00" cType="1" res="2.7571484679356217e-04" rms="4.4407352805137634e-01" purity="4.9394407868385315e-01" nType="-99"/>
        </Node>
        <Node pos="r" depth="1" NCoef="0" IVar="7" Cut="7.9607307910919189e-01" cType="1" res="-9.4322431832551956e-03" rms="4.5275434851646423e-01" purity="5.1272410154342651e-01" nType="0">
          <Node pos="l" depth="2" NCoef="0" IVar="-1" Cut="0.0000000000000000e+00" cType="1" res="-4.2184433550573885e-04" rms="4.5437970757484436e-01" purity="5.1148843765258789e-01" nType="-99"/>
          <Node pos="r" depth="2" NCoef="0" IVar="-1" Cut="0.0000000000000000e+00" cType="1" res="-3.0742217786610126e-03" rms="4.3629699945449829e-01" purity="5.2405923604965210e-01" nType="-99"/>
        </Node>
      </Node>
    </BinaryTree>
    <BinaryTree type="DecisionTree" boostWeight="1.0000000000000000e+00" itree="1171">
      <Node pos="s" depth="0" NCoef="0" IVar="0" Cut="2.3257584571838379e+00" cType="1" res="3.5100337117910385e-03" rms="4.5194244384765625e-01" purity="4.9987119436264038e-01" nType="0">
        <Node pos="l" depth="1" NCoef="0" IVar="1" Cut="9.3697804212570190e-01" cType="1" res="1.0639822110533714e-02" rms="4.5560407638549805e-01" purity="4.2582476139068604e-01" nType="0">
          <Node pos="l" depth="2" NCoef="0" IVar="-1" Cut="0.0000000000000000e+00" cType="1" res="4.7376801376231015e-04" rms="4.5757013559341431e-01" purity="3.8268959522247314e-01" nType="-99"/>
          <Node pos="r" depth="2" NCoef="0" IVar="-1" Cut="0.0000000000000000e+00" cType="1" res="2.3125924635678530e-03" rms="4.4438531994819641e-01" purity="6.5281611680984497e-01" nType="-99"/>
        </Node>
        <Node pos="r" depth="1" NCoef="0" IVar="4" Cut="3.8461306691169739e-01" cType="1" res="-1.0888554155826569e-02" rms="4.4410699605941772e-01" purity="6.4940774440765381e-01" nType="0">
          <Node pos="l" depth="2" NCoef="0" IVar="-1" Cut="0.0000000000000000e+00" cType="1" res="-1.5666265971958637e-03" rms="4.5668023824691772e-01" purity="5.9950351715087891e-01" nType="-99"/>
          <Node pos="r" depth="2" NCoef="0" IVar="-1" Cut="0.0000000000000000e+00" cType="1" res="1.3385653437580913e-04" rms="4.3044862151145935e-01" purity="7.0061159133911133e-01" nType="-99"/>
        </Node>
      </Node>
    </BinaryTree>
    <BinaryTree type="DecisionTree" boostWeight="1.0000000000000000e+00" itree="1172">
      <Node pos="s" depth="0" NCoef="0" IVar="2" Cut="5.7258282470703125e+02" cType="1" res="2.7608815580606461e-03" rms="4.4863504171371460e-01" purity="5.0271707773208618e-01" nType="0">
        <Node pos="l" depth="1" NCoef="0" IVar="4" Cut="1.7722536623477936e-01" cType="1" res="1.0295449756085873e-03" rms="4.4997203350067139e-01" purity="4.8743078112602234e-01" nType="0">
          <Node pos="l" depth="2" NCoef="0" IVar="-1" Cut="0.0000000000000000e+00" cType="1" res="-1.4053568011149764e-03" rms="4.4313964247703552e-01" purity="4.0489289164543152e-01" nType="-99"/>
          <Node pos="r" depth="2" NCoef="0" IVar="-1" Cut="0.0000000000000000e+00" cType="1" res="2.6264911866746843e-04" rms="4.5081838965415955e-01" purity="4.9851232767105103e-01" nType="-99"/>
        </Node>
        <Node pos="r" depth="1" NCoef="0" IVar="-1" Cut="0.0000000000000000e+00" cType="1" res="1.9641236867755651e-03" rms="4.2778027057647705e-01" purity="7.2653210163116455e-01" nType="-99"/>
      </Node>
    </BinaryTree>
    <BinaryTree type="DecisionTree" boostWeight="1.0000000000000000e+00" itree="1173">
      <Node pos="s" depth="0" NCoef="0" IVar="7" Cut="4.6054929494857788e-01" cType="1" res="-1.0750418296083808e-03" rms="4.5188498497009277e-01" purity="4.9517956376075745e-01" nType="0">
        <Node pos="l" depth="1" NCoef="0" IVar="5" Cut="2.1536790300160646e-03" cType="1" res="2.3367766290903091e-02" rms="4.4967061281204224e-01" purity="4.6336668729782104e-01" nType="0">
          <Node pos="l" depth="2" NCoef="0" IVar="-1" Cut="0.0000000000000000e+00" cType="1" res="6.3086109003052115e-04" rms="4.4461137056350708e-01" purity="4.8767006397247314e-01" nType="-99"/>
          <Node pos="r" depth="2" NCoef="0" IVar="-1" Cut="0.0000000000000000e+00" cType="1" res="4.0680509991943836e-03" rms="4.5868337154388428e-01" purity="4.1159826517105103e-01" nType="-99"/>
        </Node>
        <Node pos="r" depth="1" NCoef="0" IVar="5" Cut="1.6679853433743119e-03" cType="1" res="-6.2600919045507908e-03" rms="4.5218348503112793e-01" purity="5.0192803144454956e-01" nType="0">
          <Node pos="l" depth="2" NCoef="0" IVar="-1" Cut="0.0000000000000000e+00" cType="1" res="-9.9454517476260662e-04" rms="4.4809561967849731e-01" purity="5.5762171745300293e-01" nType="-99"/>
          <Node pos="r" depth="2" NCoef="0" IVar="-1" Cut="0.0000000000000000e+00" cType="1" res="3.4161555231548846e-04" rms="4.5802235603332520e-01" purity="4.1843304038047791e-01" nType="-99"/>
        </Node>
      </Node>
    </BinaryTree>
    <BinaryTree type="DecisionTree" boostWeight="1.0000000000000000e+00" itree="1174">
      <Node pos="s" depth="0" NCoef="0" IVar="6" Cut="6.2492537498474121e-01" cType="1" res="-3.1752570066601038e-03" rms="4.5026904344558716e-01" purity="4.9678623676300049e-01" nType="0">
        <Node pos="l" depth="1" NCoef="0" IVar="-1" Cut="0.0000000000000000e+00" cType="1" res="1.3472990831360221e-03" rms="4.5182913541793823e-01" purity="6.0386145114898682e-01" nType="-99"/>
        <Node pos="r" depth="1" NCoef="0" IVar="5" Cut="3.5918760113418102e-03" cType="1" res="-5.1817758940160275e-03" rms="4.5007723569869995e-01" purity="4.8747634887695312e-01" nType="0">
          <Node pos="l" depth="2" NCoef="0" IVar="-1" Cut="0.0000000000000000e+00" cType="1" res="-2.0876091730315238e-04" rms="4.5064097642898560e-01" purity="4.9732509255409241e-01" nType="-99"/>
          <Node pos="r" depth="2" NCoef="0" IVar="-1" Cut="0.0000000000000000e+00" cType="1" res="-2.9991636984050274e-03" rms="4.4022947549819946e-01" purity="3.4184613823890686e-01" nType="-99"/>
        </Node>
      </Node>
    </BinaryTree>
    <BinaryTree type="DecisionTree" boostWeight="1.0000000000000000e+00" itree="1175">
      <Node pos="s" depth="0" NCoef="0" IVar="5" Cut="2.5810330407693982e-04" cType="1" res="-3.7359152920544147e-03" rms="4.4955664873123169e-01" purity="4.9661344289779663e-01" nType="0">
        <Node pos="l" depth="1" NCoef="0" IVar="1" Cut="9.7569358348846436e-01" cType="1" res="-2.0928107202053070e-02" rms="4.1595599055290222e-01" purity="6.7814713716506958e-01" nType="0">
          <Node pos="l" depth="2" NCoef="0" IVar="-1" Cut="0.0000000000000000e+00" cType="1" res="-3.2074123155325651e-03" rms="4.3801453709602356e-01" purity="5.7178151607513428e-01" nType="-99"/>
          <Node pos="r" depth="2" NCoef="0" IVar="-1" Cut="0.0000000000000000e+00" cType="1" res="4.4612883357331157e-04" rms="3.8512009382247925e-01" purity="8.1060677766799927e-01" nType="-99"/>
        </Node>
        <Node pos="r" depth="1" NCoef="0" IVar="7" Cut="4.3884193897247314e-01" cType="1" res="3.2515850034542382e-04" rms="4.5703878998756409e-01" purity="4.5373228192329407e-01" nType="0">
          <Node pos="l" depth="2" NCoef="0" IVar="-1" Cut="0.0000000000000000e+00" cType="1" res="-1.3746215263381600e-03" rms="4.4906032085418701e-01" purity="4.0163695812225342e-01" nType="-99"/>
          <Node pos="r" depth="2" NCoef="0" IVar="-1" Cut="0.0000000000000000e+00" cType="1" res="2.4236932222265750e-04" rms="4.5828741788864136e-01" purity="4.6244966983795166e-01" nType="-99"/>
        </Node>
      </Node>
    </BinaryTree>
    <BinaryTree type="DecisionTree" boostWeight="1.0000000000000000e+00" itree="1176">
      <Node pos="s" depth="0" NCoef="0" IVar="5" Cut="3.5918760113418102e-03" cType="1" res="-4.1984347626566887e-03" rms="4.4854241609573364e-01" purity="4.9390965700149536e-01" nType="0">
        <Node pos="l" depth="1" NCoef="0" IVar="3" Cut="7.1733272634446621e-03" cType="1" res="-1.8852856010198593e-03" rms="4.4833666086196899e-01" purity="5.0328516960144043e-01" nType="0">
          <Node pos="l" depth="2" NCoef="0" IVar="-1" Cut="0.0000000000000000e+00" cType="1" res="4.8737594624981284e-04" rms="4.4454413652420044e-01" purity="4.8556995391845703e-01" nType="-99"/>
          <Node pos="r" depth="2" NCoef="0" IVar="-1" Cut="0.0000000000000000e+00" cType="1" res="-7.1216694777831435e-04" rms="4.5183131098747253e-01" purity="5.2044063806533813e-01" nType="-99"/>
        </Node>
        <Node pos="r" depth="1" NCoef="0" IVar="-1" Cut="0.0000000000000000e+00" cType="1" res="-2.9320684261620045e-03" rms="4.5019343495368958e-01" purity="3.5325032472610474e-01" nType="-99"/>
      </Node>
    </BinaryTree>
    <BinaryTree type="DecisionTree" boostWeight="1.0000000000000000e+00" itree="1177">
      <Node pos="s" depth="0" NCoef="0" IVar="2" Cut="2.1995570373535156e+02" cType="1" res="1.7302240012213588e-03" rms="4.4936913251876831e-01" purity="4.9927717447280884e-01" nType="0">
        <Node pos="l" depth="1" NCoef="0" IVar="3" Cut="6.6504716873168945e-02" cType="1" res="1.8464054912328720e-02" rms="4.2578324675559998e-01" purity="2.9856714606285095e-01" nType="0">
          <Node pos="l" depth="2" NCoef="0" IVar="-1" Cut="0.0000000000000000e+00" cType="1" res="5.2942596084903926e-05" rms="4.0746733546257019e-01" purity="2.5201565027236938e-01" nType="-99"/>
          <Node pos="r" depth="2" NCoef="0" IVar="-1" Cut="0.0000000000000000e+00" cType="1" res="3.7816385738551617e-03" rms="4.5176869630813599e-01" purity="3.7213990092277527e-01" nType="-99"/>
        </Node>
        <Node pos="r" depth="1" NCoef="0" IVar="7" Cut="7.1228981018066406e-01" cType="1" res="-8.6952024139463902e-04" rms="4.5286771655082703e-01" purity="5.3045922517776489e-01" nType="0">
          <Node pos="l" depth="2" NCoef="0" IVar="-1" Cut="0.0000000000000000e+00" cType="1" res="-5.5572297424077988e-04" rms="4.5315697789192200e-01" purity="4.9108225107192993e-01" nType="-99"/>
          <Node pos="r" depth="2" NCoef="0" IVar="-1" Cut="0.0000000000000000e+00" cType="1" res="6.6260283347219229e-04" rms="4.5221826434135437e-01" purity="5.9076720476150513e-01" nType="-99"/>
        </Node>
      </Node>
    </BinaryTree>
    <BinaryTree type="DecisionTree" boostWeight="1.0000000000000000e+00" itree="1178">
      <Node pos="s" depth="0" NCoef="0" IVar="1" Cut="8.5997194051742554e-01" cType="1" res="-2.0948350429534912e-03" rms="4.4969063997268677e-01" purity="4.9624478816986084e-01" nType="0">
        <Node pos="l" depth="1" NCoef="0" IVar="2" Cut="3.1292861938476562e+02" cType="1" res="2.1343519911170006e-02" rms="4.5126876235008240e-01" purity="3.8415184617042542e-01" nType="0">
          <Node pos="l" depth="2" NCoef="0" IVar="-1" Cut="0.0000000000000000e+00" cType="1" res="2.7179188327863812e-04" rms="4.2551380395889282e-01" purity="2.8194174170494080e-01" nType="-99"/>
          <Node pos="r" depth="2" NCoef="0" IVar="-1" Cut="0.0000000000000000e+00" cType="1" res="2.8135708998888731e-03" rms="4.8201370239257812e-01" purity="5.1864463090896606e-01" nType="-99"/>
        </Node>
        <Node pos="r" depth="1" NCoef="0" IVar="4" Cut="1.9810558855533600e-01" cType="1" res="-5.4036737419664860e-03" rms="4.4936892390251160e-01" purity="5.1206916570663452e-01" nType="0">
          <Node pos="l" depth="2" NCoef="0" IVar="-1" Cut="0.0000000000000000e+00" cType="1" res="-1.8693493911996484e-03" rms="4.4817820191383362e-01" purity="4.4304034113883972e-01" nType="-99"/>
          <Node pos="r" depth="2" NCoef="0" IVar="-1" Cut="0.0000000000000000e+00" cType="1" res="-1.2620452616829425e-04" rms="4.4949924945831299e-01" purity="5.2507168054580688e-01" nType="-99"/>
        </Node>
      </Node>
    </BinaryTree>
    <BinaryTree type="DecisionTree" boostWeight="1.0000000000000000e+00" itree="1179">
      <Node pos="s" depth="0" NCoef="0" IVar="3" Cut="2.4521392583847046e-01" cType="1" res="2.1203074720688164e-04" rms="4.4917878508567810e-01" purity="5.0061309337615967e-01" nType="0">
        <Node pos="l" depth="1" NCoef="0" IVar="3" Cut="-7.5980320572853088e-02" cType="1" res="-1.2275922344997525e-03" rms="4.4837102293968201e-01" purity="4.9611771106719971e-01" nType="0">
          <Node pos="l" depth="2" NCoef="0" IVar="-1" Cut="0.0000000000000000e+00" cType="1" res="6.9040729431435466e-04" rms="4.3814826011657715e-01" purity="4.7132498025894165e-01" nType="-99"/>
          <Node pos="r" depth="2" NCoef="0" IVar="-1" Cut="0.0000000000000000e+00" cType="1" res="-3.4609413705766201e-04" rms="4.5181694626808167e-01" purity="5.0473773479461670e-01" nType="-99"/>
        </Node>
        <Node pos="r" depth="1" NCoef="0" IVar="-1" Cut="0.0000000000000000e+00" cType="1" res="1.6947668045759201e-03" rms="4.6253207325935364e-01" purity="5.8037590980529785e-01" nType="-99"/>
      </Node>
    </BinaryTree>
    <BinaryTree type="DecisionTree" boostWeight="1.0000000000000000e+00" itree="1180">
      <Node pos="s" depth="0" NCoef="0" IVar="0" Cut="6.0231494903564453e-01" cType="1" res="4.7270036302506924e-03" rms="4.5090529322624207e-01" purity="5.0605398416519165e-01" nType="0">
        <Node pos="l" depth="1" NCoef="0" IVar="6" Cut="1.2074155807495117e+00" cType="1" res="2.2439459338784218e-02" rms="4.4886469841003418e-01" purity="3.5169517993927002e-01" nType="0">
          <Node pos="l" depth="2" NCoef="0" IVar="-1" Cut="0.0000000000000000e+00" cType="1" res="2.9140932019799948e-03" rms="4.6860855817794800e-01" purity="4.0634992718696594e-01" nType="-99"/>
          <Node pos="r" depth="2" NCoef="0" IVar="-1" Cut="0.0000000000000000e+00" cType="1" res="5.3118600044399500e-04" rms="4.2596039175987244e-01" purity="2.9290580749511719e-01" nType="-99"/>
        </Node>
        <Node pos="r" depth="1" NCoef="0" IVar="7" Cut="8.5246813297271729e-01" cType="1" res="-7.1740039857104421e-04" rms="4.5139107108116150e-01" purity="5.5350029468536377e-01" nType="0">
          <Node pos="l" depth="2" NCoef="0" IVar="-1" Cut="0.0000000000000000e+00" cType="1" res="-2.7492921799421310e-04" rms="4.5418825745582581e-01" purity="5.3900140523910522e-01" nType="-99"/>
          <Node pos="r" depth="2" NCoef="0" IVar="-1" Cut="0.0000000000000000e+00" cType="1" res="1.5236220788210630e-03" rms="4.3003013730049133e-01" purity="6.5771681070327759e-01" nType="-99"/>
        </Node>
      </Node>
    </BinaryTree>
    <BinaryTree type="DecisionTree" boostWeight="1.0000000000000000e+00" itree="1181">
      <Node pos="s" depth="0" NCoef="0" IVar="2" Cut="4.8123867797851562e+02" cType="1" res="-2.0990957273170352e-04" rms="4.4992461800575256e-01" purity="4.9756389856338501e-01" nType="0">
        <Node pos="l" depth="1" NCoef="0" IVar="3" Cut="1.1987282894551754e-02" cType="1" res="2.6482944376766682e-03" rms="4.4990122318267822e-01" purity="4.7552976012229919e-01" nType="0">
          <Node pos="l" depth="2" NCoef="0" IVar="-1" Cut="0.0000000000000000e+00" cType="1" res="-7.0530379889532924e-04" rms="4.4339290261268616e-01" purity="4.3569844961166382e-01" nType="-99"/>
          <Node pos="r" depth="2" NCoef="0" IVar="-1" Cut="0.0000000000000000e+00" cType="1" res="9.6482265507802367e-04" rms="4.5576682686805725e-01" purity="5.1371598243713379e-01" nType="-99"/>
        </Node>
        <Node pos="r" depth="1" NCoef="0" IVar="3" Cut="-1.4449001289904118e-02" cType="1" res="-2.0868854597210884e-02" rms="4.4955369830131531e-01" purity="6.5682554244995117e-01" nType="0">
          <Node pos="l" depth="2" NCoef="0" IVar="-1" Cut="0.0000000000000000e+00" cType="1" res="2.8699458925984800e-04" rms="4.4688928127288818e-01" purity="6.6048598289489746e-01" nType="-99"/>
          <Node pos="r" depth="2" NCoef="0" IVar="-1" Cut="0.0000000000000000e+00" cType="1" res="-3.3393898047506809e-03" rms="4.5080676674842834e-01" purity="6.5318727493286133e-01" nType="-99"/>
        </Node>
      </Node>
    </BinaryTree>
    <BinaryTree type="DecisionTree" boostWeight="1.0000000000000000e+00" itree="1182">
      <Node pos="s" depth="0" NCoef="0" IVar="3" Cut="2.0509395003318787e-01" cType="1" res="-4.2030131444334984e-03" rms="4.4894123077392578e-01" purity="4.9620005488395691e-01" nType="0">
        <Node pos="l" depth="1" NCoef="0" IVar="4" Cut="7.0156013965606689e-01" cType="1" res="-9.8411587532609701e-04" rms="4.4839283823966980e-01" purity="4.9156668782234192e-01" nType="0">
          <Node pos="l" depth="2" NCoef="0" IVar="-1" Cut="0.0000000000000000e+00" cType="1" res="1.1334635200910270e-04" rms="4.4906130433082581e-01" purity="4.9090206623077393e-01" nType="-99"/>
          <Node pos="r" depth="2" NCoef="0" IVar="-1" Cut="0.0000000000000000e+00" cType="1" res="-2.6710825040936470e-03" rms="4.3782573938369751e-01" purity="5.0054830312728882e-01" nType="-99"/>
        </Node>
        <Node pos="r" depth="1" NCoef="0" IVar="5" Cut="1.2458355631679296e-03" cType="1" res="-3.1444881111383438e-02" rms="4.5263990759849548e-01" purity="5.3541302680969238e-01" nType="0">
          <Node pos="l" depth="2" NCoef="0" IVar="-1" Cut="0.0000000000000000e+00" cType="1" res="-2.9813379514962435e-03" rms="4.3571704626083374e-01" purity="5.9176886081695557e-01" nType="-99"/>
          <Node pos="r" depth="2" NCoef="0" IVar="-1" Cut="0.0000000000000000e+00" cType="1" res="-1.3218645472079515e-03" rms="4.7030004858970642e-01" purity="4.7347402572631836e-01" nType="-99"/>
        </Node>
      </Node>
    </BinaryTree>
    <BinaryTree type="DecisionTree" boostWeight="1.0000000000000000e+00" itree="1183">
      <Node pos="s" depth="0" NCoef="0" IVar="4" Cut="4.6378132700920105e-01" cType="1" res="-6.8899645702913404e-04" rms="4.4952425360679626e-01" purity="5.0183326005935669e-01" nType="0">
        <Node pos="l" depth="1" NCoef="0" IVar="1" Cut="8.8307344913482666e-01" cType="1" res="-7.4016102589666843e-03" rms="4.5095816254615784e-01" purity="4.7946834564208984e-01" nType="0">
          <Node pos="l" depth="2" NCoef="0" IVar="-1" Cut="0.0000000000000000e+00" cType="1" res="4.4217039248906076e-04" rms="4.4805747270584106e-01" purity="3.8231122493743896e-01" nType="-99"/>
          <Node pos="r" depth="2" NCoef="0" IVar="-1" Cut="0.0000000000000000e+00" cType="1" res="-1.0669658659026027e-03" rms="4.5240440964698792e-01" purity="5.3390049934387207e-01" nType="-99"/>
        </Node>
        <Node pos="r" depth="1" NCoef="0" IVar="6" Cut="8.6670780181884766e-01" cType="1" res="1.0859113186597824e-02" rms="4.4681072235107422e-01" purity="5.4030895233154297e-01" nType="0">
          <Node pos="l" depth="2" NCoef="0" IVar="-1" Cut="0.0000000000000000e+00" cType="1" res="-9.7239448223263025e-04" rms="4.4767603278160095e-01" purity="5.7153439521789551e-01" nType="-99"/>
          <Node pos="r" depth="2" NCoef="0" IVar="-1" Cut="0.0000000000000000e+00" cType="1" res="1.3218134408816695e-03" rms="4.4628140330314636e-01" purity="5.3084832429885864e-01" nType="-99"/>
        </Node>
      </Node>
    </BinaryTree>
    <BinaryTree type="DecisionTree" boostWeight="1.0000000000000000e+00" itree="1184">
      <Node pos="s" depth="0" NCoef="0" IVar="7" Cut="4.1747269034385681e-01" cType="1" res="-6.9719753228127956e-03" rms="4.4916671514511108e-01" purity="4.8998323082923889e-01" nType="0">
        <Node pos="l" depth="1" NCoef="0" IVar="7" Cut="3.7189123034477234e-01" cType="1" res="1.5145844779908657e-02" rms="4.4977152347564697e-01" purity="4.6198675036430359e-01" nType="0">
          <Node pos="l" depth="2" NCoef="0" IVar="-1" Cut="0.0000000000000000e+00" cType="1" res="-8.6548869148828089e-05" rms="4.5540487766265869e-01" purity="4.6133348345756531e-01" nType="-99"/>
          <Node pos="r" depth="2" NCoef="0" IVar="-1" Cut="0.0000000000000000e+00" cType="1" res="2.7026403695344925e-03" rms="4.4176387786865234e-01" purity="4.6280494332313538e-01" nType="-99"/>
        </Node>
        <Node pos="r" depth="1" NCoef="0" IVar="1" Cut="9.3324732780456543e-01" cType="1" res="-9.9268602207303047e-03" rms="4.4900336861610413e-01" purity="4.9372348189353943e-01" nType="0">
          <Node pos="l" depth="2" NCoef="0" IVar="-1" Cut="0.0000000000000000e+00" cType="1" res="-1.1225161142647266e-03" rms="4.5413619279861450e-01" purity="4.1197267174720764e-01" nType="-99"/>
          <Node pos="r" depth="2" NCoef="0" IVar="-1" Cut="0.0000000000000000e+00" cType="1" res="2.1769707382190973e-04" rms="4.3606495857238770e-01" purity="6.9148766994476318e-01" nType="-99"/>
        </Node>
      </Node>
    </BinaryTree>
    <BinaryTree type="DecisionTree" boostWeight="1.0000000000000000e+00" itree="1185">
      <Node pos="s" depth="0" NCoef="0" IVar="1" Cut="8.5997670888900757e-01" cType="1" res="-2.1662318613380194e-03" rms="4.4809257984161377e-01" purity="4.9587395787239075e-01" nType="0">
        <Node pos="l" depth="1" NCoef="0" IVar="5" Cut="3.4853683318942785e-03" cType="1" res="-3.6616820842027664e-02" rms="4.3042695522308350e-01" purity="3.2858777046203613e-01" nType="0">
          <Node pos="l" depth="2" NCoef="0" IVar="-1" Cut="0.0000000000000000e+00" cType="1" res="-4.8529114574193954e-03" rms="4.1761747002601624e-01" purity="2.8537982702255249e-01" nType="-99"/>
          <Node pos="r" depth="2" NCoef="0" IVar="-1" Cut="0.0000000000000000e+00" cType="1" res="-7.7667506411671638e-04" rms="4.4461697340011597e-01" purity="3.8280546665191650e-01" nType="-99"/>
        </Node>
        <Node pos="r" depth="1" NCoef="0" IVar="6" Cut="6.9675815105438232e-01" cType="1" res="2.4632797576487064e-03" rms="4.5021283626556396e-01" purity="5.1835405826568604e-01" nType="0">
          <Node pos="l" depth="2" NCoef="0" IVar="-1" Cut="0.0000000000000000e+00" cType="1" res="-1.4843562385067344e-03" rms="4.4591951370239258e-01" purity="5.7184463739395142e-01" nType="-99"/>
          <Node pos="r" depth="2" NCoef="0" IVar="-1" Cut="0.0000000000000000e+00" cType="1" res="4.0748741594143212e-04" rms="4.5070046186447144e-01" purity="5.1107704639434814e-01" nType="-99"/>
        </Node>
      </Node>
    </BinaryTree>
    <BinaryTree type="DecisionTree" boostWeight="1.0000000000000000e+00" itree="1186">
      <Node pos="s" depth="0" NCoef="0" IVar="5" Cut="3.6132233217358589e-03" cType="1" res="1.1303186183795333e-03" rms="4.5181810855865479e-01" purity="4.9576681852340698e-01" nType="0">
        <Node pos="l" depth="1" NCoef="0" IVar="4" Cut="1.2959522008895874e-01" cType="1" res="-2.7883311850018799e-04" rms="4.5096093416213989e-01" purity="5.0072240829467773e-01" nType="0">
          <Node pos="l" depth="2" NCoef="0" IVar="-1" Cut="0.0000000000000000e+00" cType="1" res="1.7852787859737873e-03" rms="4.5292273163795471e-01" purity="4.4977217912673950e-01" nType="-99"/>
          <Node pos="r" depth="2" NCoef="0" IVar="-1" Cut="0.0000000000000000e+00" cType="1" res="-1.4376537001226097e-04" rms="4.5077630877494812e-01" purity="5.0423616170883179e-01" nType="-99"/>
        </Node>
        <Node pos="r" depth="1" NCoef="0" IVar="-1" Cut="0.0000000000000000e+00" cType="1" res="1.6195349162444472e-03" rms="4.6448087692260742e-01" purity="4.1814452409744263e-01" nType="-99"/>
      </Node>
    </BinaryTree>
    <BinaryTree type="DecisionTree" boostWeight="1.0000000000000000e+00" itree="1187">
      <Node pos="s" depth="0" NCoef="0" IVar="1" Cut="9.4482505321502686e-01" cType="1" res="7.0864631561562419e-04" rms="4.4890937209129333e-01" purity="4.9940106272697449e-01" nType="0">
        <Node pos="l" depth="1" NCoef="0" IVar="0" Cut="1.2173845767974854e+00" cType="1" res="-3.1829895451664925e-03" rms="4.5768097043037415e-01" purity="4.3282601237297058e-01" nType="0">
          <Node pos="l" depth="2" NCoef="0" IVar="-1" Cut="0.0000000000000000e+00" cType="1" res="6.7548116203397512e-04" rms="4.5271310210227966e-01" purity="3.6014199256896973e-01" nType="-99"/>
          <Node pos="r" depth="2" NCoef="0" IVar="-1" Cut="0.0000000000000000e+00" cType="1" res="-9.4905687728896737e-04" rms="4.6219387650489807e-01" purity="5.0363755226135254e-01" nType="-99"/>
        </Node>
        <Node pos="r" depth="1" NCoef="0" IVar="3" Cut="7.2843274101614952e-03" cType="1" res="1.4173407107591629e-02" rms="4.1685941815376282e-01" purity="7.2974562644958496e-01" nType="0">
          <Node pos="l" depth="2" NCoef="0" IVar="-1" Cut="0.0000000000000000e+00" cType="1" res="2.0778216421604156e-03" rms="4.2103517055511475e-01" purity="7.1716469526290894e-01" nType="-99"/>
          <Node pos="r" depth="2" NCoef="0" IVar="-1" Cut="0.0000000000000000e+00" cType="1" res="-5.5169290135381743e-05" rms="4.1204980015754700e-01" purity="7.4249321222305298e-01" nType="-99"/>
        </Node>
      </Node>
    </BinaryTree>
    <BinaryTree type="DecisionTree" boostWeight="1.0000000000000000e+00" itree="1188">
      <Node pos="s" depth="0" NCoef="0" IVar="1" Cut="9.6410721540451050e-01" cType="1" res="6.2986696138978004e-04" rms="4.4619587063789368e-01" purity="4.9935537576675415e-01" nType="0">
        <Node pos="l" depth="1" NCoef="0" IVar="5" Cut="2.5685154832899570e-03" cType="1" res="-2.8229432646185160e-03" rms="4.5511111617088318e-01" purity="4.5340093970298767e-01" nType="0">
          <Node pos="l" depth="2" NCoef="0" IVar="-1" Cut="0.0000000000000000e+00" cType="1" res="-5.7799986097961664e-04" rms="4.5435610413551331e-01" purity="4.6922132372856140e-01" nType="-99"/>
          <Node pos="r" depth="2" NCoef="0" IVar="-1" Cut="0.0000000000000000e+00" cType="1" res="8.8532594963908195e-04" rms="4.5695111155509949e-01" purity="4.0767201781272888e-01" nType="-99"/>
        </Node>
        <Node pos="r" depth="1" NCoef="0" IVar="6" Cut="1.1015174388885498e+00" cType="1" res="2.2911472246050835e-02" rms="3.8296696543693542e-01" purity="7.9590761661529541e-01" nType="0">
          <Node pos="l" depth="2" NCoef="0" IVar="-1" Cut="0.0000000000000000e+00" cType="1" res="2.4258242920041084e-03" rms="3.6879417300224304e-01" purity="8.2574629783630371e-01" nType="-99"/>
          <Node pos="r" depth="2" NCoef="0" IVar="-1" Cut="0.0000000000000000e+00" cType="1" res="1.1889351299032569e-03" rms="3.9654505252838135e-01" purity="7.6596719026565552e-01" nType="-99"/>
        </Node>
      </Node>
    </BinaryTree>
    <BinaryTree type="DecisionTree" boostWeight="1.0000000000000000e+00" itree="1189">
      <Node pos="s" depth="0" NCoef="0" IVar="6" Cut="7.5722402334213257e-01" cType="1" res="-1.3584377011284232e-03" rms="4.4688454270362854e-01" purity="4.9971231818199158e-01" nType="0">
        <Node pos="l" depth="1" NCoef="0" IVar="4" Cut="4.2877703905105591e-01" cType="1" res="-2.1364072337746620e-02" rms="4.4935068488121033e-01" purity="5.5700427293777466e-01" nType="0">
          <Node pos="l" depth="2" NCoef="0" IVar="-1" Cut="0.0000000000000000e+00" cType="1" res="-5.2188901463523507e-04" rms="4.5097193121910095e-01" purity="5.6276255846023560e-01" nType="-99"/>
          <Node pos="r" depth="2" NCoef="0" IVar="-1" Cut="0.0000000000000000e+00" cType="1" res="-3.2816794700920582e-03" rms="4.4568395614624023e-01" purity="5.4739516973495483e-01" nType="-99"/>
        </Node>
        <Node pos="r" depth="1" NCoef="0" IVar="2" Cut="2.1968833923339844e+02" cType="1" res="2.5991229340434074e-03" rms="4.4628885388374329e-01" purity="4.8837870359420776e-01" nType="0">
          <Node pos="l" depth="2" NCoef="0" IVar="-1" Cut="0.0000000000000000e+00" cType="1" res="-2.2582078818231821e-03" rms="3.9828547835350037e-01" purity="2.4544069170951843e-01" nType="-99"/>
          <Node pos="r" depth="2" NCoef="0" IVar="-1" Cut="0.0000000000000000e+00" cType="1" res="4.5050014159642160e-04" rms="4.5332589745521545e-01" purity="5.2696448564529419e-01" nType="-99"/>
        </Node>
      </Node>
    </BinaryTree>
    <BinaryTree type="DecisionTree" boostWeight="1.0000000000000000e+00" itree="1190">
      <Node pos="s" depth="0" NCoef="0" IVar="6" Cut="1.5423951148986816e+00" cType="1" res="-7.4022205080837011e-04" rms="4.4713160395622253e-01" purity="4.9887621402740479e-01" nType="0">
        <Node pos="l" depth="1" NCoef="0" IVar="6" Cut="1.4254288673400879e+00" cType="1" res="2.9788610991090536e-03" rms="4.5071011781692505e-01" purity="5.2303200960159302e-01" nType="0">
          <Node pos="l" depth="2" NCoef="0" IVar="-1" Cut="0.0000000000000000e+00" cType="1" res="1.7951189875020646e-05" rms="4.5153519511222839e-01" purity="5.2776873111724854e-01" nType="-99"/>
          <Node pos="r" depth="2" NCoef="0" IVar="-1" Cut="0.0000000000000000e+00" cType="1" res="2.1338164806365967e-03" rms="4.4192627072334290e-01" purity="4.7788473963737488e-01" nType="-99"/>
        </Node>
        <Node pos="r" depth="1" NCoef="0" IVar="0" Cut="1.4758832454681396e+00" cType="1" res="-1.3904805295169353e-02" rms="4.3397170305252075e-01" purity="4.1337087750434875e-01" nType="0">
          <Node pos="l" depth="2" NCoef="0" IVar="-1" Cut="0.0000000000000000e+00" cType="1" res="3.5291651147417724e-04" rms="4.2265889048576355e-01" purity="3.1320017576217651e-01" nType="-99"/>
          <Node pos="r" depth="2" NCoef="0" IVar="-1" Cut="0.0000000000000000e+00" cType="1" res="-2.2603434044867754e-03" rms="4.4414383172988892e-01" purity="5.1203989982604980e-01" nType="-99"/>
        </Node>
      </Node>
    </BinaryTree>
    <BinaryTree type="DecisionTree" boostWeight="1.0000000000000000e+00" itree="1191">
      <Node pos="s" depth="0" NCoef="0" IVar="3" Cut="1.9124445319175720e-01" cType="1" res="5.7107461616396904e-03" rms="4.5092278718948364e-01" purity="5.0173723697662354e-01" nType="0">
        <Node pos="l" depth="1" NCoef="0" IVar="6" Cut="6.1425828933715820e-01" cType="1" res="2.5723313447088003e-03" rms="4.4957217574119568e-01" purity="4.8994678258895874e-01" nType="0">
          <Node pos="l" depth="2" NCoef="0" IVar="-1" Cut="0.0000000000000000e+00" cType="1" res="1.7232166137546301e-03" rms="4.5359328389167786e-01" purity="6.0011780261993408e-01" nType="-99"/>
          <Node pos="r" depth="2" NCoef="0" IVar="-1" Cut="0.0000000000000000e+00" cType="1" res="5.8520021411823109e-05" rms="4.4920817017555237e-01" purity="4.8134776949882507e-01" nType="-99"/>
        </Node>
        <Node pos="r" depth="1" NCoef="0" IVar="6" Cut="1.1726140975952148e+00" cType="1" res="2.6918871328234673e-02" rms="4.5938402414321899e-01" purity="5.8141279220581055e-01" nType="0">
          <Node pos="l" depth="2" NCoef="0" IVar="-1" Cut="0.0000000000000000e+00" cType="1" res="4.6899408334866166e-04" rms="4.6178606152534485e-01" purity="6.0092514753341675e-01" nType="-99"/>
          <Node pos="r" depth="2" NCoef="0" IVar="-1" Cut="0.0000000000000000e+00" cType="1" res="3.0149216763675213e-03" rms="4.5630496740341187e-01" purity="5.6289416551589966e-01" nType="-99"/>
        </Node>
      </Node>
    </BinaryTree>
    <BinaryTree type="DecisionTree" boostWeight="1.0000000000000000e+00" itree="1192">
      <Node pos="s" depth="0" NCoef="0" IVar="1" Cut="8.8692367076873779e-01" cType="1" res="3.7438229192048311e-03" rms="4.5052453875541687e-01" purity="5.0422704219818115e-01" nType="0">
        <Node pos="l" depth="1" NCoef="0" IVar="3" Cut="1.6140505671501160e-01" cType="1" res="1.4799588359892368e-02" rms="4.5348885655403137e-01" purity="3.9845409989356995e-01" nType="0">
          <Node pos="l" depth="2" NCoef="0" IVar="-1" Cut="0.0000000000000000e+00" cType="1" res="4.9256416969001293e-04" rms="4.4792011380195618e-01" purity="3.7600153684616089e-01" nType="-99"/>
          <Node pos="r" depth="2" NCoef="0" IVar="-1" Cut="0.0000000000000000e+00" cType="1" res="3.1442358158528805e-03" rms="4.7400775551795959e-01" purity="4.9010205268859863e-01" nType="-99"/>
        </Node>
        <Node pos="r" depth="1" NCoef="0" IVar="1" Cut="8.9551877975463867e-01" cType="1" res="-3.2135585788637400e-03" rms="4.4850936532020569e-01" purity="5.7078981399536133e-01" nType="0">
          <Node pos="l" depth="2" NCoef="0" IVar="-1" Cut="0.0000000000000000e+00" cType="1" res="-3.0815312638878822e-03" rms="4.4961780309677124e-01" purity="3.7468421459197998e-01" nType="-99"/>
          <Node pos="r" depth="2" NCoef="0" IVar="-1" Cut="0.0000000000000000e+00" cType="1" res="7.6852549682371318e-05" rms="4.4818171858787537e-01" purity="5.9336155652999878e-01" nType="-99"/>
        </Node>
      </Node>
    </BinaryTree>
    <BinaryTree type="DecisionTree" boostWeight="1.0000000000000000e+00" itree="1193">
      <Node pos="s" depth="0" NCoef="0" IVar="0" Cut="2.2389721870422363e+00" cType="1" res="-7.6655591838061810e-03" rms="4.4791686534881592e-01" purity="4.9158087372779846e-01" nType="0">
        <Node pos="l" depth="1" NCoef="0" IVar="5" Cut="1.8066554330289364e-03" cType="1" res="-1.3329530134797096e-02" rms="4.4988155364990234e-01" purity="3.9887630939483643e-01" nType="0">
          <Node pos="l" depth="2" NCoef="0" IVar="-1" Cut="0.0000000000000000e+00" cType="1" res="-2.9518891824409366e-04" rms="4.5251926779747009e-01" purity="4.4727432727813721e-01" nType="-99"/>
          <Node pos="r" depth="2" NCoef="0" IVar="-1" Cut="0.0000000000000000e+00" cType="1" res="-1.9337439443916082e-03" rms="4.4634762406349182e-01" purity="3.3942997455596924e-01" nType="-99"/>
        </Node>
        <Node pos="r" depth="1" NCoef="0" IVar="1" Cut="9.2940586805343628e-01" cType="1" res="2.5204059202224016e-03" rms="4.4418007135391235e-01" purity="6.5829873085021973e-01" nType="0">
          <Node pos="l" depth="2" NCoef="0" IVar="-1" Cut="0.0000000000000000e+00" cType="1" res="1.3639748794957995e-03" rms="4.6458816528320312e-01" purity="5.9347957372665405e-01" nType="-99"/>
          <Node pos="r" depth="2" NCoef="0" IVar="-1" Cut="0.0000000000000000e+00" cType="1" res="-1.1043662670999765e-03" rms="4.2440563440322876e-01" purity="7.1605163812637329e-01" nType="-99"/>
        </Node>
      </Node>
    </BinaryTree>
    <BinaryTree type="DecisionTree" boostWeight="1.0000000000000000e+00" itree="1194">
      <Node pos="s" depth="0" NCoef="0" IVar="0" Cut="1.5293844044208527e-01" cType="1" res="3.9443718269467354e-03" rms="4.4884255528450012e-01" purity="4.9912211298942566e-01" nType="0">
        <Node pos="l" depth="1" NCoef="0" IVar="0" Cut="-2.0308679342269897e-01" cType="1" res="-1.5165046788752079e-02" rms="4.1985559463500977e-01" purity="2.8274986147880554e-01" nType="0">
          <Node pos="l" depth="2" NCoef="0" IVar="-1" Cut="0.0000000000000000e+00" cType="1" res="1.1856349883601069e-03" rms="4.3015074729919434e-01" purity="3.1755295395851135e-01" nType="-99"/>
          <Node pos="r" depth="2" NCoef="0" IVar="-1" Cut="0.0000000000000000e+00" cType="1" res="-4.6423813328146935e-03" rms="4.0634983777999878e-01" purity="2.4545626342296600e-01" nType="-99"/>
        </Node>
        <Node pos="r" depth="1" NCoef="0" IVar="3" Cut="1.6354545950889587e-01" cType="1" res="6.6544446162879467e-03" rms="4.5273795723915100e-01" purity="5.2980774641036987e-01" nType="0">
          <Node pos="l" depth="2" NCoef="0" IVar="-1" Cut="0.0000000000000000e+00" cType="1" res="1.4973887300584465e-04" rms="4.5220947265625000e-01" purity="5.1576548814773560e-01" nType="-99"/>
          <Node pos="r" depth="2" NCoef="0" IVar="-1" Cut="0.0000000000000000e+00" cType="1" res="1.7796959728002548e-03" rms="4.5454928278923035e-01" purity="5.9318614006042480e-01" nType="-99"/>
        </Node>
      </Node>
    </BinaryTree>
    <BinaryTree type="DecisionTree" boostWeight="1.0000000000000000e+00" itree="1195">
      <Node pos="s" depth="0" NCoef="0" IVar="1" Cut="8.6380869150161743e-01" cType="1" res="-1.0399147868156433e-03" rms="4.4884124398231506e-01" purity="4.9701148271560669e-01" nType="0">
        <Node pos="l" depth="1" NCoef="0" IVar="5" Cut="3.3568243961781263e-03" cType="1" res="-1.6845412552356720e-02" rms="4.4490706920623779e-01" purity="3.4223705530166626e-01" nType="0">
          <Node pos="l" depth="2" NCoef="0" IVar="-1" Cut="0.0000000000000000e+00" cType="1" res="-3.2527968287467957e-03" rms="4.2778173089027405e-01" purity="2.9069751501083374e-01" nType="-99"/>
          <Node pos="r" depth="2" NCoef="0" IVar="-1" Cut="0.0000000000000000e+00" cType="1" res="3.5014568129554391e-04" rms="4.6095001697540283e-01" purity="3.9552649855613708e-01" nType="-99"/>
        </Node>
        <Node pos="r" depth="1" NCoef="0" IVar="6" Cut="1.2855116128921509e+00" cType="1" res="1.9443790661171079e-03" rms="4.4951784610748291e-01" purity="5.2623498439788818e-01" nType="0">
          <Node pos="l" depth="2" NCoef="0" IVar="-1" Cut="0.0000000000000000e+00" cType="1" res="7.0923450402915478e-04" rms="4.5319133996963501e-01" purity="5.6932055950164795e-01" nType="-99"/>
          <Node pos="r" depth="2" NCoef="0" IVar="-1" Cut="0.0000000000000000e+00" cType="1" res="-8.1846461398527026e-04" rms="4.4355955719947815e-01" purity="4.6058264374732971e-01" nType="-99"/>
        </Node>
      </Node>
    </BinaryTree>
    <BinaryTree type="DecisionTree" boostWeight="1.0000000000000000e+00" itree="1196">
      <Node pos="s" depth="0" NCoef="0" IVar="4" Cut="5.9782111644744873e-01" cType="1" res="3.2478128559887409e-03" rms="4.4990345835685730e-01" purity="5.0325715541839600e-01" nType="0">
        <Node pos="l" depth="1" NCoef="0" IVar="3" Cut="-1.3214129209518433e-01" cType="1" res="-1.4263835037127137e-03" rms="4.5032739639282227e-01" purity="4.9131625890731812e-01" nType="0">
          <Node pos="l" depth="2" NCoef="0" IVar="-1" Cut="0.0000000000000000e+00" cType="1" res="2.8681301046162844e-03" rms="4.4684094190597534e-01" purity="4.6213001012802124e-01" nType="-99"/>
          <Node pos="r" depth="2" NCoef="0" IVar="-1" Cut="0.0000000000000000e+00" cType="1" res="-2.9106892179697752e-04" rms="4.5043995976448059e-01" purity="4.9326398968696594e-01" nType="-99"/>
        </Node>
        <Node pos="r" depth="1" NCoef="0" IVar="6" Cut="1.2348098754882812e+00" cType="1" res="2.5017244741320610e-02" rms="4.4728058576583862e-01" purity="5.5886989831924438e-01" nType="0">
          <Node pos="l" depth="2" NCoef="0" IVar="-1" Cut="0.0000000000000000e+00" cType="1" res="3.3160739112645388e-03" rms="4.4921618700027466e-01" purity="6.1479640007019043e-01" nType="-99"/>
          <Node pos="r" depth="2" NCoef="0" IVar="-1" Cut="0.0000000000000000e+00" cType="1" res="-6.2551742303185165e-05" rms="4.4368475675582886e-01" purity="4.9645954370498657e-01" nType="-99"/>
        </Node>
      </Node>
    </BinaryTree>
    <BinaryTree type="DecisionTree" boostWeight="1.0000000000000000e+00" itree="1197">
      <Node pos="s" depth="0" NCoef="0" IVar="1" Cut="9.0996325016021729e-01" cType="1" res="-3.9792596362531185e-03" rms="4.4761741161346436e-01" purity="4.9731451272964478e-01" nType="0">
        <Node pos="l" depth="1" NCoef="0" IVar="1" Cut="8.9101600646972656e-01" cType="1" res="-1.3137681409716606e-02" rms="4.5076739788055420e-01" purity="3.8399156928062439e-01" nType="0">
          <Node pos="l" depth="2" NCoef="0" IVar="-1" Cut="0.0000000000000000e+00" cType="1" res="-4.7457547043450177e-04" rms="4.4919607043266296e-01" purity="3.7468910217285156e-01" nType="-99"/>
          <Node pos="r" depth="2" NCoef="0" IVar="-1" Cut="0.0000000000000000e+00" cType="1" res="-2.4580711033195257e-03" rms="4.5476707816123962e-01" purity="4.1148969531059265e-01" nType="-99"/>
        </Node>
        <Node pos="r" depth="1" NCoef="0" IVar="5" Cut="5.3301261505112052e-04" cType="1" res="7.0972088724374771e-03" rms="4.4352528452873230e-01" purity="6.3437068462371826e-01" nType="0">
          <Node pos="l" depth="2" NCoef="0" IVar="-1" Cut="0.0000000000000000e+00" cType="1" res="-1.0029268014477566e-04" rms="4.2859995365142822e-01" purity="6.8177497386932373e-01" nType="-99"/>
          <Node pos="r" depth="2" NCoef="0" IVar="-1" Cut="0.0000000000000000e+00" cType="1" res="1.3414298882707953e-03" rms="4.6568968892097473e-01" purity="5.5993014574050903e-01" nType="-99"/>
        </Node>
      </Node>
    </BinaryTree>
    <BinaryTree type="DecisionTree" boostWeight="1.0000000000000000e+00" itree="1198">
      <Node pos="s" depth="0" NCoef="0" IVar="1" Cut="8.5997241735458374e-01" cType="1" res="1.9166783895343542e-03" rms="4.4828376173973083e-01" purity="5.0211572647094727e-01" nType="0">
        <Node pos="l" depth="1" NCoef="0" IVar="1" Cut="8.5403758287429810e-01" cType="1" res="2.7666799724102020e-02" rms="4.6122843027114868e-01" purity="3.9317288994789124e-01" nType="0">
          <Node pos="l" depth="2" NCoef="0" IVar="-1" Cut="0.0000000000000000e+00" cType="1" res="1.0046834358945489e-04" rms="4.5232269167900085e-01" purity="3.6096185445785522e-01" nType="-99"/>
          <Node pos="r" depth="2" NCoef="0" IVar="-1" Cut="0.0000000000000000e+00" cType="1" res="3.6602111067622900e-03" rms="4.6758070588111877e-01" purity="4.2094668745994568e-01" nType="-99"/>
        </Node>
        <Node pos="r" depth="1" NCoef="0" IVar="2" Cut="2.1417602539062500e+02" cType="1" res="-1.6080548521131277e-03" rms="4.4636708498001099e-01" purity="5.1702803373336792e-01" nType="0">
          <Node pos="l" depth="2" NCoef="0" IVar="-1" Cut="0.0000000000000000e+00" cType="1" res="-2.8932054992765188e-03" rms="4.0365096926689148e-01" purity="2.5753614306449890e-01" nType="-99"/>
          <Node pos="r" depth="2" NCoef="0" IVar="-1" Cut="0.0000000000000000e+00" cType="1" res="1.2208225962240249e-04" rms="4.5117661356925964e-01" purity="5.4862052202224731e-01" nType="-99"/>
        </Node>
      </Node>
    </BinaryTree>
    <BinaryTree type="DecisionTree" boostWeight="1.0000000000000000e+00" itree="1199">
      <Node pos="s" depth="0" NCoef="0" IVar="3" Cut="1.5273690223693848e-01" cType="1" res="4.5640189200639725e-03" rms="4.5099765062332153e-01" purity="5.0215107202529907e-01" nType="0">
        <Node pos="l" depth="1" NCoef="0" IVar="6" Cut="6.1858063936233521e-01" cType="1" res="-3.7220315425656736e-04" rms="4.4895961880683899e-01" purity="4.8638015985488892e-01" nType="0">
          <Node pos="l" depth="2" NCoef="0" IVar="-1" Cut="0.0000000000000000e+00" cType="1" res="2.3389144334942102e-03" rms="4.4411933422088623e-01" purity="6.1703026294708252e-01" nType="-99"/>
          <Node pos="r" depth="2" NCoef="0" IVar="-1" Cut="0.0000000000000000e+00" cType="1" res="-2.4097913410514593e-04" rms="4.4924023747444153e-01" purity="4.7552117705345154e-01" nType="-99"/>
        </Node>
        <Node pos="r" depth="1" NCoef="0" IVar="2" Cut="3.4451095581054688e+02" cType="1" res="2.5249283760786057e-02" rms="4.5886263251304626e-01" purity="5.6823891401290894e-01" nType="0">
          <Node pos="l" depth="2" NCoef="0" IVar="-1" Cut="0.0000000000000000e+00" cType="1" res="2.4068062193691730e-03" rms="4.6781912446022034e-01" purity="5.1988351345062256e-01" nType="-99"/>
          <Node pos="r" depth="2" NCoef="0" IVar="-1" Cut="0.0000000000000000e+00" cType="1" res="2.2831711976323277e-04" rms="4.3913522362709045e-01" purity="6.6732645034790039e-01" nType="-99"/>
        </Node>
      </Node>
    </BinaryTree>
    <BinaryTree type="DecisionTree" boostWeight="1.0000000000000000e+00" itree="1200">
      <Node pos="s" depth="0" NCoef="0" IVar="4" Cut="4.5764386653900146e-01" cType="1" res="-5.9256572276353836e-03" rms="4.4596099853515625e-01" purity="4.9336579442024231e-01" nType="0">
        <Node pos="l" depth="1" NCoef="0" IVar="0" Cut="3.8472213745117188e+00" cType="1" res="-1.2302387505769730e-02" rms="4.4488239288330078e-01" purity="4.7063079476356506e-01" nType="0">
          <Node pos="l" depth="2" NCoef="0" IVar="-1" Cut="0.0000000000000000e+00" cType="1" res="-1.3164785923436284e-03" rms="4.5035815238952637e-01" purity="4.2893546819686890e-01" nType="-99"/>
          <Node pos="r" depth="2" NCoef="0" IVar="-1" Cut="0.0000000000000000e+00" cType="1" res="1.6649431781843305e-03" rms="4.0393498539924622e-01" purity="7.5361788272857666e-01" nType="-99"/>
        </Node>
        <Node pos="r" depth="1" NCoef="0" IVar="1" Cut="9.2542475461959839e-01" cType="1" res="4.3822694569826126e-03" rms="4.4750699400901794e-01" purity="5.3011667728424072e-01" nType="0">
          <Node pos="l" depth="2" NCoef="0" IVar="-1" Cut="0.0000000000000000e+00" cType="1" res="1.0212277993559837e-03" rms="4.5888525247573853e-01" purity="4.4879034161567688e-01" nType="-99"/>
          <Node pos="r" depth="2" NCoef="0" IVar="-1" Cut="0.0000000000000000e+00" cType="1" res="-1.1247569927945733e-03" rms="4.2374178767204285e-01" purity="6.8886357545852661e-01" nType="-99"/>
        </Node>
      </Node>
    </BinaryTree>
    <BinaryTree type="DecisionTree" boostWeight="1.0000000000000000e+00" itree="1201">
      <Node pos="s" depth="0" NCoef="0" IVar="7" Cut="6.8350678682327271e-01" cType="1" res="-1.2969493400305510e-03" rms="4.4961580634117126e-01" purity="4.9668830633163452e-01" nType="0">
        <Node pos="l" depth="1" NCoef="0" IVar="4" Cut="2.2751018404960632e-01" cType="1" res="7.3110042139887810e-03" rms="4.5135489106178284e-01" purity="4.6515664458274841e-01" nType="0">
          <Node pos="l" depth="2" NCoef="0" IVar="-1" Cut="0.0000000000000000e+00" cType="1" res="-6.4633798319846392e-04" rms="4.4804126024246216e-01" purity="4.2346787452697754e-01" nType="-99"/>
          <Node pos="r" depth="2" NCoef="0" IVar="-1" Cut="0.0000000000000000e+00" cType="1" res="1.0439141187816858e-03" rms="4.5266073942184448e-01" purity="4.8392742872238159e-01" nType="-99"/>
        </Node>
        <Node pos="r" depth="1" NCoef="0" IVar="3" Cut="-1.1328552849590778e-02" cType="1" res="-1.2729506939649582e-02" rms="4.4703939557075500e-01" purity="5.3856676816940308e-01" nType="0">
          <Node pos="l" depth="2" NCoef="0" IVar="-1" Cut="0.0000000000000000e+00" cType="1" res="-2.4400405527558178e-04" rms="4.4745576381683350e-01" purity="5.3963583707809448e-01" nType="-99"/>
          <Node pos="r" depth="2" NCoef="0" IVar="-1" Cut="0.0000000000000000e+00" cType="1" res="-2.1014104131609201e-03" rms="4.4586893916130066e-01" purity="5.3673142194747925e-01" nType="-99"/>
        </Node>
      </Node>
    </BinaryTree>
    <BinaryTree type="DecisionTree" boostWeight="1.0000000000000000e+00" itree="1202">
      <Node pos="s" depth="0" NCoef="0" IVar="4" Cut="2.2194829583168030e-01" cType="1" res="1.4964636648073792e-04" rms="4.4901052117347717e-01" purity="4.9760454893112183e-01" nType="0">
        <Node pos="l" depth="1" NCoef="0" IVar="5" Cut="2.1293931640684605e-03" cType="1" res="-1.2803748250007629e-02" rms="4.4882494211196899e-01" purity="4.3905138969421387e-01" nType="0">
          <Node pos="l" depth="2" NCoef="0" IVar="-1" Cut="0.0000000000000000e+00" cType="1" res="-2.0303688943386078e-03" rms="4.4495701789855957e-01" purity="4.6156060695648193e-01" nType="-99"/>
          <Node pos="r" depth="2" NCoef="0" IVar="-1" Cut="0.0000000000000000e+00" cType="1" res="1.2340268585830927e-03" rms="4.5548078417778015e-01" purity="3.9142158627510071e-01" nType="-99"/>
        </Node>
        <Node pos="r" depth="1" NCoef="0" IVar="0" Cut="-7.7462270855903625e-02" cType="1" res="3.3946998883038759e-03" rms="4.4899848103523254e-01" purity="5.1227319240570068e-01" nType="0">
          <Node pos="l" depth="2" NCoef="0" IVar="-1" Cut="0.0000000000000000e+00" cType="1" res="-2.6475577615201473e-03" rms="4.1794395446777344e-01" purity="2.8361499309539795e-01" nType="-99"/>
          <Node pos="r" depth="2" NCoef="0" IVar="-1" Cut="0.0000000000000000e+00" cType="1" res="4.3430662481114268e-04" rms="4.5144042372703552e-01" purity="5.3176522254943848e-01" nType="-99"/>
        </Node>
      </Node>
    </BinaryTree>
    <BinaryTree type="DecisionTree" boostWeight="1.0000000000000000e+00" itree="1203">
      <Node pos="s" depth="0" NCoef="0" IVar="3" Cut="9.1960892081260681e-02" cType="1" res="3.5479578655213118e-03" rms="4.4819182157516479e-01" purity="5.0347501039505005e-01" nType="0">
        <Node pos="l" depth="1" NCoef="0" IVar="3" Cut="8.8969124481081963e-03" cType="1" res="9.1540217399597168e-03" rms="4.4623133540153503e-01" purity="4.9322041869163513e-01" nType="0">
          <Node pos="l" depth="2" NCoef="0" IVar="-1" Cut="0.0000000000000000e+00" cType="1" res="3.8536269130418077e-05" rms="4.4396245479583740e-01" purity="4.7407644987106323e-01" nType="-99"/>
          <Node pos="r" depth="2" NCoef="0" IVar="-1" Cut="0.0000000000000000e+00" cType="1" res="2.1366490982472897e-03" rms="4.5108023285865784e-01" purity="5.4053723812103271e-01" nType="-99"/>
        </Node>
        <Node pos="r" depth="1" NCoef="0" IVar="4" Cut="2.9202055931091309e-01" cType="1" res="-9.2866001650691032e-03" rms="4.5238667726516724e-01" purity="5.2695178985595703e-01" nType="0">
          <Node pos="l" depth="2" NCoef="0" IVar="-1" Cut="0.0000000000000000e+00" cType="1" res="4.9730384489521384e-04" rms="4.5177048444747925e-01" purity="5.3163456916809082e-01" nType="-99"/>
          <Node pos="r" depth="2" NCoef="0" IVar="-1" Cut="0.0000000000000000e+00" cType="1" res="-1.6456049634143710e-03" rms="4.5243436098098755e-01" purity="5.2303564548492432e-01" nType="-99"/>
        </Node>
      </Node>
    </BinaryTree>
    <BinaryTree type="DecisionTree" boostWeight="1.0000000000000000e+00" itree="1204">
      <Node pos="s" depth="0" NCoef="0" IVar="1" Cut="8.5611510276794434e-01" cType="1" res="3.2867011614143848e-03" rms="4.4945463538169861e-01" purity="5.0307470560073853e-01" nType="0">
        <Node pos="l" depth="1" NCoef="0" IVar="-1" Cut="0.0000000000000000e+00" cType="1" res="-1.7098517855629325e-03" rms="4.3888068199157715e-01" purity="3.3389720320701599e-01" nType="-99"/>
        <Node pos="r" depth="1" NCoef="0" IVar="1" Cut="9.1831952333450317e-01" cType="1" res="5.3099226206541061e-03" rms="4.5024898648262024e-01" purity="5.1692068576812744e-01" nType="0">
          <Node pos="l" depth="2" NCoef="0" IVar="-1" Cut="0.0000000000000000e+00" cType="1" res="8.8559160940349102e-04" rms="4.5563521981239319e-01" purity="4.3065619468688965e-01" nType="-99"/>
          <Node pos="r" depth="2" NCoef="0" IVar="-1" Cut="0.0000000000000000e+00" cType="1" res="-3.4871406387537718e-04" rms="4.4203850626945496e-01" purity="6.4336067438125610e-01" nType="-99"/>
        </Node>
      </Node>
    </BinaryTree>
    <BinaryTree type="DecisionTree" boostWeight="1.0000000000000000e+00" itree="1205">
      <Node pos="s" depth="0" NCoef="0" IVar="6" Cut="7.0519644021987915e-01" cType="1" res="2.5180308148264885e-03" rms="4.5035907626152039e-01" purity="4.9867671728134155e-01" nType="0">
        <Node pos="l" depth="1" NCoef="0" IVar="3" Cut="2.6624049991369247e-02" cType="1" res="2.1751543506979942e-02" rms="4.5361235737800598e-01" purity="6.0015410184860229e-01" nType="0">
          <Node pos="l" depth="2" NCoef="0" IVar="-1" Cut="0.0000000000000000e+00" cType="1" res="2.2642076946794987e-03" rms="4.4835445284843445e-01" purity="6.0455733537673950e-01" nType="-99"/>
          <Node pos="r" depth="2" NCoef="0" IVar="-1" Cut="0.0000000000000000e+00" cType="1" res="4.7389775863848627e-04" rms="4.5997831225395203e-01" purity="5.9439867734909058e-01" nType="-99"/>
        </Node>
        <Node pos="r" depth="1" NCoef="0" IVar="1" Cut="8.6381018161773682e-01" cType="1" res="-3.7553725996986032e-04" rms="4.4979643821716309e-01" purity="4.8341009020805359e-01" nType="0">
          <Node pos="l" depth="2" NCoef="0" IVar="-1" Cut="0.0000000000000000e+00" cType="1" res="-1.5296352794393897e-03" rms="4.4124346971511841e-01" purity="3.2729271054267883e-01" nType="-99"/>
          <Node pos="r" depth="2" NCoef="0" IVar="-1" Cut="0.0000000000000000e+00" cType="1" res="2.1937170822639018e-04" rms="4.5128476619720459e-01" purity="5.1240277290344238e-01" nType="-99"/>
        </Node>
      </Node>
    </BinaryTree>
    <BinaryTree type="DecisionTree" boostWeight="1.0000000000000000e+00" itree="1206">
      <Node pos="s" depth="0" NCoef="0" IVar="2" Cut="3.4458129882812500e+02" cType="1" res="1.4191346708685160e-03" rms="4.4723439216613770e-01" purity="5.0171446800231934e-01" nType="0">
        <Node pos="l" depth="1" NCoef="0" IVar="0" Cut="3.4791705608367920e+00" cType="1" res="-5.8518755249679089e-03" rms="4.4698193669319153e-01" purity="4.2044621706008911e-01" nType="0">
          <Node pos="l" depth="2" NCoef="0" IVar="-1" Cut="0.0000000000000000e+00" cType="1" res="-9.1072387294843793e-04" rms="4.4874140620231628e-01" purity="3.7410089373588562e-01" nType="-99"/>
          <Node pos="r" depth="2" NCoef="0" IVar="-1" Cut="0.0000000000000000e+00" cType="1" res="1.8652501748874784e-03" rms="4.3466189503669739e-01" purity="6.9914859533309937e-01" nType="-99"/>
        </Node>
        <Node pos="r" depth="1" NCoef="0" IVar="7" Cut="7.7489298582077026e-01" cType="1" res="1.3425458222627640e-02" rms="4.4739237427711487e-01" purity="6.3590949773788452e-01" nType="0">
          <Node pos="l" depth="2" NCoef="0" IVar="-1" Cut="0.0000000000000000e+00" cType="1" res="3.3468659967184067e-04" rms="4.5656049251556396e-01" purity="6.0491138696670532e-01" nType="-99"/>
          <Node pos="r" depth="2" NCoef="0" IVar="-1" Cut="0.0000000000000000e+00" cType="1" res="2.0950024481862783e-03" rms="4.2649632692337036e-01" purity="7.0242786407470703e-01" nType="-99"/>
        </Node>
      </Node>
    </BinaryTree>
    <BinaryTree type="DecisionTree" boostWeight="1.0000000000000000e+00" itree="1207">
      <Node pos="s" depth="0" NCoef="0" IVar="6" Cut="1.3822191953659058e+00" cType="1" res="2.0806486718356609e-03" rms="4.4798099994659424e-01" purity="5.0394737720489502e-01" nType="0">
        <Node pos="l" depth="1" NCoef="0" IVar="6" Cut="8.8023424148559570e-01" cType="1" res="-2.9452971648424864e-03" rms="4.5407330989837646e-01" purity="5.2634263038635254e-01" nType="0">
          <Node pos="l" depth="2" NCoef="0" IVar="-1" Cut="0.0000000000000000e+00" cType="1" res="7.2787201497703791e-04" rms="4.5096606016159058e-01" purity="5.8000415563583374e-01" nType="-99"/>
          <Node pos="r" depth="2" NCoef="0" IVar="-1" Cut="0.0000000000000000e+00" cType="1" res="-8.6031696991994977e-04" rms="4.5591968297958374e-01" purity="4.9039977788925171e-01" nType="-99"/>
        </Node>
        <Node pos="r" depth="1" NCoef="0" IVar="2" Cut="2.6327273559570312e+02" cType="1" res="1.2562399730086327e-02" rms="4.3481403589248657e-01" purity="4.5724150538444519e-01" nType="0">
          <Node pos="l" depth="2" NCoef="0" IVar="-1" Cut="0.0000000000000000e+00" cType="1" res="-1.4386582188308239e-03" rms="4.1791155934333801e-01" purity="2.8625416755676270e-01" nType="-99"/>
          <Node pos="r" depth="2" NCoef="0" IVar="-1" Cut="0.0000000000000000e+00" cType="1" res="2.1954344119876623e-03" rms="4.4566830992698669e-01" purity="5.8199572563171387e-01" nType="-99"/>
        </Node>
      </Node>
    </BinaryTree>
    <BinaryTree type="DecisionTree" boostWeight="1.0000000000000000e+00" itree="1208">
      <Node pos="s" depth="0" NCoef="0" IVar="6" Cut="1.2035070657730103e+00" cType="1" res="8.6555853486061096e-03" rms="4.4794893264770508e-01" purity="5.0731599330902100e-01" nType="0">
        <Node pos="l" depth="1" NCoef="0" IVar="5" Cut="1.5396794769912958e-03" cType="1" res="1.5826085582375526e-02" rms="4.5230311155319214e-01" purity="5.5681389570236206e-01" nType="0">
          <Node pos="l" depth="2" NCoef="0" IVar="-1" Cut="0.0000000000000000e+00" cType="1" res="3.9608540828339756e-04" rms="4.4382235407829285e-01" purity="6.0874831676483154e-01" nType="-99"/>
          <Node pos="r" depth="2" NCoef="0" IVar="-1" Cut="0.0000000000000000e+00" cType="1" res="1.9838849548250437e-03" rms="4.6343371272087097e-01" purity="4.8478204011917114e-01" nType="-99"/>
        </Node>
        <Node pos="r" depth="1" NCoef="0" IVar="6" Cut="1.6827331781387329e+00" cType="1" res="2.2676406661048532e-04" rms="4.4262740015983582e-01" purity="4.4913190603256226e-01" nType="0">
          <Node pos="l" depth="2" NCoef="0" IVar="-1" Cut="0.0000000000000000e+00" cType="1" res="-7.8197912080213428e-04" rms="4.4323408603668213e-01" purity="4.5573672652244568e-01" nType="-99"/>
          <Node pos="r" depth="2" NCoef="0" IVar="-1" Cut="0.0000000000000000e+00" cType="1" res="1.6269895713776350e-03" rms="4.4074490666389465e-01" purity="4.3650874495506287e-01" nType="-99"/>
        </Node>
      </Node>
    </BinaryTree>
    <BinaryTree type="DecisionTree" boostWeight="1.0000000000000000e+00" itree="1209">
      <Node pos="s" depth="0" NCoef="0" IVar="7" Cut="5.3435629606246948e-01" cType="1" res="-2.7120113372802734e-04" rms="4.4724225997924805e-01" purity="4.9938032031059265e-01" nType="0">
        <Node pos="l" depth="1" NCoef="0" IVar="6" Cut="8.4997308254241943e-01" cType="1" res="9.4385845586657524e-03" rms="4.4994118809700012e-01" purity="4.5323589444160461e-01" nType="0">
          <Node pos="l" depth="2" NCoef="0" IVar="-1" Cut="0.0000000000000000e+00" cType="1" res="-1.5276470221579075e-03" rms="4.4912743568420410e-01" purity="5.0426596403121948e-01" nType="-99"/>
          <Node pos="r" depth="2" NCoef="0" IVar="-1" Cut="0.0000000000000000e+00" cType="1" res="1.3486091047525406e-03" rms="4.4979646801948547e-01" purity="4.3955683708190918e-01" nType="-99"/>
        </Node>
        <Node pos="r" depth="1" NCoef="0" IVar="4" Cut="2.5571513175964355e-01" cType="1" res="-4.1721691377460957e-03" rms="4.4609385728836060e-01" purity="5.1791918277740479e-01" nType="0">
          <Node pos="l" depth="2" NCoef="0" IVar="-1" Cut="0.0000000000000000e+00" cType="1" res="-2.6530539616942406e-03" rms="4.4972696900367737e-01" purity="4.7372239828109741e-01" nType="-99"/>
          <Node pos="r" depth="2" NCoef="0" IVar="-1" Cut="0.0000000000000000e+00" cType="1" res="3.1441191822523251e-05" rms="4.4538086652755737e-01" purity="5.2424448728561401e-01" nType="-99"/>
        </Node>
      </Node>
    </BinaryTree>
    <BinaryTree type="DecisionTree" boostWeight="1.0000000000000000e+00" itree="1210">
      <Node pos="s" depth="0" NCoef="0" IVar="0" Cut="1.8982008695602417e+00" cType="1" res="2.4156653671525419e-04" rms="4.4614201784133911e-01" purity="4.9920046329498291e-01" nType="0">
        <Node pos="l" depth="1" NCoef="0" IVar="0" Cut="5.8103853464126587e-01" cType="1" res="-8.1803230568766594e-03" rms="4.4952100515365601e-01" purity="3.8639587163925171e-01" nType="0">
          <Node pos="l" depth="2" NCoef="0" IVar="-1" Cut="0.0000000000000000e+00" cType="1" res="6.2017783056944609e-04" rms="4.3916264176368713e-01" purity="3.3449536561965942e-01" nType="-99"/>
          <Node pos="r" depth="2" NCoef="0" IVar="-1" Cut="0.0000000000000000e+00" cType="1" res="-1.3344312319532037e-03" rms="4.5590317249298096e-01" purity="4.2040959000587463e-01" nType="-99"/>
        </Node>
        <Node pos="r" depth="1" NCoef="0" IVar="6" Cut="1.3843528032302856e+00" cType="1" res="1.1172893457114697e-02" rms="4.4147816300392151e-01" purity="6.4561706781387329e-01" nType="0">
          <Node pos="l" depth="2" NCoef="0" IVar="-1" Cut="0.0000000000000000e+00" cType="1" res="2.5389334768988192e-04" rms="4.4074782729148865e-01" purity="6.6336780786514282e-01" nType="-99"/>
          <Node pos="r" depth="2" NCoef="0" IVar="-1" Cut="0.0000000000000000e+00" cType="1" res="1.8342456314712763e-03" rms="4.4265881180763245e-01" purity="6.0606753826141357e-01" nType="-99"/>
        </Node>
      </Node>
    </BinaryTree>
    <BinaryTree type="DecisionTree" boostWeight="1.0000000000000000e+00" itree="1211">
      <Node pos="s" depth="0" NCoef="0" IVar="2" Cut="2.7417053222656250e+02" cType="1" res="5.5080507881939411e-03" rms="4.4950100779533386e-01" purity="5.0406223535537720e-01" nType="0">
        <Node pos="l" depth="1" NCoef="0" IVar="7" Cut="8.0690717697143555e-01" cType="1" res="1.6701405867934227e-02" rms="4.4378471374511719e-01" purity="3.7777000665664673e-01" nType="0">
          <Node pos="l" depth="2" NCoef="0" IVar="-1" Cut="0.0000000000000000e+00" cType="1" res="2.0739259198307991e-03" rms="4.4500738382339478e-01" purity="3.8252907991409302e-01" nType="-99"/>
          <Node pos="r" depth="2" NCoef="0" IVar="-1" Cut="0.0000000000000000e+00" cType="1" res="-2.6696387212723494e-03" rms="4.3334463238716125e-01" purity="3.5026022791862488e-01" nType="-99"/>
        </Node>
        <Node pos="r" depth="1" NCoef="0" IVar="1" Cut="8.9450794458389282e-01" cType="1" res="-1.0483869118615985e-03" rms="4.5268723368644714e-01" purity="5.7803714275360107e-01" nType="0">
          <Node pos="l" depth="2" NCoef="0" IVar="-1" Cut="0.0000000000000000e+00" cType="1" res="-1.1604143073782325e-03" rms="4.7002622485160828e-01" purity="4.4502356648445129e-01" nType="-99"/>
          <Node pos="r" depth="2" NCoef="0" IVar="-1" Cut="0.0000000000000000e+00" cType="1" res="7.2190788341686130e-04" rms="4.3959274888038635e-01" purity="6.7251634597778320e-01" nType="-99"/>
        </Node>
      </Node>
    </BinaryTree>
    <BinaryTree type="DecisionTree" boostWeight="1.0000000000000000e+00" itree="1212">
      <Node pos="s" depth="0" NCoef="0" IVar="7" Cut="7.1434730291366577e-01" cType="1" res="1.8348106823395938e-04" rms="4.5176336169242859e-01" purity="4.9779435992240906e-01" nType="0">
        <Node pos="l" depth="1" NCoef="0" IVar="5" Cut="1.2821667769458145e-04" cType="1" res="5.8675762265920639e-03" rms="4.5255744457244873e-01" purity="4.7184062004089355e-01" nType="0">
          <Node pos="l" depth="2" NCoef="0" IVar="-1" Cut="0.0000000000000000e+00" cType="1" res="-1.7924298299476504e-03" rms="4.2988401651382446e-01" purity="6.5801703929901123e-01" nType="-99"/>
          <Node pos="r" depth="2" NCoef="0" IVar="-1" Cut="0.0000000000000000e+00" cType="1" res="7.1646441938355565e-04" rms="4.5537695288658142e-01" purity="4.4680649042129517e-01" nType="-99"/>
        </Node>
        <Node pos="r" depth="1" NCoef="0" IVar="4" Cut="4.6786457300186157e-01" cType="1" res="-9.2099858447909355e-03" rms="4.5029073953628540e-01" purity="5.4068523645401001e-01" nType="0">
          <Node pos="l" depth="2" NCoef="0" IVar="-1" Cut="0.0000000000000000e+00" cType="1" res="2.8804386965930462e-04" rms="4.5315277576446533e-01" purity="5.6144559383392334e-01" nType="-99"/>
          <Node pos="r" depth="2" NCoef="0" IVar="-1" Cut="0.0000000000000000e+00" cType="1" res="-1.5720581868663430e-03" rms="4.4729414582252502e-01" purity="5.2161574363708496e-01" nType="-99"/>
        </Node>
      </Node>
    </BinaryTree>
    <BinaryTree type="DecisionTree" boostWeight="1.0000000000000000e+00" itree="1213">
      <Node pos="s" depth="0" NCoef="0" IVar="1" Cut="8.7539750337600708e-01" cType="1" res="-4.1420618072152138e-03" rms="4.4716659188270569e-01" purity="4.9523162841796875e-01" nType="0">
        <Node pos="l" depth="1" NCoef="0" IVar="0" Cut="1.3618905544281006e+00" cType="1" res="-1.8240302801132202e-02" rms="4.4679871201515198e-01" purity="3.4874552488327026e-01" nType="0">
          <Node pos="l" depth="2" NCoef="0" IVar="-1" Cut="0.0000000000000000e+00" cType="1" res="-5.1631662063300610e-04" rms="4.4102042913436890e-01" purity="3.0748188495635986e-01" nType="-99"/>
          <Node pos="r" depth="2" NCoef="0" IVar="-1" Cut="0.0000000000000000e+00" cType="1" res="-2.8708358295261860e-03" rms="4.5732972025871277e-01" purity="4.3271327018737793e-01" nType="-99"/>
        </Node>
        <Node pos="r" depth="1" NCoef="0" IVar="0" Cut="1.0149173736572266e+00" cType="1" res="1.3190389145165682e-03" rms="4.4718959927558899e-01" purity="5.5197453498840332e-01" nType="0">
          <Node pos="l" depth="2" NCoef="0" IVar="-1" Cut="0.0000000000000000e+00" cType="1" res="-1.3549987925216556e-03" rms="4.5623689889907837e-01" purity="3.6694794893264771e-01" nType="-99"/>
          <Node pos="r" depth="2" NCoef="0" IVar="-1" Cut="0.0000000000000000e+00" cType="1" res="4.9142824718728662e-04" rms="4.4403064250946045e-01" purity="6.1257487535476685e-01" nType="-99"/>
        </Node>
      </Node>
    </BinaryTree>
    <BinaryTree type="DecisionTree" boostWeight="1.0000000000000000e+00" itree="1214">
      <Node pos="s" depth="0" NCoef="0" IVar="1" Cut="8.8307154178619385e-01" cType="1" res="-5.3423461504280567e-03" rms="4.4611293077468872e-01" purity="4.9316260218620300e-01" nType="0">
        <Node pos="l" depth="1" NCoef="0" IVar="0" Cut="2.5273056030273438e+00" cType="1" res="-2.1104104816913605e-02" rms="4.4252005219459534e-01" purity="3.5661026835441589e-01" nType="0">
          <Node pos="l" depth="2" NCoef="0" IVar="-1" Cut="0.0000000000000000e+00" cType="1" res="-2.4814438074827194e-03" rms="4.3849602341651917e-01" purity="3.1113195419311523e-01" nType="-99"/>
          <Node pos="r" depth="2" NCoef="0" IVar="-1" Cut="0.0000000000000000e+00" cType="1" res="1.4764219522476196e-03" rms="4.5931419730186462e-01" purity="5.8374738693237305e-01" nType="-99"/>
        </Node>
        <Node pos="r" depth="1" NCoef="0" IVar="5" Cut="1.6790048684924841e-03" cType="1" res="3.0657558236271143e-03" rms="4.4779089093208313e-01" purity="5.6600648164749146e-01" nType="0">
          <Node pos="l" depth="2" NCoef="0" IVar="-1" Cut="0.0000000000000000e+00" cType="1" res="-2.1655100863426924e-04" rms="4.4411355257034302e-01" purity="5.8186894655227661e-01" nType="-99"/>
          <Node pos="r" depth="2" NCoef="0" IVar="-1" Cut="0.0000000000000000e+00" cType="1" res="2.2890192922204733e-03" rms="4.6496662497520447e-01" purity="4.8455548286437988e-01" nType="-99"/>
        </Node>
      </Node>
    </BinaryTree>
    <BinaryTree type="DecisionTree" boostWeight="1.0000000000000000e+00" itree="1215">
      <Node pos="s" depth="0" NCoef="0" IVar="7" Cut="5.4117178916931152e-01" cType="1" res="4.7375005669891834e-03" rms="4.5005398988723755e-01" purity="5.0543981790542603e-01" nType="0">
        <Node pos="l" depth="1" NCoef="0" IVar="2" Cut="2.8700036621093750e+02" cType="1" res="-1.5651153400540352e-02" rms="4.4981005787849426e-01" purity="4.2428630590438843e-01" nType="0">
          <Node pos="l" depth="2" NCoef="0" IVar="-1" Cut="0.0000000000000000e+00" cType="1" res="2.4739559739828110e-04" rms="4.3599954247474670e-01" purity="3.4304338693618774e-01" nType="-99"/>
          <Node pos="r" depth="2" NCoef="0" IVar="-1" Cut="0.0000000000000000e+00" cType="1" res="-2.2475942969322205e-03" rms="4.6109205484390259e-01" purity="4.9634826183319092e-01" nType="-99"/>
        </Node>
        <Node pos="r" depth="1" NCoef="0" IVar="1" Cut="8.6383217573165894e-01" cType="1" res="1.3293508440256119e-02" rms="4.4988116621971130e-01" purity="5.3949546813964844e-01" nType="0">
          <Node pos="l" depth="2" NCoef="0" IVar="-1" Cut="0.0000000000000000e+00" cType="1" res="-9.0750562958419323e-04" rms="4.4969692826271057e-01" purity="3.6959454417228699e-01" nType="-99"/>
          <Node pos="r" depth="2" NCoef="0" IVar="-1" Cut="0.0000000000000000e+00" cType="1" res="1.2424761662259698e-03" rms="4.4976457953453064e-01" purity="5.6986659765243530e-01" nType="-99"/>
        </Node>
      </Node>
    </BinaryTree>
    <BinaryTree type="DecisionTree" boostWeight="1.0000000000000000e+00" itree="1216">
      <Node pos="s" depth="0" NCoef="0" IVar="6" Cut="7.7358525991439819e-01" cType="1" res="1.9778014393523335e-04" rms="4.4991213083267212e-01" purity="5.0220346450805664e-01" nType="0">
        <Node pos="l" depth="1" NCoef="0" IVar="4" Cut="4.4903290271759033e-01" cType="1" res="-1.8965315073728561e-02" rms="4.4931793212890625e-01" purity="5.6172835826873779e-01" nType="0">
          <Node pos="l" depth="2" NCoef="0" IVar="-1" Cut="0.0000000000000000e+00" cType="1" res="-1.9851271063089371e-03" rms="4.5135021209716797e-01" purity="5.4371511936187744e-01" nType="-99"/>
          <Node pos="r" depth="2" NCoef="0" IVar="-1" Cut="0.0000000000000000e+00" cType="1" res="-1.1049617023672909e-04" rms="4.4495767354965210e-01" purity="5.9553968906402588e-01" nType="-99"/>
        </Node>
        <Node pos="r" depth="1" NCoef="0" IVar="0" Cut="1.0381284952163696e+00" cType="1" res="4.3420842848718166e-03" rms="4.4993320107460022e-01" purity="4.8933029174804688e-01" nType="0">
          <Node pos="l" depth="2" NCoef="0" IVar="-1" Cut="0.0000000000000000e+00" cType="1" res="1.4319733018055558e-03" rms="4.4890233874320984e-01" purity="3.5577952861785889e-01" nType="-99"/>
          <Node pos="r" depth="2" NCoef="0" IVar="-1" Cut="0.0000000000000000e+00" cType="1" res="-1.7306047084275633e-04" rms="4.5033568143844604e-01" purity="5.6100636720657349e-01" nType="-99"/>
        </Node>
      </Node>
    </BinaryTree>
    <BinaryTree type="DecisionTree" boostWeight="1.0000000000000000e+00" itree="1217">
      <Node pos="s" depth="0" NCoef="0" IVar="5" Cut="2.9537552036345005e-03" cType="1" res="4.7636530362069607e-03" rms="4.4771450757980347e-01" purity="5.0251752138137817e-01" nType="0">
        <Node pos="l" depth="1" NCoef="0" IVar="0" Cut="7.6742702722549438e-01" cType="1" res="1.3919438933953643e-03" rms="4.4528821110725403e-01" purity="5.1873564720153809e-01" nType="0">
          <Node pos="l" depth="2" NCoef="0" IVar="-1" Cut="0.0000000000000000e+00" cType="1" res="-1.4447472058236599e-03" rms="4.3683794140815735e-01" purity="3.2060858607292175e-01" nType="-99"/>
          <Node pos="r" depth="2" NCoef="0" IVar="-1" Cut="0.0000000000000000e+00" cType="1" res="4.6018083230592310e-04" rms="4.4763669371604919e-01" purity="5.7769602537155151e-01" nType="-99"/>
        </Node>
        <Node pos="r" depth="1" NCoef="0" IVar="4" Cut="3.5609859228134155e-01" cType="1" res="2.3554805666208267e-02" rms="4.6055084466934204e-01" purity="4.1213127970695496e-01" nType="0">
          <Node pos="l" depth="2" NCoef="0" IVar="-1" Cut="0.0000000000000000e+00" cType="1" res="3.4864107146859169e-03" rms="4.6264067292213440e-01" purity="4.2512580752372742e-01" nType="-99"/>
          <Node pos="r" depth="2" NCoef="0" IVar="-1" Cut="0.0000000000000000e+00" cType="1" res="1.2690092262346298e-04" rms="4.5765450596809387e-01" purity="4.0124318003654480e-01" nType="-99"/>
        </Node>
      </Node>
    </BinaryTree>
    <BinaryTree type="DecisionTree" boostWeight="1.0000000000000000e+00" itree="1218">
      <Node pos="s" depth="0" NCoef="0" IVar="3" Cut="8.4266729652881622e-02" cType="1" res="-8.2967081107199192e-04" rms="4.4947147369384766e-01" purity="4.9744656682014465e-01" nType="0">
        <Node pos="l" depth="1" NCoef="0" IVar="4" Cut="6.3134944438934326e-01" cType="1" res="-7.2323698550462723e-03" rms="4.4393631815910339e-01" purity="4.7632786631584167e-01" nType="0">
          <Node pos="l" depth="2" NCoef="0" IVar="-1" Cut="0.0000000000000000e+00" cType="1" res="-8.3387346239760518e-04" rms="4.4457912445068359e-01" purity="4.6463289856910706e-01" nType="-99"/>
          <Node pos="r" depth="2" NCoef="0" IVar="-1" Cut="0.0000000000000000e+00" cType="1" res="8.7051757145673037e-04" rms="4.4013777375221252e-01" purity="5.3599363565444946e-01" nType="-99"/>
        </Node>
        <Node pos="r" depth="1" NCoef="0" IVar="0" Cut="3.0208137035369873e+00" cType="1" res="1.2446844018995762e-02" rms="4.6045356988906860e-01" purity="5.4123789072036743e-01" nType="0">
          <Node pos="l" depth="2" NCoef="0" IVar="-1" Cut="0.0000000000000000e+00" cType="1" res="1.3197063235566020e-03" rms="4.6751517057418823e-01" purity="4.9401491880416870e-01" nType="-99"/>
          <Node pos="r" depth="2" NCoef="0" IVar="-1" Cut="0.0000000000000000e+00" cType="1" res="-8.3077867748215795e-04" rms="4.3350452184677124e-01" purity="7.0933359861373901e-01" nType="-99"/>
        </Node>
      </Node>
    </BinaryTree>
    <BinaryTree type="DecisionTree" boostWeight="1.0000000000000000e+00" itree="1219">
      <Node pos="s" depth="0" NCoef="0" IVar="7" Cut="4.1808417439460754e-01" cType="1" res="-1.5397481620311737e-03" rms="4.4963142275810242e-01" purity="4.9800527095794678e-01" nType="0">
        <Node pos="l" depth="1" NCoef="0" IVar="6" Cut="1.2228730916976929e+00" cType="1" res="-1.9267607480287552e-02" rms="4.4442677497863770e-01" purity="4.3932721018791199e-01" nType="0">
          <Node pos="l" depth="2" NCoef="0" IVar="-1" Cut="0.0000000000000000e+00" cType="1" res="-2.7713479939848185e-03" rms="4.4792342185974121e-01" purity="4.7590920329093933e-01" nType="-99"/>
          <Node pos="r" depth="2" NCoef="0" IVar="-1" Cut="0.0000000000000000e+00" cType="1" res="1.1763167276512831e-04" rms="4.3966060876846313e-01" purity="3.9961346983909607e-01" nType="-99"/>
        </Node>
        <Node pos="r" depth="1" NCoef="0" IVar="6" Cut="7.0648646354675293e-01" cType="1" res="7.0234749000519514e-04" rms="4.5023566484451294e-01" purity="5.0542646646499634e-01" nType="0">
          <Node pos="l" depth="2" NCoef="0" IVar="-1" Cut="0.0000000000000000e+00" cType="1" res="1.1072615161538124e-03" rms="4.4992083311080933e-01" purity="6.0187655687332153e-01" nType="-99"/>
          <Node pos="r" depth="2" NCoef="0" IVar="-1" Cut="0.0000000000000000e+00" cType="1" res="-1.2595600856002420e-04" rms="4.5023751258850098e-01" purity="4.9020358920097351e-01" nType="-99"/>
        </Node>
      </Node>
    </BinaryTree>
    <BinaryTree type="DecisionTree" boostWeight="1.0000000000000000e+00" itree="1220">
      <Node pos="s" depth="0" NCoef="0" IVar="1" Cut="8.5995841026306152e-01" cType="1" res="5.8075338602066040e-03" rms="4.5018798112869263e-01" purity="5.0434547662734985e-01" nType="0">
        <Node pos="l" depth="1" NCoef="0" IVar="4" Cut="3.8050571084022522e-01" cType="1" res="2.6209978386759758e-02" rms="4.5866605639457703e-01" purity="3.8910499215126038e-01" nType="0">
          <Node pos="l" depth="2" NCoef="0" IVar="-1" Cut="0.0000000000000000e+00" cType="1" res="-2.0212771778460592e-04" rms="4.4564664363861084e-01" purity="3.4817877411842346e-01" nType="-99"/>
          <Node pos="r" depth="2" NCoef="0" IVar="-1" Cut="0.0000000000000000e+00" cType="1" res="3.8525366690009832e-03" rms="4.6936818957328796e-01" purity="4.2921960353851318e-01" nType="-99"/>
        </Node>
        <Node pos="r" depth="1" NCoef="0" IVar="1" Cut="8.6707448959350586e-01" cType="1" res="2.9772357083857059e-03" rms="4.4892600178718567e-01" purity="5.2033203840255737e-01" nType="0">
          <Node pos="l" depth="2" NCoef="0" IVar="-1" Cut="0.0000000000000000e+00" cType="1" res="-1.8905483884736896e-03" rms="4.3831723928451538e-01" purity="3.4182813763618469e-01" nType="-99"/>
          <Node pos="r" depth="2" NCoef="0" IVar="-1" Cut="0.0000000000000000e+00" cType="1" res="4.0035354322753847e-04" rms="4.4984662532806396e-01" purity="5.3753215074539185e-01" nType="-99"/>
        </Node>
      </Node>
    </BinaryTree>
    <BinaryTree type="DecisionTree" boostWeight="1.0000000000000000e+00" itree="1221">
      <Node pos="s" depth="0" NCoef="0" IVar="5" Cut="2.5643006665632129e-04" cType="1" res="4.0329671464860439e-03" rms="4.5180377364158630e-01" purity="5.0200051069259644e-01" nType="0">
        <Node pos="l" depth="1" NCoef="0" IVar="5" Cut="3.9411803300026804e-05" cType="1" res="-1.1766302399337292e-02" rms="4.1944897174835205e-01" purity="6.7892599105834961e-01" nType="0">
          <Node pos="l" depth="2" NCoef="0" IVar="-1" Cut="0.0000000000000000e+00" cType="1" res="1.6115638427436352e-03" rms="3.8233673572540283e-01" purity="7.8817927837371826e-01" nType="-99"/>
          <Node pos="r" depth="2" NCoef="0" IVar="-1" Cut="0.0000000000000000e+00" cType="1" res="-2.0694423001259565e-03" rms="4.3597948551177979e-01" purity="6.2435573339462280e-01" nType="-99"/>
        </Node>
        <Node pos="r" depth="1" NCoef="0" IVar="0" Cut="3.9852337837219238e+00" cType="1" res="7.8804763033986092e-03" rms="4.5925575494766235e-01" purity="4.5891478657722473e-01" nType="0">
          <Node pos="l" depth="2" NCoef="0" IVar="-1" Cut="0.0000000000000000e+00" cType="1" res="7.4592715827748179e-04" rms="4.6063879132270813e-01" purity="4.3918380141258240e-01" nType="-99"/>
          <Node pos="r" depth="2" NCoef="0" IVar="-1" Cut="0.0000000000000000e+00" cType="1" res="-1.4743133215233684e-03" rms="4.4168794155120850e-01" purity="6.8980991840362549e-01" nType="-99"/>
        </Node>
      </Node>
    </BinaryTree>
    <BinaryTree type="DecisionTree" boostWeight="1.0000000000000000e+00" itree="1222">
      <Node pos="s" depth="0" NCoef="0" IVar="7" Cut="5.4024386405944824e-01" cType="1" res="-6.9745408836752176e-04" rms="4.5028421282768250e-01" purity="4.9657079577445984e-01" nType="0">
        <Node pos="l" depth="1" NCoef="0" IVar="0" Cut="1.8308154344558716e+00" cType="1" res="9.3103777617216110e-03" rms="4.5151787996292114e-01" purity="4.5498758554458618e-01" nType="0">
          <Node pos="l" depth="2" NCoef="0" IVar="-1" Cut="0.0000000000000000e+00" cType="1" res="1.4865581179037690e-03" rms="4.4845303893089294e-01" purity="3.5886335372924805e-01" nType="-99"/>
          <Node pos="r" depth="2" NCoef="0" IVar="-1" Cut="0.0000000000000000e+00" cType="1" res="-3.5252884117653593e-05" rms="4.5478954911231995e-01" purity="5.6464880704879761e-01" nType="-99"/>
        </Node>
        <Node pos="r" depth="1" NCoef="0" IVar="4" Cut="7.0588552951812744e-01" cType="1" res="-5.1233507692813873e-03" rms="4.4966652989387512e-01" purity="5.1496070623397827e-01" nType="0">
          <Node pos="l" depth="2" NCoef="0" IVar="-1" Cut="0.0000000000000000e+00" cType="1" res="-1.8270841974299401e-04" rms="4.5061275362968445e-01" purity="5.1606369018554688e-01" nType="-99"/>
          <Node pos="r" depth="2" NCoef="0" IVar="-1" Cut="0.0000000000000000e+00" cType="1" res="-2.6093693450093269e-03" rms="4.3761751055717468e-01" purity="5.0234150886535645e-01" nType="-99"/>
        </Node>
      </Node>
    </BinaryTree>
    <BinaryTree type="DecisionTree" boostWeight="1.0000000000000000e+00" itree="1223">
      <Node pos="s" depth="0" NCoef="0" IVar="1" Cut="9.5639359951019287e-01" cType="1" res="-2.9829284176230431e-03" rms="4.4888636469841003e-01" purity="4.9671661853790283e-01" nType="0">
        <Node pos="l" depth="1" NCoef="0" IVar="6" Cut="1.9544292688369751e+00" cType="1" res="-6.5991072915494442e-03" rms="4.5776575803756714e-01" purity="4.4192406535148621e-01" nType="0">
          <Node pos="l" depth="2" NCoef="0" IVar="-1" Cut="0.0000000000000000e+00" cType="1" res="-6.3444644911214709e-04" rms="4.5959824323654175e-01" purity="4.4533884525299072e-01" nType="-99"/>
          <Node pos="r" depth="2" NCoef="0" IVar="-1" Cut="0.0000000000000000e+00" cType="1" res="1.8171340925619006e-03" rms="4.3206432461738586e-01" purity="3.9735350012779236e-01" nType="-99"/>
        </Node>
        <Node pos="r" depth="1" NCoef="0" IVar="0" Cut="2.3732130527496338e+00" cType="1" res="1.4600750058889389e-02" rms="4.0246814489364624e-01" purity="7.6314544677734375e-01" nType="0">
          <Node pos="l" depth="2" NCoef="0" IVar="-1" Cut="0.0000000000000000e+00" cType="1" res="2.3986599408090115e-03" rms="4.2603275179862976e-01" purity="7.1304911375045776e-01" nType="-99"/>
          <Node pos="r" depth="2" NCoef="0" IVar="-1" Cut="0.0000000000000000e+00" cType="1" res="3.5106117138639092e-04" rms="3.8896530866622925e-01" purity="7.8980362415313721e-01" nType="-99"/>
        </Node>
      </Node>
    </BinaryTree>
    <BinaryTree type="DecisionTree" boostWeight="1.0000000000000000e+00" itree="1224">
      <Node pos="s" depth="0" NCoef="0" IVar="5" Cut="3.4615953918546438e-03" cType="1" res="4.5571136288344860e-03" rms="4.4898751378059387e-01" purity="5.0694113969802856e-01" nType="0">
        <Node pos="l" depth="1" NCoef="0" IVar="3" Cut="4.8988007009029388e-02" cType="1" res="1.3424801873043180e-03" rms="4.4673606753349304e-01" purity="5.1263976097106934e-01" nType="0">
          <Node pos="l" depth="2" NCoef="0" IVar="-1" Cut="0.0000000000000000e+00" cType="1" res="6.6437089117243886e-04" rms="4.4414344429969788e-01" purity="5.0056910514831543e-01" nType="-99"/>
          <Node pos="r" depth="2" NCoef="0" IVar="-1" Cut="0.0000000000000000e+00" cType="1" res="-7.0239545311778784e-04" rms="4.5033526420593262e-01" purity="5.3063410520553589e-01" nType="-99"/>
        </Node>
        <Node pos="r" depth="1" NCoef="0" IVar="-1" Cut="0.0000000000000000e+00" cType="1" res="2.7752278838306665e-03" rms="4.7200745344161987e-01" purity="4.4303178787231445e-01" nType="-99"/>
      </Node>
    </BinaryTree>
    <BinaryTree type="DecisionTree" boostWeight="1.0000000000000000e+00" itree="1225">
      <Node pos="s" depth="0" NCoef="0" IVar="7" Cut="4.1845321655273438e-01" cType="1" res="4.2043058201670647e-03" rms="4.4856870174407959e-01" purity="5.0349706411361694e-01" nType="0">
        <Node pos="l" depth="1" NCoef="0" IVar="0" Cut="1.5177779197692871e+00" cType="1" res="3.2491080462932587e-02" rms="4.5171698927879333e-01" purity="4.8923054337501526e-01" nType="0">
          <Node pos="l" depth="2" NCoef="0" IVar="-1" Cut="0.0000000000000000e+00" cType="1" res="4.0447521023452282e-03" rms="4.5505779981613159e-01" purity="3.9436826109886169e-01" nType="-99"/>
          <Node pos="r" depth="2" NCoef="0" IVar="-1" Cut="0.0000000000000000e+00" cType="1" res="1.1612465605139732e-03" rms="4.4833108782768250e-01" purity="5.6870168447494507e-01" nType="-99"/>
        </Node>
        <Node pos="r" depth="1" NCoef="0" IVar="1" Cut="9.3324506282806396e-01" cType="1" res="4.7855864977464080e-04" rms="4.4801929593086243e-01" purity="5.0537616014480591e-01" nType="0">
          <Node pos="l" depth="2" NCoef="0" IVar="-1" Cut="0.0000000000000000e+00" cType="1" res="-3.3141806488856673e-04" rms="4.5597916841506958e-01" purity="4.2244443297386169e-01" nType="-99"/>
          <Node pos="r" depth="2" NCoef="0" IVar="-1" Cut="0.0000000000000000e+00" cType="1" res="8.7717775022611022e-04" rms="4.2831426858901978e-01" purity="7.0206785202026367e-01" nType="-99"/>
        </Node>
      </Node>
    </BinaryTree>
    <BinaryTree type="DecisionTree" boostWeight="1.0000000000000000e+00" itree="1226">
      <Node pos="s" depth="0" NCoef="0" IVar="4" Cut="6.5352690219879150e-01" cType="1" res="6.4339856617152691e-03" rms="4.5103046298027039e-01" purity="5.0605940818786621e-01" nType="0">
        <Node pos="l" depth="1" NCoef="0" IVar="5" Cut="1.2904400937259197e-03" cType="1" res="9.8640387877821922e-03" rms="4.5205378532409668e-01" purity="5.0370818376541138e-01" nType="0">
          <Node pos="l" depth="2" NCoef="0" IVar="-1" Cut="0.0000000000000000e+00" cType="1" res="1.0643437417456880e-04" rms="4.4308394193649292e-01" purity="5.7279801368713379e-01" nType="-99"/>
          <Node pos="r" depth="2" NCoef="0" IVar="-1" Cut="0.0000000000000000e+00" cType="1" res="1.3444728683680296e-03" rms="4.6129944920539856e-01" purity="4.2969781160354614e-01" nType="-99"/>
        </Node>
        <Node pos="r" depth="1" NCoef="0" IVar="4" Cut="7.1216028928756714e-01" cType="1" res="-2.2314460948109627e-02" rms="4.4131371378898621e-01" purity="5.2576595544815063e-01" nType="0">
          <Node pos="l" depth="2" NCoef="0" IVar="-1" Cut="0.0000000000000000e+00" cType="1" res="-3.7310454063117504e-03" rms="4.3828576803207397e-01" purity="4.9510979652404785e-01" nType="-99"/>
          <Node pos="r" depth="2" NCoef="0" IVar="-1" Cut="0.0000000000000000e+00" cType="1" res="2.2951790015213192e-04" rms="4.4269847869873047e-01" purity="5.5515223741531372e-01" nType="-99"/>
        </Node>
      </Node>
    </BinaryTree>
    <BinaryTree type="DecisionTree" boostWeight="1.0000000000000000e+00" itree="1227">
      <Node pos="s" depth="0" NCoef="0" IVar="4" Cut="4.6381244063377380e-01" cType="1" res="-1.9194722408428788e-03" rms="4.4800785183906555e-01" purity="4.9897593259811401e-01" nType="0">
        <Node pos="l" depth="1" NCoef="0" IVar="4" Cut="4.2902472615242004e-01" cType="1" res="-6.7874635569751263e-03" rms="4.5074778795242310e-01" purity="4.7537341713905334e-01" nType="0">
          <Node pos="l" depth="2" NCoef="0" IVar="-1" Cut="0.0000000000000000e+00" cType="1" res="-1.5744661504868418e-04" rms="4.5059412717819214e-01" purity="4.7610494494438171e-01" nType="-99"/>
          <Node pos="r" depth="2" NCoef="0" IVar="-1" Cut="0.0000000000000000e+00" cType="1" res="-3.9886422455310822e-03" rms="4.4964209198951721e-01" purity="4.6803912520408630e-01" nType="-99"/>
        </Node>
        <Node pos="r" depth="1" NCoef="0" IVar="1" Cut="8.7921035289764404e-01" cType="1" res="6.2477858737111092e-03" rms="4.4325283169746399e-01" purity="5.3857511281967163e-01" nType="0">
          <Node pos="l" depth="2" NCoef="0" IVar="-1" Cut="0.0000000000000000e+00" cType="1" res="-6.4060912700369954e-04" rms="4.5007655024528503e-01" purity="3.7735313177108765e-01" nType="-99"/>
          <Node pos="r" depth="2" NCoef="0" IVar="-1" Cut="0.0000000000000000e+00" cType="1" res="8.7379652541130781e-04" rms="4.4028276205062866e-01" purity="6.0467773675918579e-01" nType="-99"/>
        </Node>
      </Node>
    </BinaryTree>
    <BinaryTree type="DecisionTree" boostWeight="1.0000000000000000e+00" itree="1228">
      <Node pos="s" depth="0" NCoef="0" IVar="7" Cut="3.5726317763328552e-01" cType="1" res="-4.9837669357657433e-03" rms="4.4804292917251587e-01" purity="4.9625805020332336e-01" nType="0">
        <Node pos="l" depth="1" NCoef="0" IVar="-1" Cut="0.0000000000000000e+00" cType="1" res="2.4186528753489256e-03" rms="4.6660032868385315e-01" purity="5.0622618198394775e-01" nType="-99"/>
        <Node pos="r" depth="1" NCoef="0" IVar="3" Cut="-9.1849401593208313e-02" cType="1" res="-7.1814684197306633e-03" rms="4.4688805937767029e-01" purity="4.9570503830909729e-01" nType="0">
          <Node pos="l" depth="2" NCoef="0" IVar="-1" Cut="0.0000000000000000e+00" cType="1" res="-1.7278041923418641e-03" rms="4.4352120161056519e-01" purity="4.3631947040557861e-01" nType="-99"/>
          <Node pos="r" depth="2" NCoef="0" IVar="-1" Cut="0.0000000000000000e+00" cType="1" res="-2.5789107894524932e-04" rms="4.4761797785758972e-01" purity="5.0997710227966309e-01" nType="-99"/>
        </Node>
      </Node>
    </BinaryTree>
    <BinaryTree type="DecisionTree" boostWeight="1.0000000000000000e+00" itree="1229">
      <Node pos="s" depth="0" NCoef="0" IVar="6" Cut="1.9146850109100342e+00" cType="1" res="-1.1519396211951971e-03" rms="4.4773325324058533e-01" purity="4.9870416522026062e-01" nType="0">
        <Node pos="l" depth="1" NCoef="0" IVar="6" Cut="1.4877537488937378e+00" cType="1" res="-3.8756320718675852e-03" rms="4.4866332411766052e-01" purity="5.0163698196411133e-01" nType="0">
          <Node pos="l" depth="2" NCoef="0" IVar="-1" Cut="0.0000000000000000e+00" cType="1" res="5.2116120059508830e-05" rms="4.5215183496475220e-01" purity="5.2534902095794678e-01" nType="-99"/>
          <Node pos="r" depth="2" NCoef="0" IVar="-1" Cut="0.0000000000000000e+00" cType="1" res="-1.8609017133712769e-03" rms="4.3319040536880493e-01" purity="4.0217202901840210e-01" nType="-99"/>
        </Node>
        <Node pos="r" depth="1" NCoef="0" IVar="-1" Cut="0.0000000000000000e+00" cType="1" res="2.4545094929635525e-03" rms="4.3492731451988220e-01" purity="4.6310406923294067e-01" nType="-99"/>
      </Node>
    </BinaryTree>
    <BinaryTree type="DecisionTree" boostWeight="1.0000000000000000e+00" itree="1230">
      <Node pos="s" depth="0" NCoef="0" IVar="4" Cut="1.2959522008895874e-01" cType="1" res="3.1437708530575037e-03" rms="4.5001736283302307e-01" purity="5.0569140911102295e-01" nType="0">
        <Node pos="l" depth="1" NCoef="0" IVar="-1" Cut="0.0000000000000000e+00" cType="1" res="-2.1120789460837841e-03" rms="4.4088679552078247e-01" purity="4.0276491641998291e-01" nType="-99"/>
        <Node pos="r" depth="1" NCoef="0" IVar="5" Cut="1.2904619507025927e-04" cType="1" res="5.2569047547876835e-03" rms="4.5055955648422241e-01" purity="5.1275020837783813e-01" nType="0">
          <Node pos="l" depth="2" NCoef="0" IVar="-1" Cut="0.0000000000000000e+00" cType="1" res="-1.3521217042580247e-03" rms="4.0523618459701538e-01" purity="7.2361999750137329e-01" nType="-99"/>
          <Node pos="r" depth="2" NCoef="0" IVar="-1" Cut="0.0000000000000000e+00" cType="1" res="6.1027100309729576e-04" rms="4.5705917477607727e-01" purity="4.8022282123565674e-01" nType="-99"/>
        </Node>
      </Node>
    </BinaryTree>
    <BinaryTree type="DecisionTree" boostWeight="1.0000000000000000e+00" itree="1231">
      <Node pos="s" depth="0" NCoef="0" IVar="5" Cut="3.5438660997897387e-03" cType="1" res="-1.5816463856026530e-03" rms="4.4597196578979492e-01" purity="5.0002449750900269e-01" nType="0">
        <Node pos="l" depth="1" NCoef="0" IVar="1" Cut="8.8691651821136475e-01" cType="1" res="-4.0203006938099861e-03" rms="4.4472616910934448e-01" purity="5.0459992885589600e-01" nType="0">
          <Node pos="l" depth="2" NCoef="0" IVar="-1" Cut="0.0000000000000000e+00" cType="1" res="-1.5287268906831741e-03" rms="4.4207566976547241e-01" purity="3.5405722260475159e-01" nType="-99"/>
          <Node pos="r" depth="2" NCoef="0" IVar="-1" Cut="0.0000000000000000e+00" cType="1" res="2.5646292488090694e-04" rms="4.4582355022430420e-01" purity="5.7852816581726074e-01" nType="-99"/>
        </Node>
        <Node pos="r" depth="1" NCoef="0" IVar="-1" Cut="0.0000000000000000e+00" cType="1" res="2.0545087754726410e-03" rms="4.6073558926582336e-01" purity="4.4033530354499817e-01" nType="-99"/>
      </Node>
    </BinaryTree>
    <BinaryTree type="DecisionTree" boostWeight="1.0000000000000000e+00" itree="1232">
      <Node pos="s" depth="0" NCoef="0" IVar="5" Cut="2.8253344353288412e-03" cType="1" res="-3.7875957787036896e-03" rms="4.4863504171371460e-01" purity="4.9400734901428223e-01" nType="0">
        <Node pos="l" depth="1" NCoef="0" IVar="3" Cut="2.2200803458690643e-01" cType="1" res="1.1424112599343061e-03" rms="4.4688853621482849e-01" purity="5.2154302597045898e-01" nType="0">
          <Node pos="l" depth="2" NCoef="0" IVar="-1" Cut="0.0000000000000000e+00" cType="1" res="-1.1587778135435656e-04" rms="4.4669255614280701e-01" purity="5.1404064893722534e-01" nType="-99"/>
          <Node pos="r" depth="2" NCoef="0" IVar="-1" Cut="0.0000000000000000e+00" cType="1" res="2.1397215314209461e-03" rms="4.4795107841491699e-01" purity="6.0747718811035156e-01" nType="-99"/>
        </Node>
        <Node pos="r" depth="1" NCoef="0" IVar="0" Cut="1.1523100137710571e+00" cType="1" res="-2.6672154664993286e-02" rms="4.5595732331275940e-01" purity="3.6618953943252563e-01" nType="0">
          <Node pos="l" depth="2" NCoef="0" IVar="-1" Cut="0.0000000000000000e+00" cType="1" res="-6.7616434535011649e-05" rms="4.5135706663131714e-01" purity="3.3474674820899963e-01" nType="-99"/>
          <Node pos="r" depth="2" NCoef="0" IVar="-1" Cut="0.0000000000000000e+00" cType="1" res="-4.3305424042046070e-03" rms="4.5998969674110413e-01" purity="4.1202458739280701e-01" nType="-99"/>
        </Node>
      </Node>
    </BinaryTree>
    <BinaryTree type="DecisionTree" boostWeight="1.0000000000000000e+00" itree="1233">
      <Node pos="s" depth="0" NCoef="0" IVar="6" Cut="1.3133460283279419e+00" cType="1" res="4.6178880147635937e-03" rms="4.4902649521827698e-01" purity="5.0278627872467041e-01" nType="0">
        <Node pos="l" depth="1" NCoef="0" IVar="6" Cut="1.2197561264038086e+00" cType="1" res="1.0657859966158867e-02" rms="4.5423483848571777e-01" purity="5.4115885496139526e-01" nType="0">
          <Node pos="l" depth="2" NCoef="0" IVar="-1" Cut="0.0000000000000000e+00" cType="1" res="3.8390335976146162e-04" rms="4.5446670055389404e-01" purity="5.4123127460479736e-01" nType="-99"/>
          <Node pos="r" depth="2" NCoef="0" IVar="-1" Cut="0.0000000000000000e+00" cType="1" res="3.1589847058057785e-03" rms="4.5101946592330933e-01" purity="5.4065603017807007e-01" nType="-99"/>
        </Node>
        <Node pos="r" depth="1" NCoef="0" IVar="2" Cut="3.0905874633789062e+02" cType="1" res="-5.2233859896659851e-03" rms="4.4023078680038452e-01" purity="4.4026353955268860e-01" nType="0">
          <Node pos="l" depth="2" NCoef="0" IVar="-1" Cut="0.0000000000000000e+00" cType="1" res="-1.2337882071733475e-03" rms="4.3732488155364990e-01" purity="3.4389051795005798e-01" nType="-99"/>
          <Node pos="r" depth="2" NCoef="0" IVar="-1" Cut="0.0000000000000000e+00" cType="1" res="6.8255659425631166e-04" rms="4.4460040330886841e-01" purity="6.0062044858932495e-01" nType="-99"/>
        </Node>
      </Node>
    </BinaryTree>
    <BinaryTree type="DecisionTree" boostWeight="1.0000000000000000e+00" itree="1234">
      <Node pos="s" depth="0" NCoef="0" IVar="1" Cut="8.6380606889724731e-01" cType="1" res="-4.4857733882963657e-03" rms="4.4862741231918335e-01" purity="4.9674221873283386e-01" nType="0">
        <Node pos="l" depth="1" NCoef="0" IVar="1" Cut="8.5353595018386841e-01" cType="1" res="1.4045212417840958e-02" rms="4.4751468300819397e-01" purity="3.7933331727981567e-01" nType="0">
          <Node pos="l" depth="2" NCoef="0" IVar="-1" Cut="0.0000000000000000e+00" cType="1" res="-1.0312952799722552e-03" rms="4.4637843966484070e-01" purity="3.5120773315429688e-01" nType="-99"/>
          <Node pos="r" depth="2" NCoef="0" IVar="-1" Cut="0.0000000000000000e+00" cType="1" res="1.9925988744944334e-03" rms="4.4747924804687500e-01" purity="3.9230927824974060e-01" nType="-99"/>
        </Node>
        <Node pos="r" depth="1" NCoef="0" IVar="7" Cut="6.6304951906204224e-01" cType="1" res="-8.0466018989682198e-03" rms="4.4875326752662659e-01" purity="5.1930296421051025e-01" nType="0">
          <Node pos="l" depth="2" NCoef="0" IVar="-1" Cut="0.0000000000000000e+00" cType="1" res="-1.1714030988514423e-03" rms="4.4817230105400085e-01" purity="4.7206807136535645e-01" nType="-99"/>
          <Node pos="r" depth="2" NCoef="0" IVar="-1" Cut="0.0000000000000000e+00" cType="1" res="2.2311349312076345e-05" rms="4.4922453165054321e-01" purity="5.6991374492645264e-01" nType="-99"/>
        </Node>
      </Node>
    </BinaryTree>
    <BinaryTree type="DecisionTree" boostWeight="1.0000000000000000e+00" itree="1235">
      <Node pos="s" depth="0" NCoef="0" IVar="1" Cut="8.6381548643112183e-01" cType="1" res="6.7781810648739338e-03" rms="4.5010006427764893e-01" purity="5.0710994005203247e-01" nType="0">
        <Node pos="l" depth="1" NCoef="0" IVar="7" Cut="6.8794035911560059e-01" cType="1" res="2.4013515561819077e-02" rms="4.5566022396087646e-01" purity="3.8522031903266907e-01" nType="0">
          <Node pos="l" depth="2" NCoef="0" IVar="-1" Cut="0.0000000000000000e+00" cType="1" res="8.0516451271250844e-04" rms="4.4752642512321472e-01" purity="3.4183445572853088e-01" nType="-99"/>
          <Node pos="r" depth="2" NCoef="0" IVar="-1" Cut="0.0000000000000000e+00" cType="1" res="3.2164037693291903e-03" rms="4.6753761172294617e-01" purity="4.5481821894645691e-01" nType="-99"/>
        </Node>
        <Node pos="r" depth="1" NCoef="0" IVar="7" Cut="4.3350532650947571e-01" cType="1" res="3.4655383788049221e-03" rms="4.4894769787788391e-01" purity="5.3053718805313110e-01" nType="0">
          <Node pos="l" depth="2" NCoef="0" IVar="-1" Cut="0.0000000000000000e+00" cType="1" res="-1.2229427229613066e-03" rms="4.3942409753799438e-01" purity="4.5993024110794067e-01" nType="-99"/>
          <Node pos="r" depth="2" NCoef="0" IVar="-1" Cut="0.0000000000000000e+00" cType="1" res="4.4895504834130406e-04" rms="4.5023101568222046e-01" purity="5.4070484638214111e-01" nType="-99"/>
        </Node>
      </Node>
    </BinaryTree>
    <BinaryTree type="DecisionTree" boostWeight="1.0000000000000000e+00" itree="1236">
      <Node pos="s" depth="0" NCoef="0" IVar="1" Cut="8.8696998357772827e-01" cType="1" res="6.9493679329752922e-03" rms="4.5165961980819702e-01" purity="5.0613689422607422e-01" nType="0">
        <Node pos="l" depth="1" NCoef="0" IVar="0" Cut="7.9163336753845215e-01" cType="1" res="1.8071494996547699e-02" rms="4.5621657371520996e-01" purity="3.9662784337997437e-01" nType="0">
          <Node pos="l" depth="2" NCoef="0" IVar="-1" Cut="0.0000000000000000e+00" cType="1" res="-1.1351746070431545e-04" rms="4.4044932723045349e-01" purity="3.0831238627433777e-01" nType="-99"/>
          <Node pos="r" depth="2" NCoef="0" IVar="-1" Cut="0.0000000000000000e+00" cType="1" res="2.3134730290621519e-03" rms="4.6974900364875793e-01" purity="4.7912675142288208e-01" nType="-99"/>
        </Node>
        <Node pos="r" depth="1" NCoef="0" IVar="2" Cut="2.2375465393066406e+02" cType="1" res="8.4039704233873636e-05" rms="4.4868606328964233e-01" purity="5.7373321056365967e-01" nType="0">
          <Node pos="l" depth="2" NCoef="0" IVar="-1" Cut="0.0000000000000000e+00" cType="1" res="2.4926434271037579e-03" rms="4.5033925771713257e-01" purity="3.9441275596618652e-01" nType="-99"/>
          <Node pos="r" depth="2" NCoef="0" IVar="-1" Cut="0.0000000000000000e+00" cType="1" res="-3.5086678690277040e-04" rms="4.4820523262023926e-01" purity="6.0323059558868408e-01" nType="-99"/>
        </Node>
      </Node>
    </BinaryTree>
    <BinaryTree type="DecisionTree" boostWeight="1.0000000000000000e+00" itree="1237">
      <Node pos="s" depth="0" NCoef="0" IVar="3" Cut="8.2299984991550446e-02" cType="1" res="5.8257328346371651e-03" rms="4.4695481657981873e-01" purity="5.0659328699111938e-01" nType="0">
        <Node pos="l" depth="1" NCoef="0" IVar="5" Cut="3.0787459108978510e-03" cType="1" res="-6.2064599478617311e-04" rms="4.4334658980369568e-01" purity="4.8301780223846436e-01" nType="0">
          <Node pos="l" depth="2" NCoef="0" IVar="-1" Cut="0.0000000000000000e+00" cType="1" res="3.0449681798927486e-04" rms="4.4433146715164185e-01" purity="5.0416189432144165e-01" nType="-99"/>
          <Node pos="r" depth="2" NCoef="0" IVar="-1" Cut="0.0000000000000000e+00" cType="1" res="-2.3683023173362017e-03" rms="4.3583744764328003e-01" purity="3.4862944483757019e-01" nType="-99"/>
        </Node>
        <Node pos="r" depth="1" NCoef="0" IVar="2" Cut="3.4786410522460938e+02" cType="1" res="1.8906386569142342e-02" rms="4.5390707254409790e-01" purity="5.5443125963211060e-01" nType="0">
          <Node pos="l" depth="2" NCoef="0" IVar="-1" Cut="0.0000000000000000e+00" cType="1" res="1.9245925359427929e-03" rms="4.5894399285316467e-01" purity="5.0185704231262207e-01" nType="-99"/>
          <Node pos="r" depth="2" NCoef="0" IVar="-1" Cut="0.0000000000000000e+00" cType="1" res="-2.9120826638973085e-06" rms="4.4287133216857910e-01" purity="6.6146808862686157e-01" nType="-99"/>
        </Node>
      </Node>
    </BinaryTree>
    <BinaryTree type="DecisionTree" boostWeight="1.0000000000000000e+00" itree="1238">
      <Node pos="s" depth="0" NCoef="0" IVar="7" Cut="5.5417662858963013e-01" cType="1" res="2.4419247638434172e-03" rms="4.5107930898666382e-01" purity="5.0297677516937256e-01" nType="0">
        <Node pos="l" depth="1" NCoef="0" IVar="4" Cut="3.8312995433807373e-01" cType="1" res="1.5424929559230804e-02" rms="4.5425516366958618e-01" purity="4.5867502689361572e-01" nType="0">
          <Node pos="l" depth="2" NCoef="0" IVar="-1" Cut="0.0000000000000000e+00" cType="1" res="6.2628119485452771e-04" rms="4.5151406526565552e-01" purity="4.4893476366996765e-01" nType="-99"/>
          <Node pos="r" depth="2" NCoef="0" IVar="-1" Cut="0.0000000000000000e+00" cType="1" res="3.7344412412494421e-03" rms="4.6684032678604126e-01" purity="5.1076543331146240e-01" nType="-99"/>
        </Node>
        <Node pos="r" depth="1" NCoef="0" IVar="0" Cut="2.9356529712677002e+00" cType="1" res="-3.8276438135653734e-03" rms="4.4940337538719177e-01" purity="5.2437025308609009e-01" nType="0">
          <Node pos="l" depth="2" NCoef="0" IVar="-1" Cut="0.0000000000000000e+00" cType="1" res="-6.5544625977054238e-04" rms="4.5869010686874390e-01" purity="4.5838671922683716e-01" nType="-99"/>
          <Node pos="r" depth="2" NCoef="0" IVar="-1" Cut="0.0000000000000000e+00" cType="1" res="9.4736914616078138e-04" rms="4.1698232293128967e-01" purity="7.4112975597381592e-01" nType="-99"/>
        </Node>
      </Node>
    </BinaryTree>
    <BinaryTree type="DecisionTree" boostWeight="1.0000000000000000e+00" itree="1239">
      <Node pos="s" depth="0" NCoef="0" IVar="7" Cut="8.1032401323318481e-01" cType="1" res="-2.6180606801062822e-03" rms="4.4918265938758850e-01" purity="4.9756047129631042e-01" nType="0">
        <Node pos="l" depth="1" NCoef="0" IVar="7" Cut="6.7474657297134399e-01" cType="1" res="-7.6717995107173920e-03" rms="4.5158585906028748e-01" purity="4.7505354881286621e-01" nType="0">
          <Node pos="l" depth="2" NCoef="0" IVar="-1" Cut="0.0000000000000000e+00" cType="1" res="-2.5935037410818040e-04" rms="4.5181334018707275e-01" purity="4.5337006449699402e-01" nType="-99"/>
          <Node pos="r" depth="2" NCoef="0" IVar="-1" Cut="0.0000000000000000e+00" cType="1" res="-1.1977439280599356e-03" rms="4.5096597075462341e-01" purity="5.2168047428131104e-01" nType="-99"/>
        </Node>
        <Node pos="r" depth="1" NCoef="0" IVar="4" Cut="5.4657042026519775e-01" cType="1" res="1.7169486731290817e-02" rms="4.3908730149269104e-01" purity="5.8568477630615234e-01" nType="0">
          <Node pos="l" depth="2" NCoef="0" IVar="-1" Cut="0.0000000000000000e+00" cType="1" res="2.0424544345587492e-03" rms="4.4335764646530151e-01" purity="6.0785454511642456e-01" nType="-99"/>
          <Node pos="r" depth="2" NCoef="0" IVar="-1" Cut="0.0000000000000000e+00" cType="1" res="-8.7800133042037487e-04" rms="4.2760518193244934e-01" purity="5.3424614667892456e-01" nType="-99"/>
        </Node>
      </Node>
    </BinaryTree>
    <BinaryTree type="DecisionTree" boostWeight="1.0000000000000000e+00" itree="1240">
      <Node pos="s" depth="0" NCoef="0" IVar="3" Cut="2.4388584494590759e-01" cType="1" res="3.5511520691215992e-03" rms="4.5031175017356873e-01" purity="5.0483435392379761e-01" nType="0">
        <Node pos="l" depth="1" NCoef="0" IVar="1" Cut="8.6381018161773682e-01" cType="1" res="5.6008049286901951e-03" rms="4.4949182868003845e-01" purity="5.0350511074066162e-01" nType="0">
          <Node pos="l" depth="2" NCoef="0" IVar="-1" Cut="0.0000000000000000e+00" cType="1" res="-1.1890960158780217e-03" rms="4.4362154603004456e-01" purity="3.4175738692283630e-01" nType="-99"/>
          <Node pos="r" depth="2" NCoef="0" IVar="-1" Cut="0.0000000000000000e+00" cType="1" res="6.6727690864354372e-04" rms="4.5045813918113708e-01" purity="5.3315299749374390e-01" nType="-99"/>
        </Node>
        <Node pos="r" depth="1" NCoef="0" IVar="-1" Cut="0.0000000000000000e+00" cType="1" res="-2.2169495932757854e-03" rms="4.6277609467506409e-01" purity="5.2771270275115967e-01" nType="-99"/>
      </Node>
    </BinaryTree>
    <BinaryTree type="DecisionTree" boostWeight="1.0000000000000000e+00" itree="1241">
      <Node pos="s" depth="0" NCoef="0" IVar="0" Cut="9.4141566753387451e-01" cType="1" res="-1.7166576581075788e-03" rms="4.5131668448448181e-01" purity="4.9566879868507385e-01" nType="0">
        <Node pos="l" depth="1" NCoef="0" IVar="6" Cut="1.2044292688369751e+00" cType="1" res="1.9995832815766335e-02" rms="4.5285731554031372e-01" purity="3.6267095804214478e-01" nType="0">
          <Node pos="l" depth="2" NCoef="0" IVar="-1" Cut="0.0000000000000000e+00" cType="1" res="2.9656935948878527e-03" rms="4.7378832101821899e-01" purity="4.1885972023010254e-01" nType="-99"/>
          <Node pos="r" depth="2" NCoef="0" IVar="-1" Cut="0.0000000000000000e+00" cType="1" res="-1.3171783939469606e-04" rms="4.2802152037620544e-01" purity="3.0184569954872131e-01" nType="-99"/>
        </Node>
        <Node pos="r" depth="1" NCoef="0" IVar="4" Cut="3.9433032274246216e-01" cType="1" res="-1.1941662989556789e-02" rms="4.5022681355476379e-01" purity="5.5830121040344238e-01" nType="0">
          <Node pos="l" depth="2" NCoef="0" IVar="-1" Cut="0.0000000000000000e+00" cType="1" res="-1.4683989575132728e-03" rms="4.5184281468391418e-01" purity="5.1977217197418213e-01" nType="-99"/>
          <Node pos="r" depth="2" NCoef="0" IVar="-1" Cut="0.0000000000000000e+00" cType="1" res="-1.4366096002049744e-04" rms="4.4829261302947998e-01" purity="5.9924381971359253e-01" nType="-99"/>
        </Node>
      </Node>
    </BinaryTree>
    <BinaryTree type="DecisionTree" boostWeight="1.0000000000000000e+00" itree="1242">
      <Node pos="s" depth="0" NCoef="0" IVar="7" Cut="3.5579356551170349e-01" cType="1" res="-1.6104491078294814e-04" rms="4.4800999760627747e-01" purity="5.0182950496673584e-01" nType="0">
        <Node pos="l" depth="1" NCoef="0" IVar="-1" Cut="0.0000000000000000e+00" cType="1" res="3.0570318922400475e-03" rms="4.5881417393684387e-01" purity="5.2023953199386597e-01" nType="-99"/>
        <Node pos="r" depth="1" NCoef="0" IVar="1" Cut="8.5610574483871460e-01" cType="1" res="-2.5572513695806265e-03" rms="4.4729170203208923e-01" purity="5.0083076953887939e-01" nType="0">
          <Node pos="l" depth="2" NCoef="0" IVar="-1" Cut="0.0000000000000000e+00" cType="1" res="2.1001771092414856e-03" rms="4.6423181891441345e-01" purity="3.8176742196083069e-01" nType="-99"/>
          <Node pos="r" depth="2" NCoef="0" IVar="-1" Cut="0.0000000000000000e+00" cType="1" res="-3.7774446536786854e-04" rms="4.4569796323776245e-01" purity="5.1112794876098633e-01" nType="-99"/>
        </Node>
      </Node>
    </BinaryTree>
    <BinaryTree type="DecisionTree" boostWeight="1.0000000000000000e+00" itree="1243">
      <Node pos="s" depth="0" NCoef="0" IVar="2" Cut="2.7110787963867188e+02" cType="1" res="-5.1056249067187309e-03" rms="4.4947150349617004e-01" purity="4.9356469511985779e-01" nType="0">
        <Node pos="l" depth="1" NCoef="0" IVar="5" Cut="3.8131157634779811e-04" cType="1" res="2.3787808604538441e-03" rms="4.3894264101982117e-01" purity="3.5195636749267578e-01" nType="0">
          <Node pos="l" depth="2" NCoef="0" IVar="-1" Cut="0.0000000000000000e+00" cType="1" res="2.1181167103350163e-03" rms="4.4761908054351807e-01" purity="5.4722017049789429e-01" nType="-99"/>
          <Node pos="r" depth="2" NCoef="0" IVar="-1" Cut="0.0000000000000000e+00" cType="1" res="-4.2748037958517671e-04" rms="4.3629309535026550e-01" purity="2.9935896396636963e-01" nType="-99"/>
        </Node>
        <Node pos="r" depth="1" NCoef="0" IVar="2" Cut="3.5931927490234375e+02" cType="1" res="-9.1417971998453140e-03" rms="4.5499727129936218e-01" purity="5.6993085145950317e-01" nType="0">
          <Node pos="l" depth="2" NCoef="0" IVar="-1" Cut="0.0000000000000000e+00" cType="1" res="-1.1952663771808147e-03" rms="4.5698705315589905e-01" purity="5.1121675968170166e-01" nType="-99"/>
          <Node pos="r" depth="2" NCoef="0" IVar="-1" Cut="0.0000000000000000e+00" cType="1" res="-8.2304366515018046e-05" rms="4.5290631055831909e-01" purity="6.2722843885421753e-01" nType="-99"/>
        </Node>
      </Node>
    </BinaryTree>
    <BinaryTree type="DecisionTree" boostWeight="1.0000000000000000e+00" itree="1244">
      <Node pos="s" depth="0" NCoef="0" IVar="6" Cut="1.2821807861328125e+00" cType="1" res="-3.7134131416678429e-03" rms="4.4833031296730042e-01" purity="4.9740833044052124e-01" nType="0">
        <Node pos="l" depth="1" NCoef="0" IVar="2" Cut="5.4567767333984375e+02" cType="1" res="5.0725857727229595e-03" rms="4.5384702086448669e-01" purity="5.4229879379272461e-01" nType="0">
          <Node pos="l" depth="2" NCoef="0" IVar="-1" Cut="0.0000000000000000e+00" cType="1" res="9.7227544756606221e-05" rms="4.5789581537246704e-01" purity="5.1925468444824219e-01" nType="-99"/>
          <Node pos="r" depth="2" NCoef="0" IVar="-1" Cut="0.0000000000000000e+00" cType="1" res="2.4566273204982281e-03" rms="4.1676864027976990e-01" purity="7.3705524206161499e-01" nType="-99"/>
        </Node>
        <Node pos="r" depth="1" NCoef="0" IVar="7" Cut="8.2183402776718140e-01" cType="1" res="-1.7275087535381317e-02" rms="4.3933430314064026e-01" purity="4.2811730504035950e-01" nType="0">
          <Node pos="l" depth="2" NCoef="0" IVar="-1" Cut="0.0000000000000000e+00" cType="1" res="-1.7887330614030361e-03" rms="4.3958944082260132e-01" purity="4.0686511993408203e-01" nType="-99"/>
          <Node pos="r" depth="2" NCoef="0" IVar="-1" Cut="0.0000000000000000e+00" cType="1" res="8.6448580259457231e-04" rms="4.3677476048469543e-01" purity="5.4632502794265747e-01" nType="-99"/>
        </Node>
      </Node>
    </BinaryTree>
    <BinaryTree type="DecisionTree" boostWeight="1.0000000000000000e+00" itree="1245">
      <Node pos="s" depth="0" NCoef="0" IVar="7" Cut="4.5754206180572510e-01" cType="1" res="-2.2495398297905922e-03" rms="4.4937139749526978e-01" purity="4.9925190210342407e-01" nType="0">
        <Node pos="l" depth="1" NCoef="0" IVar="6" Cut="1.0806674957275391e+00" cType="1" res="-1.6578841954469681e-02" rms="4.4002839922904968e-01" purity="4.3040663003921509e-01" nType="0">
          <Node pos="l" depth="2" NCoef="0" IVar="-1" Cut="0.0000000000000000e+00" cType="1" res="8.2152104005217552e-04" rms="4.5321545004844666e-01" purity="5.2140790224075317e-01" nType="-99"/>
          <Node pos="r" depth="2" NCoef="0" IVar="-1" Cut="0.0000000000000000e+00" cType="1" res="-2.9360861517488956e-03" rms="4.2993775010108948e-01" purity="3.6959537863731384e-01" nType="-99"/>
        </Node>
        <Node pos="r" depth="1" NCoef="0" IVar="3" Cut="1.3842456042766571e-01" cType="1" res="6.6606799373403192e-04" rms="4.5119303464889526e-01" purity="5.1326000690460205e-01" nType="0">
          <Node pos="l" depth="2" NCoef="0" IVar="-1" Cut="0.0000000000000000e+00" cType="1" res="2.5190241285599768e-04" rms="4.5032396912574768e-01" purity="5.0882768630981445e-01" nType="-99"/>
          <Node pos="r" depth="2" NCoef="0" IVar="-1" Cut="0.0000000000000000e+00" cType="1" res="-1.1772131547331810e-03" rms="4.5625606179237366e-01" purity="5.4129487276077271e-01" nType="-99"/>
        </Node>
      </Node>
    </BinaryTree>
    <BinaryTree type="DecisionTree" boostWeight="1.0000000000000000e+00" itree="1246">
      <Node pos="s" depth="0" NCoef="0" IVar="3" Cut="2.1962158381938934e-02" cType="1" res="3.1885411590337753e-04" rms="4.4939902424812317e-01" purity="4.9621164798736572e-01" nType="0">
        <Node pos="l" depth="1" NCoef="0" IVar="4" Cut="3.3224663138389587e-01" cType="1" res="1.1443780735135078e-02" rms="4.4724243879318237e-01" purity="4.8106199502944946e-01" nType="0">
          <Node pos="l" depth="2" NCoef="0" IVar="-1" Cut="0.0000000000000000e+00" cType="1" res="2.0213292445987463e-03" rms="4.4959339499473572e-01" purity="4.5163166522979736e-01" nType="-99"/>
          <Node pos="r" depth="2" NCoef="0" IVar="-1" Cut="0.0000000000000000e+00" cType="1" res="2.0611412764992565e-04" rms="4.4565525650978088e-01" purity="4.9798163771629333e-01" nType="-99"/>
        </Node>
        <Node pos="r" depth="1" NCoef="0" IVar="7" Cut="4.9801295995712280e-01" cType="1" res="-1.2314885854721069e-02" rms="4.5150333642959595e-01" purity="5.1341599225997925e-01" nType="0">
          <Node pos="l" depth="2" NCoef="0" IVar="-1" Cut="0.0000000000000000e+00" cType="1" res="6.3435256015509367e-04" rms="4.5383909344673157e-01" purity="5.1252555847167969e-01" nType="-99"/>
          <Node pos="r" depth="2" NCoef="0" IVar="-1" Cut="0.0000000000000000e+00" cType="1" res="-1.8327888101339340e-03" rms="4.4956323504447937e-01" purity="5.1395946741104126e-01" nType="-99"/>
        </Node>
      </Node>
    </BinaryTree>
    <BinaryTree type="DecisionTree" boostWeight="1.0000000000000000e+00" itree="1247">
      <Node pos="s" depth="0" NCoef="0" IVar="1" Cut="9.4468033313751221e-01" cType="1" res="4.3694677879102528e-04" rms="4.5039063692092896e-01" purity="4.9706479907035828e-01" nType="0">
        <Node pos="l" depth="1" NCoef="0" IVar="0" Cut="1.6506837606430054e+00" cType="1" res="4.3480116873979568e-03" rms="4.5596283674240112e-01" purity="4.3828415870666504e-01" nType="0">
          <Node pos="l" depth="2" NCoef="0" IVar="-1" Cut="0.0000000000000000e+00" cType="1" res="-2.6763684581965208e-04" rms="4.5157402753829956e-01" purity="3.6124661564826965e-01" nType="-99"/>
          <Node pos="r" depth="2" NCoef="0" IVar="-1" Cut="0.0000000000000000e+00" cType="1" res="1.0328659554943442e-03" rms="4.6244692802429199e-01" purity="5.5802828073501587e-01" nType="-99"/>
        </Node>
        <Node pos="r" depth="1" NCoef="0" IVar="1" Cut="9.5990270376205444e-01" cType="1" res="-1.3405011966824532e-02" rms="4.2980432510375977e-01" purity="7.0510005950927734e-01" nType="0">
          <Node pos="l" depth="2" NCoef="0" IVar="-1" Cut="0.0000000000000000e+00" cType="1" res="-2.4275665637105703e-03" rms="4.6847566962242126e-01" purity="5.8427953720092773e-01" nType="-99"/>
          <Node pos="r" depth="2" NCoef="0" IVar="-1" Cut="0.0000000000000000e+00" cType="1" res="-2.4567605578340590e-04" rms="4.1005632281303406e-01" purity="7.6162767410278320e-01" nType="-99"/>
        </Node>
      </Node>
    </BinaryTree>
    <BinaryTree type="DecisionTree" boostWeight="1.0000000000000000e+00" itree="1248">
      <Node pos="s" depth="0" NCoef="0" IVar="6" Cut="1.1362231969833374e+00" cType="1" res="2.1706926636397839e-03" rms="4.5063486695289612e-01" purity="5.0124490261077881e-01" nType="0">
        <Node pos="l" depth="1" NCoef="0" IVar="3" Cut="1.7443205416202545e-01" cType="1" res="-6.5574687905609608e-03" rms="4.5594337582588196e-01" purity="5.3838938474655151e-01" nType="0">
          <Node pos="l" depth="2" NCoef="0" IVar="-1" Cut="0.0000000000000000e+00" cType="1" res="-2.5118251869571395e-05" rms="4.5367476344108582e-01" purity="5.3733438253402710e-01" nType="-99"/>
          <Node pos="r" depth="2" NCoef="0" IVar="-1" Cut="0.0000000000000000e+00" cType="1" res="-3.0175261199474335e-03" rms="4.6778786182403564e-01" purity="5.4483741521835327e-01" nType="-99"/>
        </Node>
        <Node pos="r" depth="1" NCoef="0" IVar="1" Cut="9.5624327659606934e-01" cType="1" res="1.0140304453670979e-02" rms="4.4558319449424744e-01" purity="4.6732863783836365e-01" nType="0">
          <Node pos="l" depth="2" NCoef="0" IVar="-1" Cut="0.0000000000000000e+00" cType="1" res="1.1325584491714835e-03" rms="4.4959780573844910e-01" purity="4.2148062586784363e-01" nType="-99"/>
          <Node pos="r" depth="2" NCoef="0" IVar="-1" Cut="0.0000000000000000e+00" cType="1" res="-1.2963614426553249e-03" rms="4.2230570316314697e-01" purity="7.1399325132369995e-01" nType="-99"/>
        </Node>
      </Node>
    </BinaryTree>
    <BinaryTree type="DecisionTree" boostWeight="1.0000000000000000e+00" itree="1249">
      <Node pos="s" depth="0" NCoef="0" IVar="5" Cut="1.6775693511590362e-03" cType="1" res="2.7306532138027251e-04" rms="4.5003083348274231e-01" purity="5.0072592496871948e-01" nType="0">
        <Node pos="l" depth="1" NCoef="0" IVar="0" Cut="1.6769447326660156e+00" cType="1" res="5.9920158237218857e-03" rms="4.4630429148674011e-01" purity="5.6675404310226440e-01" nType="0">
          <Node pos="l" depth="2" NCoef="0" IVar="-1" Cut="0.0000000000000000e+00" cType="1" res="1.8818525131791830e-03" rms="4.5695358514785767e-01" purity="4.3977728486061096e-01" nType="-99"/>
          <Node pos="r" depth="2" NCoef="0" IVar="-1" Cut="0.0000000000000000e+00" cType="1" res="-4.4871610589325428e-04" rms="4.3859267234802246e-01" purity="6.5176624059677124e-01" nType="-99"/>
        </Node>
        <Node pos="r" depth="1" NCoef="0" IVar="0" Cut="2.1546913683414459e-01" cType="1" res="-8.6057893931865692e-03" rms="4.5561376214027405e-01" purity="3.9821520447731018e-01" nType="0">
          <Node pos="l" depth="2" NCoef="0" IVar="-1" Cut="0.0000000000000000e+00" cType="1" res="-3.0329432338476181e-03" rms="4.2528396844863892e-01" purity="2.8068751096725464e-01" nType="-99"/>
          <Node pos="r" depth="2" NCoef="0" IVar="-1" Cut="0.0000000000000000e+00" cType="1" res="-6.8038323661312461e-05" rms="4.6434354782104492e-01" purity="4.3462482094764709e-01" nType="-99"/>
        </Node>
      </Node>
    </BinaryTree>
    <BinaryTree type="DecisionTree" boostWeight="1.0000000000000000e+00" itree="1250">
      <Node pos="s" depth="0" NCoef="0" IVar="5" Cut="2.5808813516050577e-03" cType="1" res="-2.6095411740243435e-03" rms="4.5158949494361877e-01" purity="4.9731540679931641e-01" nType="0">
        <Node pos="l" depth="1" NCoef="0" IVar="7" Cut="8.6944180727005005e-01" cType="1" res="-7.3989499360322952e-03" rms="4.4859254360198975e-01" purity="5.2153092622756958e-01" nType="0">
          <Node pos="l" depth="2" NCoef="0" IVar="-1" Cut="0.0000000000000000e+00" cType="1" res="-3.5186699824407697e-04" rms="4.5038786530494690e-01" purity="5.1441729068756104e-01" nType="-99"/>
          <Node pos="r" depth="2" NCoef="0" IVar="-1" Cut="0.0000000000000000e+00" cType="1" res="-2.2750904317945242e-03" rms="4.3128445744514465e-01" purity="5.8602660894393921e-01" nType="-99"/>
        </Node>
        <Node pos="r" depth="1" NCoef="0" IVar="5" Cut="3.5868631675839424e-03" cType="1" res="1.3809869065880775e-02" rms="4.6133896708488464e-01" purity="4.1429784893989563e-01" nType="0">
          <Node pos="l" depth="2" NCoef="0" IVar="-1" Cut="0.0000000000000000e+00" cType="1" res="1.8834413494914770e-03" rms="4.6256691217422485e-01" purity="4.2536872625350952e-01" nType="-99"/>
          <Node pos="r" depth="2" NCoef="0" IVar="-1" Cut="0.0000000000000000e+00" cType="1" res="-1.2482912279665470e-03" rms="4.5680707693099976e-01" purity="3.8709378242492676e-01" nType="-99"/>
        </Node>
      </Node>
    </BinaryTree>
    <BinaryTree type="DecisionTree" boostWeight="1.0000000000000000e+00" itree="1251">
      <Node pos="s" depth="0" NCoef="0" IVar="7" Cut="4.7961941361427307e-01" cType="1" res="2.8283887077122927e-03" rms="4.5054188370704651e-01" purity="5.0343090295791626e-01" nType="0">
        <Node pos="l" depth="1" NCoef="0" IVar="5" Cut="1.2668778654187918e-03" cType="1" res="2.2737130522727966e-02" rms="4.5430415868759155e-01" purity="4.6711885929107666e-01" nType="0">
          <Node pos="l" depth="2" NCoef="0" IVar="-1" Cut="0.0000000000000000e+00" cType="1" res="5.5580458138138056e-04" rms="4.4403237104415894e-01" purity="5.2071106433868408e-01" nType="-99"/>
          <Node pos="r" depth="2" NCoef="0" IVar="-1" Cut="0.0000000000000000e+00" cType="1" res="2.7012994978576899e-03" rms="4.6329176425933838e-01" purity="4.1679906845092773e-01" nType="-99"/>
        </Node>
        <Node pos="r" depth="1" NCoef="0" IVar="7" Cut="5.9734845161437988e-01" cType="1" res="-2.4042297154664993e-03" rms="4.4940146803855896e-01" purity="5.1297479867935181e-01" nType="0">
          <Node pos="l" depth="2" NCoef="0" IVar="-1" Cut="0.0000000000000000e+00" cType="1" res="-1.3693020446226001e-03" rms="4.4621565937995911e-01" purity="4.3724370002746582e-01" nType="-99"/>
          <Node pos="r" depth="2" NCoef="0" IVar="-1" Cut="0.0000000000000000e+00" cType="1" res="2.0174276141915470e-04" rms="4.5033484697341919e-01" purity="5.3818017244338989e-01" nType="-99"/>
        </Node>
      </Node>
    </BinaryTree>
    <BinaryTree type="DecisionTree" boostWeight="1.0000000000000000e+00" itree="1252">
      <Node pos="s" depth="0" NCoef="0" IVar="6" Cut="8.4810858964920044e-01" cType="1" res="-1.7733988352119923e-04" rms="4.5026347041130066e-01" purity="4.9790981411933899e-01" nType="0">
        <Node pos="l" depth="1" NCoef="0" IVar="5" Cut="8.8135624537244439e-04" cType="1" res="1.4955351129174232e-02" rms="4.5293849706649780e-01" purity="5.8679234981536865e-01" nType="0">
          <Node pos="l" depth="2" NCoef="0" IVar="-1" Cut="0.0000000000000000e+00" cType="1" res="-7.2236807318404317e-04" rms="4.3264791369438171e-01" purity="6.6010564565658569e-01" nType="-99"/>
          <Node pos="r" depth="2" NCoef="0" IVar="-1" Cut="0.0000000000000000e+00" cType="1" res="2.1206687670201063e-03" rms="4.6626979112625122e-01" purity="5.3370600938796997e-01" nType="-99"/>
        </Node>
        <Node pos="r" depth="1" NCoef="0" IVar="3" Cut="4.0815558284521103e-02" cType="1" res="-5.0715198740363121e-03" rms="4.4928583502769470e-01" purity="4.6916362643241882e-01" nType="0">
          <Node pos="l" depth="2" NCoef="0" IVar="-1" Cut="0.0000000000000000e+00" cType="1" res="-1.1769280536100268e-03" rms="4.4406130909919739e-01" purity="4.3489459156990051e-01" nType="-99"/>
          <Node pos="r" depth="2" NCoef="0" IVar="-1" Cut="0.0000000000000000e+00" cType="1" res="5.9858051827177405e-04" rms="4.5590344071388245e-01" purity="5.1551604270935059e-01" nType="-99"/>
        </Node>
      </Node>
    </BinaryTree>
    <BinaryTree type="DecisionTree" boostWeight="1.0000000000000000e+00" itree="1253">
      <Node pos="s" depth="0" NCoef="0" IVar="6" Cut="1.9976292848587036e+00" cType="1" res="3.3217973541468382e-03" rms="4.4738823175430298e-01" purity="5.0196534395217896e-01" nType="0">
        <Node pos="l" depth="1" NCoef="0" IVar="6" Cut="6.4654362201690674e-01" cType="1" res="5.5364468134939671e-03" rms="4.4950133562088013e-01" purity="5.0895053148269653e-01" nType="0">
          <Node pos="l" depth="2" NCoef="0" IVar="-1" Cut="0.0000000000000000e+00" cType="1" res="1.9022274063900113e-03" rms="4.3616911768913269e-01" purity="6.2573540210723877e-01" nType="-99"/>
          <Node pos="r" depth="2" NCoef="0" IVar="-1" Cut="0.0000000000000000e+00" cType="1" res="2.2302610159385949e-04" rms="4.5086747407913208e-01" purity="4.9617719650268555e-01" nType="-99"/>
        </Node>
        <Node pos="r" depth="1" NCoef="0" IVar="-1" Cut="0.0000000000000000e+00" cType="1" res="-2.8554659802466631e-03" rms="4.0884506702423096e-01" purity="3.8564544916152954e-01" nType="-99"/>
      </Node>
    </BinaryTree>
    <BinaryTree type="DecisionTree" boostWeight="1.0000000000000000e+00" itree="1254">
      <Node pos="s" depth="0" NCoef="0" IVar="3" Cut="-2.2964752279222012e-03" cType="1" res="3.3111541997641325e-03" rms="4.4936212897300720e-01" purity="5.0333356857299805e-01" nType="0">
        <Node pos="l" depth="1" NCoef="0" IVar="2" Cut="2.2350512695312500e+02" cType="1" res="1.1964809149503708e-02" rms="4.4692024588584900e-01" purity="4.8464563488960266e-01" nType="0">
          <Node pos="l" depth="2" NCoef="0" IVar="-1" Cut="0.0000000000000000e+00" cType="1" res="4.0636830963194370e-03" rms="4.2098924517631531e-01" purity="2.8472301363945007e-01" nType="-99"/>
          <Node pos="r" depth="2" NCoef="0" IVar="-1" Cut="0.0000000000000000e+00" cType="1" res="5.3899700287729502e-04" rms="4.5102390646934509e-01" purity="5.1857662200927734e-01" nType="-99"/>
        </Node>
        <Node pos="r" depth="1" NCoef="0" IVar="1" Cut="8.6762696504592896e-01" cType="1" res="-4.2204773053526878e-03" rms="4.5134162902832031e-01" purity="5.1959848403930664e-01" nType="0">
          <Node pos="l" depth="2" NCoef="0" IVar="-1" Cut="0.0000000000000000e+00" cType="1" res="-1.9411969697102904e-03" rms="4.5134431123733521e-01" purity="3.5560989379882812e-01" nType="-99"/>
          <Node pos="r" depth="2" NCoef="0" IVar="-1" Cut="0.0000000000000000e+00" cType="1" res="7.1467147790826857e-05" rms="4.5118534564971924e-01" purity="5.5955803394317627e-01" nType="-99"/>
        </Node>
      </Node>
    </BinaryTree>
    <BinaryTree type="DecisionTree" boostWeight="1.0000000000000000e+00" itree="1255">
      <Node pos="s" depth="0" NCoef="0" IVar="4" Cut="7.1056401729583740e-01" cType="1" res="1.9090757705271244e-03" rms="4.4987913966178894e-01" purity="5.0132423639297485e-01" nType="0">
        <Node pos="l" depth="1" NCoef="0" IVar="0" Cut="2.0020015537738800e-01" cType="1" res="3.4724590368568897e-03" rms="4.5151850581169128e-01" purity="5.0061875581741333e-01" nType="0">
          <Node pos="l" depth="2" NCoef="0" IVar="-1" Cut="0.0000000000000000e+00" cType="1" res="1.8590594409033656e-03" rms="4.4353449344635010e-01" purity="3.2522696256637573e-01" nType="-99"/>
          <Node pos="r" depth="2" NCoef="0" IVar="-1" Cut="0.0000000000000000e+00" cType="1" res="6.0145048337290064e-05" rms="4.5267850160598755e-01" purity="5.2762311697006226e-01" nType="-99"/>
        </Node>
        <Node pos="r" depth="1" NCoef="0" IVar="-1" Cut="0.0000000000000000e+00" cType="1" res="-1.8003425793722272e-03" rms="4.2055672407150269e-01" purity="5.1316088438034058e-01" nType="-99"/>
      </Node>
    </BinaryTree>
    <BinaryTree type="DecisionTree" boostWeight="1.0000000000000000e+00" itree="1256">
      <Node pos="s" depth="0" NCoef="0" IVar="6" Cut="1.4366089105606079e+00" cType="1" res="-2.4201669730246067e-03" rms="4.4733592867851257e-01" purity="4.9942636489868164e-01" nType="0">
        <Node pos="l" depth="1" NCoef="0" IVar="7" Cut="7.9272335767745972e-01" cType="1" res="-8.4674078971147537e-03" rms="4.5079135894775391e-01" purity="5.2195423841476440e-01" nType="0">
          <Node pos="l" depth="2" NCoef="0" IVar="-1" Cut="0.0000000000000000e+00" cType="1" res="-1.1203765461686999e-04" rms="4.5315867662429810e-01" purity="5.1143854856491089e-01" nType="-99"/>
          <Node pos="r" depth="2" NCoef="0" IVar="-1" Cut="0.0000000000000000e+00" cType="1" res="-2.1547349169850349e-03" rms="4.4251811504364014e-01" purity="5.5520361661911011e-01" nType="-99"/>
        </Node>
        <Node pos="r" depth="1" NCoef="0" IVar="3" Cut="-8.1943646073341370e-02" cType="1" res="1.2079595588147640e-02" rms="4.3860042095184326e-01" purity="4.4541031122207642e-01" nType="0">
          <Node pos="l" depth="2" NCoef="0" IVar="-1" Cut="0.0000000000000000e+00" cType="1" res="-2.1271684672683477e-03" rms="4.2328706383705139e-01" purity="3.4197589755058289e-01" nType="-99"/>
          <Node pos="r" depth="2" NCoef="0" IVar="-1" Cut="0.0000000000000000e+00" cType="1" res="1.5472973464056849e-03" rms="4.4169598817825317e-01" purity="4.6965643763542175e-01" nType="-99"/>
        </Node>
      </Node>
    </BinaryTree>
    <BinaryTree type="DecisionTree" boostWeight="1.0000000000000000e+00" itree="1257">
      <Node pos="s" depth="0" NCoef="0" IVar="1" Cut="8.5995841026306152e-01" cType="1" res="1.4778765616938472e-03" rms="4.5074152946472168e-01" purity="5.0152486562728882e-01" nType="0">
        <Node pos="l" depth="1" NCoef="0" IVar="7" Cut="6.6877901554107666e-01" cType="1" res="3.0207782983779907e-02" rms="4.5990443229675293e-01" purity="3.9451485872268677e-01" nType="0">
          <Node pos="l" depth="2" NCoef="0" IVar="-1" Cut="0.0000000000000000e+00" cType="1" res="6.6720007453113794e-04" rms="4.4657552242279053e-01" purity="3.3495351672172546e-01" nType="-99"/>
          <Node pos="r" depth="2" NCoef="0" IVar="-1" Cut="0.0000000000000000e+00" cType="1" res="3.9026422891765833e-03" rms="4.7445946931838989e-01" purity="4.6819758415222168e-01" nType="-99"/>
        </Node>
        <Node pos="r" depth="1" NCoef="0" IVar="0" Cut="-2.0121760666370392e-02" cType="1" res="-2.4017225950956345e-03" rms="4.4934913516044617e-01" purity="5.1597517728805542e-01" nType="0">
          <Node pos="l" depth="2" NCoef="0" IVar="-1" Cut="0.0000000000000000e+00" cType="1" res="-3.2037997152656317e-03" rms="4.2036926746368408e-01" purity="2.8084096312522888e-01" nType="-99"/>
          <Node pos="r" depth="2" NCoef="0" IVar="-1" Cut="0.0000000000000000e+00" cType="1" res="-8.5198907981975935e-06" rms="4.5126107335090637e-01" purity="5.3276783227920532e-01" nType="-99"/>
        </Node>
      </Node>
    </BinaryTree>
    <BinaryTree type="DecisionTree" boostWeight="1.0000000000000000e+00" itree="1258">
      <Node pos="s" depth="0" NCoef="0" IVar="7" Cut="5.3399288654327393e-01" cType="1" res="2.7050655335187912e-03" rms="4.5105561614036560e-01" purity="5.0170785188674927e-01" nType="0">
        <Node pos="l" depth="1" NCoef="0" IVar="1" Cut="8.6377280950546265e-01" cType="1" res="1.4231311157345772e-02" rms="4.5654118061065674e-01" purity="4.5361939072608948e-01" nType="0">
          <Node pos="l" depth="2" NCoef="0" IVar="-1" Cut="0.0000000000000000e+00" cType="1" res="5.0224359147250652e-03" rms="4.5432874560356140e-01" purity="3.8081312179565430e-01" nType="-99"/>
          <Node pos="r" depth="2" NCoef="0" IVar="-1" Cut="0.0000000000000000e+00" cType="1" res="2.7148245135322213e-04" rms="4.5634180307388306e-01" purity="4.6946319937705994e-01" nType="-99"/>
        </Node>
        <Node pos="r" depth="1" NCoef="0" IVar="3" Cut="1.2084773182868958e-01" cType="1" res="-2.0224859472364187e-03" rms="4.4870066642761230e-01" purity="5.2143162488937378e-01" nType="0">
          <Node pos="l" depth="2" NCoef="0" IVar="-1" Cut="0.0000000000000000e+00" cType="1" res="1.3202057743910700e-04" rms="4.4843503832817078e-01" purity="5.2096039056777954e-01" nType="-99"/>
          <Node pos="r" depth="2" NCoef="0" IVar="-1" Cut="0.0000000000000000e+00" cType="1" res="-2.2294789087027311e-03" rms="4.4963115453720093e-01" purity="5.2498340606689453e-01" nType="-99"/>
        </Node>
      </Node>
    </BinaryTree>
    <BinaryTree type="DecisionTree" boostWeight="1.0000000000000000e+00" itree="1259">
      <Node pos="s" depth="0" NCoef="0" IVar="6" Cut="1.2391432523727417e+00" cType="1" res="1.0557495988905430e-03" rms="4.4868451356887817e-01" purity="5.0043964385986328e-01" nType="0">
        <Node pos="l" depth="1" NCoef="0" IVar="0" Cut="7.6872184872627258e-02" cType="1" res="7.8391646966338158e-03" rms="4.5488739013671875e-01" purity="5.4397124052047729e-01" nType="0">
          <Node pos="l" depth="2" NCoef="0" IVar="-1" Cut="0.0000000000000000e+00" cType="1" res="3.1957728788256645e-03" rms="4.5738703012466431e-01" purity="3.8168308138847351e-01" nType="-99"/>
          <Node pos="r" depth="2" NCoef="0" IVar="-1" Cut="0.0000000000000000e+00" cType="1" res="2.6523406268097460e-04" rms="4.5441803336143494e-01" purity="5.6427288055419922e-01" nType="-99"/>
        </Node>
        <Node pos="r" depth="1" NCoef="0" IVar="7" Cut="6.2039840221405029e-01" cType="1" res="-8.0420710146427155e-03" rms="4.4006395339965820e-01" purity="4.4205570220947266e-01" nType="0">
          <Node pos="l" depth="2" NCoef="0" IVar="-1" Cut="0.0000000000000000e+00" cType="1" res="-2.0853709429502487e-03" rms="4.3517240881919861e-01" purity="3.7450358271598816e-01" nType="-99"/>
          <Node pos="r" depth="2" NCoef="0" IVar="-1" Cut="0.0000000000000000e+00" cType="1" res="5.4327026009559631e-04" rms="4.4382247328758240e-01" purity="5.0252985954284668e-01" nType="-99"/>
        </Node>
      </Node>
    </BinaryTree>
    <BinaryTree type="DecisionTree" boostWeight="1.0000000000000000e+00" itree="1260">
      <Node pos="s" depth="0" NCoef="0" IVar="6" Cut="1.2914367914199829e+00" cType="1" res="-6.1561623588204384e-03" rms="4.4849112629890442e-01" purity="4.9393710494041443e-01" nType="0">
        <Node pos="l" depth="1" NCoef="0" IVar="3" Cut="1.4800788462162018e-01" cType="1" res="1.2384068686515093e-03" rms="4.5455649495124817e-01" purity="5.3810274600982666e-01" nType="0">
          <Node pos="l" depth="2" NCoef="0" IVar="-1" Cut="0.0000000000000000e+00" cType="1" res="-4.0193783934228122e-04" rms="4.5377206802368164e-01" purity="5.2041876316070557e-01" nType="-99"/>
          <Node pos="r" depth="2" NCoef="0" IVar="-1" Cut="0.0000000000000000e+00" cType="1" res="1.9035447621718049e-03" rms="4.5667460560798645e-01" purity="6.1070257425308228e-01" nType="-99"/>
        </Node>
        <Node pos="r" depth="1" NCoef="0" IVar="0" Cut="3.0619394779205322e+00" cType="1" res="-1.7615780234336853e-02" rms="4.3867969512939453e-01" purity="4.2549204826354980e-01" nType="0">
          <Node pos="l" depth="2" NCoef="0" IVar="-1" Cut="0.0000000000000000e+00" cType="1" res="-1.9632095936685801e-03" rms="4.3580386042594910e-01" purity="3.6791646480560303e-01" nType="-99"/>
          <Node pos="r" depth="2" NCoef="0" IVar="-1" Cut="0.0000000000000000e+00" cType="1" res="5.2794406656175852e-04" rms="4.4921395182609558e-01" purity="6.5801084041595459e-01" nType="-99"/>
        </Node>
      </Node>
    </BinaryTree>
    <BinaryTree type="DecisionTree" boostWeight="1.0000000000000000e+00" itree="1261">
      <Node pos="s" depth="0" NCoef="0" IVar="7" Cut="7.2241926193237305e-01" cType="1" res="2.8779106214642525e-03" rms="4.4853365421295166e-01" purity="5.0130915641784668e-01" nType="0">
        <Node pos="l" depth="1" NCoef="0" IVar="3" Cut="9.3497850000858307e-02" cType="1" res="-2.5832019746303558e-03" rms="4.4925469160079956e-01" purity="4.6296837925910950e-01" nType="0">
          <Node pos="l" depth="2" NCoef="0" IVar="-1" Cut="0.0000000000000000e+00" cType="1" res="-8.8765705004334450e-04" rms="4.4073417782783508e-01" purity="4.0425223112106323e-01" nType="-99"/>
          <Node pos="r" depth="2" NCoef="0" IVar="-1" Cut="0.0000000000000000e+00" cType="1" res="5.4700346663594246e-04" rms="4.5918160676956177e-01" purity="5.3436058759689331e-01" nType="-99"/>
        </Node>
        <Node pos="r" depth="1" NCoef="0" IVar="3" Cut="-9.7779795527458191e-02" cType="1" res="1.2359046377241611e-02" rms="4.4712069630622864e-01" purity="5.6787323951721191e-01" nType="0">
          <Node pos="l" depth="2" NCoef="0" IVar="-1" Cut="0.0000000000000000e+00" cType="1" res="2.2089139092713594e-03" rms="4.4821834564208984e-01" purity="5.9617596864700317e-01" nType="-99"/>
          <Node pos="r" depth="2" NCoef="0" IVar="-1" Cut="0.0000000000000000e+00" cType="1" res="4.2646960355341434e-04" rms="4.4658526778221130e-01" purity="5.5902874469757080e-01" nType="-99"/>
        </Node>
      </Node>
    </BinaryTree>
    <BinaryTree type="DecisionTree" boostWeight="1.0000000000000000e+00" itree="1262">
      <Node pos="s" depth="0" NCoef="0" IVar="3" Cut="-9.9037334322929382e-02" cType="1" res="-1.4310847036540508e-03" rms="4.4985264539718628e-01" purity="4.9782997369766235e-01" nType="0">
        <Node pos="l" depth="1" NCoef="0" IVar="1" Cut="9.0560066699981689e-01" cType="1" res="-2.1585904061794281e-02" rms="4.3789741396903992e-01" purity="4.3775588274002075e-01" nType="0">
          <Node pos="l" depth="2" NCoef="0" IVar="-1" Cut="0.0000000000000000e+00" cType="1" res="-3.6328623536974192e-03" rms="4.2708724737167358e-01" purity="3.0723145604133606e-01" nType="-99"/>
          <Node pos="r" depth="2" NCoef="0" IVar="-1" Cut="0.0000000000000000e+00" cType="1" res="6.6005210101138800e-05" rms="4.4813197851181030e-01" purity="5.7799476385116577e-01" nType="-99"/>
        </Node>
        <Node pos="r" depth="1" NCoef="0" IVar="7" Cut="7.6569771766662598e-01" cType="1" res="2.3036918137222528e-03" rms="4.5193457603454590e-01" purity="5.0896197557449341e-01" nType="0">
          <Node pos="l" depth="2" NCoef="0" IVar="-1" Cut="0.0000000000000000e+00" cType="1" res="5.2257650531828403e-04" rms="4.5433104038238525e-01" purity="4.9784508347511292e-01" nType="-99"/>
          <Node pos="r" depth="2" NCoef="0" IVar="-1" Cut="0.0000000000000000e+00" cType="1" res="-9.3729427317157388e-04" rms="4.4412040710449219e-01" purity="5.4320245981216431e-01" nType="-99"/>
        </Node>
      </Node>
    </BinaryTree>
    <BinaryTree type="DecisionTree" boostWeight="1.0000000000000000e+00" itree="1263">
      <Node pos="s" depth="0" NCoef="0" IVar="6" Cut="7.0509427785873413e-01" cType="1" res="2.0576908718794584e-03" rms="4.4816324114799500e-01" purity="5.0185322761535645e-01" nType="0">
        <Node pos="l" depth="1" NCoef="0" IVar="7" Cut="6.3367658853530884e-01" cType="1" res="2.3287672549486160e-02" rms="4.5264667272567749e-01" purity="6.0326373577117920e-01" nType="0">
          <Node pos="l" depth="2" NCoef="0" IVar="-1" Cut="0.0000000000000000e+00" cType="1" res="2.9422428924590349e-03" rms="4.5733538269996643e-01" purity="5.7218670845031738e-01" nType="-99"/>
          <Node pos="r" depth="2" NCoef="0" IVar="-1" Cut="0.0000000000000000e+00" cType="1" res="5.2603718359023333e-04" rms="4.4848695397377014e-01" purity="6.2635463476181030e-01" nType="-99"/>
        </Node>
        <Node pos="r" depth="1" NCoef="0" IVar="1" Cut="9.4482290744781494e-01" cType="1" res="-1.2198145268484950e-03" rms="4.4737729430198669e-01" purity="4.8619735240936279e-01" nType="0">
          <Node pos="l" depth="2" NCoef="0" IVar="-1" Cut="0.0000000000000000e+00" cType="1" res="-4.0149592678062618e-04" rms="4.5416808128356934e-01" purity="4.1813173890113831e-01" nType="-99"/>
          <Node pos="r" depth="2" NCoef="0" IVar="-1" Cut="0.0000000000000000e+00" cType="1" res="9.8047615028917789e-04" rms="4.2273232340812683e-01" purity="7.2149866819381714e-01" nType="-99"/>
        </Node>
      </Node>
    </BinaryTree>
    <BinaryTree type="DecisionTree" boostWeight="1.0000000000000000e+00" itree="1264">
      <Node pos="s" depth="0" NCoef="0" IVar="3" Cut="2.0603039860725403e-01" cType="1" res="8.8759753853082657e-03" rms="4.4978448748588562e-01" purity="5.0741881132125854e-01" nType="0">
        <Node pos="l" depth="1" NCoef="0" IVar="3" Cut="1.4326865971088409e-01" cType="1" res="6.9867111742496490e-03" rms="4.4952002167701721e-01" purity="4.9754631519317627e-01" nType="0">
          <Node pos="l" depth="2" NCoef="0" IVar="-1" Cut="0.0000000000000000e+00" cType="1" res="7.3877215618267655e-04" rms="4.4844439625740051e-01" purity="4.9531009793281555e-01" nType="-99"/>
          <Node pos="r" depth="2" NCoef="0" IVar="-1" Cut="0.0000000000000000e+00" cType="1" res="-1.1756850872188807e-03" rms="4.5699542760848999e-01" purity="5.1470881700515747e-01" nType="-99"/>
        </Node>
        <Node pos="r" depth="1" NCoef="0" IVar="-1" Cut="0.0000000000000000e+00" cType="1" res="1.6527905827388167e-03" rms="4.5172339677810669e-01" purity="5.9215444326400757e-01" nType="-99"/>
      </Node>
    </BinaryTree>
    <BinaryTree type="DecisionTree" boostWeight="1.0000000000000000e+00" itree="1265">
      <Node pos="s" depth="0" NCoef="0" IVar="5" Cut="3.6132233217358589e-03" cType="1" res="8.5878456011414528e-03" rms="4.5056614279747009e-01" purity="5.0747692584991455e-01" nType="0">
        <Node pos="l" depth="1" NCoef="0" IVar="5" Cut="3.2425650861114264e-03" cType="1" res="1.0637250728905201e-02" rms="4.5060473680496216e-01" purity="5.1565217971801758e-01" nType="0">
          <Node pos="l" depth="2" NCoef="0" IVar="-1" Cut="0.0000000000000000e+00" cType="1" res="5.5109907407313585e-04" rms="4.5005133748054504e-01" purity="5.1895916461944580e-01" nType="-99"/>
          <Node pos="r" depth="2" NCoef="0" IVar="-1" Cut="0.0000000000000000e+00" cType="1" res="4.0652747265994549e-03" rms="4.5677098631858826e-01" purity="4.6152099967002869e-01" nType="-99"/>
        </Node>
        <Node pos="r" depth="1" NCoef="0" IVar="-1" Cut="0.0000000000000000e+00" cType="1" res="-1.6885211225599051e-03" rms="4.4876793026924133e-01" purity="3.8056132197380066e-01" nType="-99"/>
      </Node>
    </BinaryTree>
    <BinaryTree type="DecisionTree" boostWeight="1.0000000000000000e+00" itree="1266">
      <Node pos="s" depth="0" NCoef="0" IVar="3" Cut="-1.3214129209518433e-01" cType="1" res="1.2802876299247146e-03" rms="4.4891548156738281e-01" purity="5.0340247154235840e-01" nType="0">
        <Node pos="l" depth="1" NCoef="0" IVar="-1" Cut="0.0000000000000000e+00" cType="1" res="2.7971016243100166e-03" rms="4.5711839199066162e-01" purity="4.5633721351623535e-01" nType="-99"/>
        <Node pos="r" depth="1" NCoef="0" IVar="4" Cut="4.7762104868888855e-01" cType="1" res="-6.2631978653371334e-04" rms="4.4838744401931763e-01" purity="5.0595551729202271e-01" nType="0">
          <Node pos="l" depth="2" NCoef="0" IVar="-1" Cut="0.0000000000000000e+00" cType="1" res="-5.4987805197015405e-04" rms="4.4868764281272888e-01" purity="4.8578137159347534e-01" nType="-99"/>
          <Node pos="r" depth="2" NCoef="0" IVar="-1" Cut="0.0000000000000000e+00" cType="1" res="8.2508841296657920e-04" rms="4.4760847091674805e-01" purity="5.4112368822097778e-01" nType="-99"/>
        </Node>
      </Node>
    </BinaryTree>
    <BinaryTree type="DecisionTree" boostWeight="1.0000000000000000e+00" itree="1267">
      <Node pos="s" depth="0" NCoef="0" IVar="1" Cut="8.5997194051742554e-01" cType="1" res="9.1310398420318961e-04" rms="4.4969296455383301e-01" purity="4.9894309043884277e-01" nType="0">
        <Node pos="l" depth="1" NCoef="0" IVar="1" Cut="8.5433137416839600e-01" cType="1" res="2.2518672049045563e-02" rms="4.5720350742340088e-01" purity="3.8481211662292480e-01" nType="0">
          <Node pos="l" depth="2" NCoef="0" IVar="-1" Cut="0.0000000000000000e+00" cType="1" res="2.3043394321575761e-04" rms="4.5256328582763672e-01" purity="3.4872505068778992e-01" nType="-99"/>
          <Node pos="r" depth="2" NCoef="0" IVar="-1" Cut="0.0000000000000000e+00" cType="1" res="2.8569113928824663e-03" rms="4.6049576997756958e-01" purity="4.1591060161590576e-01" nType="-99"/>
        </Node>
        <Node pos="r" depth="1" NCoef="0" IVar="5" Cut="1.8742734100669622e-03" cType="1" res="-2.1518697030842304e-03" rms="4.4853302836418152e-01" purity="5.1513373851776123e-01" nType="0">
          <Node pos="l" depth="2" NCoef="0" IVar="-1" Cut="0.0000000000000000e+00" cType="1" res="3.4196767956018448e-04" rms="4.4563591480255127e-01" purity="5.6400632858276367e-01" nType="-99"/>
          <Node pos="r" depth="2" NCoef="0" IVar="-1" Cut="0.0000000000000000e+00" cType="1" res="-1.4338096370920539e-03" rms="4.5527079701423645e-01" purity="3.9226213097572327e-01" nType="-99"/>
        </Node>
      </Node>
    </BinaryTree>
    <BinaryTree type="DecisionTree" boostWeight="1.0000000000000000e+00" itree="1268">
      <Node pos="s" depth="0" NCoef="0" IVar="3" Cut="1.4777237176895142e-01" cType="1" res="2.6124380528926849e-03" rms="4.5108655095100403e-01" purity="5.0194215774536133e-01" nType="0">
        <Node pos="l" depth="1" NCoef="0" IVar="5" Cut="3.0787459108978510e-03" cType="1" res="-1.3634993229061365e-03" rms="4.4868221879005432e-01" purity="4.8602226376533508e-01" nType="0">
          <Node pos="l" depth="2" NCoef="0" IVar="-1" Cut="0.0000000000000000e+00" cType="1" res="1.1478954547783360e-04" rms="4.4905194640159607e-01" purity="5.0592386722564697e-01" nType="-99"/>
          <Node pos="r" depth="2" NCoef="0" IVar="-1" Cut="0.0000000000000000e+00" cType="1" res="-1.5218744520097971e-03" rms="4.4587570428848267e-01" purity="3.5940337181091309e-01" nType="-99"/>
        </Node>
        <Node pos="r" depth="1" NCoef="0" IVar="3" Cut="1.9298313558101654e-01" cType="1" res="1.7891732975840569e-02" rms="4.5988962054252625e-01" purity="5.6312137842178345e-01" nType="0">
          <Node pos="l" depth="2" NCoef="0" IVar="-1" Cut="0.0000000000000000e+00" cType="1" res="2.7920412831008434e-03" rms="4.5752596855163574e-01" purity="5.5880367755889893e-01" nType="-99"/>
          <Node pos="r" depth="2" NCoef="0" IVar="-1" Cut="0.0000000000000000e+00" cType="1" res="1.9568008428905159e-04" rms="4.6072077751159668e-01" purity="5.6580805778503418e-01" nType="-99"/>
        </Node>
      </Node>
    </BinaryTree>
    <BinaryTree type="DecisionTree" boostWeight="1.0000000000000000e+00" itree="1269">
      <Node pos="s" depth="0" NCoef="0" IVar="6" Cut="8.4510445594787598e-01" cType="1" res="1.9084975356236100e-03" rms="4.5033800601959229e-01" purity="4.9944466352462769e-01" nType="0">
        <Node pos="l" depth="1" NCoef="0" IVar="4" Cut="4.9935638904571533e-01" cType="1" res="-1.6644196584820747e-02" rms="4.5135828852653503e-01" purity="5.5020821094512939e-01" nType="0">
          <Node pos="l" depth="2" NCoef="0" IVar="-1" Cut="0.0000000000000000e+00" cType="1" res="-3.7904817145317793e-04" rms="4.5450887084007263e-01" purity="5.5053502321243286e-01" nType="-99"/>
          <Node pos="r" depth="2" NCoef="0" IVar="-1" Cut="0.0000000000000000e+00" cType="1" res="-3.3669811673462391e-03" rms="4.4173699617385864e-01" purity="5.4935896396636963e-01" nType="-99"/>
        </Node>
        <Node pos="r" depth="1" NCoef="0" IVar="1" Cut="8.9082717895507812e-01" cType="1" res="7.5147007592022419e-03" rms="4.4987875223159790e-01" purity="4.8410508036613464e-01" nType="0">
          <Node pos="l" depth="2" NCoef="0" IVar="-1" Cut="0.0000000000000000e+00" cType="1" res="1.7328545218333602e-03" rms="4.4930049777030945e-01" purity="3.8409700989723206e-01" nType="-99"/>
          <Node pos="r" depth="2" NCoef="0" IVar="-1" Cut="0.0000000000000000e+00" cType="1" res="-2.6378038455732167e-04" rms="4.4997739791870117e-01" purity="5.5790549516677856e-01" nType="-99"/>
        </Node>
      </Node>
    </BinaryTree>
    <BinaryTree type="DecisionTree" boostWeight="1.0000000000000000e+00" itree="1270">
      <Node pos="s" depth="0" NCoef="0" IVar="3" Cut="-8.8227435946464539e-02" cType="1" res="5.3017534082755446e-04" rms="4.4964560866355896e-01" purity="4.9969130754470825e-01" nType="0">
        <Node pos="l" depth="1" NCoef="0" IVar="5" Cut="1.7949050525203347e-03" cType="1" res="-1.7015589401125908e-02" rms="4.4187071919441223e-01" purity="4.3777605891227722e-01" nType="0">
          <Node pos="l" depth="2" NCoef="0" IVar="-1" Cut="0.0000000000000000e+00" cType="1" res="-3.3816235372796655e-04" rms="4.4968029856681824e-01" purity="5.0519746541976929e-01" nType="-99"/>
          <Node pos="r" depth="2" NCoef="0" IVar="-1" Cut="0.0000000000000000e+00" cType="1" res="-3.1525881495326757e-03" rms="4.2755499482154846e-01" purity="3.2413974404335022e-01" nType="-99"/>
        </Node>
        <Node pos="r" depth="1" NCoef="0" IVar="4" Cut="5.7072687149047852e-01" cType="1" res="4.8435605131089687e-03" rms="4.5143204927444458e-01" purity="5.1491230726242065e-01" nType="0">
          <Node pos="l" depth="2" NCoef="0" IVar="-1" Cut="0.0000000000000000e+00" cType="1" res="6.3538108952343464e-04" rms="4.5376494526863098e-01" purity="5.1117044687271118e-01" nType="-99"/>
          <Node pos="r" depth="2" NCoef="0" IVar="-1" Cut="0.0000000000000000e+00" cType="1" res="-7.6726463157683611e-04" rms="4.4235697388648987e-01" purity="5.2875584363937378e-01" nType="-99"/>
        </Node>
      </Node>
    </BinaryTree>
    <BinaryTree type="DecisionTree" boostWeight="1.0000000000000000e+00" itree="1271">
      <Node pos="s" depth="0" NCoef="0" IVar="0" Cut="3.5350461006164551e+00" cType="1" res="5.8359885588288307e-04" rms="4.4774457812309265e-01" purity="5.0170093774795532e-01" nType="0">
        <Node pos="l" depth="1" NCoef="0" IVar="0" Cut="3.4272563457489014e-01" cType="1" res="-3.4450050443410873e-03" rms="4.5433387160301208e-01" purity="4.5460313558578491e-01" nType="0">
          <Node pos="l" depth="2" NCoef="0" IVar="-1" Cut="0.0000000000000000e+00" cType="1" res="1.4302611816674471e-03" rms="4.3654000759124756e-01" purity="3.3064088225364685e-01" nType="-99"/>
          <Node pos="r" depth="2" NCoef="0" IVar="-1" Cut="0.0000000000000000e+00" cType="1" res="-5.8159069158136845e-04" rms="4.5854857563972473e-01" purity="4.8562636971473694e-01" nType="-99"/>
        </Node>
        <Node pos="r" depth="1" NCoef="0" IVar="1" Cut="9.4475120306015015e-01" cType="1" res="2.1951692178845406e-02" rms="4.1037142276763916e-01" purity="7.5151193141937256e-01" nType="0">
          <Node pos="l" depth="2" NCoef="0" IVar="-1" Cut="0.0000000000000000e+00" cType="1" res="2.7197129093110561e-03" rms="4.3290600180625916e-01" purity="7.0537990331649780e-01" nType="-99"/>
          <Node pos="r" depth="2" NCoef="0" IVar="-1" Cut="0.0000000000000000e+00" cType="1" res="-3.6150179221294820e-04" rms="3.7965574860572815e-01" purity="8.0737978219985962e-01" nType="-99"/>
        </Node>
      </Node>
    </BinaryTree>
    <BinaryTree type="DecisionTree" boostWeight="1.0000000000000000e+00" itree="1272">
      <Node pos="s" depth="0" NCoef="0" IVar="1" Cut="8.5612124204635620e-01" cType="1" res="-2.9581265989691019e-03" rms="4.4726458191871643e-01" purity="4.9639824032783508e-01" nType="0">
        <Node pos="l" depth="1" NCoef="0" IVar="-1" Cut="0.0000000000000000e+00" cType="1" res="-2.7956361882388592e-03" rms="4.4218108057975769e-01" purity="3.2432922720909119e-01" nType="-99"/>
        <Node pos="r" depth="1" NCoef="0" IVar="4" Cut="1.2982684373855591e-01" cType="1" res="-3.8868931005708873e-04" rms="4.4758147001266479e-01" purity="5.1050531864166260e-01" nType="0">
          <Node pos="l" depth="2" NCoef="0" IVar="-1" Cut="0.0000000000000000e+00" cType="1" res="-1.6909703845158219e-03" rms="4.4021117687225342e-01" purity="4.1804295778274536e-01" nType="-99"/>
          <Node pos="r" depth="2" NCoef="0" IVar="-1" Cut="0.0000000000000000e+00" cType="1" res="7.7410055382642895e-05" rms="4.4802978634834290e-01" purity="5.1666224002838135e-01" nType="-99"/>
        </Node>
      </Node>
    </BinaryTree>
    <BinaryTree type="DecisionTree" boostWeight="1.0000000000000000e+00" itree="1273">
      <Node pos="s" depth="0" NCoef="0" IVar="7" Cut="8.8897842168807983e-01" cType="1" res="1.1656791903078556e-03" rms="4.4830623269081116e-01" purity="5.0106489658355713e-01" nType="0">
        <Node pos="l" depth="1" NCoef="0" IVar="3" Cut="1.7057558894157410e-01" cType="1" res="3.1716488301753998e-03" rms="4.4978559017181396e-01" purity="4.9652174115180969e-01" nType="0">
          <Node pos="l" depth="2" NCoef="0" IVar="-1" Cut="0.0000000000000000e+00" cType="1" res="4.8005318967625499e-04" rms="4.4781568646430969e-01" purity="4.8844051361083984e-01" nType="-99"/>
          <Node pos="r" depth="2" NCoef="0" IVar="-1" Cut="0.0000000000000000e+00" cType="1" res="-9.0282195014879107e-04" rms="4.5903959870338440e-01" purity="5.3645479679107666e-01" nType="-99"/>
        </Node>
        <Node pos="r" depth="1" NCoef="0" IVar="-1" Cut="0.0000000000000000e+00" cType="1" res="-1.9434206187725067e-03" rms="4.2662754654884338e-01" purity="5.6316596269607544e-01" nType="-99"/>
      </Node>
    </BinaryTree>
    <BinaryTree type="DecisionTree" boostWeight="1.0000000000000000e+00" itree="1274">
      <Node pos="s" depth="0" NCoef="0" IVar="3" Cut="-2.0703127607703209e-02" cType="1" res="2.5629135780036449e-03" rms="4.4785681366920471e-01" purity="5.0525599718093872e-01" nType="0">
        <Node pos="l" depth="1" NCoef="0" IVar="7" Cut="7.4043703079223633e-01" cType="1" res="-1.0576882399618626e-02" rms="4.4379544258117676e-01" purity="4.6577486395835876e-01" nType="0">
          <Node pos="l" depth="2" NCoef="0" IVar="-1" Cut="0.0000000000000000e+00" cType="1" res="4.9546593800187111e-04" rms="4.4695538282394409e-01" purity="3.9153566956520081e-01" nType="-99"/>
          <Node pos="r" depth="2" NCoef="0" IVar="-1" Cut="0.0000000000000000e+00" cType="1" res="-1.9686287268996239e-03" rms="4.4007775187492371e-01" purity="5.3816264867782593e-01" nType="-99"/>
        </Node>
        <Node pos="r" depth="1" NCoef="0" IVar="4" Cut="4.3495050072669983e-01" cType="1" res="1.1596511118113995e-02" rms="4.5040547847747803e-01" purity="5.3239929676055908e-01" nType="0">
          <Node pos="l" depth="2" NCoef="0" IVar="-1" Cut="0.0000000000000000e+00" cType="1" res="7.7263888670131564e-05" rms="4.5250231027603149e-01" purity="5.0572913885116577e-01" nType="-99"/>
          <Node pos="r" depth="2" NCoef="0" IVar="-1" Cut="0.0000000000000000e+00" cType="1" res="1.8596198642626405e-03" rms="4.4696414470672607e-01" purity="5.7051169872283936e-01" nType="-99"/>
        </Node>
      </Node>
    </BinaryTree>
    <BinaryTree type="DecisionTree" boostWeight="1.0000000000000000e+00" itree="1275">
      <Node pos="s" depth="0" NCoef="0" IVar="5" Cut="9.0330775128677487e-04" cType="1" res="-8.5607888177037239e-03" rms="4.5100936293601990e-01" purity="4.8886945843696594e-01" nType="0">
        <Node pos="l" depth="1" NCoef="0" IVar="2" Cut="2.7611059570312500e+02" cType="1" res="2.9283177573233843e-03" rms="4.4022250175476074e-01" purity="6.0713714361190796e-01" nType="0">
          <Node pos="l" depth="2" NCoef="0" IVar="-1" Cut="0.0000000000000000e+00" cType="1" res="1.7916748765856028e-03" rms="4.5461672544479370e-01" purity="4.9814778566360474e-01" nType="-99"/>
          <Node pos="r" depth="2" NCoef="0" IVar="-1" Cut="0.0000000000000000e+00" cType="1" res="-6.6537846578285098e-04" rms="4.3157595396041870e-01" purity="6.6753560304641724e-01" nType="-99"/>
        </Node>
        <Node pos="r" depth="1" NCoef="0" IVar="6" Cut="6.9916403293609619e-01" cType="1" res="-1.6563246026635170e-02" rms="4.5820254087448120e-01" purity="4.0649294853210449e-01" nType="0">
          <Node pos="l" depth="2" NCoef="0" IVar="-1" Cut="0.0000000000000000e+00" cType="1" res="1.1362317018210888e-03" rms="4.6884226799011230e-01" purity="5.2187144756317139e-01" nType="-99"/>
          <Node pos="r" depth="2" NCoef="0" IVar="-1" Cut="0.0000000000000000e+00" cType="1" res="-1.6211832407861948e-03" rms="4.5637229084968567e-01" purity="3.8927301764488220e-01" nType="-99"/>
        </Node>
      </Node>
    </BinaryTree>
    <BinaryTree type="DecisionTree" boostWeight="1.0000000000000000e+00" itree="1276">
      <Node pos="s" depth="0" NCoef="0" IVar="6" Cut="9.9798971414566040e-01" cType="1" res="3.9790803566575050e-03" rms="4.5009604096412659e-01" purity="5.0531983375549316e-01" nType="0">
        <Node pos="l" depth="1" NCoef="0" IVar="7" Cut="7.7327382564544678e-01" cType="1" res="1.7349373549222946e-02" rms="4.5312321186065674e-01" purity="5.7470375299453735e-01" nType="0">
          <Node pos="l" depth="2" NCoef="0" IVar="-1" Cut="0.0000000000000000e+00" cType="1" res="1.7634782707318664e-03" rms="4.5616254210472107e-01" purity="5.6050449609756470e-01" nType="-99"/>
          <Node pos="r" depth="2" NCoef="0" IVar="-1" Cut="0.0000000000000000e+00" cType="1" res="-2.6062462711706758e-04" rms="4.4485792517662048e-01" purity="6.0963463783264160e-01" nType="-99"/>
        </Node>
        <Node pos="r" depth="1" NCoef="0" IVar="0" Cut="3.9160571098327637e+00" cType="1" res="-3.5999680403620005e-03" rms="4.4819387793540955e-01" purity="4.6598905324935913e-01" nType="0">
          <Node pos="l" depth="2" NCoef="0" IVar="-1" Cut="0.0000000000000000e+00" cType="1" res="2.5552384613547474e-05" rms="4.4973883032798767e-01" purity="4.3912860751152039e-01" nType="-99"/>
          <Node pos="r" depth="2" NCoef="0" IVar="-1" Cut="0.0000000000000000e+00" cType="1" res="-2.7375486679375172e-03" rms="4.3352118134498596e-01" purity="6.9253486394882202e-01" nType="-99"/>
        </Node>
      </Node>
    </BinaryTree>
    <BinaryTree type="DecisionTree" boostWeight="1.0000000000000000e+00" itree="1277">
      <Node pos="s" depth="0" NCoef="0" IVar="3" Cut="-8.3321735262870789e-02" cType="1" res="-3.6899014376103878e-03" rms="4.4894656538963318e-01" purity="4.9659115076065063e-01" nType="0">
        <Node pos="l" depth="1" NCoef="0" IVar="2" Cut="3.8637518310546875e+02" cType="1" res="1.0615801438689232e-02" rms="4.4008898735046387e-01" purity="4.6902275085449219e-01" nType="0">
          <Node pos="l" depth="2" NCoef="0" IVar="-1" Cut="0.0000000000000000e+00" cType="1" res="-1.7626502085477114e-04" rms="4.3688139319419861e-01" purity="3.8261619210243225e-01" nType="-99"/>
          <Node pos="r" depth="2" NCoef="0" IVar="-1" Cut="0.0000000000000000e+00" cType="1" res="2.4299658834934235e-03" rms="4.4543957710266113e-01" purity="6.4563560485839844e-01" nType="-99"/>
        </Node>
        <Node pos="r" depth="1" NCoef="0" IVar="1" Cut="8.5610365867614746e-01" cType="1" res="-7.6247695833444595e-03" rms="4.5127290487289429e-01" purity="5.0417393445968628e-01" nType="0">
          <Node pos="l" depth="2" NCoef="0" IVar="-1" Cut="0.0000000000000000e+00" cType="1" res="-3.1278240494430065e-03" rms="4.4084855914115906e-01" purity="3.2319673895835876e-01" nType="-99"/>
          <Node pos="r" depth="2" NCoef="0" IVar="-1" Cut="0.0000000000000000e+00" cType="1" res="-3.5399294574744999e-04" rms="4.5203912258148193e-01" purity="5.1942956447601318e-01" nType="-99"/>
        </Node>
      </Node>
    </BinaryTree>
    <BinaryTree type="DecisionTree" boostWeight="1.0000000000000000e+00" itree="1278">
      <Node pos="s" depth="0" NCoef="0" IVar="2" Cut="5.8345550537109375e+02" cType="1" res="7.3508039349690080e-04" rms="4.4882974028587341e-01" purity="5.0086337327957153e-01" nType="0">
        <Node pos="l" depth="1" NCoef="0" IVar="4" Cut="5.4680550098419189e-01" cType="1" res="-1.6401449684053659e-03" rms="4.5008611679077148e-01" purity="4.8537278175354004e-01" nType="0">
          <Node pos="l" depth="2" NCoef="0" IVar="-1" Cut="0.0000000000000000e+00" cType="1" res="2.3654589313082397e-04" rms="4.5183083415031433e-01" purity="4.7757062315940857e-01" nType="-99"/>
          <Node pos="r" depth="2" NCoef="0" IVar="-1" Cut="0.0000000000000000e+00" cType="1" res="-1.2305791024118662e-03" rms="4.4428858160972595e-01" purity="5.0957816839218140e-01" nType="-99"/>
        </Node>
        <Node pos="r" depth="1" NCoef="0" IVar="-1" Cut="0.0000000000000000e+00" cType="1" res="2.5319044943898916e-03" rms="4.2743828892707825e-01" purity="7.3855924606323242e-01" nType="-99"/>
      </Node>
    </BinaryTree>
    <BinaryTree type="DecisionTree" boostWeight="1.0000000000000000e+00" itree="1279">
      <Node pos="s" depth="0" NCoef="0" IVar="6" Cut="1.6935033798217773e+00" cType="1" res="3.7606263067573309e-03" rms="4.5129930973052979e-01" purity="5.0405442714691162e-01" nType="0">
        <Node pos="l" depth="1" NCoef="0" IVar="6" Cut="6.6609078645706177e-01" cType="1" res="-4.5266348752193153e-04" rms="4.5353680849075317e-01" purity="5.1469051837921143e-01" nType="0">
          <Node pos="l" depth="2" NCoef="0" IVar="-1" Cut="0.0000000000000000e+00" cType="1" res="-1.5313589246943593e-03" rms="4.5380532741546631e-01" purity="5.7013750076293945e-01" nType="-99"/>
          <Node pos="r" depth="2" NCoef="0" IVar="-1" Cut="0.0000000000000000e+00" cType="1" res="1.8320203525945544e-04" rms="4.5341843366622925e-01" purity="5.0689804553985596e-01" nType="-99"/>
        </Node>
        <Node pos="r" depth="1" NCoef="0" IVar="5" Cut="1.1539219412952662e-03" cType="1" res="2.7466297149658203e-02" rms="4.3774208426475525e-01" purity="4.4421163201332092e-01" nType="0">
          <Node pos="l" depth="2" NCoef="0" IVar="-1" Cut="0.0000000000000000e+00" cType="1" res="3.6744661629199982e-03" rms="4.3887835741043091e-01" purity="5.5955910682678223e-01" nType="-99"/>
          <Node pos="r" depth="2" NCoef="0" IVar="-1" Cut="0.0000000000000000e+00" cType="1" res="6.4398045651614666e-04" rms="4.3580177426338196e-01" purity="3.4644553065299988e-01" nType="-99"/>
        </Node>
      </Node>
    </BinaryTree>
    <BinaryTree type="DecisionTree" boostWeight="1.0000000000000000e+00" itree="1280">
      <Node pos="s" depth="0" NCoef="0" IVar="0" Cut="2.6375228166580200e-01" cType="1" res="-1.8786867149174213e-03" rms="4.4732752442359924e-01" purity="4.9848237633705139e-01" nType="0">
        <Node pos="l" depth="1" NCoef="0" IVar="6" Cut="1.1416754722595215e+00" cType="1" res="-2.2347930818796158e-02" rms="4.2726311087608337e-01" purity="2.8088429570198059e-01" nType="0">
          <Node pos="l" depth="2" NCoef="0" IVar="-1" Cut="0.0000000000000000e+00" cType="1" res="-3.5642131697386503e-03" rms="4.4512325525283813e-01" purity="3.0357101559638977e-01" nType="-99"/>
          <Node pos="r" depth="2" NCoef="0" IVar="-1" Cut="0.0000000000000000e+00" cType="1" res="-7.1983650559559464e-04" rms="4.1135787963867188e-01" purity="2.6220813393592834e-01" nType="-99"/>
        </Node>
        <Node pos="r" depth="1" NCoef="0" IVar="5" Cut="3.0502951703965664e-03" cType="1" res="1.5207005199044943e-03" rms="4.5048311352729797e-01" purity="5.3461956977844238e-01" nType="0">
          <Node pos="l" depth="2" NCoef="0" IVar="-1" Cut="0.0000000000000000e+00" cType="1" res="-8.5674837464466691e-05" rms="4.4868335127830505e-01" purity="5.4508435726165771e-01" nType="-99"/>
          <Node pos="r" depth="2" NCoef="0" IVar="-1" Cut="0.0000000000000000e+00" cType="1" res="1.5146048972383142e-03" rms="4.6385377645492554e-01" purity="4.5219039916992188e-01" nType="-99"/>
        </Node>
      </Node>
    </BinaryTree>
    <BinaryTree type="DecisionTree" boostWeight="1.0000000000000000e+00" itree="1281">
      <Node pos="s" depth="0" NCoef="0" IVar="7" Cut="3.9829161763191223e-01" cType="1" res="-4.8627830110490322e-03" rms="4.4717800617218018e-01" purity="4.9739772081375122e-01" nType="0">
        <Node pos="l" depth="1" NCoef="0" IVar="-1" Cut="0.0000000000000000e+00" cType="1" res="-2.4429659824818373e-03" rms="4.4011074304580688e-01" purity="4.2426747083663940e-01" nType="-99"/>
        <Node pos="r" depth="1" NCoef="0" IVar="4" Cut="2.7190437912940979e-01" cType="1" res="-2.1245197858661413e-03" rms="4.4779515266418457e-01" purity="5.0479114055633545e-01" nType="0">
          <Node pos="l" depth="2" NCoef="0" IVar="-1" Cut="0.0000000000000000e+00" cType="1" res="1.3083608355373144e-03" rms="4.4843000173568726e-01" purity="4.9324426054954529e-01" nType="-99"/>
          <Node pos="r" depth="2" NCoef="0" IVar="-1" Cut="0.0000000000000000e+00" cType="1" res="-5.9323792811483145e-04" rms="4.4743007421493530e-01" purity="5.0820124149322510e-01" nType="-99"/>
        </Node>
      </Node>
    </BinaryTree>
    <BinaryTree type="DecisionTree" boostWeight="1.0000000000000000e+00" itree="1282">
      <Node pos="s" depth="0" NCoef="0" IVar="6" Cut="1.7365440130233765e+00" cType="1" res="-5.1712844287976623e-04" rms="4.4915634393692017e-01" purity="4.9883654713630676e-01" nType="0">
        <Node pos="l" depth="1" NCoef="0" IVar="6" Cut="1.1543121337890625e+00" cType="1" res="1.9303245935589075e-03" rms="4.5241695642471313e-01" purity="5.1302218437194824e-01" nType="0">
          <Node pos="l" depth="2" NCoef="0" IVar="-1" Cut="0.0000000000000000e+00" cType="1" res="5.6576583301648498e-04" rms="4.5553892850875854e-01" purity="5.5225753784179688e-01" nType="-99"/>
          <Node pos="r" depth="2" NCoef="0" IVar="-1" Cut="0.0000000000000000e+00" cType="1" res="-4.8079845146276057e-04" rms="4.4807082414627075e-01" purity="4.6053293347358704e-01" nType="-99"/>
        </Node>
        <Node pos="r" depth="1" NCoef="0" IVar="2" Cut="2.6479794311523438e+02" cType="1" res="-1.6908356919884682e-02" rms="4.2631554603576660e-01" purity="4.0383195877075195e-01" nType="0">
          <Node pos="l" depth="2" NCoef="0" IVar="-1" Cut="0.0000000000000000e+00" cType="1" res="-3.5387834068387747e-03" rms="4.0476578474044800e-01" purity="2.6686310768127441e-01" nType="-99"/>
          <Node pos="r" depth="2" NCoef="0" IVar="-1" Cut="0.0000000000000000e+00" cType="1" res="3.2825037487782538e-04" rms="4.4760406017303467e-01" purity="5.5297505855560303e-01" nType="-99"/>
        </Node>
      </Node>
    </BinaryTree>
    <BinaryTree type="DecisionTree" boostWeight="1.0000000000000000e+00" itree="1283">
      <Node pos="s" depth="0" NCoef="0" IVar="6" Cut="1.0093106031417847e+00" cType="1" res="5.3345286287367344e-03" rms="4.5213332772254944e-01" purity="5.0461542606353760e-01" nType="0">
        <Node pos="l" depth="1" NCoef="0" IVar="2" Cut="3.4827755737304688e+02" cType="1" res="-5.9136603958904743e-03" rms="4.5480611920356750e-01" purity="5.5412584543228149e-01" nType="0">
          <Node pos="l" depth="2" NCoef="0" IVar="-1" Cut="0.0000000000000000e+00" cType="1" res="6.0984352603554726e-04" rms="4.5702135562896729e-01" purity="4.9122086167335510e-01" nType="-99"/>
          <Node pos="r" depth="2" NCoef="0" IVar="-1" Cut="0.0000000000000000e+00" cType="1" res="-1.4618530403822660e-03" rms="4.5195046067237854e-01" purity="6.2051492929458618e-01" nType="-99"/>
        </Node>
        <Node pos="r" depth="1" NCoef="0" IVar="4" Cut="3.2011583447456360e-01" cType="1" res="1.1889357119798660e-02" rms="4.5043897628784180e-01" purity="4.7576344013214111e-01" nType="0">
          <Node pos="l" depth="2" NCoef="0" IVar="-1" Cut="0.0000000000000000e+00" cType="1" res="1.9171204185113311e-03" rms="4.5197254419326782e-01" purity="4.5255473256111145e-01" nType="-99"/>
          <Node pos="r" depth="2" NCoef="0" IVar="-1" Cut="0.0000000000000000e+00" cType="1" res="2.9985379660502076e-04" rms="4.4938194751739502e-01" purity="4.8888698220252991e-01" nType="-99"/>
        </Node>
      </Node>
    </BinaryTree>
    <BinaryTree type="DecisionTree" boostWeight="1.0000000000000000e+00" itree="1284">
      <Node pos="s" depth="0" NCoef="0" IVar="4" Cut="5.0374549627304077e-01" cType="1" res="4.7022816725075245e-03" rms="4.4985294342041016e-01" purity="5.0626003742218018e-01" nType="0">
        <Node pos="l" depth="1" NCoef="0" IVar="2" Cut="3.8094287109375000e+02" cType="1" res="5.2066543139517307e-04" rms="4.5012667775154114e-01" purity="4.9150589108467102e-01" nType="0">
          <Node pos="l" depth="2" NCoef="0" IVar="-1" Cut="0.0000000000000000e+00" cType="1" res="-4.4606305891647935e-04" rms="4.5044055581092834e-01" purity="4.2152047157287598e-01" nType="-99"/>
          <Node pos="r" depth="2" NCoef="0" IVar="-1" Cut="0.0000000000000000e+00" cType="1" res="9.3051459407433867e-04" rms="4.4916149973869324e-01" purity="6.3945943117141724e-01" nType="-99"/>
        </Node>
        <Node pos="r" depth="1" NCoef="0" IVar="6" Cut="8.6670780181884766e-01" cType="1" res="1.4512039721012115e-02" rms="4.4905728101730347e-01" purity="5.4087233543395996e-01" nType="0">
          <Node pos="l" depth="2" NCoef="0" IVar="-1" Cut="0.0000000000000000e+00" cType="1" res="-1.5560647007077932e-03" rms="4.3817442655563354e-01" purity="5.6607073545455933e-01" nType="-99"/>
          <Node pos="r" depth="2" NCoef="0" IVar="-1" Cut="0.0000000000000000e+00" cType="1" res="1.7852961318567395e-03" rms="4.5159885287284851e-01" purity="5.3364890813827515e-01" nType="-99"/>
        </Node>
      </Node>
    </BinaryTree>
    <BinaryTree type="DecisionTree" boostWeight="1.0000000000000000e+00" itree="1285">
      <Node pos="s" depth="0" NCoef="0" IVar="0" Cut="2.2389721870422363e+00" cType="1" res="6.6033736802637577e-03" rms="4.5251828432083130e-01" purity="5.0654369592666626e-01" nType="0">
        <Node pos="l" depth="1" NCoef="0" IVar="7" Cut="5.5618679523468018e-01" cType="1" res="1.4856335707008839e-02" rms="4.5981082320213318e-01" purity="4.2565613985061646e-01" nType="0">
          <Node pos="l" depth="2" NCoef="0" IVar="-1" Cut="0.0000000000000000e+00" cType="1" res="2.2923538926988840e-03" rms="4.6011590957641602e-01" purity="3.9226141571998596e-01" nType="-99"/>
          <Node pos="r" depth="2" NCoef="0" IVar="-1" Cut="0.0000000000000000e+00" cType="1" res="5.9839326422661543e-04" rms="4.5951703190803528e-01" purity="4.4144740700721741e-01" nType="-99"/>
        </Node>
        <Node pos="r" depth="1" NCoef="0" IVar="7" Cut="5.7499521970748901e-01" cType="1" res="-8.2116667181253433e-03" rms="4.3873429298400879e-01" purity="6.5174657106399536e-01" nType="0">
          <Node pos="l" depth="2" NCoef="0" IVar="-1" Cut="0.0000000000000000e+00" cType="1" res="-1.7584371380507946e-03" rms="4.5142754912376404e-01" purity="5.7156419754028320e-01" nType="-99"/>
          <Node pos="r" depth="2" NCoef="0" IVar="-1" Cut="0.0000000000000000e+00" cType="1" res="1.9935498130507767e-04" rms="4.3043568730354309e-01" purity="7.0062130689620972e-01" nType="-99"/>
        </Node>
      </Node>
    </BinaryTree>
    <BinaryTree type="DecisionTree" boostWeight="1.0000000000000000e+00" itree="1286">
      <Node pos="s" depth="0" NCoef="0" IVar="6" Cut="6.2464356422424316e-01" cType="1" res="-1.8037791596725583e-03" rms="4.4857758283615112e-01" purity="5.0021344423294067e-01" nType="0">
        <Node pos="l" depth="1" NCoef="0" IVar="-1" Cut="0.0000000000000000e+00" cType="1" res="1.5270906733348966e-03" rms="4.3976390361785889e-01" purity="6.1746710538864136e-01" nType="-99"/>
        <Node pos="r" depth="1" NCoef="0" IVar="4" Cut="2.1790377795696259e-01" cType="1" res="-3.8747626822441816e-03" rms="4.4926643371582031e-01" purity="4.9013927578926086e-01" nType="0">
          <Node pos="l" depth="2" NCoef="0" IVar="-1" Cut="0.0000000000000000e+00" cType="1" res="-1.6399875748902559e-03" rms="4.4519472122192383e-01" purity="4.3004342913627625e-01" nType="-99"/>
          <Node pos="r" depth="2" NCoef="0" IVar="-1" Cut="0.0000000000000000e+00" cType="1" res="2.5599090804462321e-05" rms="4.5011374354362488e-01" purity="5.0426352024078369e-01" nType="-99"/>
        </Node>
      </Node>
    </BinaryTree>
    <BinaryTree type="DecisionTree" boostWeight="1.0000000000000000e+00" itree="1287">
      <Node pos="s" depth="0" NCoef="0" IVar="4" Cut="5.1133400201797485e-01" cType="1" res="-9.6305011538788676e-04" rms="4.4906058907508850e-01" purity="4.9884411692619324e-01" nType="0">
        <Node pos="l" depth="1" NCoef="0" IVar="5" Cut="3.3390296157449484e-03" cType="1" res="-5.2455351687967777e-03" rms="4.5020475983619690e-01" purity="4.8247724771499634e-01" nType="0">
          <Node pos="l" depth="2" NCoef="0" IVar="-1" Cut="0.0000000000000000e+00" cType="1" res="-6.3772965222597122e-04" rms="4.4777676463127136e-01" purity="4.8980921506881714e-01" nType="-99"/>
          <Node pos="r" depth="2" NCoef="0" IVar="-1" Cut="0.0000000000000000e+00" cType="1" res="1.8875318346545100e-03" rms="4.7076132893562317e-01" purity="4.1503313183784485e-01" nType="-99"/>
        </Node>
        <Node pos="r" depth="1" NCoef="0" IVar="6" Cut="9.2500042915344238e-01" cType="1" res="9.2795630916953087e-03" rms="4.4614550471305847e-01" purity="5.3798949718475342e-01" nType="0">
          <Node pos="l" depth="2" NCoef="0" IVar="-1" Cut="0.0000000000000000e+00" cType="1" res="-1.3507296098396182e-03" rms="4.4590750336647034e-01" purity="5.6361711025238037e-01" nType="-99"/>
          <Node pos="r" depth="2" NCoef="0" IVar="-1" Cut="0.0000000000000000e+00" cType="1" res="1.3782232999801636e-03" rms="4.4580313563346863e-01" purity="5.2898603677749634e-01" nType="-99"/>
        </Node>
      </Node>
    </BinaryTree>
    <BinaryTree type="DecisionTree" boostWeight="1.0000000000000000e+00" itree="1288">
      <Node pos="s" depth="0" NCoef="0" IVar="5" Cut="3.7242998369038105e-03" cType="1" res="-2.1881209686398506e-03" rms="4.4884487986564636e-01" purity="4.9530708789825439e-01" nType="0">
        <Node pos="l" depth="1" NCoef="0" IVar="0" Cut="1.3367314338684082e+00" cType="1" res="-4.3006348423659801e-03" rms="4.4746828079223633e-01" purity="4.9874430894851685e-01" nType="0">
          <Node pos="l" depth="2" NCoef="0" IVar="-1" Cut="0.0000000000000000e+00" cType="1" res="3.4389720531180501e-04" rms="4.4956976175308228e-01" purity="3.7377718091011047e-01" nType="-99"/>
          <Node pos="r" depth="2" NCoef="0" IVar="-1" Cut="0.0000000000000000e+00" cType="1" res="-7.1488111279904842e-04" rms="4.4587233662605286e-01" purity="5.8735251426696777e-01" nType="-99"/>
        </Node>
        <Node pos="r" depth="1" NCoef="0" IVar="-1" Cut="0.0000000000000000e+00" cType="1" res="2.4657435715198517e-03" rms="4.7113671898841858e-01" purity="4.3399968743324280e-01" nType="-99"/>
      </Node>
    </BinaryTree>
    <BinaryTree type="DecisionTree" boostWeight="1.0000000000000000e+00" itree="1289">
      <Node pos="s" depth="0" NCoef="0" IVar="3" Cut="1.1312113702297211e-01" cType="1" res="-1.2574903666973114e-04" rms="4.4796770811080933e-01" purity="5.0025093555450439e-01" nType="0">
        <Node pos="l" depth="1" NCoef="0" IVar="0" Cut="9.2562794685363770e-01" cType="1" res="-4.5676818117499352e-03" rms="4.4624635577201843e-01" purity="4.8235303163528442e-01" nType="0">
          <Node pos="l" depth="2" NCoef="0" IVar="-1" Cut="0.0000000000000000e+00" cType="1" res="-1.3642577687278390e-03" rms="4.3684965372085571e-01" purity="3.1880393624305725e-01" nType="-99"/>
          <Node pos="r" depth="2" NCoef="0" IVar="-1" Cut="0.0000000000000000e+00" cType="1" res="3.4163476811954752e-05" rms="4.5040205121040344e-01" purity="5.5739510059356689e-01" nType="-99"/>
        </Node>
        <Node pos="r" depth="1" NCoef="0" IVar="6" Cut="1.0260450839996338e+00" cType="1" res="1.2168910354375839e-02" rms="4.5247069001197815e-01" purity="5.4979002475738525e-01" nType="0">
          <Node pos="l" depth="2" NCoef="0" IVar="-1" Cut="0.0000000000000000e+00" cType="1" res="2.7410350739955902e-03" rms="4.4974347949028015e-01" purity="6.2722396850585938e-01" nType="-99"/>
          <Node pos="r" depth="2" NCoef="0" IVar="-1" Cut="0.0000000000000000e+00" cType="1" res="-4.3907747021876276e-04" rms="4.5314517617225647e-01" purity="5.0249534845352173e-01" nType="-99"/>
        </Node>
      </Node>
    </BinaryTree>
    <BinaryTree type="DecisionTree" boostWeight="1.0000000000000000e+00" itree="1290">
      <Node pos="s" depth="0" NCoef="0" IVar="0" Cut="2.0020015537738800e-01" cType="1" res="1.3861898332834244e-03" rms="4.4777759909629822e-01" purity="5.0117367506027222e-01" nType="0">
        <Node pos="l" depth="1" NCoef="0" IVar="5" Cut="2.6956852525472641e-03" cType="1" res="-3.3501908183097839e-02" rms="4.1728639602661133e-01" purity="2.6906615495681763e-01" nType="0">
          <Node pos="l" depth="2" NCoef="0" IVar="-1" Cut="0.0000000000000000e+00" cType="1" res="-5.0201090052723885e-03" rms="4.0771260857582092e-01" purity="2.4921137094497681e-01" nType="-99"/>
          <Node pos="r" depth="2" NCoef="0" IVar="-1" Cut="0.0000000000000000e+00" cType="1" res="-7.8885583207011223e-04" rms="4.3033427000045776e-01" purity="2.9938971996307373e-01" nType="-99"/>
        </Node>
        <Node pos="r" depth="1" NCoef="0" IVar="7" Cut="5.1988703012466431e-01" cType="1" res="6.9061391986906528e-03" rms="4.5216703414916992e-01" purity="5.3789740800857544e-01" nType="0">
          <Node pos="l" depth="2" NCoef="0" IVar="-1" Cut="0.0000000000000000e+00" cType="1" res="-5.8419490233063698e-04" rms="4.4754740595817566e-01" purity="4.6775352954864502e-01" nType="-99"/>
          <Node pos="r" depth="2" NCoef="0" IVar="-1" Cut="0.0000000000000000e+00" cType="1" res="8.5023546125739813e-04" rms="4.5371848344802856e-01" purity="5.6349456310272217e-01" nType="-99"/>
        </Node>
      </Node>
    </BinaryTree>
    <BinaryTree type="DecisionTree" boostWeight="1.0000000000000000e+00" itree="1291">
      <Node pos="s" depth="0" NCoef="0" IVar="6" Cut="1.5845576524734497e+00" cType="1" res="1.9061766797676682e-03" rms="4.4815951585769653e-01" purity="5.0171816349029541e-01" nType="0">
        <Node pos="l" depth="1" NCoef="0" IVar="2" Cut="2.7508828735351562e+02" cType="1" res="6.0812388546764851e-03" rms="4.5180490612983704e-01" purity="5.2667480707168579e-01" nType="0">
          <Node pos="l" depth="2" NCoef="0" IVar="-1" Cut="0.0000000000000000e+00" cType="1" res="1.5445641474798322e-03" rms="4.4778338074684143e-01" purity="4.0382769703865051e-01" nType="-99"/>
          <Node pos="r" depth="2" NCoef="0" IVar="-1" Cut="0.0000000000000000e+00" cType="1" res="-5.7726869272300974e-05" rms="4.5365861058235168e-01" purity="5.8853828907012939e-01" nType="-99"/>
        </Node>
        <Node pos="r" depth="1" NCoef="0" IVar="0" Cut="1.6759864091873169e+00" cType="1" res="-1.4760795980691910e-02" rms="4.3290051817893982e-01" purity="4.0209057927131653e-01" nType="0">
          <Node pos="l" depth="2" NCoef="0" IVar="-1" Cut="0.0000000000000000e+00" cType="1" res="3.3761229133233428e-04" rms="4.1764396429061890e-01" purity="3.1957778334617615e-01" nType="-99"/>
          <Node pos="r" depth="2" NCoef="0" IVar="-1" Cut="0.0000000000000000e+00" cType="1" res="-2.7680613566190004e-03" rms="4.5077124238014221e-01" purity="5.0896257162094116e-01" nType="-99"/>
        </Node>
      </Node>
    </BinaryTree>
    <BinaryTree type="DecisionTree" boostWeight="1.0000000000000000e+00" itree="1292">
      <Node pos="s" depth="0" NCoef="0" IVar="5" Cut="2.3227911442518234e-03" cType="1" res="1.3799474108964205e-03" rms="4.4992280006408691e-01" purity="5.0302654504776001e-01" nType="0">
        <Node pos="l" depth="1" NCoef="0" IVar="1" Cut="8.7926840782165527e-01" cType="1" res="5.4720318876206875e-03" rms="4.4807440042495728e-01" purity="5.4385060071945190e-01" nType="0">
          <Node pos="l" depth="2" NCoef="0" IVar="-1" Cut="0.0000000000000000e+00" cType="1" res="2.1731364540755749e-03" rms="4.4936290383338928e-01" purity="3.4941786527633667e-01" nType="-99"/>
          <Node pos="r" depth="2" NCoef="0" IVar="-1" Cut="0.0000000000000000e+00" cType="1" res="1.8773046031128615e-04" rms="4.4782537221908569e-01" purity="5.7008969783782959e-01" nType="-99"/>
        </Node>
        <Node pos="r" depth="1" NCoef="0" IVar="5" Cut="2.6704182382673025e-03" cType="1" res="-1.0133282281458378e-02" rms="4.5488566160202026e-01" purity="3.8816663622856140e-01" nType="0">
          <Node pos="l" depth="2" NCoef="0" IVar="-1" Cut="0.0000000000000000e+00" cType="1" res="-2.6395174209028482e-03" rms="4.5519429445266724e-01" purity="3.6453804373741150e-01" nType="-99"/>
          <Node pos="r" depth="2" NCoef="0" IVar="-1" Cut="0.0000000000000000e+00" cType="1" res="-1.8997924053110182e-04" rms="4.5452585816383362e-01" purity="3.9549037814140320e-01" nType="-99"/>
        </Node>
      </Node>
    </BinaryTree>
    <BinaryTree type="DecisionTree" boostWeight="1.0000000000000000e+00" itree="1293">
      <Node pos="s" depth="0" NCoef="0" IVar="0" Cut="-2.0065054297447205e-01" cType="1" res="-5.3491123253479600e-04" rms="4.4818356633186340e-01" purity="4.9964535236358643e-01" nType="0">
        <Node pos="l" depth="1" NCoef="0" IVar="-1" Cut="0.0000000000000000e+00" cType="1" res="2.8151152655482292e-03" rms="4.4221007823944092e-01" purity="3.3398357033729553e-01" nType="-99"/>
        <Node pos="r" depth="1" NCoef="0" IVar="1" Cut="8.7925660610198975e-01" cType="1" res="-2.7244640514254570e-03" rms="4.4850277900695801e-01" purity="5.1090675592422485e-01" nType="0">
          <Node pos="l" depth="2" NCoef="0" IVar="-1" Cut="0.0000000000000000e+00" cType="1" res="-1.0543015087023377e-03" rms="4.5018288493156433e-01" purity="3.7692892551422119e-01" nType="-99"/>
          <Node pos="r" depth="2" NCoef="0" IVar="-1" Cut="0.0000000000000000e+00" cType="1" res="1.2843607692047954e-04" rms="4.4775599241256714e-01" purity="5.6383681297302246e-01" nType="-99"/>
        </Node>
      </Node>
    </BinaryTree>
    <BinaryTree type="DecisionTree" boostWeight="1.0000000000000000e+00" itree="1294">
      <Node pos="s" depth="0" NCoef="0" IVar="3" Cut="-1.0328688472509384e-01" cType="1" res="-2.5001324247568846e-03" rms="4.4906541705131531e-01" purity="4.9928736686706543e-01" nType="0">
        <Node pos="l" depth="1" NCoef="0" IVar="6" Cut="1.2341239452362061e+00" cType="1" res="2.1052507683634758e-02" rms="4.4354075193405151e-01" purity="4.7563341259956360e-01" nType="0">
          <Node pos="l" depth="2" NCoef="0" IVar="-1" Cut="0.0000000000000000e+00" cType="1" res="2.4861693382263184e-03" rms="4.5551094412803650e-01" purity="5.2786815166473389e-01" nType="-99"/>
          <Node pos="r" depth="2" NCoef="0" IVar="-1" Cut="0.0000000000000000e+00" cType="1" res="-2.6043137768283486e-04" rms="4.2136302590370178e-01" purity="3.8701608777046204e-01" nType="-99"/>
        </Node>
        <Node pos="r" depth="1" NCoef="0" IVar="3" Cut="1.0313372313976288e-01" cType="1" res="-6.5765413455665112e-03" rms="4.4988957047462463e-01" purity="5.0338137149810791e-01" nType="0">
          <Node pos="l" depth="2" NCoef="0" IVar="-1" Cut="0.0000000000000000e+00" cType="1" res="-1.0472751455381513e-03" rms="4.4884783029556274e-01" purity="4.8181298375129700e-01" nType="-99"/>
          <Node pos="r" depth="2" NCoef="0" IVar="-1" Cut="0.0000000000000000e+00" cType="1" res="5.7179445866495371e-04" rms="4.5160919427871704e-01" purity="5.4681462049484253e-01" nType="-99"/>
        </Node>
      </Node>
    </BinaryTree>
    <BinaryTree type="DecisionTree" boostWeight="1.0000000000000000e+00" itree="1295">
      <Node pos="s" depth="0" NCoef="0" IVar="7" Cut="5.3394520282745361e-01" cType="1" res="1.9861115142703056e-03" rms="4.4963178038597107e-01" purity="5.0292026996612549e-01" nType="0">
        <Node pos="l" depth="1" NCoef="0" IVar="3" Cut="2.0599611103534698e-01" cType="1" res="1.5899863094091415e-02" rms="4.5136231184005737e-01" purity="4.6139100193977356e-01" nType="0">
          <Node pos="l" depth="2" NCoef="0" IVar="-1" Cut="0.0000000000000000e+00" cType="1" res="2.0422588568180799e-03" rms="4.4743525981903076e-01" purity="4.1784492135047913e-01" nType="-99"/>
          <Node pos="r" depth="2" NCoef="0" IVar="-1" Cut="0.0000000000000000e+00" cType="1" res="-2.9772511334158480e-04" rms="4.5842915773391724e-01" purity="5.4839205741882324e-01" nType="-99"/>
        </Node>
        <Node pos="r" depth="1" NCoef="0" IVar="2" Cut="2.7586105346679688e+02" cType="1" res="-3.7145745009183884e-03" rms="4.4879627227783203e-01" purity="5.1993548870086670e-01" nType="0">
          <Node pos="l" depth="2" NCoef="0" IVar="-1" Cut="0.0000000000000000e+00" cType="1" res="-1.2269103899598122e-03" rms="4.3915334343910217e-01" purity="3.5852056741714478e-01" nType="-99"/>
          <Node pos="r" depth="2" NCoef="0" IVar="-1" Cut="0.0000000000000000e+00" cType="1" res="1.4837655180599540e-04" rms="4.5372074842453003e-01" purity="6.0562312602996826e-01" nType="-99"/>
        </Node>
      </Node>
    </BinaryTree>
    <BinaryTree type="DecisionTree" boostWeight="1.0000000000000000e+00" itree="1296">
      <Node pos="s" depth="0" NCoef="0" IVar="5" Cut="2.6944284327328205e-03" cType="1" res="-3.6521969013847411e-04" rms="4.4864174723625183e-01" purity="4.9884179234504700e-01" nType="0">
        <Node pos="l" depth="1" NCoef="0" IVar="7" Cut="4.7961941361427307e-01" cType="1" res="-4.0918872691690922e-03" rms="4.4657212495803833e-01" purity="5.2116411924362183e-01" nType="0">
          <Node pos="l" depth="2" NCoef="0" IVar="-1" Cut="0.0000000000000000e+00" cType="1" res="9.1237871674820781e-04" rms="4.4411107897758484e-01" purity="4.7972357273101807e-01" nType="-99"/>
          <Node pos="r" depth="2" NCoef="0" IVar="-1" Cut="0.0000000000000000e+00" cType="1" res="-5.9823720948770642e-04" rms="4.4709324836730957e-01" purity="5.3155308961868286e-01" nType="-99"/>
        </Node>
        <Node pos="r" depth="1" NCoef="0" IVar="5" Cut="3.1684890855103731e-03" cType="1" res="1.4447786845266819e-02" rms="4.5647475123405457e-01" purity="4.1011345386505127e-01" nType="0">
          <Node pos="l" depth="2" NCoef="0" IVar="-1" Cut="0.0000000000000000e+00" cType="1" res="2.6945816352963448e-03" rms="4.6005582809448242e-01" purity="4.3478402495384216e-01" nType="-99"/>
          <Node pos="r" depth="2" NCoef="0" IVar="-1" Cut="0.0000000000000000e+00" cType="1" res="-1.0338779975427315e-04" rms="4.5337992906570435e-01" purity="3.9368638396263123e-01" nType="-99"/>
        </Node>
      </Node>
    </BinaryTree>
    <BinaryTree type="DecisionTree" boostWeight="1.0000000000000000e+00" itree="1297">
      <Node pos="s" depth="0" NCoef="0" IVar="3" Cut="2.0603039860725403e-01" cType="1" res="-4.9043372273445129e-03" rms="4.4847941398620605e-01" purity="4.9495473504066467e-01" nType="0">
        <Node pos="l" depth="1" NCoef="0" IVar="3" Cut="-1.0778161138296127e-01" cType="1" res="-6.9738929159939289e-03" rms="4.4738060235977173e-01" purity="4.8579007387161255e-01" nType="0">
          <Node pos="l" depth="2" NCoef="0" IVar="-1" Cut="0.0000000000000000e+00" cType="1" res="-1.9367351196706295e-03" rms="4.3217590451240540e-01" purity="4.2790180444717407e-01" nType="-99"/>
          <Node pos="r" depth="2" NCoef="0" IVar="-1" Cut="0.0000000000000000e+00" cType="1" res="-2.9055497725494206e-04" rms="4.4986778497695923e-01" purity="4.9571359157562256e-01" nType="-99"/>
        </Node>
        <Node pos="r" depth="1" NCoef="0" IVar="-1" Cut="0.0000000000000000e+00" cType="1" res="8.7214290397241712e-04" rms="4.5754197239875793e-01" purity="5.7476913928985596e-01" nType="-99"/>
      </Node>
    </BinaryTree>
    <BinaryTree type="DecisionTree" boostWeight="1.0000000000000000e+00" itree="1298">
      <Node pos="s" depth="0" NCoef="0" IVar="5" Cut="3.7208767607808113e-03" cType="1" res="-1.0227946331724524e-03" rms="4.5035600662231445e-01" purity="4.9776193499565125e-01" nType="0">
        <Node pos="l" depth="1" NCoef="0" IVar="0" Cut="1.5256794691085815e+00" cType="1" res="1.1474553029984236e-03" rms="4.5044639706611633e-01" purity="5.0540554523468018e-01" nType="0">
          <Node pos="l" depth="2" NCoef="0" IVar="-1" Cut="0.0000000000000000e+00" cType="1" res="1.0135582415387034e-03" rms="4.5668074488639832e-01" purity="3.9089491963386536e-01" nType="-99"/>
          <Node pos="r" depth="2" NCoef="0" IVar="-1" Cut="0.0000000000000000e+00" cType="1" res="-6.1052636010572314e-04" rms="4.4476103782653809e-01" purity="6.0400497913360596e-01" nType="-99"/>
        </Node>
        <Node pos="r" depth="1" NCoef="0" IVar="-1" Cut="0.0000000000000000e+00" cType="1" res="-3.0368384905159473e-03" rms="4.4677683711051941e-01" purity="3.5619065165519714e-01" nType="-99"/>
      </Node>
    </BinaryTree>
    <BinaryTree type="DecisionTree" boostWeight="1.0000000000000000e+00" itree="1299">
      <Node pos="s" depth="0" NCoef="0" IVar="7" Cut="3.9540964365005493e-01" cType="1" res="-5.1893875934183598e-03" rms="4.4949445128440857e-01" purity="4.9381348490715027e-01" nType="0">
        <Node pos="l" depth="1" NCoef="0" IVar="-1" Cut="0.0000000000000000e+00" cType="1" res="-2.3279925808310509e-03" rms="4.5358693599700928e-01" purity="4.2723178863525391e-01" nType="-99"/>
        <Node pos="r" depth="1" NCoef="0" IVar="3" Cut="-1.1695502698421478e-01" cType="1" res="-2.6768762618303299e-03" rms="4.4901120662689209e-01" purity="5.0036650896072388e-01" nType="0">
          <Node pos="l" depth="2" NCoef="0" IVar="-1" Cut="0.0000000000000000e+00" cType="1" res="-1.8905763281509280e-03" rms="4.3732202053070068e-01" purity="4.3251344561576843e-01" nType="-99"/>
          <Node pos="r" depth="2" NCoef="0" IVar="-1" Cut="0.0000000000000000e+00" cType="1" res="-1.5409465049742721e-05" rms="4.5025387406349182e-01" purity="5.0807482004165649e-01" nType="-99"/>
        </Node>
      </Node>
    </BinaryTree>
    <BinaryTree type="DecisionTree" boostWeight="1.0000000000000000e+00" itree="1300">
      <Node pos="s" depth="0" NCoef="0" IVar="6" Cut="1.0242370367050171e+00" cType="1" res="4.6300751273520291e-04" rms="4.4980323314666748e-01" purity="4.9949732422828674e-01" nType="0">
        <Node pos="l" depth="1" NCoef="0" IVar="0" Cut="1.2923163175582886e+00" cType="1" res="-9.8874419927597046e-03" rms="4.5284107327461243e-01" purity="5.4693937301635742e-01" nType="0">
          <Node pos="l" depth="2" NCoef="0" IVar="-1" Cut="0.0000000000000000e+00" cType="1" res="-2.0541741978377104e-03" rms="4.5802500844001770e-01" purity="3.8994458317756653e-01" nType="-99"/>
          <Node pos="r" depth="2" NCoef="0" IVar="-1" Cut="0.0000000000000000e+00" cType="1" res="7.3202674684580415e-05" rms="4.4916662573814392e-01" purity="6.4682161808013916e-01" nType="-99"/>
        </Node>
        <Node pos="r" depth="1" NCoef="0" IVar="1" Cut="8.5997140407562256e-01" cType="1" res="6.8231318145990372e-03" rms="4.4780769944190979e-01" purity="4.7034525871276855e-01" nType="0">
          <Node pos="l" depth="2" NCoef="0" IVar="-1" Cut="0.0000000000000000e+00" cType="1" res="2.6189179625362158e-03" rms="4.4881412386894226e-01" purity="3.6217465996742249e-01" nType="-99"/>
          <Node pos="r" depth="2" NCoef="0" IVar="-1" Cut="0.0000000000000000e+00" cType="1" res="2.2577561321668327e-04" rms="4.4753691554069519e-01" purity="4.8598703742027283e-01" nType="-99"/>
        </Node>
      </Node>
    </BinaryTree>
    <BinaryTree type="DecisionTree" boostWeight="1.0000000000000000e+00" itree="1301">
      <Node pos="s" depth="0" NCoef="0" IVar="6" Cut="1.3894534111022949e+00" cType="1" res="-3.4736352972686291e-04" rms="4.4953894615173340e-01" purity="4.9752724170684814e-01" nType="0">
        <Node pos="l" depth="1" NCoef="0" IVar="3" Cut="-1.0429900139570236e-01" cType="1" res="-6.1347605660557747e-03" rms="4.5508667826652527e-01" purity="5.2249270677566528e-01" nType="0">
          <Node pos="l" depth="2" NCoef="0" IVar="-1" Cut="0.0000000000000000e+00" cType="1" res="9.1939762933179736e-04" rms="4.4947808980941772e-01" purity="4.9263420701026917e-01" nType="-99"/>
          <Node pos="r" depth="2" NCoef="0" IVar="-1" Cut="0.0000000000000000e+00" cType="1" res="-6.6638068528845906e-04" rms="4.5600864291191101e-01" purity="5.2787488698959351e-01" nType="-99"/>
        </Node>
        <Node pos="r" depth="1" NCoef="0" IVar="7" Cut="7.6997143030166626e-01" cType="1" res="1.1851018294692039e-02" rms="4.3736472725868225e-01" purity="4.4490641355514526e-01" nType="0">
          <Node pos="l" depth="2" NCoef="0" IVar="-1" Cut="0.0000000000000000e+00" cType="1" res="1.4261552132666111e-04" rms="4.3514817953109741e-01" purity="4.0843299031257629e-01" nType="-99"/>
          <Node pos="r" depth="2" NCoef="0" IVar="-1" Cut="0.0000000000000000e+00" cType="1" res="3.0713870655745268e-03" rms="4.4275471568107605e-01" purity="5.5912595987319946e-01" nType="-99"/>
        </Node>
      </Node>
    </BinaryTree>
    <BinaryTree type="DecisionTree" boostWeight="1.0000000000000000e+00" itree="1302">
      <Node pos="s" depth="0" NCoef="0" IVar="0" Cut="1.0715575218200684e+00" cType="1" res="-3.4534973092377186e-03" rms="4.4950929284095764e-01" purity="4.9603322148323059e-01" nType="0">
        <Node pos="l" depth="1" NCoef="0" IVar="6" Cut="7.8112572431564331e-01" cType="1" res="-1.1487572453916073e-02" rms="4.4693061709403992e-01" purity="3.4186497330665588e-01" nType="0">
          <Node pos="l" depth="2" NCoef="0" IVar="-1" Cut="0.0000000000000000e+00" cType="1" res="-2.6197989936918020e-03" rms="4.5627248287200928e-01" purity="3.8619932532310486e-01" nType="-99"/>
          <Node pos="r" depth="2" NCoef="0" IVar="-1" Cut="0.0000000000000000e+00" cType="1" res="-5.7366176042705774e-04" rms="4.4482061266899109e-01" purity="3.3267959952354431e-01" nType="-99"/>
        </Node>
        <Node pos="r" depth="1" NCoef="0" IVar="0" Cut="1.4028607606887817e+00" cType="1" res="8.5850048344582319e-04" rms="4.5082816481590271e-01" purity="5.7877737283706665e-01" nType="0">
          <Node pos="l" depth="2" NCoef="0" IVar="-1" Cut="0.0000000000000000e+00" cType="1" res="1.4179330319166183e-03" rms="4.6414312720298767e-01" purity="4.6070221066474915e-01" nType="-99"/>
          <Node pos="r" depth="2" NCoef="0" IVar="-1" Cut="0.0000000000000000e+00" cType="1" res="-1.5920957957860082e-04" rms="4.4852492213249207e-01" purity="5.9814816713333130e-01" nType="-99"/>
        </Node>
      </Node>
    </BinaryTree>
    <BinaryTree type="DecisionTree" boostWeight="1.0000000000000000e+00" itree="1303">
      <Node pos="s" depth="0" NCoef="0" IVar="7" Cut="8.8739413022994995e-01" cType="1" res="-7.4364528991281986e-03" rms="4.5052620768547058e-01" purity="4.9213442206382751e-01" nType="0">
        <Node pos="l" depth="1" NCoef="0" IVar="4" Cut="1.8054269254207611e-01" cType="1" res="-1.0395248420536518e-02" rms="4.5157679915428162e-01" purity="4.8242220282554626e-01" nType="0">
          <Node pos="l" depth="2" NCoef="0" IVar="-1" Cut="0.0000000000000000e+00" cType="1" res="-2.3140043485909700e-03" rms="4.5043364167213440e-01" purity="4.0806707739830017e-01" nType="-99"/>
          <Node pos="r" depth="2" NCoef="0" IVar="-1" Cut="0.0000000000000000e+00" cType="1" res="-5.2155932644382119e-04" rms="4.5167988538742065e-01" purity="4.9460729956626892e-01" nType="-99"/>
        </Node>
        <Node pos="r" depth="1" NCoef="0" IVar="-1" Cut="0.0000000000000000e+00" cType="1" res="2.0739869214594364e-03" rms="4.3557688593864441e-01" purity="6.1289733648300171e-01" nType="-99"/>
      </Node>
    </BinaryTree>
    <BinaryTree type="DecisionTree" boostWeight="1.0000000000000000e+00" itree="1304">
      <Node pos="s" depth="0" NCoef="0" IVar="4" Cut="1.7722536623477936e-01" cType="1" res="-5.1592389354482293e-04" rms="4.4801867008209229e-01" purity="4.9673840403556824e-01" nType="0">
        <Node pos="l" depth="1" NCoef="0" IVar="3" Cut="1.0814746469259262e-01" cType="1" res="-1.9409099593758583e-02" rms="4.4845783710479736e-01" purity="4.3014448881149292e-01" nType="0">
          <Node pos="l" depth="2" NCoef="0" IVar="-1" Cut="0.0000000000000000e+00" cType="1" res="-2.7274740859866142e-03" rms="4.4082671403884888e-01" purity="3.7051820755004883e-01" nType="-99"/>
          <Node pos="r" depth="2" NCoef="0" IVar="-1" Cut="0.0000000000000000e+00" cType="1" res="2.1489744540303946e-04" rms="4.5928177237510681e-01" purity="5.2379149198532104e-01" nType="-99"/>
        </Node>
        <Node pos="r" depth="1" NCoef="0" IVar="5" Cut="5.1322655053809285e-04" cType="1" res="2.3684648331254721e-03" rms="4.4788146018981934e-01" purity="5.0690513849258423e-01" nType="0">
          <Node pos="l" depth="2" NCoef="0" IVar="-1" Cut="0.0000000000000000e+00" cType="1" res="-6.3440005760639906e-04" rms="4.2751333117485046e-01" purity="6.4479118585586548e-01" nType="-99"/>
          <Node pos="r" depth="2" NCoef="0" IVar="-1" Cut="0.0000000000000000e+00" cType="1" res="4.9364863662049174e-04" rms="4.5615151524543762e-01" purity="4.4855064153671265e-01" nType="-99"/>
        </Node>
      </Node>
    </BinaryTree>
    <BinaryTree type="DecisionTree" boostWeight="1.0000000000000000e+00" itree="1305">
      <Node pos="s" depth="0" NCoef="0" IVar="4" Cut="7.1563017368316650e-01" cType="1" res="-3.1265059951692820e-03" rms="4.4814750552177429e-01" purity="4.9699595570564270e-01" nType="0">
        <Node pos="l" depth="1" NCoef="0" IVar="4" Cut="5.8932119607925415e-01" cType="1" res="-5.0367908552289009e-03" rms="4.4907340407371521e-01" purity="4.9216884374618530e-01" nType="0">
          <Node pos="l" depth="2" NCoef="0" IVar="-1" Cut="0.0000000000000000e+00" cType="1" res="-5.5758724920451641e-04" rms="4.4848608970642090e-01" purity="4.8443555831909180e-01" nType="-99"/>
          <Node pos="r" depth="2" NCoef="0" IVar="-1" Cut="0.0000000000000000e+00" cType="1" res="8.0330570926889777e-04" rms="4.5237934589385986e-01" purity="5.4032337665557861e-01" nType="-99"/>
        </Node>
        <Node pos="r" depth="1" NCoef="0" IVar="-1" Cut="0.0000000000000000e+00" cType="1" res="1.9927625544369221e-03" rms="4.3133938312530518e-01" purity="5.7675403356552124e-01" nType="-99"/>
      </Node>
    </BinaryTree>
    <BinaryTree type="DecisionTree" boostWeight="1.0000000000000000e+00" itree="1306">
      <Node pos="s" depth="0" NCoef="0" IVar="6" Cut="1.3161894083023071e+00" cType="1" res="-4.2783459648489952e-03" rms="4.4847893714904785e-01" purity="4.9453234672546387e-01" nType="0">
        <Node pos="l" depth="1" NCoef="0" IVar="7" Cut="7.5411909818649292e-01" cType="1" res="-9.4995675608515739e-03" rms="4.5444241166114807e-01" purity="5.2182793617248535e-01" nType="0">
          <Node pos="l" depth="2" NCoef="0" IVar="-1" Cut="0.0000000000000000e+00" cType="1" res="-1.0644760186551139e-04" rms="4.5694860816001892e-01" purity="5.0976347923278809e-01" nType="-99"/>
          <Node pos="r" depth="2" NCoef="0" IVar="-1" Cut="0.0000000000000000e+00" cType="1" res="-1.9632640760391951e-03" rms="4.4832012057304382e-01" purity="5.4861491918563843e-01" nType="-99"/>
        </Node>
        <Node pos="r" depth="1" NCoef="0" IVar="7" Cut="8.2200199365615845e-01" cType="1" res="4.4321776367723942e-03" rms="4.3821117281913757e-01" purity="4.4899529218673706e-01" nType="0">
          <Node pos="l" depth="2" NCoef="0" IVar="-1" Cut="0.0000000000000000e+00" cType="1" res="-1.3521421351470053e-04" rms="4.4081062078475952e-01" purity="4.2512112855911255e-01" nType="-99"/>
          <Node pos="r" depth="2" NCoef="0" IVar="-1" Cut="0.0000000000000000e+00" cType="1" res="2.9160175472497940e-03" rms="4.2077851295471191e-01" purity="5.8944088220596313e-01" nType="-99"/>
        </Node>
      </Node>
    </BinaryTree>
    <BinaryTree type="DecisionTree" boostWeight="1.0000000000000000e+00" itree="1307">
      <Node pos="s" depth="0" NCoef="0" IVar="0" Cut="7.6450979709625244e-01" cType="1" res="-7.9801502579357475e-05" rms="4.4859966635704041e-01" purity="5.0009149312973022e-01" nType="0">
        <Node pos="l" depth="1" NCoef="0" IVar="7" Cut="5.9742379188537598e-01" cType="1" res="-1.5532698482275009e-02" rms="4.3842792510986328e-01" purity="3.1885012984275818e-01" nType="0">
          <Node pos="l" depth="2" NCoef="0" IVar="-1" Cut="0.0000000000000000e+00" cType="1" res="4.3114818981848657e-04" rms="4.3135741353034973e-01" purity="3.0230715870857239e-01" nType="-99"/>
          <Node pos="r" depth="2" NCoef="0" IVar="-1" Cut="0.0000000000000000e+00" cType="1" res="-2.4065061006695032e-03" rms="4.4251248240470886e-01" purity="3.2971820235252380e-01" nType="-99"/>
        </Node>
        <Node pos="r" depth="1" NCoef="0" IVar="6" Cut="1.3133460283279419e+00" cType="1" res="5.5212532170116901e-03" rms="4.5209962129592896e-01" purity="5.6578415632247925e-01" nType="0">
          <Node pos="l" depth="2" NCoef="0" IVar="-1" Cut="0.0000000000000000e+00" cType="1" res="7.5507728615775704e-04" rms="4.5569622516632080e-01" purity="6.0295003652572632e-01" nType="-99"/>
          <Node pos="r" depth="2" NCoef="0" IVar="-1" Cut="0.0000000000000000e+00" cType="1" res="-3.5637989640235901e-04" rms="4.4541734457015991e-01" purity="4.9945229291915894e-01" nType="-99"/>
        </Node>
      </Node>
    </BinaryTree>
    <BinaryTree type="DecisionTree" boostWeight="1.0000000000000000e+00" itree="1308">
      <Node pos="s" depth="0" NCoef="0" IVar="7" Cut="7.8610920906066895e-01" cType="1" res="-1.7354538431391120e-04" rms="4.4777247309684753e-01" purity="4.9966147541999817e-01" nType="0">
        <Node pos="l" depth="1" NCoef="0" IVar="0" Cut="7.6872184872627258e-02" cType="1" res="-4.8146732151508331e-03" rms="4.5164063572883606e-01" purity="4.7527447342872620e-01" nType="0">
          <Node pos="l" depth="2" NCoef="0" IVar="-1" Cut="0.0000000000000000e+00" cType="1" res="2.5247351732105017e-03" rms="4.3739143013954163e-01" purity="3.1010189652442932e-01" nType="-99"/>
          <Node pos="r" depth="2" NCoef="0" IVar="-1" Cut="0.0000000000000000e+00" cType="1" res="-6.1897892737761140e-04" rms="4.5318043231964111e-01" purity="4.9519389867782593e-01" nType="-99"/>
        </Node>
        <Node pos="r" depth="1" NCoef="0" IVar="2" Cut="2.6377569580078125e+02" cType="1" res="1.4762174338102341e-02" rms="4.3475472927093506e-01" purity="5.7814174890518188e-01" nType="0">
          <Node pos="l" depth="2" NCoef="0" IVar="-1" Cut="0.0000000000000000e+00" cType="1" res="-2.1868653129786253e-03" rms="4.2419207096099854e-01" purity="3.4497815370559692e-01" nType="-99"/>
          <Node pos="r" depth="2" NCoef="0" IVar="-1" Cut="0.0000000000000000e+00" cType="1" res="1.8303941469639540e-03" rms="4.3720963597297668e-01" purity="6.5064299106597900e-01" nType="-99"/>
        </Node>
      </Node>
    </BinaryTree>
    <BinaryTree type="DecisionTree" boostWeight="1.0000000000000000e+00" itree="1309">
      <Node pos="s" depth="0" NCoef="0" IVar="4" Cut="1.5468913316726685e-01" cType="1" res="-1.4653491089120507e-03" rms="4.4947761297225952e-01" purity="4.9625426530838013e-01" nType="0">
        <Node pos="l" depth="1" NCoef="0" IVar="-1" Cut="0.0000000000000000e+00" cType="1" res="1.7286185175180435e-03" rms="4.4929471611976624e-01" purity="4.6342456340789795e-01" nType="-99"/>
        <Node pos="r" depth="1" NCoef="0" IVar="4" Cut="2.1507331728935242e-01" cType="1" res="-4.2598443105816841e-03" rms="4.4941076636314392e-01" purity="4.9989154934883118e-01" nType="0">
          <Node pos="l" depth="2" NCoef="0" IVar="-1" Cut="0.0000000000000000e+00" cType="1" res="-2.6577385142445564e-03" rms="4.4455641508102417e-01" purity="4.3045285344123840e-01" nType="-99"/>
          <Node pos="r" depth="2" NCoef="0" IVar="-1" Cut="0.0000000000000000e+00" cType="1" res="-5.4881256801309064e-05" rms="4.4983178377151489e-01" purity="5.0785732269287109e-01" nType="-99"/>
        </Node>
      </Node>
    </BinaryTree>
    <BinaryTree type="DecisionTree" boostWeight="1.0000000000000000e+00" itree="1310">
      <Node pos="s" depth="0" NCoef="0" IVar="0" Cut="1.1419061571359634e-01" cType="1" res="2.8579784557223320e-03" rms="4.4968977570533752e-01" purity="5.0578308105468750e-01" nType="0">
        <Node pos="l" depth="1" NCoef="0" IVar="7" Cut="6.7538565397262573e-01" cType="1" res="2.4820115417242050e-02" rms="4.4419029355049133e-01" purity="3.2859599590301514e-01" nType="0">
          <Node pos="l" depth="2" NCoef="0" IVar="-1" Cut="0.0000000000000000e+00" cType="1" res="1.7255377315450460e-04" rms="4.2336931824684143e-01" purity="2.6974222064018250e-01" nType="-99"/>
          <Node pos="r" depth="2" NCoef="0" IVar="-1" Cut="0.0000000000000000e+00" cType="1" res="3.9070872589945793e-03" rms="4.6370667219161987e-01" purity="3.9004600048065186e-01" nType="-99"/>
        </Node>
        <Node pos="r" depth="1" NCoef="0" IVar="3" Cut="3.9198841899633408e-02" cType="1" res="-1.0630596079863608e-04" rms="4.5034489035606384e-01" purity="5.2969849109649658e-01" nType="0">
          <Node pos="l" depth="2" NCoef="0" IVar="-1" Cut="0.0000000000000000e+00" cType="1" res="-4.6799521078355610e-04" rms="4.4539335370063782e-01" purity="5.0172495841979980e-01" nType="-99"/>
          <Node pos="r" depth="2" NCoef="0" IVar="-1" Cut="0.0000000000000000e+00" cType="1" res="5.3794879931956530e-04" rms="4.5646664500236511e-01" purity="5.6542998552322388e-01" nType="-99"/>
        </Node>
      </Node>
    </BinaryTree>
    <BinaryTree type="DecisionTree" boostWeight="1.0000000000000000e+00" itree="1311">
      <Node pos="s" depth="0" NCoef="0" IVar="6" Cut="6.6905248165130615e-01" cType="1" res="5.5211712606251240e-03" rms="4.4660839438438416e-01" purity="5.0551408529281616e-01" nType="0">
        <Node pos="l" depth="1" NCoef="0" IVar="-1" Cut="0.0000000000000000e+00" cType="1" res="2.3655712138861418e-03" rms="4.4571211934089661e-01" purity="6.1104965209960938e-01" nType="-99"/>
        <Node pos="r" depth="1" NCoef="0" IVar="1" Cut="9.3710917234420776e-01" cType="1" res="1.9763391464948654e-03" rms="4.4658210873603821e-01" purity="4.9298536777496338e-01" nType="0">
          <Node pos="l" depth="2" NCoef="0" IVar="-1" Cut="0.0000000000000000e+00" cType="1" res="-3.0181693728081882e-04" rms="4.5353204011917114e-01" purity="4.1470715403556824e-01" nType="-99"/>
          <Node pos="r" depth="2" NCoef="0" IVar="-1" Cut="0.0000000000000000e+00" cType="1" res="1.3062006328254938e-03" rms="4.2662361264228821e-01" purity="7.0638668537139893e-01" nType="-99"/>
        </Node>
      </Node>
    </BinaryTree>
    <BinaryTree type="DecisionTree" boostWeight="1.0000000000000000e+00" itree="1312">
      <Node pos="s" depth="0" NCoef="0" IVar="6" Cut="6.2353616952896118e-01" cType="1" res="-1.8987647490575910e-04" rms="4.5089730620384216e-01" purity="4.9645981192588806e-01" nType="0">
        <Node pos="l" depth="1" NCoef="0" IVar="-1" Cut="0.0000000000000000e+00" cType="1" res="1.7372070578858256e-03" rms="4.5512774586677551e-01" purity="6.1219656467437744e-01" nType="-99"/>
        <Node pos="r" depth="1" NCoef="0" IVar="6" Cut="1.2356067895889282e+00" cType="1" res="-2.3807880934327841e-03" rms="4.5046895742416382e-01" purity="4.8665723204612732e-01" nType="0">
          <Node pos="l" depth="2" NCoef="0" IVar="-1" Cut="0.0000000000000000e+00" cType="1" res="-7.1094278246164322e-04" rms="4.5625868439674377e-01" purity="5.1724797487258911e-01" nType="-99"/>
          <Node pos="r" depth="2" NCoef="0" IVar="-1" Cut="0.0000000000000000e+00" cType="1" res="4.6783703146502376e-04" rms="4.4387355446815491e-01" purity="4.5308566093444824e-01" nType="-99"/>
        </Node>
      </Node>
    </BinaryTree>
    <BinaryTree type="DecisionTree" boostWeight="1.0000000000000000e+00" itree="1313">
      <Node pos="s" depth="0" NCoef="0" IVar="7" Cut="4.7961941361427307e-01" cType="1" res="5.4264306090772152e-03" rms="4.4944557547569275e-01" purity="5.0492244958877563e-01" nType="0">
        <Node pos="l" depth="1" NCoef="0" IVar="3" Cut="6.9839529693126678e-02" cType="1" res="2.2703211754560471e-02" rms="4.5142391324043274e-01" purity="4.6773782372474670e-01" nType="0">
          <Node pos="l" depth="2" NCoef="0" IVar="-1" Cut="0.0000000000000000e+00" cType="1" res="-1.0198759846389294e-03" rms="4.1752237081527710e-01" purity="2.6563468575477600e-01" nType="-99"/>
          <Node pos="r" depth="2" NCoef="0" IVar="-1" Cut="0.0000000000000000e+00" cType="1" res="2.3405768442898989e-03" rms="4.6297428011894226e-01" purity="5.4404670000076294e-01" nType="-99"/>
        </Node>
        <Node pos="r" depth="1" NCoef="0" IVar="1" Cut="8.5611933469772339e-01" cType="1" res="1.0930077405646443e-03" rms="4.4884368777275085e-01" purity="5.1424920558929443e-01" nType="0">
          <Node pos="l" depth="2" NCoef="0" IVar="-1" Cut="0.0000000000000000e+00" cType="1" res="-2.1130724344402552e-03" rms="4.4945907592773438e-01" purity="3.4116241335868835e-01" nType="-99"/>
          <Node pos="r" depth="2" NCoef="0" IVar="-1" Cut="0.0000000000000000e+00" cType="1" res="2.4881583522073925e-04" rms="4.4871005415916443e-01" purity="5.2875053882598877e-01" nType="-99"/>
        </Node>
      </Node>
    </BinaryTree>
    <BinaryTree type="DecisionTree" boostWeight="1.0000000000000000e+00" itree="1314">
      <Node pos="s" depth="0" NCoef="0" IVar="6" Cut="1.7366141080856323e+00" cType="1" res="1.3477293578034732e-05" rms="4.4951754808425903e-01" purity="5.0047868490219116e-01" nType="0">
        <Node pos="l" depth="1" NCoef="0" IVar="6" Cut="1.4968589544296265e+00" cType="1" res="-4.2855213396251202e-03" rms="4.5155954360961914e-01" purity="5.0839656591415405e-01" nType="0">
          <Node pos="l" depth="2" NCoef="0" IVar="-1" Cut="0.0000000000000000e+00" cType="1" res="-1.2938377949467395e-05" rms="4.5391973853111267e-01" purity="5.2416342496871948e-01" nType="-99"/>
          <Node pos="r" depth="2" NCoef="0" IVar="-1" Cut="0.0000000000000000e+00" cType="1" res="-2.3896845523267984e-03" rms="4.3564945459365845e-01" purity="4.0987935662269592e-01" nType="-99"/>
        </Node>
        <Node pos="r" depth="1" NCoef="0" IVar="0" Cut="1.0947620868682861e+00" cType="1" res="2.7652371674776077e-02" rms="4.3514785170555115e-01" purity="4.4957309961318970e-01" nType="0">
          <Node pos="l" depth="2" NCoef="0" IVar="-1" Cut="0.0000000000000000e+00" cType="1" res="-4.9982371274381876e-04" rms="4.1125398874282837e-01" purity="2.8192853927612305e-01" nType="-99"/>
          <Node pos="r" depth="2" NCoef="0" IVar="-1" Cut="0.0000000000000000e+00" cType="1" res="3.2507760915905237e-03" rms="4.4769379496574402e-01" purity="5.4992657899856567e-01" nType="-99"/>
        </Node>
      </Node>
    </BinaryTree>
    <BinaryTree type="DecisionTree" boostWeight="1.0000000000000000e+00" itree="1315">
      <Node pos="s" depth="0" NCoef="0" IVar="0" Cut="2.3222827911376953e-01" cType="1" res="6.0045649297535419e-04" rms="4.4892886281013489e-01" purity="5.0221097469329834e-01" nType="0">
        <Node pos="l" depth="1" NCoef="0" IVar="7" Cut="7.1193122863769531e-01" cType="1" res="1.5685742720961571e-02" rms="4.3751993775367737e-01" purity="3.1995981931686401e-01" nType="0">
          <Node pos="l" depth="2" NCoef="0" IVar="-1" Cut="0.0000000000000000e+00" cType="1" res="-4.0966601227410138e-04" rms="4.1757565736770630e-01" purity="2.7207845449447632e-01" nType="-99"/>
          <Node pos="r" depth="2" NCoef="0" IVar="-1" Cut="0.0000000000000000e+00" cType="1" res="3.4659283701330423e-03" rms="4.6227589249610901e-01" purity="3.8613316416740417e-01" nType="-99"/>
        </Node>
        <Node pos="r" depth="1" NCoef="0" IVar="4" Cut="1.9876618683338165e-01" cType="1" res="-1.8221475183963776e-03" rms="4.5068708062171936e-01" purity="5.3147941827774048e-01" nType="0">
          <Node pos="l" depth="2" NCoef="0" IVar="-1" Cut="0.0000000000000000e+00" cType="1" res="9.4506033929064870e-04" rms="4.5590147376060486e-01" purity="4.9478790163993835e-01" nType="-99"/>
          <Node pos="r" depth="2" NCoef="0" IVar="-1" Cut="0.0000000000000000e+00" cType="1" res="-3.5529048182070255e-04" rms="4.4951632618904114e-01" purity="5.3920096158981323e-01" nType="-99"/>
        </Node>
      </Node>
    </BinaryTree>
    <BinaryTree type="DecisionTree" boostWeight="1.0000000000000000e+00" itree="1316">
      <Node pos="s" depth="0" NCoef="0" IVar="2" Cut="4.6222189331054688e+02" cType="1" res="-3.9571407251060009e-03" rms="4.4808796048164368e-01" purity="4.9765712022781372e-01" nType="0">
        <Node pos="l" depth="1" NCoef="0" IVar="2" Cut="2.0493769836425781e+02" cType="1" res="-7.5220274738967419e-03" rms="4.5104464888572693e-01" purity="4.6455135941505432e-01" nType="0">
          <Node pos="l" depth="2" NCoef="0" IVar="-1" Cut="0.0000000000000000e+00" cType="1" res="2.6747374795377254e-03" rms="4.2106214165687561e-01" purity="2.8986558318138123e-01" nType="-99"/>
          <Node pos="r" depth="2" NCoef="0" IVar="-1" Cut="0.0000000000000000e+00" cType="1" res="-8.0149812856689095e-04" rms="4.5395714044570923e-01" purity="4.8307216167449951e-01" nType="-99"/>
        </Node>
        <Node pos="r" depth="1" NCoef="0" IVar="5" Cut="1.3729468919336796e-03" cType="1" res="1.6567133367061615e-02" rms="4.3009617924690247e-01" purity="6.8825858831405640e-01" nType="0">
          <Node pos="l" depth="2" NCoef="0" IVar="-1" Cut="0.0000000000000000e+00" cType="1" res="2.4212456773966551e-03" rms="4.0817478299140930e-01" purity="7.5267672538757324e-01" nType="-99"/>
          <Node pos="r" depth="2" NCoef="0" IVar="-1" Cut="0.0000000000000000e+00" cType="1" res="-3.5818453761748970e-04" rms="4.5742869377136230e-01" purity="6.0021710395812988e-01" nType="-99"/>
        </Node>
      </Node>
    </BinaryTree>
    <BinaryTree type="DecisionTree" boostWeight="1.0000000000000000e+00" itree="1317">
      <Node pos="s" depth="0" NCoef="0" IVar="5" Cut="1.5411007916554809e-03" cType="1" res="5.7378038763999939e-03" rms="4.5157179236412048e-01" purity="5.0455063581466675e-01" nType="0">
        <Node pos="l" depth="1" NCoef="0" IVar="1" Cut="9.0234118700027466e-01" cType="1" res="-1.7119273543357849e-03" rms="4.4159695506095886e-01" purity="5.6414037942886353e-01" nType="0">
          <Node pos="l" depth="2" NCoef="0" IVar="-1" Cut="0.0000000000000000e+00" cType="1" res="-2.7069239877164364e-03" rms="4.2538166046142578e-01" purity="3.0195298790931702e-01" nType="-99"/>
          <Node pos="r" depth="2" NCoef="0" IVar="-1" Cut="0.0000000000000000e+00" cType="1" res="3.0784311820752919e-04" rms="4.4456902146339417e-01" purity="6.1729824542999268e-01" nType="-99"/>
        </Node>
        <Node pos="r" depth="1" NCoef="0" IVar="6" Cut="1.5102263689041138e+00" cType="1" res="1.5597921796143055e-02" rms="4.6426096558570862e-01" purity="4.2568048834800720e-01" nType="0">
          <Node pos="l" depth="2" NCoef="0" IVar="-1" Cut="0.0000000000000000e+00" cType="1" res="1.4477494405582547e-03" rms="4.7213318943977356e-01" purity="4.5521664619445801e-01" nType="-99"/>
          <Node pos="r" depth="2" NCoef="0" IVar="-1" Cut="0.0000000000000000e+00" cType="1" res="-1.6601798415649682e-04" rms="4.3839088082313538e-01" purity="3.3375167846679688e-01" nType="-99"/>
        </Node>
      </Node>
    </BinaryTree>
    <BinaryTree type="DecisionTree" boostWeight="1.0000000000000000e+00" itree="1318">
      <Node pos="s" depth="0" NCoef="0" IVar="5" Cut="2.5684966240078211e-03" cType="1" res="4.0131192654371262e-03" rms="4.4812703132629395e-01" purity="5.0531697273254395e-01" nType="0">
        <Node pos="l" depth="1" NCoef="0" IVar="3" Cut="6.7198313772678375e-02" cType="1" res="8.7986793369054794e-03" rms="4.4494977593421936e-01" purity="5.3739559650421143e-01" nType="0">
          <Node pos="l" depth="2" NCoef="0" IVar="-1" Cut="0.0000000000000000e+00" cType="1" res="1.0801666649058461e-03" rms="4.4126921892166138e-01" purity="5.2632296085357666e-01" nType="-99"/>
          <Node pos="r" depth="2" NCoef="0" IVar="-1" Cut="0.0000000000000000e+00" cType="1" res="-1.3714646047446877e-04" rms="4.5142191648483276e-01" purity="5.5769538879394531e-01" nType="-99"/>
        </Node>
        <Node pos="r" depth="1" NCoef="0" IVar="2" Cut="2.7379373168945312e+02" cType="1" res="-1.3307042419910431e-02" rms="4.5902583003044128e-01" purity="3.8921651244163513e-01" nType="0">
          <Node pos="l" depth="2" NCoef="0" IVar="-1" Cut="0.0000000000000000e+00" cType="1" res="7.0861575659364462e-04" rms="4.3688476085662842e-01" purity="2.8630402684211731e-01" nType="-99"/>
          <Node pos="r" depth="2" NCoef="0" IVar="-1" Cut="0.0000000000000000e+00" cType="1" res="-1.7568432958796620e-03" rms="4.7252008318901062e-01" purity="4.5698145031929016e-01" nType="-99"/>
        </Node>
      </Node>
    </BinaryTree>
    <BinaryTree type="DecisionTree" boostWeight="1.0000000000000000e+00" itree="1319">
      <Node pos="s" depth="0" NCoef="0" IVar="4" Cut="4.5353841781616211e-01" cType="1" res="9.7421329701319337e-04" rms="4.4958457350730896e-01" purity="5.0084429979324341e-01" nType="0">
        <Node pos="l" depth="1" NCoef="0" IVar="7" Cut="8.7172347307205200e-01" cType="1" res="-6.1534186825156212e-03" rms="4.4913896918296814e-01" purity="4.7703409194946289e-01" nType="0">
          <Node pos="l" depth="2" NCoef="0" IVar="-1" Cut="0.0000000000000000e+00" cType="1" res="-2.0383382798172534e-04" rms="4.4908884167671204e-01" purity="4.7016471624374390e-01" nType="-99"/>
          <Node pos="r" depth="2" NCoef="0" IVar="-1" Cut="0.0000000000000000e+00" cType="1" res="-3.0212858691811562e-03" rms="4.4815403223037720e-01" purity="5.4884958267211914e-01" nType="-99"/>
        </Node>
        <Node pos="r" depth="1" NCoef="0" IVar="1" Cut="8.8691329956054688e-01" cType="1" res="1.2335571460425854e-02" rms="4.5006066560745239e-01" purity="5.3879737854003906e-01" nType="0">
          <Node pos="l" depth="2" NCoef="0" IVar="-1" Cut="0.0000000000000000e+00" cType="1" res="2.0117622334510088e-03" rms="4.6417969465255737e-01" purity="4.2632055282592773e-01" nType="-99"/>
          <Node pos="r" depth="2" NCoef="0" IVar="-1" Cut="0.0000000000000000e+00" cType="1" res="2.0356618915684521e-04" rms="4.4098487496376038e-01" purity="6.0718232393264771e-01" nType="-99"/>
        </Node>
      </Node>
    </BinaryTree>
    <BinaryTree type="DecisionTree" boostWeight="1.0000000000000000e+00" itree="1320">
      <Node pos="s" depth="0" NCoef="0" IVar="2" Cut="2.0424356079101562e+02" cType="1" res="8.1078708171844482e-03" rms="4.4845339655876160e-01" purity="5.0782501697540283e-01" nType="0">
        <Node pos="l" depth="1" NCoef="0" IVar="-1" Cut="0.0000000000000000e+00" cType="1" res="-2.1413199137896299e-03" rms="3.9515459537506104e-01" purity="2.4414370954036713e-01" nType="-99"/>
        <Node pos="r" depth="1" NCoef="0" IVar="7" Cut="4.1810268163681030e-01" cType="1" res="1.0520122945308685e-02" rms="4.5258519053459167e-01" purity="5.3009581565856934e-01" nType="0">
          <Node pos="l" depth="2" NCoef="0" IVar="-1" Cut="0.0000000000000000e+00" cType="1" res="2.1438326220959425e-03" rms="4.5477873086929321e-01" purity="5.0098204612731934e-01" nType="-99"/>
          <Node pos="r" depth="2" NCoef="0" IVar="-1" Cut="0.0000000000000000e+00" cType="1" res="5.5314798373728991e-04" rms="4.5222643017768860e-01" purity="5.3395730257034302e-01" nType="-99"/>
        </Node>
      </Node>
    </BinaryTree>
    <BinaryTree type="DecisionTree" boostWeight="1.0000000000000000e+00" itree="1321">
      <Node pos="s" depth="0" NCoef="0" IVar="4" Cut="6.9178932905197144e-01" cType="1" res="3.2192848157137632e-03" rms="4.4983002543449402e-01" purity="5.0080466270446777e-01" nType="0">
        <Node pos="l" depth="1" NCoef="0" IVar="4" Cut="5.8696860074996948e-01" cType="1" res="5.8618704788386822e-03" rms="4.5034757256507874e-01" purity="5.0056433677673340e-01" nType="0">
          <Node pos="l" depth="2" NCoef="0" IVar="-1" Cut="0.0000000000000000e+00" cType="1" res="2.2434811398852617e-04" rms="4.5104491710662842e-01" purity="4.9393680691719055e-01" nType="-99"/>
          <Node pos="r" depth="2" NCoef="0" IVar="-1" Cut="0.0000000000000000e+00" cType="1" res="1.8990040989592671e-03" rms="4.4461238384246826e-01" purity="5.4963868856430054e-01" nType="-99"/>
        </Node>
        <Node pos="r" depth="1" NCoef="0" IVar="-1" Cut="0.0000000000000000e+00" cType="1" res="-2.4409953039139509e-03" rms="4.4124558568000793e-01" purity="5.0404691696166992e-01" nType="-99"/>
      </Node>
    </BinaryTree>
    <BinaryTree type="DecisionTree" boostWeight="1.0000000000000000e+00" itree="1322">
      <Node pos="s" depth="0" NCoef="0" IVar="0" Cut="3.6505332589149475e-01" cType="1" res="-3.6385098937898874e-03" rms="4.4726821780204773e-01" purity="4.9632349610328674e-01" nType="0">
        <Node pos="l" depth="1" NCoef="0" IVar="5" Cut="1.7981339478865266e-03" cType="1" res="-2.0437849685549736e-02" rms="4.2358493804931641e-01" purity="2.9216468334197998e-01" nType="0">
          <Node pos="l" depth="2" NCoef="0" IVar="-1" Cut="0.0000000000000000e+00" cType="1" res="2.2967456607148051e-04" rms="4.2651218175888062e-01" purity="3.1083366274833679e-01" nType="-99"/>
          <Node pos="r" depth="2" NCoef="0" IVar="-1" Cut="0.0000000000000000e+00" cType="1" res="-3.0734539031982422e-03" rms="4.2128294706344604e-01" purity="2.8122001886367798e-01" nType="-99"/>
        </Node>
        <Node pos="r" depth="1" NCoef="0" IVar="0" Cut="2.8627378940582275e+00" cType="1" res="-1.6541843069717288e-04" rms="4.5193186402320862e-01" purity="5.3853118419647217e-01" nType="0">
          <Node pos="l" depth="2" NCoef="0" IVar="-1" Cut="0.0000000000000000e+00" cType="1" res="4.2288249824196100e-04" rms="4.5732310414314270e-01" purity="4.8259592056274414e-01" nType="-99"/>
          <Node pos="r" depth="2" NCoef="0" IVar="-1" Cut="0.0000000000000000e+00" cType="1" res="-1.0872448328882456e-03" rms="4.3802022933959961e-01" purity="6.7602491378784180e-01" nType="-99"/>
        </Node>
      </Node>
    </BinaryTree>
    <BinaryTree type="DecisionTree" boostWeight="1.0000000000000000e+00" itree="1323">
      <Node pos="s" depth="0" NCoef="0" IVar="0" Cut="6.6341137886047363e-01" cType="1" res="-7.3608201928436756e-03" rms="4.4795492291450500e-01" purity="4.9381092190742493e-01" nType="0">
        <Node pos="l" depth="1" NCoef="0" IVar="6" Cut="8.5982775688171387e-01" cType="1" res="-2.2075608372688293e-02" rms="4.3601855635643005e-01" purity="3.0841895937919617e-01" nType="0">
          <Node pos="l" depth="2" NCoef="0" IVar="-1" Cut="0.0000000000000000e+00" cType="1" res="-4.6483064070343971e-03" rms="4.5098182559013367e-01" purity="3.3072835206985474e-01" nType="-99"/>
          <Node pos="r" depth="2" NCoef="0" IVar="-1" Cut="0.0000000000000000e+00" cType="1" res="-1.0852795094251633e-03" rms="4.3092179298400879e-01" purity="3.0176264047622681e-01" nType="-99"/>
        </Node>
        <Node pos="r" depth="1" NCoef="0" IVar="5" Cut="2.1937517449259758e-03" cType="1" res="-2.6908707804977894e-03" rms="4.5157694816589355e-01" purity="5.5264770984649658e-01" nType="0">
          <Node pos="l" depth="2" NCoef="0" IVar="-1" Cut="0.0000000000000000e+00" cType="1" res="-6.9887714926153421e-04" rms="4.4597890973091125e-01" purity="5.7493513822555542e-01" nType="-99"/>
          <Node pos="r" depth="2" NCoef="0" IVar="-1" Cut="0.0000000000000000e+00" cType="1" res="1.4135940000414848e-03" rms="4.6941375732421875e-01" purity="4.7629278898239136e-01" nType="-99"/>
        </Node>
      </Node>
    </BinaryTree>
    <BinaryTree type="DecisionTree" boostWeight="1.0000000000000000e+00" itree="1324">
      <Node pos="s" depth="0" NCoef="0" IVar="6" Cut="1.5610150098800659e+00" cType="1" res="9.7114476375281811e-04" rms="4.4801858067512512e-01" purity="4.9967417120933533e-01" nType="0">
        <Node pos="l" depth="1" NCoef="0" IVar="1" Cut="8.8684767484664917e-01" cType="1" res="-3.6742447409778833e-03" rms="4.5033574104309082e-01" purity="5.1551347970962524e-01" nType="0">
          <Node pos="l" depth="2" NCoef="0" IVar="-1" Cut="0.0000000000000000e+00" cType="1" res="-1.1806866386905313e-03" rms="4.5628070831298828e-01" purity="3.8111385703086853e-01" nType="-99"/>
          <Node pos="r" depth="2" NCoef="0" IVar="-1" Cut="0.0000000000000000e+00" cType="1" res="2.5380167062394321e-04" rms="4.4659930467605591e-01" purity="5.9550803899765015e-01" nType="-99"/>
        </Node>
        <Node pos="r" depth="1" NCoef="0" IVar="0" Cut="1.8176184892654419e+00" cType="1" res="1.7528317868709564e-02" rms="4.3926090002059937e-01" purity="4.4321951270103455e-01" nType="0">
          <Node pos="l" depth="2" NCoef="0" IVar="-1" Cut="0.0000000000000000e+00" cType="1" res="2.9810138512402773e-03" rms="4.3660879135131836e-01" purity="3.5876592993736267e-01" nType="-99"/>
          <Node pos="r" depth="2" NCoef="0" IVar="-1" Cut="0.0000000000000000e+00" cType="1" res="-4.3406538316048682e-04" rms="4.4188871979713440e-01" purity="5.6253200769424438e-01" nType="-99"/>
        </Node>
      </Node>
    </BinaryTree>
    <BinaryTree type="DecisionTree" boostWeight="1.0000000000000000e+00" itree="1325">
      <Node pos="s" depth="0" NCoef="0" IVar="4" Cut="2.2025868296623230e-01" cType="1" res="-3.6963369348086417e-04" rms="4.4889226555824280e-01" purity="4.9848890304565430e-01" nType="0">
        <Node pos="l" depth="1" NCoef="0" IVar="6" Cut="1.1981644630432129e+00" cType="1" res="-1.8445098772644997e-02" rms="4.4710358977317810e-01" purity="4.4110783934593201e-01" nType="0">
          <Node pos="l" depth="2" NCoef="0" IVar="-1" Cut="0.0000000000000000e+00" cType="1" res="-3.1443375628441572e-03" rms="4.5084443688392639e-01" purity="4.5663285255432129e-01" nType="-99"/>
          <Node pos="r" depth="2" NCoef="0" IVar="-1" Cut="0.0000000000000000e+00" cType="1" res="9.4275799347087741e-04" rms="4.4050139188766479e-01" purity="4.2181611061096191e-01" nType="-99"/>
        </Node>
        <Node pos="r" depth="1" NCoef="0" IVar="5" Cut="1.7959356773644686e-03" cType="1" res="4.2080753482878208e-03" rms="4.4922870397567749e-01" purity="5.1302093267440796e-01" nType="0">
          <Node pos="l" depth="2" NCoef="0" IVar="-1" Cut="0.0000000000000000e+00" cType="1" res="-2.2374076070263982e-04" rms="4.4401189684867859e-01" purity="5.6625264883041382e-01" nType="-99"/>
          <Node pos="r" depth="2" NCoef="0" IVar="-1" Cut="0.0000000000000000e+00" cType="1" res="1.1872684117406607e-03" rms="4.5766738057136536e-01" purity="4.2281633615493774e-01" nType="-99"/>
        </Node>
      </Node>
    </BinaryTree>
    <BinaryTree type="DecisionTree" boostWeight="1.0000000000000000e+00" itree="1326">
      <Node pos="s" depth="0" NCoef="0" IVar="0" Cut="-9.1373557224869728e-03" cType="1" res="-2.4319577496498823e-03" rms="4.4835299253463745e-01" purity="5.0142836570739746e-01" nType="0">
        <Node pos="l" depth="1" NCoef="0" IVar="-1" Cut="0.0000000000000000e+00" cType="1" res="1.6011476982384920e-03" rms="4.3754348158836365e-01" purity="3.1242269277572632e-01" nType="-99"/>
        <Node pos="r" depth="1" NCoef="0" IVar="0" Cut="9.6408224105834961e-01" cType="1" res="-4.3945433571934700e-03" rms="4.4937232136726379e-01" purity="5.2032589912414551e-01" nType="0">
          <Node pos="l" depth="2" NCoef="0" IVar="-1" Cut="0.0000000000000000e+00" cType="1" res="-1.5545465284958482e-03" rms="4.4933289289474487e-01" purity="3.4891700744628906e-01" nType="-99"/>
          <Node pos="r" depth="2" NCoef="0" IVar="-1" Cut="0.0000000000000000e+00" cType="1" res="3.0278750273282640e-05" rms="4.4928082823753357e-01" purity="5.7721787691116333e-01" nType="-99"/>
        </Node>
      </Node>
    </BinaryTree>
    <BinaryTree type="DecisionTree" boostWeight="1.0000000000000000e+00" itree="1327">
      <Node pos="s" depth="0" NCoef="0" IVar="7" Cut="3.5597342252731323e-01" cType="1" res="-1.7751494888216257e-03" rms="4.4790515303611755e-01" purity="4.9852809309959412e-01" nType="0">
        <Node pos="l" depth="1" NCoef="0" IVar="-1" Cut="0.0000000000000000e+00" cType="1" res="-2.8274219948798418e-03" rms="4.6457472443580627e-01" purity="4.4557660818099976e-01" nType="-99"/>
        <Node pos="r" depth="1" NCoef="0" IVar="1" Cut="8.9846533536911011e-01" cType="1" res="1.4767833636142313e-04" rms="4.4692602753639221e-01" purity="5.0132125616073608e-01" nType="0">
          <Node pos="l" depth="2" NCoef="0" IVar="-1" Cut="0.0000000000000000e+00" cType="1" res="-7.8961934195831418e-04" rms="4.4741368293762207e-01" purity="3.7473380565643311e-01" nType="-99"/>
          <Node pos="r" depth="2" NCoef="0" IVar="-1" Cut="0.0000000000000000e+00" cType="1" res="6.4118148293346167e-04" rms="4.4631376862525940e-01" purity="6.0971999168395996e-01" nType="-99"/>
        </Node>
      </Node>
    </BinaryTree>
    <BinaryTree type="DecisionTree" boostWeight="1.0000000000000000e+00" itree="1328">
      <Node pos="s" depth="0" NCoef="0" IVar="2" Cut="5.8345550537109375e+02" cType="1" res="2.2841838654130697e-03" rms="4.4463014602661133e-01" purity="5.0711405277252197e-01" nType="0">
        <Node pos="l" depth="1" NCoef="0" IVar="0" Cut="2.7291975021362305e+00" cType="1" res="1.0167348227696493e-04" rms="4.4614195823669434e-01" purity="4.9177780747413635e-01" nType="0">
          <Node pos="l" depth="2" NCoef="0" IVar="-1" Cut="0.0000000000000000e+00" cType="1" res="-4.1609714389778674e-04" rms="4.5084384083747864e-01" purity="4.1778698563575745e-01" nType="-99"/>
          <Node pos="r" depth="2" NCoef="0" IVar="-1" Cut="0.0000000000000000e+00" cType="1" res="1.0387620422989130e-03" rms="4.3279197812080383e-01" purity="6.9202661514282227e-01" nType="-99"/>
        </Node>
        <Node pos="r" depth="1" NCoef="0" IVar="-1" Cut="0.0000000000000000e+00" cType="1" res="2.4782216642051935e-03" rms="4.1919773817062378e-01" purity="7.4357110261917114e-01" nType="-99"/>
      </Node>
    </BinaryTree>
    <BinaryTree type="DecisionTree" boostWeight="1.0000000000000000e+00" itree="1329">
      <Node pos="s" depth="0" NCoef="0" IVar="4" Cut="1.7846545577049255e-01" cType="1" res="4.2792884050868452e-04" rms="4.4944328069686890e-01" purity="5.0254803895950317e-01" nType="0">
        <Node pos="l" depth="1" NCoef="0" IVar="4" Cut="1.2723407149314880e-01" cType="1" res="3.1279399991035461e-02" rms="4.5827022194862366e-01" purity="4.7838366031646729e-01" nType="0">
          <Node pos="l" depth="2" NCoef="0" IVar="-1" Cut="0.0000000000000000e+00" cType="1" res="6.2938441988080740e-04" rms="4.5234867930412292e-01" purity="4.2791363596916199e-01" nType="-99"/>
          <Node pos="r" depth="2" NCoef="0" IVar="-1" Cut="0.0000000000000000e+00" cType="1" res="3.5186901222914457e-03" rms="4.6227166056632996e-01" purity="5.2014094591140747e-01" nType="-99"/>
        </Node>
        <Node pos="r" depth="1" NCoef="0" IVar="6" Cut="1.8757183551788330e+00" cType="1" res="-4.6704979613423347e-03" rms="4.4776317477226257e-01" purity="5.0654143095016479e-01" nType="0">
          <Node pos="l" depth="2" NCoef="0" IVar="-1" Cut="0.0000000000000000e+00" cType="1" res="-4.7187609015963972e-04" rms="4.4931253790855408e-01" purity="5.1186186075210571e-01" nType="-99"/>
          <Node pos="r" depth="2" NCoef="0" IVar="-1" Cut="0.0000000000000000e+00" cType="1" res="1.1148372432217002e-03" rms="4.3120306730270386e-01" purity="4.5231190323829651e-01" nType="-99"/>
        </Node>
      </Node>
    </BinaryTree>
    <BinaryTree type="DecisionTree" boostWeight="1.0000000000000000e+00" itree="1330">
      <Node pos="s" depth="0" NCoef="0" IVar="5" Cut="3.7208767607808113e-03" cType="1" res="-2.9457575874403119e-04" rms="4.5209205150604248e-01" purity="4.9872493743896484e-01" nType="0">
        <Node pos="l" depth="1" NCoef="0" IVar="7" Cut="6.8239253759384155e-01" cType="1" res="-2.3165063466876745e-03" rms="4.5049905776977539e-01" purity="5.0179249048233032e-01" nType="0">
          <Node pos="l" depth="2" NCoef="0" IVar="-1" Cut="0.0000000000000000e+00" cType="1" res="3.2285039196722209e-04" rms="4.5067077875137329e-01" purity="4.6770223975181580e-01" nType="-99"/>
          <Node pos="r" depth="2" NCoef="0" IVar="-1" Cut="0.0000000000000000e+00" cType="1" res="-7.9023500438779593e-04" rms="4.5012742280960083e-01" purity="5.4612481594085693e-01" nType="-99"/>
        </Node>
        <Node pos="r" depth="1" NCoef="0" IVar="-1" Cut="0.0000000000000000e+00" cType="1" res="2.5249610189348459e-03" rms="4.7897249460220337e-01" purity="4.4220834970474243e-01" nType="-99"/>
      </Node>
    </BinaryTree>
    <BinaryTree type="DecisionTree" boostWeight="1.0000000000000000e+00" itree="1331">
      <Node pos="s" depth="0" NCoef="0" IVar="2" Cut="3.4458129882812500e+02" cType="1" res="5.3545157425105572e-04" rms="4.5050305128097534e-01" purity="4.9971571564674377e-01" nType="0">
        <Node pos="l" depth="1" NCoef="0" IVar="7" Cut="6.3230389356613159e-01" cType="1" res="6.0345428064465523e-03" rms="4.4945654273033142e-01" purity="4.3266582489013672e-01" nType="0">
          <Node pos="l" depth="2" NCoef="0" IVar="-1" Cut="0.0000000000000000e+00" cType="1" res="-4.7359647578559816e-04" rms="4.4147413969039917e-01" purity="3.8472089171409607e-01" nType="-99"/>
          <Node pos="r" depth="2" NCoef="0" IVar="-1" Cut="0.0000000000000000e+00" cType="1" res="1.2623561779037118e-03" rms="4.5670130848884583e-01" purity="4.7875958681106567e-01" nType="-99"/>
        </Node>
        <Node pos="r" depth="1" NCoef="0" IVar="6" Cut="1.3900772333145142e+00" cType="1" res="-8.8812494650483131e-03" rms="4.5213419198989868e-01" purity="6.1453270912170410e-01" nType="0">
          <Node pos="l" depth="2" NCoef="0" IVar="-1" Cut="0.0000000000000000e+00" cType="1" res="-1.0840928880497813e-03" rms="4.5387208461761475e-01" purity="6.1081397533416748e-01" nType="-99"/>
          <Node pos="r" depth="2" NCoef="0" IVar="-1" Cut="0.0000000000000000e+00" cType="1" res="1.2261801166459918e-03" rms="4.4423058629035950e-01" purity="6.2909883260726929e-01" nType="-99"/>
        </Node>
      </Node>
    </BinaryTree>
    <BinaryTree type="DecisionTree" boostWeight="1.0000000000000000e+00" itree="1332">
      <Node pos="s" depth="0" NCoef="0" IVar="1" Cut="9.2507934570312500e-01" cType="1" res="-1.2718123616650701e-03" rms="4.4640380144119263e-01" purity="4.9853610992431641e-01" nType="0">
        <Node pos="l" depth="1" NCoef="0" IVar="4" Cut="5.2803021669387817e-01" cType="1" res="-7.4128084816038609e-03" rms="4.5397350192070007e-01" purity="4.0773212909698486e-01" nType="0">
          <Node pos="l" depth="2" NCoef="0" IVar="-1" Cut="0.0000000000000000e+00" cType="1" res="-1.3918553304392844e-04" rms="4.5536324381828308e-01" purity="4.0811467170715332e-01" nType="-99"/>
          <Node pos="r" depth="2" NCoef="0" IVar="-1" Cut="0.0000000000000000e+00" cType="1" res="-1.7650921363383532e-03" rms="4.4936507940292358e-01" purity="4.0658313035964966e-01" nType="-99"/>
        </Node>
        <Node pos="r" depth="1" NCoef="0" IVar="3" Cut="-7.7825978398323059e-02" cType="1" res="1.0641580447554588e-02" rms="4.3109065294265747e-01" purity="6.7469376325607300e-01" nType="0">
          <Node pos="l" depth="2" NCoef="0" IVar="-1" Cut="0.0000000000000000e+00" cType="1" res="-1.4786608517169952e-03" rms="4.4439500570297241e-01" purity="6.0837262868881226e-01" nType="-99"/>
          <Node pos="r" depth="2" NCoef="0" IVar="-1" Cut="0.0000000000000000e+00" cType="1" res="1.3937157345935702e-03" rms="4.2663255333900452e-01" purity="6.9439917802810669e-01" nType="-99"/>
        </Node>
      </Node>
    </BinaryTree>
  </Weights>
</MethodSetup>
